{
    "version": "1.0",
    "truncation": null,
    "padding": null,
    "added_tokens": [
        {
            "id": 0,
            "content": "[UNK]",
            "single_word": false,
            "lstrip": false,
            "rstrip": false,
            "normalized": false,
            "special": true
        },
        {
            "id": 1,
            "content": "[CLS]",
            "single_word": false,
            "lstrip": false,
            "rstrip": false,
            "normalized": false,
            "special": true
        },
        {
            "id": 2,
            "content": "[SEP]",
            "single_word": false,
            "lstrip": false,
            "rstrip": false,
            "normalized": false,
            "special": true
        },
        {
            "id": 3,
            "content": "[PAD]",
            "single_word": false,
            "lstrip": false,
            "rstrip": false,
            "normalized": false,
            "special": true
        },
        {
            "id": 4,
            "content": "[MASK]",
            "single_word": false,
            "lstrip": false,
            "rstrip": false,
            "normalized": false,
            "special": true
        }
    ],
    "normalizer": {
        "type": "Sequence",
        "normalizers": [
            {
                "type": "Nmt"
            },
            {
                "type": "NFKC"
            },
            {
                "type": "Replace",
                "pattern": {
                    "Regex": " {2,}"
                },
                "content": " "
            }
        ]
    },
    "pre_tokenizer": {
        "type": "Metaspace",
        "replacement": "\u2581",
        "prepend_scheme": "always",
        "split": true
    },
    "post_processor": null,
    "decoder": {
        "type": "Metaspace",
        "replacement": "\u2581",
        "prepend_scheme": "always",
        "split": true
    },
    "model": {
        "type": "Unigram",
        "unk_id": null,
        "vocab": [
            [
                "[UNK]",
                0.0
            ],
            [
                "[CLS]",
                0.0
            ],
            [
                "[SEP]",
                0.0
            ],
            [
                "[PAD]",
                0.0
            ],
            [
                "[MASK]",
                0.0
            ],
            [
                "\u2581",
                -3.0298641373388113
            ],
            [
                ",",
                -3.0869057370133213
            ],
            [
                ".",
                -3.6246497189428704
            ],
            [
                "n",
                -3.9024238827878
            ],
            [
                "\u2581und",
                -4.117684644834392
            ],
            [
                "\u2581die",
                -4.228055106709526
            ],
            [
                "en",
                -4.33830879102836
            ],
            [
                "\u2581der",
                -4.351269248869774
            ],
            [
                "s",
                -4.3884175079711465
            ],
            [
                "\u2581zu",
                -4.623779644834085
            ],
            [
                "e",
                -4.68229338419308
            ],
            [
                "\u2581in",
                -4.738280904340105
            ],
            [
                "\u2581das",
                -4.851328578324197
            ],
            [
                "r",
                -5.026513247300344
            ],
            [
                "\u2581ein",
                -5.047480068138065
            ],
            [
                "\u2581ist",
                -5.111592590079765
            ],
            [
                "er",
                -5.126762682359398
            ],
            [
                "\u2581den",
                -5.142302737958586
            ],
            [
                "m",
                -5.15014846426172
            ],
            [
                "t",
                -5.162698102461051
            ],
            [
                "\u2581mit",
                -5.21536738130929
            ],
            [
                ":",
                -5.236316186647273
            ],
            [
                "\u2581von",
                -5.2540343740137505
            ],
            [
                "\u2581sich",
                -5.275028420981112
            ],
            [
                "\u2581nicht",
                -5.295204048869389
            ],
            [
                "\u2581er",
                -5.3169432717834795
            ],
            [
                "\u2581eine",
                -5.357340332481649
            ],
            [
                "\u2581auf",
                -5.373890294745909
            ],
            [
                "\u2581auch",
                -5.4402351618786025
            ],
            [
                "\u2581Sie",
                -5.473900278057342
            ],
            [
                "\u2581f\u00fcr",
                -5.485666464604993
            ],
            [
                "\u2581es",
                -5.648983871640513
            ],
            [
                "\u2581an",
                -5.699777183771885
            ],
            [
                "\u2581im",
                -5.708035440270551
            ],
            [
                "\u2581des",
                -5.737186236814761
            ],
            [
                "ich",
                -5.741002281024756
            ],
            [
                "\u2581sie",
                -5.753118920367742
            ],
            [
                "\u2581als",
                -5.81434579397408
            ],
            [
                "\u2581oder",
                -5.816988535993758
            ],
            [
                "ch",
                -5.821294043928663
            ],
            [
                "\u2581da",
                -5.883092813238488
            ],
            [
                "\u2581dem",
                -5.922115278914241
            ],
            [
                "\u2581seine",
                -5.9799592841767355
            ],
            [
                "\u2581bei",
                -5.985121741725492
            ],
            [
                "ung",
                -5.99675305722457
            ],
            [
                "\u2581aus",
                -6.017915618535829
            ],
            [
                "\u2581Die",
                -6.021966780667718
            ],
            [
                "?",
                -6.052188891374656
            ],
            [
                "\u2581um",
                -6.0941609918473025
            ],
            [
                "\u2581war",
                -6.120281449374269
            ],
            [
                "\u2581vor",
                -6.128197609539142
            ],
            [
                "\u201c",
                -6.130589002535061
            ],
            [
                "\u2581mehr",
                -6.134104722141601
            ],
            [
                "\u2581hat",
                -6.148919123883672
            ],
            [
                "\u2581nach",
                -6.1637089057662315
            ],
            [
                "\u2581aber",
                -6.165266712613004
            ],
            [
                "d",
                -6.2130876435095805
            ],
            [
                "\u2581man",
                -6.230839083948681
            ],
            [
                "\u2581so",
                -6.237568423925674
            ],
            [
                "\u2581diese",
                -6.2388055738775865
            ],
            [
                "\u2581sind",
                -6.24448123562355
            ],
            [
                "\u2581wie",
                -6.256528983388556
            ],
            [
                "\u2581sein",
                -6.260452943519625
            ],
            [
                "\u2581werden",
                -6.333398881396032
            ],
            [
                "es",
                -6.34114185768589
            ],
            [
                "\u2581wird",
                -6.367639872756357
            ],
            [
                "\u2581\u00fcber",
                -6.373376565461539
            ],
            [
                "lich",
                -6.378376754546901
            ],
            [
                "\u2581Da",
                -6.3973196137534165
            ],
            [
                "\u2581Und",
                -6.407034389467682
            ],
            [
                "\u2581\u2013",
                -6.41245738354987
            ],
            [
                "\u2581E",
                -6.42016371757467
            ],
            [
                "\u2581I",
                -6.420626413686231
            ],
            [
                "\u2581einer",
                -6.43171462746773
            ],
            [
                "en.",
                -6.51445837600229
            ],
            [
                "\u2581andere",
                -6.536678272982263
            ],
            [
                "\u2581S",
                -6.5368241684389385
            ],
            [
                "\u2581kann",
                -6.554274573205526
            ],
            [
                "\u2581ge",
                -6.554561819168697
            ],
            [
                "\u2581noch",
                -6.554819137535243
            ],
            [
                "a",
                -6.568610158526823
            ],
            [
                "\u2581Der",
                -6.580179025218517
            ],
            [
                "\u2581Er",
                -6.5850625562515965
            ],
            [
                "-",
                -6.602863968586767
            ],
            [
                "\u2581wenn",
                -6.607295482168887
            ],
            [
                "\u2581In",
                -6.620655039008444
            ],
            [
                "\u2581mich",
                -6.627734194092167
            ],
            [
                "\u2581Das",
                -6.637270483301137
            ],
            [
                "\u2581(",
                -6.648576000709323
            ],
            [
                "\u2581haben",
                -6.660575486763697
            ],
            [
                "\u2581wurde",
                -6.663477230287985
            ],
            [
                "\u201d",
                -6.676634354424248
            ],
            [
                "\u2581zum",
                -6.687192319447346
            ],
            [
                "\u2581immer",
                -6.687415428014013
            ],
            [
                "\u2581was",
                -6.7006800291703525
            ],
            [
                "der",
                -6.707819192406731
            ],
            [
                "\u2581nur",
                -6.725361140394432
            ],
            [
                "\u2581wir",
                -6.729928864947189
            ],
            [
                "\u2581bis",
                -6.738357313475723
            ],
            [
                "\u2581B",
                -6.745052896006975
            ],
            [
                "und",
                -6.745310851036674
            ],
            [
                "\u2581Hoffmann",
                -6.746559858985863
            ],
            [
                "in",
                -6.754771417612975
            ],
            [
                "\u2581Ring",
                -6.790480070099959
            ],
            [
                "\u2581be",
                -6.791779051933238
            ],
            [
                "\u2581du",
                -6.804418136382411
            ],
            [
                "st",
                -6.805468613975712
            ],
            [
                "l",
                -6.831236844852901
            ],
            [
                "\u2581zur",
                -6.834767993555046
            ],
            [
                ")",
                -6.835966442685436
            ],
            [
                "i",
                -6.850309211991437
            ],
            [
                "\u2581Ihre",
                -6.852866056877823
            ],
            [
                "\u2581am",
                -6.852882580222323
            ],
            [
                "em",
                -6.857652202889385
            ],
            [
                "\u2581mir",
                -6.869958275369978
            ],
            [
                "\u00c3\u0178",
                -6.880709380885345
            ],
            [
                "\u2581ihm",
                -6.884862790187679
            ],
            [
                "\u2581K",
                -6.906252199786909
            ],
            [
                "\u2581dann",
                -6.914073110210293
            ],
            [
                "\u2581unter",
                -6.915096451414749
            ],
            [
                "\u2581David",
                -6.923396075945926
            ],
            [
                "mal",
                -6.962463532702826
            ],
            [
                "\u2581hatte",
                -6.967363521842438
            ],
            [
                "\u2581ihre",
                -6.9719486353881255
            ],
            [
                "\u2581Boxen",
                -6.975374755203506
            ],
            [
                "te",
                -6.977827080730773
            ],
            [
                "\u2581Ein",
                -6.980930283761972
            ],
            [
                "\u2581\u201e",
                -6.983311433302658
            ],
            [
                ";",
                -6.987328462280409
            ],
            [
                "\u2581meine",
                -6.992875035556921
            ],
            [
                "\u2581Zeit",
                -7.0087742054792415
            ],
            [
                "\u2581W",
                -7.0105217893084815
            ],
            [
                "\u2581selbst",
                -7.018379650301879
            ],
            [
                "\u2581An",
                -7.018410672541913
            ],
            [
                "\u2581uns",
                -7.032981186450592
            ],
            [
                "!",
                -7.044535371656146
            ],
            [
                "\u2581Entwicklung",
                -7.046166342124122
            ],
            [
                "\u2581ab",
                -7.047881449729109
            ],
            [
                "\u2581Kind",
                -7.064735602128786
            ],
            [
                "einen",
                -7.072271221326583
            ],
            [
                "\u2581durch",
                -7.076177733400999
            ],
            [
                "\u2581ihn",
                -7.09142709410135
            ],
            [
                "\u2581sagt",
                -7.093196349220982
            ],
            [
                "x",
                -7.096840713837272
            ],
            [
                "\u2581G",
                -7.100451658282772
            ],
            [
                "\u2581viele",
                -7.102287359091681
            ],
            [
                "\u2581Es",
                -7.1066288426690996
            ],
            [
                "um",
                -7.111397417160115
            ],
            [
                "\u2581Kinder",
                -7.112509361757923
            ],
            [
                "\u2581viel",
                -7.1214565084831705
            ],
            [
                "\u2581gegen",
                -7.137748860592844
            ],
            [
                "\u2581ver",
                -7.140132336087959
            ],
            [
                "\u2581habe",
                -7.149875586802754
            ],
            [
                "ten",
                -7.155907865292008
            ],
            [
                "\u2581weil",
                -7.173988482251263
            ],
            [
                "\u2581A",
                -7.194722843467667
            ],
            [
                "\u2581Jahre",
                -7.197163949682721
            ],
            [
                "\u2581un",
                -7.198866929947476
            ],
            [
                "\u2581keine",
                -7.203101779628929
            ],
            [
                "\u2581d",
                -7.209512522392764
            ],
            [
                "\u2581wieder",
                -7.2104569411954795
            ],
            [
                "\u2581Gartmann",
                -7.235697227538665
            ],
            [
                "\u2581alle",
                -7.2420484642768725
            ],
            [
                "\u2581Ver",
                -7.253821927692355
            ],
            [
                "f",
                -7.257201732836773
            ],
            [
                "\u2581ihr",
                -7.260335785652336
            ],
            [
                "\u2581T",
                -7.267568373547647
            ],
            [
                "\u2581Gabapentin",
                -7.271422077771161
            ],
            [
                "ohne",
                -7.272203105503642
            ],
            [
                "\u2581Daten",
                -7.282624646806367
            ],
            [
                "t.",
                -7.282947953086335
            ],
            [
                "\u2581k\u00f6nnen",
                -7.292802837909527
            ],
            [
                "\u2581M",
                -7.300228280002694
            ],
            [
                "\u2581Welt",
                -7.30872948492862
            ],
            [
                "\u2581Kai",
                -7.3093334472327545
            ],
            [
                "seit",
                -7.309650221890671
            ],
            [
                "\u2581Ihr",
                -7.32290031992811
            ],
            [
                "\u2581Wie",
                -7.323163312022714
            ],
            [
                "\u2581So",
                -7.323335158226477
            ],
            [
                "den",
                -7.332552537718858
            ],
            [
                "\u2581D",
                -7.336949633937634
            ],
            [
                "n.",
                -7.344883557875374
            ],
            [
                "\u2581Ihnen",
                -7.346714887578921
            ],
            [
                "\u00df",
                -7.347427415921773
            ],
            [
                "\u2581hier",
                -7.348874909875583
            ],
            [
                "\u2581Menschen",
                -7.350823595060637
            ],
            [
                "\u2581schon",
                -7.350943744774138
            ],
            [
                "\u2581Jahren",
                -7.362777452553507
            ],
            [
                "\u2581Wen",
                -7.371399592417749
            ],
            [
                "\u2581Wir",
                -7.3878313334453285
            ],
            [
                "y",
                -7.396143304244827
            ],
            [
                "\u2581Ab",
                -7.401261667485419
            ],
            [
                "\u2581hin",
                -7.4021349433212364
            ],
            [
                "\u2581eines",
                -7.4134856102784035
            ],
            [
                "\u2581Be",
                -7.415506797834759
            ],
            [
                "\u2581Im",
                -7.415710694823021
            ],
            [
                "\u2581Manager",
                -7.42577228862971
            ],
            [
                "\u2581jetzt",
                -7.42831683947953
            ],
            [
                "\u2581gibt",
                -7.429666831466289
            ],
            [
                "zu",
                -7.445619804474263
            ],
            [
                "ungen",
                -7.46197942045119
            ],
            [
                "ge",
                -7.462688925127505
            ],
            [
                "\u2581Auf",
                -7.463978530485255
            ],
            [
                "\u2581ob",
                -7.476697917093308
            ],
            [
                "ar",
                -7.47946702922396
            ],
            [
                "\u2581einmal",
                -7.481938979339493
            ],
            [
                "\u2581waren",
                -7.486884927823377
            ],
            [
                "\u2581erst",
                -7.502775510071592
            ],
            [
                "b",
                -7.505110506027876
            ],
            [
                "\u2581Arzt",
                -7.512900759268986
            ],
            [
                "de",
                -7.513488074940486
            ],
            [
                "\u2581geht",
                -7.5216594010736975
            ],
            [
                ").",
                -7.521772580203585
            ],
            [
                "h",
                -7.52863550072659
            ],
            [
                "\u2581werden.",
                -7.533263828977145
            ],
            [
                "\u2581Ge",
                -7.535961170628093
            ],
            [
                "\u2581\u201eTo",
                -7.538499162566315
            ],
            [
                "\u2581ganz",
                -7.557427822576628
            ],
            [
                "\u2581also",
                -7.570215027583126
            ],
            [
                "\u2581will",
                -7.57058088041938
            ],
            [
                "\u2581sonder",
                -7.573414619909593
            ],
            [
                "\u2581N",
                -7.5809405316630745
            ],
            [
                "\u2581zwei",
                -7.581844145071546
            ],
            [
                "\u2581nie",
                -7.587262166391578
            ],
            [
                "g",
                -7.5923719120873745
            ],
            [
                "\u2581erste",
                -7.601230403772185
            ],
            [
                "och",
                -7.602730210148122
            ],
            [
                "\u2581drei",
                -7.614596144185568
            ],
            [
                "\u2581Kampf",
                -7.614787595874224
            ],
            [
                "\u2581mein",
                -7.631112317983894
            ],
            [
                "\u2581wo",
                -7.632344195655687
            ],
            [
                "hrend",
                -7.636476658162988
            ],
            [
                "...",
                -7.639340763109049
            ],
            [
                "\u2581gut",
                -7.6404506160739185
            ],
            [
                "\u2581ihnen",
                -7.642430529178988
            ],
            [
                "\u2581Wer",
                -7.649863392011035
            ],
            [
                "\u2581O",
                -7.652564365521183
            ],
            [
                "\u2581alles",
                -7.654635336616005
            ],
            [
                "\u2581R",
                -7.658978515880895
            ],
            [
                "\u2581F",
                -7.662007701038898
            ],
            [
                "\u2581Nach",
                -7.66266214360101
            ],
            [
                "\u2581heute",
                -7.6681178302389625
            ],
            [
                "\u2581wurden",
                -7.668136912856423
            ],
            [
                "o",
                -7.6751579941656
            ],
            [
                "\u2581Deutschland",
                -7.679347814864448
            ],
            [
                "\u2581Am",
                -7.68302265362445
            ],
            [
                "lichen",
                -7.684288569165976
            ],
            [
                "\u2581sei",
                -7.686808586069791
            ],
            [
                "\u2581P",
                -7.688767706473986
            ],
            [
                "\u2581Zu",
                -7.688830179862466
            ],
            [
                "\u2581kommt",
                -7.712147367853682
            ],
            [
                "z",
                -7.713655752217456
            ],
            [
                "\u2581damit",
                -7.725527358811049
            ],
            [
                "k",
                -7.726166447859728
            ],
            [
                "\u2581dazu",
                -7.728636851754791
            ],
            [
                "\u2581Aus",
                -7.733921441663801
            ],
            [
                "\u2581steht",
                -7.734446853546375
            ],
            [
                "\u2581neue",
                -7.736536506484628
            ],
            [
                "\u2581dich",
                -7.747804006435117
            ],
            [
                "\u2581unsere",
                -7.762857690852095
            ],
            [
                "\u2581Tag",
                -7.769089159046743
            ],
            [
                "\u2581Leben",
                -7.769633447761471
            ],
            [
                "\u2581ging",
                -7.77088386226571
            ],
            [
                "\u2581ins",
                -7.773004422256246
            ],
            [
                "ie",
                -7.775705180654948
            ],
            [
                "\u2581Kindern",
                -7.779637381926847
            ],
            [
                "\u2581wirklich",
                -7.781260128748066
            ],
            [
                "\u2581sehr",
                -7.781469925842955
            ],
            [
                "\u2581Vor",
                -7.783700110914435
            ],
            [
                "ischen",
                -7.7841411946742
            ],
            [
                "\u2581etwas",
                -7.784530914623694
            ],
            [
                "\u2581zur\u00fcck",
                -7.786331007739166
            ],
            [
                "ieren",
                -7.787540125970792
            ],
            [
                "\u2581Z",
                -7.791270523444362
            ],
            [
                "\u2581kam",
                -7.791745087476171
            ],
            [
                "\u2581Au",
                -7.798283279979269
            ],
            [
                "\u25812",
                -7.800178189821251
            ],
            [
                "\u2581ja",
                -7.801788531359984
            ],
            [
                "\u2581ist.",
                -7.805637790884729
            ],
            [
                "\u2581weiter",
                -7.8174612257873175
            ],
            [
                "am",
                -7.827725974167824
            ],
            [
                "rre",
                -7.828364672938853
            ],
            [
                "\u2581sprach",
                -7.8314251606588385
            ],
            [
                "\u2581Mit",
                -7.834304748731071
            ],
            [
                "vom",
                -7.838371382780246
            ],
            [
                "\u2581einfach",
                -7.840055240989609
            ],
            [
                "\"",
                -7.84029765154837
            ],
            [
                "\u2581Europa",
                -7.8436663466841114
            ],
            [
                "\u2581Als",
                -7.848411251667686
            ],
            [
                "her",
                -7.853938919642952
            ],
            [
                "an",
                -7.8672883825010125
            ],
            [
                "iert",
                -7.873844192609344
            ],
            [
                "\u2581Mann",
                -7.877726387191108
            ],
            [
                "\u2581tun",
                -7.8864619535136224
            ],
            [
                "halb",
                -7.893874666462729
            ],
            [
                "\u2581Uria",
                -7.897969629313462
            ],
            [
                "nde",
                -7.903841923521034
            ],
            [
                "\u2581Mal",
                -7.917516714561275
            ],
            [
                "ma",
                -7.92149356692226
            ],
            [
                "u",
                -7.922090077402366
            ],
            [
                "\u2581neu",
                -7.923694511283276
            ],
            [
                "\u2581eigene",
                -7.927237533525753
            ],
            [
                "sten",
                -7.932942491659265
            ],
            [
                "\u2581dies",
                -7.93581917695527
            ],
            [
                "chen",
                -7.936120738551537
            ],
            [
                "\u2581Sch",
                -7.942739325133517
            ],
            [
                "\u2581gehen",
                -7.945803867353099
            ],
            [
                "ig",
                -7.946359794702266
            ],
            [
                "\u258118",
                -7.952729107477641
            ],
            [
                "\u2581Diese",
                -7.9545312258551615
            ],
            [
                "\u2581jede",
                -7.959025844264351
            ],
            [
                "\u2581soll",
                -7.960996245133789
            ],
            [
                "\u2581hinaus",
                -7.961211721903268
            ],
            [
                "p",
                -7.962505985734742
            ],
            [
                "heit",
                -7.979096363386392
            ],
            [
                "\u2581Geschichte",
                -7.981756142542204
            ],
            [
                "\u2581Beobachtung",
                -7.981757608047061
            ],
            [
                "\u2581konnte",
                -7.9817857311947185
            ],
            [
                "\u2581Angst",
                -7.9818009330976105
            ],
            [
                "\u2581Joab",
                -7.981824446945472
            ],
            [
                "\u2581sandte",
                -7.981885036883079
            ],
            [
                "\u2581solche",
                -7.982815744270377
            ],
            [
                "\u2581Stadt",
                -7.984699875956082
            ],
            [
                "\u2581kein",
                -7.984911974227024
            ],
            [
                "\u2581Was",
                -7.989816298066131
            ],
            [
                "\u2581Boxer",
                -7.990241221528741
            ],
            [
                "\u2581denn",
                -7.997934013090574
            ],
            [
                "\u2581Jahr",
                -8.000545281053554
            ],
            [
                "\u2581\u201eDa",
                -8.005545126485927
            ],
            [
                "\u2581w\u00e4",
                -8.006450195903195
            ],
            [
                "/",
                -8.006962122629204
            ],
            [
                "igen",
                -8.008521234433287
            ],
            [
                "\u2581Haus",
                -8.012247878100442
            ],
            [
                "\u2581Fahr",
                -8.014225220294135
            ],
            [
                "\u2581wi",
                -8.019163759687187
            ],
            [
                "\u2581lassen",
                -8.02159324901294
            ],
            [
                "\u2581sollte",
                -8.028450375951888
            ],
            [
                "\u2581sagte",
                -8.029188514867494
            ],
            [
                "\u2581Bei",
                -8.029605867247414
            ],
            [
                "\u2581Weib",
                -8.030169054948743
            ],
            [
                "\u2581Familie",
                -8.035311001485233
            ],
            [
                "\u2581V",
                -8.039779183265212
            ],
            [
                "be",
                -8.04039767036616
            ],
            [
                "\u2581wei\u00df",
                -8.04244883818938
            ],
            [
                "\u2581Verhalten",
                -8.045487333359468
            ],
            [
                "\u2581Um",
                -8.050661401584915
            ],
            [
                "einander",
                -8.058695754375062
            ],
            [
                "or",
                -8.0596645516097
            ],
            [
                "\u2581hast",
                -8.060848753797103
            ],
            [
                "\u2581Hier",
                -8.061088654049044
            ],
            [
                "c",
                -8.061755171667604
            ],
            [
                "igkeit",
                -8.062188571883548
            ],
            [
                "\u2581macht",
                -8.065942349261164
            ],
            [
                "\u2581w\u00fcrde",
                -8.071603192027677
            ],
            [
                "\u2581sagen",
                -8.080098609741414
            ],
            [
                "\u2581tat",
                -8.080201493051089
            ],
            [
                "sch",
                -8.083740883513526
            ],
            [
                "ing",
                -8.096288334695252
            ],
            [
                "\u2581zwischen",
                -8.101622988730648
            ],
            [
                "zug",
                -8.108157598840881
            ],
            [
                "v",
                -8.11900973447527
            ],
            [
                "\u2581kommen",
                -8.13425657341855
            ],
            [
                "\u2581eben",
                -8.134608106980293
            ],
            [
                "\u2581g",
                -8.135405309576381
            ],
            [
                "\u2581verschiedene",
                -8.142010697846432
            ],
            [
                "\u2581Ammon",
                -8.142015482833298
            ],
            [
                "\u2581Seit",
                -8.142219601141973
            ],
            [
                "\u2581Beispiel",
                -8.142279573101849
            ],
            [
                "\u2581Syrer",
                -8.142321629990466
            ],
            [
                "\u2581wollte",
                -8.143486612920839
            ],
            [
                "\u2581Zahlen",
                -8.145275748653733
            ],
            [
                "\u2581daf\u00fcr",
                -8.14532159300965
            ],
            [
                "\u2581dabei",
                -8.146211390392223
            ],
            [
                "\u2581deine",
                -8.146473606297167
            ],
            [
                "\u2581oft",
                -8.147483208852702
            ],
            [
                "bar",
                -8.148099400966426
            ],
            [
                "al",
                -8.151543515958389
            ],
            [
                "\u2581richtig",
                -8.152330155011668
            ],
            [
                "\u258110",
                -8.152634395894204
            ],
            [
                "\u2581dir",
                -8.160521504430733
            ],
            [
                "\u2581pa",
                -8.160819767643199
            ],
            [
                "\u2581b",
                -8.163309279567688
            ],
            [
                "\u2581Hause",
                -8.16715881733544
            ],
            [
                "\u2581direkt",
                -8.168888950389553
            ],
            [
                "\u2581Ma",
                -8.169869119520662
            ],
            [
                "bei",
                -8.177794233172769
            ],
            [
                "\u2581bin",
                -8.178216811643289
            ],
            [
                "\u2581Teil",
                -8.178875150361025
            ],
            [
                "\u2581Eine",
                -8.178950911274518
            ],
            [
                "\u2581Man",
                -8.180670931386057
            ],
            [
                "\u2581\u201eI",
                -8.18167640031756
            ],
            [
                "\u2581Ziel",
                -8.183785710766452
            ],
            [
                "el",
                -8.190532183951493
            ],
            [
                "\u2581U",
                -8.191833061405672
            ],
            [
                "ige",
                -8.192341451428483
            ],
            [
                "andlung",
                -8.200924328756496
            ],
            [
                "\u2581\"",
                -8.206573323566424
            ],
            [
                "\u2581wenig",
                -8.210631680517878
            ],
            [
                "los",
                -8.212157713770436
            ],
            [
                "ab",
                -8.2125628666607
            ],
            [
                "00",
                -8.217305407396843
            ],
            [
                "\u2581Du",
                -8.224323211518465
            ],
            [
                "\u25813",
                -8.22737296468761
            ],
            [
                "\u2581Buch",
                -8.230647296189295
            ],
            [
                "\u2581islamische",
                -8.232919412486304
            ],
            [
                "\u2581Israel",
                -8.232919423969099
            ],
            [
                "\u2581F\u00fchrungskr\u00e4fte",
                -8.232920165066687
            ],
            [
                "\u2581Theorie",
                -8.23292312262965
            ],
            [
                "\u2581Boxring",
                -8.232938815630208
            ],
            [
                "\u2581Parfum",
                -8.23294358416173
            ],
            [
                "\u2581Durch",
                -8.232946710421768
            ],
            [
                "\u2581Mutter",
                -8.23298887654034
            ],
            [
                "\u2581fast",
                -8.233195989847875
            ],
            [
                "platz",
                -8.237427623958354
            ],
            [
                "and",
                -8.238055167055494
            ],
            [
                "\u2581heraus",
                -8.238370858891116
            ],
            [
                "\u2581gesagt",
                -8.238588059135376
            ],
            [
                "\u2581weniger",
                -8.240317702500072
            ],
            [
                "\u2581wollen",
                -8.241596714000027
            ],
            [
                "gar",
                -8.243019148842572
            ],
            [
                "\u2581erlebt",
                -8.245360611377663
            ],
            [
                "\u2581Vo",
                -8.245679095874163
            ],
            [
                "\u2581nicht.",
                -8.247317299603434
            ],
            [
                "\u2581Nu",
                -8.250475024365098
            ],
            [
                "\u2581zusammen",
                -8.25079070513152
            ],
            [
                "\u2581entwickeln",
                -8.252118413004949
            ],
            [
                "P",
                -8.254717433473234
            ],
            [
                "ber",
                -8.256741149334045
            ],
            [
                "\u2581machen",
                -8.263517653081768
            ],
            [
                "ter",
                -8.263556078689511
            ],
            [
                "dem",
                -8.264488658359108
            ],
            [
                "\u2581gro\u00dfe",
                -8.264865151227593
            ],
            [
                "\u2581nun",
                -8.266117792294398
            ],
            [
                "\u2581Selbst",
                -8.267144692590426
            ],
            [
                "\u2581aller",
                -8.269035082995687
            ],
            [
                "\u2581sind.",
                -8.269163205208866
            ],
            [
                "\u2581The",
                -8.273771013157543
            ],
            [
                "\u2581Tage",
                -8.27597545547502
            ],
            [
                "\u2581m\u00f6chte",
                -8.276275409381412
            ],
            [
                "\u2581Beh",
                -8.279106549208056
            ],
            [
                "\u2581Me",
                -8.279532110933722
            ],
            [
                "\u2581a",
                -8.280464210150784
            ],
            [
                "ist",
                -8.283799483970135
            ],
            [
                "genommen",
                -8.29239932594907
            ],
            [
                "\u2581wird.",
                -8.293665354389997
            ],
            [
                "\u2581ausge",
                -8.297708457447914
            ],
            [
                "\u2581k",
                -8.300385650530124
            ],
            [
                "\u2581-",
                -8.301566857209941
            ],
            [
                "re",
                -8.301627659336061
            ],
            [
                "9",
                -8.301742092414699
            ],
            [
                "\u2581H",
                -8.303917609782705
            ],
            [
                "ll",
                -8.310265596023157
            ],
            [
                "5",
                -8.310558723882771
            ],
            [
                "\u2581Knechte",
                -8.312505346880878
            ],
            [
                "\u2581k\u00f6rperliche",
                -8.31637448392442
            ],
            [
                "ang",
                -8.317007455650508
            ],
            [
                "\u2581denen",
                -8.321750212327913
            ],
            [
                "ste",
                -8.327628820636042
            ],
            [
                "0",
                -8.329640669355877
            ],
            [
                "\u2581Imhoof",
                -8.332919405120531
            ],
            [
                "\u2581Nebenwirkungen",
                -8.332933328046108
            ],
            [
                "\u2581sechs",
                -8.332943868815555
            ],
            [
                "\u2581Kunststoff",
                -8.332952430224537
            ],
            [
                "\u2581Islam",
                -8.333233053600619
            ],
            [
                "\u2581steigen",
                -8.334702441964092
            ],
            [
                "\u2581\u00dcber",
                -8.335861939985477
            ],
            [
                "\u2581k\u00f6nnte",
                -8.336247970468023
            ],
            [
                "\u2581davon",
                -8.336978760762985
            ],
            [
                "he",
                -8.337759790167546
            ],
            [
                "\u2581besser",
                -8.337908766579648
            ],
            [
                "le",
                -8.337952585465025
            ],
            [
                "\u2581Solingen",
                -8.339033598987594
            ],
            [
                "\u2581junge",
                -8.339105325957146
            ],
            [
                "\u2581zeigt",
                -8.339985772095133
            ],
            [
                "\u2581lange",
                -8.348049068396545
            ],
            [
                "\u2581damals",
                -8.350644848752573
            ],
            [
                "\u2581Augen",
                -8.352522603671908
            ],
            [
                "se",
                -8.35255653372634
            ],
            [
                "\u2581F\u00fc",
                -8.353425171769292
            ],
            [
                "\u2581C",
                -8.355993214359067
            ],
            [
                "mit",
                -8.361024172319643
            ],
            [
                "nd",
                -8.364481511585177
            ],
            [
                "essen",
                -8.364800516524157
            ],
            [
                "\u2581Angriff",
                -8.365016582297585
            ],
            [
                "e.",
                -8.365514665918075
            ],
            [
                "T",
                -8.369481380779886
            ],
            [
                "ss",
                -8.382990084748736
            ],
            [
                "\u258120",
                -8.384223433524244
            ],
            [
                "\u2581Gegner",
                -8.3856326023357
            ],
            [
                "\u2581Do",
                -8.392321062565369
            ],
            [
                "\u2581L",
                -8.397360391741831
            ],
            [
                "A",
                -8.398761744710649
            ],
            [
                "keit",
                -8.40873991321865
            ],
            [
                "\u2581nichts",
                -8.411979029716427
            ],
            [
                "3",
                -8.412440516244665
            ],
            [
                "\u2581werde",
                -8.42114417845164
            ],
            [
                "\u2581deutsche",
                -8.422783210520935
            ],
            [
                "us",
                -8.424895722213417
            ],
            [
                "\u2581welche",
                -8.432559573092902
            ],
            [
                "im",
                -8.435162457351012
            ],
            [
                "\u2581all",
                -8.437202500013015
            ],
            [
                "gab",
                -8.439640898630064
            ],
            [
                "\u2581Un",
                -8.44209300273819
            ],
            [
                "\u2581muslimische",
                -8.444030516605299
            ],
            [
                "\u2581Faktoren",
                -8.444034961992008
            ],
            [
                "\u2581Frankfurt",
                -8.444047762142466
            ],
            [
                "\u2581Sport",
                -8.444076073822881
            ],
            [
                "\u2581Streit",
                -8.444085427410725
            ],
            [
                "tausend",
                -8.444104013482644
            ],
            [
                "\u2581eigentlich",
                -8.444213540911017
            ],
            [
                "\u2581genau",
                -8.444244756142517
            ],
            [
                "\u2581Gesicht",
                -8.444248052954316
            ],
            [
                "\u2581darauf",
                -8.444654578767217
            ],
            [
                "\u2581Sohn",
                -8.444830660588428
            ],
            [
                "\u2581Sonne",
                -8.445324610901876
            ],
            [
                "\u2581sowie",
                -8.445369869086479
            ],
            [
                "\u2581christliche",
                -8.446839110554095
            ],
            [
                "\u2581Den",
                -8.448379755135825
            ],
            [
                "\u2581Tat",
                -8.44849213471204
            ],
            [
                "\u2581Lage",
                -8.448971716292858
            ],
            [
                "\u2581wahr",
                -8.449877942538599
            ],
            [
                "\u25812014",
                -8.450222594802016
            ],
            [
                "\u2581dort",
                -8.450883764694577
            ],
            [
                "\u2581Weil",
                -8.451012133850591
            ],
            [
                "falls",
                -8.451547402586131
            ],
            [
                "R",
                -8.451645481012502
            ],
            [
                "s\u00e4ch",
                -8.4532960189709
            ],
            [
                "weise",
                -8.453857668473837
            ],
            [
                "\u2581verloren",
                -8.454010549921902
            ],
            [
                "\u2581nehmen",
                -8.45431948068321
            ],
            [
                "\u2581kleine",
                -8.455441966944099
            ],
            [
                "\u2581K\u00f6rper",
                -8.455576837123886
            ],
            [
                "\u2581ange",
                -8.45577725188678
            ],
            [
                "\u2581sozialen",
                -8.456198802270631
            ],
            [
                "\u2581jed",
                -8.457060861866886
            ],
            [
                "\u2581finden",
                -8.45731678466394
            ],
            [
                "\u2581sp\u00e4ter",
                -8.458124467896177
            ],
            [
                "\u2581Ja",
                -8.458419469398592
            ],
            [
                "\u2581machte",
                -8.461885859325118
            ],
            [
                "\u2581entwickelt",
                -8.463153330147062
            ],
            [
                "mals",
                -8.463562074460517
            ],
            [
                "\u2581l\u00e4sst",
                -8.464235462355155
            ],
            [
                "at",
                -8.465042015352138
            ],
            [
                "stand",
                -8.465086015026646
            ],
            [
                "\u2581k\u00f6rperlichen",
                -8.469621980052306
            ],
            [
                "\u2581f",
                -8.47087795901706
            ],
            [
                "\u2581zweite",
                -8.47358402467895
            ],
            [
                "\u2581Ra",
                -8.478158061528838
            ],
            [
                "\u2581bekommen",
                -8.481001196070725
            ],
            [
                "wohl",
                -8.483632044893422
            ],
            [
                "ische",
                -8.484180133344367
            ],
            [
                "\u2581Arbeit",
                -8.486924818828776
            ],
            [
                "\u2581La",
                -8.496157036616966
            ],
            [
                "ein",
                -8.5019321250862
            ],
            [
                "\u2581Unter",
                -8.50792569096336
            ],
            [
                "\u2581M\u00e4nner",
                -8.51178505977165
            ],
            [
                "\u2581Di",
                -8.512289505400345
            ],
            [
                "\u2581Konflikt",
                -8.514762038215618
            ],
            [
                "s.",
                -8.515245537157757
            ],
            [
                "\u2581de",
                -8.517556253614755
            ],
            [
                "\u2581stehen",
                -8.51797891463099
            ],
            [
                "\u2581sicher",
                -8.535098797332829
            ],
            [
                "treten",
                -8.535553904831758
            ],
            [
                "\u2581Arbeits",
                -8.536139225461959
            ],
            [
                "ol",
                -8.537492381306022
            ],
            [
                "die",
                -8.545271855039312
            ],
            [
                "fen",
                -8.545726466354584
            ],
            [
                "\u2581Frage",
                -8.547627370710675
            ],
            [
                "\u2581Probleme",
                -8.548470245432028
            ],
            [
                "\u2581Mittel",
                -8.554540853723564
            ],
            [
                "\u2581schnell",
                -8.557211892958005
            ],
            [
                "sche",
                -8.557845540141706
            ],
            [
                "\u2581euch",
                -8.565329151648552
            ],
            [
                "\u2581m\u00f6glich",
                -8.568524020652708
            ],
            [
                "\u2581Hand",
                -8.568662317645426
            ],
            [
                "arbeit",
                -8.56879635943123
            ],
            [
                "\u2581HERR",
                -8.568957818526052
            ],
            [
                "\u2019",
                -8.56903051623071
            ],
            [
                "\u2581London",
                -8.569030555857076
            ],
            [
                "\u2581Dezember",
                -8.569030577200012
            ],
            [
                "\u2581hervorragend",
                -8.56903111899215
            ],
            [
                "\u2581B\u00fcro",
                -8.569031166985509
            ],
            [
                "\u2581Volk",
                -8.569031670465314
            ],
            [
                "\u2581Eltern",
                -8.56903183426936
            ],
            [
                "\u2581Blick",
                -8.569034016540423
            ],
            [
                "\u2581Prozent",
                -8.569034267948856
            ],
            [
                "\u2581Speicher",
                -8.56903446249155
            ],
            [
                "\u2581externe",
                -8.569036696291484
            ],
            [
                "\u2581h\u00e4tte",
                -8.569038933703897
            ],
            [
                "\u2581Gesamt",
                -8.569049472361245
            ],
            [
                "\u2581Vater",
                -8.569071247650319
            ],
            [
                "\u2581T\u00fcrken",
                -8.569073855037272
            ],
            [
                "\u2581sofort",
                -8.569153061786663
            ],
            [
                "\u2581Peter",
                -8.56916958874859
            ],
            [
                "\u2581Million",
                -8.569209137044865
            ],
            [
                "\u2581Information",
                -8.5692229558264
            ],
            [
                "\u2581Gest\u00e4ndnis",
                -8.569226110942312
            ],
            [
                "\u2581nat\u00fcrlich",
                -8.569261780787762
            ],
            [
                "\u2581Einnahme",
                -8.569442640488706
            ],
            [
                "\u2581liegt",
                -8.570136963612415
            ],
            [
                "schaft",
                -8.570420365718249
            ],
            [
                "\u2581bleibt",
                -8.570615088601098
            ],
            [
                "\u2581Fall",
                -8.570801248751838
            ],
            [
                "\u2581vier",
                -8.571460827977386
            ],
            [
                "ner",
                -8.571939123025315
            ],
            [
                "\u2581Christen",
                -8.573106585110034
            ],
            [
                "\u2581m\u00fcssen",
                -8.573648809231429
            ],
            [
                "\u2581Unternehmen",
                -8.574665831239503
            ],
            [
                "\u2581erhalten",
                -8.574757661111054
            ],
            [
                "\u2581Le",
                -8.575990806514849
            ],
            [
                "\u2581Leib",
                -8.577920928953512
            ],
            [
                "\u25812013",
                -8.578555396880303
            ],
            [
                "\u2581Schreib",
                -8.578669408095564
            ],
            [
                "\u2581gemacht",
                -8.578855964050538
            ],
            [
                "\u2581Dar\u00fcber",
                -8.579024144211845
            ],
            [
                "\u2581Muslime",
                -8.579151531459615
            ],
            [
                "\u2581hatten",
                -8.579534268826166
            ],
            [
                "\u2581haben.",
                -8.579825262651982
            ],
            [
                "\u2581ent",
                -8.581109938146177
            ],
            [
                "\u2581bieten",
                -8.582902022271831
            ],
            [
                "\u2581meisten",
                -8.585184547493956
            ],
            [
                "liche",
                -8.587997535911478
            ],
            [
                "\u2581findet",
                -8.588017478306478
            ],
            [
                "\u2581Deutsche",
                -8.588712248768845
            ],
            [
                "\u2581glaubt",
                -8.588739669390982
            ],
            [
                "\u2581inner",
                -8.589334442905372
            ],
            [
                "\u2581Problem",
                -8.590021931758834
            ],
            [
                "\u2581Monate",
                -8.590200609828107
            ],
            [
                "\u2581Recht",
                -8.590975274458984
            ],
            [
                "\u2581allem",
                -8.593816980334443
            ],
            [
                "stellung",
                -8.594249862560979
            ],
            [
                "\u2581Schlag",
                -8.594683451495879
            ],
            [
                "\u2581zeigen",
                -8.595838776065921
            ],
            [
                "\u2581f\u00fchren",
                -8.602300812418306
            ],
            [
                "S",
                -8.606551592461422
            ],
            [
                "ren",
                -8.610033654238281
            ],
            [
                "grund",
                -8.61277324111518
            ],
            [
                "\u2581Interesse",
                -8.61312441736951
            ],
            [
                "ale",
                -8.61578436123962
            ],
            [
                "\u2581Bereich",
                -8.622039257531469
            ],
            [
                "\u2581einige",
                -8.62393249942154
            ],
            [
                "aus",
                -8.624223383925884
            ],
            [
                "D",
                -8.625592815044433
            ],
            [
                "zogen",
                -8.626223960753387
            ],
            [
                "\u2581Training",
                -8.629290675869486
            ],
            [
                "\u258119",
                -8.631302641951153
            ],
            [
                "\u2581sollten",
                -8.631414763661928
            ],
            [
                "kt",
                -8.631463332568607
            ],
            [
                "\u2581Sache",
                -8.635426657087558
            ],
            [
                "brechen",
                -8.635727222984581
            ],
            [
                "Box",
                -8.636561691901946
            ],
            [
                "\u2581beide",
                -8.637856138223956
            ],
            [
                "ion",
                -8.638857957283534
            ],
            [
                "\u2581Dies",
                -8.641529805029638
            ],
            [
                "\u2581\u201eT",
                -8.643528027244495
            ],
            [
                "\u2581zwa",
                -8.647462579496636
            ],
            [
                "arf",
                -8.648604149107049
            ],
            [
                "zen",
                -8.649128936498622
            ],
            [
                "ende",
                -8.651300472167344
            ],
            [
                "nach",
                -8.653020890826484
            ],
            [
                "schen",
                -8.653677718771085
            ],
            [
                "\u2581mu\u00df",
                -8.656150967922546
            ],
            [
                "ation",
                -8.657696643617614
            ],
            [
                "ex",
                -8.661713291704865
            ],
            [
                "\u2581wohl",
                -8.66285793272391
            ],
            [
                "\u2581Bar",
                -8.665893555701583
            ],
            [
                "\u2581jeder",
                -8.669714973093003
            ],
            [
                "\u2581Woche",
                -8.670222743999636
            ],
            [
                "geben.",
                -8.672771727468014
            ],
            [
                "\u2581Box",
                -8.674431964801014
            ],
            [
                "on",
                -8.676003319823078
            ],
            [
                "O",
                -8.677904705259678
            ],
            [
                "\u2581K\u00c3\u00b6nig",
                -8.681528306770888
            ],
            [
                "\u2581Wort",
                -8.685137236221971
            ],
            [
                "B",
                -8.686532244046466
            ],
            [
                "r\u00e4",
                -8.689240489396933
            ],
            [
                "\u2581Bo",
                -8.694307571324119
            ],
            [
                "\u2581muss",
                -8.697312563958636
            ],
            [
                "\u2581Weg",
                -8.699919493684318
            ],
            [
                "\u2581hab",
                -8.700720548621488
            ],
            [
                "\u2581Re",
                -8.70079926626011
            ],
            [
                "me",
                -8.70539082301634
            ],
            [
                "\u2581Bio\u00f6konomie",
                -8.706797003212026
            ],
            [
                "asse",
                -8.707943040493898
            ],
            [
                "\u2581Wasser",
                -8.708927100958007
            ],
            [
                "\u2581Uhr",
                -8.70946003855125
            ],
            [
                "\u2581pl\u00f6tzlich",
                -8.711887659138961
            ],
            [
                "\u2581Gen\u00e7",
                -8.711887659140842
            ],
            [
                "\u2581konzentrieren",
                -8.711887661558523
            ],
            [
                "\u2581St\u00e4rke",
                -8.711887867003592
            ],
            [
                "\u2581Nathan",
                -8.71188794265484
            ],
            [
                "\u2581privat",
                -8.711887948541122
            ],
            [
                "\u2581Sicherheit",
                -8.7118887823866
            ],
            [
                "\u2581Berlin",
                -8.71189730115609
            ],
            [
                "\u2581falsch",
                -8.711914470883203
            ],
            [
                "\u2581\u00fcberwinden",
                -8.711920349950532
            ],
            [
                "\u2581Juni",
                -8.711932308968105
            ],
            [
                "\u2581moderne",
                -8.711938003599581
            ],
            [
                "\u2581jeweil",
                -8.711948038329517
            ],
            [
                "\u2581Angebot",
                -8.711948514075377
            ],
            [
                "\u2581dar\u00fcber",
                -8.711968326746204
            ],
            [
                "\u2581geh\u00f6rt",
                -8.711977465358933
            ],
            [
                "\u2581Regel",
                -8.712040052740443
            ],
            [
                "\u2581Folge",
                -8.712076311228275
            ],
            [
                "\u2581Lara",
                -8.712086266237534
            ],
            [
                "\u2581gerne",
                -8.712245406965906
            ],
            [
                "\u2581geworden",
                -8.712581894092217
            ],
            [
                "\u2581Abend",
                -8.713110460510997
            ],
            [
                "\u2581Kindheit",
                -8.713178770686755
            ],
            [
                "\u2581bevor",
                -8.713727963391506
            ],
            [
                "genannte",
                -8.713818844524212
            ],
            [
                "\u2581klar",
                -8.714103095487559
            ],
            [
                "\u2581L\u00e4ndern",
                -8.714197938061167
            ],
            [
                "\u2581vo",
                -8.71488908660181
            ],
            [
                "raum",
                -8.715103111554011
            ],
            [
                "\u2581f\u00fchlt",
                -8.715261987483668
            ],
            [
                "\u2581erfahren",
                -8.715581895173802
            ],
            [
                "mindest",
                -8.71584872767215
            ],
            [
                "\u2581Kunden",
                -8.715866929372272
            ],
            [
                "\u2581starb",
                -8.716736763348683
            ],
            [
                "\u2581Grund",
                -8.716739949180667
            ],
            [
                "\u2581lie",
                -8.71748961688939
            ],
            [
                "\u2581erkennen",
                -8.718296461495024
            ],
            [
                "\u2581pro",
                -8.718339189925013
            ],
            [
                "\u2581k\u00e4mpft",
                -8.720105904657023
            ],
            [
                "\u2581Minuten",
                -8.722323248098151
            ],
            [
                "\u2581sonst",
                -8.725079808807937
            ],
            [
                "\u2581&",
                -8.725181275469422
            ],
            [
                "\u2581W\u00e4",
                -8.72529190643408
            ],
            [
                "\u2581Ziele",
                -8.730313857540281
            ],
            [
                "st\u00e4ndig",
                -8.731041139706857
            ],
            [
                "\u2581do",
                -8.731238384996457
            ],
            [
                "\u2581sprechen",
                -8.732288937726777
            ],
            [
                "\u2581weit",
                -8.733209467236668
            ],
            [
                "\u2581je",
                -8.733327915612364
            ],
            [
                "\u2581wichtigste",
                -8.733468714500791
            ],
            [
                "\u2581Ob",
                -8.733838983978107
            ],
            [
                "\u2581(Ber",
                -8.734626925032035
            ],
            [
                "\u2581Bitt",
                -8.736891020515877
            ],
            [
                "\u2581\u201eWi",
                -8.7369283633021
            ],
            [
                "gen",
                -8.74045166546737
            ],
            [
                "fallen",
                -8.745125280700044
            ],
            [
                "tag",
                -8.74670088320568
            ],
            [
                "recht",
                -8.74743915085294
            ],
            [
                "2",
                -8.749448075249042
            ],
            [
                "\u2581Club",
                -8.750614555734128
            ],
            [
                "hin",
                -8.754502458128522
            ],
            [
                "lagen",
                -8.754867100515165
            ],
            [
                "\u2581Wochen",
                -8.755864217306979
            ],
            [
                "7",
                -8.758875183644799
            ],
            [
                "auch",
                -8.758935351010699
            ],
            [
                "\u2581lernen",
                -8.760705013093528
            ],
            [
                "\u2581mehrere",
                -8.769943452767233
            ],
            [
                "ger",
                -8.77143167354043
            ],
            [
                "gabe",
                -8.772945508889231
            ],
            [
                "\u2581bereit",
                -8.773403358039513
            ],
            [
                "schlie\u00df",
                -8.780851861031698
            ],
            [
                "des",
                -8.783448398571434
            ],
            [
                "\u2581s",
                -8.78606896731599
            ],
            [
                "zwischen",
                -8.787795651412235
            ],
            [
                "kunden",
                -8.78815149734308
            ],
            [
                "\u2581Her",
                -8.79123501280621
            ],
            [
                "\u2581re",
                -8.79296297616961
            ],
            [
                "\u2581Freund",
                -8.795836710399783
            ],
            [
                "ft",
                -8.797326323934724
            ],
            [
                "ur",
                -8.810288436103367
            ],
            [
                "bereits",
                -8.81498664745295
            ],
            [
                "\u2581diesen",
                -8.816361076802227
            ],
            [
                "\u2581We",
                -8.82084852609324
            ],
            [
                "\u2581gro\u00df",
                -8.820978085845407
            ],
            [
                "\u2581wissen",
                -8.821056183211683
            ],
            [
                "\u2581sch",
                -8.822421469595708
            ],
            [
                "enden",
                -8.824460036098841
            ],
            [
                "\u2581w",
                -8.824855110258614
            ],
            [
                "\u2581Pf",
                -8.830796242459103
            ],
            [
                "1",
                -8.831469869351642
            ],
            [
                "aktion",
                -8.831539842443087
            ],
            [
                "\u2581letzte",
                -8.83366727770657
            ],
            [
                "et",
                -8.837951529197102
            ],
            [
                "tragen",
                -8.84569233610995
            ],
            [
                "\u2581Bi",
                -8.847540511476602
            ],
            [
                "au",
                -8.849524545045146
            ],
            [
                "ien",
                -8.853004300234547
            ],
            [
                "il",
                -8.855617315403828
            ],
            [
                "\u2581holen",
                -8.858196238193809
            ],
            [
                "a\u00df",
                -8.85946706308887
            ],
            [
                "\u2581Mensch",
                -8.860398483777127
            ],
            [
                "heiten",
                -8.860509160787588
            ],
            [
                "\u2581Th",
                -8.86540847586511
            ],
            [
                "\u2581Mark",
                -8.865490080786667
            ],
            [
                "\u2581Erde",
                -8.865493328739534
            ],
            [
                "\u2581Neu",
                -8.866468639568508
            ],
            [
                "eher",
                -8.867290867862305
            ],
            [
                "\u2581sah",
                -8.867376997132126
            ],
            [
                "\u2581St",
                -8.874549720834773
            ],
            [
                "\u2581pers\u00f6nliche",
                -8.87460485415776
            ],
            [
                "punkt",
                -8.87745705394161
            ],
            [
                "\u2581Coach",
                -8.878284574752916
            ],
            [
                "\u2581Epilepsie",
                -8.878554325754541
            ],
            [
                "\u2581Netzwerk",
                -8.878554325758733
            ],
            [
                "\u2581franz\u00f6sische",
                -8.878554325766066
            ],
            [
                "]",
                -8.878554325794479
            ],
            [
                "\u2581Jerusalem",
                -8.878554327373328
            ],
            [
                "\u2581Karriere",
                -8.878554331033792
            ],
            [
                "\u2581Brandanschlag",
                -8.87855435303687
            ],
            [
                "\u2581[",
                -8.878554432277287
            ],
            [
                "\u2581Freiheit",
                -8.878554526601677
            ],
            [
                "\u2581Verf\u00fcgung",
                -8.878554554888478
            ],
            [
                "\u2581Beratung",
                -8.878554841467578
            ],
            [
                "\u2581Schl\u00e4ge",
                -8.878555478573992
            ],
            [
                "\u2581helfen",
                -8.878555551418481
            ],
            [
                "\u2581trainiert",
                -8.878556164116777
            ],
            [
                "\u2581Kontakt",
                -8.878556620324634
            ],
            [
                "\u2581Tochter",
                -8.878559330410784
            ],
            [
                "\u2581Boxcoaching",
                -8.878560739403921
            ],
            [
                "\u2581Brot",
                -8.878568192289812
            ],
            [
                "\u2581lernt",
                -8.878578266072305
            ],
            [
                "\u2581schlecht",
                -8.878592136436493
            ],
            [
                "\u2581Motor",
                -8.87859521264301
            ],
            [
                "\u2581Technik",
                -8.878597005937333
            ],
            [
                "\u25812016",
                -8.878597273547228
            ],
            [
                "\u2581Leistung",
                -8.878611924459252
            ],
            [
                "\u2581K\u00e4mpfe",
                -8.878616402542214
            ],
            [
                "\u2581kaum",
                -8.878633539450956
            ],
            [
                "\u2581erinner",
                -8.878643907013625
            ],
            [
                "\u2581einzige",
                -8.878655324326939
            ],
            [
                "\u2581Chef",
                -8.878660866766669
            ],
            [
                "\u258116",
                -8.878678839739415
            ],
            [
                "\u2581Phase",
                -8.878686494838664
            ],
            [
                "\u2581Platz",
                -8.878697997429846
            ],
            [
                "\u2581196",
                -8.878722365076907
            ],
            [
                "\u2581vielleicht",
                -8.878754783630797
            ],
            [
                "\u2581verbunden",
                -8.878795347527229
            ],
            [
                "\u2581Duft",
                -8.878826385058042
            ],
            [
                "\u2581f\u00fcnf",
                -8.878836630036592
            ],
            [
                "\u2581Niederlage",
                -8.878920011330903
            ],
            [
                "\u2581stark",
                -8.879001590911034
            ],
            [
                "\u2581Christian",
                -8.879084827954523
            ],
            [
                "\u2581Rolle",
                -8.879187658227249
            ],
            [
                "\u2581Warum",
                -8.879347986281417
            ],
            [
                "\u2581getan",
                -8.87935213193242
            ],
            [
                "\u2581Dosis",
                -8.879899783164076
            ],
            [
                "\u2581hinter",
                -8.880041379399009
            ],
            [
                "\u2581Westen",
                -8.88008208588269
            ],
            [
                "\u2581Pun",
                -8.880174703512528
            ],
            [
                "Fight",
                -8.880259369522872
            ],
            [
                "\u2581hei\u00dft",
                -8.880351632506066
            ],
            [
                "\u2581Voss",
                -8.880449969229467
            ],
            [
                "\u2581gelang",
                -8.88063113749594
            ],
            [
                "\u2581\u00c31\u20444ber",
                -8.880695680995766
            ],
            [
                "\u2581daran",
                -8.880711276957111
            ],
            [
                "\u2581Macht",
                -8.881116071856747
            ],
            [
                "\u2581Monat",
                -8.881411147658039
            ],
            [
                "\u2581geschrieben",
                -8.881506353073567
            ],
            [
                "\u2581Unser",
                -8.882145799577476
            ],
            [
                "\u2581darum",
                -8.882188523609432
            ],
            [
                "\u2581selber",
                -8.883080421435844
            ],
            [
                "\u2581New",
                -8.883219208857282
            ],
            [
                "\u2581fand",
                -8.88387518861415
            ],
            [
                "\u2581sehen",
                -8.883904113654909
            ],
            [
                "\u2581morgens",
                -8.884327089611546
            ],
            [
                "\u2581Klienten",
                -8.884429567131441
            ],
            [
                "\u2581passiert",
                -8.884431480041592
            ],
            [
                "ass",
                -8.885477548837272
            ],
            [
                "\u2581Name",
                -8.885806719056609
            ],
            [
                "\u2581Zentr",
                -8.886031570037288
            ],
            [
                "\u2581Colla",
                -8.886632388839597
            ],
            [
                "mlich",
                -8.88678520627068
            ],
            [
                "\u2581Meinung",
                -8.888877980783588
            ],
            [
                "\u2581amerikanische",
                -8.889012565209242
            ],
            [
                "\u2581geboren",
                -8.889308169545423
            ],
            [
                "ut",
                -8.890070773558417
            ],
            [
                "\u2581Herrn",
                -8.890157798847268
            ],
            [
                "\u2581Land",
                -8.890247859942313
            ],
            [
                "\u2581Jede",
                -8.890750541368384
            ],
            [
                "\u2581F\u00e4higkeiten",
                -8.890833194963639
            ],
            [
                "\u2581treffen",
                -8.89156027660916
            ],
            [
                "\u2581alleine",
                -8.892281544304765
            ],
            [
                "\u2581berechtigt",
                -8.892923814674582
            ],
            [
                "4",
                -8.89677246592235
            ],
            [
                "\u2581lang",
                -8.899421077403556
            ],
            [
                "che",
                -8.900228933074228
            ],
            [
                "blick",
                -8.900229823092197
            ],
            [
                "uch",
                -8.901534674298325
            ],
            [
                "fern",
                -8.906049634642088
            ],
            [
                "teil",
                -8.90875756208947
            ],
            [
                "\u2581Fragen",
                -8.910517446976375
            ],
            [
                "\u2581finden.",
                -8.911870573358085
            ],
            [
                "so",
                -8.913457036654771
            ],
            [
                "\u2581Brief",
                -8.913984050141384
            ],
            [
                "\u2581Nah",
                -8.914389201452785
            ],
            [
                "\u2581Lebens",
                -8.914860748080114
            ],
            [
                "\u2581Gef\u00fchl",
                -8.914985767653397
            ],
            [
                "\u2581schreiben",
                -8.921025297806022
            ],
            [
                "gang",
                -8.922361644726301
            ],
            [
                "\u2581fest",
                -8.922813758941304
            ],
            [
                "\u25811.",
                -8.92464189135515
            ],
            [
                "kommen.",
                -8.927327051346767
            ],
            [
                "\u2581(S",
                -8.92742016148567
            ],
            [
                "\u2581jemand",
                -8.928745535653517
            ],
            [
                "rund",
                -8.930277710819746
            ],
            [
                "eine",
                -8.932490750142971
            ],
            [
                "\u2581Fl\u00fcchtlinge",
                -8.932551788916175
            ],
            [
                "\u2581199",
                -8.933397987608657
            ],
            [
                "\u00f6",
                -8.93661091387957
            ],
            [
                "\u2581Art",
                -8.936808289616197
            ],
            [
                "ei",
                -8.937340328396672
            ],
            [
                "bau",
                -8.937638275804847
            ],
            [
                "up",
                -8.938184584792902
            ],
            [
                "\u2581i",
                -8.938386979428357
            ],
            [
                "\u2581Ali",
                -8.939905368428144
            ],
            [
                "\u2581Viel",
                -8.941098310871096
            ],
            [
                "W",
                -8.943032048253642
            ],
            [
                "erweise",
                -8.943723775131796
            ],
            [
                "\u2581Fronleichnam",
                -8.94390596936486
            ],
            [
                "\u2581Gesellschaft",
                -8.944301089626183
            ],
            [
                "\u2581schlagen",
                -8.946958249548647
            ],
            [
                "\u00f6nnen",
                -8.947638350845441
            ],
            [
                "\u2581Philosophi",
                -8.955928906869286
            ],
            [
                "richt",
                -8.95846786298675
            ],
            [
                "s-",
                -8.958625195712033
            ],
            [
                "\u2581Ho",
                -8.95887272046636
            ],
            [
                "\u2581ward",
                -8.960716586400542
            ],
            [
                "ativ",
                -8.961215344868794
            ],
            [
                "\u2581Stellen",
                -8.962745827909012
            ],
            [
                "\u2581her",
                -8.964016052964627
            ],
            [
                "f\u00fcr",
                -8.967656310929302
            ],
            [
                "\u2581Mi",
                -8.967784296929961
            ],
            [
                "tet",
                -8.96896336054051
            ],
            [
                "\u2581Jahres",
                -8.969926834204717
            ],
            [
                "auf",
                -8.97026064056407
            ],
            [
                "\u2581Sein",
                -8.97031690779169
            ],
            [
                "\u2581\u201eD",
                -8.970478869530524
            ],
            [
                "hauen",
                -8.97409727657867
            ],
            [
                "\u2581nahm",
                -8.974373470359323
            ],
            [
                "\u2581berufliche",
                -8.97462988673306
            ],
            [
                "\u25819",
                -8.976675849001863
            ],
            [
                "\u2581Hin",
                -8.98084486240412
            ],
            [
                "\u2581Glaube",
                -8.983292320374433
            ],
            [
                "\u2581blieb",
                -8.984276392874781
            ],
            [
                "\u2581Viele",
                -8.985471879493494
            ],
            [
                "\u2581schlug",
                -8.986956436848756
            ],
            [
                "ann",
                -8.989885922355302
            ],
            [
                "\u2581Mein",
                -8.991850697661963
            ],
            [
                "000",
                -8.992275424458603
            ],
            [
                "\u2581Erfolg",
                -8.995327520379444
            ],
            [
                "\u2581e",
                -8.995665335774422
            ],
            [
                "legen",
                -8.995939916808606
            ],
            [
                "\u2581Afrika",
                -8.997151304738129
            ],
            [
                "E",
                -8.997744269531234
            ],
            [
                "schrieb",
                -9.000863748755632
            ],
            [
                "\u2581Idee",
                -9.000949824438692
            ],
            [
                "ke",
                -9.001989644406923
            ],
            [
                "45",
                -9.00213293621991
            ],
            [
                "U",
                -9.002463514396153
            ],
            [
                "\u2581gute",
                -9.00305717640621
            ],
            [
                "\u2581zog",
                -9.00526874772009
            ],
            [
                "\u2581essen",
                -9.00730795112335
            ],
            [
                "\u2581stet",
                -9.00905603661813
            ],
            [
                "sein",
                -9.011267929893792
            ],
            [
                "\u2581Film",
                -9.012063704439907
            ],
            [
                "is",
                -9.015177436139908
            ],
            [
                "\u2581Ba",
                -9.016074984689439
            ],
            [
                "\u2581Strategie",
                -9.020194727290969
            ],
            [
                "\u2581leicht",
                -9.02204322033687
            ],
            [
                "\u2581finde",
                -9.022606275439466
            ],
            [
                "50",
                -9.027212252173074
            ],
            [
                "schein",
                -9.029073882411254
            ],
            [
                "\u2581Gegen",
                -9.029377108618148
            ],
            [
                "liegen",
                -9.038319380047186
            ],
            [
                "\u2581weitere",
                -9.04191735263778
            ],
            [
                "\u2581los",
                -9.042413757777268
            ],
            [
                "\u2581geben",
                -9.044436323391515
            ],
            [
                "sweise",
                -9.04609921944093
            ],
            [
                "\u2581kurz",
                -9.047255501176377
            ],
            [
                "rade",
                -9.047804245670115
            ],
            [
                "un",
                -9.048164137679873
            ],
            [
                "\u2581Person",
                -9.048928046227154
            ],
            [
                "atz",
                -9.05176253798431
            ],
            [
                "ierung",
                -9.052209142254362
            ],
            [
                "\u00c3\u00a4n",
                -9.052765950194983
            ],
            [
                "nken.",
                -9.052950677327475
            ],
            [
                "\u2581Arzneimittel",
                -9.053166370650088
            ],
            [
                "\u2581alt",
                -9.053499881890758
            ],
            [
                "\u258115",
                -9.056702233034121
            ],
            [
                "\u2581denken",
                -9.056899527038171
            ],
            [
                "\u2581Bank",
                -9.056955206025101
            ],
            [
                "\u2581ander",
                -9.057761670768887
            ],
            [
                "zw",
                -9.059672004329816
            ],
            [
                "\u2581tot",
                -9.0598724962762
            ],
            [
                "lub",
                -9.060175744840546
            ],
            [
                "\u2581Mu",
                -9.06260518702736
            ],
            [
                "ern",
                -9.063422544239296
            ],
            [
                "\u2581wichtige",
                -9.063937889463052
            ],
            [
                "\u2581Ha",
                -9.064518953363281
            ],
            [
                "\u2581Liebe",
                -9.064630135975378
            ],
            [
                "\u2581Lehrer",
                -9.065533114169401
            ],
            [
                "\u2581Alltag",
                -9.065570437373788
            ],
            [
                "cker",
                -9.066730796190283
            ],
            [
                "\u2581etwa",
                -9.067022392473474
            ],
            [
                "\u2581halb",
                -9.067336597267957
            ],
            [
                "\u2581europ\u00e4ische",
                -9.068593324429305
            ],
            [
                "\u2581soziale",
                -9.069744278073063
            ],
            [
                "ahmen",
                -9.069934345123748
            ],
            [
                "\u2581Bild",
                -9.071655348649962
            ],
            [
                "\u2581m",
                -9.072574520334053
            ],
            [
                "\u2581Kreuz",
                -9.073235855031205
            ],
            [
                "tik",
                -9.073296046213631
            ],
            [
                "neben",
                -9.07345103811644
            ],
            [
                "zeitig",
                -9.074974386620498
            ],
            [
                "\u2581Partner",
                -9.075136130141946
            ],
            [
                "en?",
                -9.075694320279464
            ],
            [
                "satz",
                -9.076599017004087
            ],
            [
                "\u2581weh",
                -9.077169127812855
            ],
            [
                "\u2581Zusammenh",
                -9.07720824690539
            ],
            [
                "ismus",
                -9.07818149896637
            ],
            [
                "%",
                -9.078289310569568
            ],
            [
                "-Planck-Institut",
                -9.07855432579448
            ],
            [
                "\u2581Apotheker",
                -9.078554325847572
            ],
            [
                "\u2581Mindestalter",
                -9.078554326262415
            ],
            [
                "\u2581insbesondere",
                -9.078554326403243
            ],
            [
                "\u2581Patienten",
                -9.078554350750176
            ],
            [
                "\u2581Aufmerksamkeit",
                -9.078554353661552
            ],
            [
                "\u2581verurteilt",
                -9.078554371595189
            ],
            [
                "\u2581Ver\u00e4nderung",
                -9.078554380649113
            ],
            [
                "\u2581Druck",
                -9.078554430159778
            ],
            [
                "\u2581Rechtsanw\u00e4lt",
                -9.078554456525948
            ],
            [
                "\u2581Grenzen",
                -9.078555162981875
            ],
            [
                "\u2581A-Klasse",
                -9.078556288057666
            ],
            [
                "\u2581Bruder",
                -9.078556802748437
            ],
            [
                "\u2581usw.",
                -9.078558652226734
            ],
            [
                "\u2581York",
                -9.0785597566179
            ],
            [
                "unterschiedliche",
                -9.078571584477714
            ],
            [
                "\u2581Internet",
                -9.078582809496098
            ],
            [
                "\u2581bekannt",
                -9.07858380034755
            ],
            [
                "\u2581Kometen",
                -9.078584578643955
            ],
            [
                "\u2581G\u00e4ste",
                -9.078597279897373
            ],
            [
                "haupt",
                -9.078617520683089
            ],
            [
                "zehn",
                -9.078618020800352
            ],
            [
                "\u2581SSD-Festplatte",
                -9.078618378939558
            ],
            [
                "\u2581zw\u00f6lf",
                -9.078631708695555
            ],
            [
                "\u2581spricht",
                -9.078635056881994
            ],
            [
                "\u2581durchsetzen",
                -9.078642094513373
            ],
            [
                "\u2581hilft",
                -9.078650223622981
            ],
            [
                "\u2581kennt",
                -9.07866215685337
            ],
            [
                "\u2581gewesen",
                -9.07867008821181
            ],
            [
                "bald",
                -9.078674848020711
            ],
            [
                "\u2581Tief",
                -9.078675060345558
            ],
            [
                "\u2581HERRN",
                -9.078675204191022
            ],
            [
                "\u2581Erfahrung",
                -9.078717077955114
            ],
            [
                "\u2581Seminare",
                -9.078731938637404
            ],
            [
                "\u2581Brow",
                -9.078861492281508
            ],
            [
                "\u2581Haft",
                -9.078899965011399
            ],
            [
                "\u2581bietet",
                -9.078966719639695
            ],
            [
                "leistung",
                -9.079075047778362
            ],
            [
                "\u258117",
                -9.079125947281337
            ],
            [
                "2001).",
                -9.079304655420007
            ],
            [
                "\u2581erforderlich",
                -9.079367349572902
            ],
            [
                "\u2581Gerade",
                -9.079425225391093
            ],
            [
                "\u2581l\u00e4nger",
                -9.079640313448646
            ],
            [
                "\u2581100",
                -9.079700349595585
            ],
            [
                "\u2581Differenz",
                -9.079745701679501
            ],
            [
                "1)",
                -9.079755364276648
            ],
            [
                "\u2581gesetzliche",
                -9.079783061867118
            ],
            [
                "\u2581zul\u00e4ssige",
                -9.079804089103288
            ],
            [
                "\u2581bitte",
                -9.079896694795028
            ],
            [
                "\u2581Freud",
                -9.079901725743166
            ],
            [
                "\u2581drauf",
                -9.080150595665282
            ],
            [
                "\u2581Nord",
                -9.080602295432527
            ],
            [
                "\u2581au\u00dfer",
                -9.08150853791792
            ],
            [
                "\u2581Mitte",
                -9.082195589286673
            ],
            [
                "\u2581kg",
                -9.08223085605485
            ],
            [
                "\u2581\u201eEin",
                -9.082897738850207
            ],
            [
                "\u2581sucht",
                -9.082993980470885
            ],
            [
                "\u2581n\u00e4chste",
                -9.083101741575465
            ],
            [
                "ellen",
                -9.083128069472286
            ],
            [
                "\u2581schwer",
                -9.083169216621112
            ],
            [
                "\u2581Wirtschaft",
                -9.083821401034225
            ],
            [
                "\u2581Nase",
                -9.083887894734211
            ],
            [
                "\u2581Alter",
                -9.08392349710123
            ],
            [
                "\u2581allein",
                -9.084068461385144
            ],
            [
                "\u2581danach",
                -9.084967071056358
            ],
            [
                "\u25811",
                -9.085769372225489
            ],
            [
                "\u2581Banker",
                -9.085954135506539
            ],
            [
                "elle",
                -9.086168591251793
            ],
            [
                "\u00c31\u20444r",
                -9.086208580195336
            ],
            [
                "\u2581vorher",
                -9.086235244400893
            ],
            [
                "\u2581Arme",
                -9.086346369739603
            ],
            [
                "\u2581Schw\u00e4chen",
                -9.086904929929178
            ],
            [
                "\u2581nahe",
                -9.087436877940345
            ],
            [
                "\u2581getrennt",
                -9.08781479749721
            ],
            [
                "vor",
                -9.087962080837693
            ],
            [
                "\u258125",
                -9.08801263617439
            ],
            [
                "\u2581Kopf",
                -9.088405444010878
            ],
            [
                "sp",
                -9.088408489410082
            ],
            [
                "\u2581mg",
                -9.08842300515204
            ],
            [
                "\u2581setzen",
                -9.088572302121262
            ],
            [
                "\u2581Kollegen",
                -9.088578792920176
            ],
            [
                "\u2581ca",
                -9.089498219890128
            ],
            [
                "soweit",
                -9.089687021522302
            ],
            [
                "\u2581Gericht",
                -9.090345714184462
            ],
            [
                "\u2581suchen",
                -9.09045187405171
            ],
            [
                "\u2581Einsatz",
                -9.090971244107267
            ],
            [
                "icht",
                -9.091364055651919
            ],
            [
                "\u2581Zwei",
                -9.092344545911866
            ],
            [
                "\u2581hoch",
                -9.092577417666327
            ],
            [
                "\u2581Schule",
                -9.092912520285122
            ],
            [
                "\u2581sahen",
                -9.09356098651927
            ],
            [
                "\u2581Seite",
                -9.095749749520127
            ],
            [
                "\u2581braucht",
                -9.095969836611298
            ],
            [
                "stoff",
                -9.09609597158309
            ],
            [
                "\u00e4",
                -9.096265197250611
            ],
            [
                "\u2581Pers\u00f6nlichkeits",
                -9.097009450621783
            ],
            [
                "kto",
                -9.097508121052801
            ],
            [
                "drige",
                -9.098826195411165
            ],
            [
                "\u2581welcher",
                -9.100768593825247
            ],
            [
                "\u2581erfolg",
                -9.101084261705893
            ],
            [
                "allen",
                -9.103097550634944
            ],
            [
                "ssen",
                -9.10362287650489
            ],
            [
                "\u2581Wissen",
                -9.105218542039417
            ],
            [
                "ord",
                -9.107481841242041
            ],
            [
                "\u2581\u201eJ",
                -9.109993523224942
            ],
            [
                "\u2581kaufen",
                -9.111902834780816
            ],
            [
                "\u2581Osten",
                -9.112575602812935
            ],
            [
                "\u2581Rabb",
                -9.113389968181144
            ],
            [
                "\u2581legt",
                -9.113935736967486
            ],
            [
                "\u2581gem",
                -9.115198163950694
            ],
            [
                "\u2581beeinflussen",
                -9.11585364247589
            ],
            [
                "\u2581Einzel",
                -9.116435456116335
            ],
            [
                "\u2581Mich",
                -9.118189505793426
            ],
            [
                "\u2581folg",
                -9.120461796606216
            ],
            [
                "ry",
                -9.121170171446698
            ],
            [
                "\u2581Festplatte",
                -9.12195570834791
            ],
            [
                "\u2581untersuch",
                -9.122846616070383
            ],
            [
                "\u2581Na",
                -9.126508263240453
            ],
            [
                "\u2581R\u00fcck",
                -9.12820277026295
            ],
            [
                "gehen",
                -9.128611723195194
            ],
            [
                "I",
                -9.129129163373808
            ],
            [
                "\u2581Seine",
                -9.129741767937281
            ],
            [
                "\u2581wer",
                -9.129941177210025
            ],
            [
                "\u2581Krieg",
                -9.130397199496946
            ],
            [
                "\u2581anders",
                -9.13089712330607
            ],
            [
                "hite",
                -9.131339097581334
            ],
            [
                "\u2581voll",
                -9.13378625012744
            ],
            [
                "Die",
                -9.134474766106635
            ],
            [
                "\u2581dachte",
                -9.134942820883392
            ],
            [
                "igung",
                -9.13529329921506
            ],
            [
                "schlossen",
                -9.140107935068917
            ],
            [
                "haltung",
                -9.140424529667326
            ],
            [
                "\u2581folgte",
                -9.140609486481743
            ],
            [
                "f\u00fchl",
                -9.145693297833407
            ],
            [
                "\u2581t\u00e4glich",
                -9.146953913880832
            ],
            [
                "\u2581began",
                -9.147158587962776
            ],
            [
                "\u2581Herz",
                -9.14777591281072
            ],
            [
                "kehrt",
                -9.152483987006603
            ],
            [
                "\u2581weg",
                -9.152567206675648
            ],
            [
                "rte",
                -9.153194331272504
            ],
            [
                "\u2581bist",
                -9.15343736924604
            ],
            [
                "nahme",
                -9.15404873235088
            ],
            [
                "stellen",
                -9.154784688712493
            ],
            [
                "f\u00e4hig",
                -9.155320553467433
            ],
            [
                "ausbildung",
                -9.158378550279563
            ],
            [
                "gaben",
                -9.158475877072236
            ],
            [
                "welt",
                -9.159836780811263
            ],
            [
                "\u2581stellt",
                -9.159888860099258
            ],
            [
                "aren",
                -9.160299088448426
            ],
            [
                "\u2581Pro",
                -9.160907132144882
            ],
            [
                "\u258113",
                -9.161167004994608
            ],
            [
                "\u2581halten",
                -9.161908317597547
            ],
            [
                "lang",
                -9.163756824639943
            ],
            [
                "ntwicklung",
                -9.165727597842947
            ],
            [
                "straf",
                -9.165969098544757
            ],
            [
                "it",
                -9.166272397508047
            ],
            [
                "\u258124",
                -9.168835122197285
            ],
            [
                "\u258150",
                -9.171403152027208
            ],
            [
                "\u2581J",
                -9.171829181046826
            ],
            [
                "man",
                -9.174015298657505
            ],
            [
                "\u201c)",
                -9.177164198177907
            ],
            [
                "w",
                -9.179499666762604
            ],
            [
                "kam",
                -9.184155937912415
            ],
            [
                "\u2581treten",
                -9.18440272809733
            ],
            [
                "\u2581echt",
                -9.18954861501401
            ],
            [
                "\u00c3\u00a4",
                -9.190455978986417
            ],
            [
                "\u2581Freunde",
                -9.190922208381604
            ],
            [
                "\u2581liegen",
                -9.192567141238289
            ],
            [
                "druck",
                -9.193894675264037
            ],
            [
                "\u2581w\u00e4re",
                -9.196880488045881
            ],
            [
                "\u2581sch\u00f6n",
                -9.198199293534506
            ],
            [
                "\u2581heilige",
                -9.198942900844006
            ],
            [
                "\u2581bringt",
                -9.202037563094434
            ],
            [
                "\u2581Sy",
                -9.20408810623463
            ],
            [
                "\u2581Jo",
                -9.204712086296574
            ],
            [
                "\u2581stellen",
                -9.205355130519223
            ],
            [
                "\u2581genommen",
                -9.208705585474512
            ],
            [
                "\u2581entscheiden",
                -9.208858979468001
            ],
            [
                "tan",
                -9.21124003933413
            ],
            [
                "F",
                -9.217559275684849
            ],
            [
                "stern",
                -9.223122575373
            ],
            [
                "\u2581Bereiche",
                -9.226702413806741
            ],
            [
                "\u25816",
                -9.230994054084878
            ],
            [
                "alit\u00e4t",
                -9.233291309628996
            ],
            [
                "\u2581Ju",
                -9.234056540025925
            ],
            [
                "chef",
                -9.234638365684543
            ],
            [
                "\u2581Berufs",
                -9.236343560514344
            ],
            [
                "preis",
                -9.238318482993705
            ],
            [
                "seinandersetzung",
                -9.243785428711854
            ],
            [
                "\u2581Angriffe",
                -9.246796616947838
            ],
            [
                "\u2581angreif",
                -9.24680933832476
            ],
            [
                "vertrauen",
                -9.247651850023464
            ],
            [
                "schlag",
                -9.247661503335234
            ],
            [
                "\u00e4r",
                -9.248544177362486
            ],
            [
                "onfliktsituation",
                -9.24862767089617
            ],
            [
                "rr",
                -9.25098533876528
            ],
            [
                "\u2581Energie",
                -9.252787878058882
            ],
            [
                "ak",
                -9.253161296185649
            ],
            [
                "\u2581Ve",
                -9.253823173173625
            ],
            [
                "innen",
                -9.254193502121883
            ],
            [
                "ser",
                -9.255570698875676
            ],
            [
                "H",
                -9.256424422478869
            ],
            [
                "\u2581gefunden",
                -9.256815280083567
            ],
            [
                "da",
                -9.260135925324416
            ],
            [
                "zahl",
                -9.261105367169101
            ],
            [
                "\u2581Staat",
                -9.261286179288378
            ],
            [
                "frage",
                -9.263301371521264
            ],
            [
                "\u2581Schul",
                -9.263964039466298
            ],
            [
                "nn",
                -9.26821870928844
            ],
            [
                "fall",
                -9.272647214558802
            ],
            [
                "\u2581zur\u00fcckzu",
                -9.274117327322113
            ],
            [
                "\u2581Ni",
                -9.274927309377434
            ],
            [
                "nis",
                -9.278087675825779
            ],
            [
                "isst",
                -9.278579229405537
            ],
            [
                "zeichen",
                -9.279289792169378
            ],
            [
                "\u25814",
                -9.2802843702482
            ],
            [
                "EN",
                -9.280686194218722
            ],
            [
                "ti",
                -9.280789914876834
            ],
            [
                "fest",
                -9.281322805135488
            ],
            [
                "\u2581beeinfluss",
                -9.282662954840616
            ],
            [
                "rt",
                -9.282948511566715
            ],
            [
                "eiter",
                -9.283389053943633
            ],
            [
                "\u2581Hethiter",
                -9.287004618074992
            ],
            [
                "it\u00e4t",
                -9.288184932965219
            ],
            [
                "\u2581Li",
                -9.288507834000058
            ],
            [
                "trag",
                -9.288713970052639
            ],
            [
                "nge",
                -9.29014581110584
            ],
            [
                "\u2581Haupt",
                -9.290611112846499
            ],
            [
                "\u2581Real",
                -9.293225836904272
            ],
            [
                "ic",
                -9.29383604720564
            ],
            [
                "\u2581richtige",
                -9.296246753329047
            ],
            [
                "sicht",
                -9.298635539646822
            ],
            [
                "l\u00fc",
                -9.298841875193322
            ],
            [
                "leben",
                -9.30374958891
            ],
            [
                "ehmen",
                -9.304372070176084
            ],
            [
                "\u2581beginn",
                -9.3048302739168
            ],
            [
                "\u2581stellte",
                -9.305542885687169
            ],
            [
                "all",
                -9.305900486288449
            ],
            [
                "feld",
                -9.307841541046137
            ],
            [
                "gegeben",
                -9.307918366267515
            ],
            [
                "\u2581Zwecke",
                -9.30799455008868
            ],
            [
                "hema",
                -9.310336860580799
            ],
            [
                "\u2581Weiter",
                -9.31190238824571
            ],
            [
                "\u2581recht",
                -9.312771315343081
            ],
            [
                "\u2581Auto",
                -9.313549351923767
            ],
            [
                "\u2581Te",
                -9.314974895111652
            ],
            [
                "\u2581Vers",
                -9.317845506817486
            ],
            [
                "\u00f6l",
                -9.319547340987766
            ],
            [
                "wert",
                -9.320807053996171
            ],
            [
                "\u2581Scho",
                -9.322399562788506
            ],
            [
                "\u2581meist",
                -9.32274597026836
            ],
            [
                "engl",
                -9.325985123093547
            ],
            [
                "z\u00fcge",
                -9.326282095550647
            ],
            [
                "\u2581SSD",
                -9.328473163112697
            ],
            [
                "\u2581Euro",
                -9.328516208087851
            ],
            [
                "\u2581Hartkapsel",
                -9.328554325754528
            ],
            [
                "psychoanalytisch",
                -9.328554325754538
            ],
            [
                "\u2581Neu-Isenburg",
                -9.328554325754657
            ],
            [
                "\u2581kognitive",
                -9.328554325754851
            ],
            [
                "\u2581Oberfl\u00e4che",
                -9.328554325755636
            ],
            [
                "\u20ac",
                -9.32855432579448
            ],
            [
                "\u2018",
                -9.32855432579448
            ],
            [
                "\u2581Kompetenzen",
                -9.328554326584694
            ],
            [
                "\u2581Ausl\u00e4nder",
                -9.328554337020442
            ],
            [
                "\u2581kontaktieren",
                -9.328554337474674
            ],
            [
                "\u2581global",
                -9.328554340185718
            ],
            [
                "\u2581gedreht",
                -9.328554347750186
            ],
            [
                "\u2581politische",
                -9.328554365753325
            ],
            [
                "\u2581Ziffern",
                -9.328554378545093
            ],
            [
                "\u2581Risiko",
                -9.328554385794423
            ],
            [
                "\u2581Kreuzfahrer",
                -9.328554385968696
            ],
            [
                "\u2581perfekt",
                -9.328554394195326
            ],
            [
                "\u2581durchzusetzen",
                -9.328554413999939
            ],
            [
                "\u2581Magnetfeld",
                -9.328554458874091
            ],
            [
                "\u2581R\u00fcbner",
                -9.328554462556344
            ],
            [
                "\u2581pr\u00e4sent",
                -9.32855448278712
            ],
            [
                "\u2581\u201a",
                -9.328554498441882
            ],
            [
                "\u2581Gehirn",
                -9.328554536146742
            ],
            [
                "\u2581erkl\u00e4r",
                -9.32855483664914
            ],
            [
                "\u2581Begegnung",
                -9.32855532219862
            ],
            [
                "-Szene",
                -9.328555717924361
            ],
            [
                "\u2581Saladin",
                -9.328555867836155
            ],
            [
                "\u2581Heimat",
                -9.328556354141872
            ],
            [
                "\u2581Schwierigkeiten",
                -9.328556534413364
            ],
            [
                "\u2581T\u00e4ter",
                -9.328556582544577
            ],
            [
                "\u2581physisch",
                -9.32855770109373
            ],
            [
                "\u2581getroffen",
                -9.328558764985438
            ],
            [
                "\u2581Italien",
                -9.328559423015648
            ],
            [
                "\u2581Herrscher",
                -9.328559958673274
            ],
            [
                "\u2581gilt",
                -9.328561193637293
            ],
            [
                "\u2581Kultur",
                -9.328561485842844
            ],
            [
                "\u2581h\u00f6her",
                -9.32856181081067
            ],
            [
                "gl\u00fccklich",
                -9.328563062568037
            ],
            [
                "\u2581gestiegen",
                -9.328569096600832
            ],
            [
                "\u2581erfolgreich",
                -9.328576219238677
            ],
            [
                "\u2581Fleisch",
                -9.328576590459694
            ],
            [
                "zielt",
                -9.328579976093737
            ],
            [
                "\u2581Qualit\u00e4t",
                -9.32859556126309
            ],
            [
                "\u2581F\u00fcnf",
                -9.328599915253918
            ],
            [
                "boxer",
                -9.328603770371211
            ],
            [
                "\u2581Blut",
                -9.328606067196397
            ],
            [
                "\u2581Foto",
                -9.328611156346568
            ],
            [
                "\u2581spezielle",
                -9.32861207510922
            ],
            [
                "\u2581Polizei",
                -9.328618512052483
            ],
            [
                "\u2581Verbindung",
                -9.328620655133355
            ],
            [
                "\u2581Termin",
                -9.32862540013383
            ],
            [
                "Gesch\u00e4ftspartner",
                -9.328633270541173
            ],
            [
                "\u2581Zehn",
                -9.328642013315578
            ],
            [
                "\u2581half",
                -9.328643495666876
            ],
            [
                "\u2581Aufstehen",
                -9.328645323779526
            ],
            [
                "\u2581gel\u00f6scht",
                -9.328653984148398
            ],
            [
                "\u2581Selbstachtung",
                -9.328656625759159
            ],
            [
                "\u2581Zukunft",
                -9.328663616181613
            ],
            [
                "\u2581Verh\u00e4ltnis",
                -9.32866796849111
            ],
            [
                "\u2581h\u00e4ufig",
                -9.32867650865063
            ],
            [
                "\u2581Jesu",
                -9.32869480082761
            ],
            [
                "\u2581Juli",
                -9.328723206876596
            ],
            [
                "\u2581Preis",
                -9.328744612405675
            ],
            [
                "\u2581Clay",
                -9.328746223447183
            ],
            [
                "\u2581bedeutet",
                -9.328752565541613
            ],
            [
                "\u2581dritte",
                -9.328756110189769
            ],
            [
                "\u2581hervor",
                -9.328779499568657
            ],
            [
                "\u2581Eigenschaften",
                -9.328787701558142
            ],
            [
                "\u2581Krise",
                -9.328792315215374
            ],
            [
                "\u2581Eisen",
                -9.328797752061048
            ],
            [
                "\u2581Gleich",
                -9.328814350700009
            ],
            [
                "\u2581Bundesl\u00e4nder",
                -9.328818553914655
            ],
            [
                "\u2581Speise",
                -9.328827730193066
            ],
            [
                "\u2581Umwelt",
                -9.328828395979393
            ],
            [
                "\u2581behandelt",
                -9.328857465715126
            ],
            [
                "\u2581Spa\u00df",
                -9.32887848670352
            ],
            [
                "\u2581Nov",
                -9.328882773659654
            ],
            [
                "\u2581psychische",
                -9.328883807291309
            ],
            [
                "\u2581Typ",
                -9.328896703176815
            ],
            [
                "\u2581Ebene",
                -9.328918571067339
            ],
            [
                "\u2581Genau",
                -9.328930477477266
            ],
            [
                "zimmer",
                -9.328959413963
            ],
            [
                "\u2581zuhauf",
                -9.328962348587588
            ],
            [
                "\u2581Mauer",
                -9.328997317843372
            ],
            [
                "\u2581spielen",
                -9.32905754771771
            ],
            [
                "\u2581T\u00fcr",
                -9.329100988446564
            ],
            [
                "\u2581mental",
                -9.32910669448603
            ],
            [
                "\u2581laut",
                -9.329143040364
            ],
            [
                "\u2581Port",
                -9.329143324776911
            ],
            [
                "\u2581seltene",
                -9.329242507580412
            ],
            [
                "\u2581steigt",
                -9.329268056497689
            ],
            [
                "\u2581Licht",
                -9.329313240430437
            ],
            [
                "\u2581schla",
                -9.329417118567829
            ],
            [
                "\u2581geschlagen",
                -9.329435481361152
            ],
            [
                "\u2581Christi",
                -9.32976496698896
            ],
            [
                "\u2581Ort",
                -9.329853787794262
            ],
            [
                "\u2581Liter",
                -9.330018675264487
            ],
            [
                "\u2581besteht",
                -9.330119743124435
            ],
            [
                "\u2581zuzuschlagen",
                -9.330159679179868
            ],
            [
                "\u2581einnehmen",
                -9.330410017854707
            ],
            [
                "\u2581Raum",
                -9.330533539026483
            ],
            [
                "\u2581Handlung",
                -9.330592321819266
            ],
            [
                "\u2581Mehr",
                -9.330645394742758
            ],
            [
                "\u2581verf\u00fcgen",
                -9.330751962276812
            ],
            [
                "\u2581T\u00e4tigkeiten",
                -9.33075857495302
            ],
            [
                "\u2581Kranke",
                -9.330794362329554
            ],
            [
                "\u2581irgendein",
                -9.331108953248677
            ],
            [
                "\u2581hohe",
                -9.331247805253254
            ],
            [
                "\u2581Schwert",
                -9.331589952596223
            ],
            [
                "\u2581Train",
                -9.331673545746217
            ],
            [
                "\u2581erreichen",
                -9.331954594967904
            ],
            [
                "\u2581Ausbildung",
                -9.331968685650454
            ],
            [
                "\u2581Rost",
                -9.332116038859184
            ],
            [
                "\u2581abge",
                -9.332531188678534
            ],
            [
                "\u2581bestellt",
                -9.332656398985844
            ],
            [
                "\u2581hinein",
                -9.332811418637284
            ],
            [
                "WLAN-Festplatte",
                -9.332829169255046
            ],
            [
                "\u2581Tonnen",
                -9.333072349833245
            ],
            [
                "\u2581Also",
                -9.333188043907317
            ],
            [
                "funk",
                -9.333935931109888
            ],
            [
                "\u2581Lippen",
                -9.334090994128871
            ],
            [
                "\u2581Inter",
                -9.334106812582542
            ],
            [
                "\u2581sieben",
                -9.334152708408585
            ],
            [
                "\u2581Hel",
                -9.334636143146085
            ],
            [
                "\u2581pers\u00f6nlich",
                -9.334767724678063
            ],
            [
                "\u2581Weise",
                -9.335221333458861
            ],
            [
                "gegangen",
                -9.335515660357535
            ],
            [
                "\u2581erz\u00e4hlt",
                -9.335705948725945
            ],
            [
                "\u2581darin",
                -9.335724187804281
            ],
            [
                "\u2581Stunden",
                -9.335995726117705
            ],
            [
                "\u2581Nutz",
                -9.336084233390942
            ],
            [
                "\u2581Vorteile",
                -9.336357056644822
            ],
            [
                "\u2581Wider",
                -9.337068759806332
            ],
            [
                "ember",
                -9.337304270951234
            ],
            [
                "\u2581Schweiz",
                -9.337417257507251
            ],
            [
                "\u2581ver\u00e4ndert",
                -9.337493771672461
            ],
            [
                "\u2581Frauen",
                -9.337805311797748
            ],
            [
                "isiert",
                -9.338365411844295
            ],
            [
                "\u2581Markt",
                -9.338605276582673
            ],
            [
                "m\u00fcs",
                -9.33869955626072
            ],
            [
                "\u2581kennen",
                -9.339080228137188
            ],
            [
                "klassisch-barock",
                -9.339701532369244
            ],
            [
                "\u2581Anwend",
                -9.340592267723341
            ],
            [
                "worden",
                -9.341065497493815
            ],
            [
                "\u2581erleben",
                -9.341733229766023
            ],
            [
                "\u2581Boten",
                -9.342051839204519
            ],
            [
                "\u2581einge",
                -9.342093726752205
            ],
            [
                "beziehung",
                -9.342639761286145
            ],
            [
                "ierte",
                -9.343002582888131
            ],
            [
                "\u2581G\u00f6ttingen",
                -9.343249072768407
            ],
            [
                "\u2581verteidigen",
                -9.343659778789501
            ],
            [
                "schutz",
                -9.343741788394448
            ],
            [
                "\u2581Laden",
                -9.344303240153424
            ],
            [
                "\u2581Boden",
                -9.34522203429075
            ],
            [
                "\u2581englisch",
                -9.345327568912355
            ],
            [
                "\u2581flohen",
                -9.345746741479612
            ],
            [
                "\u2581nimm",
                -9.346033027354624
            ],
            [
                "\u2581Hol",
                -9.34637249385684
            ],
            [
                "wagen",
                -9.346404979074746
            ],
            [
                "sverh\u00e4ltnisse",
                -9.34695896911297
            ],
            [
                "\u2581Test",
                -9.347301746195296
            ],
            [
                "\u2581Praxis",
                -9.347678220733993
            ],
            [
                "\u2581Coachings",
                -9.347691672798522
            ],
            [
                "\u2581starte",
                -9.348015814876286
            ],
            [
                "sk",
                -9.348569523237867
            ],
            [
                "\u2581Dank",
                -9.34902521053045
            ],
            [
                "\u2581ver\u00e4ndern",
                -9.349057228551748
            ],
            [
                "irche",
                -9.350452752759157
            ],
            [
                "\u2581fr\u00fcher",
                -9.350736527412474
            ],
            [
                "\u2581Arztes",
                -9.35108258627682
            ],
            [
                "\u2581fielen",
                -9.351872860284873
            ],
            [
                "\u2581Oder",
                -9.352146638237995
            ],
            [
                "\u2581hundert",
                -9.352149153556574
            ],
            [
                "\u2581leer",
                -9.353065069860563
            ],
            [
                "\u2581beginnen",
                -9.353251639213399
            ],
            [
                "\u2581solle",
                -9.353504987251704
            ],
            [
                "\u2581schneller",
                -9.35423906187751
            ],
            [
                "\u2581musste",
                -9.3564674988367
            ],
            [
                "ler",
                -9.356859777558444
            ],
            [
                "\u2581Entwicklungs",
                -9.35758357554866
            ],
            [
                "\u2581tot.",
                -9.35803553681719
            ],
            [
                "\u2581Exi",
                -9.358255369519433
            ],
            [
                "tr\u00e4ge",
                -9.359092412366515
            ],
            [
                "kampf",
                -9.360491074597881
            ],
            [
                "\u2581Wege",
                -9.360611027967602
            ],
            [
                "\u2581schlie\u00df",
                -9.36132750619061
            ],
            [
                "bel",
                -9.361633167503507
            ],
            [
                "\u2581Richt",
                -9.362119580044123
            ],
            [
                "\u2581sterben",
                -9.362179349493994
            ],
            [
                "ert",
                -9.362330192109013
            ],
            [
                "st\u00e4ndnis",
                -9.362958689728593
            ],
            [
                "\u2581per",
                -9.363059638576724
            ],
            [
                "ver",
                -9.36362541597176
            ],
            [
                "\u2581d\u00fcrfen",
                -9.36370835155411
            ],
            [
                "\u2581f\u00fchrte",
                -9.363776280397992
            ],
            [
                "\u2581Worten",
                -9.363836930638607
            ],
            [
                "\u2581Mo",
                -9.364508674793404
            ],
            [
                "Boxen",
                -9.366679288014836
            ],
            [
                "r\u00e4der",
                -9.367096574025135
            ],
            [
                "\u2581bleiben",
                -9.36735933472368
            ],
            [
                "\u2581gesund",
                -9.368364549263921
            ],
            [
                "leider",
                -9.36852635889366
            ],
            [
                "aufwand",
                -9.369417050975835
            ],
            [
                "\u2581Sieg",
                -9.369922553288943
            ],
            [
                "\u2581Kindes",
                -9.37004558953572
            ],
            [
                "\u2581kurze",
                -9.37048462278927
            ],
            [
                "\u2581Erst",
                -9.371247444056237
            ],
            [
                "agen",
                -9.3712994937412
            ],
            [
                "\u2581Lernen",
                -9.372524001600357
            ],
            [
                "gnet",
                -9.373018044504047
            ],
            [
                "\u2581wichtig",
                -9.373638689396518
            ],
            [
                "plan",
                -9.37388564517107
            ],
            [
                "\u2581M\u00e4",
                -9.373938379637277
            ],
            [
                "\u2581kleiner",
                -9.374327032708528
            ],
            [
                "6",
                -9.374599684534111
            ],
            [
                "\u2581sp",
                -9.374998700531243
            ],
            [
                "tlichen",
                -9.376186730845767
            ],
            [
                "\u2581beste",
                -9.376509135782218
            ],
            [
                "\u2581sollen",
                -9.376580350950912
            ],
            [
                "\u2581Irgendw",
                -9.379293447587862
            ],
            [
                "tionen",
                -9.380214787548809
            ],
            [
                "\u2581z",
                -9.380772048930027
            ],
            [
                "\u2581Urias",
                -9.381508643620876
            ],
            [
                "\u2581Fach",
                -9.383538249775427
            ],
            [
                "gekommen.",
                -9.38407844994141
            ],
            [
                "\u2581De",
                -9.385081790745208
            ],
            [
                "aden",
                -9.385499236355718
            ],
            [
                "ck",
                -9.387653189295037
            ],
            [
                "\u2581Knechten",
                -9.39227190275582
            ],
            [
                "iger",
                -9.392543065185492
            ],
            [
                "\u2581glaube",
                -9.398846594370198
            ],
            [
                "\u2581gestellt",
                -9.399760092433628
            ],
            [
                "weisen",
                -9.401809553503675
            ],
            [
                "\u2581biobasierte",
                -9.401912550187966
            ],
            [
                "\u2581Gesch\u00e4ft",
                -9.404926182341487
            ],
            [
                "\u258112",
                -9.405668665614574
            ],
            [
                "gefragt",
                -9.406184130023803
            ],
            [
                "etzt",
                -9.407224757075412
            ],
            [
                "\u2581wa",
                -9.409580697944321
            ],
            [
                "greifen",
                -9.409875982869865
            ],
            [
                "\u2581Stra\u00dfen",
                -9.411118150787292
            ],
            [
                "\u2581Verm",
                -9.411673796516027
            ],
            [
                "\u2581Hat",
                -9.411717520972713
            ],
            [
                "anz",
                -9.413359166363318
            ],
            [
                "\u2581War",
                -9.41402376870213
            ],
            [
                "\u00e4higkeit",
                -9.414114400081466
            ],
            [
                "son",
                -9.414263801913442
            ],
            [
                "tlich",
                -9.415742130816076
            ],
            [
                "\u2581hart",
                -9.417208568232557
            ],
            [
                "ro",
                -9.418744499236277
            ],
            [
                "\u2581Dinge",
                -9.419511108989855
            ],
            [
                "\u2581Wo",
                -9.420548355841591
            ],
            [
                "zeit",
                -9.421213342125888
            ],
            [
                "brauchen",
                -9.423769041998698
            ],
            [
                "sen",
                -9.423780104788229
            ],
            [
                "\u2581Si",
                -9.423997407253085
            ],
            [
                "\u2581versch",
                -9.424776403323829
            ],
            [
                "halt",
                -9.425392681382638
            ],
            [
                "nehmensberater",
                -9.425812049195153
            ],
            [
                "ong",
                -9.427569287515349
            ],
            [
                "w\u00f6rt",
                -9.429315450726326
            ],
            [
                "\u2581umge",
                -9.430499255357812
            ],
            [
                "\u25815",
                -9.431067107209643
            ],
            [
                "\u2581ei",
                -9.431211469845104
            ],
            [
                "\u2581Lehre",
                -9.432999121447123
            ],
            [
                "bare",
                -9.433810967933931
            ],
            [
                "rige",
                -9.435413174920786
            ],
            [
                "\u2581stand",
                -9.436398088740685
            ],
            [
                "\u2581dar",
                -9.43673601634121
            ],
            [
                "\u2581eng",
                -9.437615626424446
            ],
            [
                "\u2581anzu",
                -9.440202376247097
            ],
            [
                "\u2581Oper",
                -9.440363061555866
            ],
            [
                "roh",
                -9.441137277039894
            ],
            [
                "\u2581extrem",
                -9.441482808884889
            ],
            [
                "\u2581Prozesse",
                -9.442847504483778
            ],
            [
                "\u2581gewisse",
                -9.443050939250593
            ],
            [
                "ie\u00c3\u0178",
                -9.443513159474477
            ],
            [
                "\u2581201",
                -9.4442858072996
            ],
            [
                "chwanger",
                -9.445088316938723
            ],
            [
                "\u2581Gespr\u00e4che",
                -9.447760720854696
            ],
            [
                "gef\u00fchrt",
                -9.447935052948125
            ],
            [
                "\u00e4tz",
                -9.449193286574573
            ],
            [
                "\u2581Abe",
                -9.451055916387235
            ],
            [
                "\u2581Zeiten",
                -9.451200895158768
            ],
            [
                "gestellt",
                -9.452428459305283
            ],
            [
                "\u2581Beha",
                -9.454952403268019
            ],
            [
                "\u2581besonder",
                -9.4550664582886
            ],
            [
                "\u2581irgendw",
                -9.456880027649376
            ],
            [
                "\u2581manch",
                -9.457754031633442
            ],
            [
                "\u2581Forschung",
                -9.457946313009174
            ],
            [
                "nterst\u00fctz",
                -9.458353519369616
            ],
            [
                "\u2581v",
                -9.458939756026188
            ],
            [
                "\u2581Ro",
                -9.461264644080213
            ],
            [
                "\u2581Bas",
                -9.464925218240735
            ],
            [
                "wegen",
                -9.465087504819156
            ],
            [
                "haus",
                -9.466717295425697
            ],
            [
                "\u2581angeb",
                -9.47001320018206
            ],
            [
                "\u2581R.",
                -9.474007213713984
            ],
            [
                "\u2581Se",
                -9.474184260487931
            ],
            [
                "spiel",
                -9.475153582757601
            ],
            [
                "standen",
                -9.476257520121997
            ],
            [
                "\u2581Dein",
                -9.476904214537223
            ],
            [
                "\u2581F\u00fchrungs",
                -9.47697714628409
            ],
            [
                "M",
                -9.47797472722137
            ],
            [
                "\u2581Sa",
                -9.480421640721156
            ],
            [
                "\u2581Men",
                -9.480782555177221
            ],
            [
                "teuer",
                -9.481109522390643
            ],
            [
                "\u2581beruflich",
                -9.482138335643937
            ],
            [
                "\u2581gleich",
                -9.48237573013556
            ],
            [
                "mmer",
                -9.48364520898712
            ],
            [
                "\u2581Handel",
                -9.48407036736126
            ],
            [
                "bild",
                -9.485367712760869
            ],
            [
                "\u2581vieler",
                -9.486203213616594
            ],
            [
                "\u2581Kon",
                -9.488010415047217
            ],
            [
                "\u2581Hab",
                -9.48952360355928
            ],
            [
                "eziehung",
                -9.489563386096279
            ],
            [
                "erade",
                -9.491079418477952
            ],
            [
                "\u2581bestimmte",
                -9.491717272127033
            ],
            [
                "\u2581unser",
                -9.491988959846768
            ],
            [
                "weg",
                -9.493178790042553
            ],
            [
                "\u2581To",
                -9.493439673675141
            ],
            [
                "\u2581sch\u00f6ne",
                -9.49369501916063
            ],
            [
                "8",
                -9.495310877204128
            ],
            [
                "\u00c31\u20444",
                -9.495897647579755
            ],
            [
                "schlie\u00dfen",
                -9.496571431675292
            ],
            [
                "\u258160",
                -9.49664841433388
            ],
            [
                "\u2581Oh",
                -9.496676658884343
            ],
            [
                "\u2581niema",
                -9.49753924169199
            ],
            [
                "ell",
                -9.497819364045801
            ],
            [
                "schlagen",
                -9.498486727916218
            ],
            [
                "hand",
                -9.500268947101308
            ],
            [
                "lassen",
                -9.501449506613127
            ],
            [
                "alten",
                -9.501632704678181
            ],
            [
                "\u2581\u201eIn",
                -9.501836660185294
            ],
            [
                "\u2581Sinn",
                -9.504796886964254
            ],
            [
                "weis",
                -9.505383517081247
            ],
            [
                "ken",
                -9.505471755540096
            ],
            [
                "f\u00e4ll",
                -9.506459738916272
            ],
            [
                "\u2581setzt",
                -9.506544927796089
            ],
            [
                "\u2581spielt",
                -9.510968550726586
            ],
            [
                "\u2581Philosoph",
                -9.511464529705837
            ],
            [
                "\u2581Gespr\u00e4ch",
                -9.511930970588233
            ],
            [
                "kommen",
                -9.512588595449579
            ],
            [
                "\u2581L\u00f6s",
                -9.513537380722928
            ],
            [
                "G",
                -9.51424033485708
            ],
            [
                "\u2581Lau",
                -9.51643289854236
            ],
            [
                "er.",
                -9.516579673767666
            ],
            [
                "\u2581letzt",
                -9.517176453683659
            ],
            [
                "ls",
                -9.518113990900211
            ],
            [
                "lei",
                -9.518548406457738
            ],
            [
                "mil",
                -9.518665969991403
            ],
            [
                "\u2581Lehr",
                -9.519866912018461
            ],
            [
                "ine",
                -9.519950207763687
            ],
            [
                "\u2581Prozess",
                -9.521739407351198
            ],
            [
                "werden",
                -9.52332743002791
            ],
            [
                "\u2581Act!",
                -9.525529537836471
            ],
            [
                "ust",
                -9.526251280034984
            ],
            [
                "\u258190",
                -9.528670675501896
            ],
            [
                "\u2581Mass",
                -9.530121096706482
            ],
            [
                "\u2581Eigen",
                -9.53123930416494
            ],
            [
                "\u2581Ti",
                -9.532043954320034
            ],
            [
                "\u2581darau",
                -9.535924747573004
            ],
            [
                "\u2581fr\u00fche",
                -9.539276885629999
            ],
            [
                "\u2581Co",
                -9.539899099681463
            ],
            [
                "tel",
                -9.540000595633849
            ],
            [
                "\u2581\u00e4lter",
                -9.540574706747954
            ],
            [
                "rung",
                -9.541009213527778
            ],
            [
                "ad",
                -9.543017647856555
            ],
            [
                "\u2581N\u00e4",
                -9.544039055868932
            ],
            [
                "\u2581Neue",
                -9.546277433236606
            ],
            [
                "bst",
                -9.54739779293423
            ],
            [
                "\u2581\u201eW",
                -9.547449792453005
            ],
            [
                "id",
                -9.547799036268966
            ],
            [
                "hause",
                -9.548163385887923
            ],
            [
                "\u00dft",
                -9.54848738445873
            ],
            [
                "\u2581h",
                -9.548498896652285
            ],
            [
                "om",
                -9.54872775815416
            ],
            [
                "\u2581fu",
                -9.549901830632603
            ],
            [
                "\u2581gel",
                -9.550809733960726
            ],
            [
                "\u2581Ga",
                -9.554025933513524
            ],
            [
                "\u2581Abs",
                -9.554697312935568
            ],
            [
                "by",
                -9.555218558852847
            ],
            [
                "sg",
                -9.555246860342203
            ],
            [
                "eite",
                -9.55608831736058
            ],
            [
                "igt",
                -9.558867543801327
            ],
            [
                "\u2581k\u00f6nne",
                -9.55978278320731
            ],
            [
                "\u2581rechte",
                -9.561397863662226
            ],
            [
                "Ein",
                -9.562063129705326
            ],
            [
                "\u2581Gesch\u00e4fts",
                -9.564273243681576
            ],
            [
                "\u2581direkte",
                -9.564651959630694
            ],
            [
                "unter",
                -9.56597479668083
            ],
            [
                "\u00c3\u00b6",
                -9.567396516769605
            ],
            [
                "Afrika",
                -9.568911115552838
            ],
            [
                "gef\u00e4hr",
                -9.57187689602552
            ],
            [
                "ckt",
                -9.573362082321342
            ],
            [
                "rf",
                -9.576960963944833
            ],
            [
                "\u2581klein",
                -9.577455391423005
            ],
            [
                "\u2581lasse",
                -9.578286900022501
            ],
            [
                "als",
                -9.578934355974248
            ],
            [
                "gesetzt",
                -9.57894984502906
            ],
            [
                "rei",
                -9.580163862613269
            ],
            [
                "gekommen",
                -9.580774825183777
            ],
            [
                "\u2581fragt",
                -9.583237266913653
            ],
            [
                "rieren",
                -9.583469088857912
            ],
            [
                "stag",
                -9.584434526280688
            ],
            [
                "ja",
                -9.585349433863051
            ],
            [
                "schung",
                -9.585770629237325
            ],
            [
                "h\u00e4lt",
                -9.586740385063173
            ],
            [
                "\u2581p",
                -9.59029414436635
            ],
            [
                "erien",
                -9.590566543325732
            ],
            [
                "\u2581we",
                -9.590748666971022
            ],
            [
                "\u2581Stra\u00dfe",
                -9.590827386257082
            ],
            [
                "iten",
                -9.59149014952936
            ],
            [
                "statt",
                -9.591617288173653
            ],
            [
                "\u2581ex",
                -9.592426302119515
            ],
            [
                "\u2581zieh",
                -9.592549638903325
            ],
            [
                "reichen",
                -9.597251970247008
            ],
            [
                "hr",
                -9.597366802059769
            ],
            [
                "nien",
                -9.600768465490816
            ],
            [
                "\u25818",
                -9.603091615987935
            ],
            [
                "t\u00e4tig",
                -9.604837756871552
            ],
            [
                "ock",
                -9.606238151889364
            ],
            [
                "nt",
                -9.606311497547217
            ],
            [
                "\u2581zeige",
                -9.60659231791576
            ],
            [
                "sagen",
                -9.607170767739682
            ],
            [
                "\u2581seien",
                -9.60734969056969
            ],
            [
                "\u2581Deutsch",
                -9.607510422608573
            ],
            [
                "elten",
                -9.60793906230035
            ],
            [
                "ator",
                -9.609423642952368
            ],
            [
                "\u2581komm",
                -9.610885074976752
            ],
            [
                "Deutschland",
                -9.61192495388053
            ],
            [
                "\u2581Fe",
                -9.612488954816747
            ],
            [
                "\u00dfen",
                -9.614822073961063
            ],
            [
                "apie",
                -9.618120691664833
            ],
            [
                "ahl",
                -9.622920148495908
            ],
            [
                "\u2581Konflikte",
                -9.623118146378213
            ],
            [
                "ik",
                -9.62367898905892
            ],
            [
                "ster",
                -9.624633993806103
            ],
            [
                "\u2581erw",
                -9.626162048593857
            ],
            [
                "'",
                -9.62640574892711
            ],
            [
                "-Festplatte",
                -9.628000141519436
            ],
            [
                "nen",
                -9.62834104738744
            ],
            [
                "\u2581Anh",
                -9.628641886752101
            ],
            [
                "\u2581Pers\u00f6nlichkeit",
                -9.629771821693716
            ],
            [
                "\u00fc",
                -9.630027655891721
            ],
            [
                "gesamt",
                -9.630712094829104
            ],
            [
                "\u00e4tze",
                -9.632745141538317
            ],
            [
                "greift",
                -9.63284451597659
            ],
            [
                "twa",
                -9.633431183112627
            ],
            [
                "\u2581oben",
                -9.635592536903523
            ],
            [
                "\u258111",
                -9.635934381455309
            ],
            [
                "von",
                -9.636133050055744
            ],
            [
                "urz",
                -9.637256079613698
            ],
            [
                "\u2581Klasse",
                -9.637327091514262
            ],
            [
                "\u2581Mobb",
                -9.638324157850045
            ],
            [
                "art",
                -9.639511936881023
            ],
            [
                "omas",
                -9.639900519056853
            ],
            [
                "ne",
                -9.64190841692796
            ],
            [
                "\u2581En",
                -9.643040733858832
            ],
            [
                "\u2581n\u00e4",
                -9.643757009341002
            ],
            [
                "ntsprechend",
                -9.64591023127034
            ],
            [
                "\u2581versucht",
                -9.646603488245217
            ],
            [
                "\u2581Is",
                -9.647152162795749
            ],
            [
                "\u2581Zahl",
                -9.647488801832338
            ],
            [
                "\u2581Dan",
                -9.648379904866076
            ],
            [
                "\u2581Klient",
                -9.64921056535703
            ],
            [
                "\u2581morgen",
                -9.649441860519378
            ],
            [
                "\u2581Frau",
                -9.649657804516325
            ],
            [
                "dienst",
                -9.651370878253429
            ],
            [
                "ort",
                -9.652530898795685
            ],
            [
                "\u2581Form",
                -9.654131153659689
            ],
            [
                "\u2581gro",
                -9.656148822621976
            ],
            [
                "\u2581Gott",
                -9.65622530238839
            ],
            [
                "\u2581Mil",
                -9.656293650615739
            ],
            [
                "\u2581F\u00e4higkeit",
                -9.656312383309583
            ],
            [
                "loss",
                -9.65648860799039
            ],
            [
                "tritt",
                -9.657643465017136
            ],
            [
                "inform",
                -9.657821715032169
            ],
            [
                "\u2581Besch",
                -9.658470655265315
            ],
            [
                "\u2581sog",
                -9.659193618297124
            ],
            [
                "\u2581Psych",
                -9.659702739409425
            ],
            [
                "uar",
                -9.659835865674843
            ],
            [
                "rkl\u00e4rung",
                -9.66025509471865
            ],
            [
                "wir",
                -9.660294691019036
            ],
            [
                "\u2581verh\u00e4lt",
                -9.660504715288829
            ],
            [
                "\u2581Coaching",
                -9.660526433237838
            ],
            [
                "IN",
                -9.660628240984286
            ],
            [
                "\u2581Anfang",
                -9.661881705825031
            ],
            [
                "\u2581Katholik",
                -9.661887659088901
            ],
            [
                "\u2581D\u00fcsseldorf",
                -9.661887659088986
            ],
            [
                "\u2581Restaurant",
                -9.661887659089563
            ],
            [
                "\u2581Verzweiflung",
                -9.661887659091079
            ],
            [
                "\u2581Universit\u00e4t",
                -9.661887659091782
            ],
            [
                "\u2581Giovanna",
                -9.661887659099207
            ],
            [
                "\u2581Bei\u00dfhemmung",
                -9.661887659099795
            ],
            [
                "NZTC",
                -9.66188765911963
            ],
            [
                "\u2581Authentizit\u00e4t",
                -9.661887659124963
            ],
            [
                "\u2581Antiepileptik",
                -9.661887659127812
            ],
            [
                "\u2581medizinische",
                -9.661887659268087
            ],
            [
                "\u2581Industrie",
                -9.661887659343293
            ],
            [
                "\u2581Propheten",
                -9.661887659363998
            ],
            [
                "\u2581Frankreich",
                -9.66188765960717
            ],
            [
                "sozio-emotionale",
                -9.661887660025945
            ],
            [
                "\u2581promoviert",
                -9.66188766038622
            ],
            [
                "\u2581\u00c4gypte",
                -9.66188766038848
            ],
            [
                "\u2581interessant",
                -9.661887661510335
            ],
            [
                "\u2581kontrollier",
                -9.661887661743854
            ],
            [
                "\u2581Weltkrieg",
                -9.661887662343904
            ],
            [
                "\u2581Franzose",
                -9.661887662909908
            ],
            [
                "\u2581Konzept",
                -9.6618876636975
            ],
            [
                "\u2581Hadadeser",
                -9.661887663714374
            ],
            [
                "Selbsterkenntnis",
                -9.661887665414405
            ],
            [
                "\u2581Neonazi",
                -9.661887665886074
            ],
            [
                "\u2581regelm\u00e4\u00dfig",
                -9.661887666111024
            ],
            [
                "\u2581Konkurren",
                -9.661887666300084
            ],
            [
                "\u2581M\u00f6glichkeit",
                -9.66188766657668
            ],
            [
                "\u2581Betroffen",
                -9.661887666860606
            ],
            [
                "klusiv",
                -9.661887666939654
            ],
            [
                "\u2581Bedeutung",
                -9.661887667414694
            ],
            [
                "\u2581Donnerstag",
                -9.661887671410014
            ],
            [
                "\u2581trotzdem",
                -9.661887672424822
            ],
            [
                "\u2581Migration",
                -9.661887672774064
            ],
            [
                "industrie",
                -9.661887675919088
            ],
            [
                "\u2581biologisch",
                -9.661887679302389
            ],
            [
                "\u2581H\u00f6chst",
                -9.661887687403508
            ],
            [
                "\u2581Religion",
                -9.661887700974729
            ],
            [
                "\u2581Amerika",
                -9.661887711278528
            ],
            [
                "\u2581Verantwort",
                -9.661887726485885
            ],
            [
                "\u2581Fremdenhass",
                -9.661887730881949
            ],
            [
                "\u2581Kr\u00e4fte",
                -9.661887749514712
            ],
            [
                "\u2581Hybrid-",
                -9.66188776784123
            ],
            [
                "\u2581Sparring",
                -9.661887780602237
            ],
            [
                "\u2581beobachtet",
                -9.66188779757541
            ],
            [
                "\u2581Methode",
                -9.661887804474055
            ],
            [
                "\u2581Rabatt",
                -9.661887808047748
            ],
            [
                "\u2581Taktik",
                -9.66188782571668
            ],
            [
                "zeichnet",
                -9.661887842930902
            ],
            [
                "\u2581IHK",
                -9.661887850877681
            ],
            [
                "\u2581arabische",
                -9.661887882992644
            ],
            [
                "\u2581automatisch",
                -9.661887906775547
            ],
            [
                "\u2581m\u00e4nnliche",
                -9.661887916736193
            ],
            [
                "\u2581Beh\u00f6rden",
                -9.661887928027358
            ],
            [
                "orientierte",
                -9.661888094000819
            ],
            [
                "\u2581profitier",
                -9.661888115213111
            ],
            [
                "\u2581Kalif",
                -9.661888136420961
            ],
            [
                "kompliziert",
                -9.661888197523204
            ],
            [
                "\u2581Premier",
                -9.66188826506728
            ],
            [
                "\u2581Balkan",
                -9.661888489122308
            ],
            [
                "forderung",
                -9.661888635893497
            ],
            [
                "eriphere",
                -9.661888720337261
            ],
            [
                "\u2581Nerven",
                -9.661889016830436
            ],
            [
                "\u2581Papst",
                -9.661889305779209
            ],
            [
                "\u2581Rezept",
                -9.661889815140636
            ],
            [
                "\u2581H\u00f6he",
                -9.661889916623327
            ],
            [
                "\u2581St\u00e4dte",
                -9.661890212356003
            ],
            [
                "\u2581gemeinsam",
                -9.66189039885995
            ],
            [
                "wechsel",
                -9.661890570381692
            ],
            [
                "\u2581MS-",
                -9.661891052522979
            ],
            [
                "\u2581psychologisch",
                -9.661891439851022
            ],
            [
                "\u2581Kontroll",
                -9.661891442935795
            ],
            [
                "online",
                -9.661891904628098
            ],
            [
                "Gordon",
                -9.6618921603241
            ],
            [
                "\u2581Gegenwart",
                -9.661892217371644
            ],
            [
                "\u2581bemerken",
                -9.661895566391836
            ],
            [
                "\u2581Nahrungsmittel",
                -9.661895579595628
            ],
            [
                "\u2581genutzt",
                -9.661895808696606
            ],
            [
                "usiness-",
                -9.661897326317241
            ],
            [
                "Nostrum",
                -9.661898365655297
            ],
            [
                "igital",
                -9.661901352193974
            ],
            [
                "\u2581Erkrankung",
                -9.661901614649528
            ],
            [
                "\u2581Gl\u00fcck",
                -9.661901835820029
            ],
            [
                "\u2581verhaftet",
                -9.66190323701481
            ],
            [
                "\u2581ber\u00fchrt",
                -9.661903446402194
            ],
            [
                "\u2581Antwort",
                -9.66190351052376
            ],
            [
                "\u2581\u00fcbersteigt",
                -9.661903671909327
            ],
            [
                "\u2581studiert",
                -9.66190577816903
            ],
            [
                "\u2581Gewalt",
                -9.661906014335457
            ],
            [
                "\u2581Tausende",
                -9.661906401163415
            ],
            [
                "\u2581Gegenangriff",
                -9.661906904564216
            ],
            [
                "\u2581Kontext",
                -9.661907883826785
            ],
            [
                "\u2581Vorstands",
                -9.66190808359435
            ],
            [
                "\u2581Kleinkindzimmer",
                -9.661908212843933
            ],
            [
                "\u2581gestrichen",
                -9.661913796691955
            ],
            [
                "\u2581Einwander",
                -9.66191682863527
            ],
            [
                "\u2581Gesch\u00e4ftsf\u00fchr",
                -9.661919087703897
            ],
            [
                "\u2581Weiterbildung",
                -9.661925313887453
            ],
            [
                "\u2581Park",
                -9.66192746629054
            ],
            [
                "\u2581Vorschul",
                -9.661929152170737
            ],
            [
                "sicherheit",
                -9.661929384304537
            ],
            [
                "\u2581Boot",
                -9.661932865520914
            ],
            [
                "\u2581\u00c4ngste",
                -9.661934759316313
            ],
            [
                "\u2581st\u00f6\u00dft",
                -9.661936775445035
            ],
            [
                "\u2581\u00fcbermittelt",
                -9.661937147353047
            ],
            [
                "\u2581Jugend",
                -9.661940347893797
            ],
            [
                "\u2581vergessen",
                -9.66194428674311
            ],
            [
                "\u2581Mitglieder",
                -9.661945831555835
            ],
            [
                "\u2581Kraftfahrzeug",
                -9.661958849423863
            ],
            [
                "\u2581entgegen",
                -9.661961229704298
            ],
            [
                "\u2581Video",
                -9.661963128032372
            ],
            [
                "\u2581Kapit",
                -9.661969292450312
            ],
            [
                "\u2581fachlich",
                -9.66197008539982
            ],
            [
                "\u2581Gesetz",
                -9.661977673470709
            ],
            [
                "\u2581Montag",
                -9.661995986858111
            ],
            [
                "\u2581Imperi",
                -9.662001286667568
            ],
            [
                "\u2581fehlt",
                -9.662001437023767
            ],
            [
                "\u2581Radikal",
                -9.662004170817935
            ],
            [
                "nonym",
                -9.66200865770764
            ],
            [
                "\u2581Begriff",
                -9.662011353365887
            ],
            [
                "wirkungen",
                -9.662017310314587
            ],
            [
                "\u2581Fahrrad",
                -9.662026384133451
            ],
            [
                "\u2581Pflanze",
                -9.662027020454175
            ],
            [
                "isch",
                -9.662046953344444
            ],
            [
                "\u2581PKW",
                -9.662051376648574
            ],
            [
                "\u2581Klar",
                -9.662059727551714
            ],
            [
                "\u2581sitzt",
                -9.662067325427156
            ],
            [
                "\u2581abzubauen",
                -9.662071397215119
            ],
            [
                "\u2581normal",
                -9.662076850970971
            ],
            [
                "\u2581Terror",
                -9.662082257867311
            ],
            [
                "\u2581erreichte",
                -9.662093185907583
            ],
            [
                "\u2581Hanun",
                -9.662099577356186
            ],
            [
                "\u2581Doppel",
                -9.662112656085098
            ],
            [
                "\u2581belager",
                -9.662114907996113
            ],
            [
                "\u2581USA",
                -9.662127425699556
            ],
            [
                "\u2581fastete",
                -9.662132555130434
            ],
            [
                "\u2581k\u00fcrz",
                -9.662143743874804
            ],
            [
                "\u2581H\u00e4ufig",
                -9.662157092909005
            ],
            [
                "\u2581Natur",
                -9.662157549919762
            ],
            [
                "\u2581Situation",
                -9.662161594499699
            ],
            [
                "komplexe",
                -9.662164610261886
            ],
            [
                "\u25812015",
                -9.662174993016286
            ],
            [
                "\u2581hielt",
                -9.662175704550123
            ],
            [
                "\u2581Hostie",
                -9.662184823320175
            ],
            [
                "\u2581\u00dcberleben",
                -9.662219156578828
            ],
            [
                "\u2581betr\u00e4gt",
                -9.662224056208258
            ],
            [
                "\u2581Wolf",
                -9.662226851758405
            ],
            [
                "\u2581abends",
                -9.662235858986374
            ],
            [
                "\u2581Strand",
                -9.662244261266482
            ],
            [
                "\u2581gr\u00f6\u00dfer",
                -9.6622461577434
            ],
            [
                "\u2581n\u00e4her",
                -9.662283958295149
            ],
            [
                "\u2581kaufst",
                -9.662294760121052
            ],
            [
                "\u2581Einfluss",
                -9.662305002144528
            ],
            [
                "\u25811993",
                -9.662310492061511
            ],
            [
                "\u2581Gruppe",
                -9.662329196636193
            ],
            [
                "\u2581Hub",
                -9.66233401038609
            ],
            [
                "\u2581Erkenn",
                -9.662352569883804
            ],
            [
                "\u2581Bindung",
                -9.662360392775298
            ],
            [
                "\u2581ausl\u00e4ndische",
                -9.662398140142415
            ],
            [
                "hy",
                -9.662408757422929
            ],
            [
                "\u2581Kraft",
                -9.662410197648162
            ],
            [
                "\u2581Schlaf",
                -9.662440404999597
            ],
            [
                "\u2581Start",
                -9.662501546883531
            ],
            [
                "\u2581angegriffen",
                -9.662514328680643
            ],
            [
                "\u2581stammt",
                -9.662515761501885
            ],
            [
                "\u2581\u00d6ff",
                -9.662534295088049
            ],
            [
                "\u2581200",
                -9.662541217029412
            ],
            [
                "AS",
                -9.662554249942549
            ],
            [
                "\u2581galt",
                -9.662595988253896
            ],
            [
                "IE",
                -9.662614635574457
            ],
            [
                "\u2581abgelegt",
                -9.662620463802698
            ],
            [
                "\u2581Aktivit\u00e4t",
                -9.662666605055081
            ],
            [
                "\u2581Pr\u00e4s",
                -9.662685798674413
            ],
            [
                "\u2581Attacke",
                -9.662715348890409
            ],
            [
                "\u2581kW",
                -9.662807743970076
            ],
            [
                "\u2581Wei\u00df",
                -9.662829636216598
            ],
            [
                "\u2581sitzen",
                -9.6628391699331
            ],
            [
                "\u2581Schulz",
                -9.662858192932628
            ],
            [
                "\u2581empfehlenswert",
                -9.662888305925424
            ],
            [
                "\u2581Gewicht",
                -9.662929006911927
            ],
            [
                "\u2581Dadurch",
                -9.662948657355148
            ],
            [
                "\u2581Mahl",
                -9.662988658546947
            ],
            [
                "\u2581empf",
                -9.663003224841166
            ],
            [
                "gestalte",
                -9.663007860973504
            ],
            [
                "\u2581Engl",
                -9.663072503588074
            ],
            [
                "\u2581praktisch",
                -9.663136703177706
            ],
            [
                "\u2581boxt",
                -9.663179528472769
            ],
            [
                "\u2581Tod",
                -9.66320157146247
            ],
            [
                "\u2581Baby",
                -9.663241655409673
            ],
            [
                "\u2581ver\u00f6ffentlich",
                -9.663245157030145
            ],
            [
                "\u2581Welche",
                -9.66328285361039
            ],
            [
                "\u2581Bewerber",
                -9.663302377440454
            ],
            [
                "mobb",
                -9.663325119899469
            ],
            [
                "\u2581Fehler",
                -9.663339373742012
            ],
            [
                "-Ad",
                -9.663347697135906
            ],
            [
                "\u2581ausreichend",
                -9.663388371713669
            ],
            [
                "\u2581ben\u00f6tigt",
                -9.66343916352236
            ],
            [
                "\u2581besch\u00e4ftigt",
                -9.663475396097919
            ],
            [
                "\u2581endlich",
                -9.663491603972254
            ],
            [
                "anteil",
                -9.663530054468701
            ],
            [
                "w\u00e4chst",
                -9.663563945947644
            ],
            [
                "EX",
                -9.663654980435032
            ],
            [
                "\u2581lebendig",
                -9.663696277802272
            ],
            [
                "\u2581Bundes",
                -9.66381967088251
            ],
            [
                "\u2581Neben",
                -9.663835407955087
            ],
            [
                "\u2581Boxc",
                -9.663913230720532
            ],
            [
                "\u2581Geld",
                -9.663941656631362
            ],
            [
                "\u2581S\u00fcd",
                -9.66398427664884
            ],
            [
                "\u2581speichern",
                -9.664097181852123
            ],
            [
                "\u2581eingesetzt",
                -9.664118399223533
            ],
            [
                "schrank",
                -9.664296549725789
            ],
            [
                "2018",
                -9.664353880101107
            ],
            [
                "\u2581still",
                -9.66451813268607
            ],
            [
                "wirtschaft",
                -9.66477037098037
            ],
            [
                "\u2581auftritt",
                -9.664842939015468
            ],
            [
                "\u2581F\u00e4",
                -9.664914967573733
            ],
            [
                "\u2581Schwellungen",
                -9.665067077760783
            ],
            [
                "\u2581trafen",
                -9.665086174344284
            ],
            [
                "\u2581\u201eMi",
                -9.665235339253805
            ],
            [
                "\u2581auszu",
                -9.665459073399898
            ],
            [
                "\u2581Brand",
                -9.665569914258747
            ],
            [
                "app",
                -9.66558204044698
            ],
            [
                "rief",
                -9.66575719493989
            ],
            [
                "\u2581erh\u00f6ht",
                -9.665852936869536
            ],
            [
                "\u2581Frieden",
                -9.666130017383674
            ],
            [
                "\u2581Schnee",
                -9.666137404372352
            ],
            [
                "\u2581bekommt",
                -9.666624507760318
            ],
            [
                "\u2581Bundesver",
                -9.666776925806154
            ],
            [
                "\u2581Sitzung",
                -9.667270474096593
            ],
            [
                "\u2581Gelegenheit",
                -9.66728722319097
            ],
            [
                "\u2581Linke",
                -9.667441743466474
            ],
            [
                "gute",
                -9.66747942387373
            ],
            [
                "\u2581erobert",
                -9.66759244691095
            ],
            [
                "\u2581Gottes",
                -9.667628247143394
            ],
            [
                "\u2581beantworte",
                -9.667819558035479
            ],
            [
                "\u2581Partnerin",
                -9.668016521872921
            ],
            [
                "\u2581gr\u00f6\u00dften",
                -9.668144394723825
            ],
            [
                "\u2581Gedanken",
                -9.668184233533859
            ],
            [
                "\u2581Todes",
                -9.668333256672433
            ],
            [
                "\u2581tut",
                -9.66840993064833
            ],
            [
                "\u2581lebt",
                -9.668430400488518
            ],
            [
                "\u2581Kleider",
                -9.668695825905704
            ],
            [
                "-Tou",
                -9.669129386754982
            ],
            [
                "\u2581Psychoanalyse",
                -9.669469623387384
            ],
            [
                "\u2581geh\u00f6ren",
                -9.670087748861185
            ],
            [
                "\u2581Job",
                -9.670520167763563
            ],
            [
                "\u2581verwenden",
                -9.670580068437477
            ],
            [
                "betrieb",
                -9.670907231286725
            ],
            [
                "\u2581Haushalt",
                -9.67092467300395
            ],
            [
                "\u2581nette",
                -9.670960771946197
            ],
            [
                "\u2581Haut",
                -9.671035210078042
            ],
            [
                "\u2581toll",
                -9.671060562535748
            ],
            [
                "\u2581derzeitige",
                -9.671320805743616
            ],
            [
                "sge",
                -9.67143529111991
            ],
            [
                "liefert",
                -9.671448144916727
            ],
            [
                "\u2581Fernsehe",
                -9.671484862712338
            ],
            [
                "dr\u00fcck",
                -9.671640061872361
            ],
            [
                "\u2581beweg",
                -9.671907764627981
            ],
            [
                "\u2581aufge",
                -9.671921076091449
            ],
            [
                "\u2581tief",
                -9.671946284408758
            ],
            [
                "\u2581interessiert",
                -9.671994606560881
            ],
            [
                "\u2581merkte",
                -9.672255617553429
            ],
            [
                "\u2581Alt",
                -9.672709889389663
            ],
            [
                "\u2581leiden",
                -9.672823784945457
            ],
            [
                "\u2581Schweizer",
                -9.673015617081091
            ],
            [
                "\u2581verursacht",
                -9.673165821552582
            ],
            [
                "\u2581Schmerzen",
                -9.673290650337469
            ],
            [
                "\u2581Ehe",
                -9.673323629368078
            ],
            [
                "\u2581vorbei",
                -9.674136863355221
            ],
            [
                "\u2581abzu",
                -9.674258896746641
            ],
            [
                "\u2581Reiter",
                -9.674416483681265
            ],
            [
                "\u2581verletzt",
                -9.674525870238792
            ],
            [
                "35",
                -9.674556515549444
            ],
            [
                "tation",
                -9.67459031803108
            ],
            [
                "oben",
                -9.674928673860421
            ],
            [
                "\u2581diskutiert",
                -9.67511890926487
            ],
            [
                "Hersteller",
                -9.675320875203642
            ],
            [
                "\u2581menschlich",
                -9.675522233895347
            ],
            [
                "\u2581Formen",
                -9.675763472849841
            ],
            [
                "gebildet",
                -9.675922632535983
            ],
            [
                "\u2581Antriebs",
                -9.676071847412267
            ],
            [
                "\u2581geb",
                -9.676083659003211
            ],
            [
                "geschickt",
                -9.676365986037172
            ],
            [
                "\u2581Ern\u00e4hrung",
                -9.676894549941933
            ],
            [
                "anci",
                -9.6772251692043
            ],
            [
                "\u2581unterst\u00fctzen",
                -9.677435197494574
            ],
            [
                "\u2581Mitarbeitern",
                -9.67745129556139
            ],
            [
                "\u258123",
                -9.677492874949827
            ],
            [
                "hmen",
                -9.67754417659434
            ],
            [
                "\u2581versuchte",
                -9.677808055645993
            ],
            [
                "\u2581produziert",
                -9.677883674486118
            ],
            [
                "\u2581gut\u201c",
                -9.677892229622074
            ],
            [
                "\u2581gehol",
                -9.677959294480628
            ],
            [
                "\u2581f\u00c31\u20444r",
                -9.678072216316915
            ],
            [
                "\u2581entdeckt",
                -9.679057411386028
            ],
            [
                "lock",
                -9.679382897464441
            ],
            [
                "st\u00f6rt",
                -9.67976710279807
            ],
            [
                "oxi",
                -9.6801021744798
            ],
            [
                "gelegt",
                -9.680226152900474
            ],
            [
                "\u2581Richtig",
                -9.680482823966113
            ],
            [
                "\u2581verlieren",
                -9.680565047604889
            ],
            [
                "\u2581Ausbildungs",
                -9.681152507910705
            ],
            [
                "\u2581feiern",
                -9.681782707760226
            ],
            [
                "\u2581verbraucht",
                -9.681840210175329
            ],
            [
                "\u2581Event",
                -9.681986228155967
            ],
            [
                "-T",
                -9.68200336532205
            ],
            [
                "\u2581Dokumentation",
                -9.68205744876834
            ],
            [
                "erobern",
                -9.683500691851098
            ],
            [
                "\u2581rass",
                -9.683891885466204
            ],
            [
                "\u2581freuen",
                -9.684142750577394
            ],
            [
                "\u2581Rache",
                -9.68422555119108
            ],
            [
                "\u2581Autor",
                -9.68426385515799
            ],
            [
                "-Weihnacht",
                -9.684475478640726
            ],
            [
                "\u2581Presse",
                -9.684651941742374
            ],
            [
                "\u2581erkannte",
                -9.684766418267435
            ],
            [
                "i\u00c3\u0178t",
                -9.68498022383091
            ],
            [
                "\u2581Nicht-",
                -9.685897460117708
            ],
            [
                "\u2581Alltags",
                -9.686282453113114
            ],
            [
                "f\u00e4ng",
                -9.68642617560146
            ],
            [
                "\u2581Mare",
                -9.686863297221914
            ],
            [
                "\u2581Weitere",
                -9.686982925508747
            ],
            [
                "ga",
                -9.687054837951699
            ],
            [
                "ilit\u00e4r",
                -9.68719518540686
            ],
            [
                "\u2581*",
                -9.68725635482123
            ],
            [
                "anische",
                -9.687743073408743
            ],
            [
                "\u2581kindliche",
                -9.687811271812578
            ],
            [
                "\u2581leisten",
                -9.688152685515957
            ],
            [
                "\u2581Banken",
                -9.688204725298341
            ],
            [
                "\u2581Leiden",
                -9.688375853180037
            ],
            [
                "\u2581wor",
                -9.688508283509574
            ],
            [
                "\u2581l",
                -9.688628134474335
            ],
            [
                "\u2581schaffen",
                -9.688928597573314
            ],
            [
                "\u2581verordnet",
                -9.689796283835179
            ],
            [
                "arten",
                -9.690338769131166
            ],
            [
                "ney",
                -9.690374403935623
            ],
            [
                "\u2581kannst",
                -9.691307526283653
            ],
            [
                "\u2581Akt",
                -9.691605037042795
            ],
            [
                "oment",
                -9.692349219819915
            ],
            [
                "\u2581jemanden",
                -9.692807914327652
            ],
            [
                "nsystemforschung",
                -9.693148916432197
            ],
            [
                "\u2581198",
                -9.693631512348814
            ],
            [
                "jahr",
                -9.694556422781156
            ],
            [
                "\u2581Schl\u00fcssel",
                -9.69488206943869
            ],
            [
                "eben",
                -9.696093513683591
            ],
            [
                "\u2581verwendet",
                -9.696443877041071
            ],
            [
                "\u2581Zell",
[...]
