{
    "version": "1.0",
    "truncation": null,
    "padding": null,
    "added_tokens": [
        {
            "id": 0,
            "content": "[UNK]",
            "single_word": false,
            "lstrip": false,
            "rstrip": false,
            "normalized": false,
            "special": true
        },
        {
            "id": 1,
            "content": "[CLS]",
            "single_word": false,
            "lstrip": false,
            "rstrip": false,
            "normalized": false,
            "special": true
        },
        {
            "id": 2,
            "content": "[SEP]",
            "single_word": false,
            "lstrip": false,
            "rstrip": false,
            "normalized": false,
            "special": true
        },
        {
            "id": 3,
            "content": "[PAD]",
            "single_word": false,
            "lstrip": false,
            "rstrip": false,
            "normalized": false,
            "special": true
        },
        {
            "id": 4,
            "content": "[MASK]",
            "single_word": false,
            "lstrip": false,
            "rstrip": false,
            "normalized": false,
            "special": true
        }
    ],
    "normalizer": {
        "type": "Sequence",
        "normalizers": [
            {
                "type": "Nmt"
            },
            {
                "type": "NFKC"
            },
            {
                "type": "Replace",
                "pattern": {
                    "Regex": " {2,}"
                },
                "content": " "
            }
        ]
    },
    "pre_tokenizer": {
        "type": "Metaspace",
        "replacement": "\u2581",
        "prepend_scheme": "always",
        "split": true
    },
    "post_processor": null,
    "decoder": {
        "type": "Metaspace",
        "replacement": "\u2581",
        "prepend_scheme": "always",
        "split": true
    },
    "model": {
        "type": "Unigram",
        "unk_id": null,
        "vocab": [
            [
                "[UNK]",
                0.0
            ],
            [
                "[CLS]",
                0.0
            ],
            [
                "[SEP]",
                0.0
            ],
            [
                "[PAD]",
                0.0
            ],
            [
                "[MASK]",
                0.0
            ],
            [
                "\u2581",
                -3.059008629639729
            ],
            [
                ",",
                -4.033685910220203
            ],
            [
                "\u2581c\u00f3",
                -4.63586835889404
            ],
            [
                "\u2581v\u00e0",
                -4.661277075947011
            ],
            [
                "\u2581c\u1ee7a",
                -4.665393502841679
            ],
            [
                ".",
                -4.737187502740319
            ],
            [
                "\u2581l\u00e0",
                -4.7484913189891
            ],
            [
                "\u2581kh\u00f4ng",
                -4.874761347369086
            ],
            [
                "\u2581m\u1ed9t",
                -5.033366151786856
            ],
            [
                "\u2581cho",
                -5.133326523235835
            ],
            [
                "\u2581\u0111\u01b0\u1ee3c",
                -5.1596361685154175
            ],
            [
                "\u2581c\u00e1c",
                -5.161359624109293
            ],
            [
                "\u2581trong",
                -5.2290652525660235
            ],
            [
                "\u2581ng\u01b0\u1eddi",
                -5.239314965377208
            ],
            [
                "\u2581v\u1edbi",
                -5.315207396825686
            ],
            [
                "\u2581nh\u1eefng",
                -5.481516574625347
            ],
            [
                "\u2581-",
                -5.516405021725513
            ],
            [
                "\u2581\u0111\u00e3",
                -5.542708251164834
            ],
            [
                "\u2581th\u1ec3",
                -5.5446332992542064
            ],
            [
                "\u2581\u0111\u1ec3",
                -5.585004324089422
            ],
            [
                "\u2581nh\u01b0",
                -5.674268957269268
            ],
            [
                ":",
                -5.723424302772877
            ],
            [
                "\u2581l\u00e0m",
                -5.7695027178250395
            ],
            [
                "\u2581v\u1ec1",
                -5.771322854146273
            ],
            [
                "\u2581\u0111\u1ebfn",
                -5.772779725913198
            ],
            [
                "\u2581c\u0169ng",
                -5.783417101156683
            ],
            [
                "\u2581c\u00f4ng",
                -5.78750210278408
            ],
            [
                "\u2581b\u1ea1n",
                -5.797784069161192
            ],
            [
                "\u2581khi",
                -5.875384541508762
            ],
            [
                "\u1edf",
                -5.88189175604608
            ],
            [
                "\u2581l\u1ea1i",
                -5.883691453405266
            ],
            [
                "\u2581ra",
                -5.891383100918082
            ],
            [
                "\u2581n\u00e0y",
                -5.901053537435079
            ],
            [
                "\u2581s\u1ebd",
                -5.925805420350509
            ],
            [
                "\u2581v\u00e0o",
                -5.956634543046642
            ],
            [
                "\u2581ph\u1ea3i",
                -5.981476145561787
            ],
            [
                "\u2581t\u1ea1i",
                -5.996696865944811
            ],
            [
                "\u2581t\u1eeb",
                -6.010739174534226
            ],
            [
                "\u2581s\u1ef1",
                -6.046794882756066
            ],
            [
                "\u2581m\u00e0",
                -6.059605617252291
            ],
            [
                "\u2581tr\u00ean",
                -6.078770999099428
            ],
            [
                "\u2581\u0111\u1ea7u",
                -6.097908599601084
            ],
            [
                "\u2581nhi\u1ec1u",
                -6.099216374055725
            ],
            [
                "\u2581nh\u00e0",
                -6.112387163413532
            ],
            [
                "\u2581b\u1ecb",
                -6.115700530289358
            ],
            [
                "\u2581t\u00f4i",
                -6.1162582085007635
            ],
            [
                "\u2581ch\u1ec9",
                -6.119473409349878
            ],
            [
                "\u2581th\u00ec",
                -6.149405963268656
            ],
            [
                "\u2581th\u00e0nh",
                -6.156885830143569
            ],
            [
                "\u2581vi\u1ec7c",
                -6.169382794832098
            ],
            [
                "\u2581\u0111\u1ed9ng",
                -6.174146192860075
            ],
            [
                "\u2581\u0111i",
                -6.186631269833471
            ],
            [
                "\u2581hi\u1ec7n",
                -6.190886666863566
            ],
            [
                "\u2581ta",
                -6.191613989034256
            ],
            [
                "\u2581h\u00e0ng",
                -6.200721937864541
            ],
            [
                "\u2581h\u1ecdc",
                -6.209771636987018
            ],
            [
                "\u2581d\u1ee5ng",
                -6.249638128667673
            ],
            [
                "\u2581ch\u00ednh",
                -6.2544880418876065
            ],
            [
                "\u2581n\u0103m",
                -6.272788936899897
            ],
            [
                "\u2581nh\u00e2n",
                -6.301343151527885
            ],
            [
                "\u2581nh\u1ea5t",
                -6.303257657176681
            ],
            [
                "\u2581\u0111\u00f3",
                -6.305698318930782
            ],
            [
                "\u2581quan",
                -6.306825069271932
            ],
            [
                "\u2581\u0111\u1ecbnh",
                -6.314153513633977
            ],
            [
                "\u2581s\u1ed1",
                -6.314237432470543
            ],
            [
                "...",
                -6.317023917455778
            ],
            [
                "\u2581ng\u00e0y",
                -6.3302429316353965
            ],
            [
                "\u2581th\u1ebf",
                -6.330706207678116
            ],
            [
                "\u2581c\u00f2n",
                -6.332481159586623
            ],
            [
                "\u2581con",
                -6.369918842268055
            ],
            [
                "\u2581n\u01b0\u1edbc",
                -6.38056576645927
            ],
            [
                "\u2581n\u00f3i",
                -6.406733520765384
            ],
            [
                "\u2581r\u1ea5t",
                -6.4092371919247295
            ],
            [
                "\u2581theo",
                -6.4184197645507854
            ],
            [
                "\u2581n\u00ean",
                -6.420631626410611
            ],
            [
                "\u2581h\u1ee3p",
                -6.433418031224649
            ],
            [
                "\u2581ch\u00fang",
                -6.446008185702654
            ],
            [
                "\u2581c\u00e1ch",
                -6.447569058855468
            ],
            [
                "\u2581m\u1edbi",
                -6.448311393527657
            ],
            [
                "\u2581Vi\u1ec7t",
                -6.449693716651643
            ],
            [
                "\u2581\u0111i\u1ec1u",
                -6.452441394529174
            ],
            [
                "\u2581tin",
                -6.46392679029084
            ],
            [
                "\u2581th\u1ef1c",
                -6.46484601058574
            ],
            [
                "\u2581gi\u00e1",
                -6.465730875401915
            ],
            [
                "\u2581th\u1eddi",
                -6.465979218759058
            ],
            [
                "\u2581anh",
                -6.470576083899639
            ],
            [
                "\u2581nh\u01b0ng",
                -6.474137789671872
            ],
            [
                "\u2581s\u1ea3n",
                -6.4790840874214535
            ],
            [
                "\u2581m\u00ecnh",
                -6.4935220492729435
            ],
            [
                "\u2581gia",
                -6.501278504340492
            ],
            [
                "\u2581c\u1ea3",
                -6.510871947526606
            ],
            [
                "\u2581th\u00f4ng",
                -6.513885159294599
            ],
            [
                "\u2581bi\u1ebft",
                -6.530060612809436
            ],
            [
                "\u2581\u2013",
                -6.53816810268116
            ],
            [
                "\u2581c\u01a1",
                -6.5388790859306685
            ],
            [
                "\u2581sinh",
                -6.549841142595861
            ],
            [
                "\u2581c\u00f9ng",
                -6.5745568925022475
            ],
            [
                "\u2581\u0111ang",
                -6.5967227124898
            ],
            [
                "\u2581h\u00ecnh",
                -6.602922861522119
            ],
            [
                "\u2581sau",
                -6.6033974045551425
            ],
            [
                "\u2581Nam",
                -6.604777859881324
            ],
            [
                "\u2581th\u1ea5y",
                -6.61059310055556
            ],
            [
                "\u2581c\u00e1i",
                -6.61745184142956
            ],
            [
                "\u2581l\u00fd",
                -6.619380160588268
            ],
            [
                "\u2581h\u01a1n",
                -6.646267748668446
            ],
            [
                "\u2581c\u1ea7n",
                -6.654234937629726
            ],
            [
                "\u2581tr\u01b0\u1eddng",
                -6.657506992424901
            ],
            [
                "\u2581\u0111\u1ed3ng",
                -6.65928967293139
            ],
            [
                "\u2581v\u00ec",
                -6.6611947353687775
            ],
            [
                "\u2581ph\u00e1t",
                -6.663209601641819
            ],
            [
                "\u2581n\u00e0o",
                -6.6673171917940195
            ],
            [
                ")",
                -6.6713761874047215
            ],
            [
                "\u2581s\u1eed",
                -6.672390669288372
            ],
            [
                "\u2581vi\u00ean",
                -6.679056640390092
            ],
            [
                "\u2581nh\u1eadn",
                -6.6849728587160815
            ],
            [
                "\u2581l\u00ean",
                -6.686359269814142
            ],
            [
                "\u2581h\u00e0nh",
                -6.688449014719824
            ],
            [
                "\u2581v\u1ee5",
                -6.69627690097383
            ],
            [
                "\u2581g\u00ec",
                -6.701059033748354
            ],
            [
                "\u2581tr\u00ecnh",
                -6.716629489911734
            ],
            [
                "\u2581\u00f4ng",
                -6.718717001290454
            ],
            [
                "\u2581t\u01b0",
                -6.7216813792609855
            ],
            [
                "\u2581c\u00f4",
                -6.725725857186115
            ],
            [
                "\u2581cao",
                -6.732244153731818
            ],
            [
                "\u2581kinh",
                -6.732717867206887
            ],
            [
                "\u2581m\u1eb7t",
                -6.734667449278046
            ],
            [
                "\u2581\u0111\u1ed1i",
                -6.741814083359619
            ],
            [
                "\u2581tr\u01b0\u1edbc",
                -6.747937867857681
            ],
            [
                "\u2581hay",
                -6.749281275825924
            ],
            [
                "\u2581qua",
                -6.757349416766411
            ],
            [
                "\u2581c\u1ea5p",
                -6.762317535701355
            ],
            [
                "\u2581n\u0103ng",
                -6.76795362884722
            ],
            [
                "\u2581b\u1ea3n",
                -6.768684785538676
            ],
            [
                "\u2581t\u1ef1",
                -6.774446410783597
            ],
            [
                "\u2581kh\u00e1c",
                -6.802967271902055
            ],
            [
                "\u2581mu\u1ed1n",
                -6.803057389448721
            ],
            [
                "\u2581kh\u00e1ch",
                -6.804794787575927
            ],
            [
                "\u201d",
                -6.8168276920136375
            ],
            [
                "\u00fd",
                -6.825797804502637
            ],
            [
                "\u2581t\u00ecnh",
                -6.835084956300603
            ],
            [
                "\u2581ph\u1ea9m",
                -6.8351137911559885
            ],
            [
                "\u2581k\u1ebft",
                -6.8396761409014655
            ],
            [
                "\u2581b\u1ea3o",
                -6.840665740530357
            ],
            [
                "\u2581d\u00e2n",
                -6.848003656171585
            ],
            [
                "\u2581to\u00e0n",
                -6.849499200116416
            ],
            [
                "\u2581em",
                -6.850882913289469
            ],
            [
                "\u2581\u0111\u00e2y",
                -6.856403925936068
            ],
            [
                "\u2581t\u00e2m",
                -6.856516004641268
            ],
            [
                "\u2581b\u1eb1ng",
                -6.856940247690625
            ],
            [
                "\u2581b\u1ed9",
                -6.859035476073048
            ],
            [
                "\u2581h\u1ed9i",
                -6.864221989860718
            ],
            [
                "\u2581m\u00e1y",
                -6.874115830335155
            ],
            [
                "\u2581nghi\u1ec7p",
                -6.880322563064997
            ],
            [
                "\u2581hai",
                -6.884307741279569
            ],
            [
                "\u2581\u201c",
                -6.886783836365446
            ],
            [
                "\u2581(",
                -6.888647653804512
            ],
            [
                "\u2581ch\u1ee7",
                -6.890858464168518
            ],
            [
                "\u2581ch\u1ea5t",
                -6.897291818858998
            ],
            [
                "\u2581t\u00e1c",
                -6.897517983917073
            ],
            [
                "\u2581do",
                -6.899518717563907
            ],
            [
                "\u25811",
                -6.899620410126516
            ],
            [
                "\u2581\u0111\u1ec1",
                -6.902078709706691
            ],
            [
                "\u2581gian",
                -6.914428429602477
            ],
            [
                "\u2581hi\u1ec7u",
                -6.915677813681398
            ],
            [
                "\u2581c\u1ea3m",
                -6.916935809808708
            ],
            [
                "\u2581ph\u00f2ng",
                -6.920821047897553
            ],
            [
                "\u2581l\u01b0\u1ee3ng",
                -6.9286537940817805
            ],
            [
                "\u2581ph\u00e1p",
                -6.933003170236912
            ],
            [
                "\u2581xu\u1ea5t",
                -6.936559974112452
            ],
            [
                "\u2581ti\u1ebfp",
                -6.937252850839048
            ],
            [
                "\u2581h\u1ec7",
                -6.938597146585808
            ],
            [
                "\u2581\u0111\u1ed9",
                -6.948396064111213
            ],
            [
                "\u2581ho\u1eb7c",
                -6.9526047412890986
            ],
            [
                "\u2581lo\u1ea1i",
                -6.955115124149609
            ],
            [
                "\u2581t\u00ednh",
                -6.95533893374135
            ],
            [
                "\u2581\u0111i\u1ec3m",
                -6.957800595519192
            ],
            [
                "\u2581\u0103n",
                -6.968285513816012
            ],
            [
                "\u2581t\u1edbi",
                -6.9714858830198665
            ],
            [
                "\u2581thi\u1ebft",
                -6.981333987326357
            ],
            [
                "\u2581qu\u1ea3",
                -6.982284006971559
            ],
            [
                "\u2581nh\u00ecn",
                -6.989514100131634
            ],
            [
                "\u2581v\u1eabn",
                -6.9904553872836885
            ],
            [
                "\u2581v\u1ecb",
                -6.9950962612066405
            ],
            [
                "\u2581t\u1ebf",
                -6.997260569363338
            ],
            [
                "\u2581ph\u1ea7n",
                -6.997486031665808
            ],
            [
                "\u2581t\u00e0i",
                -7.001425273915402
            ],
            [
                "\u2581ch\u1ee9c",
                -7.001899218184535
            ],
            [
                "\u2581qu\u00e1",
                -7.001952079095222
            ],
            [
                "\u2581t\u1ea1o",
                -7.011549842224843
            ],
            [
                "?",
                -7.016321190858921
            ],
            [
                "\u2581gi\u00fap",
                -7.0163935972611675
            ],
            [
                "\u2581th\u1ee9c",
                -7.021328228088631
            ],
            [
                "\u2581k\u1ebf",
                -7.023584652929673
            ],
            [
                "\u2581\u0111\u1ea1i",
                -7.031078899552137
            ],
            [
                "\u2581tr\u1ecb",
                -7.036520875146945
            ],
            [
                "\u2581\u0111\u1ec1u",
                -7.040133014878972
            ],
            [
                "\u2581t\u1ed1t",
                -7.041369212019088
            ],
            [
                "\u2581y\u00eau",
                -7.044823645492601
            ],
            [
                "\u2581doanh",
                -7.045630343005902
            ],
            [
                "\u25812",
                -7.051494911888113
            ],
            [
                "\u2581th\u01b0\u1eddng",
                -7.051568239393042
            ],
            [
                "\u2581li\u00ean",
                -7.054936490851679
            ],
            [
                "\u2581\u0111\u01b0\u1eddng",
                -7.055543836122453
            ],
            [
                "\u2581th\u00e1ng",
                -7.056901333785296
            ],
            [
                "\u2581c\u1ea7u",
                -7.0650788838713705
            ],
            [
                "\u2581s\u1ed1ng",
                -7.0678708076046775
            ],
            [
                "\u2581tay",
                -7.068799710086031
            ],
            [
                "\u2581v\u1ea5n",
                -7.069918417954856
            ],
            [
                "\u2581h\u1ecd",
                -7.073883927604628
            ],
            [
                "\u2581C\u00f4ng",
                -7.089580665152834
            ],
            [
                "\u2581gi\u1edbi",
                -7.089596310737168
            ],
            [
                "\u2581sao",
                -7.091016710452839
            ],
            [
                "\u2581gi\u1ea3i",
                -7.09212166038996
            ],
            [
                "\u2581\u0111i\u1ec7n",
                -7.098220391679284
            ],
            [
                "\u2581b\u00e0i",
                -7.108505472581042
            ],
            [
                "\u2581trang",
                -7.110013826209418
            ],
            [
                "\u2581b\u00ean",
                -7.110715185696414
            ],
            [
                "\u2581tr\u1edf",
                -7.114626517948409
            ],
            [
                "\u2581v\u0103n",
                -7.121207994071748
            ],
            [
                "\u2581xe",
                -7.127785565689855
            ],
            [
                "\u2581b\u1ec7nh",
                -7.130474740388966
            ],
            [
                "!",
                -7.133558663303594
            ],
            [
                "\u2581d\u00f9ng",
                -7.143083221791873
            ],
            [
                "\u2581H\u00e0",
                -7.148490938180862
            ],
            [
                "\u2581n\u00f3",
                -7.156545440251916
            ],
            [
                "\u2581ti\u1ec1n",
                -7.157644688016022
            ],
            [
                "\u2581cu\u1ed9c",
                -7.157675106800758
            ],
            [
                "\u2581gi\u1edd",
                -7.158049807377536
            ],
            [
                "\u2581Trung",
                -7.158170035195244
            ],
            [
                "\u2581th\u1ecb",
                -7.159346748188566
            ],
            [
                "\u2581d\u1ef1",
                -7.167091297932478
            ],
            [
                ";",
                -7.173205336240102
            ],
            [
                "\u2581bao",
                -7.173243528549207
            ],
            [
                "\u2581b\u1ea5t",
                -7.173901025180914
            ],
            [
                "\u2581\"",
                -7.181816318445771
            ],
            [
                "\u2581tri\u1ec3n",
                -7.183471902962559
            ],
            [
                "\u2581l\u00fac",
                -7.187639210751222
            ],
            [
                "\u2581l\u1ea7n",
                -7.187853383674227
            ],
            [
                "\u2581b\u00e1o",
                -7.190555727032594
            ],
            [
                "\u2581th\u01b0\u01a1ng",
                -7.197650935450007
            ],
            [
                "\u2581t\u00ecm",
                -7.198729230458309
            ],
            [
                "\u2581l\u1edbn",
                -7.199209277910114
            ],
            [
                "\u2581quy",
                -7.199994437693546
            ],
            [
                "\u2581C\u00e1c",
                -7.201555762353587
            ],
            [
                "\u2581ho\u1ea1t",
                -7.202336738728274
            ],
            [
                "\u2581t\u1eadp",
                -7.20348945360341
            ],
            [
                "\u2581Qu\u1ed1c",
                -7.204329770688366
            ],
            [
                "\u2581\u1ea3nh",
                -7.205808083343838
            ],
            [
                "i",
                -7.206125530875521
            ],
            [
                "\u2581ti\u00eau",
                -7.206467178126294
            ],
            [
                "\u2581qu\u1ed1c",
                -7.21967295568899
            ],
            [
                "\u2581th\u1eadt",
                -7.2220186068901295
            ],
            [
                "\u2581xem",
                -7.2276516293327475
            ],
            [
                "\u2581ti\u1ebfng",
                -7.229067915481368
            ],
            [
                "\u2581nhi\u00ean",
                -7.230737668675246
            ],
            [
                "\u2581m\u1ecdi",
                -7.234950765883715
            ],
            [
                "\u2581d\u1ecbch",
                -7.235960409944255
            ],
            [
                "\u2581th\u1ed1ng",
                -7.237310847242695
            ],
            [
                "\u2581l\u1ef1c",
                -7.239679317929584
            ],
            [
                "\u2581ch\u01b0a",
                -7.240741032014615
            ],
            [
                "\u2581m\u1eaft",
                -7.2499975974308075
            ],
            [
                "\u2581l\u1ecbch",
                -7.258553266520623
            ],
            [
                "\u2581n\u1ed9i",
                -7.259931382879666
            ],
            [
                "\u2581chuy\u1ec7n",
                -7.261432396942862
            ],
            [
                "\u2581ch\u1ecdn",
                -7.262760600585432
            ],
            [
                "\u2581d\u1eabn",
                -7.267440882222678
            ],
            [
                "\u2581\u00e1n",
                -7.268970632255289
            ],
            [
                "\u2581n\u1ebfu",
                -7.2690915309111865
            ],
            [
                "\u2581quy\u1ebft",
                -7.276848629967716
            ],
            [
                "\u2581quy\u1ec1n",
                -7.282035821253082
            ],
            [
                "\u2581th\u00e2n",
                -7.284555363429906
            ],
            [
                "\u2581l\u1eddi",
                -7.286952406209229
            ],
            [
                "\u2581th\u1ee9",
                -7.2902259410470105
            ],
            [
                "\u2581t\u0103ng",
                -7.294563573121554
            ],
            [
                "\u2581r\u1ed3i",
                -7.302379962768761
            ],
            [
                "\u2581h\u1eafn",
                -7.304119471880194
            ],
            [
                "\u2581mang",
                -7.309378814681329
            ],
            [
                "\u2581b\u00e1n",
                -7.310690286058007
            ],
            [
                "n",
                -7.311476289534596
            ],
            [
                "\u2581v\u1eeba",
                -7.312240470289467
            ],
            [
                "\u2581ho\u00e0n",
                -7.312729705634757
            ],
            [
                "\u25813",
                -7.312963251567885
            ],
            [
                "\u2581\u0111\u1ecba",
                -7.316295893606053
            ],
            [
                "m",
                -7.324481386698654
            ],
            [
                "\u2581Anh",
                -7.3282305373268795
            ],
            [
                "\u2581nay",
                -7.328564546592144
            ],
            [
                "\u2581ph\u01b0\u01a1ng",
                -7.331819659557839
            ],
            [
                "\u2581thu",
                -7.33200500202795
            ],
            [
                "\u2581h\u00f3a",
                -7.33494171867385
            ],
            [
                "\u2581nh\u1eadp",
                -7.335664831250606
            ],
            [
                "\u2581mua",
                -7.337969686847911
            ],
            [
                "\u2581tr\u1ecdng",
                -7.340780672887568
            ],
            [
                "\u2581\u0111\u1eb9p",
                -7.342105351520058
            ],
            [
                "\u2581ngo\u00e0i",
                -7.344105335338854
            ],
            [
                "\u2581t\u1ed5",
                -7.345532119963902
            ],
            [
                "t",
                -7.346367505317282
            ],
            [
                "\u2581r\u1eb1ng",
                -7.347734276253458
            ],
            [
                "\u2581vi\u1ebft",
                -7.349032234886977
            ],
            [
                "\u2581s\u00e1ch",
                -7.349634071411755
            ],
            [
                "\u2581an",
                -7.350943952035502
            ],
            [
                "\u2581ty",
                -7.35682839159581
            ],
            [
                "\u2581\u0111\u01a1n",
                -7.358362256779298
            ],
            [
                "\u2581l\u00f2ng",
                -7.358579139101284
            ],
            [
                "\u2581t\u1eed",
                -7.365204714673228
            ],
            [
                "\"",
                -7.365538268777655
            ],
            [
                "\u2581v\u1eady",
                -7.367014487920301
            ],
            [
                "\u2581\u0111\u1ed5i",
                -7.376292394557426
            ],
            [
                "\u2581li\u1ec7u",
                -7.392999348297435
            ],
            [
                "-",
                -7.395473178715768
            ],
            [
                "\u2581b\u1eaft",
                -7.396271120522936
            ],
            [
                "\u2581N\u1ed9i",
                -7.396396909411102
            ],
            [
                "\u2581s\u1ee9c",
                -7.396411878059732
            ],
            [
                "\u2581th\u00eam",
                -7.397740928591999
            ],
            [
                "\u2581l\u1eadp",
                -7.398132892527062
            ],
            [
                "\u2581ch\u1ebf",
                -7.402015863493377
            ],
            [
                "\u2581th\u00edch",
                -7.402052632793604
            ],
            [
                "\u2581trung",
                -7.4020835064406825
            ],
            [
                "\u2581s\u1edf",
                -7.4058287193166485
            ],
            [
                "\u2581\u0111\u00e1nh",
                -7.411260329761349
            ],
            [
                "\u2581chi",
                -7.411882103226386
            ],
            [
                "\u2581b\u00ecnh",
                -7.4127440089595655
            ],
            [
                "\u2581gi\u00e1o",
                -7.413545291218085
            ],
            [
                "\u2581V\u0103n",
                -7.415043602377509
            ],
            [
                "\u2581\u0111\u1ea5t",
                -7.418469494711642
            ],
            [
                "\u2581tr\u1ebb",
                -7.420884725848113
            ],
            [
                "\u2581Trong",
                -7.421962664383887
            ],
            [
                "\u2581Nh\u1eefng",
                -7.4219812624965
            ],
            [
                "\u2581tham",
                -7.422302741786936
            ],
            [
                "\u2581h\u01b0\u1edbng",
                -7.4301310513821885
            ],
            [
                "\u2581tr\u00ed",
                -7.4307586750655705
            ],
            [
                "\u2581giao",
                -7.433406182347204
            ],
            [
                "\u2581bi\u1ec7t",
                -7.437199432717394
            ],
            [
                "\u2581k\u00fd",
                -7.449765490270453
            ],
            [
                "\u2581B\u1ea1n",
                -7.454630957272169
            ],
            [
                "\u2581v\u1eadt",
                -7.458031142139298
            ],
            [
                "\u2581\u1ee9ng",
                -7.463229877719517
            ],
            [
                "y",
                -7.465509337569671
            ],
            [
                "\u2581qu\u1ea3n",
                -7.466878407356804
            ],
            [
                "\u2581k\u1ef3",
                -7.468208134943646
            ],
            [
                "\u2581x\u00e3",
                -7.468801648547293
            ],
            [
                "\u2581s\u00e1ng",
                -7.471984245568564
            ],
            [
                "\u2581M\u1ed9t",
                -7.473729780825449
            ],
            [
                "\u2581chuy\u00ean",
                -7.477367467986429
            ],
            [
                "\u2581Kh\u00f4ng",
                -7.4807905239239005
            ],
            [
                "\u2581d\u1ef1ng",
                -7.483060156553224
            ],
            [
                "\u2581chuy\u1ec3n",
                -7.483115586884905
            ],
            [
                "\u2581thi",
                -7.48693987684862
            ],
            [
                "\u2581tr\u1ee3",
                -7.493999462676461
            ],
            [
                "\u2581ph\u1ee5",
                -7.495481504392124
            ],
            [
                "\u2581n\u01a1i",
                -7.497346589111299
            ],
            [
                "\u2581ch\u1ee9ng",
                -7.506190098981454
            ],
            [
                "\u2581du",
                -7.50874349660616
            ],
            [
                "\u2581\u0111\u1eb7c",
                -7.509664737211169
            ],
            [
                "\u2581lu\u00f4n",
                -7.509783948199614
            ],
            [
                "\u2581ngh\u1ec7",
                -7.513345084097779
            ],
            [
                "\u2581C\u00f3",
                -7.513850365648391
            ],
            [
                "\u2581thay",
                -7.520775485336358
            ],
            [
                "\u2581ngh\u0129",
                -7.524400336727199
            ],
            [
                "\u2581ngay",
                -7.524500869663443
            ],
            [
                "\u2581n\u1eef",
                -7.526450426941368
            ],
            [
                "\u2581khu",
                -7.527275235203955
            ],
            [
                "\u2581kh\u00f3",
                -7.527395473129275
            ],
            [
                "\u2581ki\u1ebfn",
                -7.527635889362518
            ],
            [
                "\u2581v\u00f4",
                -7.5278267567607
            ],
            [
                "\u2581N\u1ebfu",
                -7.53146626246401
            ],
            [
                "\u2581T\u00f4i",
                -7.531585808964945
            ],
            [
                "\u2581B\u1ed9",
                -7.533401888043997
            ],
            [
                "\u2581g\u1ea7n",
                -7.539704909302143
            ],
            [
                "\u2581t\u1ee5c",
                -7.540973112124153
            ],
            [
                "\u2581ai",
                -7.541182404846275
            ],
            [
                "\u2581x\u00e2y",
                -7.5433030013259454
            ],
            [
                "\u2581t\u1eebng",
                -7.551730712638005
            ],
            [
                "\u2581\u0111\u01b0a",
                -7.551972443597069
            ],
            [
                "\u2581bi\u1ebfn",
                -7.5526433508368065
            ],
            [
                "\u2581\u0111\u1eb7t",
                -7.559702683231372
            ],
            [
                "\u2581nhanh",
                -7.5602423875225835
            ],
            [
                "\u2581ch\u1ecb",
                -7.561647811106321
            ],
            [
                "\u2581ph\u00ed",
                -7.562417153448504
            ],
            [
                "\u2581chi\u1ebfn",
                -7.564209359938136
            ],
            [
                "\u2581t\u1ea5t",
                -7.569067609195969
            ],
            [
                "\u2581thanh",
                -7.570561974583141
            ],
            [
                "\u2581h\u1ebft",
                -7.572160580306791
            ],
            [
                "\u2581nguy\u00ean",
                -7.5795857530499156
            ],
            [
                "\u2581\u0111\u0103ng",
                -7.582281759899399
            ],
            [
                "\u2581t\u00edch",
                -7.584363981856502
            ],
            [
                "\u2581hi\u1ec3u",
                -7.585460607463061
            ],
            [
                "\u2581\u0111\u00f3,",
                -7.587054885511142
            ],
            [
                "\u2581ph\u1ee5c",
                -7.589762070747216
            ],
            [
                "\u2581thu\u1eadt",
                -7.590491740685847
            ],
            [
                "\u2581c\u00e2u",
                -7.591612465728561
            ],
            [
                "\u2581c\u1ee9",
                -7.59475075001701
            ],
            [
                "\u2581m\u1eb9",
                -7.595182525985026
            ],
            [
                "\u2581da",
                -7.596051291991385
            ],
            [
                "\u2581b\u1ecf",
                -7.600076252995192
            ],
            [
                "\u2581b\u1edfi",
                -7.60143181038457
            ],
            [
                "\u2581\u0111\u1ea1o",
                -7.605123753696921
            ],
            [
                "\u2581ph\u00e2n",
                -7.606411973755964
            ],
            [
                "\u2581\u0111\u1ed3",
                -7.607660565941156
            ],
            [
                "\u2581h\u1ecfi",
                -7.610944960389981
            ],
            [
                "\u2581t\u00ean",
                -7.612157853703954
            ],
            [
                "\u2581nhi\u1ec7m",
                -7.613386192852664
            ],
            [
                "\u2581c\u00e1",
                -7.62196624994929
            ],
            [
                "\u2581gi\u1ea3m",
                -7.624879261997613
            ],
            [
                "\u2581l\u1ea5y",
                -7.625207916669961
            ],
            [
                "\u2581tr\u1ea3",
                -7.625632062279667
            ],
            [
                "\u2581thu\u1ed9c",
                -7.6292615368651315
            ],
            [
                "\u2581nh\u1ecf",
                -7.630261154030068
            ],
            [
                "\u2581th\u1ee7",
                -7.631035707461267
            ],
            [
                "\u2581Nguy\u1ec5n",
                -7.6313128683804905
            ],
            [
                "\u2581ki\u1ec7n",
                -7.639191646075856
            ],
            [
                "\u2581ti\u1ebft",
                -7.639891675610903
            ],
            [
                "\u2581khi\u1ebfn",
                -7.64123139544019
            ],
            [
                "\u2581c\u1ee9u",
                -7.641481489073515
            ],
            [
                "\u2581\u0111\u1ee7",
                -7.6427253040570395
            ],
            [
                "\u2581m\u1ee5c",
                -7.643128509863088
            ],
            [
                "\u2581l\u1ee3i",
                -7.6438672543492725
            ],
            [
                "\u2581nhau",
                -7.643929451186546
            ],
            [
                "\u2581g\u1eb7p",
                -7.644062616072983
            ],
            [
                "\u2581s\u0129",
                -7.645328701447264
            ],
            [
                "\u2581Ch\u00ednh",
                -7.647005300358559
            ],
            [
                "\u25815",
                -7.6497249596222225
            ],
            [
                "\u2581c\u0103n",
                -7.653840825727427
            ],
            [
                "\u2581m\u1ed7i",
                -7.654144564699665
            ],
            [
                "\u2581r\u00f5",
                -7.659663462901342
            ],
            [
                "\u2581cung",
                -7.66580298376098
            ],
            [
                "\u2581nghe",
                -7.666034653001347
            ],
            [
                "\u258110",
                -7.6682729537203524
            ],
            [
                "\u2581c\u00e1o",
                -7.669581140739398
            ],
            [
                "\u2581c\u00e0ng",
                -7.672159899439421
            ],
            [
                "\u2581chung",
                -7.67329851045964
            ],
            [
                "\u2581m\u1ea1nh",
                -7.674093635083597
            ],
            [
                "\u2581t\u1ee9c",
                -7.675067573791038
            ],
            [
                "\u2581truy\u1ec1n",
                -7.676953584984222
            ],
            [
                "\u2581ti\u00ean",
                -7.677642041365916
            ],
            [
                "\u2581nghi\u1ec7m",
                -7.678817084617821
            ],
            [
                "\u2581h\u1ed9",
                -7.679243264013211
            ],
            [
                "\u2581g\u00e2y",
                -7.679467494417516
            ],
            [
                "\u2581\u1ea5y",
                -7.679702172399638
            ],
            [
                "\u2581Nh\u01b0ng",
                -7.681907212039448
            ],
            [
                "\u2581dung",
                -7.683271754755449
            ],
            [
                "\u2581ng\u01b0\u01a1i",
                -7.684749883687781
            ],
            [
                "\u2581di\u1ec7n",
                -7.689306993685296
            ],
            [
                "\u2581d\u1ec5",
                -7.690645493818158
            ],
            [
                "\u2581n\u00e0ng",
                -7.6908095352563866
            ],
            [
                "\u2581b\u00e0",
                -7.691342740585263
            ],
            [
                "\u2581\u0110i\u1ec1u",
                -7.691937325428112
            ],
            [
                "\u2581\u0111\u00fang",
                -7.694996066915731
            ],
            [
                "\u2581d\u01b0\u1edbi",
                -7.697951708613008
            ],
            [
                "\u2581Th\u00f4ng",
                -7.702382538023919
            ],
            [
                "\u2581c\u1eeda",
                -7.703246656558587
            ],
            [
                "\u2581tr\u1ef1c",
                -7.703899923910676
            ],
            [
                "\u2581tu\u1ed5i",
                -7.708501035953567
            ],
            [
                "\u2581\u0111\u1eddi",
                -7.710842389534422
            ],
            [
                "\u2581tinh",
                -7.718408362260353
            ],
            [
                "\u2581ph\u1ed1",
                -7.721454585901965
            ],
            [
                "\u2581c\u1ea3nh",
                -7.7249655955289835
            ],
            [
                "\u2581ban",
                -7.726472564176756
            ],
            [
                "\u2581v\u1ec7",
                -7.727104423221929
            ],
            [
                "\u2581ti\u1ebfn",
                -7.7301623661736425
            ],
            [
                "\u2581g\u1ecdi",
                -7.730284942726762
            ],
            [
                "\u2581Ng\u01b0\u1eddi",
                -7.741157237136434
            ],
            [
                "\u25814",
                -7.743304191318927
            ],
            [
                "\u2581v\u1ef1c",
                -7.745157529687219
            ],
            [
                "\u2581m\u1edf",
                -7.746190921674618
            ],
            [
                "\u2581t\u01b0\u1ee3ng",
                -7.746429477535775
            ],
            [
                "\u2581m\u00e0u",
                -7.748699483600454
            ],
            [
                "\u2581m\u1ea5t",
                -7.750392784574384
            ],
            [
                "\u2581n\u00e0y,",
                -7.75298557645198
            ],
            [
                "\u2581M\u1ef9",
                -7.75300019476834
            ],
            [
                "\u2581\u0111\u1ea7y",
                -7.755693424271206
            ],
            [
                "\u2581gi\u1eefa",
                -7.7562294533520255
            ],
            [
                "c",
                -7.758511474035437
            ],
            [
                "\u2581h\u1eefu",
                -7.761218913708785
            ],
            [
                "\u2581\u0111\u00ecnh",
                -7.7620030856144115
            ],
            [
                "\u2581chu\u1ea9n",
                -7.7625980041131655
            ],
            [
                "\u2581ch\u00e2n",
                -7.7632591503069435
            ],
            [
                "/",
                -7.767765131923593
            ],
            [
                "\u2581n\u1ed5i",
                -7.7699607345995005
            ],
            [
                "\u2581c\u1ed5",
                -7.77227600226837
            ],
            [
                "\u2581\u0110\u1ea1i",
                -7.77387994328074
            ],
            [
                "\u2581\u0111\u00e0n",
                -7.778531066282518
            ],
            [
                "\u2581x\u00e1c",
                -7.782918568446171
            ],
            [
                "\u2581b\u00e9",
                -7.7858289077024825
            ],
            [
                "\u2581di\u1ec5n",
                -7.787469769097363
            ],
            [
                "\u2581ch\u00ed",
                -7.797322866593603
            ],
            [
                "\u2581d\u00f9",
                -7.8009789834601975
            ],
            [
                "\u2581vui",
                -7.801587204999144
            ],
            [
                "\u2581t\u1ec9nh",
                -7.801829804127683
            ],
            [
                "\u2581Nh\u00e0",
                -7.802940163709479
            ],
            [
                "\u2581lu\u1eadt",
                -7.810826391999985
            ],
            [
                "\u2581Tin",
                -7.811763525808452
            ],
            [
                "\u2581chi\u1ebfc",
                -7.812504140231393
            ],
            [
                "\u2581ki\u1ec3m",
                -7.815664678883643
            ],
            [
                "\u2581kh\u00ed",
                -7.816106387001087
            ],
            [
                "\u2581vi",
                -7.8171616376320845
            ],
            [
                "\u2581lu\u1eadn",
                -7.821610105495703
            ],
            [
                "\u2581k\u1ef9",
                -7.825625029789132
            ],
            [
                "\u2581th\u01b0",
                -7.826100887580765
            ],
            [
                "\u2581tr\u01b0\u1edfng",
                -7.8264624145446575
            ],
            [
                "\u2581ngh\u0129a",
                -7.826803491481574
            ],
            [
                "\u2581H\u1ed9i",
                -7.827390850525214
            ],
            [
                "\u2581tra",
                -7.830437690655041
            ],
            [
                "\u2581Th\u00e0nh",
                -7.8384467275942065
            ],
            [
                "\u2581kho\u1ea3n",
                -7.840360906460516
            ],
            [
                "\u2581b\u00e0n",
                -7.840899923823947
            ],
            [
                "\u2581to\u00e1n",
                -7.845489469805921
            ],
            [
                "\u2581khai",
                -7.847234980285025
            ],
            [
                "\u2581Minh",
                -7.849062824003148
            ],
            [
                "\u2581kh\u1ea3",
                -7.851936892184993
            ],
            [
                "\u2581s\u00e1t",
                -7.853971445576478
            ],
            [
                "\u2581d\u1ee5c",
                -7.854772189911694
            ],
            [
                "\u2581t\u01b0\u1edfng",
                -7.857716873191103
            ],
            [
                "\u2581Sau",
                -7.864196328155687
            ],
            [
                "\u2581th\u1ea7n",
                -7.864261928236594
            ],
            [
                "\u2581m\u1ee9c",
                -7.865411811001405
            ],
            [
                "\u2581xin",
                -7.865779090012747
            ],
            [
                "\u2581\u00edt",
                -7.866973242044692
            ],
            [
                "\u2581ph\u00eda",
                -7.868002718075795
            ],
            [
                "\u2581bi\u1ec3u",
                -7.868729278221789
            ],
            [
                "\u2581ba",
                -7.869882512916853
            ],
            [
                "\u2581B\u00ecnh",
                -7.87264994028931
            ],
            [
                "\u2581tri\u1ec7u",
                -7.875327247358703
            ],
            [
                "\u2581ch\u01a1i",
                -7.877275846466606
            ],
            [
                "\u2581kho\u1ea3ng",
                -7.883234035851958
            ],
            [
                "\u2581h\u1ed3",
                -7.8883849560335335
            ],
            [
                "\u2581tranh",
                -7.888440449348241
            ],
            [
                "\u2581bay",
                -7.889905990859946
            ],
            [
                "\u2581b\u1ed1",
                -7.895983639080347
            ],
            [
                "\u2581Khi",
                -7.8987905511107535
            ],
            [
                "\u2581phong",
                -7.90160786770574
            ],
            [
                "\u2581xu\u1ed1ng",
                -7.903312001846718
            ],
            [
                "\u2581t\u1ed5ng",
                -7.904740598304873
            ],
            [
                "\u2581n\u00e0y.",
                -7.909726126657292
            ],
            [
                "\u2581qu\u00fd",
                -7.911308891063923
            ],
            [
                "\u2581chia",
                -7.912053887750991
            ],
            [
                "a",
                -7.912494392575248
            ],
            [
                "\u2581n\u1eefa",
                -7.913749753532928
            ],
            [
                "\u2581\u00e1p",
                -7.91478945330924
            ],
            [
                "\u2581t\u01b0\u01a1ng",
                -7.914864714632701
            ],
            [
                "\u2581c\u1ed1",
                -7.916105810776754
            ],
            [
                "\u2581ch\u00fat",
                -7.919255224851071
            ],
            [
                "\u2581t\u1ef7",
                -7.9193416231022375
            ],
            [
                "\u2581l\u01b0u",
                -7.9199789644280685
            ],
            [
                "\u2581v\u1ed1n",
                -7.920539757610474
            ],
            [
                "\u2581ch\u1ed1ng",
                -7.9214589997362435
            ],
            [
                "\u2581t\u1ed1i",
                -7.923980716122374
            ],
            [
                "\u2581B\u00e0i",
                -7.9248956423916255
            ],
            [
                "\u2581h\u01b0\u1edfng",
                -7.925338039230892
            ],
            [
                "\u2581T\u1ed5ng",
                -7.925715260375522
            ],
            [
                "\u2581gi\u1eef",
                -7.926650334660975
            ],
            [
                "\u2581ph\u00e9p",
                -7.929434564420298
            ],
            [
                "\u2581ch\u1ecbu",
                -7.93826362619428
            ],
            [
                "\u2581h\u00e3y",
                -7.938799440954714
            ],
            [
                "\u2581cu\u1ed1i",
                -7.943582638162061
            ],
            [
                "\u2581\u0111\u00e1ng",
                -7.945153054569872
            ],
            [
                "\u2581c\u1eadu",
                -7.945800499553002
            ],
            [
                "\u2581d\u00e0i",
                -7.946439277558218
            ],
            [
                "\u2581y\u1ebfu",
                -7.94677491342676
            ],
            [
                "\u2581s\u1eafc",
                -7.950146040116415
            ],
            [
                "\u2581m\u1ea1ng",
                -7.95136477371946
            ],
            [
                "\u2581ngu\u1ed3n",
                -7.959387447555665
            ],
            [
                "\u2581\u0110\u0103ng",
                -7.962117091583174
            ],
            [
                "\u2581qu\u00e2n",
                -7.966328975020945
            ],
            [
                "\u2581h\u1ea1n",
                -7.971651473089626
            ],
            [
                "\u2581minh",
                -7.974778573865338
            ],
            [
                "\u2581Li\u00ean",
                -7.975353995024561
            ],
            [
                "s",
                -7.979853495587401
            ],
            [
                "\u2581gi\u1ea3",
                -7.982679232329424
            ],
            [
                "\u2581x\u1eed",
                -7.983200973395865
            ],
            [
                "\u2581ki\u1ebfm",
                -7.985690095934887
            ],
            [
                "\u2581g\u00e1i",
                -7.9875486254389845
            ],
            [
                "\u2581Tuy",
                -7.988843269933055
            ],
            [
                "\u2581danh",
                -7.990631720982865
            ],
            [
                "\u2581thu\u1ed1c",
                -7.991469494453318
            ],
            [
                "\u2581\u0111\u1ed9c",
                -7.993056605804458
            ],
            [
                "\u2581khoa",
                -7.996012848696978
            ],
            [
                "\u2581\u0111o\u00e0n",
                -7.997120381306152
            ],
            [
                "\u2581\u0111\u1ed9i",
                -7.997490602046803
            ],
            [
                "\u2581Ch\u1ee7",
                -8.005366265193743
            ],
            [
                "\u2581c\u1ee5",
                -8.00618782168232
            ],
            [
                "\u2581ho\u1ea1ch",
                -8.0063958828565
            ],
            [
                "\u2581c\u1ef1c",
                -8.007212166710532
            ],
            [
                "\u2581H\u1ed3",
                -8.007629846531378
            ],
            [
                "\u2581thu\u00ea",
                -8.010072826581117
            ],
            [
                "\u2581m\u1eadt",
                -8.011197835252622
            ],
            [
                "\u2581h\u00f4m",
                -8.012111761988104
            ],
            [
                "\u2581ch\u01b0\u01a1ng",
                -8.01316761613581
            ],
            [
                "\u2581\u0111\u1ee9ng",
                -8.013855795568775
            ],
            [
                "\u2581v\u1eady,",
                -8.018386635106449
            ],
            [
                "\u2581b\u01b0\u1edbc",
                -8.021203638378331
            ],
            [
                "\u2581ph\u1ea1m",
                -8.02191105681609
            ],
            [
                ").",
                -8.027540064703512
            ],
            [
                "\u2581c\u01b0\u1eddi",
                -8.028385327724227
            ],
            [
                "\u2581gi\u1ed1ng",
                -8.029398550992184
            ],
            [
                "\u2581\u0111au",
                -8.031315750986147
            ],
            [
                "\u2581sang",
                -8.035078379191232
            ],
            [
                "\u2581tr\u00e1ch",
                -8.036217721561286
            ],
            [
                "\u2581ch\u1eb3ng",
                -8.03749188277205
            ],
            [
                "\u2581hoa",
                -8.038175544731901
            ],
            [
                "\u2581\u0111\u1ea3m",
                -8.040990559734395
            ],
            [
                "u",
                -8.043467746001811
            ],
            [
                "\u2581Thanh",
                -8.050114943639176
            ],
            [
                "\u2581c\u1ea1nh",
                -8.050463769894398
            ],
            [
                "\u2581c\u01b0",
                -8.050725576533221
            ],
            [
                "\u2581l\u1ef1a",
                -8.05111438200704
            ],
            [
                "\u2581Theo",
                -8.05433086782703
            ],
            [
                "\u2581ch\u1ebft",
                -8.054445296769098
            ],
            [
                "\u25816",
                -8.05624422038991
            ],
            [
                "\u2581ch\u1eafc",
                -8.058729763350446
            ],
            [
                "\u2581\u00e2m",
                -8.063742891692558
            ],
            [
                "\u2581ch\u00fa",
                -8.068319018333053
            ],
            [
                "\u2581s\u01a1",
                -8.0707850201447
            ],
            [
                "\u2581h\u1ed7",
                -8.071659792486617
            ],
            [
                "\u2581\u0111\u1ea1t",
                -8.072332335929726
            ],
            [
                "\u2581tho\u1ea1i",
                -8.0726624916914
            ],
            [
                "\u2581\u0111a",
                -8.073242812716634
            ],
            [
                "\u2581tr\u1ea1ng",
                -8.074758089295651
            ],
            [
                "\u2581v\u1ebb",
                -8.076012108466472
            ],
            [
                "\u2581kh\u1ea9u",
                -8.080469592653252
            ],
            [
                "\u2581An",
                -8.080549721003925
            ],
            [
                "\u2581c\u00e2y",
                -8.081623153857562
            ],
            [
                "\u2581kh\u1ecfi",
                -8.083833725621853
            ],
            [
                "\u2581...",
                -8.084936088783397
            ],
            [
                "\u2581\u0111\u00e2u",
                -8.085339058000143
            ],
            [
                "\u2581ng\u00e0nh",
                -8.085437722844906
            ],
            [
                "\u2581kia",
                -8.08645410806179
            ],
            [
                "\u2581ngh\u1ecb",
                -8.086802760792386
            ],
            [
                "\u2581th\u1ea5t",
                -8.090123061633031
            ],
            [
                "\u2581Cho",
                -8.09313444110772
            ],
            [
                "\u2581ti\u1ec7n",
                -8.102242719544185
            ],
            [
                "\u2581g\u1eedi",
                -8.104361343317555
            ],
            [
                "\u2581\u0111\u1ecdc",
                -8.105793805094208
            ],
            [
                "\u2581\u00e1o",
                -8.107761339499671
            ],
            [
                "\u2581Nh\u1eadt",
                -8.108956791510542
            ],
            [
                "\u2581v\u1eadn",
                -8.112196525637474
            ],
            [
                "\u2581nhi\u00ean,",
                -8.113588706823972
            ],
            [
                "\u2581d\u01b0\u1ee1ng",
                -8.120308640325586
            ],
            [
                "\u2581Kinh",
                -8.122385138445193
            ],
            [
                "\u2581so",
                -8.123331243653945
            ],
            [
                "\u2581V\u1edbi",
                -8.124776501056878
            ],
            [
                "\u2581kh\u1ecfe",
                -8.12500136720553
            ],
            [
                "\u2581m\u1eabu",
                -8.126328119562524
            ],
            [
                "\u2581ph\u00f9",
                -8.127444215011968
            ],
            [
                "\u2581di",
                -8.128599227923676
            ],
            [
                "\u2581ch\u1ea1y",
                -8.128746917624056
            ],
            [
                "\u2581nam",
                -8.131367519492178
            ],
            [
                "\u2581\u00edch",
                -8.13577251889989
            ],
            [
                "\u2581ch\u1ed7",
                -8.139216886431301
            ],
            [
                "\u2581k\u1ec3",
                -8.139512541080666
            ],
            [
                "\u2581nh\u1edb",
                -8.14168704364789
            ],
            [
                "\u2581l\u00e2u",
                -8.142863703472708
            ],
            [
                "\u2581C",
                -8.14749157650174
            ],
            [
                "\u25812018",
                -8.149443557481744
            ],
            [
                "\u2581lo",
                -8.153126636188546
            ],
            [
                "\u2581li\u1ec1n",
                -8.155659839018261
            ],
            [
                "\u2581\u0110\u1ee9c",
                -8.155896348781123
            ],
            [
                "\u2581T\u1eeb",
                -8.15691879074379
            ],
            [
                "\u2581s\u1ebb",
                -8.15915244552954
            ],
            [
                "\u2581V\u00ec",
                -8.159685216677264
            ],
            [
                "\u2581m\u1ea5y",
                -8.159948794755934
            ],
            [
                "\u2581h\u1ed3i",
                -8.160105074926161
            ],
            [
                "\u2581ph\u1ea3n",
                -8.160544384313923
            ],
            [
                "\u2581xa",
                -8.165234613247339
            ],
            [
                "\u2581Ch\u01b0\u01a1ng",
                -8.16776789962105
            ],
            [
                "\u2581thi\u1ebfu",
                -8.169089498262801
            ],
            [
                "\u2581v\u00f9ng",
                -8.169576066758781
            ],
            [
                "\u201d.",
                -8.17030816646436
            ],
            [
                "\u2581tuy\u1ec7t",
                -8.171281999148581
            ],
            [
                "\u2581ph\u1ee7",
                -8.171543944141725
            ],
            [
                "\u2581B\u1ea3n",
                -8.172079070817192
            ],
            [
                "\u2581t\u00edn",
                -8.17398139051341
            ],
            [
                "\u2581t\u1ed1",
                -8.181524202796586
            ],
            [
                "\u2581r\u1ed9ng",
                -8.18494602237471
            ],
            [
                "\u25817",
                -8.184962138465753
            ],
            [
                "\u2581\u00d4ng",
                -8.185479839192718
            ],
            [
                "\u2581vi\u1ec7n",
                -8.186410016731674
            ],
            [
                "\u2581V\u00e0",
                -8.186412520480506
            ],
            [
                "\u2581\u0111\u00f4i",
                -8.186929467327731
            ],
            [
                "\u2581Trang",
                -8.188705755510288
            ],
            [
                "\u2581v\u00e0i",
                -8.190253615240382
            ],
            [
                "\u2581kh\u00e1",
                -8.192245128001824
            ],
            [
                "\u2581Ch\u00fang",
                -8.195103789437933
            ],
            [
                "\u2581c\u1eadp",
                -8.197045251648078
            ],
            [
                "\u2581Thi\u00ean",
                -8.198614488919663
            ],
            [
                "\u2581\u00e1nh",
                -8.199894191758396
            ],
            [
                "\u2581gi\u00e1c",
                -8.20054473506929
            ],
            [
                "\u2581m\u00f4i",
                -8.200709095170877
            ],
            [
                "\u2581ng\u1ed3i",
                -8.200795230092588
            ],
            [
                "\u2581C\u00f4",
                -8.201072496690466
            ],
            [
                "\u2581b\u00f3ng",
                -8.20381219224159
            ],
            [
                "\u2581d\u00e0nh",
                -8.203968716328696
            ],
            [
                "\u2581Th\u1ebf",
                -8.207965046601295
            ],
            [
                "g",
                -8.208379853018661
            ],
            [
                "\u2581tr\u00e1i",
                -8.208534418990194
            ],
            [
                "\u2581b\u00e1c",
                -8.210691323046769
            ],
            [
                "\u2581_",
                -8.213877761698148
            ],
            [
                "\u2581ph\u00e1",
                -8.214357845285411
            ],
            [
                "\u2581u\u1ed1ng",
                -8.216480822703875
            ],
            [
                "\u2581l\u1edbp",
                -8.222737053238344
            ],
            [
                "\u2581Ho\u00e0ng",
                -8.22435472673382
            ],
            [
                "ng",
                -8.225153288984991
            ],
            [
                "\u2581ri\u00eang",
                -8.225773933139545
            ],
            [
                "\u2581\u0111em",
                -8.229527145863306
            ],
            [
                "\u2581lao",
                -8.230540489496285
            ],
            [
                "\u2581n\u1eb1m",
                -8.235666039666597
            ],
            [
                "\u2581m\u00ecnh.",
                -8.235889127466256
            ],
            [
                "\u2581\u0110\u1ec3",
                -8.237504029630056
            ],
            [
                "\u2581tr\u00f2",
                -8.238018041893335
            ],
            [
                "\u2581l\u1ebd",
                -8.239433733787623
            ],
            [
                "\u2581c\u1ed9ng",
                -8.241532132763417
            ],
            [
                "\u2581\u0111\u00e1",
                -8.242603587057703
            ],
            [
                "\u2581ng\u1ee7",
                -8.244261821706646
            ],
            [
                "\u2581s\u1ee3",
                -8.257129402683963
            ],
            [
                "\u2581ngo\u1ea1i",
                -8.258317746705186
            ],
            [
                "\u2581\u0111o\u1ea1n",
                -8.263269461258075
            ],
            [
                "\u2581\u0110\u1ed3ng",
                -8.264652055179782
            ],
            [
                "\u2581Du",
                -8.265714657586797
            ],
            [
                "\u2581Ch\u1ec9",
                -8.268093065300251
            ],
            [
                "\u2581k\u00edch",
                -8.26839832874908
            ],
            [
                "\u2581Gi\u00e1o",
                -8.270425318526916
            ],
            [
                "\u2581Tr\u1ea7n",
                -8.27667490715517
            ],
            [
                "\u2581Ch\u00faa",
                -8.277199215756093
            ],
            [
                "\u2581s\u01b0",
                -8.278740522114012
            ],
            [
                "\u2581ch\u1eefa",
                -8.280120923101984
            ],
            [
                "\u2581\u0110\u00e2y",
                -8.281587213572838
            ],
            [
                "\u2581\u0111\u1ea5u",
                -8.281588607789246
            ],
            [
                "\u2581\u0111\u00e1p",
                -8.285864590019646
            ],
            [
                "\u2581g\u00f3p",
                -8.290588358703454
            ],
            [
                "\u2581Hoa",
                -8.290604667715352
            ],
            [
                "\u2581l\u00e3nh",
                -8.292243440128923
            ],
            [
                "\u2581n\u00e2ng",
                -8.293099117761292
            ],
            [
                "\u2581D\u01b0\u01a1ng",
                -8.296970566507895
            ],
            [
                "\u2581+",
                -8.297931517747609
            ],
            [
                "\u2581m\u1eb7c",
                -8.301603686690953
            ],
            [
                "\u2581nghi\u00ean",
                -8.301976824754995
            ],
            [
                "\u2581v\u1ee3",
                -8.303166178076232
            ],
            [
                "\u2581ng\u00e2n",
                -8.303681430790702
            ],
            [
                "\u2581Th\u1ee7",
                -8.304215714173834
            ],
            [
                ".\u201d",
                -8.305156044343256
            ],
            [
                "\u2581suy",
                -8.30673101913592
            ],
            [
                "\u2581Ch\u00ed",
                -8.308847841647378
            ],
            [
                "\u2581m\u00f3n",
                -8.313965277022353
            ],
            [
                "\u2581s\u1eeda",
                -8.314584195832428
            ],
            [
                "\u2581ra,",
                -8.31485434966708
            ],
            [
                "\u2581\u0110\u00f4ng",
                -8.315227686721926
            ],
            [
                "\u2581C\u00e1ch",
                -8.317305289158893
            ],
            [
                "in",
                -8.318687493751892
            ],
            [
                "\u2581kh\u00f4ng?",
                -8.320048650872517
            ],
            [
                "\u2581Tr\u01b0\u1eddng",
                -8.323126462193319
            ],
            [
                "\u2581ch\u1ed3ng",
                -8.325967164447276
            ],
            [
                "\u2581b\u1ed5",
                -8.330762273760667
            ],
            [
                "\u2581nguy",
                -8.330806943587527
            ],
            [
                "\u2581b\u1ecdn",
                -8.332234801864901
            ],
            [
                "\u2581v\u1ecdng",
                -8.336538479982782
            ],
            [
                "\u2581d\u1ea1ng",
                -8.341119848876678
            ],
            [
                "\u2581tr\u1eddi",
                -8.342299592844919
            ],
            [
                "\u2581\u0111\u00f3ng",
                -8.344326603174697
            ],
            [
                "\u2581T\u01b0",
                -8.344346995344033
            ],
            [
                "\u2581Thi\u1ebft",
                -8.346919464441056
            ],
            [
                "\u2581x\u00e9t",
                -8.34826775157227
            ],
            [
                "o",
                -8.350225821352321
            ],
            [
                "\u2581h\u01a1n.",
                -8.35060630663486
            ],
            [
                "\u2581ti\u1ec3u",
                -8.351297083760237
            ],
            [
                "\u2581h\u00f2a",
                -8.351906915896619
            ],
            [
                "\u2581Ban",
                -8.352445247880647
            ],
            [
                "\u2581T\u00e0i",
                -8.356297339305977
            ],
            [
                "\u2581T\u00e2y",
                -8.358345437824111
            ],
            [
                "\u2581bi\u1ec3n",
                -8.362239357504736
            ],
            [
                "\u2581m\u00f4",
                -8.362509457615294
            ],
            [
                "\u2581th\u00e1i",
                -8.37006127704606
            ],
            [
                "\u2581T\u1ea1i",
                -8.37150636521878
            ],
            [
                "\u2581tuy\u1ebfn",
                -8.372811108257252
            ],
            [
                "\u2581v\u00f2ng",
                -8.372980130884843
            ],
            [
                "\u2581hi\u1ec3m",
                -8.37349342552551
            ],
            [
                "\u2581B\u1eafc",
                -8.374635052434702
            ],
            [
                "\u2581nhu",
                -8.374897617739213
            ],
            [
                "\u2581S\u1edf",
                -8.378400180669216
            ],
            [
                "\u2581g\u1ed3m",
                -8.37921766495301
            ],
            [
                "\u2581r\u1ebb",
                -8.381429967935123
            ],
            [
                "\u2581t\u1ecbch",
                -8.387013485205463
            ],
            [
                "\u2581ca",
                -8.387424994504176
            ],
            [
                "\u2581tr\u00e1nh",
                -8.387707654937843
            ],
            [
                "\u2581\u01b0u",
                -8.388135158120228
            ],
            [
                "\u2581quay",
                -8.390597540108645
            ],
            [
                "\u2581Ph\u1eadt",
                -8.39343920367678
            ],
            [
                "\u2581thi\u1ec7n",
                -8.393733484163887
            ],
            [
                "\u2581m\u1ec1m",
                -8.396316203866645
            ],
            [
                "\u2581Ng\u00e0y",
                -8.397340805722417
            ],
            [
                "\u2581thi\u00ean",
                -8.40053062324285
            ],
            [
                "\u2581Th\u1eddi",
                -8.402733764711975
            ],
            [
                "\u2581nh\u00f3m",
                -8.405107950142765
            ],
            [
                "\u2581H\u1ecdc",
                -8.40782782094905
            ],
            [
                "\u2581h\u1ea1",
                -8.408071617725918
            ],
            [
                "\u2581D\u1ecbch",
                -8.408873021886938
            ],
            [
                "\u2581th\u1ea9m",
                -8.408879163019584
            ],
            [
                "\u2581ch\u1ea5p",
                -8.409089204558235
            ],
            [
                "\u2581v\u00e0ng",
                -8.411791393316824
            ],
            [
                "\u2581thu\u1eadn",
                -8.411919040169536
            ],
            [
                "\u2581m\u00f4n",
                -8.412509455173034
            ],
            [
                "h",
                -8.416232443762327
            ],
            [
                "\u2581&",
                -8.417183705513077
            ],
            [
                "\u2581mi\u1ec5n",
                -8.418249778733681
            ],
            [
                "\u2581l\u1ec5",
                -8.421383176406025
            ],
            [
                "\u2581l\u1ec7",
                -8.421748150286376
            ],
            [
                "\u2581gi\u1ea5y",
                -8.422735946848505
            ],
            [
                "\u2581mong",
                -8.423145334719798
            ],
            [
                "\u2581Th\u00e1i",
                -8.42373294217275
            ],
            [
                "\u2581h\u1eadu",
                -8.425796947463574
            ],
            [
                "\u00f4",
                -8.425948896157148
            ],
            [
                "\u2581s\u00e2u",
                -8.4279383762487
            ],
            [
                "\u2581x\u1ea3y",
                -8.428013401648153
            ],
            [
                "\u2581d\u1ea5u",
                -8.428016881931987
            ],
            [
                "\u2581m\u1ea1i",
                -8.429515865313352
            ],
            [
                "\u2581n\u00f3i:",
                -8.430052605731856
            ],
            [
                "\u2581thu\u1ebf",
                -8.435610457824428
            ],
            [
                "\u2581l\u1ea1nh",
                -8.436268338254912
            ],
            [
                "\u2581k\u00e9o",
                -8.438032371286662
            ],
            [
                "\u2581\u01a1n",
                -8.439285789038347
            ],
            [
                "\u2581t\u01b0\u1edbng",
                -8.439376707413906
            ],
            [
                "\u2581qu\u1ea3ng",
                -8.439940496302789
            ],
            [
                "\u2581ghi",
                -8.442501304046086
            ],
            [
                "\u2581h\u01a1i",
                -8.443281312190667
            ],
            [
                "\u2581duy",
                -8.447694882212094
            ],
            [
                "\u2581\u0111\u00e0o",
                -8.448873695452969
            ],
            [
                "\u2581c\u00e2n",
                -8.450126939079217
            ],
            [
                "\u2581l\u0129nh",
                -8.452377401569256
            ],
            [
                "\u2581c\u01b0\u1eddng",
                -8.45314607138532
            ],
            [
                "\u2581d\u00f2ng",
                -8.455247709531426
            ],
            [
                "\u25818",
                -8.45538064674282
            ],
            [
                "\u2581tr\u1eafng",
                -8.456681877044419
            ],
            [
                "\u2581n\u1ec1n",
                -8.458275936568509
            ],
            [
                "\u2581tuy\u1ec3n",
                -8.458622664198769
            ],
            [
                "\u2581\u0111\u00f4ng",
                -8.45916164215214
            ],
            [
                "\u2581B\u1ea3o",
                -8.459190983550908
            ],
            [
                "\u2581S\u1ed1",
                -8.460320999288243
            ],
            [
                "\u2581ch\u0103m",
                -8.463020289007282
            ],
            [
                "\u2581c\u1ea3i",
                -8.464157706565803
            ],
            [
                "\u2581nh\u1eb9",
                -8.46535615957213
            ],
            [
                "\u2581H\u00e3y",
                -8.468040657192024
            ],
            [
                "\u2581\u0110\u1ecba",
                -8.469268480681697
            ],
            [
                "\u2581m\u00f9a",
                -8.469542205279687
            ],
            [
                "\u2581d\u1ea1y",
                -8.47200547861464
            ],
            [
                "\u2581s\u1edbm",
                -8.47421350942621
            ],
            [
                "\u2581chi\u1ec1u",
                -8.477156478907249
            ],
            [
                "\u2581S\u1ef1",
                -8.477821765787656
            ],
            [
                "\u2581Long",
                -8.477969869703784
            ],
            [
                "\u2581trai",
                -8.47905444473133
            ],
            [
                ".\"",
                -8.479134159675814
            ],
            [
                "\u2581truy\u1ec7n",
                -8.47976501049754
            ],
            [
                "),",
                -8.480412892447552
            ],
            [
                "\u2581\u0111\u1ea5y",
                -8.480904994841818
            ],
            [
                "\u2581gi\u1ea3n",
                -8.482600236864055
            ],
            [
                "\u2581l\u1ed9",
                -8.48948024753238
            ],
            [
                "\u2581k\u1ef7",
                -8.491536748431173
            ],
            [
                "\u2581H\u00e0n",
                -8.499845617489779
            ],
            [
                "\u2581r\u1ed3i,",
                -8.50050823994488
            ],
            [
                "\u2581t\u1ea3i",
                -8.500797613041444
            ],
            [
                "\u2581nhi\u1ec7t",
                -8.504427847174432
            ],
            [
                "\u2581qu\u1ea7n",
                -8.507528682105837
            ],
            [
                "\u2581bu\u1ed5i",
                -8.509355282416115
            ],
            [
                "\u2581nh\u1eadt",
                -8.509859993296736
            ],
            [
                "\u2581n\u00f4ng",
                -8.511029001236677
            ],
            [
                "\u2581cha",
                -8.51144488196497
            ],
            [
                "\u2581Ngo\u00e0i",
                -8.512174238950129
            ],
            [
                "\u2581t\u1eadn",
                -8.517050606517428
            ],
            [
                "\u2581nh\u1ea5t.",
                -8.519220947961566
            ],
            [
                "\u2581ngh\u1ec9",
                -8.521227684375665
            ],
            [
                "\u2581Ph\u00e1p",
                -8.523938944846398
            ],
            [
                "\u2581h\u1ea1i",
                -8.524878960569316
            ],
            [
                "\u2581B",
                -8.525134249997134
            ],
            [
                "\u2581\u0111\u00eam",
                -8.52588509815436
            ],
            [
                "\u2581tu\u1ea7n",
                -8.527032852253962
            ],
            [
                "\u2581b\u1eadt",
                -8.527233144013962
            ],
            [
                "\u2581\u0111\u00edch",
                -8.528356803640078
            ],
            [
                "\u2581h\u00fat",
                -8.530880247647703
            ],
            [
                "\u2581Th\u1ecb",
                -8.53297485114843
            ],
            [
                "\u2581th\u1eed",
                -8.533214968028407
            ],
            [
                "\u2581m\u1ef9",
                -8.533268715072092
            ],
            [
                "\u2581t\u1ea7ng",
                -8.533360408167805
            ],
            [
                "\u2581\u0111\u1eebng",
                -8.5339023360268
            ],
            [
                "\u2581k\u1ebb",
                -8.535170324934933
            ],
            [
                "\u2581ch\u1edd",
                -8.535590772789137
            ],
            [
                "\u258112",
                -8.538331014799374
            ],
            [
                "\u2581ni\u1ec7m",
                -8.538955105491372
            ],
            [
                "p",
                -8.542035401166878
            ],
            [
                "\u2581ph\u1ed1i",
                -8.54434994871933
            ],
            [
                "\u2581sai",
                -8.547691192511879
            ],
            [
                "\u2581l\u1ed7i",
                -8.549623598022016
            ],
            [
                "\u2581Quy",
                -8.549716211627816
            ],
            [
                "\u2581Ph\u01b0\u01a1ng",
                -8.550392360285384
            ],
            [
                "\u2581th\u00fa",
                -8.55275007451021
            ],
            [
                "\u2581H\u01b0\u1edbng",
                -8.553995436260882
            ],
            [
                "\u2581Lu\u1eadt",
                -8.555807420125024
            ],
            [
                "\u2581quen",
                -8.556221559267405
            ],
            [
                "\u2581s\u00e2n",
                -8.55685480847751
            ],
            [
                "\u2581\u0111\u00f4",
                -8.558118186210448
            ],
            [
                "\u2581tr\u00ec",
                -8.561263295097131
            ],
            [
                "\u2581m\u1eafc",
                -8.56210457909519
            ],
            [
                "\u2581ngh\u1ec1",
                -8.562378708431886
            ],
            [
                "\u2581nh\u1eb1m",
                -8.567226734267146
            ],
            [
                "\u2581Em",
                -8.568574083128285
            ],
            [
                "\u2581thi\u1ec7u",
                -8.572625098954832
            ],
            [
                "\u2581ng\u1edd",
                -8.574781487528112
            ],
            [
                "\u2581H\u1ea3i",
                -8.575459774737517
            ],
            [
                "\u2581linh",
                -8.575873757755698
            ],
            [
                "\u2581th\u1ea3o",
                -8.576608515792316
            ],
            [
                "\u2581Qu\u1eadn",
                -8.578836092542101
            ],
            [
                "\u2581kh\u00e1m",
                -8.579648228866725
            ],
            [
                "\u2581tr\u1eadn",
                -8.579916078987416
            ],
            [
                "\u2581kh\u00f3a",
                -8.581103848170375
            ],
            [
                "\u2581Ph\u00f2ng",
                -8.582054732653953
            ],
            [
                "\u2581phim",
                -8.584368313795931
            ],
            [
                "\u2581L\u00e0m",
                -8.58733627593014
            ],
            [
                "\u2581Nh\u00e2n",
                -8.587582070064782
            ],
            [
                "\u2581m\u00ecnh,",
                -8.588293871520392
            ],
            [
                "\u2581h\u1ea5p",
                -8.588333721619119
            ],
            [
                "\u2581s\u00f3c",
                -8.591340769609955
            ],
            [
                "\u2581quanh",
                -8.592530909973528
            ],
            [
                "\u2581ph\u00fat",
                -8.596125399423013
            ],
            [
                "\u2581b\u00ed",
                -8.597288079617371
            ],
            [
                "\u2581coi",
                -8.598376188348725
            ],
            [
                "\u2581L\u00ea",
                -8.598712564860264
            ],
            [
                "\u2581Xem",
                -8.60135553726636
            ],
            [
                "\u2581m\u00e1u",
                -8.604060435615443
            ],
            [
                "\u2581\u0110\u00e0",
                -8.605854932745649
            ],
            [
                "\u2581C\u01a1",
                -8.60687525038924
            ],
            [
                "\u2581b\u00e2y",
                -8.60836279855177
            ],
            [
                "\u2581gi\u00e1m",
                -8.610412137424209
            ],
            [
                "\u2581\u0111\u00f3.",
                -8.612075821566485
            ],
            [
                "\u2581Nguy\u00ean",
                -8.613585104154836
            ],
            [
                "\u2581th\u0103m",
                -8.616368454927366
            ],
            [
                "\u2581B\u00e1o",
                -8.620992207473925
            ],
            [
                "\u25819",
                -8.621482610133777
            ],
            [
                "\u2581d\u1ea7u",
                -8.623204297725072
            ],
            [
                "\u2581M\u00e1y",
                -8.623381096651217
            ],
            [
                "\u2581website",
                -8.623577243100394
            ],
            [
                "\u2581tr\u1ea3i",
                -8.624350731576495
            ],
            [
                "uy",
                -8.624564536879673
            ],
            [
                "\u2581\u0111\u1ed9t",
                -8.625252382315416
            ],
            [
                "\u2581d\u00e0ng",
                -8.625564716325632
            ],
            [
                "\u2581xanh",
                -8.627353246016966
            ],
            [
                "\u2581nay,",
                -8.629198697820746
            ],
            [
                "\u201d,",
                -8.629231644566714
            ],
            [
                "\u2581xuy\u00ean",
                -8.633424268006237
            ],
            [
                "\u2581\u0110i\u1ec7n",
                -8.635857344913012
            ],
            [
                "\u2581kh\u1eafc",
                -8.639734877673984
            ],
            [
                "\u2581Y",
                -8.644228861034199
            ],
            [
                "\u2581h\u00f4n",
                -8.647765568345852
            ],
            [
                "\u2581x\u00fac",
                -8.649201558570907
            ],
            [
                "\u2581nu\u00f4i",
                -8.652645479519041
            ],
            [
                "\u2581Ta",
                -8.653182319959177
            ],
            [
                "\u2581\u0110\u1ed1i",
                -8.656268553947415
            ],
            [
                "\u2581kh\u1edfi",
                -8.658562740008936
            ],
            [
                "\u2581mi\u1ec1n",
                -8.65896452903236
            ],
            [
                "\u2581l\u1ea1c",
                -8.659611214333403
            ],
            [
                "\u2581ch\u1ec9nh",
                -8.659820482462946
            ],
            [
                "\u2581c\u1ea7m",
                -8.66041449394564
            ],
            [
                "\u2581t\u00f3c",
                -8.660561164456263
            ],
            [
                "\u2581\u0111\u1ea9y",
                -8.661275971190568
            ],
            [
                "\u2581T\u00ecm",
                -8.661894428595003
            ],
            [
                "\u2581nh\u1ea1c",
                -8.663068855005214
            ],
            [
                "\u2581ch\u00f3ng",
                -8.663464100476363
            ],
            [
                "\u2581L\u00fd",
                -8.667590948922868
            ],
            [
                "\u2581Vi\u1ec7c",
                -8.66979447868435
            ],
            [
                "\u2581Gi\u00e1",
                -8.67013548980155
            ],
            [
                "\u2581t\u1ed9i",
                -8.671229378436017
            ],
            [
                "\u2581n\u00f3ng",
                -8.671699181117724
            ],
            [
                "\u2581Phong",
                -8.672690284103158
            ],
            [
                "\u2581ki\u1ec3u",
                -8.67344877910526
            ],
            [
                "\u2581tai",
                -8.677563240689773
            ],
            [
                "\u2581kh\u1ea3o",
                -8.678023957606275
            ],
            [
                "\u2581v\u01b0\u1ee3t",
                -8.678088651502305
            ],
            [
                "\u2581vai",
                -8.67908267702134
            ],
            [
                "\u2581S\u1ea3n",
                -8.68175823872913
            ],
            [
                "\u2581Qu\u1ea3ng",
                -8.682190677433187
            ],
            [
                "\u2581L\u00e2m",
                -8.682396279436546
            ],
            [
                "\u2581Linh",
                -8.684714275217178
            ],
            [
                "\u2581K\u1ef3",
                -8.686290644648924
            ],
            [
                "\u2581th\u01b0\u1edfng",
                -8.686369271169891
            ],
            [
                "\u2581\u0111\u1ea3o",
                -8.687051690388508
            ],
            [
                "\u2581ch\u1eafn",
                -8.689102298902572
            ],
            [
                "\u2581d\u1eef",
                -8.690141663278242
            ],
            [
                "\u2581Con",
                -8.691498982836642
            ],
            [
                "\u2581ch\u1eef",
                -8.693260109876098
            ],
            [
                "\u2581to",
                -8.696756512656613
            ],
            [
                "\u2581huy\u1ec7n",
                -8.700630376149343
            ],
            [
                "\u25811.",
                -8.70185760497035
            ],
            [
                "\u2581h\u1ea1nh",
                -8.70268395092087
            ],
            [
                "\u2581d\u00e2y",
                -8.706024349522991
            ],
            [
                "\u2581n\u00f3i,",
                -8.706353009631625
            ],
            [
                "\u2581l\u1ea1",
                -8.707511967923079
            ],
            [
                "\u2581k\u00ednh",
                -8.709456592727902
            ],
            [
                "\u2581l\u00e3o",
                -8.712138956913448
            ],
            [
                "\u2581Th\u1ef1c",
                -8.712171365494969
            ],
            [
                "\u2581y\u00ean",
                -8.715815001730215
            ],
            [
                "h\u1eb3ng",
                -8.716366436335255
            ],
            [
                "\u2581t\u1ed9c",
                -8.717321732163926
            ],
            [
                "\u2581th\u1ee7y",
                -8.717942860512851
            ],
            [
                "\u2581ph\u1ed5",
                -8.718005724728137
            ],
            [
                "\u258120",
                -8.718125574092648
            ],
            [
                "\u2581th\u00fac",
                -8.718261477594718
            ],
            [
                "\u2581V\u0169",
                -8.71830617751149
            ],
            [
                "\u2581luy\u1ec7n",
                -8.719996065828976
            ],
            [
                "\u2581Gia",
                -8.721788030327088
            ],
            [
                "\u2581su\u1ea5t",
                -8.722367104897273
            ],
            [
                "\u2581Nh\u01b0",
                -8.724262667251725
            ],
            [
                "\u2581n\u1ed1i",
                -8.724410964415037
            ],
            [
                "\u2581b\u1ee9c",
                -8.725037831809724
            ],
            [
                "\u2581nh\u1edd",
                -8.725229268659282
            ],
            [
                "\u2581Hai",
                -8.725609805571024
            ],
            [
                "\u2581n\u1eefa,",
                -8.726452980811525
            ],
            [
                "\u2581m\u00e0n",
                -8.72703549132357
            ],
            [
                "\u2581Hi\u1ec7n",
                -8.727198984530805
            ],
            [
                "\u2581ng\u1eef",
                -8.728805789416286
            ],
            [
                "\u2581ni\u00ean",
                -8.729268127676479
            ],
            [
                "\u2581g\u00ec?",
                -8.729477390178433
            ],
            [
                "\u2581ng\u00f4i",
                -8.730802377813546
            ],
            [
                "\u1ede",
                -8.731745424753289
            ],
            [
                "\u2581truy",
                -8.731853660788333
            ],
            [
                "\u2581s\u1eafp",
                -8.73326706474372
            ],
            [
                "\u2581\u0110\u01b0\u1eddng",
                -8.733513031441612
            ],
            [
                "\u2581may",
                -8.73522596234658
            ],
            [
                "\u2581T\u00e2n",
                -8.737233670774927
            ],
            [
                "\u2581kh\u0103n",
                -8.737480226896249
            ],
            [
                "\u2581\u0111\u1ecf",
                -8.739739219101699
            ],
            [
                "\u2581n\u1eefa.",
                -8.742899829518825
            ],
            [
                "\u2581sung",
                -8.743468548514176
            ],
            [
                "\u2581kh\u00e1c.",
                -8.744229646794322
            ],
            [
                "\u2581nghi",
                -8.745700591115929
            ],
            [
                "\u2581B\u00e0",
                -8.74699948275884
            ],
            [
                "\u2581m\u00e3",
                -8.748466529811619
            ],
            [
                "\u2581Do",
                -8.748631339644087
            ],
            [
                "\u2581ch\u1ee9",
                -8.749995551030242
            ],
            [
                "\u2581s\u1ea1ch",
                -8.750132429809808
            ],
            [
                "\u2581l\u1ea1i,",
                -8.752481687511446
            ],
            [
                "\u2581V\u1ec1",
                -8.752678841045094
            ],
            [
                "\u2581\u0111\u00e2y,",
                -8.753988133724262
            ],
            [
                "\u2581giai",
                -8.754075616752827
            ],
            [
                "\u2581ph\u1eadn",
                -8.75558383639497
            ],
            [
                "\u2581b\u00e1nh",
                -8.759363445629008
            ],
            [
                "'",
                -8.765643707156375
            ],
            [
                "\u2581c\u1ea5u",
                -8.768557217756367
            ],
            [
                "\u2581nghi\u00eam",
                -8.771251575568103
            ],
            [
                "\u2581thai",
                -8.771432116407475
            ],
            [
                "e",
                -8.771912604546992
            ],
            [
                "\u2581x\u1ebfp",
                -8.772309309478786
            ],
            [
                "\u2581tuy",
                -8.773400035497865
            ],
            [
                "\u2581qu\u00e1n",
                -8.77386459181161
            ],
            [
                "\u25812017",
                -8.773908010493864
            ],
            [
                "\u2581N\u0103m",
                -8.774644672227772
            ],
            [
                "\u2581Ti\u1ec3u",
                -8.778419070003846
            ],
            [
                "\u2581tim",
                -8.778670710328717
            ],
            [
                "\u2581r\u0103ng",
                -8.779688836516062
            ],
            [
                "\u2581\u00bb",
                -8.780138657713993
            ],
            [
                "\u2581n\u1eafm",
                -8.780156895578132
            ],
            [
                "\u2581c\u00e1n",
                -8.780549969300044
            ],
            [
                "\u2581M",
                -8.781939640735423
            ],
            [
                "\u2581t\u1ea7m",
                -8.783174273165317
            ],
            [
                "\u2581sao?",
                -8.785962672981972
            ],
            [
                "\u2581s\u1eb5n",
                -8.78611282404596
            ],
            [
                "\u2581ho\u00e0ng",
                -8.788798905962992
            ],
            [
                "\u2581ph\u00fac",
                -8.789679492808467
            ],
            [
                "\u2581t\u1eb7ng",
                -8.791413267366748
            ],
            [
                "\u2581\u1ea5n",
                -8.791790886039376
            ],
            [
                "\u2581S\u01a1n",
                -8.79429043054823
            ],
            [
                "\u2581b\u1ea7u",
                -8.795104127091577
            ],
            [
                "\u2581th\u1ea5p",
                -8.797294015837123
            ],
            [
                "\u2581ph\u00ea",
                -8.798337837773861
            ],
            [
                "\u25812.",
                -8.798747606565493
            ],
            [
                "\u2581d\u1ea7n",
                -8.802079323048705
            ],
            [
                "\u2581\u0111\u1ed1c",
                -8.802811266345962
            ],
            [
                "\u258130",
                -8.80669436308799
            ],
            [
                "\u2581m\u00e3i",
                -8.806993261800525
            ],
            [
                "\u2581l\u01b0\u1ee3t",
                -8.808549350609479
            ],
            [
                "\u2581ng\u0103n",
                -8.808611105064927
            ],
            [
                "\u2581*",
                -8.809375636739796
            ],
            [
                "\u2581T\u1ed5",
                -8.80948524834239
            ],
            [
                "\u2581n\u1eb7ng",
                -8.810495816278046
            ],
            [
                "\u258115",
                -8.811364123435379
            ],
            [
                "\u2581qu\u00ean",
                -8.811939431457773
            ],
            [
                "\u2581\u0111\u1ee9a",
                -8.814002647500923
            ],
            [
                "\u2581r\u1ed3i.",
                -8.815723741323001
            ],
            [
                "\u2581\u0110\u00f3",
                -8.818444808004479
            ],
            [
                "\u2581\u0110\u01b0\u1ee3c",
                -8.818594427119287
            ],
            [
                "\u2581c\u00e1nh",
                -8.819132902580591
            ],
            [
                "\u2581h\u00e0i",
                -8.82700305083179
            ],
            [
                "\u2581D\u1ef1",
                -8.827445372889022
            ],
            [
                "\u2581su\u1ed1t",
                -8.829177991860972
            ],
            [
                "\u2581Ch\u00e2u",
                -8.830426134752805
            ],
            [
                "\u2581c\u0169",
                -8.830874405612828
            ],
            [
                "\u2581t\u1ed1c",
                -8.831024689745043
            ],
            [
                "\u2581C\u1ed9ng",
                -8.837144528666336
            ],
            [
                "\u2581\u0111en",
                -8.837628447312067
            ],
            [
                "\u2581si\u00eau",
                -8.838806049897057
            ],
            [
                "\u2581Ba",
                -8.839599560315271
            ],
            [
                "\u2581m\u00e1i",
                -8.840336548684842
            ],
            [
                "\u2581mi\u1ec7ng",
                -8.840378450107709
            ],
            [
                "\u2581\u01b0\u1edbc",
                -8.841505766831208
            ],
            [
                "\u2581C\u00f2n",
                -8.84309535202669
            ],
            [
                "\u2581th\u1ea7y",
                -8.844203945913915
            ],
            [
                "\u2581bi\u00ean",
                -8.845030685629666
            ],
            [
                "\u2581T",
                -8.850061888333132
            ],
            [
                "\u2581Gi\u1edbi",
                -8.850300532401482
            ],
            [
                "\u2581m\u1ed1i",
                -8.8512294834353
            ],
            [
                "\u2581ng\u1eafn",
                -8.852566184200185
            ],
            [
                "\u2581nhi\u00eau",
                -8.854086196916215
            ],
            [
                "\u2581th\u1eb3ng",
                -8.854093294537853
            ],
            [
                "\u2581ch\u1ee9a",
                -8.854562989167643
            ],
            [
                "\u2581th\u1eafng",
                -8.855414072580858
            ],
            [
                "\u2581Th\u00e1ng",
                -8.856623039319352
            ],
            [
                "\u2581Ph\u00fa",
                -8.856633883856901
            ],
            [
                "\u2581'",
                -8.858218262873825
            ],
            [
                "\u2581s\u1eefa",
                -8.861181726437133
            ],
            [
                "\u2581\u0111\u00e1m",
                -8.862758939919393
            ],
            [
                "\u2581Gi\u1ea3i",
                -8.864550433300233
            ],
            [
                "\u2581v\u0169",
                -8.866618160978906
            ],
            [
                "\u2581k",
                -8.87030039992944
            ],
            [
                "\u2581Gi\u1ea5y",
                -8.871664869026668
            ],
            [
                "\u2581s\u1ea1n",
                -8.874036929828817
            ],
            [
                "\u2581Tr\u01b0\u1edbc",
                -8.874248153696234
            ],
            [
                "\u2581xong",
                -8.876309488088534
            ],
            [
                "\u2581qu\u1eadn",
                -8.876527292525994
            ],
            [
                "\u2581phi",
                -8.877208443421502
            ],
            [
                "\u2581chi\u1ebfu",
                -8.878138688059096
            ],
            [
                "\u2581thao",
                -8.87848424712282
            ],
            [
                "\u2581t\u00f4n",
                -8.879002138829392
            ],
            [
                "\u2581t\u1ea5n",
                -8.879828742016016
            ],
            [
                "\u2581t\u00f4",
                -8.88191587218062
            ],
            [
                "\u2581\u0111\u01b0\u1ee3c.",
                -8.88210600134265
            ],
            [
                "\u2581c\u1eed",
                -8.883177451060321
            ],
            [
                "\u2581x\u1ea5u",
                -8.884685043915018
            ],
            [
                "\u2581bu\u1ed3n",
                -8.885154029515661
            ],
            [
                "\u2581d\u00e1ng",
                -8.88594487458962
            ],
            [
                "\u2581kh\u1ed5",
                -8.88637118103356
            ],
            [
                "\u2581nguy\u1ec7n",
                -8.887939436805397
            ],
            [
                "\u2581N",
                -8.89005786650875
            ],
            [
                "\u2581vi\u00eam",
                -8.892260971226523
            ],
            [
                "\u2581m\u1eddi",
                -8.892785618473084
            ],
            [
                "\u2581B\u00e1n",
                -8.894567099622074
            ],
            [
                "\u2581Chi",
                -8.896612997148058
            ],
            [
                "\u2581n\u1ea1n",
                -8.89851935825492
            ],
            [
                "\u2581trao",
                -8.898693831719804
            ],
            [
                "\u2581l\u00e1",
                -8.899943416329636
            ],
            [
                "\u2581H\u1ecd",
                -8.90277048897371
            ],
            [
                "\u2581d\u00e1m",
                -8.903038681857357
            ],
            [
                "l",
                -8.90397643110853
            ],
            [
                "\u2581th\u01a1",
                -8.903988208141616
            ],
            [
                "\u2581Ng\u00e2n",
                -8.904282186678925
            ],
            [
                "\u2581h\u00e3ng",
                -8.908650573047495
            ],
            [
                "\u2581ch\u00e2u",
                -8.910885636003815
            ],
            [
                "\u2581nhau.",
                -8.910946758188484
            ],
            [
                "\u2581\u1ed5n",
                -8.91504012503798
            ],
            [
                "\u2581tr\u1eeb",
                -8.916718317657882
            ],
            [
                "\u2581A",
                -8.91812597800931
            ],
            [
                "\u2581S",
                -8.918397051642632
            ],
            [
                "\u2581h\u01a1n,",
                -8.92127757685596
            ],
            [
                "\u2581H\u00ecnh",
                -8.922243628285909
            ],
            [
                "\u2581V\u1eady",
                -8.922310646605416
            ],
            [
                "\u2581n\u00e0o?",
                -8.922497057970947
            ],
            [
                "\u2581Khoa",
                -8.92279368297346
            ],
            [
                "\u2581S\u00e0i",
                -8.923464388877612
            ],
            [
                "\u2581Qu\u1ea3n",
                -8.925677271253969
            ],
            [
                "\u2581ma",
                -8.926220218361856
            ],
            [
                "\u2581Qu\u00fd",
                -8.929112332867966
            ],
            [
                "\u2581th\u00f4i",
                -8.9295014972264
            ],
            [
                "\u2581sau:",
                -8.930891401155213
            ],
            [
                "\u2581web",
                -8.932812156355752
            ],
            [
                "\u2581\u0111\u00f3n",
                -8.934272217550067
            ],
            [
                "\u2581m\u01a1",
                -8.937428179785503
            ],
            [
                "\u2581bu\u1ed9c",
                -8.937756839875625
            ],
            [
                "\u2581thuy\u1ebft",
                -8.937885957211417
            ],
            [
                "\u2581T\u1ea5t",
                -8.93821710553389
            ],
            [
                "\u2581nhi\u1ec5m",
                -8.938745301031378
            ],
            [
                "\u2581K\u1ebft",
                -8.939897788765819
            ],
            [
                "\u2581Th\u00e1nh",
                -8.940548140918374
            ],
            [
                "\u2581Lan",
                -8.94176655637298
            ],
            [
                "\u2581gi\u1ea3ng",
                -8.94287011874236
            ],
            [
                "\u2581Cao",
                -8.943334204747654
            ],
            [
                "\u2581B\u1ec7nh",
                -8.943522543559647
            ],
            [
                "\u2581kim",
                -8.943756698499666
            ],
            [
                "\u2581b\u00e0y",
                -8.943954478722512
            ],
            [
                "\u2581th\u1ebf,",
                -8.944492675145483
            ],
            [
                "\u2581H\u00e0ng",
                -8.94610743032683
            ],
            [
                "\u2581B\u00ean",
                -8.9465086885865
            ],
            [
                "\u2581t\u00e1i",
                -8.947944817887889
            ],
            [
                "\u2581\u0111\u00e8n",
                -8.948087297583866
            ],
            [
                "\u2581\u0111o\u00e1n",
                -8.948993124794717
            ],
            [
                "\u2581N\u00f3",
                -8.950120170797772
            ],
            [
                "\u2581phi\u00ean",
                -8.950193267162433
            ],
            [
                "\u2581ch\u00e0ng",
                -8.950209176905119
            ],
            [
                "\u2581th\u1eadm",
                -8.95458813180407
            ],
            [
                "\u2581t\u1eafc",
                -8.95525697087088
            ],
            [
                "\u2581Nam.",
                -8.956205942805028
            ],
            [
                "\u2581c\u1eaft",
                -8.957323191828673
            ],
            [
                "\u2581ng\u00f4n",
                -8.959266900121218
            ],
            [
                "\u2581C\u00e2u",
                -8.960314490726086
            ],
            [
                "\u2581r\u00e0ng",
                -8.960942500762929
            ],
            [
                "\u2581Ph\u00e1t",
                -8.961156001581703
            ],
            [
                "\u2581tr\u00fac",
                -8.963033204796526
            ],
            [
                "\u2581m\u1eebng",
                -8.964600865814981
            ],
            [
                "\u2581l\u01b0\u01a1ng",
                -8.965816092155949
            ],
            [
                "\u2581\u0111i,",
                -8.966979146817629
            ],
            [
                "\u2581n\u1eeda",
                -8.967703558194348
            ],
            [
                "\u2581h\u1ec1",
                -8.968393081135968
            ],
            [
                "\u2581Ng\u00e0i",
                -8.968412595084732
            ],
            [
                "\u2581ni\u1ec1m",
                -8.970245712725102
            ],
            [
                "\u258111",
                -8.971453840466442
            ],
            [
                "\u2581t\u1ed3n",
                -8.972475064366755
            ],
            [
                "\u2581Ph\u1ea7n",
                -8.975831924823407
            ],
            [
                "\u2581ng\u0169",
                -8.976315208287625
            ],
            [
                "\u2581b\u1ea1n.",
                -8.97650258431548
            ],
            [
                "\u2581cu\u1ed1n",
                -8.97730971658125
            ],
            [
                "\u2581T\u00ecnh",
                -8.977336216675415
            ],
            [
                "\u2581\u0111\u1eb3ng",
                -8.978158190941773
            ],
            [
                "\u2581khuy\u1ebfn",
                -8.978221571442681
            ],
            [
                "\u2581l\u1eafng",
                -8.979711395788273
            ],
            [
                "\u2581T\u1eed",
                -8.980224818015405
            ],
            [
                "\u2581l\u1ea1i.",
                -8.982197680786632
            ],
            [
                "\u2581ngon",
                -8.982292245939316
            ],
            [
                "\u2581\u0111\u1ee3i",
                -8.983473405488926
            ],
            [
                "\u2581ch\u00e1u",
                -8.984425399911267
            ],
            [
                "\u2581Sinh",
                -8.984556382721763
            ],
            [
                "\u2581t\u1ecf",
                -8.9847447738703
            ],
            [
                "\u2581Khu",
                -8.98538723548847
            ],
            [
                "\u2581huy",
                -8.986035073168853
            ],
            [
                "\u2581Kim",
                -8.986428159840834
            ],
            [
                "\u2581d\u01b0\u01a1ng",
                -8.989144487313098
            ],
            [
                "\u2581\u0110\u1ea3ng",
                -8.991364267982268
            ],
            [
                "\u2581Xu\u00e2n",
                -8.992927670922786
            ],
            [
                "\u2581m\u0169i",
                -8.993247114685092
            ],
            [
                "\u2581th\u1eeba",
                -8.993547707479348
            ],
            [
                "\u2581tho\u00e1t",
                -8.994512689917688
            ],
            [
                "\u2581nh\u1eafc",
                -8.994740440885092
            ],
            [
                "\u2581\u0111\u1ed5",
                -8.996266526136134
            ],
            [
                "\u2581L\u00e0",
                -8.996900944478556
            ],
            [
                "\u2581\u0110\u1ea7u",
                -8.997028436987371
            ],
            [
                "\u2581L\u01b0u",
                -8.997075153941244
            ],
            [
                "\u2581l\u01b0\u1ee3c",
                -8.997989384553309
            ],
            [
                "\u2581kh\u00e1c,",
                -8.998736743861887
            ],
            [
                "\u2581Danh",
                -8.999988758767287
            ],
            [
                "\u2581t\u01b0\u01a1i",
                -9.000028124990461
            ],
            [
                "\u2581r\u01a1i",
                -9.000111693313503
            ],
            [
                "\u2581h\u1ea7u",
                -9.000184552230085
            ],
            [
                "\u2581bi\u1ec7n",
                -9.002064526721716
            ],
            [
                "\u2581chi\u1ebfm",
                -9.005326478000814
            ],
            [
                "k",
                -9.006111767920782
            ],
            [
                "\u2581so\u00e1t",
                -9.009681903483717
            ],
            [
                "\u2581vay",
                -9.01112670117446
            ],
            [
                "\u2581chuy\u1ebfn",
                -9.012075932036375
            ],
            [
                "\u2581d\u1ef1a",
                -9.013436026653293
            ],
            [
                "\u2581B\u1ea5t",
                -9.01349074728073
            ],
            [
                "\u2581Nim",
                -9.015096106858119
            ],
            [
                "\u2581c\u1ee5c",
                -9.017207477979376
            ],
            [
                "\u2581t\u1edd",
                -9.020642690549272
            ],
            [
                "\u2581kh\u1ed1i",
                -9.02125118499357
            ],
            [
                "\u2581Ngh\u1ecb",
                -9.02332977347481
            ],
            [
                "\u2581t\u00f9y",
                -9.0241829745355
            ],
            [
                "\u2581t\u00f2a",
                -9.02654994171058
            ],
            [
                "\u2581Qu\u00e2n",
                -9.02777951406657
            ],
            [
                "\u2581th\u1edf",
                -9.029138330094614
            ],
            [
                "\u2581\u0111\u1ee9c",
                -9.02988937401328
            ],
            [
                "\u2581M\u1eb9",
                -9.031914415996386
            ],
            [
                "\u2581qu\u00e0",
                -9.03296537853166
            ],
            [
                "\u2581xung",
                -9.034114878610906
            ],
            [
                "\u2581Nhi\u1ec1u",
                -9.034490721715041
            ],
            [
                "\u2581t\u00e0u",
                -9.034799751090427
            ],
            [
                "\u2581ch\u1eb7t",
                -9.035361992083608
            ],
            [
                "\u2581v\u1eady.",
                -9.036537073951644
            ],
            [
                "\u2581tr\u0103m",
                -9.038078644166369
            ],
            [
                "\u2581m\u01b0\u1eddi",
                -9.03848232499417
            ],
            [
                "\u2581d\u00f5i",
                -9.042537900098846
            ],
            [
                "\u2581Th\u01b0\u01a1ng",
                -9.043730078711615
            ],
            [
                "\u2581ph\u00f3ng",
                -9.04397344407878
            ],
            [
                "\u2581th\u1ecbt",
                -9.045337671232055
            ],
            [
                "\u2581g\u1eafng",
                -9.046111689819984
            ],
            [
                "\u2581Tr\u00ean",
                -9.04616674108038
            ],
            [
                "d",
                -9.04698161740302
            ],
            [
                "\u2581h\u1ecdp",
                -9.04792699696058
            ],
            [
                "\u2581l\u1eafm",
                -9.048858263518659
            ],
            [
                "\u25813.",
                -9.049102503863278
            ],
            [
                "\u2581gi\u1ebft",
                -9.050070591985502
            ],
            [
                "\u2581gi\u00e0u",
                -9.050253930094918
            ],
            [
                "\u2581h\u01b0\u01a1ng",
                -9.055898598449296
            ],
            [
                "\u2581v\u1eefng",
                -9.05819233792123
            ],
            [
                "\u2581tuy\u00ean",
                -9.061322063874865
            ],
            [
                "\u2581h\u1ea1ng",
                -9.062885437209694
            ],
            [
                "\u2581k\u00e9m",
                -9.064109366342446
            ],
            [
                "\u2581tu",
                -9.065327781723507
            ],
            [
                "\u2581r\u1eddi",
                -9.065353237149194
            ],
            [
                "\u2581l\u00ean,",
                -9.066157453888732
            ],
            [
                "\u2581H\u1ec7",
                -9.069958650943207
            ],
            [
                "\u2581V\u01b0\u01a1ng",
                -9.070849666612649
            ],
            [
                "\u2581n\u01b0\u1edbc,",
                -9.07098191950877
            ],
            [
                "\u2581h\u00e1t",
                -9.07132099931287
            ],
            [
                "\u2581Ng\u1ecdc",
                -9.071730783656413
            ],
            [
                "\u2581r\u00fat",
                -9.072347072243502
            ],
            [
                "\u2581n\u1ed7i",
                -9.072835614629422
            ],
            [
                "\u2581b\u1ea3ng",
                -9.073341688614569
            ],
            [
                "\u2581ki\u1ec7m",
                -9.074186713565659
            ],
            [
                "\u2581g\u1ed1c",
                -9.07481295226329
            ],
            [
                "\u2581Ngh\u1ec7",
                -9.075184260060778
            ],
            [
                "\u2581N\u00f3i",
                -9.076210546810152
            ],
            [
                "\u2581huy\u1ebft",
                -9.076658270929942
            ],
            [
                "\u2581Nam,",
                -9.07745813708391
            ],
            [
                "ung",
                -9.077953247239384
            ],
            [
                "\u2581ng\u01b0\u1ee3c",
                -9.078537691857095
            ],
            [
                "\u2581Ph\u00f3",
                -9.078683347222308
            ],
            [
                "\u2581t\u1ea5m",
                -9.079270450769087
            ],
            [
                "\u2581c\u00e0",
                -9.081575710965959
            ],
            [
                "\u2581nhau,",
                -9.08233947969093
            ],
            [
                "\u2581l\u1eafp",
                -9.083970664586758
            ],
            [
                "\u2581nh\u00e9.",
                -9.087372830272447
            ],
            [
                "\u2581h\u1ea3i",
                -9.090223779599157
            ],
            [
                "\".",
                -9.090463915152862
            ],
            [
                "\u2581ninh",
                -9.090742670237765
            ],
            [
                "\u2581binh",
                -9.0917398645178
            ],
            [
                "\u2581\u0110\u1eb7c",
                -9.091853778434505
            ],
            [
                "\u2581Gi\u00e1m",
                -9.092450362212663
            ],
            [
                "\u2581\u0110\u1ebfn",
                -9.092907298997778
            ],
            [
                "\u2581m\u1ea1ch",
                -9.093960254806902
            ],
            [
                "\u2581k\u00e8m",
                -9.093982480321255
            ],
            [
                "\u2581B\u00ed",
                -9.094535490359236
            ],
            [
                "\u2581H\u1ed3ng",
                -9.095665533116193
            ],
            [
                "\u2581h\u1ea1t",
                -9.095821726810408
            ],
            [
                "\u2581bi\u1ebft,",
                -9.096233820584771
            ],
            [
                "\u2581ra.",
                -9.096391847612495
            ],
            [
                "\u2581TP",
                -9.097934971205714
            ],
            [
                "\u2581gi\u1ecdng",
                -9.098257850187988
            ],
            [
                "\u2581g\u00ec,",
                -9.100661745172221
            ],
            [
                "\u2581\u0111\u1ee1",
                -9.10121343160028
            ],
            [
                "\u2581\u00c1",
                -9.101698859440248
            ],
            [
                "\u2581v\u00e9",
                -9.102325234602851
            ],
            [
                "\u2581\u0111\u01b0\u01a1ng",
                -9.102596731029287
            ],
            [
                "\u2581ho\u00e1",
                -9.102661060185078
            ],
            [
                "\u2581th\u1ee5",
                -9.10342510751444
            ],
            [
                "\u2581C\u1ea7n",
                -9.103542214119116
            ],
            [
                "\u2581kh\u1eafp",
                -9.105455117301176
            ],
            [
                "\u2581V\u00e2n",
                -9.105776833024619
            ],
            [
                "\u2581t\u1ebf,",
                -9.108220686178061
            ],
            [
                "\u2581lo\u1ea1n",
                -9.108434663757105
            ],
            [
                "\u2581L\u00fac",
                -9.109742401888294
            ],
            [
                "\u2581\u00f4m",
                -9.110599796276148
            ],
            [
                "\u2581khu\u00f4n",
                -9.110997265799561
            ],
            [
                "\u2581Nh\u1ea5t",
                -9.111059053426434
            ],
            [
                "\u2581k\u1ecbp",
                -9.111160771884906
            ],
            [
                "\u2581th\u00f4i.",
                -9.111695190448188
            ],
            [
                "\u2581Thu",
                -9.111849667444915
            ],
            [
                "\u2581H\u00f2a",
                -9.11240164248981
            ],
            [
                "\u2581T\u00e2m",
                -9.113132095063456
            ],
            [
                "\u2581Th\u1ea7n",
                -9.114315752313008
            ],
            [
                "\u2581v\u1ebft",
                -9.114910279119272
            ],
            [
                "\u2581\u0111\u1ed9ng,",
                -9.114962224613931
            ],
            [
                "\u2581Giang",
                -9.117598193382799
            ],
            [
                "\u2581\u00dd",
                -9.117635464037527
            ],
            [
                "\u2581g\u1ed7",
                -9.119126755336474
            ],
            [
                "\u2581H\u1ed7",
                -9.123658595824827
            ],
            [
                "\u2581Doanh",
                -9.125040723088128
            ],
            [
                "\u2581b\u00e0o",
                -9.125481747797497
            ],
            [
                "\u2581\u00c2u",
                -9.126717304576726
            ],
            [
                "\u2581L\u1ecbch",
                -9.128995180347875
            ],
            [
                "\u2581Th\u1ee9",
                -9.129299193229935
            ],
            [
                "\u2581m\u00ea",
                -9.130995113599102
            ],
            [
                "\u2581Quang",
                -9.131804817573894
            ],
            [
                "\u2581h\u1ed3ng",
                -9.132554764040705
            ],
            [
                "\u2581ch\u1eadm",
                -9.136797985124588
            ],
            [
                "\u2581Xin",
                -9.137757555348246
            ],
            [
                "\u2581ng\u1eebng",
                -9.13858670336925
            ],
            [
                "\u2581Di\u1ec5n",
                -9.141503341233163
            ],
            [
                "\u2581nh\u1ea5t,",
                -9.142825955356411
            ],
            [
                "\u2581Ph\u1ee5",
                -9.143511125154673
            ],
            [
                "\u2581l\u1eabn",
                -9.1456333403993
            ],
            [
                "\u2581D",
                -9.146149539682517
            ],
            [
                "\u2581h\u1ecdc,",
                -9.147562395476479
            ],
            [
                "\u2581ch\u1ee5p",
                -9.148930486737006
            ],
            [
                "\u2581k\u00eau",
                -9.150073301039454
            ],
            [
                "\u2581\u0110\u00e0o",
                -9.150894967150489
            ],
            [
                "\u2581n\u00e0o.",
                -9.151578828037675
            ],
            [
                "\u2581s\u00f4ng",
                -9.152268410282085
            ],
            [
                "\u2581C\u0103n",
                -9.153381159107177
            ],
            [
                "\u2581th\u00e1c",
                -9.154313069283692
            ],
            [
                "\u2581\u1ee6y",
                -9.157139037150667
            ],
            [
                "\u2581phi\u1ebfu",
                -9.157561282779556
            ],
            [
                "\u2581Kh\u00e1ch",
                -9.157884696620787
            ],
            [
                "\u2581T\u1eadp",
                -9.15798879977212
            ],
            [
                "\u2581nghi\u1ec7p,",
                -9.159596234254185
            ],
            [
                "\u2581d\u1eebng",
                -9.160422692250169
            ],
            [
                "\u2581\u0111\u00f2i",
                -9.161146263607861
            ],
            [
                "\u2581La",
                -9.161188296608188
            ],
            [
                "\u2581k\u00ea",
                -9.162249468192918
            ],
            [
                "\u2581s\u1ed5",
                -9.162768250922138
            ],
            [
                "\u2581lai",
                -9.163507998264794
            ],
            [
                "\u2581C\u00e1i",
                -9.163649447422753
            ],
            [
                "\u2581cam",
                -9.163910261247427
            ],
            [
                "\u2581V\u00c0",
                -9.165777135805904
            ],
            [
                "\u2581Nga",
                -9.16585718726152
            ],
            [
                "\u2581b\u1eefa",
                -9.167852647422002
            ],
            [
                "\u2581s\u00e0ng",
                -9.168285930512724
            ],
            [
                "\u2581h\u1eb3n",
                -9.168901776786782
            ],
            [
                "\u2581th\u00f4n",
                -9.169073073996781
            ],
            [
                "\u2581l\u00e0n",
                -9.169378577392212
            ],
            [
                "\u2581b\u1ebfp",
                -9.169481167888055
            ],
            [
                "\u2581C\u0169ng",
                -9.172123239087965
            ],
            [
                "]",
                -9.172559470650304
            ],
            [
                "\u2581qua,",
                -9.172640383135167
            ],
            [
                "\u2581K\u1ebf",
                -9.173453887694613
            ],
            [
                "\u2581Ch\u1ecb",
                -9.173820829625353
            ],
            [
                "!\"",
                -9.175251522942165
            ],
            [
                "\u2581h\u1ed3n",
                -9.17612264539885
            ],
            [
                "\u2581s\u1ee9",
                -9.176872137330855
            ],
            [
                "\u2581n\u00f3i.",
                -9.17701495971589
            ],
            [
                "\u2581tr\u1ed3ng",
                -9.177666784279854
            ],
            [
                "\u25810",
                -9.178833820052269
            ],
            [
                "\u2581n\u00e9t",
                -9.179114714859372
            ],
            [
                "\u2581tr\u00f9ng",
                -9.179420192209205
            ],
            [
                "\u2581th\u00ed",
                -9.179669855125706
            ],
            [
                "\u2581G\u00f2n",
                -9.18052141064154
            ],
            [
                "\u2581Nha",
                -9.18072903159128
            ],
            [
                "\u2581m\u00e0y",
                -9.181138557376983
            ],
            [
                "\u2581N\u1eb5ng",
                -9.18229364050097
            ],
            [
                "\u2581Xe",
                -9.182919928770527
            ],
            [
                "\u2581l\u01b0ng",
                -9.183196019608417
            ],
            [
                "\u2581l\u1edbn,",
                -9.183317174041308
            ],
            [
                "\u2581ng\u1ea1i",
                -9.184192613496602
            ],
            [
                "\u2581ly",
                -9.184469681328254
            ],
            [
                "\u2581D\u00e2n",
                -9.185549140861585
            ],
            [
                "\u2581gi\u00e0",
                -9.189572670988964
            ],
            [
                "\u2581[",
                -9.19096066298971
            ],
            [
                "\u2581cao,",
                -9.191819056364569
            ],
            [
                "\u2581duy\u1ec7t",
                -9.193079060616467
            ],
            [
                "\u2581r\u1ed1i",
                -9.193958511171214
            ],
            [
                "\u2581n\u00fai",
                -9.19654619306202
            ],
            [
                "\u2581gi\u00f3",
                -9.198146228261823
            ],
            [
                "\u2581r\u1eeda",
                -9.201999310753553
            ],
            [
                "\u2581g\u1eafn",
                -9.201999375741355
            ],
            [
                "\u2581\u2018",
                -9.202894660835547
            ],
            [
                "\u2581k\u00ec",
                -9.203539468146802
            ],
            [
                "\u2581Ph\u1ea1m",
                -9.20355599000245
            ],
            [
                "\u2581tho\u1ea3i",
                -9.203716635480898
            ],
            [
                "\u2581c\u01a1n",
                -9.204878025523302
            ],
            [
                "\u2581C\u1ed5",
                -9.205569539796915
            ],
            [
                "\u2581M\u1ecdi",
                -9.206311544552548
            ],
            [
                "\u2581b\u1ec1n",
                -9.207938926197468
            ],
            [
                "\u2581B\u1edfi",
                -9.207940036039325
            ],
            [
                "\u2581\u1ea5m",
                -9.208063308993115
            ],
            [
                "\u2581Truy\u1ec1n",
                -9.208844438174255
            ],
            [
                "\u2581ng\u01b0\u1eddi.",
                -9.210622102615918
            ],
            [
                "\u2581d\u1ecbp",
                -9.215082834683844
            ],
            [
                "\u2581c\u1eadn",
                -9.215184297845626
            ],
            [
                "\u2581T\u00ean",
                -9.215620414505914
            ],
            [
                "\u2581nh\u1ea5n",
                -9.215683646636668
            ],
            [
                "\u2581tr\u00f4ng",
                -9.216114218467101
            ],
            [
                "\u2581n\u01b0\u1edbc.",
                -9.218288626291473
            ],
            [
                "\u2581Th\u01b0",
                -9.219448362688567
            ],
            [
                "\u2581t\u1ea1m",
                -9.219731891242008
            ],
            [
                "\u2581Ninh",
                -9.220241195495085
            ],
            [
                "\u2581th\u1eadn",
                -9.220835996547208
            ],
            [
                "\u2581l\u00e0nh",
                -9.221878156502523
            ],
            [
                "\u2581ng\u00e0n",
                -9.222787941319991
            ],
            [
                "\u2581t\u00fai",
                -9.223965360620172
            ],
            [
                "\u2581l\u1eeda",
                -9.224211219406726
            ],
            [
                "\u2581xinh",
                -9.22505253847829
            ],
            [
                "\u2581gi\u1eadn",
                -9.226031783114877
            ],
            [
                "\u2581ng\u00e0i",
                -9.226227441845273
            ],
            [
                "\u2581B\u00e1c",
                -9.227651196635236
            ],
            [
                "\u2581M\u1eb7c",
                -9.22840773355934
            ],
            [
                "\u2581d\u1ecb",
                -9.228779260441152
            ],
            [
                "\u2581M\u1eb7t",
                -9.229924396402648
            ],
            [
                "\u2581b\u1eadc",
                -9.234369633592355
            ],
            [
                "\u2581g\u00f3i",
                -9.234990643022144
            ],
            [
                "\u2581b\u1ea1c",
                -9.236005168142047
            ],
            [
                "\u2581B\u1ea1ch",
                -9.239578410155731
            ],
            [
                "\u2581\u01b0\u01a1ng",
                -9.240429660171436
            ],
            [
                "\u2581kho\u00e1n",
                -9.242110195731614
            ],
            [
                "\u2581l\u1ec7nh",
                -9.242837220890866
            ],
            [
                "\u2581b\u00e8",
                -9.243409608668948
            ],
            [
                "\u2581r\u01b0\u1ee3u",
                -9.243908125034014
            ],
            [
                "\u2581r\u1eb1ng,",
                -9.24438539418562
            ],
            [
                "\u2581g\u1ea5p",
                -9.244517766367892
            ],
            [
                "\u2581ch\u00e1y",
                -9.244589452733141
            ],
            [
                "\u2581H\u1eafn",
                -9.244740402516149
            ],
            [
                "\u2581kh\u1ee7ng",
                -9.24499274125148
            ],
            [
                "\u2581D\u00f9",
                -9.246254946763369
            ],
            [
                "\u2581l\u1ed1i",
                -9.247108911581265
            ],
            [
                "\u2581t\u1ea3",
                -9.247486960340087
            ],
            [
                "\u2581\u1ea9n",
                -9.248010369490839
            ],
            [
                "\u2581\u0111i.",
                -9.249719620580095
            ],
            [
                "\u2581l\u00e1i",
                -9.252618478744154
            ],
            [
                "\u2581Giao",
                -9.253489315050182
            ],
            [
                "\u2581Ti\u00eau",
                -9.253637482689856
            ],
            [
                "\u25812016",
                -9.254681246664983
            ],
            [
                "\u2581h\u1ecda",
                -9.255050607146813
            ],
            [
                "\u2581c\u01b0\u1edbi",
                -9.256370290337658
            ],
            [
                "\u2581ch\u1ea3y",
                -9.25738780148502
            ],
            [
                "\u2581d\u1eady",
                -9.257440714519948
            ],
            [
                "\u2581m\u01b0a",
                -9.257998413384625
            ],
            [
                "\u2581M\u1ed7",
                -9.258599541473583
            ],
            [
                "\u2581V",
                -9.258650390128427
            ],
            [
                "\u2581\u0111\u00e2y.",
                -9.260957834745714
            ],
            [
                "\u2581gh\u1ebf",
                -9.262513629737569
            ],
            [
                "\u2581ch\u00e0o",
                -9.262760482114771
            ],
            [
                "\u2581li\u1ec7t",
                -9.263329840534967
            ],
            [
                "\u2581\u0110\u00ecnh",
                -9.263794992609848
            ],
            [
                "\u2581xu",
                -9.269414118082747
            ],
            [
                "\u2581l\u1eb7ng",
                -9.269664726820615
            ],
            [
                "\u2581\u0111\u1ec7",
                -9.271353951115206
            ],
            [
                "\u2019",
                -9.27206913627857
            ],
            [
                "\u2581Quan",
                -9.27285635828337
            ],
            [
                "\u2581s\u00f3ng",
                -9.275836274277008
            ],
            [
                "\u2581\u0111\u1ea3ng",
                -9.278677099747412
            ],
            [
                "\u2581th\u00f9",
                -9.279773139101566
            ],
            [
                "\u2581t\u01b0\u1eddng",
                -9.285545826841883
            ],
            [
                "\u2581th\u1ecfa",
                -9.288435557226062
            ],
            [
                "\u2581tr\u1ee9ng",
                -9.291807619398554
            ],
            [
                "\u2581c\u1ee9ng",
                -9.29220842095761
            ],
            [
                "\u2581\u0110\u1ec1",
                -9.292888801381338
            ],
            [
                "\u2581n\u1eafng",
                -9.29348858999118
            ],
            [
                "\u2581ph\u00e1i",
                -9.297607909328239
            ],
            [
                "\u2581hy",
                -9.298257177146862
            ],
            [
                "\u2581che",
                -9.298729135576213
            ],
            [
                "\u2581S\u01b0",
                -9.299559177552647
            ],
            [
                "\u2581m\u1ee5n",
                -9.299993131026483
            ],
            [
                "\u2581th\u01b0\u1edbc",
                -9.300384451934386
            ],
            [
                "\u2581n\u1ee3",
                -9.300646425633898
            ],
            [
                "\u2581\u0110",
                -9.30320879503179
            ],
            [
                "\u2581S\u1eed",
                -9.303873684158898
            ],
            [
                "\u2581H\u1ea1",
                -9.304112445389006
            ],
            [
                "\u2581v\u1eddi",
                -9.3054342922517
            ],
            [
                "\u2581dinh",
                -9.305987516962379
            ],
            [
                "\u2581X\u00e2y",
                -9.31086979186562
            ],
            [
                "\u2581b\u1ee5ng",
                -9.313858580983473
            ],
            [
                "\u2581th\u1ebb",
                -9.31583781135673
            ],
            [
                "\u2581t\u1ed1t,",
                -9.316868387630551
            ],
            [
                "\u2581qu\u00ea",
                -9.317669065886582
            ],
            [
                "\u2581kh\u00f4",
                -9.318566481970139
            ],
            [
                "\u2581hi\u1ec3n",
                -9.322544988704767
            ],
            [
                "\u2581Cu\u1ed9c",
                -9.322611200564708
            ],
            [
                "\u2581t\u1ef1u",
                -9.323250528544756
            ],
            [
                "\u2581c\u01a1m",
                -9.323634123652884
            ],
            [
                "\u2581t\u1ed5n",
                -9.324209994652533
            ],
            [
                "\u2581t\u0129nh",
                -9.327537544973223
            ],
            [
                "\u2581n\u00e0o,",
                -9.32938967067952
            ],
            [
                "\u2581kh\u00e1ng",
                -9.330246402806612
            ],
            [
                "\u2581song",
                -9.33053655454691
            ],
            [
                "\u2581\u0110o\u00e0n",
                -9.331908762418763
            ],
            [
                "\u2581lo\u1ea1t",
                -9.332632681053914
            ],
            [
                "\u2581g\u00f3c",
                -9.333132072639835
            ],
            [
                "\u2581V\u00e9",
                -9.334428495603925
            ],
            [
                "\u2581pha",
                -9.334509171529891
            ],
            [
                "\u2581th\u1ea3i",
                -9.33521190780558
            ],
            [
                "\u2581ko",
                -9.33538737962729
            ],
            [
                "r",
                -9.33563990772596
            ],
            [
                "\u2581ng\u01b0\u1eddi,",
                -9.335719505021892
            ],
            [
                "\u2581\u00a9",
                -9.336459310751946
            ],
            [
                "\u2581g\u01b0\u01a1ng",
                -9.337170582821408
            ],
            [
                "\u2581v\u1ed9i",
                -9.337279916550663
            ],
            [
                "\u2581Ai",
                -9.339417581094569
            ],
            [
                "\u2581t\u1eafm",
                -9.341769829910131
            ],
            [
                "\u2581mai",
                -9.34211843404929
            ],
            [
                "\u258116",
                -9.342782405955184
            ],
            [
                "\u2581B\u01b0\u1edbc",
                -9.344864510003141
            ],
            [
                "\u2581t\u00f4i.",
                -9.345109897821205
            ],
            [
                "\u2581m\u1ec7t",
                -9.346390938338196
            ],
            [
                "\u2581ch\u1ec9:",
                -9.348127038227252
            ],
            [
                "\u2581l\u00e0ng",
                -9.348498402694464
            ],
            [
                "\u2581Tri\u1ec7u",
                -9.349012727107883
            ],
            [
                "\u2581m\u00e1t",
                -9.349843311510165
            ],
            [
                "\u2581100",
                -9.350289531834063
            ],
            [
                "\u2581K\u1ef9",
                -9.350824433089704
            ],
            [
                "\u2581ph\u1ea1t",
                -9.351694446210734
            ],
            [
                "\u2581n\u1ed9p",
                -9.352058162995327
            ],
            [
                "\u2581N\u00e0ng",
                -9.352366825217441
            ],
            [
                "\u2581ng\u1ef1c",
                -9.352672846362228
            ],
            [
                "\u2581\u0110\u1ed9",
                -9.353235134747333
            ],
            [
                "\u258118",
                -9.353543414217548
            ],
            [
                "\u2581n\u1ea5u",
                -9.355754974504901
            ],
            [
                "\u2581\u0111\u1eb9p,",
                -9.357474227818194
            ],
            [
                "\u2581l\u00f4ng",
                -9.358302313976123
            ],
            [
                "\u2581l\u1ecdc",
                -9.358656563355849
            ],
            [
                "\u2581Vi\u00ean",
                -9.359816328908883
            ],
            [
                "\u2581m\u00f9i",
                -9.360789201677372
            ],
            [
                "\u2581\u0110ang",
                -9.360968386410555
            ],
            [
                "\u2581x\u01b0\u01a1ng",
                -9.36123639643925
            ],
            [
                "\u2581\u1ea9m",
                -9.36141774207567
            ],
            [
                "\u2581b\u1ed1n",
                -9.361432857457466
            ],
            [
                "\u2581Mua",
                -9.367696236149953
            ],
            [
                "\u2581\u0111\u00e0i",
                -9.369939852924377
            ],
            [
                "M",
                -9.370152044017082
            ],
            [
                "\u2581t\u00f4i,",
                -9.371746254007245
            ],
            [
                "\u2581c\u0103ng",
                -9.37212618628315
            ],
            [
                "\u2581nh\u01b0:",
                -9.372578559734865
            ],
            [
                "\u2581Phan",
                -9.372863963759613
            ],
            [
                "\u2581T\u00f2a",
                -9.374843054625973
            ],
            [
                "\u2581M\u1edbi",
                -9.375009060598128
            ],
            [
                "\u2581l\u00fd,",
                -9.37651005112317
            ],
            [
                "\u2581C\u1ea7u",
                -9.376660917920294
            ],
            [
                "\u2581V\u1ee5",
                -9.37700321595528
            ],
            [
                "\u2581C\u00d4NG",
                -9.377099165032629
            ],
            [
                "\u2581h\u00e0o",
                -9.377997230075753
            ],
            [
                "\u2581Ti\u1ebfng",
                -9.37802142316267
            ],
            [
                "\u2581\u0111\u1ea7u,",
                -9.37807032924731
            ],
            [
                "\u25814.",
                -9.378762239621407
            ],
            [
                "\u2581tr\u00e0n",
                -9.37962541538321
            ],
            [
                "\u2581\u0111\u00e3i",
                -9.379648315945595
            ],
            [
                "\u2581h\u1ea3o",
                -9.382117831535533
            ],
            [
                "\u2581b\u1ed3i",
                -9.382917479639948
            ],
            [
                "\u2581H",
                -9.383248216333492
            ],
            [
                "\u2581\u1ee7y",
                -9.38349802658859
            ],
            [
                "\u2581m\u1ec7nh",
                -9.3847067049324
            ],
            [
                "\u2581th\u1eadp",
                -9.384721921939427
            ],
            [
                "\u2581ch\u00fac",
                -9.38645538166426
            ],
            [
                "\u2581r\u1eebng",
                -9.386681759926494
            ],
            [
                "\u2581nay.",
                -9.388737889740234
            ],
            [
                "\u2581Vi\u1ec7n",
                -9.388757927557588
            ],
            [
                "\u2581TP.",
                -9.389282195769557
            ],
            [
                "\u2581th\u00e1nh",
                -9.390760518815991
            ],
            [
                "\u2581d\u01b0\u1ee3c",
                -9.39125639044079
            ],
            [
                "\u2581d\u1ee5",
                -9.391259710880268
            ],
            [
                "\u2581UBND",
                -9.391376221234172
            ],
            [
                "\u2581khi\u1ec3n",
                -9.39146934766896
            ],
            [
                "\u2581th\u01b0\u1ee3ng",
                -9.391735081042713
            ],
            [
                "\u2581l\u1ea7m",
                -9.392068728079403
            ],
            [
                "T",
                -9.394531210479048
            ],
            [
                "\u2581Ph\u01b0\u1eddng",
                -9.396211912912877
            ],
            [
                "\u2581Y\u00eau",
                -9.396625621062274
            ],
            [
                "\u2581Ma",
                -9.399144017178163
            ],
            [
                "\u2581Thay",
                -9.399446355408156
            ],
            [
                "\u2581t\u1ec7",
                -9.400972016016528
            ],
            [
                "\u2581Nh\u1eadn",
                -9.404759678294326
            ],
            [
                "\u2581ngang",
                -9.407750346100812
            ],
            [
                "\u2581Th\u01b0\u1ee3ng",
                -9.409237159743832
            ],
            [
                "\u2581Chia",
                -9.41097568812241
            ],
            [
                "\u2581M\u00ecnh",
                -9.412324905541428
            ],
            [
                "\u2581rau",
                -9.412841348973028
            ],
            [
                "\u2581kh\u00f3c",
                -9.413859686864395
            ],
            [
                "\u2581t\u1eaft",
                -9.416230093449279
            ],
            [
                "\u2581H\u00f4m",
                -9.417067374658004
            ],
            [
                "\u2581\u0111o",
                -9.41868351884215
            ],
            [
                "\u2581ph\u00f3",
                -9.41869006959185
            ],
            [
                "\u2581C\u1ea3nh",
                -9.419230019778634
            ],
            [
                "\u00e1c",
                -9.419598377857476
            ],
            [
                "\u2581s\u00e0n",
                -9.42123324847045
            ],
            [
                "\u2581tr\u1ea7m",
                -9.421803359102372
            ],
            [
                "\u2581game",
                -9.422438477088944
            ],
            [
                "\u2581iPhone",
                -9.422605117941885
            ],
            [
                "\u2581sau,",
                -9.424518995933402
            ],
            [
                "\u2581C\u1ee6A",
                -9.425217172837554
            ],
            [
                "\u2581N\u01b0\u1edbc",
                -9.425328639173802
            ],
            [
                "\u2581m\u1ebd",
                -9.426162580585311
            ],
            [
                "\u2581Th\u1eadt",
                -9.42691823060823
            ],
            [
                "\u2581H\u01a1n",
                -9.427854842194037
            ],
            [
                "C",
                -9.427987198111097
            ],
            [
                "\u2581C\u00f9ng",
                -9.428837961094548
            ],
            [
                "\u2581t\u1ee7",
                -9.429076405554683
            ],
            [
                "\u2581h\u1ed9p",
                -9.430559547722986
            ],
            [
                "\u2581s\u00e1nh",
                -9.433364767499896
            ],
            [
                "\u2581M\u1ee5c",
                -9.433984994870288
            ],
            [
                "\u2581th\u1edd",
                -9.434321148843708
            ],
            [
                "\u2581Ho\u1ea1t",
                -9.434610511269213
            ],
            [
                "\u2581\u0110i\u1ec3m",
                -9.434846513139167
            ],
            [
                "1",
                -9.435972637366218
            ],
            [
                "\u2581c\u1ea9n",
                -9.436126419577604
            ],
            [
                "\u2581khuy\u00ean",
                -9.436133346737652
            ],
            [
                "\u2581Y\u00ean",
                -9.437202815924996
            ],
            [
                "\u2581Ti\u1ebfp",
                -9.43830870896132
            ],
            [
                "\u2581l\u00ed",
                -9.438324098871307
            ],
            [
                "\u2581kh\u00fac",
                -9.439602591967118
            ],
            [
                "\u2581vua",
                -9.440939539134135
            ],
            [
                "\u2581l\u1ee5c",
                -9.442027403816127
            ],
            [
                "\u2581h\u00e0ng.",
                -9.444000626983847
            ],
            [
                "\u2581lo\u00e0i",
                -9.444820399162477
            ],
            [
                "\u2581Chuy\u00ean",
                -9.445133527883005
            ],
            [
                "\u2581\u0111i\u1ec3n",
                -9.44637147013086
            ],
            [
                "\u2581nh\u00e0ng",
                -9.44689166547877
            ],
            [
                "\u2581ch\u1eebng",
                -9.447526219979029
            ],
            [
                "\u2581USD",
                -9.447668782039212
            ],
            [
                "\u2581c\u1eb7p",
                -9.45017171047331
            ],
            [
                "\u2581Ti\u00ean",
                -9.45017798938096
            ],
            [
                "\u2581\u0110\u1eebng",
                -9.450412147569264
            ],
            [
                "\",",
                -9.450530977505935
            ],
            [
                "\u2581L",
                -9.450751623357588
            ],
            [
                "\u2581d\u00e0y",
                -9.452119724962312
            ],
            [
                "\u2581online",
                -9.452256218638064
            ],
            [
                "\u2581\u0110\u00e3",
                -9.452349210877376
            ],
            [
                "\u2581nh\u00e2n,",
                -9.453206669648186
            ],
            [
                "\u2581h\u00e8",
                -9.454363611197698
            ],
            [
                "\u258113",
                -9.455528219133207
            ],
            [
                "\u2581ngh\u00e8o",
                -9.455960077759578
            ],
            [
                "\u2581T\u1ef1",
                -9.456798588583398
            ],
            [
                "\u2581ta,",
                -9.457331307043969
            ],
            [
                "\u2581gi\u01b0\u1eddng",
                -9.457692497778451
            ],
            [
                "\u2581G",
                -9.45784683541334
            ],
            [
                "\u2581t\u1ea1p",
                -9.458154414794851
            ],
            [
                "\u2581tan",
                -9.458818842722744
            ],
            [
                "\u2581t\u1ec9",
                -9.459976671772623
            ],
            [
                "\u2581g\u00e0",
                -9.460837705542726
            ],
            [
                "\u2581K",
                -9.46270475397986
            ],
            [
                "\u2581tr\u01b0ng",
                -9.464043349032053
            ],
            [
                "\u2581n\u1ed5",
                -9.464837396390944
            ],
            [
                "\u2581C\u1ea3m",
                -9.467821670707181
            ],
            [
                "\u2581X\u00e3",
                -9.469239813330848
            ],
            [
                "\u2581L\u1ea1c",
                -9.46937929706711
            ],
            [
                "\u2581Facebook",
                -9.469577905733267
            ],
            [
                "\u2581Quy\u1ebft",
                -9.47074613428131
            ],
            [
                "\u2581\u1ee7ng",
                -9.472444047111818
            ],
            [
                "\u2581l\u00ean.",
                -9.47326580257517
            ],
            [
                "\u2581tr\u1eef",
                -9.474262170988512
            ],
            [
                "\u2581n\u1ee5",
                -9.474994899468184
            ],
            [
                "\u258114",
                -9.475446545747774
            ],
            [
                "\u2581\u0111u\u1ed5i",
                -9.47614586632246
            ],
            [
                "N",
                -9.477645596986923
            ],
            [
                "\u2581cao.",
                -9.478320351795881
            ],
            [
                "\u2581b\u1ea1i",
                -9.47869240384313
            ],
            [
                "\u2581TP.HCM",
                -9.47889543913965
            ],
            [
                "\u2581n\u00eau",
                -9.47978700392402
            ],
            [
                "\u2581Th\u01b0\u1eddng",
                -9.479811169104307
            ],
            [
                "\u2581tr\u00e0o",
                -9.480194358868115
            ],
            [
                "\u2581tho\u00e1ng",
                -9.480202452869433
            ],
            [
                "\u2581l\u1ed7",
                -9.481428623098765
            ],
            [
                "\u2581m\u1ed9",
                -9.481762023780457
            ],
            [
                "\u2581Ngay",
                -9.482169823391423
            ],
            [
                "\u2581gi\u1edbi.",
                -9.482203832821693
            ],
            [
                "\u2581b\u00e3i",
                -9.48229667669757
            ],
            [
                "\u2581th\u1ef1",
                -9.482534010228065
            ],
            [
                "\u2581Th\u1ec3",
                -9.483398640722616
            ],
            [
                "\u2581\u2022",
                -9.48377311578892
            ],
            [
                "\u2581email",
                -9.483866810618565
            ],
            [
                "!\u201d",
                -9.485279614376564
            ],
            [
                "\u2581tr\u01b0\u01a1ng",
                -9.485988820095407
            ],
            [
                "\u2581d\u1ee9t",
                -9.486487370342035
            ],
            [
                "\u2581thi\u1ec3u",
                -9.486511754532525
            ],
            [
                "\u2581tha",
                -9.48703522978985
            ],
            [
                "\u2581th\u1eb1ng",
                -9.487047242804396
            ],
            [
                "\u258150",
                -9.487243947934958
            ],
            [
                "\u2581tr\u1ee5",
                -9.488930535173237
            ],
            [
                "\u2581d\u01b0\u1eddng",
                -9.490088460869124
            ],
            [
                "\u2581x\u1ee9",
                -9.490482539463816
            ],
            [
                "\u2581v\u01b0\u1eddn",
                -9.491450516660528
            ],
            [
                "\u2581t\u00e0n",
                -9.491608374999227
            ],
            [
                "\u2581b\u0103ng",
                -9.49324871164809
            ],
            [
                "\u2581v\u1ebd",
                -9.493477280206442
            ],
            [
                "\u2581d\u01b0",
                -9.49384702738792
            ],
            [
                "\u2581ng\u1ea1c",
                -9.494339777760992
            ],
            [
                "\u2581T\u1ebft",
                -9.494540183936035
            ],
            [
                "\u2581G\u1eedi",
                -9.498067250478014
            ],
            [
                "\u2581Nh\u00ecn",
                -9.49814144246309
            ],
            [
                "\u2581ki\u00ean",
                -9.498726040685789
            ],
            [
                "2",
                -9.499171430100928
            ],
            [
                "\u2581Th\u1ee7y",
                -9.500267145472918
            ],
            [
                "\u2581TIN",
                -9.501022859650895
            ],
            [
                "\u2581quang",
                -9.5020374077855
            ],
            [
                "\u2581huynh",
                -9.50234203976241
            ],
            [
                "\u2581Hi\u1ec7p",
                -9.502885997794031
            ],
            [
                "\u2581Bi\u00ean",
                -9.502911602942017
            ],
            [
                "\u2581T\u00ednh",
                -9.503611564621721
            ],
            [
                "\u2581\u0111\u00e1o",
                -9.5040541887
            ],
            [
                "\u2581ph\u00fa",
                -9.506082552762702
            ],
            [
                "A",
                -9.506516123008241
            ],
            [
                "\u2581Thi",
                -9.509206732895144
            ],
            [
                "\u2581h\u00e0m",
                -9.509562285210237
            ],
            [
                "\u2581thang",
                -9.512090885425586
            ],
            [
                "\u2581nh\u1eafn",
                -9.512665508909894
            ],
            [
                "\u2581x\u01b0a",
                -9.512878601626054
            ],
            [
                "\u2581l\u00e2m",
                -9.5165741869858
            ],
            [
                "\u2581Duy",
                -9.516586914058024
            ],
            [
                "\u258125",
                -9.51753706041623
            ],
            [
                "\u2581ph\u1eabu",
                -9.518502928348319
            ],
            [
                "\u2581ch\u1ea5m",
                -9.518507412194012
            ],
            [
                "\u2581nh\u00e9!",
                -9.519415473658288
            ],
            [
                "\u2581tr\u00e0",
                -9.519422882878686
            ],
            [
                "\u2581N\u1eef",
                -9.521860071960752
            ],
            [
                "\u2581g\u1eadt",
                -9.524790546649223
            ],
            [
                "\u2581h\u00f3a,",
                -9.525007343363125
            ],
            [
                "\u2581thi\u1ec7t",
                -9.5250471848302
            ],
            [
                "\u2581ph\u1ee9c",
                -9.52669398052329
            ],
            [
                "\u2581b\u1ed1i",
                -9.52732130344494
            ],
            [
                "\u2581b\u1ed9,",
                -9.528062304248259
            ],
            [
                "\u2581di\u1ec7t",
                -9.528251762026592
            ],
            [
                "\u2581x\u00e2m",
                -9.529065753383996
            ],
            [
                "\u2581Cung",
                -9.52926010998106
            ],
            [
                "\u2581Website",
                -9.52939084180441
            ],
            [
                "\u2581can",
                -9.530090810660324
            ],
            [
                "\u2581gi\u00e2y",
                -9.530318279570448
            ],
            [
                "\u2581\u1ed1ng",
                -9.531570401777248
            ],
            [
                "\u2581\u0110\u00e1nh",
                -9.532814358852873
            ],
            [
                "\u2581Mai",
                -9.534547868945419
            ],
            [
                "\u2581Phi",
                -9.53473924446277
            ],
            [
                "\u2581k\u1ecbch",
                -9.534817415788995
            ],
            [
                "\u2581vang",
                -9.535671530627607
            ],
            [
                "\u2581g\u00ec.",
                -9.537947863312262
            ],
            [
                "\u2581H\u00e0nh",
                -9.538001864678968
            ],
            [
                "\u2581L\u1ec5",
                -9.538204151253598
            ],
            [
                "?\"",
                -9.539043120624012
            ],
            [
                "\u2581tri",
                -9.540356412300378
            ],
            [
                "\u2581m\u00e3n",
                -9.540949009538897
            ],
            [
                "\u2581tu\u1ed5i,",
                -9.542148356640158
            ],
            [
                "\u2581h\u1ee9ng",
                -9.543113431913234
            ],
            [
                "\u2581H\u1ee3p",
                -9.543373080035588
            ],
            [
                "\u2581Ki\u1ec3m",
                -9.543604642367836
            ],
            [
                "I",
                -9.543862541296033
            ],
            [
                "\u2581s\u01a1n",
                -9.545307117939867
            ],
            [
                "\u2581b\u1ed9t",
                -9.549597498400711
            ],
            [
                "\u2581tr\u1ecdn",
                -9.551234032553577
            ],
            [
                "\u2581Ph\u1ea3i",
                -9.552014078785543
            ],
            [
                "\u2581h\u1eb9n",
                -9.552091872017504
            ],
            [
                "\u2581M\u00e3",
                -9.552921048522872
            ],
            [
                "\u2581Th\u1ed1ng",
                -9.553723260351742
            ],
            [
                "\u2581c\u00e0i",
                -9.55905072882967
            ],
            [
                "\u2581hu\u1ed1ng",
                -9.56129842602823
            ],
            [
                "\u2581Vi",
                -9.561858148739262
            ],
            [
                "\u2581t\u1ef1a",
                -9.56306301574664
            ],
            [
                "\u2581Tham",
                -9.563206526698915
            ],
            [
                "\u2581nh\u1ea3y",
                -9.5634085454902
            ],
            [
                "\u2581H\u01b0\u01a1ng",
                -9.563839908656968
            ],
            [
                "\u2581n\u0103m,",
                -9.56480154139095
            ],
            [
                "\u2581ta.",
                -9.565082575784096
            ],
            [
                "\u258140",
                -9.56590287017288
            ],
            [
                "\u1ee9c",
                -9.566476933214748
            ],
            [
                "\u2581Sao",
                -9.567618983307206
            ],
            [
                "\u2581g\u1ecdn",
                -9.568014069176506
            ],
            [
                "\u2581ng\u00e3",
                -9.568182985381956
            ],
            [
                "\u2581b\u1edd",
                -9.568595096445053
            ],
            [
                "\u2581To\u00e0n",
                -9.569286935590071
            ],
            [
                "\u2581Chi\u1ebfn",
                -9.569623548081736
            ],
            [
                "\u2581\u0110\u1ecbnh",
                -9.57088658361167
            ],
            [
                "\u2581nhu\u1eadn",
                -9.571152731977367
            ],
            [
                "\u2581\u0110\u1ea5t",
                -9.572290510522073
            ],
            [
                "\u2581tr\u1ea5n",
                -9.572436400894802
            ],
            [
                "\u2581gi\u1ea5c",
                -9.573053499010452
            ],
            [
                "\u2581ng\u1ecdt",
                -9.573103424544644
            ],
            [
                "\u2581ho\u1ea3ng",
                -9.573810795486915
            ],
            [
                "\u2581100%",
                -9.575077964749903
            ],
            [
                "(",
                -9.576408259052979
            ],
            [
                "\u2581V\u1ecb",
                -9.579164621301459
            ],
            [
                "\u2581lan",
                -9.58041403290089
            ],
            [
                "\u2581\u0111\u1ea5y,",
                -9.5826397698095
            ],
            [
                "\u2581k\u00edn",
                -9.583025799254067
            ],
            [
                "\u2581t\u00f9",
                -9.585117702035838
            ],
            [
                "\u2581\u0110\u1ea1o",
                -9.585682289582174
            ],
            [
                "b",
                -9.586211826042344
            ],
            [
                "\u2581\u0111\u1ec9nh",
                -9.586354151041641
            ],
            [
                "\u2581tr\u01b0\u1edbc,",
                -9.586768042144595
            ],
            [
                "\u2581Ngo\u1ea1i",
                -9.587553989548102
            ],
            [
                "\u2581Google",
                -9.587817564143505
            ],
            [
                "h\u01b0",
                -9.588145107168714
            ],
            [
                "\u2581Ki\u1ebfn",
                -9.588845749199251
            ],
            [
                "\u2581tr\u00fa",
                -9.588877040894825
            ],
            [
                "\u2581d\u0129",
                -9.591257460049304
            ],
            [
                "_",
                -9.59126055049608
            ],
            [
                "\u2581ch\u1ee3",
                -9.592409986229105
            ],
            [
                "\u2581m\u1eaft,",
                -9.592547878749581
            ],
            [
                "\u2581H\u00f3a",
                -9.595398375356924
            ],
            [
                "\u2581n\u00e3o",
                -9.596306983664713
            ],
            [
                "\u2581h\u1ee7y",
                -9.599058852403484
            ],
            [
                "\u2581b\u1eafn",
                -9.600524065081604
            ],
            [
                "\u2581Ti\u1ec1n",
                -9.600702801721706
            ],
            [
                "\u2581gi\u00e0y",
                -9.601826407156357
            ],
            [
                "\u00e0",
                -9.601908521396966
            ],
            [
                "\u2581T\u0103ng",
                -9.60199542223901
            ],
            [
                "\u2581b\u00e9o",
                -9.603550579448925
            ],
            [
                "\u2581\u0110\u1ecdc",
                -9.603567689251182
            ],
            [
                "\u2581r\u00e3i",
                -9.604073648873623
            ],
            [
                "\u2581th\u1eafc",
                -9.604861719053979
            ],
            [
                "\u2581Ti\u1ebfn",
                -9.604988112895942
            ],
            [
                "\u2581\u0110\u00e0i",
                -9.605511941867768
            ],
            [
                "\u2581th\u00f3i",
                -9.60554954297615
            ],
            [
                "\u2581L\u1eddi",
                -9.60919802158233
            ],
            [
                "\u2581Tr\u01b0\u1edfng",
                -9.609547833215306
            ],
            [
                "\u2581\u25ba",
                -9.610425364293555
            ],
            [
                "\u2581L\u01b0\u01a1ng",
                -9.610763346707836
            ],
            [
                "\u2581h\u00e0ng,",
                -9.610871102756144
            ],
            [
                "\u2581t\u1ed1n",
                -9.61244538995194
            ],
            [
                "\u2581\u0110i",
                -9.614057424947507
            ],
            [
                "\u2581tr\u01b0\u1eddng.",
                -9.614560081916938
            ],
            [
                "\u2581th\u1ea7m",
                -9.614951373032596
            ],
            [
                "\u2581v\u01b0\u01a1ng",
                -9.615464926709189
            ],
            [
                "\u2581hi\u1ec7p",
                -9.617025471440986
            ],
            [
                "\u2581\u0111\u1ed9ng.",
                -9.61702706093878
            ],
            [
                "\u2581ph\u01b0\u1eddng",
                -9.617141479253672
            ],
            [
                "\u2581Nh\u1eadp",
                -9.617239639953809
            ],
            [
                "\u2581C\u1ed1",
                -9.6186363181407
            ],
            [
                "\u2581v\u00ed",
                -9.61877768953413
            ],
            [
                "\u2581\u1ea5y,",
                -9.618998953755797
            ],
            [
                "\u2581\u00e9p",
                -9.620029243630528
            ],
            [
                "\u2581Ch\u1ea5t",
                -9.62136146943083
            ],
            [
                "\u2581Kh\u00e1nh",
                -9.623108291385073
            ],
            [
                "\u2581t\u1ee5",
                -9.623766927413765
            ],
            [
                "\u2581L\u1ee5c",
                -9.625911369167358
            ],
            [
                "\u2581l\u1edbn.",
                -9.626059004982565
            ],
            [
                "\u2581N\u1ed9i.",
                -9.626818084055746
            ],
            [
                "\u25812015",
                -9.62784467876953
            ],
            [
                "\u2581ti\u1ec1m",
                -9.629766325211568
            ],
            [
                "\u2581Devil",
                -9.630374131347132
            ],
            [
                "\u258117",
                -9.633093488487596
            ],
            [
                "\u2581l\u00e3i",
                -9.633321112044452
            ],
            [
                "\u2581d\u1ee5ng.",
                -9.633898943340325
            ],
            [
                "\u2581kem",
                -9.634202558609914
            ],
            [
                "\u2581ch\u1ee5c",
                -9.63680429145586
            ],
            [
                "\u2581c\u01b0\u01a1ng",
                -9.636825831730278
            ],
            [
                "\u2581khung",
                -9.636905908957417
            ],
            [
                "\u2581Tr\u1ecdng",
                -9.636990079446662
            ],
            [
                "\u2581S\u1ee9c",
                -9.6371810275704
            ],
            [
                "\u2581nhi",
                -9.63735548495475
            ],
            [
                "\u2581l\u1eafc",
                -9.638210792437327
            ],
            [
                "\u2581v\u1eb7t",
                -9.638604488846266
            ],
            [
                "\u2581Ph\u00fac",
                -9.639123303911253
            ],
            [
                "\u2581d\u1ea1",
                -9.63933415010201
            ],
            [
                "\u2581Th\u1ea7y",
                -9.639378699744967
            ],
            [
                "\u2581t\u00e2n",
                -9.640015664346503
            ],
            [
                "\u2581tr\u1ea7n",
                -9.641053485450506
            ],
            [
                "\u2581h\u1ed9i,",
                -9.64543364873924
            ],
            [
                "\u2581M\u00e0",
                -9.647246804315985
            ],
            [
                "\u2581m\u1ef1c",
                -9.64736540825758
            ],
            [
                "\u2581kho",
                -9.647784152285148
            ],
            [
                "\u2581l\u00e3ng",
                -9.649855653727949
            ],
            [
                "\u2581s\u1eaft",
                -9.649899604218394
            ],
            [
                "\u2581t\u00e1n",
                -9.650042155313292
            ],
            [
                "\u2581\u0111\u1ecbch",
                -9.650852610947078
            ],
            [
                "\u2581chu",
                -9.651765469555516
            ],
            [
                "\u2581Ph\u00e2n",
                -9.653414704832564
            ],
            [
                "\u2581x",
                -9.656259694972391
            ],
            [
                "\u2581H\u1eccC",
                -9.65650761222809
            ],
            [
                "G",
                -9.656579725459705
            ],
            [
                "\u2581h\u1eafn,",
                -9.657000892944371
            ],
            [
                "\u2581gi\u1ecfi",
                -9.658090514660426
            ],
            [
                "\u2581C\u1eadu",
                -9.658898966908271
            ],
            [
                "\u2581V\u00e0o",
                -9.659916697624054
            ],
            [
                "\u2581\u0111\u1ecbnh,",
                -9.660033685035625
            ],
            [
                "\u258101",
                -9.660364484432312
            ],
            [
                "\u2581nh\u1ecf,",
                -9.660507723421608
            ],
            [
                "\u2581h\u1ecd.",
                -9.66079989763477
            ],
            [
                "\u2581\u0111ua",
                -9.661803681406846
            ],
            [
                "\u2581ch\u1ea1m",
                -9.662012264589059
            ],
            [
                "\u258124",
                -9.662898317842169
            ],
            [
                "\u2581\u0111\u1ea5y.",
                -9.663804250452309
            ],
            [
                "\u2581gi\u1eadt",
                -9.664043293465284
            ],
            [
                "\u2581V\u0129nh",
                -9.664339545808982
            ],
            [
                "\u2581\u1ea4n",
                -9.66443720052703
            ],
            [
                "\u2581Cha",
                -9.665066297912325
            ],
            [
                "\u2581Ch\u1ee9ng",
                -9.665166342582282
            ],
            [
                "\u2581th\u01b0\u1eddng,",
                -9.666695816249987
            ],
            [
                "\u2581HCM",
                -9.667874536201474
            ],
            [
                "\u2581\u0111\u1eadu",
                -9.668325202198016
            ],
            [
                "3",
                -9.668733986308906
            ],
            [
                "\u258121",
                -9.669301305767188
            ],
            [
                "\u2581h\u00f4",
                -9.670028326649703
            ],
            [
                "\u2581gi\u00e0nh",
                -9.670171930800635
            ],
            [
                "\u2581nh\u00e3n",
                -9.67122584556686
            ],
            [
                "\u2581ch\u1ee9c,",
                -9.671650313381933
            ],
            [
                "\u2581B\u1ea3ng",
                -9.67170050540571
            ],
            [
                "\u2581C\u1ea3",
                -9.671875841457933
            ],
            [
                "\u2581nghi\u1ec7p.",
                -9.673112965298913
            ],
            [
                "\u2581m\u01b0\u01a1i",
                -9.673437275581485
            ],
            [
                "\u2581m\u1eafn",
                -9.673843384272738
            ],
            [
                "\u2581Chung",
                -9.673846585707064
            ],
            [
                "\u2581H\u01b0ng",
                -9.674073038217324
            ],
            [
                "\u2581th\u00f4i,",
                -9.67471440135546
            ],
            [
                "\u2581Huy",
                -9.67516989353198
            ],
            [
                "\u2581T\u00e1c",
                -9.676519585900866
            ],
            [
                "\u2581t\u1ed1t.",
                -9.678626820255399
            ],
            [
                "\u2581s\u00fang",
                -9.679908034400977
            ],
            [
                "\u2581ph\u00e1n",
                -9.68161487669714
            ],
            [
                "\u2581vong",
                -9.681615535490419
            ],
            [
                "\u2581th\u1ea3m",
                -9.683669479360947
            ],
            [
                "\u2581b\u1ec1",
                -9.683756252282066
            ],
            [
                "\u2581h\u00f9ng",
                -9.683978162572405
            ],
            [
                "\u2581Top",
                -9.684125766033013
            ],
            [
                "?\u201d",
                -9.684185870721766
            ],
            [
                "\u2581m\u1edbi,",
                -9.686412892749079
            ],
            [
                "\u2581vi\u00ean,",
                -9.687123639395931
            ],
            [
                "\u2581\u0110\u1ed9ng",
                -9.688559824401352
            ],
            [
                "\u00e2n",
                -9.690136996377902
            ],
            [
                "\u2581tung",
                -9.69120683390554
            ],
            [
                "\u2581b\u1ed7ng",
                -9.694269342079085
            ],
            [
                "\u2581ng\u00e0y,",
                -9.696452820080234
            ],
            [
                "\u2581h\u1ed1i",
                -9.697895540958857
            ],
            [
                "\u2581C\u00c1C",
                -9.698089306702668
            ],
            [
                "\u2581P",
                -9.698682106212836
            ],
            [
                "\u2581Ch\u00fac",
                -9.699060908920053
            ],
            [
                "v",
                -9.699802943922183
            ],
            [
                "\u2581Trump",
                -9.700468161000618
            ],
            [
                "\u2581la",
                -9.701437441867817
            ],
            [
                "\u2581phi\u1ec1n",
                -9.701697822157065
            ],
            [
                "\u2581Vui",
                -9.702330818021128
            ],
            [
                "\u2581ch\u00f3",
                -9.70446883398684
            ],
            [
                "\u2581Tr\u00ecnh",
                -9.705017894215079
            ],
            [
                "\u2581S\u00e1ng",
                -9.705360262536027
            ],
            [
                "\u2581Ho\u00e0n",
                -9.705745857596842
            ],
            [
                "\u2581ph\u00f2ng,",
                -9.71203174698619
            ],
            [
                "\u2581kh\u00edch",
                -9.713002878784359
            ],
            [
                "\u2581VN",
                -9.713412581528102
            ],
            [
                "\u2581n\u1edf",
                -9.713486998859679
            ],
            [
                "\u2581C\u1ee5c",
                -9.713680761683149
            ],
            [
                "\u2581c\u1ea5m",
                -9.714355936638613
            ],
            [
                "\u2581L\u1eadp",
                -9.714705060232209
            ],
            [
                "\u2581\u0111\u1eadp",
                -9.714807476864127
            ],
            [
                "\u2581s\u1ed1t",
                -9.7152409918775
            ],
            [
                "B\u00e2y",
                -9.715809891766687
            ],
            [
                "\u2581tr\u01b0\u1eddng,",
                -9.716757197322396
            ],
            [
                "\u2581V\u1ea5n",
                -9.717787259935514
            ],
            [
                "\u2581Tu\u1ea5n",
                -9.719105640762074
            ],
            [
                "\u2581n\u1ed7",
                -9.720663278924473
            ],
            [
                "\u2581\u0111\u1eafc",
                -9.720926854237378
            ],
            [
                "\u2581ng\u00e0y.",
                -9.721701658361974
            ],
            [
                "\u2581qu\u00e1i",
                -9.722586656873892
            ],
            [
                "\u2581Th\u1ea3o",
                -9.725880921841295
            ],
            [
                "\u2581nh\u01b0\u1ee3ng",
                -9.72761615163348
            ],
            [
                "\u2581b\u00f2",
                -9.727896928760433
            ],
            [
                "\u2581m\u1ee1",
                -9.72895585155078
            ],
            [
                "\u2581th\u1ea3",
                -9.729334733269521
            ],
            [
                "\u2581n\u00f3.",
                -9.729714906516657
            ],
            [
                "\u2581tr\u1ecdng,",
                -9.72996209289725
            ],
            [
                "\u25811,",
                -9.729964810255625
            ],
            [
                "\u2581video",
                -9.729991329719198
            ],
            [
                "\u2581v\u1ea1n",
                -9.73051933338428
            ],
            [
                "\u2581Nghi\u00ean",
                -9.730527404047468
            ],
            [
                "\u2581\u0111\u1ed5i,",
                -9.730694537864697
            ],
            [
                "\u2581X",
                -9.730864670436702
            ],
            [
                "\u2581th\u1ea7u",
                -9.732205815323349
            ],
            [
                "\u2581VI\u1ec6T",
                -9.73412766255029
            ],
            [
                "\u2581\u0110a",
                -9.734672964228505
            ],
            [
                "4",
                -9.736033638902562
            ],
            [
                "\u2581B\u1eb1ng",
                -9.73611725738628
            ],
            [
                "\u2581hoang",
                -9.736938845027222
            ],
            [
                "\u2581bang",
                -9.737144179958722
            ],
            [
[...]
