{
  "version": "1.0",
  "truncation": null,
  "padding": null,
  "added_tokens": [
    {
      "id": 0,
      "content": "[UNK]",
      "single_word": false,
      "lstrip": false,
      "rstrip": false,
      "normalized": false,
      "special": true
    },
    {
      "id": 1,
      "content": "[CLS]",
      "single_word": false,
      "lstrip": false,
      "rstrip": false,
      "normalized": false,
      "special": true
    },
    {
      "id": 2,
      "content": "[SEP]",
      "single_word": false,
      "lstrip": false,
      "rstrip": false,
      "normalized": false,
      "special": true
    },
    {
      "id": 3,
      "content": "[PAD]",
      "single_word": false,
      "lstrip": false,
      "rstrip": false,
      "normalized": false,
      "special": true
    },
    {
      "id": 4,
      "content": "[MASK]",
      "single_word": false,
      "lstrip": false,
      "rstrip": false,
      "normalized": false,
      "special": true
    }
  ],
  "normalizer": {
    "type": "Sequence",
    "normalizers": [
      {
        "type": "Nmt"
      },
      {
        "type": "NFKC"
      },
      {
        "type": "Replace",
        "pattern": {
          "Regex": " {2,}"
        },
        "content": " "
      }
    ]
  },
  "pre_tokenizer": {
    "type": "Metaspace",
    "replacement": "▁",
    "prepend_scheme": "always",
    "split": true
  },
  "post_processor": null,
  "decoder": {
    "type": "Metaspace",
    "replacement": "▁",
    "prepend_scheme": "always",
    "split": true
  },
  "model": {
    "type": "Unigram",
    "unk_id": null,
    "vocab": [
      [
        "[UNK]",
        0.0
      ],
      [
        "[CLS]",
        0.0
      ],
      [
        "[SEP]",
        0.0
      ],
      [
        "[PAD]",
        0.0
      ],
      [
        "[MASK]",
        0.0
      ],
      [
        "▁",
        -3.162987062547483
      ],
      [
        ",",
        -3.5543673103936744
      ],
      [
        "的",
        -3.6811120223515346
      ],
      [
        "。",
        -3.8894933926669193
      ],
      [
        "、",
        -4.619368902458904
      ],
      [
        "和",
        -4.980172540639359
      ],
      [
        "在",
        -5.00646058863601
      ],
      [
        "是",
        -5.470561920902348
      ],
      [
        "了",
        -5.640731522243236
      ],
      [
        "“",
        -5.840073018425175
      ],
      [
        "”",
        -5.8488813457420274
      ],
      [
        "有",
        -5.9920485697178965
      ],
      [
        "对",
        -6.049042309420102
      ],
      [
        "我",
        -6.055754877493534
      ],
      [
        "中",
        -6.169541421918234
      ],
      [
        "与",
        -6.188488710209592
      ],
      [
        ":",
        -6.230780309013127
      ],
      [
        "不",
        -6.233294404400615
      ],
      [
        "上",
        -6.273656226008804
      ],
      [
        "他",
        -6.279296781747409
      ],
      [
        "为",
        -6.306151161072357
      ],
      [
        "人",
        -6.340719229867995
      ],
      [
        "你",
        -6.346230112501603
      ],
      [
        "(",
        -6.358229724338491
      ],
      [
        "也",
        -6.375610554050533
      ],
      [
        "到",
        -6.3915028644740275
      ],
      [
        "就",
        -6.409029219177569
      ],
      [
        "一个",
        -6.43003235978168
      ],
      [
        "大",
        -6.45121398271452
      ],
      [
        ")",
        -6.459088043747963
      ],
      [
        "来",
        -6.489781989478552
      ],
      [
        "等",
        -6.519658167860701
      ],
      [
        "都",
        -6.525439006593702
      ],
      [
        ";",
        -6.534455682605205
      ],
      [
        "将",
        -6.548687457373884
      ],
      [
        "地",
        -6.551278012927282
      ],
      [
        "要",
        -6.55526249051323
      ],
      [
        "一",
        -6.611575285263613
      ],
      [
        "从",
        -6.613003082232456
      ],
      [
        "被",
        -6.636110008512194
      ],
      [
        "!",
        -6.656235386905286
      ],
      [
        "。”",
        -6.663955911227378
      ],
      [
        "我们",
        -6.697820671741036
      ],
      [
        "?",
        -6.702209746129541
      ],
      [
        "会",
        -6.7024548630736875
      ],
      [
        "去",
        -6.738806310022895
      ],
      [
        "自己",
        -6.809038884407939
      ],
      [
        "她",
        -6.812084332076715
      ],
      [
        "中国",
        -6.816805932409936
      ],
      [
        "▁“",
        -6.844015867874457
      ],
      [
        ",但",
        -6.868418378501682
      ],
      [
        "以",
        -6.903500570951401
      ],
      [
        "着",
        -6.915665683486075
      ],
      [
        "进行",
        -6.920110633316213
      ],
      [
        "公司",
        -6.923293396281188
      ],
      [
        ",我",
        -6.977749739382026
      ],
      [
        "没有",
        -6.985861204356917
      ],
      [
        "或",
        -6.995266102261548
      ],
      [
        "好",
        -6.995789038080638
      ],
      [
        "这",
        -6.999122128565959
      ],
      [
        "可以",
        -7.000050996647811
      ],
      [
        "企业",
        -7.011847144439817
      ],
      [
        "这个",
        -7.01400532914407
      ],
      [
        "小",
        -7.028147011790294
      ],
      [
        "他们",
        -7.061348158360343
      ],
      [
        "工作",
        -7.068748194568301
      ],
      [
        "时",
        -7.0727301108586556
      ],
      [
        "而",
        -7.09513016509981
      ],
      [
        "后",
        -7.0955537695646065
      ],
      [
        "已经",
        -7.132473363797491
      ],
      [
        "多",
        -7.136322843106029
      ],
      [
        "用",
        -7.137863384391402
      ],
      [
        "就是",
        -7.150556530657184
      ],
      [
        "能",
        -7.151576703419027
      ],
      [
        "把",
        -7.161690602768513
      ],
      [
        "里",
        -7.161784682515668
      ],
      [
        "还",
        -7.170104965884211
      ],
      [
        "及",
        -7.186417187380116
      ],
      [
        ",在",
        -7.1876755799830425
      ],
      [
        "前",
        -7.2296484724120225
      ],
      [
        "说",
        -7.230017576169899
      ],
      [
        "出",
        -7.243447845046705
      ],
      [
        "做",
        -7.252542047817367
      ],
      [
        "向",
        -7.262367681456164
      ],
      [
        "新",
        -7.267837369498722
      ],
      [
        "了,",
        -7.2686729849283855
      ],
      [
        "过",
        -7.269120569375917
      ],
      [
        "了。",
        -7.283449713530874
      ],
      [
        "下",
        -7.288111887585436
      ],
      [
        "...",
        -7.2933228070509655
      ],
      [
        ",他",
        -7.294757447507519
      ],
      [
        "很",
        -7.301872264127225
      ],
      [
        "可",
        -7.304584491163208
      ],
      [
        "《",
        -7.312996222154649
      ],
      [
        "又",
        -7.327515555225127
      ],
      [
        "给",
        -7.360721417549979
      ],
      [
        "性",
        -7.363913257777111
      ],
      [
        "美国",
        -7.368843748173876
      ],
      [
        "于",
        -7.370052961703301
      ],
      [
        "一些",
        -7.373666922032734
      ],
      [
        "需要",
        -7.3902224487638755
      ],
      [
        "家",
        -7.3964387643702585
      ],
      [
        "这些",
        -7.404758885875166
      ],
      [
        "国家",
        -7.407548142901958
      ],
      [
        "所",
        -7.41079284546145
      ],
      [
        "最",
        -7.412108788506511
      ],
      [
        ",并",
        -7.413615659010835
      ],
      [
        "通过",
        -7.418872302427514
      ],
      [
        "想",
        -7.420339569375362
      ],
      [
        "发展",
        -7.428115164470221
      ],
      [
        "那",
        -7.442505378927276
      ],
      [
        "看",
        -7.45171085406192
      ],
      [
        "得",
        -7.4523840417403875
      ],
      [
        "并",
        -7.458008822777696
      ],
      [
        "使用",
        -7.468800334409544
      ],
      [
        "点",
        -7.470540644614746
      ],
      [
        "市场",
        -7.471635295917185
      ],
      [
        ",而",
        -7.477036396432339
      ],
      [
        "其",
        -7.4781972838949935
      ],
      [
        "还是",
        -7.499329676275525
      ],
      [
        "......",
        -7.506006014992032
      ],
      [
        "都是",
        -7.512101174618442
      ],
      [
        "时间",
        -7.516805615935742
      ],
      [
        "-",
        -7.518410508646509
      ],
      [
        ",你",
        -7.525224330696538
      ],
      [
        "问题",
        -7.527545942940234
      ],
      [
        "提供",
        -7.530480040189091
      ],
      [
        "1",
        -7.531731821004548
      ],
      [
        "产品",
        -7.544877117724049
      ],
      [
        ",我们",
        -7.556686048575167
      ],
      [
        "更",
        -7.55901045533847
      ],
      [
        "后,",
        -7.559341076620748
      ],
      [
        "之",
        -7.567583609297943
      ],
      [
        "内",
        -7.591698864997728
      ],
      [
        "开始",
        -7.595641918289266
      ],
      [
        "高",
        -7.596359287905823
      ],
      [
        "以及",
        -7.599395105212769
      ],
      [
        "时,",
        -7.6108853976863085
      ],
      [
        "什么",
        -7.6111257067403795
      ],
      [
        "技术",
        -7.628786972494967
      ],
      [
        "的人",
        -7.634593681879188
      ],
      [
        "子",
        -7.636002628788237
      ],
      [
        "非常",
        -7.636229909046783
      ],
      [
        "这种",
        -7.645477165673331
      ],
      [
        "2",
        -7.646212450965423
      ],
      [
        "长",
        -7.649413005704013
      ],
      [
        "自己的",
        -7.659791745429762
      ],
      [
        "打",
        -7.660161386918969
      ],
      [
        "个",
        -7.6644273016785585
      ],
      [
        "已",
        -7.664927917638077
      ],
      [
        ",但是",
        -7.668927798836894
      ],
      [
        "天",
        -7.674683323067088
      ],
      [
        "该",
        -7.676592782180485
      ],
      [
        "再",
        -7.683448222328045
      ],
      [
        "比",
        -7.683843809115415
      ],
      [
        "让",
        -7.683949640701732
      ],
      [
        "服务",
        -7.684189309975654
      ],
      [
        "者",
        -7.685300877805123
      ],
      [
        "分",
        -7.69521189014139
      ],
      [
        "教育",
        -7.696950198567372
      ],
      [
        "三",
        -7.6985493444767
      ],
      [
        "由",
        -7.70251793749531
      ],
      [
        "用户",
        -7.705141345647652
      ],
      [
        "它",
        -7.705446618799484
      ],
      [
        "作为",
        -7.710144295189605
      ],
      [
        "”。",
        -7.7136680748348025
      ],
      [
        "水",
        -7.725928080131798
      ],
      [
        ".",
        -7.728022433779038
      ],
      [
        "现在",
        -7.734210302370893
      ],
      [
        "能够",
        -7.746013461884658
      ],
      [
        "很多",
        -7.747606549889676
      ],
      [
        "名",
        -7.748695554135629
      ],
      [
        "3",
        -7.750483157648902
      ],
      [
        "管理",
        -7.755781159381954
      ],
      [
        "经济",
        -7.7558471402444065
      ],
      [
        "发",
        -7.763941592165255
      ],
      [
        "可能",
        -7.778892228424691
      ],
      [
        "要求",
        -7.7805956867937605
      ],
      [
        "起",
        -7.783481931384359
      ],
      [
        "不是",
        -7.78834648614639
      ],
      [
        "》",
        -7.794029845032779
      ],
      [
        "本",
        -7.795336128050309
      ],
      [
        "无",
        -7.798506590615281
      ],
      [
        "心",
        -7.8003210190430945
      ],
      [
        "社会",
        -7.804258240749487
      ],
      [
        "生活",
        -7.809278682581002
      ],
      [
        "开",
        -7.810921736939025
      ],
      [
        "系统",
        -7.8115694433960305
      ],
      [
        "组织",
        -7.815295992247836
      ],
      [
        ",所以",
        -7.822722743600762
      ],
      [
        "学习",
        -7.825834765000076
      ],
      [
        "成",
        -7.827156082503042
      ],
      [
        "看到",
        -7.827539098246794
      ],
      [
        "成为",
        -7.8319790856865765
      ],
      [
        "世界",
        -7.832277056932035
      ],
      [
        "年",
        -7.8331266465079175
      ],
      [
        "吗?",
        -7.843876158606406
      ],
      [
        ",这",
        -7.8456437532488685
      ],
      [
        "选择",
        -7.847327478327778
      ],
      [
        "项目",
        -7.849009405610378
      ],
      [
        "没",
        -7.855113730319178
      ],
      [
        "国际",
        -7.855496070034344
      ],
      [
        "也是",
        -7.856708320625158
      ],
      [
        "却",
        -7.86927133689782
      ],
      [
        "4",
        -7.872251173710027
      ],
      [
        "对于",
        -7.876695924516135
      ],
      [
        "研究",
        -7.888416334580089
      ],
      [
        "——",
        -7.8947565063003005
      ],
      [
        "您",
        -7.895805693222524
      ],
      [
        "说,",
        -7.897201382710526
      ],
      [
        "不能",
        -7.898203998141343
      ],
      [
        "活动",
        -7.899810037230126
      ],
      [
        "们",
        -7.900689907345308
      ],
      [
        "中,",
        -7.901684476586775
      ],
      [
        "!”",
        -7.903019006347589
      ],
      [
        "孩子",
        -7.905749750393431
      ],
      [
        ",是",
        -7.912323375620752
      ],
      [
        "才",
        -7.915502560476058
      ],
      [
        "政府",
        -7.917325228697439
      ],
      [
        "因为",
        -7.923836044444703
      ],
      [
        "当",
        -7.92963388956065
      ],
      [
        "老",
        -7.9296561135799
      ],
      [
        "5",
        -7.934774847101737
      ],
      [
        "·",
        -7.94086762400498
      ],
      [
        "信息",
        -7.9512076996537235
      ],
      [
        "至",
        -7.95341852782853
      ],
      [
        "这样",
        -7.954337792807793
      ],
      [
        "或者",
        -7.955720326546094
      ],
      [
        "自",
        -7.956514989554817
      ],
      [
        "只",
        -7.96276973376259
      ],
      [
        "建设",
        -7.9633945165555176
      ],
      [
        "跟",
        -7.9690751719565025
      ],
      [
        "车",
        -7.969905642287702
      ],
      [
        "国",
        -7.970414299868488
      ],
      [
        "生",
        -7.970672930965771
      ],
      [
        ",因为",
        -7.971286746855492
      ],
      [
        "头",
        -7.972622035224382
      ],
      [
        "市",
        -7.975465770647839
      ],
      [
        "的时候",
        -7.977806143346622
      ],
      [
        "的时候,",
        -7.978470643790841
      ],
      [
        "所有",
        -7.989054018009539
      ],
      [
        "投资",
        -7.991026871644988
      ],
      [
        "学生",
        -7.995061401317005
      ],
      [
        "设计",
        -7.996619384440703
      ],
      [
        "学校",
        -8.001021538626041
      ],
      [
        "正",
        -8.004334232528201
      ],
      [
        "城市",
        -8.004464870047581
      ],
      [
        "6",
        -8.00924400687785
      ],
      [
        ",她",
        -8.010195459143628
      ],
      [
        "”,",
        -8.010824510954592
      ],
      [
        "法",
        -8.011706815026828
      ],
      [
        "爱",
        -8.016663320019546
      ],
      [
        ",他们",
        -8.018385251454417
      ],
      [
        "像",
        -8.022620206240614
      ],
      [
        "日",
        -8.024900199550881
      ],
      [
        "他的",
        -8.026223116405934
      ],
      [
        "呢?",
        -8.027226566039264
      ],
      [
        "手",
        -8.045183309488985
      ],
      [
        "两",
        -8.04909634917805
      ],
      [
        "走",
        -8.049628621655774
      ],
      [
        "美",
        -8.050760916243018
      ],
      [
        "学",
        -8.055774490310554
      ],
      [
        "区",
        -8.057589302098872
      ],
      [
        "带",
        -8.058875751479967
      ],
      [
        "文化",
        -8.059801271451434
      ],
      [
        "希望",
        -8.061595591397234
      ],
      [
        "了解",
        -8.06581019206169
      ],
      [
        "应",
        -8.066217507736063
      ],
      [
        ",也",
        -8.066936611358146
      ],
      [
        ",“",
        -8.067943388748336
      ],
      [
        "死",
        -8.070654900394594
      ],
      [
        "其他",
        -8.075460935060423
      ],
      [
        "网站",
        -8.075559165684187
      ],
      [
        "德",
        -8.07816069619123
      ],
      [
        ",而且",
        -8.079095376189034
      ],
      [
        "拉",
        -8.081882937099682
      ],
      [
        ":“",
        -8.085311008275367
      ],
      [
        "还有",
        -8.086745578215186
      ],
      [
        "是一个",
        -8.086921406007898
      ],
      [
        "行业",
        -8.096915640741173
      ],
      [
        "实现",
        -8.097430263274422
      ],
      [
        "发现",
        -8.104822158262415
      ],
      [
        "8",
        -8.108204751016773
      ],
      [
        "张",
        -8.116808169736013
      ],
      [
        "花",
        -8.117496481661657
      ],
      [
        "你的",
        -8.117703062023956
      ],
      [
        "你们",
        -8.12014081273491
      ],
      [
        ",然后",
        -8.12086678349549
      ],
      [
        "斯",
        -8.123398040887476
      ],
      [
        "数据",
        -8.12853772555654
      ],
      [
        "大学",
        -8.130037647292815
      ],
      [
        "一种",
        -8.130472088079337
      ],
      [
        "正在",
        -8.13145880618812
      ],
      [
        "外",
        -8.142774292494625
      ],
      [
        "山",
        -8.147155870626806
      ],
      [
        "门",
        -8.148805049941185
      ],
      [
        "有些",
        -8.149954534807566
      ],
      [
        "网络",
        -8.15594015887763
      ],
      [
        "吃",
        -8.157559314622837
      ],
      [
        "合作",
        -8.158052559620245
      ],
      [
        "行",
        -8.158713706145756
      ],
      [
        "/",
        -8.164621630846263
      ],
      [
        "到了",
        -8.16693320481994
      ],
      [
        "重",
        -8.16792648616103
      ],
      [
        "主要",
        -8.173960143115512
      ],
      [
        "相关",
        -8.174621804175228
      ],
      [
        "必须",
        -8.17616894092648
      ],
      [
        "马",
        -8.178975464951002
      ],
      [
        "道",
        -8.180915724817854
      ],
      [
        "我的",
        -8.181015865604632
      ],
      [
        "化",
        -8.18265725208672
      ],
      [
        "因",
        -8.183602383546535
      ],
      [
        "文",
        -8.186674479828742
      ],
      [
        "9",
        -8.187465474951683
      ],
      [
        ",如果",
        -8.188166988879498
      ],
      [
        ",就",
        -8.188596642748308
      ],
      [
        "大家",
        -8.18975241024289
      ],
      [
        "如",
        -8.192929824976542
      ],
      [
        "获得",
        -8.193236534162185
      ],
      [
        "目前",
        -8.194869926194436
      ],
      [
        "出现",
        -8.195290508076267
      ],
      [
        "直接",
        -8.195404676489698
      ],
      [
        "总",
        -8.195911054704464
      ],
      [
        "金",
        -8.196894853519876
      ],
      [
        "关系",
        -8.203878818276753
      ],
      [
        "各",
        -8.207419676546303
      ],
      [
        "先",
        -8.207984073831545
      ],
      [
        "海",
        -8.208526723795682
      ],
      [
        "各种",
        -8.210916505780116
      ],
      [
        "业务",
        -8.212420110071616
      ],
      [
        "那些",
        -8.214859668410355
      ],
      [
        "开展",
        -8.216040792736518
      ],
      [
        "只有",
        -8.217218018169394
      ],
      [
        "网",
        -8.21774567166271
      ],
      [
        "路",
        -8.219438325302354
      ],
      [
        "这一",
        -8.220081989508792
      ],
      [
        "拥有",
        -8.220506358884005
      ],
      [
        "太",
        -8.220812872369965
      ],
      [
        "具有",
        -8.221517013125311
      ],
      [
        "进入",
        -8.222340828269806
      ],
      [
        "如何",
        -8.225927748782908
      ],
      [
        "不同",
        -8.233061129320948
      ],
      [
        "应该",
        -8.23533201289446
      ],
      [
        "”的",
        -8.23641648812048
      ],
      [
        "人员",
        -8.238107807300565
      ],
      [
        "全",
        -8.23955708390617
      ],
      [
        "有关",
        -8.242045510678388
      ],
      [
        "日本",
        -8.244034342907959
      ],
      [
        "只是",
        -8.245542084845077
      ],
      [
        "政策",
        -8.248705509131117
      ],
      [
        "部",
        -8.250304742597653
      ],
      [
        "力",
        -8.25138749093141
      ],
      [
        "同",
        -8.254688903962762
      ],
      [
        "加",
        -8.25615693783379
      ],
      [
        "一直",
        -8.259590007379568
      ],
      [
        "一起",
        -8.260119285640926
      ],
      [
        "提高",
        -8.26084719922353
      ],
      [
        "环境",
        -8.261631691901545
      ],
      [
        "光",
        -8.261879277223155
      ],
      [
        "继续",
        -8.263324489613641
      ],
      [
        "实施",
        -8.264265932083513
      ],
      [
        "10",
        -8.26549191834997
      ],
      [
        "方式",
        -8.265958812841989
      ],
      [
        "支持",
        -8.266562822588515
      ],
      [
        "万",
        -8.267487750789885
      ],
      [
        "关于",
        -8.268207990021665
      ],
      [
        "西",
        -8.269628439446901
      ],
      [
        "那个",
        -8.270912721242755
      ],
      [
        "7",
        -8.275656255929524
      ],
      [
        ",以",
        -8.27616381251057
      ],
      [
        "钱",
        -8.276248038359157
      ],
      [
        "之前",
        -8.27691332673777
      ],
      [
        "任何",
        -8.279891354011419
      ],
      [
        "不会",
        -8.280774741070658
      ],
      [
        "气",
        -8.284004743620304
      ],
      [
        "全球",
        -8.28439440427443
      ],
      [
        "事",
        -8.284836035711407
      ],
      [
        "机构",
        -8.285954806922296
      ],
      [
        "个人",
        -8.286262785339023
      ],
      [
        "根据",
        -8.286391057930484
      ],
      [
        "队",
        -8.287535756292762
      ],
      [
        "这样的",
        -8.288506583055995
      ],
      [
        "得到",
        -8.288905969670601
      ],
      [
        "内容",
        -8.289109699647707
      ],
      [
        "能力",
        -8.289307091641966
      ],
      [
        "量",
        -8.289500176273929
      ],
      [
        "方面",
        -8.29244775963775
      ],
      [
        "决定",
        -8.297510561302985
      ],
      [
        "完成",
        -8.299089359075673
      ],
      [
        "写",
        -8.2994515442203
      ],
      [
        "特",
        -8.300185193798441
      ],
      [
        "四",
        -8.300305771442007
      ],
      [
        "快",
        -8.302896377905
      ],
      [
        "近",
        -8.306678349447791
      ],
      [
        "真",
        -8.309122113962474
      ],
      [
        "机",
        -8.311571917825276
      ],
      [
        "这么",
        -8.3115912593682
      ],
      [
        "安全",
        -8.312460216699513
      ],
      [
        "游戏",
        -8.313147880703319
      ],
      [
        "五",
        -8.313622827679534
      ],
      [
        "听",
        -8.313866691771619
      ],
      [
        "进",
        -8.314590043452775
      ],
      [
        ",对",
        -8.31729719452765
      ],
      [
        "我国",
        -8.31921671864362
      ],
      [
        "创新",
        -8.32434038712326
      ],
      [
        "二",
        -8.325744860776622
      ],
      [
        "第一",
        -8.331482522665503
      ],
      [
        "提出",
        -8.331844836308878
      ],
      [
        "那么",
        -8.333529433308616
      ],
      [
        "发生",
        -8.333702035532182
      ],
      [
        "的“",
        -8.33417493343288
      ],
      [
        "?”",
        -8.334638999473782
      ],
      [
        "号",
        -8.337052906169976
      ],
      [
        "风",
        -8.340159452403572
      ],
      [
        "动",
        -8.346576085943706
      ],
      [
        "情况",
        -8.346695140296504
      ],
      [
        "▁我",
        -8.346833710366948
      ],
      [
        "参加",
        -8.347503429337284
      ],
      [
        "卡",
        -8.347914799000714
      ],
      [
        "回",
        -8.347917040509143
      ],
      [
        "如果",
        -8.350288517254175
      ],
      [
        "叫",
        -8.351713522125115
      ],
      [
        "知道",
        -8.35199925490916
      ],
      [
        "保护",
        -8.355350699997281
      ],
      [
        "解决",
        -8.356653507342095
      ],
      [
        "酒店",
        -8.360064498558469
      ],
      [
        "s",
        -8.363493046165917
      ],
      [
        "不断",
        -8.364692364304164
      ],
      [
        "火",
        -8.364802654398023
      ],
      [
        "强",
        -8.366152291150296
      ],
      [
        "利",
        -8.36652042586616
      ],
      [
        "王",
        -8.368729799951595
      ],
      [
        "面",
        -8.369277782230848
      ],
      [
        "比较",
        -8.373211561601531
      ],
      [
        "人们",
        -8.375369851846077
      ],
      [
        "。在",
        -8.376198619229385
      ],
      [
        "白",
        -8.378260949278355
      ],
      [
        "一次",
        -8.379399467107442
      ],
      [
        "专业",
        -8.379449298777134
      ],
      [
        "站",
        -8.379735825983111
      ],
      [
        "基本",
        -8.379918004748008
      ],
      [
        "计划",
        -8.381641225056953
      ],
      [
        "申请",
        -8.381751731715468
      ],
      [
        "住",
        -8.382795336574308
      ],
      [
        "并不",
        -8.383368143195051
      ],
      [
        "帮助",
        -8.390865852772802
      ],
      [
        "虽然",
        -8.390866207324638
      ],
      [
        ",它",
        -8.391315764133687
      ],
      [
        "全国",
        -8.393923524780284
      ],
      [
        "北京",
        -8.395424742388805
      ],
      [
        "受",
        -8.397583487426859
      ],
      [
        "记者",
        -8.39870976775807
      ],
      [
        "认为",
        -8.399294065420932
      ],
      [
        ",从",
        -8.399387601430766
      ],
      [
        "克",
        -8.399434087582733
      ],
      [
        "资金",
        -8.400798358078855
      ],
      [
        "参与",
        -8.402855417204272
      ],
      [
        "老师",
        -8.404332652439749
      ],
      [
        "客户",
        -8.40497931661777
      ],
      [
        "连",
        -8.406792877802747
      ],
      [
        "新的",
        -8.406868294578377
      ],
      [
        "怎么",
        -8.407499107555434
      ],
      [
        "则",
        -8.40923828242283
      ],
      [
        "入",
        -8.411189146238346
      ],
      [
        "接受",
        -8.412321126112271
      ],
      [
        "表示,",
        -8.413306657952315
      ],
      [
        "]",
        -8.415385256163159
      ],
      [
        "今天",
        -8.415526494345071
      ],
      [
        "一点",
        -8.417622418704944
      ],
      [
        "手机",
        -8.41994184655278
      ],
      [
        "生产",
        -8.421120945617202
      ],
      [
        "请",
        -8.42161725112464
      ],
      [
        "觉得",
        -8.422102994385675
      ],
      [
        "利用",
        -8.42416062732864
      ],
      [
        "。我",
        -8.42629912584808
      ],
      [
        "部分",
        -8.42733854245698
      ],
      [
        ",让",
        -8.428764091431137
      ],
      [
        "负责",
        -8.430428735969246
      ],
      [
        "为了",
        -8.430861014867407
      ],
      [
        "。但",
        -8.432140845597177
      ],
      [
        "台",
        -8.434111648806162
      ],
      [
        "转",
        -8.434403494356062
      ],
      [
        "方",
        -8.437467866027195
      ],
      [
        "更加",
        -8.438122921679783
      ],
      [
        "家庭",
        -8.438568107035842
      ],
      [
        "见",
        -8.440533353385216
      ],
      [
        "米",
        -8.440861569533297
      ],
      [
        ",而是",
        -8.44206076046956
      ],
      [
        "红",
        -8.442430315542348
      ],
      [
        "书",
        -8.442496553034658
      ],
      [
        "影响",
        -8.44482742039842
      ],
      [
        "历史",
        -8.445044946292612
      ],
      [
        "来说,",
        -8.445631530454964
      ],
      [
        "之后",
        -8.446033183599074
      ],
      [
        "一般",
        -8.447338097267343
      ],
      [
        "法律",
        -8.452055685015928
      ],
      [
        "谁",
        -8.452613695264647
      ],
      [
        "国内",
        -8.45331843861797
      ],
      [
        "特别",
        -8.454034357554983
      ],
      [
        "存在",
        -8.454239099625354
      ],
      [
        "无法",
        -8.457547212967999
      ],
      [
        "价格",
        -8.457880709592818
      ],
      [
        "问",
        -8.458256492513364
      ],
      [
        "非",
        -8.459530925325826
      ],
      [
        "之后,",
        -8.46248891040792
      ],
      [
        "电",
        -8.462888340990613
      ],
      [
        "产业",
        -8.463430307233399
      ],
      [
        "代表",
        -8.463550034703957
      ],
      [
        "包括",
        -8.46688820078446
      ],
      [
        "报",
        -8.469159676951016
      ],
      [
        "县",
        -8.470353665206247
      ],
      [
        "林",
        -8.470579912124784
      ],
      [
        "单",
        -8.470629238978674
      ],
      [
        "应用",
        -8.472217201974146
      ],
      [
        "达",
        -8.472654766068782
      ],
      [
        "期",
        -8.473106465230321
      ],
      [
        "控制",
        -8.474905075556805
      ],
      [
        "完全",
        -8.475560080535615
      ],
      [
        "分析",
        -8.476389859020731
      ],
      [
        "干",
        -8.47857999968901
      ],
      [
        "军",
        -8.480656827311662
      ],
      [
        "\"",
        -8.481514429765102
      ],
      [
        "处",
        -8.48232303915454
      ],
      [
        "一样",
        -8.483444512153895
      ],
      [
        "旅游",
        -8.483616480721274
      ],
      [
        "表示",
        -8.483768548275595
      ],
      [
        "20",
        -8.484930402785007
      ],
      [
        "准备",
        -8.486189642346073
      ],
      [
        "买",
        -8.48785671211481
      ],
      [
        "真的",
        -8.495042101424911
      ],
      [
        "主",
        -8.502146636246676
      ],
      [
        "整个",
        -8.502193885455059
      ],
      [
        "处理",
        -8.50596970368591
      ],
      [
        "品牌",
        -8.506215168778148
      ],
      [
        "两个",
        -8.506804625466835
      ],
      [
        "尔",
        -8.507804100548558
      ],
      [
        "找",
        -8.508150640670308
      ],
      [
        "中心",
        -8.509146872618288
      ],
      [
        "作",
        -8.509211072004016
      ],
      [
        "许多",
        -8.50962409403986
      ],
      [
        "地区",
        -8.510545695533233
      ],
      [
        "别",
        -8.510551597293844
      ],
      [
        "更多",
        -8.511206818723661
      ],
      [
        "场",
        -8.511714453182979
      ],
      [
        ",那么",
        -8.512141644890624
      ],
      [
        "单位",
        -8.51491206126627
      ],
      [
        "一下",
        -8.515174157599166
      ],
      [
        ",为",
        -8.517424160410993
      ],
      [
        "部门",
        -8.517596679553725
      ],
      [
        "曾",
        -8.519238010953185
      ],
      [
        "达到",
        -8.522513484508352
      ],
      [
        "位",
        -8.523305551750767
      ],
      [
        "就会",
        -8.52537396342467
      ],
      [
        "开发",
        -8.526549748724142
      ],
      [
        "。而",
        -8.526606624340488
      ],
      [
        "甚至",
        -8.527791219505197
      ],
      [
        "是否",
        -8.527844379498497
      ],
      [
        "我们的",
        -8.528603680692754
      ],
      [
        "银行",
        -8.52944315997787
      ],
      [
        "女",
        -8.529858507465836
      ],
      [
        "条",
        -8.530150830481455
      ],
      [
        "来自",
        -8.532257300551873
      ],
      [
        "神",
        -8.532511738476774
      ],
      [
        "约",
        -8.53555967558605
      ],
      [
        "未来",
        -8.536821640059841
      ],
      [
        "局",
        -8.537420492497516
      ],
      [
        "汽车",
        -8.537430990810867
      ],
      [
        "过去",
        -8.537885431436134
      ],
      [
        "情",
        -8.53830694572159
      ],
      [
        "行为",
        -8.544805435533519
      ],
      [
        "难",
        -8.545903873529705
      ],
      [
        "以上",
        -8.54853397538335
      ],
      [
        "度",
        -8.549509248984872
      ],
      [
        "平",
        -8.549946329476782
      ],
      [
        "放",
        -8.550789764484698
      ],
      [
        ",这是",
        -8.552303658003495
      ],
      [
        "建立",
        -8.554385400950977
      ],
      [
        "相",
        -8.554522135239274
      ],
      [
        "会议",
        -8.555526183644771
      ],
      [
        "李",
        -8.558901667816212
      ],
      [
        "中的",
        -8.56012695825082
      ],
      [
        "不要",
        -8.56095460495655
      ],
      [
        "每",
        -8.561034256069618
      ],
      [
        "率",
        -8.563355968280616
      ],
      [
        "目标",
        -8.564132701573143
      ],
      [
        "妈妈",
        -8.565691441870554
      ],
      [
        "低",
        -8.56625396588371
      ],
      [
        "便",
        -8.5678714031158
      ],
      [
        "价值",
        -8.56787633131084
      ],
      [
        "科技",
        -8.568247170619305
      ],
      [
        "这是",
        -8.568908421193886
      ],
      [
        "方法",
        -8.57126481234046
      ],
      [
        "人才",
        -8.573792197617278
      ],
      [
        "想要",
        -8.57394209478907
      ],
      [
        "人类",
        -8.574097880211669
      ],
      [
        "培训",
        -8.577713359448865
      ],
      [
        "喜欢",
        -8.582689998338566
      ],
      [
        "设备",
        -8.583559862334114
      ],
      [
        "重要",
        -8.58412553430384
      ],
      [
        "成功",
        -8.586084872701578
      ],
      [
        "经",
        -8.586109376481257
      ],
      [
        "朋友",
        -8.586443735520652
      ],
      [
        "共同",
        -8.58742721810364
      ],
      [
        "明",
        -8.587532099317448
      ],
      [
        "科学",
        -8.590528915417474
      ],
      [
        "上的",
        -8.59105235226994
      ],
      [
        "变",
        -8.592224949114552
      ],
      [
        "球",
        -8.592281104083778
      ],
      [
        "数",
        -8.593414416637366
      ],
      [
        "科",
        -8.597156749941341
      ],
      [
        "报告",
        -8.597500836591166
      ],
      [
        "平台",
        -8.60248505862603
      ],
      [
        "让我",
        -8.603446013111533
      ],
      [
        "・",
        -8.604333019186871
      ],
      [
        ",有",
        -8.604700892738162
      ],
      [
        "口",
        -8.605088918286706
      ],
      [
        "清",
        -8.606890323406208
      ],
      [
        "健康",
        -8.607098211262386
      ],
      [
        "他们的",
        -8.609081960540125
      ],
      [
        "突然",
        -8.610038097974996
      ],
      [
        "城",
        -8.610324593074848
      ],
      [
        "讲",
        -8.610740709852108
      ],
      [
        "云",
        -8.612900705926869
      ],
      [
        "。他",
        -8.613457875124826
      ],
      [
        "地方",
        -8.614667047868386
      ],
      [
        "教",
        -8.61601483550957
      ],
      [
        "未",
        -8.616049268545751
      ],
      [
        "】",
        -8.61723401231
      ],
      [
        "类",
        -8.617264701170882
      ],
      [
        "接",
        -8.620167008330302
      ],
      [
        "其实",
        -8.620289860882469
      ],
      [
        "销售",
        -8.621582450165345
      ],
      [
        "儿",
        -8.622042760195402
      ],
      [
        "医院",
        -8.622710051313643
      ],
      [
        "元",
        -8.623043232553997
      ],
      [
        "领域",
        -8.624456012803067
      ],
      [
        "玩",
        -8.625424195883486
      ],
      [
        "改革",
        -8.627123741326074
      ],
      [
        "费",
        -8.62801158222782
      ],
      [
        "通",
        -8.628524407899896
      ],
      [
        "。“",
        -8.629226239548915
      ],
      [
        "关注",
        -8.629680726068202
      ],
      [
        "保持",
        -8.630411422229196
      ],
      [
        ",因此",
        -8.631881405641986
      ],
      [
        "正式",
        -8.63276068948831
      ],
      [
        "边",
        -8.63569111963956
      ],
      [
        "声",
        -8.636733515298971
      ],
      [
        "都有",
        -8.639981514084326
      ],
      [
        "知识",
        -8.640881493033671
      ],
      [
        "之间",
        -8.641677217972218
      ],
      [
        "战",
        -8.642308716338494
      ],
      [
        "此",
        -8.642424031429563
      ],
      [
        "送",
        -8.64254877914531
      ],
      [
        "工程",
        -8.642758018845392
      ],
      [
        "积极",
        -8.643490376555732
      ],
      [
        "考虑",
        -8.64576711961088
      ],
      [
        "安",
        -8.648686556027457
      ],
      [
        "安排",
        -8.649542430512348
      ],
      [
        "英国",
        -8.650401536290932
      ],
      [
        "带来",
        -8.650490008423258
      ],
      [
        "如此",
        -8.650671698274312
      ],
      [
        "持续",
        -8.650837498262945
      ],
      [
        "都会",
        -8.650928435772133
      ],
      [
        "做好",
        -8.652411684644845
      ],
      [
        "上海",
        -8.653505315615044
      ],
      [
        "东西",
        -8.654506607663393
      ],
      [
        "一定",
        -8.656692774652674
      ],
      [
        ",甚至",
        -8.657565469017593
      ],
      [
        ",以及",
        -8.658292683497598
      ],
      [
        "媒体",
        -8.65884076432571
      ],
      [
        "少",
        -8.660356750364205
      ],
      [
        ")。",
        -8.660656271737897
      ],
      [
        "同时",
        -8.660679444207194
      ],
      [
        "信",
        -8.661781413980087
      ],
      [
        "制",
        -8.662466781883722
      ],
      [
        "说:“",
        -8.662934470869605
      ],
      [
        "标准",
        -8.663856977891013
      ],
      [
        ",并且",
        -8.665031660115716
      ],
      [
        ",那",
        -8.666144807589301
      ],
      [
        "有一个",
        -8.666828768820483
      ],
      [
        "一个人",
        -8.669191889714348
      ],
      [
        "身",
        -8.66956856992038
      ],
      [
        "感觉",
        -8.670143567613797
      ],
      [
        "有点",
        -8.670612371602427
      ],
      [
        "集团",
        -8.671305829644846
      ],
      [
        "工",
        -8.671947955299096
      ],
      [
        "12",
        -8.676245985529318
      ],
      [
        "教师",
        -8.677616547039005
      ],
      [
        "别人",
        -8.678356917041135
      ],
      [
        "图",
        -8.678439046921465
      ],
      [
        "保证",
        -8.67931007767501
      ],
      [
        "检查",
        -8.679361972156531
      ],
      [
        "式",
        -8.682480040446471
      ],
      [
        "团队",
        -8.68307484375452
      ],
      [
        "人,",
        -8.68419299911806
      ],
      [
        "感",
        -8.68537784694356
      ],
      [
        "战略",
        -8.686560035239832
      ],
      [
        "全面",
        -8.68752347407559
      ],
      [
        "间",
        -8.687850231487472
      ],
      [
        "道:“",
        -8.689207162253208
      ],
      [
        "今年",
        -8.689803652834357
      ],
      [
        "经营",
        -8.692207654345792
      ],
      [
        "B",
        -8.692493507319359
      ],
      [
        "质量",
        -8.69380316639524
      ],
      [
        "跑",
        -8.694719328953834
      ],
      [
        "资源",
        -8.695325363117705
      ],
      [
        "黑",
        -8.695556929322883
      ],
      [
        "S",
        -8.696592051886451
      ],
      [
        "使",
        -8.696803470375666
      ],
      [
        "不知道",
        -8.697769959857162
      ],
      [
        "加强",
        -8.698333633235354
      ],
      [
        "省",
        -8.700606939366837
      ],
      [
        "香港",
        -8.701657055898437
      ],
      [
        "消费",
        -8.703368171032022
      ],
      [
        "增加",
        -8.704566334442552
      ],
      [
        "拿",
        -8.704832021385776
      ],
      [
        "产生",
        -8.705992018622457
      ],
      [
        "员工",
        -8.708412168440962
      ],
      [
        "有人",
        -8.709077242647146
      ],
      [
        "调查",
        -8.709126597892482
      ],
      [
        "身体",
        -8.709234141380612
      ],
      [
        "华",
        -8.709375591863108
      ],
      [
        "以后",
        -8.711913568390788
      ],
      [
        "给我",
        -8.714621651738108
      ],
      [
        "医生",
        -8.715466404948202
      ],
      [
        "功能",
        -8.715731046135337
      ],
      [
        "i",
        -8.716712065590674
      ],
      [
        "月",
        -8.7180755668603
      ],
      [
        "消费者",
        -8.718203738395434
      ],
      [
        "阅读",
        -8.719113666193916
      ],
      [
        "空",
        -8.719521353528286
      ],
      [
        "体",
        -8.72067179119639
      ],
      [
        "满足",
        -8.720865171856016
      ],
      [
        ",包括",
        -8.721322843112914
      ],
      [
        "才能",
        -8.72243765480701
      ],
      [
        "o",
        -8.725028065459142
      ],
      [
        "线",
        -8.725309329545471
      ],
      [
        "东",
        -8.725586968035632
      ],
      [
        "政治",
        -8.728511465980223
      ],
      [
        "提升",
        -8.729488407581261
      ],
      [
        "的话,",
        -8.729671746452606
      ],
      [
        "这里",
        -8.729841401143634
      ],
      [
        "十分",
        -8.730750727132067
      ],
      [
        "最大的",
        -8.731153297797132
      ],
      [
        "理解",
        -8.731329902483893
      ],
      [
        "找到",
        -8.731794413311912
      ],
      [
        "水平",
        -8.732770280893881
      ],
      [
        "办",
        -8.733383456981695
      ],
      [
        "增长",
        -8.73403773828662
      ],
      [
        "上,",
        -8.734267152555113
      ],
      [
        "成本",
        -8.734846375547964
      ],
      [
        "按",
        -8.735354159039758
      ],
      [
        "领导",
        -8.738453766818086
      ],
      [
        "里,",
        -8.739041723815678
      ],
      [
        "传统",
        -8.740007427374495
      ],
      [
        "e",
        -8.740151447958414
      ],
      [
        ",将",
        -8.741133342751104
      ],
      [
        "阿",
        -8.741379068318079
      ],
      [
        "第二",
        -8.741611371489082
      ],
      [
        "相信",
        -8.742550940202662
      ],
      [
        "改变",
        -8.745233786523894
      ],
      [
        "州",
        -8.74572104134505
      ],
      [
        "真正",
        -8.74618338778807
      ],
      [
        ",其中",
        -8.746968165899506
      ],
      [
        "专家",
        -8.747306082211665
      ],
      [
        ",现在",
        -8.74836768179657
      ],
      [
        "推进",
        -8.74862785452648
      ],
      [
        "互联网",
        -8.751476247444081
      ],
      [
        "),",
        -8.752550494459925
      ],
      [
        "按照",
        -8.753347249463172
      ],
      [
        "交易",
        -8.753822775274653
      ],
      [
        "努力",
        -8.753980149745704
      ],
      [
        "倒",
        -8.7566058525654
      ],
      [
        "购买",
        -8.757619678822866
      ],
      [
        "经过",
        -8.758300933088165
      ],
      [
        "但",
        -8.759342233548118
      ],
      [
        "建筑",
        -8.759926119798626
      ],
      [
        "管",
        -8.760036939011222
      ],
      [
        "德国",
        -8.760354698775359
      ],
      [
        ",就是",
        -8.761009651436652
      ],
      [
        "权",
        -8.761361806321625
      ],
      [
        "超",
        -8.76229436114085
      ],
      [
        "制定",
        -8.762548008733138
      ],
      [
        "超过",
        -8.762842773307565
      ],
      [
        "深",
        -8.763049832813156
      ],
      [
        "起来",
        -8.765044727620054
      ],
      [
        "商业",
        -8.765263813278077
      ],
      [
        "需求",
        -8.765468559701787
      ],
      [
        "发布",
        -8.765923644186902
      ],
      [
        "话",
        -8.767183646226712
      ],
      [
        "种",
        -8.768503080521201
      ],
      [
        "一切",
        -8.769944100425292
      ],
      [
        "由于",
        -8.770012487640711
      ],
      [
        "读",
        -8.770378198784893
      ],
      [
        "。我们",
        -8.770504782199186
      ],
      [
        "推动",
        -8.77389581827692
      ],
      [
        "严重",
        -8.773979177555962
      ],
      [
        "热",
        -8.776912101835574
      ],
      [
        ",又",
        -8.77805033244153
      ],
      [
        "A",
        -8.778762291596053
      ],
      [
        "经常",
        -8.779347643873006
      ],
      [
        ",可以",
        -8.77965636101115
      ],
      [
        "合同",
        -8.779692043234192
      ],
      [
        "几个",
        -8.780079330691429
      ],
      [
        "金融",
        -8.780351260156497
      ],
      [
        "执行",
        -8.781177451298753
      ],
      [
        "病",
        -8.7812906851519
      ],
      [
        "某",
        -8.781772687224286
      ],
      [
        ",同时",
        -8.783890131586883
      ],
      [
        "受到",
        -8.7841824661605
      ],
      [
        "远",
        -8.784474959050716
      ],
      [
        "原",
        -8.78495993793117
      ],
      [
        "有效",
        -8.785711764813565
      ],
      [
        "最终",
        -8.787811472652546
      ],
      [
        "自由",
        -8.79013403730725
      ],
      [
        "型",
        -8.791064799712622
      ],
      [
        "交",
        -8.791420933348556
      ],
      [
        "空间",
        -8.791467355798762
      ],
      [
        "建",
        -8.79151709256007
      ],
      [
        "是个",
        -8.791580514329283
      ],
      [
        "出来",
        -8.792934358502531
      ],
      [
        "为什么",
        -8.79452675890561
      ],
      [
        "自然",
        -8.795607630670371
      ],
      [
        ",不过",
        -8.796813226228753
      ],
      [
        "第一次",
        -8.797160758580244
      ],
      [
        "不同的",
        -8.798550160687395
      ],
      [
        "坚持",
        -8.79950012782277
      ],
      [
        "南",
        -8.799623967897377
      ],
      [
        "的话",
        -8.801230726865786
      ],
      [
        "体验",
        -8.805012850211188
      ],
      [
        "只能",
        -8.805394329316421
      ],
      [
        ",可",
        -8.805798437627342
      ],
      [
        "亚",
        -8.8069930365821
      ],
      [
        "结果",
        -8.807124470496845
      ],
      [
        "人民",
        -8.808292839069157
      ],
      [
        "活",
        -8.8114341299596
      ],
      [
        "联系",
        -8.812786514850735
      ],
      [
        "每天",
        -8.813637792911951
      ],
      [
        "进一步",
        -8.814341244127956
      ],
      [
        "公",
        -8.814606650229663
      ],
      [
        "了。”",
        -8.814638435949494
      ],
      [
        "次",
        -8.815420701153863
      ],
      [
        "黄",
        -8.816983541475823
      ],
      [
        "先生",
        -8.817909001949083
      ],
      [
        ",其",
        -8.8192808813024
      ],
      [
        "每个",
        -8.82005414561484
      ],
      [
        "选",
        -8.820832578302067
      ],
      [
        "自身",
        -8.82085593576016
      ],
      [
        "员",
        -8.822384008206537
      ],
      [
        "反",
        -8.822504264420116
      ],
      [
        "笑",
        -8.8228114667501
      ],
      [
        "事件",
        -8.82439995978536
      ],
      [
        "全部",
        -8.824597714914418
      ],
      [
        "越",
        -8.824645892826537
      ],
      [
        "父母",
        -8.824897649776695
      ],
      [
        "文件",
        -8.827362721551506
      ],
      [
        ",却",
        -8.827589044837797
      ],
      [
        "眼",
        -8.827949356472557
      ],
      [
        "y",
        -8.82833878199358
      ],
      [
        "规划",
        -8.831749697816727
      ],
      [
        "级",
        -8.832924125429951
      ],
      [
        "流",
        -8.83298181626283
      ],
      [
        "离",
        -8.833389393765842
      ],
      [
        "其中",
        -8.834012038495569
      ],
      [
        "制度",
        -8.834711016908676
      ],
      [
        ",比如",
        -8.835308810733258
      ],
      [
        "陈",
        -8.836115424679004
      ],
      [
        "酒",
        -8.836290665976207
      ],
      [
        "综合",
        -8.836767430108573
      ],
      [
        "早",
        -8.838493122032284
      ],
      [
        "龙",
        -8.84033883366623
      ],
      [
        "女人",
        -8.840983020179296
      ],
      [
        "操作",
        -8.841260652635928
      ],
      [
        "宣传",
        -8.842531475317353
      ],
      [
        "介绍",
        -8.842712700146649
      ],
      [
        "看着",
        -8.843171396634489
      ],
      [
        "离开",
        -8.84477268696536
      ],
      [
        "电话",
        -8.84525248267898
      ],
      [
        "定",
        -8.846048434649886
      ],
      [
        "问题,",
        -8.846581099644357
      ],
      [
        "规定",
        -8.846765336999184
      ],
      [
        "均",
        -8.846907864174497
      ],
      [
        "思想",
        -8.847122507187564
      ],
      [
        "越来越",
        -8.847156666811124
      ],
      [
        "她的",
        -8.849669538994107
      ],
      [
        "风险",
        -8.851664469388346
      ],
      [
        "当时",
        -8.852380197822924
      ],
      [
        "似乎",
        -8.852437461405444
      ],
      [
        ",还",
        -8.853503054948987
      ],
      [
        "共",
        -8.854949336860479
      ],
      [
        "调整",
        -8.855452494144798
      ],
      [
        "往",
        -8.855473673041612
      ],
      [
        "应当",
        -8.855525533384375
      ],
      [
        "有着",
        -8.856669254542824
      ],
      [
        "。这",
        -8.857000138047088
      ],
      [
        "理论",
        -8.857575618773833
      ],
      [
        "半",
        -8.857655562127707
      ],
      [
        "认为,",
        -8.857803849184918
      ],
      [
        "首",
        -8.858232969847709
      ],
      [
        "院",
        -8.858680759009266
      ],
      [
        "称",
        -8.859279729143058
      ],
      [
        "卖",
        -8.860495878929616
      ],
      [
        "。如果",
        -8.860500793425913
      ],
      [
        "认识",
        -8.860621000585763
      ],
      [
        "长期",
        -8.861150774562415
      ],
      [
        "条件",
        -8.862249369037663
      ],
      [
        "房",
        -8.866031012397745
      ],
      [
        "属于",
        -8.868307751788928
      ],
      [
        "六",
        -8.869210121775039
      ],
      [
        "包",
        -8.86925565691024
      ],
      [
        "最近",
        -8.869517882460698
      ],
      [
        ",虽然",
        -8.86968517675458
      ],
      [
        "几",
        -8.870242444136638
      ],
      [
        "精神",
        -8.87043272890729
      ],
      [
        ",要",
        -8.870710629281922
      ],
      [
        "保障",
        -8.871654488466085
      ],
      [
        "t",
        -8.87198072836255
      ],
      [
        "在这里",
        -8.873326908870181
      ],
      [
        "具体",
        -8.873543462823847
      ],
      [
        "罗",
        -8.875002036443178
      ],
      [
        "北",
        -8.875845918927268
      ],
      [
        "工作,",
        -8.876432052093184
      ],
      [
        "派",
        -8.87656867133401
      ],
      [
        "并没有",
        -8.877571353350667
      ],
      [
        "艺术",
        -8.877872616161046
      ],
      [
        "收",
        -8.878428766652247
      ],
      [
        "世",
        -8.879361822649042
      ],
      [
        "重点",
        -8.87967288819631
      ],
      [
        "创造",
        -8.880285525541218
      ],
      [
        "发挥",
        -8.882231986999074
      ],
      [
        "刚",
        -8.88527431289866
      ],
      [
        "现代",
        -8.885336638614683
      ],
      [
        "坐",
        -8.885458672819116
      ],
      [
        "飞",
        -8.887586231244077
      ],
      [
        "巴",
        -8.889409768530824
      ],
      [
        "装",
        -8.889688527697071
      ],
      [
        "完",
        -8.890072640105895
      ],
      [
        ",还有",
        -8.890595103195745
      ],
      [
        "做出",
        -8.89150553124009
      ],
      [
        "实际",
        -8.89211630243273
      ],
      [
        "电影",
        -8.892919655872126
      ],
      [
        "30",
        -8.894349503539523
      ],
      [
        "也会",
        -8.895401806675196
      ],
      [
        "2016年",
        -8.895986315205256
      ],
      [
        "形成",
        -8.89687242884223
      ],
      [
        "业",
        -8.898561276366102
      ],
      [
        "同学",
        -8.8986512133839
      ],
      [
        "面对",
        -8.8994043938877
      ],
      [
        "组",
        -8.902987103277706
      ],
      [
        "区域",
        -8.904403867642657
      ],
      [
        "来到",
        -8.905028481479704
      ],
      [
        "享受",
        -8.906041608876489
      ],
      [
        "一名",
        -8.906378876766034
      ],
      [
        "不到",
        -8.906910462000225
      ],
      [
        "啊,",
        -8.908829511198778
      ],
      [
        "11",
        -8.909540143395198
      ],
      [
        "亿",
        -8.909979045709164
      ],
      [
        "提",
        -8.91006242179469
      ],
      [
        "除了",
        -8.910195320883457
      ],
      [
        "收入",
        -8.91063806751086
      ],
      [
        "掉",
        -8.910690040336789
      ],
      [
        "当地",
        -8.910825819490737
      ],
      [
        "0",
        -8.910963992197399
      ],
      [
        "意",
        -8.914272568110535
      ],
      [
        "球队",
        -8.915096856503702
      ],
      [
        "器",
        -8.91546209509363
      ],
      [
        "的时间",
        -8.916089436992756
      ],
      [
        "一样,",
        -8.916271996113679
      ],
      [
        "皮",
        -8.917018663413604
      ],
      [
        "星",
        -8.917232904310929
      ],
      [
        "一份",
        -8.917606795600609
      ],
      [
        "程序",
        -8.91765688888832
      ],
      [
        "再次",
        -8.918452892975541
      ],
      [
        "广告",
        -8.919228516805607
      ],
      [
        "简单",
        -8.91928398666592
      ],
      [
        "村",
        -8.919365510861866
      ],
      [
        ",把",
        -8.920450467022349
      ],
      [
        "布",
        -8.920502935753117
      ],
      [
        "调",
        -8.920724463848035
      ],
      [
        "现场",
        -8.920997807003875
      ],
      [
        "换",
        -8.921610762114685
      ],
      [
        "。但是",
        -8.92294749387706
      ],
      [
        "有了",
        -8.923178592480472
      ],
      [
        ",也是",
        -8.925004682341777
      ],
      [
        "师",
        -8.925487270561767
      ],
      [
        "位于",
        -8.925577977456161
      ],
      [
        "P",
        -8.926087194275162
      ],
      [
        "工作人员",
        -8.9262677857493
      ],
      [
        "工业",
        -8.92982930019669
      ],
      [
        "公开",
        -8.9311890739266
      ],
      [
        "教学",
        -8.932244594697153
      ],
      [
        "十",
        -8.93235476873055
      ],
      [
        ",不",
        -8.93359200701612
      ],
      [
        "俄罗斯",
        -8.934800639559224
      ],
      [
        "一家",
        -8.935173179169242
      ],
      [
        "软件",
        -8.93608428118992
      ],
      [
        "改",
        -8.936940025775824
      ],
      [
        "的是",
        -8.93777663133644
      ],
      [
        "下,",
        -8.939271180477704
      ],
      [
        "以前",
        -8.939875578723719
      ],
      [
        "人的",
        -8.940406872707413
      ],
      [
        "C",
        -8.942019138723605
      ],
      [
        "双",
        -8.942966945163286
      ],
      [
        "公寓",
        -8.943962182877884
      ],
      [
        "让人",
        -8.94404352700272
      ],
      [
        "双方",
        -8.94774782776389
      ],
      [
        "课程",
        -8.949398582491868
      ],
      [
        "理",
        -8.951395738905326
      ],
      [
        "重大",
        -8.952098944062765
      ],
      [
        "一条",
        -8.953170212284776
      ],
      [
        "进行了",
        -8.953839366226685
      ],
      [
        "里面",
        -8.955425115351812
      ],
      [
        "立",
        -8.95609178004398
      ],
      [
        "的重要",
        -8.956338044918066
      ],
      [
        "问题。",
        -8.956370496638915
      ],
      [
        "差",
        -8.95706323884269
      ],
      [
        "常",
        -8.957353072342627
      ],
      [
        "总是",
        -8.957447563741198
      ],
      [
        "落",
        -8.958760514968475
      ],
      [
        "根",
        -8.959057289899418
      ],
      [
        "色",
        -8.959553881595275
      ],
      [
        "一定要",
        -8.96150840589667
      ],
      [
        "资料",
        -8.962713445303798
      ],
      [
        ",这个",
        -8.96273130274524
      ],
      [
        "节",
        -8.963712551094169
      ],
      [
        "感到",
        -8.964211425663056
      ],
      [
        "随着",
        -8.964390361614637
      ],
      [
        "一场",
        -8.965141039074922
      ],
      [
        "讨论",
        -8.966896433781699
      ],
      [
        "球员",
        -8.966925254534004
      ],
      [
        "2018年",
        -8.967619114523572
      ],
      [
        "的小",
        -8.968529761524142
      ],
      [
        "血",
        -8.968976780282336
      ],
      [
        "稳定",
        -8.970370670412077
      ],
      [
        "最后",
        -8.97067639680268
      ],
      [
        "周",
        -8.971461105108588
      ],
      [
        "取",
        -8.972897737752447
      ],
      [
        "推广",
        -8.97633855462393
      ],
      [
        "来看,",
        -8.976535805597159
      ],
      [
        "班",
        -8.976949890504116
      ],
      [
        "身上",
        -8.97804579077129
      ],
      [
        "15",
        -8.978296675825803
      ],
      [
        "训练",
        -8.978804431712744
      ],
      [
        "规范",
        -8.979661688419402
      ],
      [
        "这次",
        -8.980579281101933
      ],
      [
        "维护",
        -8.981420798608388
      ],
      [
        "利益",
        -8.982717871839366
      ],
      [
        "给你",
        -8.982944584543043
      ],
      [
        "男人",
        -8.983286788418901
      ],
      [
        "费用",
        -8.987751564107818
      ],
      [
        "字",
        -8.988969594761816
      ],
      [
        "排",
        -8.98969225100968
      ],
      [
        "委员会",
        -8.989720858184828
      ],
      [
        "结构",
        -8.98992915125211
      ],
      [
        "L",
        -8.992248240452234
      ],
      [
        "也有",
        -8.994145330777663
      ],
      [
        "药",
        -8.994669985369573
      ],
      [
        "女性",
        -8.994725234931416
      ],
      [
        "材料",
        -8.99474054729245
      ],
      [
        "......”",
        -8.995304477859076
      ],
      [
        "只要",
        -8.997693681861659
      ],
      [
        "睡",
        -8.998049274194358
      ],
      [
        "合",
        -9.000078421960836
      ],
      [
        "重新",
        -9.00062375241909
      ],
      [
        "商",
        -9.000884103039825
      ],
      [
        "房间",
        -9.001172623215972
      ],
      [
        ",可是",
        -9.001329065260322
      ],
      [
        "2017年",
        -9.001377893171426
      ],
      [
        "表现",
        -9.002939717404303
      ],
      [
        "视频",
        -9.00326711889116
      ],
      [
        "作品",
        -9.003381674597023
      ],
      [
        "不少",
        -9.003663465759452
      ],
      [
        "了一个",
        -9.004138516873773
      ],
      [
        ",没有",
        -9.004489508258274
      ],
      [
        "主动",
        -9.004629482006303
      ],
      [
        "培养",
        -9.005546667364797
      ],
      [
        "a",
        -9.006103383864911
      ],
      [
        "新闻",
        -9.006429801234297
      ],
      [
        "格",
        -9.006724147299348
      ],
      [
        "听到",
        -9.006911720738541
      ],
      [
        "及时",
        -9.008602796912207
      ],
      [
        "针对",
        -9.008627106672684
      ],
      [
        "吧。",
        -9.009493619964093
      ],
      [
        "同样",
        -9.010768712930172
      ],
      [
        "纳",
        -9.012720985433265
      ],
      [
        "算",
        -9.012944959223947
      ],
      [
        "促进",
        -9.013197675816762
      ],
      [
        "语言",
        -9.013897131902752
      ],
      [
        "江",
        -9.015994373942636
      ],
      [
        "确定",
        -9.0164349603157
      ],
      [
        "肯定",
        -9.017783566902636
      ],
      [
        "建议",
        -9.018297688027854
      ],
      [
        "留",
        -9.018665544642587
      ],
      [
        "追求",
        -9.01876007731714
      ],
      [
        "采取",
        -9.020401748512032
      ],
      [
        "胜",
        -9.020857728162838
      ],
      [
        "党",
        -9.021059607691026
      ],
      [
        "微信",
        -9.021592600753944
      ],
      [
        "仅",
        -9.021889415821118
      ],
      [
        "的东西",
        -9.022192339714767
      ],
      [
        "奇",
        -9.023258805232285
      ],
      [
        "此次",
        -9.02346510140708
      ],
      [
        "不过",
        -9.025399950195165
      ],
      [
        "几乎",
        -9.027643015357572
      ],
      [
        "19",
        -9.028292695711663
      ],
      [
        "18",
        -9.02832899839866
      ],
      [
        "母亲",
        -9.0306994794085
      ],
      [
        "减少",
        -9.031151983707533
      ],
      [
        "▁“我",
        -9.032068985299993
      ],
      [
        "尼",
        -9.032449333399656
      ],
      [
        "责任",
        -9.033053690892135
      ],
      [
        "过程中",
        -9.035118653632692
      ],
      [
        "脚",
        -9.036793800333616
      ],
      [
        "出了",
        -9.037507173839991
      ],
      [
        "满",
        -9.037736755356313
      ],
      [
        "塔",
        -9.03782432920806
      ],
      [
        "事情",
        -9.038501659172091
      ],
      [
        "有什么",
        -9.03954721767659
      ],
      [
        "成立",
        -9.041009191948934
      ],
      [
        "的事情",
        -9.041142176413697
      ],
      [
        "对方",
        -9.041750244986925
      ],
      [
        "完善",
        -9.042064879215978
      ],
      [
        "带着",
        -9.043175306661544
      ],
      [
        "更多的",
        -9.043231511869084
      ],
      [
        "很难",
        -9.043412039843588
      ],
      [
        "回答",
        -9.044022188830175
      ],
      [
        "一年",
        -9.044488424229538
      ],
      [
        "明显",
        -9.045653263037064
      ],
      [
        "是在",
        -9.04614230758126
      ],
      [
        "查",
        -9.047310254763612
      ],
      [
        "投",
        -9.047766780000336
      ],
      [
        "证",
        -9.047924697332537
      ],
      [
        "吧,",
        -9.048095874435628
      ],
      [
        "占",
        -9.049676373672035
      ],
      [
        "取得",
        -9.052514806296006
      ],
      [
        "效果",
        -9.054948460597432
      ],
      [
        "机会",
        -9.055703538076944
      ],
      [
        "看看",
        -9.055854213548102
      ],
      [
        "结合",
        -9.056887438668497
      ],
      [
        "指",
        -9.057165183053229
      ],
      [
        "支付",
        -9.057613146517713
      ],
      [
        "关",
        -9.057681651966295
      ],
      [
        "称,",
        -9.058694060480269
      ],
      [
        "照",
        -9.058808842521497
      ],
      [
        "回到",
        -9.058904627343857
      ],
      [
        "心理",
        -9.059621857503974
      ],
      [
        "欧洲",
        -9.059894739833672
      ],
      [
        "来说",
        -9.059930970919673
      ],
      [
        "怕",
        -9.060049851790737
      ],
      [
        "修",
        -9.060256547564535
      ],
      [
        "解释",
        -9.060325542745066
      ],
      [
        "▁-",
        -9.06066330213195
      ],
      [
        "课",
        -9.061336209189307
      ],
      [
        "的发展",
        -9.062455591691974
      ],
      [
        "指出,",
        -9.064036304273431
      ],
      [
        "就可以",
        -9.064104254574593
      ],
      [
        "时代",
        -9.064274163847816
      ],
      [
        "它们",
        -9.064412366911665
      ],
      [
        "基础",
        -9.065066706917204
      ],
      [
        "范围",
        -9.06551305129682
      ],
      [
        "仍然",
        -9.06562331791869
      ],
      [
        "事业",
        -9.065724548173858
      ],
      [
        "石",
        -9.065866899723952
      ],
      [
        "河",
        -9.066124150285294
      ],
      [
        "原因",
        -9.068888543747612
      ],
      [
        "伤",
        -9.069325410295946
      ],
      [
        "曾经",
        -9.06977053096712
      ],
      [
        "去年",
        -9.071688656856502
      ],
      [
        "脸",
        -9.071963816970786
      ],
      [
        "期间",
        -9.072056402203561
      ],
      [
        "求",
        -9.07251791395967
      ],
      [
        "靠",
        -9.072560005746494
      ],
      [
        "第三",
        -9.072724633823356
      ],
      [
        ",对于",
        -9.074228189221817
      ],
      [
        "拍",
        -9.074279519432544
      ],
      [
        "中央",
        -9.074478031846258
      ],
      [
        "以下",
        -9.074521696667926
      ],
      [
        "片",
        -9.078465969666436
      ],
      [
        "终于",
        -9.079788831258272
      ],
      [
        "居民",
        -9.080122925152748
      ],
      [
        "推",
        -9.080427394161129
      ],
      [
        "交流",
        -9.082818375201676
      ],
      [
        "愿意",
        -9.082976758096084
      ],
      [
        "吗?”",
        -9.083079746737624
      ],
      [
        "监管",
        -9.083249426983333
      ],
      [
        "了!",
        -9.083981283096001
      ],
      [
        "运营",
        -9.08560325579591
      ],
      [
        "就业",
        -9.087451875775916
      ],
      [
        "好的",
        -9.088821517907778
      ],
      [
        "模式",
        -9.088933350499268
      ],
      [
        "直",
        -9.089335838638778
      ],
      [
        "校",
        -9.089819924366603
      ],
      [
        "以来,",
        -9.090239882294604
      ],
      [
        "变化",
        -9.090374975181852
      ],
      [
        "那样",
        -9.090560111826054
      ],
      [
        "且",
        -9.090578180232882
      ],
      [
        "件",
        -9.090641157211646
      ],
      [
        "言",
        -9.090786436028072
      ],
      [
        "规模",
        -9.090998753603243
      ],
      [
        "数量",
        -9.091688464054343
      ],
      [
        "八",
        -9.091714683074956
      ],
      [
        "赛",
        -9.091725743092406
      ],
      [
        "喝",
        -9.091954108453633
      ],
      [
        "谈",
        -9.092143384046729
      ],
      [
        "50",
        -9.092254019907664
      ],
      [
        "制造",
        -9.094207608671443
      ],
      [
        "确实",
        -9.094530978743936
      ],
      [
        "乱",
        -9.095201363485213
      ],
      [
        "有很多",
        -9.095456103822343
      ],
      [
        "的一个",
        -9.097408031360686
      ],
      [
        "符合",
        -9.09943096317161
      ],
      [
        "指导",
        -9.102290376151188
      ],
      [
        "变得",
        -9.104311049103256
      ],
      [
        "认真",
        -9.104437128321438
      ],
      [
        "运动",
        -9.104501400812895
      ],
      [
        "记",
        -9.104838757156475
      ],
      [
        "学院",
        -9.105211507640679
      ],
      [
        "l",
        -9.105358840202154
      ],
      [
        "一位",
        -9.106440328438747
      ],
      [
        "投资者",
        -9.106842566569247
      ],
      [
        "详细",
        -9.108323453255402
      ],
      [
        "意义",
        -9.10932607007891
      ],
      [
        "您的",
        -9.109964263069443
      ],
      [
        "语",
        -9.110462027039137
      ],
      [
        "养",
        -9.111133767673184
      ],
      [
        "提供了",
        -9.113165353507547
      ],
      [
        "也不",
        -9.113446136027942
      ],
      [
        ",尤其是",
        -9.113673226736221
      ],
      [
        "维",
        -9.11407861309064
      ],
      [
        "工作。",
        -9.114413068287426
      ],
      [
        "▁1、",
        -9.114802176260248
      ],
      [
        "E",
        -9.115534306774084
      ],
      [
        "开放",
        -9.116967976657312
      ],
      [
        "u",
        -9.117350888626634
      ],
      [
        "沟通",
        -9.118016305720616
      ],
      [
        "经验",
        -9.11818803045766
      ],
      [
        "儿童",
        -9.118267727280518
      ],
      [
        "她们",
        -9.118442725683153
      ],
      [
        "投入",
        -9.118617290115896
      ],
      [
        ",还是",
        -9.118822567004585
      ],
      [
        "注册",
        -9.119838715089001
      ],
      [
        "▁据",
        -9.120757707990295
      ],
      [
        "实践",
        -9.12095578886538
      ],
      [
        "距离",
        -9.121134242902261
      ],
      [
        "出去",
        -9.121455219846627
      ],
      [
        "的人,",
        -9.12229760517446
      ],
      [
        "代",
        -9.122894239822646
      ],
      [
        "从事",
        -9.12428395933027
      ],
      [
        "一天",
        -9.124597155740805
      ],
      [
        "楼",
        -9.125217936159082
      ],
      [
        "治疗",
        -9.125704901543878
      ],
      [
        "群众",
        -9.126796703466553
      ],
      [
        "搞",
        -9.127030628132639
      ],
      [
        "比赛",
        -9.127909582825325
      ],
      [
        "回家",
        -9.128156571469532
      ],
      [
        "群",
        -9.129214185452845
      ],
      [
        "儿子",
        -9.129623934600971
      ],
      [
        "灯",
        -9.130761387771905
      ],
      [
        "越南",
        -9.131588121678082
      ],
      [
        "整体",
        -9.131684712772133
      ],
      [
        "行动",
        -9.132499870040544
      ],
      [
        "还要",
        -9.135357313211646
      ],
      [
        "物",
        -9.135951105391813
      ],
      [
        "造成",
        -9.135983854703582
      ],
      [
        "D",
        -9.136366560177247
      ],
      [
        "通知",
        -9.136409222127664
      ],
      [
        "当然",
        -9.137278531885979
      ],
      [
        "假",
        -9.137687780541997
      ],
      [
        "基",
        -9.137884464965902
      ],
      [
        "穿",
        -9.137927147302097
      ],
      [
        "创业",
        -9.138340684001106
      ],
      [
        "法国",
        -9.13861759605674
      ],
      [
        "领",
        -9.138988897768556
      ],
      [
        "冷",
        -9.139200675364261
      ],
      [
        "职业",
        -9.13940043881313
      ],
      [
        "之间的",
        -9.140265470941873
      ],
      [
        "贸易",
        -9.140843476881058
      ],
      [
        "▁但",
        -9.141577360722088
      ],
      [
        "雷",
        -9.142823312420616
      ],
      [
        "可能会",
        -9.14289793333957
      ],
      [
        "不仅",
        -9.143546799598667
      ],
      [
        "它的",
        -9.14372972313714
      ],
      [
        "’",
        -9.143813009932199
      ],
      [
        "打开",
        -9.143890159778888
      ],
      [
        "担心",
        -9.144410078606086
      ],
      [
        "农村",
        -9.144474376259783
      ],
      [
        "值",
        -9.146076988169234
      ],
      [
        "独立",
        -9.147148805295412
      ],
      [
        "上述",
        -9.148246940644274
      ],
      [
        "飞机",
        -9.149690466493535
      ],
      [
        "说明",
        -9.150091799049429
      ],
      [
        "成了",
        -9.152402049157244
      ],
      [
        "第",
        -9.152632616104864
      ],
      [
        "韩国",
        -9.153204590347531
      ],
      [
        "战争",
        -9.153286758949882
      ],
      [
        "访问",
        -9.153448912543588
      ],
      [
        "三个",
        -9.153513348258304
      ],
      [
        "失",
        -9.153599108760371
      ],
      [
        "笔",
        -9.15371016017566
      ],
      [
        "是一种",
        -9.153979414614263
      ],
      [
        "保",
        -9.15422083733056
      ],
      [
        "M",
        -9.15426390441533
      ],
      [
        "G",
        -9.155018701677172
      ],
      [
        "生命",
        -9.155368383435643
      ],
      [
        "鱼",
        -9.156653771389458
      ],
      [
        "令人",
        -9.156942904176361
      ],
      [
        "人生",
        -9.158414711193359
      ],
      [
        ",这样",
        -9.159197660289799
      ],
      [
        "举行",
        -9.159352731986571
      ],
      [
        "短",
        -9.159432208270145
      ],
      [
        "版",
        -9.159524240460833
      ],
      [
        "传",
        -9.16021350482522
      ],
      [
        "晚上",
        -9.161179287730745
      ],
      [
        "永远",
        -9.161247419016215
      ],
      [
        "移动",
        -9.161914550260779
      ],
      [
        "强调",
        -9.16259580408022
      ],
      [
        "体系",
        -9.163918242741776
      ],
      [
        "百",
        -9.163955290354707
      ],
      [
        "过程",
        -9.164075694082024
      ],
      [
        "K",
        -9.164090370053907
      ],
      [
        "▁我们",
        -9.164294347557686
      ],
      [
        "每年",
        -9.164944888168783
      ],
      [
        "_",
        -9.165488144478136
      ],
      [
        "竞争",
        -9.16566280644312
      ],
      [
        "而言,",
        -9.166859640721466
      ],
      [
        "报道,",
        -9.1673074236999
      ],
      [
        "措施",
        -9.168082665167073
      ],
      [
        "落实",
        -9.169032594739049
      ],
      [
        "统一",
        -9.169607453567775
      ],
      [
        "担任",
        -9.169884273390338
      ],
      [
        "并不是",
        -9.169946993265281
      ],
      [
        "团",
        -9.170023756603605
      ],
      [
        "遇到",
        -9.170058458202321
      ],
      [
        "章",
        -9.170163133555224
      ],
      [
        "女儿",
        -9.170311127107565
      ],
      [
        "待",
        -9.171748533209307
      ],
      [
        "过来",
        -9.171814664471796
      ],
      [
        "床",
        -9.172088542767106
      ],
      [
        "交通",
        -9.172139604654348
      ],
      [
        "快速",
        -9.172336575338765
      ],
      [
        "树",
        -9.173047548748498
      ],
      [
        "咨询",
        -9.173129591503885
      ],
      [
        "思考",
        -9.173901067126955
      ],
      [
        "乐",
        -9.17392286251458
      ],
      [
        "本身",
        -9.175459970918405
      ],
      [
        "初",
        -9.175642056856393
      ],
      [
        "千",
        -9.175788029838749
      ],
      [
        "阶段",
        -9.176303162355364
      ],
      [
        "导致",
        -9.177094933554304
      ],
      [
        "油",
        -9.177110524906446
      ],
      [
        "患者",
        -9.178478822580253
      ],
      [
        "夫",
        -9.179600082300489
      ],
      [
        "店",
        -9.180804062219204
      ],
      [
        "站在",
        -9.18232469350951
      ],
      [
        "户",
        -9.182507064872212
      ],
      [
        "任",
        -9.182536446851548
      ],
      [
        "项",
        -9.183113248631194
      ],
      [
        "N",
        -9.183147514113847
      ],
      [
        "价",
        -9.184293753230449
      ],
      [
        "货",
        -9.1853509558277
      ],
      [
        "英",
        -9.185401985388467
      ],
      [
        "大力",
        -9.185819983844718
      ],
      [
        "岁",
        -9.186327204464288
      ],
      [
        "是不是",
        -9.186454228126074
      ],
      [
        "若",
        -9.186858873296488
      ],
      [
        "‘",
        -9.187030184754269
      ],
      [
        "考试",
        -9.187193746996059
      ],
      [
        "游",
        -9.187245978772513
      ],
      [
        "这位",
        -9.188621119559016
      ],
      [
        ",只是",
        -9.18932459299145
      ],
      [
        "岛",
        -9.190457235061185
      ],
      [
        "杀",
        -9.190797310984312
      ],
      [
        "制作",
        -9.190862068085421
      ],
      [
        "营销",
        -9.19198970326844
      ],
      [
        "烟",
        -9.192283429182423
      ],
      [
        "因素",
        -9.192440947973143
      ],
      [
        "民族",
        -9.192652894594207
      ],
      [
        "最高",
        -9.193304372281204
      ],
      [
        "核心",
        -9.193787826836381
      ],
      [
        "杨",
        -9.193839073927215
      ],
      [
        "」",
        -9.193849404292823
      ],
      [
        "任务",
        -9.195403748296851
      ],
      [
        "客",
        -9.195514938110346
      ],
      [
        ",即",
        -9.196427760390286
      ],
      [
        "设置",
        -9.196561034802421
      ],
      [
        "。因为",
        -9.197258887220844
      ],
      [
        "T",
        -9.19840766365608
      ],
      [
        "错",
        -9.19858485066569
      ],
      [
        "奖",
        -9.199474135145781
      ],
      [
        "九",
        -9.200627886787329
      ],
      [
        "14",
        -9.201337578317482
      ],
      [
        "逐渐",
        -9.201766069614482
      ],
      [
        ",其实",
        -9.201843165319769
      ],
      [
        "所有的",
        -9.202279683061953
      ],
      [
        "关键",
        -9.203839415677836
      ],
      [
        ",这些",
        -9.206359623497395
      ],
      [
        "令",
        -9.207361428180064
      ],
      [
        "不可",
        -9.20753685766478
      ],
      [
        "孩子们",
        -9.2077052173784
      ],
      [
        ",由",
        -9.208758493149425
      ],
      [
        "正常",
        -9.20896502943844
      ],
      [
        "都没有",
        -9.209069053048
      ],
      [
        "音乐",
        -9.209115774854125
      ],
      [
        "推荐",
        -9.210044594563223
      ],
      [
        "掌握",
        -9.210050116998874
      ],
      [
        "连续",
        -9.210143013982048
      ],
      [
        "成绩",
        -9.211030002257768
      ],
      [
        "m",
        -9.211475113053197
      ],
      [
        "七",
        -9.211635595541242
      ],
      [
        "成长",
        -9.211977650259097
      ],
      [
        "商品",
        -9.212572273340683
      ],
      [
        "台湾",
        -9.213571844253483
      ],
      [
        "心里",
        -9.214016225095314
      ],
      [
        "程度",
        -9.214512678841905
      ],
      [
        "层",
        -9.214613432694621
      ],
      [
        "体育",
        -9.214647965415082
      ],
      [
        "的方式",
        -9.215132375467064
      ],
      [
        "人士",
        -9.216291655735269
      ],
      [
        ",中国",
        -9.216759915101015
      ],
      [
        "挑战",
        -9.217448650468565
      ],
      [
        "成员",
        -9.218369558211592
      ],
      [
        "资产",
        -9.220282252313368
      ],
      [
        "分享",
        -9.220389294867044
      ],
      [
        "民",
        -9.220746759084657
      ],
      [
        "生态",
        -9.22101415727409
      ],
      [
        "至少",
        -9.221549976329724
      ],
      [
        "就像",
        -9.221907990073426
      ],
      [
        "挺",
        -9.222392848613906
      ],
      [
        "内部",
        -9.222557319380769
      ],
      [
        "+",
        -9.223344055978384
      ],
      [
        ",特别是",
        -9.223829186352168
      ],
      [
        "人口",
        -9.224444944176014
      ],
      [
        "2015年",
        -9.225093626406608
      ],
      [
        "。所以",
        -9.225102390286459
      ],
      [
        "古",
        -9.225451316484023
      ],
      [
        "来,",
        -9.225592558200965
      ],
      [
        "存",
        -9.225600659860465
      ],
      [
        "方案",
        -9.22658592480142
      ],
      [
        "刘",
        -9.22751902742457
      ],
      [
        "盘",
        -9.228778958766437
      ],
      [
        "品",
        -9.228940237367723
      ],
      [
        "哈",
        -9.230751160198448
      ],
      [
        "青",
        -9.231496789473738
      ],
      [
        "梦",
        -9.23217967560233
      ],
      [
        "法治",
        -9.232447865450842
      ],
      [
        "大量",
        -9.23347251336051
      ],
      [
        "处于",
        -9.233831378602233
      ],
      [
        "传播",
        -9.234043752125874
      ],
      [
        "知",
        -9.234089166078832
      ],
      [
        "座",
        -9.234212743147243
      ],
      [
        "值得",
        -9.235631181581814
      ],
      [
        "底",
        -9.235918294821996
      ],
      [
        "承担",
        -9.237338780875524
      ],
      [
        "展示",
        -9.237751468984444
      ],
      [
        ",从而",
        -9.23780797777749
      ],
      [
        "位置",
        -9.23799562342916
      ],
      [
        "画",
        -9.238466285842168
      ],
      [
        "轻",
        -9.23975144261193
      ],
      [
        "明确",
        -9.239994881695043
      ],
      [
        "测试",
        -9.240113218789798
      ],
      [
        "容易",
        -9.24026979070449
      ],
      [
        "创",
        -9.240615451189736
      ],
      [
        ",如",
        -9.240786958411634
      ],
      [
        "~",
        -9.240836436236696
      ],
      [
        "细",
        -9.24109710170983
      ],
      [
        "一张",
        -9.241292407337578
      ],
      [
        "夜",
        -9.24226970158283
      ],
      [
        "17",
        -9.2440568737577
      ],
      [
        ",只要",
        -9.244151987981652
      ],
      [
        "数字",
        -9.244307549212355
      ],
      [
        "现实",
        -9.244367968256558
      ],
      [
        "家长",
        -9.24441887575641
      ],
      [
        "▁如果",
        -9.245064876601463
      ],
      [
        "做了",
        -9.24583821834837
      ],
      [
        "同意",
        -9.246162392199544
      ],
      [
        ",都",
        -9.246167528775407
      ],
      [
        "命",
        -9.246892978777185
      ],
      [
        "动物",
        -9.247217084364532
      ],
      [
        "都在",
        -9.247290308859094
      ],
      [
        "波",
        -9.24743775372103
      ],
      [
        "运行",
        -9.247852992527289
      ],
      [
        "英语",
        -9.247950694111163
      ],
      [
        "协会",
        -9.248849598720138
      ],
      [
        "青年",
        -9.24920349300526
      ],
      [
        "保罗",
        -9.25017746842276
      ],
      [
        "高校",
        -9.250349960574917
      ],
      [
        "家里",
        -9.250533329226936
      ],
      [
        "还在",
        -9.25064708178468
      ],
      [
        "在中国",
        -9.251072940369484
      ],
      [
        ",通过",
        -9.251295861369098
      ],
      [
        "立即",
        -9.25261398719171
      ],
      [
        "绝对",
        -9.253681551444265
      ],
      [
        "给予",
        -9.25389184582007
      ],
      [
        "研发",
        -9.25639618485253
      ],
      [
        "不了",
        -9.256588253774806
      ],
      [
        "镇",
        -9.25775879196814
      ],
      [
        "扩大",
        -9.258672704022036
      ],
      [
        "c",
        -9.258797936190703
      ],
      [
        "照片",
        -9.26029157989719
      ],
      [
        "普",
        -9.260585180422957
      ],
      [
        "有限公司",
        -9.260618826648933
      ],
      [
        "事实",
        -9.26074687315677
      ],
      [
        "博",
        -9.2620524015747
      ],
      [
        ",使",
        -9.262169523662934
      ],
      [
        "优化",
        -9.262507592720093
      ],
      [
        "速度",
        -9.263542409206018
      ],
      [
        "下来",
        -9.265815609267035
      ],
      [
        "自我",
        -9.266730385189666
      ],
      [
        "实",
        -9.26717705311113
      ],
      [
        "优势",
        -9.268009043645012
      ],
      [
        "娱乐",
        -9.268075741364502
      ],
      [
        "多少",
        -9.269162638721035
      ],
      [
        "考",
        -9.269515946582047
      ],
      [
        "。她",
        -9.269599213669185
      ],
      [
        "诺",
        -9.270374868261168
      ],
      [
        "形式",
        -9.272474937890259
      ],
      [
        "当前",
        -9.272868543526222
      ],
      [
        "系",
        -9.273172347647375
      ],
      [
        "宣布",
        -9.273558830187824
      ],
      [
        "社区",
        -9.274777117444062
      ],
      [
        "雨",
        -9.274972770946569
      ],
      [
        "采用",
        -9.275525685339323
      ],
      [
        "将会",
        -9.276827744798606
      ],
      [
        "修改",
        -9.277360114149218
      ],
      [
        "设施",
        -9.277710761930972
      ],
      [
        "集中",
        -9.277905362493115
      ],
      [
        "n",
        -9.27799348124181
      ],
      [
        "深入",
        -9.278091692945207
      ],
      [
        "协调",
        -9.279134740142673
      ],
      [
        "的地方",
        -9.279583652316628
      ],
      [
        "电视",
        -9.280084281386426
      ],
      [
        "宝",
        -9.280110119813815
      ],
      [
        "坐在",
        -9.280876906845238
      ],
      [
        "多次",
        -9.281437588851919
      ],
      [
        "的工作",
        -9.28208219624701
      ],
      [
        "消息",
        -9.282461469043273
      ],
      [
        "案",
        -9.282465498674739
      ],
      [
        "指标",
        -9.283328300721063
      ],
      [
        "升级",
        -9.283638920439966
      ],
      [
        "端",
        -9.286685833700425
      ],
      [
        "最好",
        -9.287230326386805
      ],
      [
        "追",
        -9.287308955846616
      ],
      [
        "加入",
        -9.287921015512659
      ],
      [
        "规则",
        -9.288075594831618
      ],
      [
        "词",
        -9.288545094412878
      ],
      [
        "r",
        -9.28858254626983
      ],
      [
        "迪",
        -9.289109924600151
      ],
      [
        "尽",
        -9.289823315024524
      ],
      [
        "疾病",
        -9.289823748571555
      ],
      [
        "急",
        -9.289962959725225
      ],
      [
        "迅速",
        -9.292219714084453
      ],
      [
        "冲",
        -9.292693587243114
      ],
      [
        "监督",
        -9.293850657603652
      ],
      [
        "下面",
        -9.294985755572949
      ],
      [
        "的大",
        -9.295291361542755
      ],
      [
        "食品",
        -9.295430879379683
      ],
      [
        "恢复",
        -9.2956871652034
      ],
      [
        "显示",
        -9.296047314956796
      ],
      [
        "街",
        -9.296186071294663
      ],
      [
        "难以",
        -9.296410054345184
      ],
      [
        "k",
        -9.297906265364373
      ],
      [
        "的问题",
        -9.29793095095971
      ],
      [
        "基于",
        -9.300212772838245
      ],
      [
        "款",
        -9.300634520509249
      ],
      [
        "告诉",
        -9.300976367840075
      ],
      [
        "恩",
        -9.301605491350138
      ],
      [
        ",请",
        -9.3024506812305
      ],
      [
        "仍",
        -9.303147163012628
      ],
      [
        "翻",
        -9.304111382177599
      ],
      [
        "用于",
        -9.304525875806979
      ],
      [
        "运",
        -9.305245666480408
      ],
      [
        "经历",
        -9.305845735757208
      ],
      [
        "极",
        -9.305928856737182
      ],
      [
        "苦",
        -9.305954707438925
      ],
      [
        "爸爸",
        -9.30631825316742
      ],
      [
        "狗",
        -9.306786466090092
      ],
      [
        "环保",
        -9.308838626802778
      ],
      [
        "评估",
        -9.308840733225553
      ],
      [
        "尝试",
        -9.308894501681365
      ],
      [
        "退",
        -9.309612044036264
      ],
      [
        "然",
        -9.311138055657846
      ],
      [
        "衣",
        -9.31216920928243
      ],
      [
        "联合",
        -9.312752225210374
      ],
      [
        ",只有",
        -9.313135024781808
      ],
      [
        "观众",
        -9.313454044664153
      ],
      [
        "限制",
        -9.31348872844849
      ],
      [
        "移民",
        -9.314433028675122
      ],
      [
        "公司的",
        -9.314894154756317
      ],
      [
        "意见",
        -9.3149631124929
      ],
      [
        "刚刚",
        -9.315027289819898
      ],
      [
        "作用",
        -9.315270075488733
      ],
      [
        "首次",
        -9.315353331702003
      ],
      [
        "状态",
        -9.316553965182756
      ],
      [
        "奥",
        -9.31693421139623
      ],
      [
        "招",
        -9.318410659521831
      ],
      [
        "那里",
        -9.318656982576226
      ],
      [
        "好像",
        -9.318827827477083
      ],
      [
        "作出",
        -9.318972551425784
      ],
      [
        "有个",
        -9.321346502550783
      ],
      [
        "上了",
        -9.32171930204376
      ],
      [
        "――",
        -9.321793301103487
      ],
      [
        "相互",
        -9.32186532481428
      ],
      [
        "男",
        -9.322555645445728
      ],
      [
        "木",
        -9.32261039228224
      ],
      [
        "▁2、",
        -9.32304610947326
      ],
      [
        "亲",
        -9.323368866060786
      ],
      [
        "大部分",
        -9.323810287792615
      ],
      [
        "「",
        -9.324551406097168
      ],
      [
        "吉",
        -9.32597316598456
      ],
      [
        "著",
        -9.32646715025308
      ],
      [
        "协议",
        -9.326962544771202
      ],
      [
        "不想",
        -9.327109544535709
      ],
      [
        "美元",
        -9.32742587053309
      ],
      [
        "防",
        -9.32871983752836
      ],
      [
        "鼓励",
        -9.329444671889274
      ],
      [
        "农业",
        -9.329882085055623
      ],
      [
        "证明",
        -9.330551438438498
      ],
      [
        "节目",
        -9.330576205217577
      ],
      [
        "试",
        -9.331229422973912
      ],
      [
        "除",
        -9.331713477900387
      ],
      [
        "菜",
        -9.331908198962818
      ],
      [
        "香",
        -9.33293177655294
      ],
      [
        "总结",
        -9.333021511979577
      ],
      [
        "依然",
        -9.33320199156027
      ],
      [
        "观",
        -9.333294040290703
      ],
      [
        "F",
        -9.33331147504987
      ],
      [
        "及其",
        -9.335469596539783
      ],
      [
        "啊",
        -9.33640304440211
      ],
      [
        "d",
        -9.33677307880709
      ],
      [
        "停",
        -9.337311756514765
      ],
      [
        "整",
        -9.338676498803764
      ],
      [
        "相对",
        -9.339465094034722
      ],
      [
        "幸福",
        -9.339475670718627
      ],
      [
        "13",
        -9.340185530385174
      ],
      [
        "梅",
        -9.34116221764302
      ],
      [
        "放在",
        -9.34120305026393
      ],
      [
        "展",
        -9.341959473397115
      ],
      [
        "回来",
        -9.342098650277169
      ],
      [
        "前往",
        -9.342807274189763
      ],
      [
        "左右",
        -9.343296908473434
      ],
      [
        "中国的",
        -9.343698566707559
      ],
      [
        "免费",
        -9.344003541851137
      ],
      [
        "表",
        -9.344168014394945
      ],
      [
        "吧!",
        -9.344265496592755
      ],
      [
        "土",
        -9.344568303292778
      ],
      [
        "让他",
        -9.344947735227855
      ],
      [
        "巨大的",
        -9.345682758216075
      ],
      [
        "轮",
        -9.345684892181016
      ],
      [
        "余",
        -9.346286987004792
      ],
      [
        "到底",
        -9.347301025374634
      ],
      [
        "探索",
        -9.348138143318907
      ],
      [
        "切",
        -9.350134390058978
      ],
      [
        "分别",
        -9.350548751818035
      ],
      [
        "一边",
        -9.351747155643583
      ],
      [
        "晚",
        -9.351851578991383
      ],
      [
        "共享",
        -9.351879688896215
      ],
      [
        "果",
        -9.351974013476475
      ],
      [
        "之一",
        -9.352419694353031
      ],
      [
        "库",
        -9.352701645233687
      ],
      [
        "源",
        -9.353098187402948
      ],
      [
        "统计",
        -9.353342845396377
      ],
      [
        "顶",
        -9.353486206480564
      ],
      [
        "结",
        -9.35349024316216
      ],
      [
        "最好的",
        -9.353967388577495
      ],
      [
        "官方",
        -9.354642300340249
      ],
      [
        "人民币",
        -9.354781440043263
      ],
      [
        "中共",
        -9.355058135551737
      ],
      [
        "是我",
        -9.355905266923845
      ],
      [
        "明白",
        -9.356254890840962
      ],
      [
        "那种",
        -9.357457466439254
      ],
      [
        "多个",
        -9.357825417487541
      ],
      [
        "相当",
        -9.358347290624842
      ],
      [
        "压",
        -9.358820598558044
      ],
      [
        "变成",
        -9.358970792949899
      ],
      [
        "。从",
        -9.359465897521549
      ],
      [
        "涉及",
        -9.359479661430615
      ],
      [
        "基金",
        -9.360541302663853
      ],
      [
        "块",
        -9.36065241662853
      ],
      [
        "视",
        -9.36109809452638
      ],
      [
        "联",
        -9.3611029040169
      ],
      [
        "好,",
        -9.36173288610864
      ],
      [
        "车辆",
        -9.36255090481795
      ],
      [
        "法院",
        -9.365773454721063
      ],
      [
        "托",
        -9.36675644743606
      ],
      [
        "套",
        -9.367353047542661
      ],
      [
        "之一。",
        -9.368140288633672
      ],
      [
        "联盟",
        -9.368744534955894
      ],
      [
        "接触",
        -9.36947513604527
      ],
      [
        "机场",
        -9.369530611217119
      ],
      [
        "首先",
        -9.369617361056466
      ],
      [
        "官",
        -9.370038280545785
      ],
      [
        ",再",
        -9.370639733585584
      ],
      [
        "根本",
        -9.370679202082702
      ],
      [
        "评价",
        -9.370967761471238
      ],
      [
        "出口",
        -9.373453652584747
      ],
      [
        "p",
        -9.37372152979585
      ],
      [
        "其它",
        -9.374156408815434
      ],
      [
        "劳动",
        -9.374724011585071
      ],
      [
        "普通",
        -9.375657940701874
      ],
      [
        "拍摄",
        -9.375717566845266
      ],
      [
        "记录",
        -9.376642360286862
      ],
      [
        ",或者",
        -9.376673821452934
      ],
      [
        "房子",
        -9.376883005651585
      ],
      [
        "破",
        -9.376985823531392
      ],
      [
        "年龄",
        -9.377797470238217
      ],
      [
        "哪些",
        -9.377845471751664
      ],
      [
        "就能",
        -9.37952548697658
      ],
      [
        "文章",
        -9.379545884999045
      ],
      [
        "方便",
        -9.379784272224516
      ],
      [
        "港",
        -9.380084830187752
      ],
      [
        "还没有",
        -9.380410570756485
      ],
      [
        "教授",
        -9.380860593888904
      ],
      [
        "第一个",
        -9.380958541082158
      ],
      [
        "船",
        -9.381023418005775
      ],
      [
        "绿",
        -9.38201764541297
      ],
      [
        "案件",
        -9.383415264518458
      ],
      [
        "等。",
        -9.384198658724616
      ],
      [
        "付出",
        -9.384201450692832
      ],
      [
        "海外",
        -9.385077680358734
      ],
      [
        "资本",
        -9.385491388034822
      ],
      [
        "很多人",
        -9.387031327534746
      ],
      [
        "活动,",
        -9.387802985981821
      ],
      [
        "的是,",
        -9.387830299666687
      ],
      [
        "附近",
        -9.388314284229253
      ],
      [
        "兰",
        -9.388396307726573
      ],
      [
        "【",
        -9.392268692079352
      ],
      [
        "伊",
        -9.393119914708098
      ],
      [
        "2014年",
        -9.39444602645202
      ],
      [
        "背",
        -9.39603920704742
      ],
      [
        "牌",
        -9.396340674864543
      ],
      [
        "总统",
        -9.39638900640172
      ],
      [
        "做到",
        -9.396454202699813
      ],
      [
        "才是",
        -9.39681218090319
      ],
      [
        "更是",
        -9.398398194551861
      ],
      [
        "电脑",
        -9.39845164769513
      ],
      [
        "大多数",
        -9.399059151768899
      ],
      [
        "一块",
        -9.399488712433612
      ],
      [
        "律师",
        -9.40068689231876
      ],
      [
        "注意",
        -9.400946753709889
      ],
      [
        "塞",
        -9.401782239012785
      ],
      [
        "革命",
        -9.401872921420171
      ],
      [
        "反应",
        -9.402659985310635
      ],
      [
        "f",
        -9.403374728593317
      ],
      [
        "普遍",
        -9.403787141302521
      ],
      [
        "故事",
        -9.403848386862482
      ],
      [
        "尊重",
        -9.403861194136121
      ],
      [
        "怎样",
        -9.404200603983842
      ],
      [
        "就在",
        -9.404590953405156
      ],
      [
        "40",
        -9.405784339983134
      ],
      [
        "届",
        -9.40599016158702
      ],
      [
        ",目前",
        -9.406027739671277
      ],
      [
        "都要",
        -9.406056344273418
      ],
      [
        "让我们",
        -9.406145455268991
      ],
      [
        "不好",
        -9.40665832215939
      ],
      [
        "举办",
        -9.408939247735127
      ],
      [
        "跳",
        -9.408981390440397
      ],
      [
        "面前",
        -9.409153267061626
      ],
      [
        "苏",
        -9.409805801625929
      ],
      [
        "不再",
        -9.411359937806052
      ],
      [
        "行政",
        -9.412675118684389
      ],
      [
        "安装",
        -9.412741006177683
      ],
      [
        "不太",
        -9.413026899113156
      ],
      [
        "g",
        -9.413344769254076
      ],
      [
        "后来",
        -9.413532653792593
      ],
      [
        "厂",
        -9.41514032786252
      ],
      [
        "界",
        -9.415246591061724
      ],
      [
        "朝",
        -9.415504778462559
      ],
      [
        "充分",
        -9.415887764849966
      ],
      [
        "保险",
        -9.415934566378693
      ],
      [
        "实力",
        -9.415985947283582
      ],
      [
        "欢迎",
        -9.41718390534088
      ],
      [
        "起来,",
        -9.417468950721396
      ],
      [
        "肉",
        -9.41757052684627
      ],
      [
        "人家",
        -9.417572217068525
      ],
      [
        "股市",
        -9.417593894344483
      ],
      [
        "当中",
        -9.417711149647452
      ],
      [
        "造",
        -9.418223105581564
      ],
      [
        "的新",
        -9.419038380189775
      ],
      [
        "哪",
        -9.420160415778287
      ],
      [
        "铁",
        -9.420233478308493
      ],
      [
        "增",
        -9.420443667065662
      ],
      [
        "广泛",
        -9.420923602321935
      ],
      [
        "在美国",
        -9.421241807382046
      ],
      [
        "意大利",
        -9.42139992580725
      ],
      [
        "60",
        -9.421544042178473
      ],
      [
        "重视",
        -9.42197555717976
      ],
      [
        "所以",
        -9.422258635198425
      ],
      [
        "架",
        -9.422341427677175
      ],
      [
        "哭",
        -9.423115830755172
      ],
      [
        "16",
        -9.423121655272244
      ],
      [
        "公共",
        -9.42313659474499
      ],
      [
        "史",
        -9.423678118920694
      ],
      [
        "b",
        -9.423747833957897
      ],
      [
        "感谢",
        -9.424267250420073
      ],
      [
        "即",
        -9.424467303308333
      ],
      [
        "判断",
        -9.424835951288966
      ],
      [
        ",除了",
        -9.425011696983844
      ],
      [
        "紧",
        -9.425224592711526
      ],
      [
        "段",
        -9.425737296025131
      ],
      [
        "每一个",
        -9.426868231564956
      ],
      [
        "观察",
        -9.427063654462492
      ],
      [
        "澳大利亚",
        -9.427658774797607
      ],
      [
        "有所",
        -9.42837691353823
      ],
      [
        "歌",
        -9.428821887226594
      ],
      [
        "方面,",
        -9.42919228124888
      ],
      [
        "两人",
        -9.429531692665883
      ],
      [
        "眼睛",
        -9.43009028942976
      ],
      [
        "结束",
        -9.430814764673844
      ],
      [
        "公园",
        -9.431509506101573
      ],
      [
        "的生活",
        -9.431590327980661
      ],
      [
        "现",
        -9.431727985528607
      ],
      [
        "丽",
        -9.431844585105084
      ],
      [
        "更新",
        -9.432307006070532
      ],
      [
        "集",
        -9.432573133794735
      ],
      [
        "大型",
        -9.433003019514846
      ],
      [
        "众多",
        -9.43309369357759
      ],
      [
        "。因此,",
        -9.433190337509902
      ],
      [
        "就要",
        -9.433428601792532
      ],
      [
        "特殊",
        -9.433649870810694
      ],
      [
        "男子",
        -9.433868960304746
      ],
      [
        "税",
        -9.434106135715972
      ],
      [
        "大约",
        -9.434876769661365
      ],
      [
        "足",
        -9.435694673931856
      ],
      [
        ",更",
        -9.43572907115461
      ],
      [
        "▁从",
        -9.436297670889486
      ],
      [
        "较",
        -9.436355930061055
      ],
      [
        "寻找",
        -9.436434852456024
      ],
      [
        "渠道",
        -9.436938490990936
      ],
      [
        "出现了",
        -9.437851483016136
      ],
      [
        "罪",
        -9.437862145285699
      ],
      [
        "不得",
        -9.437899781406092
      ],
      [
        "弄",
        -9.438349789048598
      ],
      [
        "解",
        -9.438532824393608
      ],
      [
        "降低",
        -9.438798681192823
      ],
      [
        "藏",
        -9.43884880849695
      ],
      [
        "做的",
        -9.439206141432567
      ],
      [
        "纸",
        -9.439707503430954
      ],
      [
        "9月",
        -9.440358682308817
      ],
      [
        "些",
        -9.440984919773964
      ],
      [
        "给他",
        -9.441079056807322
      ],
      [
        "贵",
        -9.441085603611223
      ],
      [
        "室",
        -9.441351195352812
      ],
      [
        "毛",
        -9.441875328813733
      ],
      [
        "死亡",
        -9.443388315878263
      ],
      [
        "竟然",
        -9.443787727274845
      ],
      [
        "心中",
        -9.444595987593132
      ],
      [
        "接近",
        -9.444664973277078
      ],
      [
        "击",
        -9.444817832016247
      ],
      [
        "医疗",
        -9.445196615221633
      ],
      [
        ",由于",
        -9.445554625689391
      ],
      [
        "年轻",
        -9.445955279611134
      ],
      [
        "老人",
        -9.446039889493319
      ],
      [
        "▁「",
        -9.446295702037528
      ],
      [
        "草",
        -9.446558861857033
      ],
      [
        "合理",
        -9.446824335322148
      ],
      [
        "复杂",
        -9.44760726457474
      ],
      [
        ",当",
        -9.447819130124888
      ],
      [
        "往往",
        -9.447988876263906
      ],
      [
        "集体",
        -9.448725837429322
      ],
      [
        "思",
        -9.449618038566932
      ],
      [
        "目的",
        -9.449748459074819
      ],
      [
        "力量",
        -9.449772199846947
      ],
      [
        "上面",
        -9.450076781692506
      ],
      [
        "身边",
        -9.450772689148236
      ],
      [
        "方向",
        -9.45118597851889
      ],
      [
        "但是",
        -9.45166406980163
      ],
      [
        "应对",
        -9.451697737982443
      ],
      [
        "具备",
        -9.452007902890493
      ],
      [
        "然后",
        -9.452134432341818
      ],
      [
        "不用",
        -9.452377334804211
      ],
      [
        "系列",
        -9.45258057726764
      ],
      [
        "亮",
        -9.452607171006338
      ],
      [
        "鸡",
        -9.453358282794813
      ],
      [
        "道德",
        -9.453802110601217
      ],
      [
        "特朗普",
        -9.454438609589047
      ],
      [
        "提交",
        -9.454502009042711
      ],
      [
        "▁3、",
        -9.454575539529163
      ],
      [
        "额",
        -9.454623421504659
      ],
      [
        "U",
        -9.454631439919783
      ],
      [
        "何",
        -9.455326251937429
      ],
      [
        "放弃",
        -9.456938553805227
      ],
      [
        "官员",
        -9.457359664851836
      ],
      [
        "易",
        -9.45752781798415
      ],
      [
        "产",
        -9.457636685935345
      ],
      [
        "良好的",
        -9.45781961883154
      ],
      [
        "副",
        -9.459142801194698
      ],
      [
        "圣",
        -9.460428335240607
      ],
      [
        "实验",
        -9.46049087978964
      ],
      [
        "吧",
        -9.460678856729299
      ],
      [
        "让你",
        -9.460988364780786
      ],
      [
        "回去",
        -9.461755809732717
      ],
      [
        "作者",
        -9.461904946155524
      ],
      [
        "我就",
        -9.46230991654279
      ],
      [
        "电子",
        -9.462347870537307
      ],
      [
        "收购",
        -9.46239495498532
      ],
      [
        "也就",
        -9.462422325198613
      ],
      [
        "引起",
        -9.462550858044617
      ],
      [
        "刚才",
        -9.462938397173897
      ],
      [
        "会员",
        -9.463250318070337
      ],
      [
        "动力",
        -9.464445834220424
      ],
      [
        ",而不是",
        -9.465346678075317
      ],
      [
        "土地",
        -9.465680898223708
      ],
      [
        "人。",
        -9.46571941970089
      ],
      [
        "信任",
        -9.465724416469982
      ],
      [
        "充满",
        -9.466138389863254
      ],
      [
        "随",
        -9.466388718402609
      ],
      [
        "顺",
        -9.467035782245631
      ],
      [
        "真实",
        -9.467758942057515
      ],
      [
        "背景",
        -9.468185085084473
      ],
      [
        "是“",
        -9.468221823782464
      ],
      [
        "弟弟",
        -9.468445504031656
      ],
      [
        "牛",
        -9.468737152551203
      ],
      [
        "an",
        -9.46987749332149
      ],
      [
        "互动",
        -9.470069601937672
      ],
      [
        "物质",
        -9.470988531472733
      ],
      [
        "森",
        -9.47150194253042
      ],
      [
        "父亲",
        -9.471932541651167
      ],
      [
        "另一个",
        -9.471983981261964
      ],
      [
        "网上",
        -9.47202016396821
      ],
      [
        "在一起",
        -9.472458258936163
      ],
      [
        "结婚",
        -9.473229484268918
      ],
      [
        "湖",
        -9.473382742084095
      ],
      [
        "游客",
        -9.473717441100137
      ],
      [
        "态度",
        -9.474461505873547
      ],
      [
        "雪",
        -9.475793614330286
      ],
      [
        "清楚",
        -9.475832893893678
      ],
      [
        "改善",
        -9.476034633388053
      ],
      [
        "期待",
        -9.476594910411372
      ],
      [
        "性的",
        -9.476990419301373
      ],
      [
        "谈判",
        -9.477619087121415
      ],
      [
        "依据",
        -9.477839110602043
      ],
      [
        "会有",
        -9.477878193137357
      ],
      [
        "里的",
        -9.478149742650821
      ],
      [
        "读书",
        -9.478357386642774
      ],
      [
        ",只",
        -9.479819795497901
      ],
      [
        "功",
        -9.479860859812593
      ],
      [
        "士",
        -9.48000271604405
      ],
      [
        "吸引",
        -9.48001372056551
      ],
      [
        "拒绝",
        -9.480027136102045
      ],
      [
        "春",
        -9.480055711978995
      ],
      [
        "另外",
        -9.480230496007962
      ],
      [
        "人物",
        -9.481093597617882
      ],
      [
        "加拿大",
        -9.481287972787195
      ],
      [
        ",用",
        -9.48173994813806
      ],
      [
        "允许",
        -9.48312009850638
      ],
      [
        "鬼",
        -9.485236024936217
      ],
      [
        "。这是",
        -9.486242967117686
      ],
      [
        "工具",
        -9.487655192609553
      ],
      [
        "80",
        -9.488297894753297
      ],
      [
        "昨天",
        -9.488639180679458
      ],
      [
        "报道",
        -9.48923314824043
      ],
      [
        "。他们",
        -9.489446352711266
      ],
      [
        "呢,",
        -9.489691140716115
      ],
      [
        "er",
        -9.490112541653723
      ],
      [
        "工作的",
        -9.491251263900894
      ],
      [
        "中国人",
        -9.491258994066442
      ],
      [
        ",最后",
        -9.49163986162121
      ],
      [
        "旧",
        -9.491822787764285
      ],
      [
        "准确",
        -9.491838744507792
      ],
      [
        "需",
        -9.492899005691324
      ],
      [
        "▁对于",
        -9.493146558208046
      ],
      [
        "帮",
        -9.493155600083142
      ],
      [
        "确保",
        -9.493266256480418
      ],
      [
        "设",
        -9.49340983064965
      ],
      [
        "老板",
        -9.493481277568735
      ],
      [
        "O",
        -9.493843081218413
      ],
      [
        "状况",
        -9.49427352466911
      ],
      [
        "原本",
        -9.494495235676775
      ],
      [
        "高度",
        -9.494636151239755
      ],
      [
        "手段",
        -9.495052655095723
      ],
      [
        "也没有",
        -9.495279377985554
      ],
      [
        "高级",
        -9.496259480892508
      ],
      [
        "零",
        -9.496320793375624
      ],
      [
        "好好",
        -9.496328288889135
      ],
      [
        "》,",
        -9.496654669406407
      ],
      [
        "看起来",
        -9.496850726025734
      ],
      [
        "的事",
        -9.49731470414251
      ],
      [
        "质",
        -9.497523270969477
      ],
      [
        "政",
        -9.497765610380608
      ],
      [
        "福",
        -9.498719654513696
      ],
      [
        "打造",
        -9.499350437941587
      ],
      [
        "真是",
        -9.499402740637667
      ],
      [
        "板",
        -9.500107489553935
      ],
      [
        "各类",
        -9.500423727376319
      ],
      [
        "田",
        -9.500937568782277
      ],
      [
        "I",
        -9.501297240876948
      ],
      [
        "部署",
        -9.501336599102673
      ],
      [
        "平均",
        -9.501357953041179
      ],
      [
        "事故",
        -9.501382940880879
      ],
      [
        "方面的",
        -9.501676505496953
      ],
      [
        "关心",
        -9.501728471699412
      ],
      [
        "环",
        -9.502486430038957
      ],
      [
        "运用",
        -9.502559525246529
      ],
      [
        "断",
        -9.503192469096792
      ],
      [
        "啊!",
        -9.505420302870334
      ],
      [
        "通信",
        -9.505480630719767
      ],
      [
        "散",
        -9.506031603019562
      ],
      [
        "快乐",
        -9.506305413539337
      ],
      [
        "不管",
        -9.506369415385748
      ],
      [
        "也可以",
        -9.506609573603804
      ],
      [
        "这个问题",
        -9.506934264195692
      ],
      [
        "依法",
        -9.507198035863468
      ],
      [
        "不可能",
        -9.507300739411214
      ],
      [
        "衣服",
        -9.508398747056459
      ],
      [
        "以为",
        -9.50922663284836
      ],
      [
        "微",
        -9.509302446239245
      ],
      [
        "抽",
        -9.50966651202062
      ],
      [
        "”、“",
        -9.510065173210137
      ],
      [
        "或许",
        -9.510275086907551
      ],
      [
        "原来",
        -9.51047308367154
      ],
      [
        "是什么",
        -9.510759294267917
      ],
      [
        "毒",
        -9.51098257923909
      ],
      [
        "澳门",
        -9.511451498023556
      ],
      [
        "富",
        -9.511702134487852
      ],
      [
        "广大",
        -9.511761323421894
      ],
      [
        "精",
        -9.511786915304635
      ],
      [
        "大陆",
        -9.5120839350328
      ],
      [
        "出来的",
        -9.51215647322115
      ],
      [
        "犯",
        -9.51250535356437
      ],
      [
        "w",
        -9.51254578650536
      ],
      [
        "音",
        -9.51289906715637
      ],
      [
        "伤害",
        -9.513466281109391
      ],
      [
        "R",
        -9.513525276464907
      ],
      [
        "印度",
        -9.514869666435882
      ],
      [
        "200",
        -9.515098894714516
      ],
      [
        "重要的",
        -9.515388596755175
      ],
      [
        "区块链",
        -9.515766237157125
      ],
      [
        "抢",
        -9.516166997499901
      ],
      [
        "还没",
        -9.516266582581533
      ],
      [
        "警察",
        -9.516494615385886
      ],
      [
        "职",
        -9.51672353400275
      ],
      [
        "排名",
        -9.516815125022596
      ],
      [
        "既",
        -9.517159734663423
      ],
      [
        "太多",
        -9.51716095737293
      ],
      [
        "召开",
        -9.517841364060178
      ],
      [
        "广",
        -9.519233739641713
      ],
      [
        "网友",
        -9.520146838214345
      ],
      [
        "对话",
        -9.520154932422802
      ],
      [
        "展开",
        -9.520226329364416
      ],
      [
        "因此",
        -9.520329726132484
      ],
      [
        "带来的",
        -9.520576588584781
      ],
      [
        "手术",
        -9.520807488168508
      ],
      [
        "大概",
        -9.521535471289068
      ],
      [
        "H",
        -9.522884650117915
      ],
      [
        "流程",
        -9.523331081577084
      ],
      [
        "莫",
        -9.523834102457712
      ],
      [
        "温",
        -9.523902901002135
      ],
      [
        "5年",
        -9.523958102953195
      ],
      [
        "玉",
        -9.524175905963705
      ],
      [
        "就有",
        -9.524488970996888
      ],
      [
        "▁【",
        -9.524561018320915
      ],
      [
        "机制",
        -9.525345447257646
      ],
      [
        "恶",
        -9.525946167632636
      ],
      [
        "年轻人",
        -9.525960574367213
      ],
      [
        "留下",
        -9.527654418374416
      ],
      [
        "致",
        -9.527820408219725
      ],
      [
        "减",
        -9.5281506814266
      ],
      [
        "服",
        -9.528816053801261
      ],
      [
        "丈夫",
        -9.529678357067862
      ],
      [
        "痛",
        -9.530606867244403
      ],
      [
        "灵",
        -9.53093061773998
      ],
      [
        "更好的",
        -9.530980827968868
      ],
      [
        "主席",
        -9.532250832973217
      ],
      [
        "警方",
        -9.532833022485375
      ],
      [
        "机关",
        -9.534463514140942
      ],
      [
        "升",
        -9.53451502051374
      ],
      [
        "居",
        -9.534743594960805
      ],
      [
        "突破",
        -9.534775716666719
      ],
      [
        "7月",
        -9.534785427256782
      ],
      [
        "生存",
        -9.535053246739004
      ],
      [
        "智能",
        -9.536311151321708
      ],
      [
        "10月",
        -9.537162135480678
      ],
      [
        "适合",
        -9.538787741875705
      ],
      [
        "一段",
        -9.538907718857894
      ],
      [
        "100",
        -9.539989514354852
      ],
      [
        "以后,",
        -9.540052064905634
      ],
      [
        "身份",
        -9.540785083460268
      ],
      [
        "最大",
        -9.541148054246705
      ],
      [
        "兴",
        -9.541827414032312
      ],
      [
        "压力",
        -9.544230203713905
      ],
      [
        "▁...",
        -9.544992358983622
      ],
      [
        "提前",
        -9.545577658870831
      ],
      [
        "非法",
        -9.546286054248423
      ],
      [
        "社",
        -9.546989639702792
      ],
      [
        "情绪",
        -9.547210253809023
      ],
      [
        "对手",
        -9.548434336262506
      ],
      [
        "的声音",
        -9.548725380229005
      ],
      [
        "贡献",
        -9.548776069547673
      ],
      [
        "严格",
        -9.54882413824436
      ],
      [
        "技能",
        -9.548988256538632
      ],
      [
        "办理",
        -9.549053411516638
      ],
      [
        "工厂",
        -9.549147468712537
      ],
      [
        "西班牙",
        -9.549233886811924
      ],
      [
        "定位",
        -9.549707129362098
      ],
      [
        ",最终",
        -9.550493492119347
      ],
      [
        "则是",
        -9.5506765399175
      ],
      [
        "▁[",
        -9.551038306446856
      ],
      [
        "下午",
        -9.551574728715813
      ],
      [
        "对象",
        -9.551846466980846
      ],
      [
        "不敢",
        -9.552124248169978
      ],
      [
        ",且",
        -9.552236519039832
      ],
      [
        "餐",
        -9.55333984302914
      ],
      [
        "两年",
        -9.55377107686618
      ],
      [
        "深圳",
        -9.55396015766145
      ],
      [
        "的问题,",
        -9.555498065548893
      ],
      [
        "比特币",
        -9.5570800939113
      ],
      [
        "V",
        -9.557479475204808
      ],
      [
        "配",
        -9.557856925752956
      ],
      [
        "唯一",
        -9.557928975210507
      ],
      [
        "我也",
        -9.558064288847396
      ],
      [
        "很快",
        -9.558453265289529
      ],
      [
        "面积",
        -9.55854081565457
      ],
      [
        "负",
        -9.559255749436197
      ],
      [
        "纽约",
        -9.559987484811824
      ],
      [
        "慢慢",
        -9.560158617725921
      ],
      [
        "以来",
        -9.560697457206569
      ],
      [
        "三年",
        -9.561037467149657
      ],
      [
        "卫",
        -9.561302352901732
      ],
      [
        "想到",
        -9.561515935877967
      ],
      [
        "适应",
        -9.563501881191616
      ],
      [
        "据",
        -9.564788152779094
      ],
      [
        "11月",
        -9.564936965070359
      ],
      [
        "说话",
        -9.565197460460524
      ],
      [
        "冰",
        -9.565237763326122
      ],
      [
        "融资",
        -9.565644618751211
      ],
      [
        "主题",
        -9.566174448273404
      ],
      [
        "丰富",
        -9.566314634751027
      ],
      [
        "连接",
        -9.56834534669256
      ],
      [
        "明天",
        -9.568570892981532
      ],
      [
        "沙",
        -9.568916800796824
      ],
      [
        "本人",
        -9.569507041898923
      ],
      [
        "推出",
        -9.569801321322604
      ],
      [
        "哥",
        -9.570334144296696
      ],
      [
        "真正的",
        -9.57034068032709
      ],
      [
        "看到了",
        -9.570389962068763
      ],
      [
        "记得",
        -9.570482424155395
      ],
      [
        "财务",
        -9.571262700643052
      ],
      [
        "干部",
        -9.57147200757958
      ],
      [
        "食",
        -9.572128137778556
      ],
      [
        "看见",
        -9.572170452221341
      ],
      [
        "密",
        -9.572709418521187
      ],
      [
        "面临",
        -9.572903308144166
      ],
      [
        "周围",
        -9.572971888923181
      ],
      [
        "洗",
        -9.573080198755807
      ],
      [
        "各项",
        -9.573633455603641
      ],
      [
        "反对",
        -9.573729025003528
      ],
      [
        "提醒",
        -9.57380877495472
      ],
      [
        "出生",
        -9.574671938789102
      ],
      [
        "确认",
        -9.57468737098103
      ],
      [
        "预计",
        -9.575101106192339
      ],
      [
        "的身体",
        -9.577076273440028
      ],
      [
        "曲",
        -9.577285510830519
      ],
      [
        "亚洲",
        -9.577358180831608
      ],
      [
        "财政",
        -9.577432533803371
      ],
      [
        "步",
        -9.578838171729387
      ],
      [
        "小编",
        -9.579588766609001
      ],
      [
        "对此",
        -9.580179190247499
      ],
      [
        "自动",
        -9.580243601224922
      ],
      [
        "22",
        -9.580269693638119
      ],
      [
        "形象",
        -9.580453566363495
      ],
      [
        "房地产",
        -9.580725235342886
      ],
      [
        "效率",
        -9.58142356058758
      ],
      [
        "办公室",
        -9.581451454834795
      ],
      [
        ",一个",
        -9.581634838656257
      ],
      [
        "表达",
        -9.582036370790233
      ],
      [
        "突出",
        -9.58295242723312
      ],
      [
        "2013年",
        -9.583372495747755
      ],
      [
        "永",
        -9.58351690989383
      ],
      [
        "戏",
        -9.584358186774285
      ],
      [
        "获",
        -9.584509997217975
      ],
      [
        "敢",
        -9.58456476598372
      ],
      [
        "都不",
        -9.584565356436823
      ],
      [
        "在线",
        -9.58528914470099
      ],
      [
        "年度",
        -9.585381244523823
      ],
      [
        "新疆",
        -9.586048554896033
      ],
      [
        "的主要",
        -9.587437372571873
      ],
      [
        "救",
        -9.587554827244546
      ],
      [
        "紧张",
        -9.587558886406045
      ],
      [
        "卫生",
        -9.587801928365126
      ],
      [
        "说。",
        -9.587816806674073
      ],
      [
        "去了",
        -9.588035779296202
      ],
      [
        "资",
        -9.588809744253371
      ],
      [
        "专门",
        -9.58906478862568
      ],
      [
        "计算",
        -9.589990990617824
      ],
      [
        "逐步",
        -9.590720330906446
      ],
      [
        "倍",
        -9.591019986738484
      ],
      [
        "公布",
        -9.591891551113154
      ],
      [
        "创建",
        -9.59406871701788
      ],
      [
        "住房",
        -9.594159554445055
      ],
      [
        "实行",
        -9.594567248141393
      ],
      [
        "签证",
        -9.595412564193472
      ],
      [
        "发展的",
        -9.595437492158576
      ],
      [
        ",我就",
        -9.595813944517404
      ],
      [
        "主任",
        -9.595879953125575
      ],
      [
        "上升",
        -9.595995071669737
      ],
      [
        "发行",
        -9.59607812818578
      ],
      [
        "题",
        -9.59761173330829
      ],
      [
        "主义",
        -9.597677268108804
      ],
      [
        "愿",
        -9.597747770433271
      ],
      [
        "借",
        -9.598242283951475
      ],
      [
        "补",
        -9.599252480819235
      ],
      [
        "俱乐部",
        -9.599596233901218
      ],
      [
        "刺激",
        -9.599697468863672
      ],
      [
        "文明",
        -9.599868448873572
      ],
      [
        "十年",
        -9.600043009646239
      ],
      [
        "25",
        -9.600304092872912
      ],
      [
        "懂",
        -9.600576648240313
      ],
      [
        "..",
        -9.600911743812425
      ],
      [
        "也要",
        -9.602123193515446
      ],
      [
        "正是",
        -9.602535255075598
      ],
      [
        "大会",
        -9.60269505395965
      ],
      [
        "园",
        -9.60360713649214
      ],
      [
        "2012年",
        -9.603915117387636
      ],
      [
        "困难",
        -9.604357838952298
      ],
      [
        "族",
        -9.604540027499754
      ],
      [
        "。虽然",
        -9.604710524292457
      ],
      [
        "计",
        -9.605076151869415
      ],
      [
        "群体",
        -9.606643721842923
      ],
      [
        "不足",
        -9.606877933423757
      ],
      [
        "起,",
        -9.606933354369232
      ],
      [
        "缺乏",
        -9.606937350314741
      ],
      [
        "最重要的",
        -9.607140385747698
      ],
      [
        "佛",
        -9.607254724820459
      ],
      [
        ",这种",
        -9.607312350254304
      ],
      [
        "和平",
        -9.607697860556915
      ],
      [
        "评论",
        -9.608262505603173
      ],
      [
        "攻击",
        -9.60841890797964
      ],
      [
        "收集",
        -9.608547629563109
      ],
      [
        "守",
        -9.608580179555869
      ],
      [
        "实验室",
        -9.609376580586556
      ],
      [
        "批准",
        -9.609456324389388
      ],
      [
        "配合",
        -9.610073858905139
      ],
      [
        "优秀",
        -9.61040522716301
      ],
      [
        "汉",
        -9.61042198704778
      ],
      [
        "通常",
        -9.610427891165603
      ],
      [
        "破坏",
        -9.610724576939798
      ],
      [
        "忙",
        -9.611562788534831
      ],
      [
        "危机",
        -9.612369356937245
      ],
      [
        "是因为",
        -9.61444186889586
      ],
      [
        "失败",
        -9.615825394956655
      ],
      [
        "进去",
        -9.615931196459304
      ],
      [
        "一片",
        -9.616249406963613
      ],
      [
        "失去",
        -9.61638067633585
      ],
      [
        "早餐",
        -9.616546397916798
      ],
      [
        "基地",
        -9.616747932026332
      ],
      [
        "很少",
        -9.616941805548139
      ],
      [
        "出席",
        -9.617010211670863
      ],
      [
        "伊朗",
        -9.61719118310397
      ],
      [
        "环节",
        -9.617293937693809
      ],
      [
        "提出了",
        -9.61731095779533
      ],
      [
        "武",
        -9.61848390285061
      ],
      [
        "宗教",
        -9.61876663419199
      ],
      [
        "服务器",
        -9.619272034394367
      ],
      [
        "计算机",
        -9.620109601478752
      ],
      [
        "一旦",
        -9.62025695658265
      ],
      [
        "邀请",
        -9.620265579397739
      ],
      [
        "饭",
        -9.62142922243607
      ],
      [
        "说:",
        -9.6214537716493
      ],
      [
        "痛苦",
        -9.621577211653335
      ],
      [
        "演出",
        -9.622711490405543
      ],
      [
        "的情况",
        -9.622781589444362
      ],
      [
        "策略",
        -9.622820493510396
      ],
      [
        "发出",
        -9.622841048946947
      ],
      [
        "▁2.",
        -9.623287909059304
      ],
      [
        "的情况下,",
        -9.62329109877513
      ],
      [
        "当天",
        -9.624201187687703
      ],
      [
        "宁",
        -9.624294952787809
      ],
      [
        "广东",
        -9.62445167214743
      ],
      [
        "兵",
        -9.625280674791838
      ],
      [
        "洛",
        -9.625672850673135
      ],
      [
        "博士",
        -9.625844341015949
      ],
      [
        "补充",
        -9.626016895335674
      ],
      [
        "al",
        -9.62632435652532
      ],
      [
        "国外",
        -9.626437436192042
      ],
      [
        "既然",
        -9.62665752439856
      ],
      [
        "污染",
        -9.627008218340567
      ],
      [
        "想象",
        -9.627258944471636
      ],
      [
        "广场",
        -9.62736595699255
      ],
      [
        "天气",
        -9.6282651648035
      ],
      [
        "re",
        -9.62843992665756
      ],
      [
        "也许",
        -9.628457807816357
      ],
      [
        "概念",
        -9.628466899708254
      ],
      [
        "--",
        -9.628622857474028
      ],
      [
        "过了",
        -9.628794625248648
      ],
      [
        "工资",
        -9.628819291755313
      ],
      [
        "胡",
        -9.629630799265275
      ],
      [
        "才会",
        -9.629776716046862
      ],
      [
        "良好",
        -9.6303197737896
      ],
      [
        "。此外,",
        -9.630775091239098
      ],
      [
        "。同时,",
        -9.630897930305778
      ],
      [
        "提到",
        -9.631118841066828
      ],
      [
        "论",
        -9.631211384732541
      ],
      [
        "欧盟",
        -9.631413317175795
      ],
      [
        "票",
        -9.631615532391711
      ],
      [
        "小学",
        -9.632374277108365
      ],
      [
        "本来",
        -9.63243246274373
      ],
      [
        "最新",
        -9.632686287156224
      ],
      [
        "苹果",
        -9.633166565422957
      ],
      [
        "理由",
        -9.633292679012659
      ],
      [
        "▁这",
        -9.633710488185356
      ],
      [
        "...[",
        -9.634312430858508
      ],
      [
        "▁1.",
        -9.634779065634945
      ],
      [
        "农民",
        -9.63485224450401
      ],
      [
        "股",
        -9.634932174919825
      ],
      [
        "治理",
        -9.635010899871588
      ],
      [
        "面试",
        -9.635332256879469
      ],
      [
        "走了",
        -9.636473960010807
      ],
      [
        "私人",
        -9.636684496466229
      ],
      [
        "有没有",
        -9.636731266884015
      ],
      [
        "弹",
        -9.636832763549748
      ],
      [
        ",提高",
        -9.637809010321835
      ],
      [
        "决策",
        -9.638129498011613
      ],
      [
        "刀",
        -9.638439905208893
      ],
      [
        "坏",
        -9.63887609782991
      ],
      [
        "样",
        -9.639858389566943
      ],
      [
        "萨",
        -9.640760266123158
      ],
      [
        "领导人",
        -9.64163920233935
      ],
      [
        "一只",
        -9.641649991582236
      ],
      [
        "W",
        -9.641726415491831
      ],
      [
        "的方法",
        -9.641769447337992
      ],
      [
        "不得不",
        -9.641874888238373
      ],
      [
        "印",
        -9.642130725030924
      ],
      [
        "学会",
        -9.642281157762511
      ],
      [
        "▁“你",
        -9.642374798985557
      ],
      [
        "一项",
        -9.642419981805524
      ],
      [
        "索",
        -9.642668037655085
      ],
      [
        "孙",
        -9.642817636691948
      ],
      [
        "照顾",
        -9.642905616916444
      ],
      [
        "损失",
        -9.642994004836837
      ],
      [
        "人工智能",
        -9.643332335120656
      ],
      [
        "新加坡",
        -9.643414575329226
      ],
      [
        ",当时",
        -9.643519486376352
      ],
      [
        "杰",
        -9.643693624222283
      ],
      [
        "感受到",
        -9.643854326050338
      ],
      [
        "支撑",
        -9.643958490462925
      ],
      [
        "的地方,",
        -9.643963906728043
      ],
      [
        "▁她",
        -9.643989101707675
      ],
      [
        "24",
        -9.644312399691394
      ],
      [
        "打击",
        -9.644617683442565
      ],
      [
        "家人",
        -9.645524799034298
      ],
      [
        ",不仅",
        -9.645978241407065
      ],
      [
        "并非",
        -9.64663139180243
      ],
      [
        "最佳",
        -9.647030936113254
      ],
      [
        "民主",
        -9.647342805295317
      ],
      [
        "动作",
        -9.647454304333571
      ],
      [
        "等方面",
        -9.648336162270564
      ],
      [
        "专",
        -9.648489081853604
      ],
      [
        "的。”",
        -9.649188363168452
      ],
      [
        ",成为",
        -9.650732082579948
      ],
      [
        "桥",
        -9.650740059430078
      ],
      [
        "成熟",
        -9.650819144943622
      ],
      [
        "弱",
        -9.651159686159424
      ],
      [
        "可是",
        -9.652190155459948
      ],
      [
        "枪",
        -9.652456797006433
      ],
      [
        "参观",
        -9.65275933689428
      ],
      [
        "顺利",
        -9.652780080292484
      ],
      [
        "贷款",
        -9.65304812726618
      ],
      [
        "道路",
        -9.653152788421732
      ],
      [
        "设有",
        -9.653208040492721
      ],
      [
        ",该",
        -9.65332897177586
      ],
      [
        "腿",
        -9.653405552597174
      ],
      [
        "第三方",
        -9.653429756873848
      ],
      [
        "这件事",
        -9.654129282524949
      ],
      [
        "启动",
        -9.654860028052545
      ],
      [
        ",否则",
        -9.655518152282077
      ],
      [
        "思维",
        -9.655745540480378
      ],
      [
        "欧",
        -9.656167718173126
      ],
      [
        "望",
        -9.65617965967321
      ],
      [
        "了很多",
        -9.656726815802473
      ],
      [
        "论坛",
        -9.657598581160894
      ],
      [
        "之一,",
        -9.657759919585711
      ],
      [
        "二十",
        -9.658784548059892
      ],
      [
        "累",
        -9.658891899278181
      ],
      [
        "危险",
        -9.659629922958558
      ],
      [
        "来了",
        -9.66094994714122
      ],
      [
        "一套",
        -9.661033028406411
      ],
      [
        "获取",
        -9.66106312793326
      ],
      [
        "到达",
        -9.661784402056803
      ],
      [
        "摄影",
        -9.661895662018935
      ],
      [
        "增强",
        -9.662563301310932
      ],
      [
        "更好",
        -9.662733237103183
      ],
      [
        "子,",
        -9.663435944329645
      ],
      [
        "妻子",
        -9.663518209362255
      ],
      [
        "友好",
        -9.663763381313412
      ],
      [
        "主人",
        -9.663908076713511
      ],
      [
        "正确",
        -9.6643945901338
      ],
      [
        ",不要",
        -9.665496432195127
      ],
      [
        "百度",
        -9.665591856409488
      ],
      [
        "一件",
        -9.665745211396736
      ],
      [
        "农",
        -9.666685328432875
      ],
      [
        "收到",
        -9.667248705693972
      ],
      [
        "顿",
        -9.66900025223378
      ],
      [
        "核",
        -9.669603698680195
      ],
      [
        "程",
        -9.669625656210592
      ],
      [
        "跟我",
        -9.669750984985884
      ],
      [
        "负责人",
        -9.670727058629877
      ],
      [
        "慢",
        -9.671089856980602
      ],
      [
        "非洲",
        -9.671556904887826
      ],
      [
        "硬",
        -9.67183069902857
      ],
      [
        "下载",
        -9.672067257670813
      ],
      [
        "是为了",
        -9.672386439930577
      ],
      [
        "覆盖",
        -9.672484064402564
      ],
      [
        "学术",
        -9.672598241643898
      ],
      [
        "海南",
        -9.672728227953794
      ],
      [
        "z",
        -9.672763607213675
      ],
      [
        "却是",
        -9.673236729614219
      ],
      [
        "明星",
        -9.673360834281016
      ],
      [
        "把它",
        -9.674038212593949
      ],
      [
        "的朋友",
        -9.674399229987362
      ],
      [
        "地点",
        -9.674640034759591
      ],
      [
        "绝",
        -9.674974763951216
      ],
      [
        "服务。",
        -9.675299391042234
      ],
      [
        ",于是",
        -9.675433797325002
      ],
      [
        "看了",
        -9.676094320556071
      ],
      [
        "in",
        -9.67715451709972
      ],
      [
        "声音",
        -9.677403662347299
      ],
      [
        "”“",
        -9.6777116120565
      ],
      [
        "3月",
        -9.677874964301349
      ],
      [
        "威胁",
        -9.677969711001602
      ],
      [
        "时尚",
        -9.679507601340315
      ],
      [
        "打算",
        -9.679831453977133
      ],
      [
        "生活中",
        -9.68021218206858
      ],
      [
        "的历史",
        -9.68041734559062
      ],
      [
        "两个人",
        -9.681137508709863
      ],
      [
        "意识",
        -9.681182342563346
      ],
      [
        "凡",
        -9.681368447860041
      ],
      [
        "▁伊阿古",
        -9.682006025869956
      ],
      [
        "当年",
        -9.6830422431347
      ],
      [
        "骂",
        -9.684573301669758
      ],
      [
        "可能是",
        -9.684603821654564
      ],
      [
        "圈",
        -9.684690782982885
      ],
      [
        "类型",
        -9.6852855567215
      ],
      [
        "强大的",
        -9.685300197564557
      ],
      [
        ",大家",
        -9.685392689054023
      ],
      [
        "签",
        -9.685667235674654
      ],
      [
        "世纪",
        -9.68588954487393
      ],
      [
        "。不过",
        -9.686828603949856
      ],
      [
        "现象",
        -9.687021676390946
      ],
      [
        "加快",
        -9.68789728999857
      ],
      [
        "巨大",
        -9.688746809802186
      ],
      [
        "暴",
        -9.688913541759515
      ],
      [
        "韩",
        -9.689272167893694
      ],
      [
        "始终",
        -9.689325567007572
      ],
      [
        "餐厅",
        -9.689544830642463
      ],
      [
        ",人们",
        -9.689730577693997
      ],
      [
        "曼",
        -9.689881856325442
      ],
      [
        "禁止",
        -9.690271448941207
      ],
      [
        "在于",
        -9.692534933330036
      ],
      [
        "层面",
        -9.692639343454584
      ],
      [
        "市场的",
        -9.692945478432971
      ],
      [
        "股票",
        -9.693279960979057
      ],
      [
        "上市",
        -9.694573015976692
      ],
      [
        "供",
        -9.694789819731087
      ],
      [
        "中间",
        -9.695149525105627
      ],
      [
        "威",
        -9.695959895187112
      ],
      [
        "场景",
        -9.69621774902184
      ],
      [
        "得到了",
        -9.696332857728317
      ],
      [
        "须",
        -9.69667861099595
      ],
      [
        "闹",
        -9.696692332699609
      ],
      [
        "获得了",
        -9.696884997364497
      ],
      [
        "21",
        -9.698233239973383
      ],
      [
        "时候",
        -9.698413118258085
      ],
      [
        "错误",
        -9.698460486504104
      ],
      [
        "淡",
        -9.698662936238847
      ],
      [
        "份",
        -9.698888294059305
      ],
      [
        "厅",
        -9.699077917022224
      ],
      [
        "严",
        -9.699137811467745
      ],
      [
        "徐",
        -9.699283884369589
      ],
      [
        "加盟",
        -9.699748087178286
      ],
      [
        "习惯",
        -9.700315184145868
      ],
      [
        "回复",
        -9.70096279987455
      ],
      [
        "熟悉",
        -9.701137178189953
      ],
      [
        "▁根据",
        -9.70134671891418
      ],
      [
        "委员",
        -9.701790238476452
      ],
      [
        "把我",
        -9.702091591010243
      ],
      [
        "赶",
        -9.702417082707132
      ],
      [
        "美丽的",
        -9.703304017364433
      ],
      [
        "泰",
        -9.703710790643237
      ],
      [
        "抓",
        -9.703920274118875
      ],
      [
        "并且",
        -9.70533747222435
      ],
      [
        "岗位",
        -9.705424720877822
      ],
      [
        "进了",
        -9.705590627332985
      ],
      [
        "爱情",
        -9.705642093802325
      ],
      [
        "五年",
        -9.705820314831662
      ],
      [
        "今后",
        -9.706236540086188
      ],
      [
        "分配",
        -9.706883190681129
      ],
      [
        "的孩子",
        -9.707006234974347
      ],
      [
        "四个",
        -9.707207207955861
      ],
      [
        "如今",
        -9.707545385508114
      ],
      [
        "支",
        -9.70756899493614
      ],
      [
        "的产品",
        -9.707746309610087
      ],
      [
        "挂",
        -9.707958365749258
      ],
      [
        "一个月",
        -9.7087326297641
      ],
      [
        "势",
        -9.708869863707427
      ],
      [
        "论文",
        -9.708968959776536
      ],
      [
        "秒",
        -9.7091776902262
      ],
      [
        "勒",
        -9.709318703206053
      ],
      [
        "是由",
        -9.709377016764174
      ],
      [
        "剑",
        -9.709379166784506
      ],
      [
        "冲突",
        -9.70953871458448
      ],
      [
        "图片",
        -9.70975922020267
      ],
      [
        ",被",
        -9.710306937024548
      ],
      [
        "列",
        -9.710590138838505
      ],
      [
        "承诺",
        -9.710859408327401
      ],
      [
        "有可能",
        -9.711237687835265
      ],
      [
        "改进",
        -9.711240419830364
      ],
      [
        "见到",
        -9.711321715206967
      ],
      [
        "堂",
        -9.712516796680376
      ],
      [
        "维持",
        -9.712671712549966
      ],
      [
        "两次",
        -9.712769167305064
      ],
      [
        ",每",
        -9.713084808252633
      ],
      [
        "银",
        -9.713454815940633
      ],
      [
        "6月",
        -9.713628341488254
      ],
      [
        "意外",
        -9.713842394812003
      ],
      [
        "都能",
        -9.714079558913383
      ],
      [
        "将在",
        -9.714156497973569
      ],
      [
        "举",
        -9.714276231329737
      ],
      [
        ",结果",
        -9.714339494892172
      ],
      [
        "给我们",
        -9.714846444412528
      ],
      [
        "轻松",
        -9.716281118923014
      ],
      [
        "标",
        -9.716885477882599
      ],
      [
        "杨欢",
        -9.71710843183833
      ],
      [
        "表演",
        -9.717501417604744
      ],
      [
        "久",
        -9.717850886388227
      ],
      [
        "喊",
        -9.717889410363856
      ],
      [
        "拿到",
        -9.718083395474334
      ],
      [
        "科研",
        -9.718804194479702
      ],
      [
        ",才能",
        -9.718829754883902
      ],
      [
        "公众",
        -9.718855079628616
      ],
      [
        "伯",
        -9.718939917130875
      ],
      [
        "构建",
        -9.719123103013354
      ],
      [
        "姐姐",
        -9.71914956465529
      ],
      [
        "试验",
        -9.719525683375853
      ],
      [
        "进口",
        -9.719836430879024
      ],
      [
        "▁而",
        -9.719986262526193
      ],
      [
        "军事",
        -9.720098552389754
      ],
      [
        "篇",
        -9.720762858479507
      ],
      [
        "小组",
        -9.72196715794573
      ],
      [
        "企业的",
        -9.723034123240428
      ],
      [
        "友",
        -9.72355901192708
      ],
      [
        "作业",
        -9.72367970461455
      ],
      [
        "ar",
        -9.723806795481392
      ],
      [
        "依",
        -9.724449812118227
      ],
      [
        "影",
        -9.725274354257449
      ],
      [
        "瓦",
        -9.725778162751432
      ],
      [
        "细节",
        -9.72634909698801
      ],
      [
        "某些",
        -9.726499537204461
      ],
      [
        "蓝",
        -9.726522363124035
      ],
      [
        "12月",
        -9.727075580685277
      ],
      [
        "犯罪",
        -9.727178946696775
      ],
      [
        "怪",
        -9.728195639558042
      ],
      [
        "智慧",
        -9.728300758656953
      ],
      [
        "期间,",
        -9.728781863588747
      ],
      [
        "经济发展",
        -9.72894438798564
      ],
      [
        "老婆",
        -9.729002969883892
      ],
      [
        "制造业",
        -9.729366822792102
      ],
      [
        "各个",
        -9.729719270723379
      ],
      [
        "形势",
        -9.72983918588304
      ],
      [
        "各位",
        -9.729920523028937
      ],
      [
        "合法",
        -9.730033916719563
      ],
      [
        "没有任何",
        -9.730100904369078
      ],
      [
        ",都是",
        -9.730563952951822
      ],
      [
        "说,“",
        -9.73080768369803
      ],
      [
        "反映",
        -9.731008336453119
      ],
      [
        "走向",
        -9.7310128492086
      ],
      [
        "▁B",
        -9.731746229242296
      ],
      [
        "季",
        -9.732984739068124
      ],
      [
        "or",
        -9.733601356748292
      ],
      [
        "▁但是",
        -9.7342444760076
      ],
      [
        "航",
        -9.735003004104136
      ],
      [
        "70",
        -9.735745957898956
      ],
      [
        "复",
        -9.735979999401042
      ],
      [
        "没想到",
        -9.736079349818135
      ],
      [
        "人数",
        -9.736820124413113
      ],
      [
        "食品安全",
        -9.736932128163353
      ],
      [
        "秀",
        -9.737135299488978
      ],
      [
        "航空",
        -9.737261956063225
      ],
      [
        "野",
        -9.737342890713558
      ],
      [
        "经理",
        -9.737560063993362
      ],
      [
        "静",
        -9.737813830306573
      ],
      [
        "混",
        -9.738396952764226
      ],
      [
        "相关的",
        -9.73880469807234
      ],
      [
        "赚钱",
        -9.73913256941052
      ],
      [
        "相应的",
        -9.739481769223449
      ],
      [
        "2009年",
        -9.739784709948825
      ],
      [
        "射",
        -9.739930037817649
      ],
      [
        "履行",
        -9.740055379082655
      ],
      [
        "回应",
        -9.740864492476573
      ],
      [
        "的东西,",
        -9.741498950624056
      ],
      [
        "多年",
        -9.742584259996747
      ],
      [
        "之前,",
        -9.742586784876586
      ],
      [
        "我觉得",
        -9.742700914141587
      ],
      [
        "实在",
        -9.74286932427361
      ],
      [
        "料",
        -9.743088384008434
      ],
      [
        "▁随着",
        -9.743301453977622
      ],
      [
        "也没",
        -9.743927441660029
      ],
      [
        "舒适",
        -9.744844533933758
      ],
      [
        "亿元,",
        -9.745464429567166
      ],
      [
        "异",
        -9.745986882370829
      ],
      [
        "孩子的",
        -9.746083819147877
      ],
      [
        "吧?",
        -9.746225806600986
      ],
      [
        "治",
        -9.746280855568589
      ],
      [
        "现在的",
        -9.746574301383294
      ],
      [
        "马上",
        -9.74795032547189
      ],
      [
        "软",
        -9.74838322474952
      ],
      [
        "啤酒",
        -9.748402448787242
      ],
      [
        "亦",
        -9.748657948580153
      ],
      [
        "货币",
        -9.74873053723731
      ],
      [
        "审核",
        -9.748819993638564
      ],
      [
        "杯",
        -9.748950317653922
      ],
      [
        "能源",
        -9.74895979654945
      ],
      [
        "纷纷",
        -9.749045420264348
      ],
      [
        "而且",
        -9.749188673114496
      ],
      [
        "发表",
        -9.749600218524263
      ],
      [
        "角色",
        -9.750321689051436
      ],
      [
        "阳",
        -9.750716218008069
      ],
      [
        "国家的",
        -9.750735489900283
      ],
      [
        "机器人",
        -9.750745043963393
      ],
      [
        "吃饭",
        -9.751204407140959
      ],
      [
        "有机会",
        -9.752724412805378
      ],
      [
        "前,",
        -9.752959979474976
      ],
      [
        "无论",
        -9.753072242871859
      ],
      [
        "文字",
        -9.754430369411402
      ],
      [
        ",美国",
        -9.754996930479674
      ],
      [
        "念",
        -9.755104011662556
      ],
      [
        "嘴",
        -9.755565690985467
      ],
      [
        "的确",
        -9.755627365697325
      ],
      [
        "馆",
        -9.757166140538242
      ],
      [
        "感受",
        -9.757263072980294
      ],
      [
        "试图",
        -9.757326424356027
      ],
      [
        "原则",
        -9.757691665073944
      ],
      [
        "的影响",
        -9.75852174749738
      ],
      [
        "把握",
        -9.758831825643856
      ],
      [
        "谢",
        -9.758880827910549
      ],
      [
        "代码",
        -9.758890995638414
      ],
      [
        "仔细",
        -9.758911806822404
      ],
      [
        "进步",
        -9.759408755544207
      ],
      [
        "一句话",
        -9.759684754093435
      ],
      [
        "化学",
        -9.760570434164462
      ],
      [
        "会在",
        -9.760749990236805
      ],
      [
        "必",
        -9.761200809250699
      ],
      [
        ",距离",
        -9.761464425476447
      ],
      [
        "两国",
        -9.762043740520436
      ],
      [
        "很容易",
        -9.762184838054022
      ],
      [
        "商务",
        -9.763518671197282
      ],
      [
        "情感",
        -9.764617383448737
      ],
      [
        "球迷",
        -9.765345460163148
      ],
      [
        "公民",
        -9.765383686374712
      ],
      [
        "即将",
        -9.76538907778449
      ],
      [
        "包含",
        -9.76548794101581
      ],
      [
        "蒂",
        -9.76551415066499
      ],
      [
        "构成",
        -9.766444180564918
      ],
      [
        "具",
        -9.76657667152728
      ],
      [
        "出来,",
        -9.767371194621797
      ],
      [
        "女孩",
        -9.768189541280783
      ],
      [
        "设立",
        -9.768284884148343
      ],
      [
        "麻烦",
        -9.768492465460433
      ],
      [
        "热情",
        -9.769129250250273
      ],
      [
        "布局",
        -9.769299239046077
      ],
      [
        ",我也",
        -9.769323056331661
      ],
      [
        "成就",
        -9.769940066649376
      ],
      [
        "之所以",
        -9.769967810950565
      ],
      [
        "完美",
        -9.770008257369948
      ],
      [
        "盖",
        -9.770320463046492
      ],
      [
        "持",
        -9.771217090290396
      ],
      [
        "时期",
        -9.771359232460343
      ],
      [
        "运输",
        -9.771459678928945
      ],
      [
        "玩家",
        -9.77172832485752
      ],
      [
        "要是",
        -9.77236271592626
      ],
      [
        "日常",
        -9.772544565763031
      ],
      [
        "下的",
        -9.77255584475083
      ],
      [
        "风格",
        -9.772787791438176
      ],
      [
        "事项",
        -9.7728225550363
      ],
      [
        "本次",
        -9.772997654530986
      ],
      [
        "全世界",
        -9.773803740985041
      ],
      [
        "如果你",
        -9.77422444712786
      ],
      [
        "很大",
        -9.774612090123345
      ],
      [
        "5月",
        -9.774631154011525
      ],
      [
        "住了",
        -9.774877949898235
      ],
      [
        "在北京",
        -9.775674375236656
      ],
      [
        "登",
        -9.776377247963591
      ],
      [
        "28",
        -9.776431351956774
      ],
      [
        "先进",
        -9.776520510994699
      ],
      [
        "沉",
        -9.777455988889965
      ],
      [
        ",一",
        -9.777667713034841
      ],
      [
        "说的",
        -9.77810402802371
      ],
      [
        "▁C",
        -9.7786064937025
      ],
      [
        "▁年",
        -9.778732912677228
      ],
      [
        "菲",
        -9.779157161873842
      ],
      [
        "赵",
        -9.779267340502757
      ],
      [
        "融合",
        -9.779413333825246
      ],
      [
        "谷歌",
        -9.779454536614985
      ],
      [
        "阅读全文",
        -9.779461639913867
      ],
      [
        "2008年",
        -9.779478243872166
      ],
      [
        "预订",
        -9.779665451735596
      ],
      [
        "事务",
        -9.779765371985786
      ],
      [
        "对我",
        -9.779845775816188
      ],
      [
        "更大",
        -9.779954793870672
      ],
      [
        "彻底",
        -9.780411117394262
      ],
      [
        "客房",
        -9.780425680501391
      ],
      [
        "外,",
        -9.780959093537515
      ],
      [
        "笑着",
        -9.781102243790311
      ],
      [
        "生物",
        -9.781577173195227
      ],
      [
        "著名",
        -9.781980193366518
      ],
      [
        "en",
        -9.783329667516671
      ],
      [
        "村民",
        -9.784858292334981
      ],
      [
        "角",
        -9.785187942095412
      ],
      [
        "偏",
        -9.785199976974651
      ],
      [
        "哪个",
        -9.785357771896845
      ],
      [
        "取得了",
        -9.78537463854064
      ],
      [
        "智",
        -9.785482263208088
      ],
      [
        "应该是",
        -9.786261360887266
      ],
      [
        ",确保",
        -9.78656293438343
      ],
      [
        "产品的",
        -9.78678946073904
      ],
      [
        "在这",
        -9.786933232299493
      ],
      [
        "例",
        -9.786955023721639
      ],
      [
        "抵达",
        -9.787150834864178
      ],
      [
        "义",
        -9.787547443420177
      ],
      [
        "哪里",
        -9.78761101248174
      ],
      [
        "的表现",
        -9.788208263895022
      ],
      [
        "▁4、",
        -9.788679103223137
      ],
      [
        "凯",
        -9.788735180725169
      ],
      [
        "冠军",
        -9.789169531428719
      ],
      [
        "艾",
        -9.789462229723867
      ],
      [
        "腾讯",
        -9.789797095688488
      ],
      [
        "致力于",
        -9.78982569156522
      ],
      [
        "停止",
        -9.789880723384687
      ],
      [
        "配置",
        -9.790112187047924
      ],
      [
        "校园",
        -9.790152601120624
      ],
      [
        "目",
        -9.790412746244847
      ],
      [
        "各地",
        -9.790785214625018
      ],
      [
        "早已",
        -9.790825907589266
      ],
      [
        "性能",
        -9.790854678699208
      ],
      [
        "23",
        -9.791432277540341
      ],
      [
        "不知",
        -9.792270469941377
      ],
      [
        "8月",
        -9.792424132451169
      ],
      [
        "引导",
        -9.793059734378328
      ],
      [
        "某个",
        -9.79318279328163
      ],
      [
        "预防",
        -9.79327951079703
      ],
      [
        "蒙",
        -9.793301283873603
      ],
      [
        "的核心",
        -9.79451112162317
      ],
      [
        "等等。",
        -9.79459561086089
      ],
      [
        "先后",
        -9.79506313969759
      ],
      [
        "之中",
        -9.795267515554983
      ],
      [
        "伟",
        -9.795276922627608
      ],
      [
        "引",
        -9.795454376333119
      ],
      [
        "和其他",
        -9.795585423692714
      ],
      [
        "特色",
        -9.795951886840054
      ],
      [
        "容",
        -9.79628107357223
      ],
      [
        "来的",
        -9.796464617115118
      ],
      [
        "演员",
        -9.797362736152628
      ],
      [
        "施工",
        -9.79761560242104
      ],
      [
        ",希望",
        -9.798256150617032
      ],
      [
        "本书",
        -9.798565598630205
      ],
      [
        "90",
        -9.798738427124153
      ],
      [
        "志",
        -9.79896337842541
      ],
      [
        "党员",
        -9.798964709906507
      ],
      [
        "叶",
        -9.79903868534706
      ],
      [
        "等等",
        -9.7992478113987
      ],
      [
        "伦",
        -9.800029448339167
      ],
      [
        ",那就",
        -9.800141684151967
      ],
      [
        "版本",
        -9.800148364248198
      ],
      [
        "技巧",
        -9.8003676576464
      ],
      [
        "批评",
        -9.800378316402345
      ],
      [
        "翻译",
        -9.800388923082515
      ],
      [
        "第四",
        -9.80046305743863
      ],
      [
        "登记",
        -9.800465846024355
      ],
      [
        "情况,",
        -9.800498602499964
      ],
      [
        "整理",
        -9.80055791209985
      ],
      [
        "依靠",
        -9.801033706480789
      ],
      [
        "一系列",
        -9.80297932185006
      ],
      [
        "或是",
        -9.803579837313276
      ],
      [
        "我会",
        -9.80479843084524
      ],
      [
        "呈现",
        -9.804983111786521
      ],
      [
        "学科",
        -9.805403576428308
      ],
      [
        ",则",
        -9.8055045601754
      ],
      [
        "忍不住",
        -9.805849339262373
      ],
      [
        "矛盾",
        -9.80694660033013
      ],
      [
        "h",
        -9.807654485129678
      ],
      [
        "一生",
        -9.807806481208592
      ],
      [
        "我想",
        -9.808356107263513
      ],
      [
        "描述",
        -9.80855182981509
      ],
      [
        "丹",
        -9.809901955163568
      ],
      [
        "彩",
        -9.809999191656637
      ],
      [
        "地址",
        -9.810040938495547
      ],
      [
        "怎么样",
        -9.81018421280936
      ],
      [
        "毕业",
        -9.810280600742955
      ],
      [
        "住宿",
        -9.810302603621292
      ],
      [
        "晓",
        -9.81064742207494
      ],
      [
        "参考",
        -9.811022756496303
      ],
      [
        "调研",
        -9.811041847180393
      ],
      [
        "不满",
        -9.811059620429226
      ],
      [
        "司法",
        -9.811062480684553
      ],
      [
        "祖国",
        -9.811209906561785
      ],
      [
        "休息",
        -9.811295372364587
      ],
      [
        "随时",
        -9.81139699304679
      ],
      [
        "封",
        -9.811885702886673
      ],
      [
        "小孩",
        -9.81230214503638
      ],
      [
        ",并在",
        -9.812743172741293
      ],
      [
        "跟着",
        -9.812781727571014
      ],
      [
        "理念",
        -9.81299113524965
      ],
      [
        "也在",
        -9.813389822905268
      ],
      [
        "地位",
        -9.814076613704263
      ],
      [
        "承认",
        -9.814123180833601
      ],
      [
        "利润",
        -9.814456946829425
      ],
      [
        ",需要",
        -9.81487154729627
      ],
      [
        ",很多",
        -9.815890322589794
      ],
      [
        "归",
        -9.816627417307046
      ],
      [
        "句",
        -9.816926286533608
      ],
      [
        "的内容",
        -9.817630993071045
      ],
      [
        ",为什么",
        -9.818130495299084
      ],
      [
        "此前",
        -9.818220094960825
      ],
      [
        "逃",
        -9.820236434927958
      ],
      [
        "高端",
        -9.82029254021743
      ],
      [
        "权利",
        -9.820686887674562
      ],
      [
        "家族",
        -9.820874851089677
      ],
      [
        "险",
        -9.821144645365337
      ],
      [
        "是指",
        -9.82138515986021
      ],
      [
        "便宜",
        -9.82178217238685
      ],
      [
        "避免",
        -9.82199787402046
      ],
      [
        "后面",
        -9.822024257739468
      ],
      [
        "品质",
        -9.822363282630054
      ],
      [
        ")、",
        -9.822484368557323
      ],
      [
        "飞行",
        -9.82259534211445
      ],
      [
        "左",
        -9.822628508020468
      ],
      [
        "也不会",
        -9.822713187305455
      ],
      [
        "设计师",
        -9.822777975758793
      ],
      [
        "大众",
        -9.822801558883548
      ],
      [
        "这类",
        -9.822990626197306
      ],
      [
        "又是",
        -9.823531560349506
      ],
      [
        "的一种",
        -9.823599084403913
      ],
      [
        "金额",
        -9.82568032964563
      ],
      [
        "松",
        -9.826086216663061
      ],
      [
        "发现,",
        -9.82615231504478
      ],
      [
        "还会",
        -9.826282370356816
      ],
      [
        "。对于",
        -9.82702026196296
      ],
      [
        "点击",
        -9.827957362081413
      ],
      [
        "丝",
        -9.82796730474287
      ],
      [
        "丢",
        -9.828105386243928
      ],
      [
        "。然而,",
        -9.82818915780403
      ],
      [
        "的同时,",
        -9.82819258834758
      ],
      [
        "案例",
        -9.828426859506166
      ],
      [
        "出现在",
        -9.8296452526535
      ],
      [
        "开始,",
        -9.829912700566588
      ],
      [
        "装修",
        -9.830173100722696
      ],
      [
        "总体",
        -9.830479308943024
      ],
      [
        "雅",
        -9.831118483747534
      ],
      [
        "亿元",
        -9.831408977416407
      ],
      [
        "大学生",
        -9.831452607025083
      ],
      [
        "是我们",
        -9.831869138532317
      ],
      [
        "搜索",
        -9.831888676046745
      ],
      [
        "奥瑟罗",
        -9.832612348390766
      ],
      [
        "业绩",
        -9.832622232226829
      ],
      [
        "暂时",
        -9.833122642102293
      ],
      [
        "乡",
        -9.833664328966837
      ],
      [
        "居住",
        -9.833985011332931
      ],
      [
        "会计",
        -9.83403378369335
      ],
      [
        "显示,",
        -9.834092200256311
      ],
      [
        "女士",
        -9.834097833408352
      ],
      [
        "同事",
        -9.834563883039426
      ],
      [
        "4月",
        -9.834880961489736
      ],
      [
        "科学家",
        -9.835127224153016
      ],
      [
        "象",
        -9.835755075766201
      ],
      [
        "最多",
        -9.836244910337758
      ],
      [
        "带来了",
        -9.836309073251993
      ],
      [
        "足球",
        -9.836818925193821
      ],
      [
        "足够",
        -9.838595865266091
      ],
      [
        "的信息",
        -9.839563477621072
      ],
      [
        "脑",
        -9.83975245748138
      ],
      [
        "1月",
        -9.841044606496197
      ],
      [
        "花园",
        -9.841083644053324
      ],
      [
        "病人",
        -9.841104932317965
      ],
      [
        "前面",
        -9.841304050562997
      ],
      [
        "体现",
        -9.841767987472261
      ],
      [
        "平时",
        -9.842406710778224
      ],
      [
        "素质",
        -9.842547972193575
      ],
      [
        "审查",
        -9.842569184277924
      ],
      [
        "ing",
        -9.842724925967048
      ],
      [
        "礼",
        -9.84287804017946
      ],
      [
        "说道:“",
        -9.843062131393975
      ],
      [
        "相比",
        -9.843067830513657
      ],
      [
        ",连",
        -9.843153878073633
      ],
      [
        "怀疑",
        -9.843620682573421
      ],
      [
        "团结",
        -9.843663808502669
      ],
      [
        "运作",
        -9.84394683264521
      ],
      [
        "互相",
        -9.844209316608463
      ],
      [
        "占比",
        -9.84444206121455
      ],
      [
        "害",
        -9.84597161874407
      ],
      [
        "剧",
        -9.846838586408058
      ],
      [
        "的需求",
        -9.846901700109685
      ],
      [
        "工人",
        -9.847062453217454
      ],
      [
        "母",
        -9.847411061626126
      ],
      [
        "什么时候",
        -9.84751102261075
      ],
      [
        "角度",
        -9.848551829427159
      ],
      [
        "摆",
        -9.848759286706459
      ],
      [
        "都没",
        -9.84893792851076
      ],
      [
        "食物",
        -9.85030673160222
      ],
      [
        "趋势",
        -9.850371547820275
      ],
      [
        "护",
        -9.850530614651209
      ],
      [
        "上涨",
        -9.85053901254289
      ],
      [
        "所谓",
        -9.850703688825307
      ],
      [
        "对待",
        -9.851067454708211
      ],
      [
        "妈",
        -9.851187459008461
      ],
      [
        "35",
        -9.851702414445782
      ],
      [
        "夏",
        -9.85171901135763
      ],
      [
        "房屋",
        -9.85177625328047
      ],
      [
        "招聘",
        -9.851981011092263
      ],
      [
        "越来越多的",
        -9.852197685980368
      ],
      [
        "绿色",
        -9.852664999041517
      ],
      [
        "展览",
        -9.853247794722247
      ],
      [
        "圆",
        -9.85422352964915
      ],
      [
        "蕾米莉娅",
        -9.85465155437032
      ],
      [
        "了一",
        -9.854704072514284
      ],
      [
        "检测",
        -9.854741637193904
      ],
      [
        "元素",
        -9.854763957366643
      ],
      [
        "立刻",
        -9.854833534981609
      ],
      [
        "看来",
        -9.855012740819362
      ],
      [
        "旅行",
        -9.855205794332157
      ],
      [
        "关税",
        -9.856146492242338
      ],
      [
        "小姐",
        -9.856470562862558
      ],
      [
        "近日",
        -9.856555895021277
      ],
      [
        "改造",
        -9.858370901967191
      ],
      [
        "预",
        -9.858759233684491
      ],
      [
        "活动。",
        -9.85890453305226
      ],
      [
        "属",
        -9.85968952140702
      ],
      [
        "至今",
        -9.85970528138509
      ],
      [
        "办法",
        -9.860812053567853
      ],
      [
        "害怕",
        -9.860930761443967
      ],
      [
        "墙",
        -9.861386698717762
      ],
      [
        "▁虽然",
        -9.86146129387754
      ],
      [
        "强化",
        -9.861763625136803
      ],
      [
        "26",
        -9.862521664495018
      ],
      [
        "没有什么",
        -9.862741720994702
      ],
      [
        "泰国",
        -9.862877174458266
      ],
      [
        "一把",
        -9.863159801275932
      ],
      [
        "能不能",
        -9.863504639524665
      ],
      [
        "伦敦",
        -9.863682755626101
      ],
      [
        "之外,",
        -9.864006648641503
      ],
      [
        "。由于",
        -9.864326584961885
      ],
      [
        "都可以",
        -9.864366793145784
      ],
      [
        "等待",
        -9.864485081146945
      ],
      [
        "官网",
        -9.864764955088617
      ],
      [
        "卷",
        -9.864839027090161
      ],
      [
        "广州",
        -9.865380551282634
      ],
      [
        "下了",
        -9.865573531345994
      ],
      [
        "认证",
        -9.865807324930465
      ],
      [
        "模型",
        -9.865809863846831
      ],
      [
        "欲",
        -9.865883280014838
      ],
      [
        "装备",
        -9.865958940457027
      ],
      [
        "武器",
        -9.866000308918576
      ],
      [
        "活跃",
        -9.866003306260104
      ],
      [
        ",毕竟",
        -9.866101257039977
      ],
      [
        "开心",
        -9.866142476351659
      ],
      [
        "基层",
        -9.866155025688306
      ],
      [
        "认",
        -9.866273694339682
      ],
      [
        "双手",
        -9.866695873710583
      ],
      [
        "唱",
        -9.866954168864009
      ],
      [
        "强烈",
        -9.867162086540597
      ],
      [
        "屋",
        -9.86785661171609
      ],
      [
        "系统的",
        -9.868002208597845
      ],
      [
        "ch",
        -9.868223187311308
      ],
      [
        ",您",
        -9.868314410676401
      ],
      [
        "西方",
        -9.868379231907534
      ],
      [
        "财富",
        -9.869064678639676
      ],
      [
        "虚",
        -9.869895231609824
      ],
      [
        "包装",
        -9.870089789317785
      ],
      [
        "市民",
        -9.870364392987607
      ],
      [
        "QQ",
        -9.871034741801907
      ],
      [
        "路线",
        -9.871272795642117
      ],
      [
        "感情",
        -9.871404251331967
      ],
      [
        "采访",
        -9.872627821220384
      ],
      [
        "讯",
        -9.872974615190202
      ],
      [
        "聊",
        -9.873143548443682
      ],
      [
        "惊",
        -9.873149353313433
      ],
      [
        "服务,",
        -9.873519173208551
      ],
      [
        "。据",
        -9.873580187172887
      ],
      [
        "尽管",
        -9.874291701678285
      ],
      [
        "兴趣",
        -9.874992192538064
      ],
      [
        "还能",
        -9.87551163398673
      ],
      [
        "善",
        -9.875857950546859
      ],
      [
        "铁路",
        -9.87604710185872
      ],
      [
        "刷",
        -9.876423906659141
      ],
      [
        "漂亮",
        -9.876703329690862
      ],
      [
        "他人",
        -9.876997348638845
      ],
      [
        "的要求",
        -9.877080757362812
      ],
      [
        "所有人",
        -9.877146835234615
      ],
      [
        "奶奶",
        -9.877287230256709
      ],
      [
        "忽然",
        -9.877326087164212
      ],
      [
        "皮肤",
        -9.877345745207332
      ],
      [
        "巴黎",
        -9.877356025586586
      ],
      [
        "医学",
        -9.877506852635884
      ],
      [
        "兄弟",
        -9.877567780604258
      ],
      [
        "消息,",
        -9.877601768332472
      ],
      [
        "中文",
        -9.87787297469592
      ],
      [
        "总理",
        -9.87802626785536
      ],
      [
        ",就像",
        -9.87820304255179
      ],
      [
        "交换",
        -9.878227397486611
      ],
      [
        "。现在",
        -9.878286345330274
      ],
      [
        "▁S",
        -9.879062047298408
      ],
      [
        "准",
        -9.87956460119003
      ],
      [
        "来源",
        -9.880399169830717
      ],
      [
        "这一点",
        -9.880621981335574
      ],
      [
        "信仰",
        -9.881085765404517
      ],
      [
        "在这个",
        -9.881160791564493
      ],
      [
        "医",
        -9.881237357930903
      ],
      [
        "现有",
        -9.881456156112208
      ],
      [
        "权力",
        -9.881573668390079
      ],
      [
        "被人",
        -9.88266847746815
      ],
      [
        "估计",
        -9.883044226791991
      ],
      [
        "人群",
        -9.883128835263687
      ],
      [
        "高达",
        -9.883137960721562
      ],
      [
        "良",
        -9.883341724857548
      ],
      [
        "让她",
        -9.883594807408347
      ],
      [
        "骗",
        -9.883641529057908
      ],
      [
        "鲁",
        -9.884122280146464
      ],
      [
        "财产",
        -9.884702782306917
      ],
      [
        "付",
        -9.885223720537125
      ],
      [
        "逼",
        -9.886123769130624
      ],
      [
        "住在",
        -9.886201245850117
      ],
      [
        "宝宝",
        -9.886205663860336
      ],
      [
        "康",
        -9.886267109518545
      ],
      [
        ",即使",
        -9.88648614683506
      ],
      [
        "时刻",
        -9.886660716569235
      ],
      [
        "丰富的",
        -9.886863152808672
      ],
      [
        "钟",
        -9.887086381619309
      ],
      [
        "博物馆",
        -9.88814734907985
      ],
      [
        "了?",
        -9.888339772060547
      ],
      [
        "尾",
        -9.888573201407286
      ],
      [
        "擦",
        -9.888778908715409
      ],
      [
        "顾客",
        -9.88886363451654
      ],
      [
        "抱",
        -9.888992391627392
      ],
      [
        "还可以",
        -9.889103364984269
      ],
      [
        "预算",
        -9.889470527395659
      ],
      [
        "一座",
        -9.890303444019136
      ],
      [
        "—",
        -9.89079331731292
      ],
      [
        "我们在",
        -9.891416291630872
      ],
      [
        "近期",
        -9.895746800076026
      ],
      [
        "很大的",
        -9.895844028795931
      ],
      [
        "美丽",
        -9.896459507035246
      ],
      [
        "之中,",
        -9.896846373244053
      ],
      [
        "通道",
        -9.896978679988287
      ],
      [
        "告",
        -9.897271898799403
      ],
      [
        "使得",
        -9.897732477859446
      ],
      [
        "类似",
        -9.898577339448964
      ],
      [
        "息",
        -9.898604804053893
      ],
      [
        "上班",
        -9.898637810075805
      ],
      [
        "转型",
        -9.899437126119427
      ],
      [
        "每次",
        -9.899570067342172
      ],
      [
        "什么样的",
        -9.8995995722746
      ],
      [
        "某种",
        -9.900888380684684
      ],
      [
        "。而且",
        -9.90140334838619
      ],
      [
        "3年",
        -9.901645442433107
      ],
      [
        "颜色",
        -9.90168500065801
      ],
      [
        "予以",
        -9.902196880372777
      ],
      [
        "什么?",
        -9.902411843910688
      ],
      [
        "当下",
        -9.902499514846141
      ],
      [
        "走到",
        -9.903464833152164
      ],
      [
        "一批",
        -9.904082374051805
      ],
      [
        "拿出",
        -9.904640403949386
      ],
      [
        "用户的",
        -9.90607349925736
      ],
      [
        "置",
        -9.906996098780478
      ],
      [
        "劲",
        -9.907016650710538
      ],
      [
        "违反",
        -9.90717905779234
      ],
      [
        "名字",
        -9.907292111760853
      ],
      [
        "作用。",
        -9.90830748154334
      ],
      [
        "了,我",
        -9.908389101791226
      ],
      [
        "哥哥",
        -9.9085383850129
      ],
      [
        "编",
        -9.908681313042123
      ],
      [
        "铺",
        -9.908844111042372
      ],
      [
        "对外",
        -9.909335798012368
      ],
      [
        "国务院",
        -9.909345849727583
      ],
      [
        "将于",
        -9.909572234916562
      ],
      [
        "施",
        -9.910259592166158
      ],
      [
        "扣",
        -9.910824705288837
      ],
      [
        "党的",
        -9.910855508244136
      ],
      [
        "答案",
        -9.911389979526426
      ],
      [
        "宫",
        -9.911402007436914
      ],
      [
        "el",
        -9.911791642216578
      ],
      [
        "事物",
        -9.911894871325199
      ],
      [
        "毛泽东",
        -9.912198935883662
      ],
      [
        "英雄",
        -9.912271610520392
      ],
      [
        "睡觉",
        -9.912286400492516
      ],
      [
        "营养",
        -9.912292132538713
      ],
      [
        "究竟",
        -9.912307559115977
      ],
      [
        "外交",
        -9.912321296767292
      ],
      [
        "左右,",
        -9.912638313241825
      ],
      [
        "导演",
        -9.912688813697732
      ],
      [
        "记忆",
        -9.913076937516136
      ],
      [
        "有一些",
        -9.9134594278848
      ],
      [
        "一辆",
        -9.914824037707803
      ],
      [
        "x",
        -9.915060747021126
      ],
      [
        "给了",
        -9.915766322752575
      ],
      [
        "著名的",
        -9.916948391954385
      ],
      [
        "刻",
        -9.917008648196335
      ],
      [
        "》、《",
        -9.917316385212882
      ],
      [
        "比例",
        -9.917440115738648
      ],
      [
        "一部",
        -9.91760409112192
      ],
      [
        "控",
        -9.91803082551429
      ],
      [
        "深刻",
        -9.91842589728332
      ],
      [
        "我是",
        -9.91874494083055
      ],
      [
        "形",
        -9.918762515071663
      ],
      [
        ")的",
        -9.919359747653953
      ],
      [
        "脱",
        -9.920187309638353
      ],
      [
        "客人",
        -9.92026636886969
      ],
      [
        "数学",
        -9.920291174006053
      ],
      [
        "定期",
        -9.920505062355115
      ],
      [
        "纯",
        -9.920698692531937
      ],
      [
        "不住",
        -9.920790618101382
      ],
      [
        "领域的",
        -9.920946421705604
      ],
      [
        "开发者",
        -9.922014249362807
      ],
      [
        "不需要",
        -9.922131242014583
      ],
      [
        "人力资源",
        -9.922511638056763
      ],
      [
        "下来,",
        -9.923193541029288
      ],
      [
        ",我想",
        -9.923324365123303
      ],
      [
        "咖啡",
        -9.923357220232603
      ],
      [
        "外国",
        -9.9238744361154
      ],
      [
        "灰",
        -9.923917190426163
      ],
      [
        "采购",
        -9.924129435996948
      ],
      [
        "日益",
        -9.9242716610401
      ],
      [
        "组合",
        -9.924432244415652
      ],
      [
        "红色",
        -9.92462265700945
      ],
      [
        "达成",
        -9.924672787774803
      ],
      [
        "应用程序",
        -9.925539323463198
      ],
      [
        "禁",
        -9.92575292850896
      ],
      [
        "进球",
        -9.926104082624526
      ],
      [
        "预期",
        -9.92651680802338
      ],
      [
        "预测",
        -9.927516356750008
      ],
      [
        "居然",
        -9.92773641689266
      ],
      [
        "对自己",
        -9.92811520798244
      ],
      [
        "。它",
        -9.928631858326233
      ],
      [
        "成为了",
        -9.928772183918678
      ],
      [
        ",我国",
        -9.92884358318798
      ],
      [
        "导",
        -9.929013417286326
      ],
      [
        "扬",
        -9.929103627335326
      ],
      [
        ",也就是",
        -9.929298367337275
      ],
      [
        "传统的",
        -9.929364776586876
      ],
      [
        "秘密",
        -9.929834900745712
      ],
      [
        "增加了",
        -9.929955734762785
      ],
      [
        "子女",
        -9.930165975689569
      ],
      [
        "必然",
        -9.930288108194205
      ],
      [
        "很好",
        -9.930775807618703
      ],
      [
        "盛",
        -9.931834868642106
      ],
      [
        "平等",
        -9.9319383033904
      ],
      [
        "贴",
        -9.931956369873582
      ],
      [
        "赶紧",
        -9.932170328450958
      ],
      [
        "基础设施",
        -9.932538554161457
      ],
      [
        "X",
        -9.932576152055258
      ],
      [
        "杭州",
        -9.932735487604216
      ],
      [
        "朝鲜",
        -9.932752973754141
      ],
      [
        "优先",
        -9.933184130280814
      ],
      [
        "诗",
        -9.933621062746454
      ],
      [
        "介绍,",
        -9.934177686723082
      ],
      [
        "2月",
        -9.935102648746827
      ],
      [
        "购物",
        -9.935192259225655
      ],
      [
        "文学",
        -9.93553540724991
      ],
      [
        "平衡",
        -9.936114564847179
      ],
      [
        "策划",
        -9.936176977500558
      ],
      [
        "收益",
        -9.936230472069294
      ],
      [
        "创意",
        -9.936424634792141
      ],
      [
        "想起",
        -9.936596919594596
      ],
      [
        "王源",
        -9.936607896588376
      ],
      [
        "许",
        -9.936817000600165
      ],
      [
        "法律法规",
        -9.936840085595154
      ],
      [
        ",像",
        -9.937097871794894
      ],
      [
        "取消",
        -9.937408621630757
      ],
      [
        ",根据",
        -9.937492573151872
      ],
      [
        "老公",
        -9.93758675995388
      ],
      [
        "爆发",
        -9.938613109041256
      ],
      [
        "面向",
        -9.93875727111202
      ],
      [
        "办公",
        -9.939033903666584
      ],
      [
        "第二次",
        -9.939039368911159
      ],
      [
        "早就",
        -9.93909807329893
      ],
      [
        "生意",
        -9.939161920476327
      ],
      [
        "决",
        -9.939221915945842
      ],
      [
        "我要",
        -9.939318043695991
      ],
      [
        "J",
        -9.939377166666691
      ],
      [
        "也很",
        -9.939782015849698
      ],
      [
        "华人",
        -9.940312751577556
      ],
      [
        "道。",
        -9.940318353630595
      ],
      [
        "花了",
        -9.940769259275118
      ],
      [
        "”和“",
        -9.9407699051359
      ],
      [
        "成果",
        -9.941024624869815
      ],
      [
        "也能",
        -9.941171190896254
      ],
      [
        "海军",
        -9.94250136158696
      ],
      [
        "抓住",
        -9.943661720263837
      ],
      [
        "告诉我",
        -9.943981589495113
      ],
      [
        "梦想",
        -9.945320598493916
      ],
      [
        "贝",
        -9.945667783475395
      ],
      [
        "此时",
        -9.945783541745268
      ],
      [
        "外面",
        -9.94599013915132
      ],
      [
        "缺",
        -9.946089163429676
      ],
      [
        "不够",
        -9.946183879346272
      ],
      [
        "租",
        -9.946197268672751
      ],
      [
        "是谁",
        -9.94646055072079
      ],
      [
        "可以在",
        -9.947058441471574
      ],
      [
        "拼",
        -9.947151702019868
      ],
      [
        "箱",
        -9.947279654548694
      ],
      [
        "庆",
        -9.94758283212057
      ],
      [
        "一定会",
        -9.94758997922797
      ],
      [
        "毫无",
        -9.94774801563474
      ],
      [
        "狂",
        -9.948115608508104
      ],
      [
        "乌",
        -9.948191266726404
      ],
      [
        "扎",
        -9.94822579161132
      ],
      [
        "注重",
        -9.948255713227564
      ],
      [
        "有助于",
        -9.948357979225541
      ],
      [
        "考察",
        -9.948380345584166
      ],
      [
        "供应",
        -9.948460496381973
      ],
      [
        "动态",
        -9.9484840941021
      ],
      [
        "收费",
        -9.948497533995873
      ],
      [
        "客观",
        -9.948542357239852
      ],
      [
        "药物",
        -9.948641658950617
      ],
      [
        "便利",
        -9.949173073024845
      ],
      [
        "黄金",
        -9.949226735593559
      ],
      [
        "理想",
        -9.949758720060085
      ],
      [
        "享有",
        -9.950092683528926
      ],
      [
        "吗",
        -9.950239731907502
      ],
      [
        "民众",
        -9.95056615499271
      ],
      [
        "霖之助",
        -9.950621121083401
      ],
      [
        "就算",
        -9.950653186829328
      ],
      [
        "一款",
        -9.951393037054785
      ],
      [
        "景点",
        -9.951783426615144
      ],
      [
        "没什么",
        -9.951897945676752
      ],
      [
        "▁3.",
        -9.952524738803803
      ],
      [
        "一直在",
        -9.952612624386662
      ],
      [
        "偷",
        -9.952765316299923
      ],
      [
        "45",
        -9.952870137901476
      ],
      [
        "▁1",
        -9.953488939243826
      ],
      [
        "的一些",
        -9.953495464408018
      ],
      [
        "一颗",
        -9.954150908851883
      ],
      [
        "读者",
        -9.954555165568724
      ],
      [
        ",导致",
        -9.954583793985117
      ],
      [
        ",为了",
        -9.955061809786272
      ],
      [
        "赛季",
        -9.95524999439025
      ],
      [
        ",促进",
        -9.95546373544763
      ],
      [
        "这两个",
        -9.956105773340745
      ],
      [
        "下降",
        -9.956194782870977
      ],
      [
        ",今天",
        -9.957338187110564
      ],
      [
        "这场",
        -9.957914679630221
      ],
      [
        "了一些",
        -9.958669703846029
      ],
      [
        "性、",
        -9.959943210417835
      ],
      [
        "机械",
        -9.960144057178143
      ],
      [
        "茶",
        -9.960183068865728
      ],
      [
        "吴",
        -9.960679077217833
      ],
      [
        "华盛顿",
        -9.96068082114455
      ],
      [
        "牺牲",
        -9.960692680679495
      ],
      [
        "举措",
        -9.960712993854912
      ],
      [
        ",当然",
        -9.960940173574915
      ],
      [
        "很有",
        -9.961408764833024
      ],
      [
        "超级",
        -9.961483706770991
      ],
      [
        "的关系",
        -9.961636768555904
      ],
      [
        "给她",
        -9.96195575468274
      ],
      [
        "名单",
        -9.962591905765324
      ],
      [
        "的事情,",
        -9.962611625760058
      ],
      [
        "穿着",
        -9.962787060762572
      ],
      [
        "幕",
        -9.962869898916434
      ],
      [
        "吧。”",
        -9.96290555565756
      ],
      [
        "右",
        -9.963030678552975
      ],
      [
        "备",
        -9.963275205149174
      ],
      [
        "委",
        -9.963621438792643
      ],
      [
        "不喜欢",
        -9.963706767033894
      ],
      [
        "回忆",
        -9.964169952162553
      ],
      [
        "建成",
        -9.96507534667171
      ],
      [
        "为何",
        -9.965342259786606
      ],
      [
        "基本上",
        -9.96548030001259
      ],
      [
        "的行为",
        -9.965494607056577
      ],
      [
        "重庆",
        -9.965830252559158
      ],
      [
        "烧",
        -9.965968480959635
      ],
      [
        "▁当",
        -9.966099338460392
      ],
      [
        "10年",
        -9.966247109190126
      ],
      [
        "股份",
        -9.966646222968302
      ],
      [
        "▁由于",
        -9.96673785917394
      ],
      [
        "新时代",
        -9.966921332493476
      ],
      [
        "美女",
        -9.966957096241144
      ],
      [
        "独特的",
        -9.967079738083747
      ],
      [
        "签署",
        -9.968052395045664
      ],
      [
        "过程中,",
        -9.96821965378541
      ],
      [
        "的态度",
        -9.968317075199536
      ],
      [
        "有一种",
        -9.96850292581053
      ],
      [
        "专业的",
        -9.96865829904682
      ],
      [
        "独",
        -9.968830071035192
      ],
      [
        "把自己",
        -9.969464850818934
      ],
      [
        "公告",
        -9.969639572117318
      ],
      [
        "驻",
        -9.969661452013497
      ],
      [
        "出版",
        -9.96984161052725
      ],
      [
        "32",
        -9.969925989674259
      ],
      [
        "佳",
        -9.969994839752816
      ],
      [
        "早上",
        -9.970098881821125
      ],
      [
        "▁M",
        -9.97030116549238
      ],
      [
        "有关部门",
        -9.970472408441315
      ],
      [
        "的价格",
        -9.970520919914605
      ],
      [
        "并未",
        -9.970648775068764
      ],
      [
        "地球",
        -9.970910581762926
      ],
      [
        "转变",
        -9.971148108550182
      ],
      [
        "机器",
        -9.971203381804116
      ],
      [
        "的原因",
        -9.971682933695767
      ],
      [
        "试点",
        -9.971744663330611
      ],
      [
        "主持",
        -9.972258329800267
      ],
      [
        "以上的",
        -9.972583658196326
      ],
      [
        "走进",
        -9.972623902780342
      ],
      [
        "粉",
        -9.97268384969376
      ],
      [
        "阴",
        -9.972698319210405
      ],
      [
        "洞",
        -9.972794962593237
      ],
      [
        "女子",
        -9.97308643233718
      ],
      [
        "依旧",
        -9.973290053363701
      ],
      [
        "供应商",
        -9.973319716218125
      ],
      [
        "要求,",
        -9.973354201014157
      ],
      [
        "33",
        -9.974306850557515
      ],
      [
        "秦朝",
        -9.974464203326754
      ],
      [
        "常常",
        -9.975010512740873
      ],
      [
        "甲",
        -9.976302226122524
      ],
      [
        "查看",
        -9.976969873001243
      ],
      [
        "%",
        -9.97727878836675
      ],
      [
        "战斗",
        -9.97728714189299
      ],
      [
        "涨",
        -9.977810062555779
      ],
      [
        "观念",
        -9.97807704080502
      ],
      [
        "其他人",
        -9.978126981324731
      ],
      [
        "太阳",
        -9.978317555101446
      ],
      [
        "者,",
        -9.978473501114063
      ],
      [
        "私",
        -9.978523328052292
      ],
      [
        "演",
        -9.978736561678584
      ],
      [
        "交给",
        -9.980223488466379
      ],
      [
        "上来",
        -9.980427198278058
      ],
      [
        "on",
        -9.980818588784736
      ],
      [
        "基金会",
        -9.981499334423301
      ],
      [
        "华为",
        -9.981524335807237
      ],
      [
        ",然而",
        -9.981585193236793
      ],
      [
        "所谓的",
        -9.98176100318815
      ],
      [
        "挑",
        -9.982347791838135
      ],
      [
        "股东",
        -9.983167032453494
      ],
      [
        "厨房",
        -9.983187503460796
      ],
      [
        "秩序",
        -9.983363308070125
      ],
      [
        "市场上",
        -9.983944684185436
      ],
      [
        "划",
        -9.984044484151987
      ],
      [
        "时间,",
        -9.984371165249955
      ],
      [
        "第二个",
        -9.984436947446419
      ],
      [
        "瑞",
        -9.984863409644994
      ],
      [
        "旁边",
        -9.984881619136466
      ],
      [
        "就不",
        -9.985088936207505
      ],
      [
        "景",
        -9.985090276843504
      ],
      [
        "一段时间",
        -9.985288663763775
      ],
      [
        "世界上",
        -9.985379630625456
      ],
      [
        "呼吸",
        -9.98552422423392
      ],
      [
        "激励",
        -9.985571975582195
      ],
      [
        "怒",
        -9.985579501337455
      ],
      [
        "几年",
        -9.985719036708115
      ],
      [
        ",可能",
        -9.98572368395671
      ],
      [
        "朱",
        -9.985820076579756
      ],
      [
        "锻炼",
        -9.985850906816328
      ],
      [
        "编辑",
        -9.985856967561304
      ],
      [
        "传承",
        -9.985870943774788
      ],
      [
        "协商",
        -9.986032560848797
      ],
      [
        "损害",
        -9.986263265653397
      ],
      [
        "海洋",
        -9.986711557414388
      ],
      [
        "即使",
        -9.987661000199761
      ],
      [
        "一支",
        -9.987825621829831
      ],
      [
        ",才",
        -9.988506407798353
      ],
      [
        "打电话",
        -9.98916846587289
      ],
      [
        "答",
        -9.989300086899002
      ],
      [
        "资格",
        -9.989818816359271
      ],
      [
        "主体",
        -9.990428937224
      ],
      [
        "骨",
        -9.9906823703674
      ],
      [
        "是有",
        -9.990797545477257
      ],
      [
        "就这样",
        -9.99083264750112
      ],
      [
        "码",
        -9.990847197700198
      ],
      [
        "说道。",
        -9.990980166873488
      ],
      [
        "透",
        -9.991508291596864
      ],
      [
        "发生了",
        -9.992217293157431
      ],
      [
        "这种情况",
        -9.992311766757838
      ],
      [
        "能力,",
        -9.992322990879085
      ],
      [
        "都很",
        -9.9928352581922
      ],
      [
        "财",
        -9.993469143682002
      ],
      [
        "速",
        -9.993744758158329
      ],
      [
        "证券",
        -9.993987273184846
      ],
      [
        "500",
        -9.99473025555113
      ],
      [
        "小时",
        -9.99530353240274
      ],
      [
        "素",
        -9.995856740723816
      ],
      [
        "一句",
        -9.996116932193402
      ],
      [
        "背后",
        -9.996695528457824
      ],
      [
        "后的",
        -9.996784351934892
      ],
      [
        "了他",
        -9.996819058177897
      ],
      [
        "一声",
        -9.996940336065727
      ],
      [
        "姆",
        -9.997836771083476
      ],
      [
        "改革开放",
        -9.997940851733453
      ],
      [
        "健",
        -9.99795655081648
      ],
      [
        "印象",
        -9.998309784793989
      ],
      [
        "审计",
        -9.998573835562272
      ],
      [
        "垃圾",
        -9.998612705110055
      ],
      [
        "欣赏",
        -9.998636534603367
      ],
      [
        "协助",
        -9.99866323792643
      ],
      [
        "农民工",
        -9.998822077195921
      ],
      [
        ",也许",
        -9.999178751167
      ],
      [
        "似",
        -9.999395642319426
      ],
      [
        "齐",
        -9.99958606695806
      ],
      [
        "纳入",
        -9.999591470691843
      ],
      [
        "差不多",
        -9.999846818657051
      ],
      [
        "看来,",
        -10.00027399775748
      ],
      [
        "露",
        -10.000867168081546
      ],
      [
        "融入",
        -10.000911487041286
      ],
      [
        "抱着",
        -10.000950051281386
      ],
      [
        "务",
        -10.001084855714865
      ],
      [
        "这样一个",
        -10.00131756583544
      ],
      [
        "职责",
        -10.001479314245994
      ],
      [
        "在网上",
        -10.001537129813022
      ],
      [
        "侧",
        -10.001558795776578
      ],
      [
        "出台",
        -10.001720351456676
      ],
      [
        "正确的",
        -10.002225026876282
      ],
      [
        "够",
        -10.002465213959422
      ],
      [
        "更为",
        -10.003903702749058
      ],
      [
        "一篇",
        -10.00453165671025
      ],
      [
        "将其",
        -10.005092017492906
      ],
      [
        "小说",
        -10.005331789075276
      ],
      [
        "的基本",
        -10.006618807782228
      ],
      [
        "每个人",
        -10.007064600698506
      ],
      [
        "问我",
        -10.007744738298733
      ],
      [
        "峰",
        -10.007807749267657
      ],
      [
        "众",
        -10.00794487747226
      ],
      [
        "的《",
        -10.008210187246581
      ],
      [
        "征",
        -10.008532445644647
      ],
      [
        "旗",
        -10.008943177146111
      ],
      [
        "多种",
        -10.009173821988032
      ],
      [
        "遭",
        -10.009526134705332
      ],
      [
        "[",
        -10.010112915042555
      ],
      [
        "在我们",
        -10.01023985753693
      ],
      [
        "味",
        -10.010364170652847
      ],
      [
        "奋斗",
        -10.01060419978624
      ],
      [
        "围绕",
        -10.010653847143704
      ],
      [
        "条款",
        -10.011125802064155
      ],
      [
        "兴奋",
        -10.011570654199375
      ],
      [
        "算是",
        -10.011710359833835
      ],
      [
        "粉丝",
        -10.011714860391248
      ],
      [
        "周边",
        -10.011764150419289
      ],
      [
        "自信",
        -10.011871220520566
      ],
      [
        "动画",
        -10.012023691693443
      ],
      [
        "同学们",
        -10.01225653044153
      ],
      [
        "这句话",
        -10.012258598625907
      ],
      [
        "挤",
[...]
