{
  "version": "1.0",
  "truncation": null,
  "padding": null,
  "added_tokens": [
    {
      "id": 0,
      "content": "[UNK]",
      "single_word": false,
      "lstrip": false,
      "rstrip": false,
      "normalized": false,
      "special": true
    },
    {
      "id": 1,
      "content": "[CLS]",
      "single_word": false,
      "lstrip": false,
      "rstrip": false,
      "normalized": false,
      "special": true
    },
    {
      "id": 2,
      "content": "[SEP]",
      "single_word": false,
      "lstrip": false,
      "rstrip": false,
      "normalized": false,
      "special": true
    },
    {
      "id": 3,
      "content": "[PAD]",
      "single_word": false,
      "lstrip": false,
      "rstrip": false,
      "normalized": false,
      "special": true
    },
    {
      "id": 4,
      "content": "[MASK]",
      "single_word": false,
      "lstrip": false,
      "rstrip": false,
      "normalized": false,
      "special": true
    }
  ],
  "normalizer": {
    "type": "Sequence",
    "normalizers": [
      {
        "type": "Nmt"
      },
      {
        "type": "NFKC"
      },
      {
        "type": "Replace",
        "pattern": {
          "Regex": " {2,}"
        },
        "content": " "
      }
    ]
  },
  "pre_tokenizer": {
    "type": "Metaspace",
    "replacement": "▁",
    "prepend_scheme": "always",
    "split": true
  },
  "post_processor": null,
  "decoder": {
    "type": "Metaspace",
    "replacement": "▁",
    "prepend_scheme": "always",
    "split": true
  },
  "model": {
    "type": "Unigram",
    "unk_id": null,
    "vocab": [
      [
        "[UNK]",
        0.0
      ],
      [
        "[CLS]",
        0.0
      ],
      [
        "[SEP]",
        0.0
      ],
      [
        "[PAD]",
        0.0
      ],
      [
        "[MASK]",
        0.0
      ],
      [
        "▁",
        -2.6932445125672793
      ],
      [
        ",",
        -3.308747362872394
      ],
      [
        ".",
        -3.69847078594724
      ],
      [
        "▁ja",
        -3.9420910439165784
      ],
      [
        "▁on",
        -4.234429931823346
      ],
      [
        "s",
        -4.6435537063163235
      ],
      [
        "d",
        -4.793682229747898
      ],
      [
        "t",
        -5.110573305369387
      ],
      [
        "l",
        -5.136410310066006
      ],
      [
        "▁et",
        -5.156298413748155
      ],
      [
        "st",
        -5.18908662498648
      ],
      [
        "le",
        -5.209208044597494
      ],
      [
        "i",
        -5.247837718870846
      ],
      [
        "▁ei",
        -5.251632067635617
      ],
      [
        "e",
        -5.300941288853696
      ],
      [
        "ga",
        -5.4003401573564815
      ],
      [
        ":",
        -5.431892622395917
      ],
      [
        "▁ka",
        -5.464865287593918
      ],
      [
        "-",
        -5.511518938504274
      ],
      [
        "b",
        -5.536876794434903
      ],
      [
        "▁või",
        -5.552354685816368
      ],
      [
        "▁kui",
        -5.588731805011429
      ],
      [
        "▁ning",
        -5.662392331601545
      ],
      [
        "te",
        -5.76455061422805
      ],
      [
        "ks",
        -5.77466313178147
      ],
      [
        ")",
        -5.830600648895018
      ],
      [
        "▁oma",
        -5.874453489436563
      ],
      [
        "▁mis",
        -5.939523042424231
      ],
      [
        "id",
        -5.9476967282318505
      ],
      [
        "▁(",
        -5.989320908464791
      ],
      [
        "▁see",
        -5.998619339702669
      ],
      [
        "▁-",
        -6.059322001823821
      ],
      [
        "a",
        -6.139901627215535
      ],
      [
        "▁oli",
        -6.197558151089947
      ],
      [
        "▁siis",
        -6.21941305062394
      ],
      [
        "▁Eesti",
        -6.22997218509399
      ],
      [
        "lt",
        -6.286346478641963
      ],
      [
        "▁–",
        -6.321249363803917
      ],
      [
        "?",
        -6.340984440613868
      ],
      [
        "de",
        -6.38496484459956
      ],
      [
        "ne",
        -6.387372874606596
      ],
      [
        ";",
        -6.399717110734468
      ],
      [
        "n",
        -6.445297371641036
      ],
      [
        "!",
        -6.450248763387158
      ],
      [
        "▁aga",
        -6.46626713997572
      ],
      [
        "▁selle",
        -6.507122303012995
      ],
      [
        "▁nii",
        -6.540216569806164
      ],
      [
        "da",
        -6.5511948743912605
      ],
      [
        "▁seda",
        -6.635630028397218
      ],
      [
        "▁ta",
        -6.661219690231864
      ],
      [
        "▁kes",
        -6.694268268065926
      ],
      [
        "▁ole",
        -6.707975910396518
      ],
      [
        "▁Kui",
        -6.713626677833048
      ],
      [
        "u",
        -6.730441593274982
      ],
      [
        "▁välja",
        -6.734027596770108
      ],
      [
        "me",
        -6.737595550568686
      ],
      [
        "▁ma",
        -6.742230795206737
      ],
      [
        "ma",
        -6.756527566800285
      ],
      [
        "ti",
        -6.776220589365794
      ],
      [
        "vad",
        -6.785457144122821
      ],
      [
        "na",
        -6.787181193143322
      ],
      [
        "se",
        -6.814409269091421
      ],
      [
        "▁1",
        -6.830810348604253
      ],
      [
        "▁võib",
        -6.832118327227523
      ],
      [
        "tud",
        -6.844972940184741
      ],
      [
        "▁üle",
        -6.851081066359125
      ],
      [
        "▁aasta",
        -6.899476256795921
      ],
      [
        "...",
        -6.903656142230629
      ],
      [
        "▁väga",
        -6.920776468367988
      ],
      [
        "\"",
        -6.934230234222943
      ],
      [
        "d,",
        -6.955980759268332
      ],
      [
        "▁2",
        -6.971756306280124
      ],
      [
        "▁mida",
        -6.984535653487901
      ],
      [
        "▁saab",
        -6.986894205066832
      ],
      [
        "sse",
        -7.0084143422123155
      ],
      [
        "ta",
        -7.00891936460501
      ],
      [
        "gi",
        -7.0221011456773095
      ],
      [
        "nud",
        -7.025053834266254
      ],
      [
        "▁pole",
        -7.029762717972838
      ],
      [
        "o",
        -7.058264891598174
      ],
      [
        "mine",
        -7.076953106197221
      ],
      [
        "des",
        -7.0781440787508
      ],
      [
        "▁Euroopa",
        -7.079818353801832
      ],
      [
        "▁See",
        -7.087447461773628
      ],
      [
        "▁juba",
        -7.0882056888722555
      ],
      [
        "▁kus",
        -7.092485778654714
      ],
      [
        "▁veel",
        -7.097239637125744
      ],
      [
        "▁nende",
        -7.099606067791983
      ],
      [
        "ki",
        -7.10501042897727
      ],
      [
        "▁tuleb",
        -7.113841145036986
      ],
      [
        "▁kõik",
        -7.1158383414871285
      ],
      [
        "v",
        -7.120832775473126
      ],
      [
        ").",
        -7.141704323130774
      ],
      [
        "m",
        -7.14404058885755
      ],
      [
        "”",
        -7.160801714503219
      ],
      [
        "/",
        -7.162851921349999
      ],
      [
        "▁mitte",
        -7.182424637683791
      ],
      [
        "▁mille",
        -7.192273757597201
      ],
      [
        "▁meie",
        -7.206808237624937
      ],
      [
        "ga.",
        -7.220915614362784
      ],
      [
        "▁palju",
        -7.228277079031312
      ],
      [
        "ja",
        -7.23570385756179
      ],
      [
        "▁nagu",
        -7.237970784867185
      ],
      [
        "▁kohta",
        -7.239900945434556
      ],
      [
        "takse",
        -7.25194645603241
      ],
      [
        "ega",
        -7.263319516924719
      ],
      [
        "ni",
        -7.2686502081329945
      ],
      [
        "▁kuid",
        -7.297007151447209
      ],
      [
        "▁ära",
        -7.300904150439857
      ],
      [
        "▁läbi",
        -7.3011747926263375
      ],
      [
        "▁vaid",
        -7.3024250344528205
      ],
      [
        "▁„",
        -7.3127342762486816
      ],
      [
        "sid",
        -7.322878159083514
      ],
      [
        "▁tema",
        -7.330363278302256
      ],
      [
        "▁3",
        -7.333725606886116
      ],
      [
        "k",
        -7.3353761820324
      ],
      [
        "▁üks",
        -7.357490834425613
      ],
      [
        "▁sest",
        -7.3745987174550205
      ],
      [
        "▁§",
        -7.3785061041787685
      ],
      [
        "▁\"",
        -7.378643309397145
      ],
      [
        "s.",
        -7.4141157800378
      ],
      [
        "▁peab",
        -7.430727546853502
      ],
      [
        "▁Ma",
        -7.431674294100009
      ],
      [
        "▁eest",
        -7.44807247230624
      ],
      [
        "▁kas",
        -7.4494331162524094
      ],
      [
        "▁Ja",
        -7.454418335145213
      ],
      [
        "mise",
        -7.458617773986493
      ],
      [
        "le.",
        -7.464114275906569
      ],
      [
        "s,",
        -7.468121733541032
      ],
      [
        "▁kogu",
        -7.468537257618358
      ],
      [
        "▁oleks",
        -7.468574825234434
      ],
      [
        "▁kuni",
        -7.469994441731876
      ],
      [
        "▁rohkem",
        -7.482827629387366
      ],
      [
        "▁vastu",
        -7.4944325562113985
      ],
      [
        "▁need",
        -7.4959564916400385
      ],
      [
        "▁olla",
        -7.4979847601529315
      ],
      [
        "▁_",
        -7.501532620388966
      ],
      [
        "▁suur",
        -7.505936081016202
      ],
      [
        "▁hea",
        -7.518646023964344
      ],
      [
        "▁poolt",
        -7.519554263476895
      ],
      [
        "sin",
        -7.51975041899979
      ],
      [
        "▁S",
        -7.524865485187764
      ],
      [
        "▁töö",
        -7.526257662543832
      ],
      [
        "▁aastal",
        -7.52739169264523
      ],
      [
        "st.",
        -7.527921848248647
      ],
      [
        "mis",
        -7.533831454414527
      ],
      [
        "▁ise",
        -7.536310210361107
      ],
      [
        "ge",
        -7.546856773297382
      ],
      [
        "▁osa",
        -7.550054252341658
      ],
      [
        "▁kuidas",
        -7.550095732052776
      ],
      [
        "is",
        -7.563986527623062
      ],
      [
        "▁koos",
        -7.569512970328761
      ],
      [
        "▁neid",
        -7.571497160829692
      ],
      [
        "▁4",
        -7.584833626479588
      ],
      [
        "▁sa",
        -7.588102543154365
      ],
      [
        "▁nad",
        -7.593398949405332
      ],
      [
        "▁pärast",
        -7.5970634222343225
      ],
      [
        "▁A",
        -7.598807225058703
      ],
      [
        "▁kokku",
        -7.599435003156215
      ],
      [
        "ke",
        -7.600098736859014
      ],
      [
        "ga,",
        -7.607568491839997
      ],
      [
        "t.",
        -7.61399186179368
      ],
      [
        "▁K",
        -7.6271032799643255
      ],
      [
        "on",
        -7.628677174390765
      ],
      [
        "▁ainult",
        -7.628695149480928
      ],
      [
        "d.",
        -7.636978384085282
      ],
      [
        "▁kõige",
        -7.637934060348302
      ],
      [
        "▁5",
        -7.64046954758731
      ],
      [
        "▁teha",
        -7.6441863389725935
      ],
      [
        "▁E",
        -7.6447263162953565
      ],
      [
        "▁ühe",
        -7.646586188935453
      ],
      [
        "ed",
        -7.64901142182938
      ],
      [
        "mist",
        -7.651039824236712
      ],
      [
        "▁olema",
        -7.655726225130076
      ],
      [
        "▁ajal",
        -7.658909666348437
      ],
      [
        "▁enam",
        -7.662317350195371
      ],
      [
        "▁tagasi",
        -7.687106224501052
      ],
      [
        "ide",
        -7.688015518874723
      ],
      [
        "▁võimalik",
        -7.691230659802548
      ],
      [
        "▁iga",
        -7.705982489692827
      ],
      [
        "▁olnud",
        -7.707827724094157
      ],
      [
        "▁enne",
        -7.709279399073646
      ],
      [
        "▁peale",
        -7.712049656339877
      ],
      [
        "▁elu",
        -7.720358603920806
      ],
      [
        "ks.",
        -7.724972569871683
      ],
      [
        "▁ehk",
        -7.727564337232996
      ],
      [
        "es",
        -7.728207631632522
      ],
      [
        "),",
        -7.729520737852914
      ],
      [
        "▁saa",
        -7.7310099300047845
      ],
      [
        "t,",
        -7.746108182854568
      ],
      [
        "▁ikka",
        -7.748420243647432
      ],
      [
        "▁Tallinna",
        -7.749904847336886
      ],
      [
        "▁Kas",
        -7.757667280284863
      ],
      [
        "▁10",
        -7.761740264886104
      ],
      [
        "▁midagi",
        -7.7643368180455425
      ],
      [
        "▁minu",
        -7.767107763357364
      ],
      [
        "▁ette",
        -7.767817348980438
      ],
      [
        "va",
        -7.7763552866101495
      ],
      [
        "st,",
        -7.781727177968499
      ],
      [
        "▁vaja",
        -7.788854737908247
      ],
      [
        "▁jaoks",
        -7.789346117739068
      ],
      [
        "▁sai",
        -7.795826916911341
      ],
      [
        "r",
        -7.799247814578909
      ],
      [
        "▁käesoleva",
        -7.80741223572768
      ],
      [
        "line",
        -7.812434632367909
      ],
      [
        "le,",
        -7.8132336779958536
      ],
      [
        "▁T",
        -7.81538700937474
      ],
      [
        "▁me",
        -7.8208704298385605
      ],
      [
        "▁Tartu",
        -7.821932924094368
      ],
      [
        "“",
        -7.82631375493197
      ],
      [
        "ku",
        -7.8292141440515
      ],
      [
        "▁olen",
        -7.838798449753028
      ],
      [
        "▁jooksul",
        -7.859868126583164
      ],
      [
        "▁siin",
        -7.866148465737069
      ],
      [
        "▁nüüd",
        -7.867021628808761
      ],
      [
        "▁korral",
        -7.876035018585947
      ],
      [
        "▁olid",
        -7.876915612441058
      ],
      [
        "▁1.",
        -7.896542774703159
      ],
      [
        "▁päeva",
        -7.898215381774849
      ],
      [
        "▁seal",
        -7.90049977965681
      ],
      [
        "▁Aga",
        -7.902422131433118
      ],
      [
        "▁I",
        -7.9034841377390865
      ],
      [
        "▁küll",
        -7.904192421253814
      ],
      [
        "▁seotud",
        -7.907707763616187
      ],
      [
        "▁riigi",
        -7.908178989259742
      ],
      [
        "tele",
        -7.911024873430808
      ],
      [
        "▁puhul",
        -7.911279217553863
      ],
      [
        "▁(1)",
        -7.911388993106614
      ],
      [
        "▁alla",
        -7.914354752398371
      ],
      [
        "▁peaks",
        -7.932857112950023
      ],
      [
        "▁Ta",
        -7.937446132300673
      ],
      [
        "▁ju",
        -7.94200488974338
      ],
      [
        "g",
        -7.946024099443456
      ],
      [
        "h",
        -7.9505068003032235
      ],
      [
        "▁õigus",
        -7.95500430992208
      ],
      [
        "▁pea",
        -7.959433337586548
      ],
      [
        "▁P",
        -7.96311616417052
      ],
      [
        "▁6",
        -7.968841414966734
      ],
      [
        "▁ilma",
        -7.971516450948384
      ],
      [
        "ka",
        -7.974291336855613
      ],
      [
        "▁kaasa",
        -7.979792947101373
      ],
      [
        "▁Ka",
        -7.985231556358189
      ],
      [
        "y",
        -7.992957750400349
      ],
      [
        "▁“",
        -8.000187425808853
      ],
      [
        "el",
        -8.004085594084929
      ],
      [
        "▁V",
        -8.007157272475878
      ],
      [
        "▁Eestis",
        -8.007451770367195
      ],
      [
        "▁näiteks",
        -8.016214972940343
      ],
      [
        "▁(2)",
        -8.016522615961716
      ],
      [
        "▁sisse",
        -8.017990962591007
      ],
      [
        "▁just",
        -8.027330944149545
      ],
      [
        "in",
        -8.032507930105508
      ],
      [
        "▁seaduse",
        -8.034501879948978
      ],
      [
        "▁eesti",
        -8.042687078760956
      ],
      [
        "▁saada",
        -8.048180602690561
      ],
      [
        "▁sellest",
        -8.05533012841773
      ],
      [
        "▁•",
        -8.057000849732619
      ],
      [
        "▁raha",
        -8.059640704851853
      ],
      [
        "la",
        -8.062397799859697
      ],
      [
        "▁edasi",
        -8.06263987204742
      ],
      [
        "▁enda",
        -8.063856412929468
      ],
      [
        "tes",
        -8.068170616009521
      ],
      [
        "▁korda",
        -8.071320984725084
      ],
      [
        "▁kasutada",
        -8.074060381110144
      ],
      [
        "▁uue",
        -8.077119012141868
      ],
      [
        "si",
        -8.07840134199987
      ],
      [
        "­",
        -8.083632799602972
      ],
      [
        "p",
        -8.089231268262683
      ],
      [
        "▁lihtsalt",
        -8.091051803098955
      ],
      [
        "▁tee",
        -8.093419430062347
      ],
      [
        "▁vähemalt",
        -8.093763094245862
      ],
      [
        "▁aega",
        -8.098239649806853
      ],
      [
        "test",
        -8.107133637104734
      ],
      [
        "▁lisa",
        -8.107906630948044
      ],
      [
        "▁kooli",
        -8.10873540295207
      ],
      [
        "▁taga",
        -8.112414605746022
      ],
      [
        "▁kaks",
        -8.11435401260702
      ],
      [
        "▁aja",
        -8.130100531480915
      ],
      [
        "▁sama",
        -8.13580191789975
      ],
      [
        "▁7",
        -8.140197528637572
      ],
      [
        "▁Selle",
        -8.146561190737627
      ],
      [
        "tel",
        -8.148323416294696
      ],
      [
        "▁Kõik",
        -8.148411780671728
      ],
      [
        "▁alusel",
        -8.149159316429861
      ],
      [
        ".ee",
        -8.157357150686076
      ],
      [
        "▁R",
        -8.158627612764684
      ],
      [
        "▁8",
        -8.166144366656676
      ],
      [
        "▁samuti",
        -8.176715416358762
      ],
      [
        "▁aastat",
        -8.181623127960417
      ],
      [
        "▁nimetatud",
        -8.1986762417695
      ],
      [
        "▁mul",
        -8.199370327717977
      ],
      [
        "▁M",
        -8.203408439768106
      ],
      [
        "▁ütles",
        -8.2073228359109
      ],
      [
        "▁kuna",
        -8.210165392013263
      ],
      [
        "▁isegi",
        -8.211676891356193
      ],
      [
        "▁lõike",
        -8.21236380560627
      ],
      [
        "▁juhul",
        -8.212962613804184
      ],
      [
        "▁saanud",
        -8.22218279562254
      ],
      [
        "▁12",
        -8.225229785894335
      ],
      [
        "us",
        -8.230220096509717
      ],
      [
        "▁järgi",
        -8.2312287582331
      ],
      [
        "miseks",
        -8.232325043826789
      ],
      [
        "▁alati",
        -8.236514330776847
      ],
      [
        "il",
        -8.238787053643788
      ],
      [
        "▁vastavalt",
        -8.246718274074142
      ],
      [
        "▁mu",
        -8.246718501976039
      ],
      [
        "▁sätestatud",
        -8.247861594467023
      ],
      [
        "▁kohe",
        -8.248030543309488
      ],
      [
        "▁Nii",
        -8.25399555904714
      ],
      [
        "▁L",
        -8.257059104514441
      ],
      [
        "▁eriti",
        -8.262118557845447
      ],
      [
        "▁täna",
        -8.263143983500877
      ],
      [
        "▁20",
        -8.263993461547592
      ],
      [
        "▁15",
        -8.264468823746205
      ],
      [
        "tu",
        -8.269349474728791
      ],
      [
        "sime",
        -8.27495292862783
      ],
      [
        "▁alates",
        -8.277660426892874
      ],
      [
        "▁all",
        -8.27786931382124
      ],
      [
        "▁kelle",
        -8.283331472747966
      ],
      [
        "er",
        -8.285660129467624
      ],
      [
        "ks,",
        -8.290881972583783
      ],
      [
        "▁tuli",
        -8.295256808611544
      ],
      [
        "▁2.",
        -8.29770668703142
      ],
      [
        "▁toimub",
        -8.299802595588421
      ],
      [
        "▁kord",
        -8.300319179564623
      ],
      [
        "▁maailma",
        -8.300831968672561
      ],
      [
        "et",
        -8.30348670044863
      ],
      [
        "▁Liidu",
        -8.306807500220788
      ],
      [
        "lik",
        -8.307654270959421
      ],
      [
        "▁annab",
        -8.312894983224393
      ],
      [
        "▁mulle",
        -8.313897912614516
      ],
      [
        "▁teiste",
        -8.316984513166368
      ],
      [
        "▁üles",
        -8.322079714182054
      ],
      [
        "▁siiski",
        -8.324439632455332
      ],
      [
        "ri",
        -8.324988007695223
      ],
      [
        "sed",
        -8.325235989056338
      ],
      [
        "▁uus",
        -8.327835157858942
      ],
      [
        "▁Sa",
        -8.329167261560222
      ],
      [
        "▁artikli",
        -8.331521631595793
      ],
      [
        "▁auto",
        -8.334096968955663
      ],
      [
        "▁juurde",
        -8.336217555113507
      ],
      [
        "▁linna",
        -8.336363043892943
      ],
      [
        "▁(3)",
        -8.336610331059008
      ],
      [
        "▁hästi",
        -8.349251096113525
      ],
      [
        "▁aeg",
        -8.355058867382203
      ],
      [
        "▁kodu",
        -8.355756927350047
      ],
      [
        "▁võivad",
        -8.355759467941615
      ],
      [
        "▁tehtud",
        -8.356739742780086
      ],
      [
        "▁...",
        -8.359900766821548
      ],
      [
        "▁kahe",
        -8.361166293633225
      ],
      [
        "▁vahel",
        -8.36146482533405
      ],
      [
        "▁teise",
        -8.363607535223021
      ],
      [
        "▁/",
        -8.373830640443247
      ],
      [
        "▁maa",
        -8.375109190126622
      ],
      [
        "▁kuu",
        -8.376811009327398
      ],
      [
        "▁Mis",
        -8.381736042429338
      ],
      [
        "▁võiks",
        -8.383243332740829
      ],
      [
        "an",
        -8.38414551180573
      ],
      [
        "▁tasuta",
        -8.3940022250662
      ],
      [
        "▁võtta",
        -8.398767964870123
      ],
      [
        "▁selleks",
        -8.400920544582567
      ],
      [
        "li",
        -8.40191189734872
      ],
      [
        "▁sõnu",
        -8.404887941399327
      ],
      [
        "▁teeb",
        -8.405004739278962
      ],
      [
        "▁eri",
        -8.410449347214403
      ],
      [
        "▁end",
        -8.41234114510598
      ],
      [
        "▁meil",
        -8.41706661069614
      ],
      [
        "▁kindlasti",
        -8.418944821108234
      ],
      [
        "▁poole",
        -8.422538430278578
      ],
      [
        "▁selles",
        -8.426273993020969
      ],
      [
        "▁kaitse",
        -8.426544239306
      ],
      [
        "▁jääb",
        -8.429975918204963
      ],
      [
        "▁muud",
        -8.431416043874709
      ],
      [
        "▁endale",
        -8.432491097973399
      ],
      [
        "▁pool",
        -8.443470612414897
      ],
      [
        "▁Lisaks",
        -8.444764284621824
      ],
      [
        "▁sinu",
        -8.447559406080455
      ],
      [
        "▁kell",
        -8.448910728005698
      ],
      [
        "▁C",
        -8.449774967592065
      ],
      [
        "▁Kuidas",
        -8.452837978964313
      ],
      [
        "e,",
        -8.452933670887628
      ],
      [
        "▁Me",
        -8.453859399545534
      ],
      [
        "2)",
        -8.455455595496327
      ],
      [
        "maa",
        -8.457330700574184
      ],
      [
        "▁nr",
        -8.461353939229333
      ],
      [
        "▁9",
        -8.461925132968187
      ],
      [
        "▁mingi",
        -8.462043716974419
      ],
      [
        "▁päris",
        -8.463447670386483
      ],
      [
        "2",
        -8.47627804208351
      ],
      [
        "lise",
        -8.47659746132493
      ],
      [
        "id,",
        -8.477212934708492
      ],
      [
        "▁Ei",
        -8.48169053286488
      ],
      [
        "▁lõikes",
        -8.48508530490821
      ],
      [
        "▁abi",
        -8.489602438748895
      ],
      [
        "▁sellele",
        -8.491719647866493
      ],
      [
        "▁vee",
        -8.497163385705027
      ],
      [
        "▁sellega",
        -8.498848139998424
      ],
      [
        "ist",
        -8.499243324574095
      ],
      [
        "▁p",
        -8.502405275133716
      ],
      [
        "▁3.",
        -8.502659840463004
      ],
      [
        "▁30",
        -8.502933677119719
      ],
      [
        "D",
        -8.506366159592439
      ],
      [
        "▁keegi",
        -8.506875355554433
      ],
      [
        "f",
        -8.5072858716041
      ],
      [
        "▁muu",
        -8.508407777708435
      ],
      [
        "▁sel",
        -8.509925840970405
      ],
      [
        "ra",
        -8.518854068535042
      ],
      [
        "▁»",
        -8.519648363584729
      ],
      [
        "S",
        -8.520045642464119
      ],
      [
        "▁lisaks",
        -8.521873291131529
      ],
      [
        "▁11",
        -8.526317768321793
      ],
      [
        "▁keele",
        -8.526347878735447
      ],
      [
        "▁:)",
        -8.528519296653254
      ],
      [
        "▁saavad",
        -8.528993762465479
      ],
      [
        "iga",
        -8.52987043480881
      ],
      [
        "▁juures",
        -8.530257574145633
      ],
      [
        "▁selline",
        -8.537040129964632
      ],
      [
        "est",
        -8.537294318460038
      ],
      [
        "▁ümber",
        -8.538093754153788
      ],
      [
        "al",
        -8.539955756469615
      ],
      [
        "▁Meie",
        -8.541657559088144
      ],
      [
        "▁isiku",
        -8.54173402536657
      ],
      [
        "re",
        -8.544455146299885
      ],
      [
        "▁mõju",
        -8.54791298978095
      ],
      [
        "▁väike",
        -8.549345463232227
      ],
      [
        "▁000",
        -8.549723553106778
      ],
      [
        "▁miks",
        -8.549821712178161
      ],
      [
        "▁praegu",
        -8.550039995752764
      ],
      [
        "▁1)",
        -8.550787483857357
      ],
      [
        "tus",
        -8.552044736574771
      ],
      [
        "▁h",
        -8.55552167590125
      ],
      [
        "▁läheb",
        -8.556607271143761
      ],
      [
        "▁kunagi",
        -8.55812772573376
      ],
      [
        "▁mängu",
        -8.560307596096802
      ],
      [
        "▁ees",
        -8.564597798947064
      ],
      [
        "1",
        -8.568481189583423
      ],
      [
        "▁valmis",
        -8.568573045104865
      ],
      [
        "▁antud",
        -8.571336455591172
      ],
      [
        "▁Minu",
        -8.573375803670483
      ],
      [
        "▁18",
        -8.574616877908747
      ],
      [
        "]",
        -8.576226036842892
      ],
      [
        "tav",
        -8.576284681235373
      ],
      [
        "▁inimeste",
        -8.576424700804814
      ],
      [
        "x",
        -8.584083649046445
      ],
      [
        "▁*",
        -8.585860566360124
      ],
      [
        "▁esimese",
        -8.588232691546798
      ],
      [
        "▁inimesed",
        -8.597358239567122
      ],
      [
        ",\"",
        -8.597531694835837
      ],
      [
        "▁vana",
        -8.60122775115796
      ],
      [
        "da.",
        -8.602570399748412
      ],
      [
        "▁14",
        -8.602929398619553
      ],
      [
        "▁üldse",
        -8.603420054365445
      ],
      [
        "▁teie",
        -8.607172917640664
      ],
      [
        "▁mõne",
        -8.610418072042782
      ],
      [
        "▁N",
        -8.615261856131912
      ],
      [
        "▁kohaselt",
        -8.617436123947886
      ],
      [
        "3",
        -8.622506132910459
      ],
      [
        "▁k",
        -8.623122580357421
      ],
      [
        "▁2018",
        -8.623302583236327
      ],
      [
        "▁sõna",
        -8.625014648752117
      ],
      [
        "A",
        -8.625390073336073
      ],
      [
        "▁talle",
        -8.62692963439246
      ],
      [
        "▁tõttu",
        -8.628664590371933
      ],
      [
        "▁maha",
        -8.628793073776581
      ],
      [
        "▁liiga",
        -8.62915363421441
      ],
      [
        "gu",
        -8.629447310313765
      ],
      [
        "▁info",
        -8.630276051931878
      ],
      [
        "▁kaudu",
        -8.63121106941343
      ],
      [
        "▁teine",
        -8.63439199148961
      ],
      [
        "▁raske",
        -8.636674637577306
      ],
      [
        "▁peavad",
        -8.637276762893006
      ],
      [
        "ad",
        -8.638271100399031
      ],
      [
        "▁tegelikult",
        -8.638886982128477
      ],
      [
        "▁laste",
        -8.639562793709707
      ],
      [
        "▁esimene",
        -8.642123992428045
      ],
      [
        "▁millega",
        -8.64260792189463
      ],
      [
        "▁[",
        -8.646507445110053
      ],
      [
        "▁suure",
        -8.64814283291158
      ],
      [
        "▁H",
        -8.648819813462683
      ],
      [
        "▁valla",
        -8.65283971898247
      ],
      [
        "▁16",
        -8.654635171944761
      ],
      [
        "▁asja",
        -8.654707862931845
      ],
      [
        "▁põhi",
        -8.660337823229797
      ],
      [
        "▁B",
        -8.661553176536387
      ],
      [
        "▁esitatud",
        -8.667629720468677
      ],
      [
        "▁100",
        -8.669019427866834
      ],
      [
        "▁D",
        -8.67331975793701
      ],
      [
        "töö",
        -8.673968222823188
      ],
      [
        "▁lepingu",
        -8.67593430952579
      ],
      [
        "maks",
        -8.676937861323745
      ],
      [
        "▁kultuuri",
        -8.677841553121413
      ],
      [
        "Samuti",
        -8.679488647913061
      ],
      [
        "▁suhtes",
        -8.68132477075792
      ],
      [
        "▁õige",
        -8.681933770544703
      ],
      [
        "3)",
        -8.683157576989846
      ],
      [
        "▁oleme",
        -8.685891956454256
      ],
      [
        "dest",
        -8.689295893162813
      ],
      [
        "tega",
        -8.690157423154936
      ],
      [
        "E",
        -8.690331112173933
      ],
      [
        "▁keha",
        -8.691737852135404
      ],
      [
        "▁13",
        -8.69199647817709
      ],
      [
        "▁võimalus",
        -8.694098908445461
      ],
      [
        "dega",
        -8.70007180932176
      ],
      [
        "mata",
        -8.703291304935915
      ],
      [
        "▁jäi",
        -8.705357802553081
      ],
      [
        "ste",
        -8.706469249286577
      ],
      [
        "▁eurot",
        -8.712127929465495
      ],
      [
        "▁umbes",
        -8.712530450099877
      ],
      [
        "▁mind",
        -8.713088740791381
      ],
      [
        "▁osas",
        -8.714231197941768
      ],
      [
        "▁rahva",
        -8.714543330274836
      ],
      [
        "c",
        -8.715505026099368
      ],
      [
        "▁m",
        -8.71703182350658
      ],
      [
        "▁head",
        -8.717846618502275
      ],
      [
        "▁Kuna",
        -8.725963421133205
      ],
      [
        "misel",
        -8.727290553274878
      ],
      [
        "▁Vabariigi",
        -8.727806668539625
      ],
      [
        "▁kolme",
        -8.72832951948165
      ],
      [
        "ud",
        -8.729747685365673
      ],
      [
        "▁toidu",
        -8.733367589691257
      ],
      [
        "▁vaba",
        -8.733805622450836
      ],
      [
        "▁neile",
        -8.734989647338733
      ],
      [
        "(4)",
        -8.735334922502403
      ],
      [
        "▁4.",
        -8.739505008759135
      ],
      [
        "▁näha",
        -8.73980763881881
      ],
      [
        "▁tähendab",
        -8.73993622255123
      ],
      [
        "▁päev",
        -8.740033265739205
      ],
      [
        "as",
        -8.742398049493753
      ],
      [
        "▁asi",
        -8.745448890523702
      ],
      [
        "▁määruse",
        -8.74815578648628
      ],
      [
        "▁äri",
        -8.749146129410768
      ],
      [
        "▁kolm",
        -8.750799920977176
      ],
      [
        "▁oled",
        -8.751285517426126
      ],
      [
        "▁sinna",
        -8.752136861185907
      ],
      [
        "▁anda",
        -8.754765450268202
      ],
      [
        "ar",
        -8.755665472389776
      ],
      [
        "▁ema",
        -8.757360752414025
      ],
      [
        "del",
        -8.761294402143838
      ],
      [
        "aja",
        -8.761911993223308
      ],
      [
        "▁paragrahvi",
        -8.76238588632345
      ],
      [
        "▁tuleks",
        -8.763361726474578
      ],
      [
        "▁osta",
        -8.763549077168449
      ],
      [
        "▁O",
        -8.764441284002235
      ],
      [
        "▁otse",
        -8.765467923733526
      ],
      [
        "▁vähem",
        -8.768653796602617
      ],
      [
        "▁ELi",
        -8.768997791265416
      ],
      [
        "liste",
        -8.769403354385542
      ],
      [
        "▁mina",
        -8.771769701589314
      ],
      [
        "sti",
        -8.774681521866441
      ],
      [
        "kas",
        -8.775560825603428
      ],
      [
        "▁alles",
        -8.776030801026844
      ],
      [
        "im",
        -8.77624647354482
      ],
      [
        "▁On",
        -8.777894571281799
      ],
      [
        "ha",
        -8.777930362773159
      ],
      [
        "▁varem",
        -8.778637097222582
      ],
      [
        "▁abil",
        -8.779250433350867
      ],
      [
        "▁50",
        -8.780621954248403
      ],
      [
        "a.",
        -8.787395484774343
      ],
      [
        "▁inimese",
        -8.787954200592504
      ],
      [
        "▁võtab",
        -8.788508551032283
      ],
      [
        "▁ennast",
        -8.788958386006136
      ],
      [
        "▁tal",
        -8.789351383159316
      ],
      [
        "▁ala",
        -8.791250191187295
      ],
      [
        "▁sisu",
        -8.791564883453653
      ],
      [
        "▁kõiki",
        -8.793911812885817
      ],
      [
        "▁G",
        -8.798047177795912
      ],
      [
        "▁mõned",
        -8.799046212915604
      ],
      [
        "▁täis",
        -8.800716568784624
      ],
      [
        "▁hiljem",
        -8.802010068419493
      ],
      [
        "▁täiesti",
        -8.804237646161926
      ],
      [
        "▁huvi",
        -8.805248364396881
      ],
      [
        "(",
        -8.805275442737486
      ],
      [
        "▁lapse",
        -8.806076711622161
      ],
      [
        "▁leida",
        -8.806176368842612
      ],
      [
        "▁koha",
        -8.806410581638247
      ],
      [
        "▁asub",
        -8.806520501998463
      ],
      [
        "to",
        -8.806548906368526
      ],
      [
        "vi",
        -8.808605777218983
      ],
      [
        "▁Täna",
        -8.809402574729688
      ],
      [
        "▁nime",
        -8.810757718202204
      ],
      [
        "▁kasutamise",
        -8.814553062942622
      ],
      [
        "▁hind",
        -8.814601366233184
      ],
      [
        "▁F",
        -8.8150378914725
      ],
      [
        "▁Re",
        -8.81732003438078
      ],
      [
        "▁hetkel",
        -8.817680985831599
      ],
      [
        "K",
        -8.81858063800108
      ],
      [
        "▁Vaata",
        -8.818809311430691
      ],
      [
        "list",
        -8.818888767244452
      ],
      [
        "▁Tallinn",
        -8.823320326361014
      ],
      [
        "dele",
        -8.824520644304823
      ],
      [
        "hi",
        -8.825987503486013
      ],
      [
        "▁igal",
        -8.828453576923792
      ],
      [
        "he",
        -8.828475629105714
      ],
      [
        "▁metsa",
        -8.828886543222465
      ],
      [
        "▁samas",
        -8.82950528268952
      ],
      [
        "▁veidi",
        -8.830090899533744
      ],
      [
        "mine,",
        -8.83481330072639
      ],
      [
        "▁Üks",
        -8.836400003739417
      ],
      [
        "▁km",
        -8.83678865677528
      ],
      [
        "▁projekti",
        -8.837340065288128
      ],
      [
        "▁Töö",
        -8.83736570373334
      ],
      [
        "▁siia",
        -8.838686989263742
      ],
      [
        "▁teda",
        -8.83906412765842
      ],
      [
        "ala",
        -8.83930494676071
      ],
      [
        "▁kohta.",
        -8.841828777114769
      ],
      [
        "▁eesmärk",
        -8.841854163204882
      ],
      [
        "▁Soome",
        -8.842134028820634
      ],
      [
        "▁19",
        -8.844158898475076
      ],
      [
        "▁millest",
        -8.845639075503303
      ],
      [
        "▁aitab",
        -8.846275227891505
      ],
      [
        "▁tööd",
        -8.846610905146527
      ],
      [
        "▁kinni",
        -8.850273024954932
      ],
      [
        "▁koht",
        -8.850429567486254
      ],
      [
        "▁pakub",
        -8.850919217825844
      ],
      [
        "▁Seda",
        -8.852209108435899
      ],
      [
        "_",
        -8.852512067271732
      ],
      [
        "pa",
        -8.852646010403346
      ],
      [
        "lised",
        -8.8533659900378
      ],
      [
        "▁nõukogu",
        -8.854669321214093
      ],
      [
        "▁isik",
        -8.856958857461736
      ],
      [
        "▁olemas",
        -8.858752933875115
      ],
      [
        "eks",
        -8.859912517196339
      ],
      [
        "▁17",
        -8.860201030446696
      ],
      [
        "▁juht",
        -8.86080161847535
      ],
      [
        "»",
        -8.861483919301232
      ],
      [
        "or",
        -8.865192993397974
      ],
      [
        "▁muidugi",
        -8.867376770266596
      ],
      [
        "▁oluline",
        -8.868995921053646
      ],
      [
        "▁tegemist",
        -8.870286053443872
      ],
      [
        "▁siit",
        -8.870621585834
      ],
      [
        "▁hoopis",
        -8.872966345457167
      ],
      [
        "▁tule",
        -8.873049325554858
      ],
      [
        "pi",
        -8.87320980382529
      ],
      [
        "▁neist",
        -8.876815010507702
      ],
      [
        "▁mees",
        -8.877203463859873
      ],
      [
        "üsna",
        -8.877996355198341
      ],
      [
        "–",
        -8.879928216737145
      ],
      [
        "▁Sinu",
        -8.88003855051987
      ],
      [
        "ko",
        -8.880039612270188
      ],
      [
        "use",
        -8.880043080878556
      ],
      [
        "L",
        -8.880053272874026
      ],
      [
        "▁erinevate",
        -8.880892819069281
      ],
      [
        "▁teada",
        -8.88195070874249
      ],
      [
        "▁küla",
        -8.883222506419383
      ],
      [
        "▁suured",
        -8.883790879844664
      ],
      [
        "▁neil",
        -8.887277151176846
      ],
      [
        "ma.",
        -8.888499438422627
      ],
      [
        "▁otsuse",
        -8.888608399779908
      ],
      [
        "▁korra",
        -8.888671445101014
      ],
      [
        "▁muude",
        -8.888998981255392
      ],
      [
        "▁taotluse",
        -8.889818207938443
      ],
      [
        "▁hinna",
        -8.891304037070736
      ],
      [
        "di",
        -8.8913659898111
      ],
      [
        "▁25",
        -8.89271143455651
      ],
      [
        "▁taas",
        -8.89464440797795
      ],
      [
        "▁saad",
        -8.896666946581865
      ],
      [
        "▁ettevõtte",
        -8.905397817322601
      ],
      [
        "▁arengu",
        -8.90622798489176
      ],
      [
        "▁U",
        -8.906345475350019
      ],
      [
        "4)",
        -8.906587439878262
      ],
      [
        "▁su",
        -8.908311461522743
      ],
      [
        "'",
        -8.908361939794721
      ],
      [
        "▁keskkonna",
        -8.908694675406242
      ],
      [
        "▁terve",
        -8.9109044336487
      ],
      [
        "▁5.",
        -8.913951394705407
      ],
      [
        "▁kõigi",
        -8.914561473598427
      ],
      [
        "▁viis",
        -8.916530504967795
      ],
      [
        "▁muusika",
        -8.917837624084932
      ],
      [
        "▁koostöö",
        -8.919798467501007
      ],
      [
        "▁kuhu",
        -8.920010624160113
      ],
      [
        "▁saaks",
        -8.920592622427712
      ],
      [
        "sse.",
        -8.920699500234214
      ],
      [
        "tava",
        -8.92212103134091
      ],
      [
        "▁Iga",
        -8.92247255535197
      ],
      [
        "▁vist",
        -8.929743685150637
      ],
      [
        "▁cm",
        -8.930687808339895
      ],
      [
        "▁lõpuks",
        -8.930900451783208
      ],
      [
        "T",
        -8.931246850082783
      ],
      [
        "z",
        -8.931602917844918
      ],
      [
        "▁kohtu",
        -8.932547064653575
      ],
      [
        "▁keeles",
        -8.932930483563037
      ],
      [
        "▁sellise",
        -8.933209935563443
      ],
      [
        "liku",
        -8.9337658518908
      ],
      [
        "▁Riigi",
        -8.93490570864066
      ],
      [
        "▁«",
        -8.936921792379657
      ],
      [
        "▁filmi",
        -8.937338334647396
      ],
      [
        "▁mil",
        -8.937989824440345
      ],
      [
        "mi",
        -8.938825006589724
      ],
      [
        "▁kirja",
        -8.93910999555862
      ],
      [
        "▁meile",
        -8.939420908358167
      ],
      [
        "vat",
        -8.939557381517043
      ],
      [
        "lisi",
        -8.9397589952029
      ],
      [
        "süsteemi",
        -8.94222490265956
      ],
      [
        "▁tõesti",
        -8.94262804820797
      ],
      [
        "4",
        -8.942878273028239
      ],
      [
        "▁kuigi",
        -8.94555194345049
      ],
      [
        "ele",
        -8.94582273722245
      ],
      [
        "▁teema",
        -8.95117711791954
      ],
      [
        "▁2017",
        -8.954030701374533
      ],
      [
        "▁mõni",
        -8.954202427848633
      ],
      [
        "▁maja",
        -8.95443853383038
      ],
      [
        "▁andmed",
        -8.95516235723817
      ],
      [
        "tavad",
        -8.955850701076248
      ],
      [
        "5",
        -8.958246204521876
      ],
      [
        "▁suurem",
        -8.958578905618987
      ],
      [
        "▁käigus",
        -8.958650606024221
      ],
      [
        "▁kontrolli",
        -8.958689978726763
      ],
      [
        "▁jälle",
        -8.958850163154153
      ],
      [
        "▁energia",
        -8.958977162516497
      ],
      [
        "▁lisas",
        -8.959028715693439
      ],
      [
        "▁Nüüd",
        -8.961137983630767
      ],
      [
        "at",
        -8.962053986786927
      ],
      [
        "▁aru",
        -8.962464554655288
      ],
      [
        "▁vähe",
        -8.962509206838027
      ],
      [
        "▁tasu",
        -8.962811752431985
      ],
      [
        "▁juhi",
        -8.963624903989501
      ],
      [
        "ing",
        -8.966192919087543
      ],
      [
        "▁kätte",
        -8.968717602511628
      ],
      [
        "▁Mida",
        -8.96976568901032
      ],
      [
        "▁teinud",
        -8.970406601344218
      ],
      [
        "▁mitu",
        -8.972267116062824
      ],
      [
        "▁andmete",
        -8.977354781679384
      ],
      [
        "ur",
        -8.981762133331728
      ],
      [
        "da,",
        -8.982753223285695
      ],
      [
        "▁Et",
        -8.984137751649694
      ],
      [
        "▁Kuid",
        -8.986791840559153
      ],
      [
        "▁võimaldab",
        -8.988273862971601
      ],
      [
        "vate",
        -8.98846737978758
      ],
      [
        "▁ravi",
        -8.988893669756411
      ],
      [
        "▁läks",
        -8.991943886858994
      ],
      [
        "V",
        -8.992614498197742
      ],
      [
        "▁päeval",
        -8.996125465635231
      ],
      [
        "▁välis",
        -8.996237521503062
      ],
      [
        "6",
        -8.997814302626672
      ],
      [
        "▁reisi",
        -8.998433258174352
      ],
      [
        "▁inimene",
        -8.99919760489586
      ],
      [
        "▁tegevus",
        -8.999743783929848
      ],
      [
        "▁USA",
        -9.00278793848142
      ],
      [
        "▁noorte",
        -9.002951279661922
      ],
      [
        "▁hakkab",
        -9.004605189932978
      ],
      [
        "ve",
        -9.004745979471364
      ],
      [
        "ju",
        -9.00481591628718
      ],
      [
        "▁ehitus",
        -9.005892717521633
      ],
      [
        "ro",
        -9.005967326277485
      ],
      [
        "▁tähelepanu",
        -9.007284628373062
      ],
      [
        "\".",
        -9.007508582870233
      ],
      [
        "▁miljonit",
        -9.00841409617463
      ],
      [
        "id.",
        -9.008755744393294
      ],
      [
        "▁euro",
        -9.011546637769394
      ],
      [
        "▁vara",
        -9.012016404256174
      ],
      [
        "mist.",
        -9.012571245660556
      ],
      [
        "▁saate",
        -9.012737400559967
      ],
      [
        "▁Või",
        -9.013604939660908
      ],
      [
        "’",
        -9.013706102006731
      ],
      [
        "ile",
        -9.01600129378068
      ],
      [
        "▁kasutatakse",
        -9.016321647922814
      ],
      [
        "▁erinevaid",
        -9.017835290843689
      ],
      [
        "selt",
        -9.019791328084168
      ],
      [
        "en",
        -9.019867730169533
      ],
      [
        "no",
        -9.020598389959979
      ],
      [
        "▁Oma",
        -9.020693354355442
      ],
      [
        "▁eelarve",
        -9.021211568858702
      ],
      [
        "▁soovi",
        -9.021383129434115
      ],
      [
        "▁tegevuse",
        -9.021493938435889
      ],
      [
        "▁Maa",
        -9.02183303279196
      ],
      [
        "▁sex",
        -9.022662276483508
      ],
      [
        "▁Need",
        -9.023023884503996
      ],
      [
        "▁direktiivi",
        -9.023084927050618
      ],
      [
        ",“",
        -9.024958680081575
      ],
      [
        "▁parem",
        -9.025000813030058
      ],
      [
        "nd",
        -9.025082876488128
      ],
      [
        "▁uut",
        -9.025661083553786
      ],
      [
        "▁toetuse",
        -9.028626442174296
      ],
      [
        "▁minna",
        -9.029046369902119
      ],
      [
        "▁peal",
        -9.029708501203174
      ],
      [
        "sel",
        -9.03023300068236
      ],
      [
        "laste",
        -9.030953762494711
      ],
      [
        "▁liige",
        -9.032209320794031
      ],
      [
        "▁tundi",
        -9.032982005681394
      ],
      [
        "▁sellest,",
        -9.033810611412374
      ],
      [
        "▁pere",
        -9.033845554450824
      ],
      [
        "lu",
        -9.034238783823092
      ],
      [
        "▁Venemaa",
        -9.034469541940464
      ],
      [
        "▁milles",
        -9.03765817001692
      ],
      [
        "poliitika",
        -9.037826712713194
      ],
      [
        "▁24",
        -9.038239630504492
      ],
      [
        "▁pigem",
        -9.038353514736587
      ],
      [
        "ru",
        -9.03931116253284
      ],
      [
        "▁ilmselt",
        -9.040038150055768
      ],
      [
        "▁punkti",
        -9.04081003396534
      ],
      [
        "▁sul",
        -9.041046137701166
      ],
      [
        "▁kiire",
        -9.041859097069477
      ],
      [
        "▁viimase",
        -9.04200617049878
      ],
      [
        "▁arv",
        -9.042506363051276
      ],
      [
        "▁silma",
        -9.042571570129049
      ],
      [
        "▁seoses",
        -9.044951276053514
      ],
      [
        "▁nimi",
        -9.04499358679045
      ],
      [
        "▁teenuste",
        -9.045605696340669
      ],
      [
        "▁õppe",
        -9.046010004528
      ],
      [
        "eri",
        -9.047025252843266
      ],
      [
        "▁programmi",
        -9.047807192270447
      ],
      [
        "▁uute",
        -9.047987269653206
      ],
      [
        "▁+",
        -9.04909880731805
      ],
      [
        "▁v",
        -9.049340838509117
      ],
      [
        "▁tegi",
        -9.050752546575925
      ],
      [
        "▁II",
        -9.052549661402015
      ],
      [
        "▁kasutaja",
        -9.052847106197206
      ],
      [
        "▁Käesoleva",
        -9.053851461729773
      ],
      [
        "\",",
        -9.056909475540314
      ],
      [
        "▁summa",
        -9.057439807059364
      ],
      [
        "P",
        -9.05757761225575
      ],
      [
        "▁mere",
        -9.057806326184764
      ],
      [
        "▁eraldi",
        -9.06048934428388
      ],
      [
        "▁komisjoni",
        -9.061238992637088
      ],
      [
        "▁kõigile",
        -9.062817880092759
      ],
      [
        "▁natuke",
        -9.062943196241417
      ],
      [
        "▁esitada",
        -9.064224705038
      ],
      [
        "▁La",
        -9.064752535475918
      ],
      [
        "▁värvi",
        -9.066833267567436
      ],
      [
        "▁muuta",
        -9.067409353541462
      ],
      [
        "’i",
        -9.0688388628051
      ],
      [
        "▁taha",
        -9.069038517759633
      ],
      [
        "▁majandus",
        -9.069987672865643
      ],
      [
        "▁6.",
        -9.07110888836598
      ],
      [
        "▁paar",
        -9.075531899160604
      ],
      [
        "ma,",
        -9.076309751245237
      ],
      [
        "▁leiab",
        -9.07829804068871
      ],
      [
        "▁avatud",
        -9.080398313948113
      ],
      [
        "▁Samas",
        -9.080880056577545
      ],
      [
        "▁kõrval",
        -9.08170542065866
      ],
      [
        "lus",
        -9.082556345149204
      ],
      [
        "▁Tema",
        -9.082926430805047
      ],
      [
        "▁eelkõige",
        -9.083497427586437
      ],
      [
        "▁sise",
        -9.08429624589236
      ],
      [
        "▁ligi",
        -9.085022043687943
      ],
      [
        "▁sealhulgas",
        -9.08513499598111
      ],
      [
        "▁kvaliteedi",
        -9.085171063453156
      ],
      [
        "▁tervise",
        -9.086662751067944
      ],
      [
        "7",
        -9.088314184314344
      ],
      [
        "▁müügi",
        -9.088669319711375
      ],
      [
        "▁(5)",
        -9.08905810202216
      ],
      [
        "tuse",
        -9.09098336450988
      ],
      [
        "▁polnud",
        -9.091118325017467
      ],
      [
        "▁jäänud",
        -9.092754451907417
      ],
      [
        "▁tissid",
        -9.093340956559395
      ],
      [
        "ik",
        -9.093859656815122
      ],
      [
        "'i",
        -9.093988054344194
      ],
      [
        "I",
        -9.09399852605199
      ],
      [
        "▁kohaliku",
        -9.098254913496374
      ],
      [
        "na.",
        -9.098617273340484
      ],
      [
        "nn",
        -9.099188690147166
      ],
      [
        "▁teised",
        -9.100336442162767
      ],
      [
        "▁täpselt",
        -9.10062120535457
      ],
      [
        "▁toote",
        -9.100909513945616
      ],
      [
        "▁Suur",
        -9.101857669669837
      ],
      [
        "▁pidi",
        -9.101957579767578
      ],
      [
        "abi",
        -9.103793726612334
      ],
      [
        "B",
        -9.104499582107113
      ],
      [
        "eid",
        -9.105630941521111
      ],
      [
        "▁arvates",
        -9.107600287666841
      ],
      [
        "▁tohi",
        -9.108777325447846
      ],
      [
        "▁ikkagi",
        -9.109147522253098
      ],
      [
        "▁Loe",
        -9.109493409476226
      ],
      [
        "▁Mul",
        -9.109705142556978
      ],
      [
        "▁40",
        -9.109816820151863
      ],
      [
        "▁piisavalt",
        -9.110139131744509
      ],
      [
        "ndi",
        -9.110511473934617
      ],
      [
        "▁—",
        -9.111192963910113
      ],
      [
        "▁meid",
        -9.111271385406287
      ],
      [
        "ministeeriumi",
        -9.111593440107928
      ],
      [
        "▁kõrge",
        -9.113105894418794
      ],
      [
        "▁mõeldud",
        -9.113732358424013
      ],
      [
        "▁uusi",
        -9.11592563530144
      ],
      [
        "mas",
        -9.116118130736202
      ],
      [
        "▁Kes",
        -9.116406448017486
      ],
      [
        "▁mööda",
        -9.117631494382511
      ],
      [
        "▁in",
        -9.117899903209228
      ],
      [
        "▁eel",
        -9.118224073797741
      ],
      [
        "▁Uus",
        -9.118595357945644
      ],
      [
        "▁kohta,",
        -9.121649156499977
      ],
      [
        "▁kiiresti",
        -9.122208150564063
      ],
      [
        "nu",
        -9.12267838030173
      ],
      [
        "▁vajalik",
        -9.123103178035851
      ],
      [
        "▁naha",
        -9.124699952138595
      ],
      [
        "▁W",
        -9.125493839623928
      ],
      [
        "▁paremini",
        -9.126362300845415
      ],
      [
        "tsi",
        -9.12718248330851
      ],
      [
        "▁asemel",
        -9.128835898281645
      ],
      [
        "▁kahju",
        -9.129416947775415
      ],
      [
        "▁panna",
        -9.129824643239237
      ],
      [
        "▁järel",
        -9.132801248744457
      ],
      [
        "▁vahe",
        -9.132862011224582
      ],
      [
        "▁Tallinnas",
        -9.134162189330409
      ],
      [
        "▁sobib",
        -9.1351247998246
      ],
      [
        "j",
        -9.13590164279729
      ],
      [
        "▁valge",
        -9.136080119569517
      ],
      [
        "▁isa",
        -9.136977429768308
      ],
      [
        "▁jne.",
        -9.138900407091477
      ],
      [
        "▁kohale",
        -9.139244431202211
      ],
      [
        "tab",
        -9.14031284113282
      ],
      [
        "▁raames",
        -9.1406956451711
      ],
      [
        "▁juhatuse",
        -9.141396034982076
      ],
      [
        "ta.",
        -9.142254374590525
      ],
      [
        "▁nädala",
        -9.142499338274105
      ],
      [
        "▁toimus",
        -9.143183311588455
      ],
      [
        "▁lahti",
        -9.143714391796355
      ],
      [
        "▁sealt",
        -9.144260536415926
      ],
      [
        "▁No",
        -9.144468378047222
      ],
      [
        "▁Lisa",
        -9.14676695540266
      ],
      [
        "▁õiguse",
        -9.147188163267941
      ],
      [
        "00",
        -9.148300727421443
      ],
      [
        "▁OÜ",
        -9.14830357450743
      ],
      [
        "hu",
        -9.149744399191821
      ],
      [
        "▁olevat",
        -9.151388637332765
      ],
      [
        "lowjob",
        -9.151782844329958
      ],
      [
        "H",
        -9.151881793321607
      ],
      [
        "▁eest.",
        -9.152242291050147
      ],
      [
        "▁seda,",
        -9.152444897629774
      ],
      [
        "▁Pärnu",
        -9.15355637282441
      ],
      [
        "sest",
        -9.15668851573329
      ],
      [
        "▁valida",
        -9.15770809094105
      ],
      [
        "▁ringi",
        -9.157970956165922
      ],
      [
        "▁oleva",
        -9.158496504232936
      ],
      [
        "sa",
        -9.158533656856367
      ],
      [
        "▁arvuti",
        -9.160518146516004
      ],
      [
        "▁tehakse",
        -9.160700958417095
      ],
      [
        "▁7.",
        -9.161072593253461
      ],
      [
        "▁üht",
        -9.163432741124605
      ],
      [
        "mad",
        -9.163700929004012
      ],
      [
        "▁üld",
        -9.165524809217104
      ],
      [
        "▁Olen",
        -9.167497404469305
      ],
      [
        "ite",
        -9.167575548077659
      ],
      [
        "▁Seega",
        -9.167825343696439
      ],
      [
        "▁finants",
        -9.168259469165674
      ],
      [
        "▁uuesti",
        -9.169457159976865
      ],
      [
        "▁JA",
        -9.170230955361003
      ],
      [
        "▁kasutamine",
        -9.171100676820338
      ],
      [
        "▁luba",
        -9.172353122216311
      ],
      [
        "tatud",
        -9.173322081823617
      ],
      [
        "▁kirjutas",
        -9.177102356084895
      ],
      [
        "▁ongi",
        -9.178497184385577
      ],
      [
        "w",
        -9.17931506449489
      ],
      [
        "▁jää",
        -9.179676868608137
      ],
      [
        "▁Riigikogu",
        -9.180970429012618
      ],
      [
        "▁kaua",
        -9.183395830112236
      ],
      [
        "▁ühendust",
        -9.18452151905615
      ],
      [
        "päeva",
        -9.1847586758224
      ],
      [
        "▁teen",
        -9.185741587860223
      ],
      [
        "▁asju",
        -9.18710389853157
      ],
      [
        "▁tänu",
        -9.189870832249175
      ],
      [
        "▁Pa",
        -9.190108893713365
      ],
      [
        "▁kellel",
        -9.191714755963636
      ],
      [
        "▁and",
        -9.193113875917073
      ],
      [
        "▁mingit",
        -9.194165496635065
      ],
      [
        "▁Teie",
        -9.1947753371162
      ],
      [
        "▁0",
        -9.196261251575427
      ],
      [
        "▁lugeda",
        -9.197699997569831
      ],
      [
        "▁riik",
        -9.197994767980989
      ],
      [
        "▁re",
        -9.198547078889064
      ],
      [
        "▁teel",
        -9.199034126878338
      ],
      [
        "▁määratud",
        -9.199754804762987
      ],
      [
        "Näiteks",
        -9.200086981875263
      ],
      [
        "osa",
        -9.200810825365092
      ],
      [
        "”.",
        -9.201308586805489
      ],
      [
        "▁video",
        -9.202536729467635
      ],
      [
        "▁said",
        -9.203231653477044
      ],
      [
        "5)",
        -9.204935845358737
      ],
      [
        "▁Pärast",
        -9.2057763935912
      ],
      [
        "▁tundub",
        -9.208335118744088
      ],
      [
        "▁sellist",
        -9.208903198357833
      ],
      [
        "W",
        -9.21096700136328
      ],
      [
        "▁toimunud",
        -9.211463338376637
      ],
      [
        "▁€",
        -9.21220603169373
      ],
      [
        "ni.",
        -9.213034476730297
      ],
      [
        "▁avaliku",
        -9.213038587154955
      ],
      [
        "▁sõja",
        -9.215526887411775
      ],
      [
        "▁teile",
        -9.21587181117966
      ],
      [
        "▁lubatud",
        -9.21823169204714
      ],
      [
        "▁samal",
        -9.218962340170474
      ],
      [
        "▁teatud",
        -9.21963616386396
      ],
      [
        "pe",
        -9.220724349204147
      ],
      [
        "ina",
        -9.221150010110705
      ],
      [
        "▁arvesse",
        -9.221927129938695
      ],
      [
        "”,",
        -9.222367146683585
      ],
      [
        "▁laenu",
        -9.222625490894174
      ],
      [
        "▁arvatud",
        -9.223205863972284
      ],
      [
        "▁meeldib",
        -9.223935673363286
      ],
      [
        "seetõttu",
        -9.224016862235736
      ],
      [
        "▁suve",
        -9.22458824448827
      ],
      [
        "▁seni",
        -9.22991982795548
      ],
      [
        "du",
        -9.233602557459847
      ],
      [
        "nud.",
        -9.236045976423064
      ],
      [
        "▁luua",
        -9.237703836524958
      ],
      [
        "▁selge",
        -9.237796919580413
      ],
      [
        "▁nelja",
        -9.239734762095742
      ],
      [
        "▁vene",
        -9.239877170283961
      ],
      [
        "▁kodus",
        -9.24076283721971
      ],
      [
        "▁teenuse",
        -9.240898399697548
      ],
      [
        "▁2016",
        -9.24180854968887
      ],
      [
        "mo",
        -9.243196701455991
      ],
      [
        "▁ava",
        -9.24356876148262
      ],
      [
        "▁tagada",
        -9.243678022760065
      ],
      [
        "▁lihtne",
        -9.243847795284388
      ],
      [
        "vaid",
        -9.244215988220308
      ],
      [
        "ng",
        -9.244227300881207
      ],
      [
        "▁ime",
        -9.246664576985198
      ],
      [
        "▁organisatsiooni",
        -9.247742819395135
      ],
      [
        "▁rääkis",
        -9.247782424200876
      ],
      [
        "▁lapsed",
        -9.250153557335121
      ],
      [
        "▁tegema",
        -9.250361549356557
      ],
      [
        "▁kliendi",
        -9.250652947564959
      ],
      [
        "sse,",
        -9.250997739532508
      ],
      [
        "▁raamatu",
        -9.25380083760038
      ],
      [
        "▁sain",
        -9.25534398104115
      ],
      [
        "▁2015",
        -9.255978715107625
      ],
      [
        "R",
        -9.255995271502517
      ],
      [
        "▁Väga",
        -9.25720518554082
      ],
      [
        "▁sotsiaal",
        -9.257700171578021
      ],
      [
        "▁kehtestatud",
        -9.258204376266926
      ],
      [
        "▁teabe",
        -9.259756722713469
      ],
      [
        "ardcore",
        -9.260953733766478
      ],
      [
        "▁usu",
        -9.264782746946658
      ],
      [
        "▁&",
        -9.265689010317336
      ],
      [
        "▁vaadata",
        -9.265978295168015
      ],
      [
        "ndus",
        -9.266161793803864
      ],
      [
        "liselt",
        -9.267475176278973
      ],
      [
        "▁60",
        -9.267794800264456
      ],
      [
        "▁sisaldab",
        -9.268330301195892
      ],
      [
        "jad",
        -9.270116852177281
      ],
      [
        "mm",
        -9.270620189364646
      ],
      [
        "▁10.",
        -9.271364143461188
      ],
      [
        "▁Mina",
        -9.272733806855573
      ],
      [
        "30",
        -9.274035003234928
      ],
      [
        "▁hulgas",
        -9.27455822503129
      ],
      [
        "}",
        -9.27669265132235
      ],
      [
        "▁J",
        -9.277053196292412
      ],
      [
        "N",
        -9.277507742461733
      ],
      [
        "▁suurt",
        -9.278356786821591
      ],
      [
        "8",
        -9.27838789382718
      ],
      [
        "▁võimaluse",
        -9.27891724727425
      ],
      [
        "▁lugu",
        -9.280079197153718
      ],
      [
        "▁valitsuse",
        -9.280267585901575
      ],
      [
        "▁järele",
        -9.28129781573526
      ],
      [
        "Kuigi",
        -9.28163661120589
      ],
      [
        "kogu",
        -9.282603019654456
      ],
      [
        "{",
        -9.28281449455372
      ],
      [
        "▁tööle",
        -9.283512954581685
      ],
      [
        "▁tea",
        -9.284011267214526
      ],
      [
        "lo",
        -9.285318657115383
      ],
      [
        "▁22",
        -9.28680972215092
      ],
      [
        "▁Siis",
        -9.2871363852894
      ],
      [
        "▁of",
        -9.287174236761514
      ],
      [
        "▁Siin",
        -9.287341836053152
      ],
      [
        "▁esindaja",
        -9.28746773850347
      ],
      [
        "▁asjad",
        -9.287595098023477
      ],
      [
        "▁põhjal",
        -9.288909217937203
      ],
      [
        "▁Liit",
        -9.289187884982509
      ],
      [
        "▁Ülikool",
        -9.28960852303377
      ],
      [
        "▁mäng",
        -9.289738333480695
      ],
      [
        "▁mitme",
        -9.290675201331773
      ],
      [
        "▁21",
        -9.292313162268233
      ],
      [
        "▁Miks",
        -9.29404191671352
      ],
      [
        "▁teil",
        -9.295207410506416
      ],
      [
        "▁teisi",
        -9.295294038073001
      ],
      [
        "▁9.",
        -9.295745258044668
      ],
      [
        "+",
        -9.29599144759169
      ],
      [
        "▁ca",
        -9.298118316303107
      ],
      [
        "▁kasvu",
        -9.298334606602399
      ],
      [
        "▁spordi",
        -9.299500815879256
      ],
      [
        "▁võetud",
        -9.300659559358763
      ],
      [
        "20",
        -9.30071412455243
      ],
      [
        "ul",
        -9.30227385727514
      ],
      [
        "▁jäta",
        -9.303545579361721
      ],
      [
        "▁parim",
        -9.304094293508907
      ],
      [
        "▁riikide",
        -9.304361728271836
      ],
      [
        "▁maksu",
        -9.305380273345062
      ],
      [
        "ust",
        -9.305727210955773
      ],
      [
        "▁Rootsi",
        -9.306083184303864
      ],
      [
        "▁kuus",
        -9.306191286996341
      ],
      [
        "▁sellel",
        -9.307251616151845
      ],
      [
        "▁AS",
        -9.309888970168672
      ],
      [
        "▁liikmesriikide",
        -9.313467703108124
      ],
      [
        "tis",
        -9.313474764904605
      ],
      [
        "▁kuud",
        -9.314265446056549
      ],
      [
        "▁Vene",
        -9.315035635275077
      ],
      [
        "0",
        -9.31509653872289
      ],
      [
        "▁Seal",
        -9.316704861023133
      ],
      [
        "▁2012",
        -9.317093084633179
      ],
      [
        "▁võrreldes",
        -9.31847193383094
      ],
      [
        "▁õpetaja",
        -9.319506075245553
      ],
      [
        "▁klassi",
        -9.319526327077506
      ],
      [
        "▁hoida",
        -9.319632635105375
      ],
      [
        "▁sulle",
        -9.319760909381497
      ],
      [
        "kus",
        -9.320623074339547
      ],
      [
        "▁saadud",
        -9.323293382877896
      ],
      [
        "▁Te",
        -9.3246737924838
      ],
      [
        "▁Pea",
        -9.325750023491901
      ],
      [
        "elu",
        -9.326251049889134
      ],
      [
        "▁Sel",
        -9.328634110252612
      ],
      [
        "▁hoone",
        -9.328833317788394
      ],
      [
        "▁ühel",
        -9.330388698199933
      ],
      [
        "ü",
        -9.331708102829175
      ],
      [
        "▁andis",
        -9.332087775227897
      ],
      [
        "▁sega",
        -9.332132918644726
      ],
      [
        "10",
        -9.332557633760263
      ],
      [
        "▁kuidagi",
        -9.332738967274846
      ],
      [
        "6)",
        -9.333232150792863
      ],
      [
        "▁Kõige",
        -9.333295785489025
      ],
      [
        "ini",
        -9.33349881927089
      ],
      [
        "▁eks",
        -9.333553888158107
      ],
      [
        "▁Hea",
        -9.335121852259535
      ],
      [
        "maja",
        -9.336067812451251
      ],
      [
        "mäe",
        -9.336719829576554
      ],
      [
        "▁teha.",
        -9.33862352063164
      ],
      [
        "▁miljoni",
        -9.339002256409405
      ],
      [
        "like",
        -9.339028699785079
      ],
      [
        "▁puu",
        -9.339157132639624
      ],
      [
        "päev",
        -9.33943010336121
      ],
      [
        "ministeerium",
        -9.33966800014675
      ],
      [
        "▁firma",
        -9.340804649821976
      ],
      [
        "▁8.",
        -9.340853330394502
      ],
      [
        "▁Nagu",
        -9.341473395160673
      ],
      [
        "üksnes",
        -9.341480359701446
      ],
      [
        "▁alguses",
        -9.3419464838366
      ],
      [
        "▁olin",
        -9.342167707616024
      ],
      [
        "stus",
        -9.342199128008467
      ],
      [
        "▁liidu",
        -9.343219072019902
      ],
      [
        "jate",
        -9.344658491334275
      ],
      [
        "▁arvu",
        -9.344843784609232
      ],
      [
        "▁andmeid",
        -9.344915609882596
      ],
      [
        "▁ühes",
        -9.345301028859629
      ],
      [
        "▁19.",
        -9.346866419504908
      ],
      [
        "▁maailmas",
        -9.3482670397024
      ],
      [
        "▁20.",
        -9.348615809728724
      ],
      [
        "▁lõpp",
        -9.348799393468457
      ],
      [
        "▁Ülikooli",
        -9.349087628006675
      ],
      [
        "▁Kaitseliidu",
        -9.350134896110607
      ],
      [
        "▁hakkas",
        -9.35106012727804
      ],
      [
        "▁erinevad",
        -9.35177273865076
      ],
      [
        "go",
        -9.352573359449014
      ],
      [
        "▁tingimused",
        -9.353117125669467
      ],
      [
        "▁kohal",
        -9.353258560620114
      ],
      [
        "©",
        -9.354068789734995
      ],
      [
        "▁Parlamendi",
        -9.354565131570492
      ],
      [
        "G",
        -9.35472633597277
      ],
      [
        "▁pakkuda",
        -9.355021776722309
      ],
      [
        "▁juhataja",
        -9.355320693497587
      ],
      [
        "▁punktis",
        -9.355405999090113
      ],
      [
        "seks",
        -9.355557826916456
      ],
      [
        "▁toob",
        -9.355645529634351
      ],
      [
        "▁tehnoloogia",
        -9.355726348644694
      ],
      [
        "▁analüüsi",
        -9.356892491651266
      ],
      [
        "mu",
        -9.357427895829723
      ],
      [
        "▁inimesi",
        -9.357901450226057
      ],
      [
        "▁loodus",
        -9.358456316028251
      ],
      [
        "ise",
        -9.359719685354694
      ],
      [
        "▁aastast",
        -9.359867023998387
      ],
      [
        "▁looma",
        -9.360178528455059
      ],
      [
        "▁ilus",
        -9.360213816792486
      ],
      [
        "▁suurus",
        -9.362626661094826
      ],
      [
        "▁elus",
        -9.364232279023188
      ],
      [
        "▁tõi",
        -9.36482139822065
      ],
      [
        "▁vormi",
        -9.365130193772103
      ],
      [
        "▁kuulub",
        -9.365483496791509
      ],
      [
        "▁tunne",
        -9.366644378485422
      ],
      [
        "konna",
        -9.3673019313742
      ],
      [
        "▁infot",
        -9.368336660909769
      ],
      [
        "lt.",
        -9.368496698704156
      ],
      [
        "▁esimees",
        -9.368905347757462
      ],
      [
        "▁porn",
        -9.370472343245288
      ],
      [
        "▁tegu",
        -9.370838332889807
      ],
      [
        "▁Nende",
        -9.372164300812482
      ],
      [
        "▁200",
        -9.37302012964854
      ],
      [
        "▁süsteemi",
        -9.373627290147905
      ],
      [
        "▁tekib",
        -9.37463505370544
      ],
      [
        "▁Aasta",
        -9.374758339483552
      ],
      [
        "▁mm",
        -9.376136312718366
      ],
      [
        "▁kuuluvad",
        -9.376391140722715
      ],
      [
        "▁juuni",
        -9.376660507073886
      ],
      [
        "▁teada,",
        -9.376870424480343
      ],
      [
        "▁kunsti",
        -9.378109498130499
      ],
      [
        "▁makse",
        -9.378369803099684
      ],
      [
        "ö",
        -9.378764656949487
      ],
      [
        "▁viie",
        -9.379766979036603
      ],
      [
        "▁15.",
        -9.381365232458306
      ],
      [
        "▁ühis",
        -9.381822796854117
      ],
      [
        "▁kasutades",
        -9.382152104193251
      ],
      [
        "ca",
        -9.38217906842404
      ],
      [
        "C",
        -9.382522439285763
      ],
      [
        "▁volikogu",
        -9.382664938909645
      ],
      [
        "▁seas",
        -9.382874910103165
      ],
      [
        "▁suurema",
        -9.38608703400822
      ],
      [
        "▁laps",
        -9.386120056713693
      ],
      [
        "▁foto",
        -9.386245413537601
      ],
      [
        "▁pidada",
        -9.387147153785724
      ],
      [
        "ver",
        -9.387441225507587
      ],
      [
        "▁kesk",
        -9.387567183619376
      ],
      [
        "▁esitab",
        -9.387892014940016
      ],
      [
        ".”",
        -9.38815177927043
      ],
      [
        "▁õhtul",
        -9.38836407005568
      ],
      [
        "▁korras",
        -9.390312537201574
      ],
      [
        "▁loodud",
        -9.391107315261644
      ],
      [
        "▁põllumajandus",
        -9.392983640976919
      ],
      [
        "▁Enne",
        -9.393412070771156
      ],
      [
        "▁ruumi",
        -9.394098853317065
      ],
      [
        "▁tulnud",
        -9.394441375578591
      ],
      [
        "vee",
        -9.394476155571072
      ],
      [
        "▁kindlaks",
        -9.39510612340198
      ],
      [
        "▁võta",
        -9.396497595810118
      ],
      [
        "sus",
        -9.396527375799169
      ],
      [
        "▁kauba",
        -9.396757393124037
      ],
      [
        "keskus",
        -9.397827253382658
      ],
      [
        "▁Su",
        -9.398020261453095
      ],
      [
        "▁koju",
        -9.39872876147109
      ],
      [
        "▁De",
        -9.398974580466955
      ],
      [
        "▁millele",
        -9.400613562477119
      ],
      [
        "▁käib",
        -9.401435659320768
      ],
      [
        "▁kaalu",
        -9.403058626402643
      ],
      [
        "▁peaaegu",
        -9.403475802415564
      ],
      [
        "(6)",
        -9.40493626123348
      ],
      [
        "▁eelnõu",
        -9.405770774252058
      ],
      [
        "▁paari",
        -9.406794507095054
      ],
      [
        "▁teevad",
        -9.408349019762113
      ],
      [
        "puu",
        -9.408530011461444
      ],
      [
        "▁e-posti",
        -9.411041696221584
      ],
      [
        "▁vastava",
        -9.41154269596871
      ],
      [
        "▁jõudnud",
        -9.411952144139683
      ],
      [
        "▁>",
        -9.412064287047155
      ],
      [
        "▁haldus",
        -9.412251786660072
      ],
      [
        "▁mõista",
        -9.412663111597027
      ],
      [
        "ä",
        -9.413861760534278
      ],
      [
        "▁aidata",
        -9.413920841890153
      ],
      [
        "▁piiri",
        -9.416445636338242
      ],
      [
        "▁pildi",
        -9.41650109071874
      ],
      [
        "▁suu",
        -9.417362530135337
      ],
      [
        "▁vald",
        -9.417445603627389
      ],
      [
        "▁saan",
        -9.417978684750775
      ],
      [
        "▁vallas",
        -9.418688174036644
      ],
      [
        "▁valitsus",
        -9.418798902609597
      ],
      [
        "▁näitab",
        -9.420248684006573
      ],
      [
        "9",
        -9.42075157635633
      ],
      [
        "pu",
        -9.420853344889618
      ],
      [
        "▁keda",
        -9.421220560324372
      ],
      [
        "▁uudised",
        -9.42219843342497
      ],
      [
        "tra",
        -9.422726288959602
      ],
      [
        "mist,",
        -9.423205504585717
      ],
      [
        "▁oluliselt",
        -9.42321012079187
      ],
      [
        "ut",
        -9.423809281313556
      ],
      [
        "▁www.",
        -9.42480160041806
      ],
      [
        "▁mõttes",
        -9.425724918941764
      ],
      [
        "pea",
        -9.42603530995212
      ],
      [
        "▁naiste",
        -9.426128449721975
      ],
      [
        "▁pilt",
        -9.42668594829739
      ],
      [
        "▁otsus",
        -9.426859521289
      ],
      [
        "ksid",
        -9.42698258161451
      ],
      [
        "▁paljud",
        -9.42789183979368
      ],
      [
        "▁arvestades",
        -9.428923198727496
      ],
      [
        "▁valmistatud",
        -9.429107174555444
      ],
      [
        "▁toodud",
        -9.429792209967847
      ],
      [
        "▁Auto",
        -9.429833482046046
      ],
      [
        "nud,",
        -9.431541257062777
      ],
      [
        "▁kulu",
        -9.431548066885576
      ],
      [
        "▁ühte",
        -9.432348013348326
      ],
      [
        "na,",
        -9.436185803881147
      ],
      [
        "▁surma",
        -9.436185888838509
      ],
      [
        "▁Ko",
        -9.437297005758786
      ],
      [
        "▁esimest",
        -9.438340878954422
      ],
      [
        "▁12.",
        -9.438938439585826
      ],
      [
        "komisjoni",
        -9.43915642287602
      ],
      [
        "15",
        -9.439637697786491
      ],
      [
        "▁võrra",
        -9.439673738510557
      ],
      [
        "▁tavaliselt",
        -9.440373671019232
      ],
      [
        "▁küsimus",
        -9.440906714375865
      ],
      [
        "▁keelatud",
        -9.44125349506196
      ],
      [
        "▁kasutatud",
        -9.441376166422533
      ],
      [
        "mine.",
        -9.442113962998505
      ],
      [
        "raha",
        -9.442301684681851
      ],
      [
        "▁krooni",
        -9.442646288476716
      ],
      [
        "▁Kooli",
        -9.442748968211557
      ],
      [
        ".\"",
        -9.443123560279577
      ],
      [
        "d:",
        -9.443147172218023
      ],
      [
        "tasu",
        -9.443273108786357
      ],
      [
        "▁oska",
        -9.44328862471978
      ],
      [
        "▁teed",
        -9.44349009874523
      ],
      [
        "os",
        -9.444435633244728
      ],
      [
        "▁Komisjoni",
        -9.444510194072281
      ],
      [
        "▁noor",
        -9.444973631914142
      ],
      [
        "▁23",
        -9.445239379070564
      ],
      [
        "▁sageli",
        -9.445255405370313
      ],
      [
        "▁teist",
        -9.445495973977287
      ],
      [
        "▁tuntud",
        -9.446073233609496
      ],
      [
        "▁kooskõlas",
        -9.44675405356221
      ],
      [
        "▁järgmise",
        -9.447033753138555
      ],
      [
        "▁lisada",
        -9.449122715427599
      ],
      [
        "▁lk",
        -9.451122738946427
      ],
      [
        "▁ütleb",
        -9.451393675457249
      ],
      [
        "▁enese",
        -9.452164081146003
      ],
      [
        "▁mitmeid",
        -9.452204512381229
      ],
      [
        "▁kohalike",
        -9.45285903809081
      ],
      [
        "▁talu",
        -9.453460535674893
      ],
      [
        "F",
        -9.454341191685813
      ],
      [
        "▁naine",
        -9.455474324368407
      ],
      [
        "▁uued",
        -9.455622321681432
      ],
      [
        "▁e-",
        -9.455851803670152
      ],
      [
        "▁võttis",
        -9.45676402695892
      ],
      [
        "▁min",
        -9.458339361900741
      ],
      [
        "▁koostööd",
        -9.45920122064626
      ],
      [
        "▁sind",
        -9.462477250459646
      ],
      [
        "▁keel",
        -9.462540533633314
      ],
      [
        "kooli",
        -9.463217135636029
      ],
      [
        "▁neli",
        -9.4635245973514
      ],
      [
        "▁minutit",
        -9.463687605074597
      ],
      [
        "▁laeva",
        -9.464654437379558
      ],
      [
        "seaduse",
        -9.467775462198558
      ],
      [
        "val",
        -9.468433614506136
      ],
      [
        "▁maitse",
        -9.468657522261054
      ],
      [
        "▁kohustatud",
        -9.469499883786833
      ],
      [
        "▁mõisa",
        -9.47002787314724
      ],
      [
        "▁saamiseks",
        -9.470175977154792
      ],
      [
        "▁sugu",
        -9.470273794511975
      ],
      [
        "▁viisil",
        -9.470566114120825
      ],
      [
        "▁lõpus",
        -9.471383377783164
      ],
      [
        "▁Läti",
        -9.472024332679098
      ],
      [
        ");",
        -9.472120593316916
      ],
      [
        "▁11.",
        -9.472552620734394
      ],
      [
        "▁muidu",
        -9.473951788156644
      ],
      [
        "▁hommikul",
        -9.474681535034634
      ],
      [
        "▁sajandi",
        -9.474973047263287
      ],
      [
        "nda",
        -9.475478550351657
      ],
      [
        "▁kerge",
        -9.475776017493297
      ],
      [
        "▁tekkinud",
        -9.4762249641225
      ],
      [
        "▁puudub",
        -9.476264396087524
      ],
      [
        "▁viia",
        -9.476826382146822
      ],
      [
        "▁öö",
        -9.476931479929728
      ],
      [
        "▁palga",
        -9.477555867867238
      ],
      [
        "ettenähtud",
        -9.478066661134958
      ],
      [
        "▁selliste",
        -9.478396529129672
      ],
      [
        "kond",
        -9.479125855918536
      ],
      [
        "▁kõne",
        -9.479230624702735
      ],
      [
        "▁ajaloo",
        -9.479543492572656
      ],
      [
        "▁omavalitsuse",
        -9.479640016206183
      ],
      [
        "▁pidevalt",
        -9.480087912216216
      ],
      [
        "▁valik",
        -9.480874136902589
      ],
      [
        "▁pealt",
        -9.481111344288198
      ],
      [
        "▁maksta",
        -9.482187973038615
      ],
      [
        "▁protsenti",
        -9.482590883426788
      ],
      [
        "▁võtnud",
        -9.483419041629825
      ],
      [
        "▁kust",
        -9.484043738894911
      ],
      [
        "▁nõuetele",
        -9.484577222029356
      ],
      [
        "▁no",
        -9.485037644147999
      ],
      [
        "edaspidi",
        -9.485520440279776
      ],
      [
        "▁räägib",
        -9.487561868076964
      ],
      [
        "▁aastatel",
        -9.487806934644835
      ],
      [
        "▁ettepaneku",
        -9.489048763872201
      ],
      [
        "▁teadus",
        -9.491814433360329
      ],
      [
        "▁määrus",
        -9.491852312102855
      ],
      [
        "24",
        -9.49231523552901
      ],
      [
        "▁elektri",
        -9.492951643338834
      ],
      [
        "▁mai",
        -9.493621101153213
      ],
      [
        "▁öelda,",
        -9.494169194782108
      ],
      [
        "▁Mo",
        -9.494799625424044
      ],
      [
        "▁peaksid",
        -9.494827764860428
      ],
      [
        "ses",
        -9.494856998564572
      ],
      [
        "▁kehtib",
        -9.49495019151877
      ],
      [
        "▁tihti",
        -9.49508824318848
      ],
      [
        "▁meelde",
        -9.495241618685753
      ],
      [
        "▁eurot.",
        -9.495731589898597
      ],
      [
        "▁eelmise",
        -9.496531127414695
      ],
      [
        "▁voodi",
        -9.49817797696129
      ],
      [
        "ima",
        -9.498182027761953
      ],
      [
        "▁Kogu",
        -9.498681533265053
      ],
      [
        "▁tunni",
        -9.500490964698791
      ],
      [
        "▁hulka",
        -9.500635809396414
      ],
      [
        "▁ostu",
        -9.501007691163926
      ],
      [
        "▁ilu",
        -9.502494114828377
      ],
      [
        "▁suuda",
        -9.503734261860199
      ],
      [
        "õigus",
        -9.503892757588535
      ],
      [
        "▁linn",
        -9.50441733593055
      ],
      [
        "▁kraadi",
        -9.504651250131046
      ],
      [
        "▁EL",
        -9.504770058278211
      ],
      [
        "lased",
        -9.505701892980092
      ],
      [
        "▁Kohtu",
        -9.50620193263417
      ],
      [
        "▁sooja",
        -9.506452222437584
      ],
      [
        "kaitse",
        -9.506479089723676
      ],
      [
        "▁sõltub",
        -9.506928312125314
      ],
      [
        "▁kaugusel",
        -9.508599672874686
      ],
      [
        "▁algab",
        -9.509313818713858
      ],
      [
        "▁2014",
        -9.512351298611627
      ],
      [
        "▁täielikult",
        -9.513216008135899
      ],
      [
        "▁plaani",
        -9.514698737624519
      ],
      [
        "▁tore",
        -9.514952085437532
      ],
      [
        "▁alus",
        -9.516695690629344
      ],
      [
        "▁jõuda",
        -9.518096086709129
      ],
      [
        "▁Kodu",
        -9.51830496695646
      ],
      [
        "▁heli",
        -9.518644989024365
      ],
      [
        "▁ent",
        -9.519823285581735
      ],
      [
        "▁au",
        -9.520441051203106
      ],
      [
        "▁Elu",
        -9.52147632555399
      ],
      [
        "▁kõike",
        -9.521768216679401
      ],
      [
        "▁inglise",
        -9.521863249549483
      ],
      [
        "▁telefoni",
        -9.524485826921133
      ],
      [
        "▁lausa",
        -9.525763682797637
      ],
      [
        "▁piima",
        -9.52605575937223
      ],
      [
        "▁antakse",
        -9.52650992511239
      ],
      [
        "▁13.",
        -9.526659443442359
      ],
      [
        "@",
        -9.527235524093541
      ],
      [
        "▁Li",
        -9.528367975688305
      ],
      [
        "▁nõu",
        -9.529271779845732
      ],
      [
        "▁kala",
        -9.529908330186252
      ],
      [
        "▁14.",
        -9.530035614282772
      ],
      [
        "▁vajalikud",
        -9.531238529945405
      ],
      [
        "▁näo",
        -9.534140999928866
      ],
      [
        "likult",
        -9.534153149257381
      ],
      [
        "▁lastele",
        -9.53490790872267
      ],
      [
        "▁õhu",
        -9.539262603165868
      ],
      [
        "▁nähtud",
        -9.53945845656035
      ],
      [
        "▁teavet",
        -9.540218003751388
      ],
      [
        "▁nt",
        -9.542328649461744
      ],
      [
        "▁isikute",
        -9.542824152495868
      ],
      [
        "▁õli",
        -9.543249248164024
      ],
      [
        "▁väikese",
        -9.543530022190915
      ],
      [
        "▁politsei",
        -9.54363540033264
      ],
      [
        "▁Nad",
        -9.545874977411469
      ],
      [
        "▁mõtte",
        -9.54639676163227
      ],
      [
        "::",
        -9.547513075784002
      ],
      [
        "▁loo",
        -9.547522322970512
      ],
      [
        "▁liikme",
        -9.548294142544945
      ],
      [
        "▁millel",
        -9.548587547975023
      ],
      [
        "keskuse",
        -9.54990975262044
      ],
      [
        "juht",
        -9.55039698678197
      ],
      [
        "▁koolitus",
        -9.550603778320898
      ],
      [
        "▁tahaks",
        -9.551600406207857
      ],
      [
        "▁ettevõtete",
        -9.551747051121476
      ],
      [
        "▁võimalust",
        -9.551886029968632
      ],
      [
        "▁vaata",
        -9.55189459506669
      ],
      [
        "▁veelgi",
        -9.552121430208594
      ],
      [
        "50",
        -9.552547658515195
      ],
      [
        "*",
        -9.553086116937834
      ],
      [
        "▁esi",
        -9.55428007853843
      ],
      [
        "aasta",
        -9.55465494673377
      ],
      [
        "ck",
        -9.555225394281734
      ],
      [
        "▁Ole",
        -9.555516096243196
      ],
      [
        "▁töötaja",
        -9.555685037204668
      ],
      [
        "▁toime",
        -9.556185219599005
      ],
      [
        "▁interneti",
        -9.556565923913668
      ],
      [
        "›",
        -9.556572858887765
      ],
      [
        "▁olete",
        -9.557158585302144
      ],
      [
        "ade",
        -9.557244169474254
      ],
      [
        "co",
        -9.557858066507976
      ],
      [
        "▁Vana",
        -9.560615646181635
      ],
      [
        "▁la",
        -9.56100228165566
      ],
      [
        "ter",
        -9.562487830904772
      ],
      [
        "▁valitud",
        -9.56250545271729
      ],
      [
        "misest",
        -9.563233121653763
      ],
      [
        "▁tuua",
        -9.563679391451963
      ],
      [
        "▁saame",
        -9.564084216543336
      ],
      [
        "▁ha",
        -9.564222610742867
      ],
      [
        "▁järgmisel",
        -9.56535489289822
      ],
      [
        "▁vesi",
        -9.565850691101897
      ],
      [
        "▁näeb",
        -9.566479953014989
      ],
      [
        "M",
        -9.567192525140541
      ],
      [
        "▁tulla",
        -9.567409204302141
      ],
      [
        "▁rahvusvahelise",
        -9.5674771981739
      ],
      [
        "▁kasu",
        -9.567600148879507
      ],
      [
        "▁esitamise",
        -9.568122529505729
      ],
      [
        "um",
        -9.569527305357731
      ],
      [
        "▁kellele",
        -9.570314007647706
      ],
      [
        "fi",
        -9.570864648957564
      ],
      [
        "lepingu",
        -9.571024184557974
      ],
      [
        "lane",
        -9.571346333751574
      ],
      [
        "▁2013",
        -9.57148081142919
      ],
      [
        "▁põhja",
        -9.571586992558
      ],
      [
        "▁ülikooli",
        -9.572368219964169
      ],
      [
        "ment",
        -9.572635664366754
      ],
      [
        "▁§-",
        -9.57371404317691
      ],
      [
        "mat",
        -9.574066942442993
      ],
      [
        "▁millise",
        -9.57528161638001
      ],
      [
        "7)",
        -9.576057775426039
      ],
      [
        "·",
        -9.57614135829075
      ],
      [
        "▁otsi",
        -9.57615865358278
      ],
      [
        "misega",
        -9.57652685393662
      ],
      [
        "▁26",
        -9.57666784312246
      ],
      [
        "▁valdkonna",
        -9.577589902022662
      ],
      [
        "▁haridus",
        -9.577994685080117
      ],
      [
        "▁kõikide",
        -9.578505120550611
      ],
      [
        ".com",
        -9.579451644194267
      ],
      [
        "▁pead",
        -9.579515283286261
      ],
      [
        "▁muutmise",
        -9.579918262925078
      ],
      [
        "▁2011",
        -9.580962397008705
      ],
      [
        "▁aluseks",
        -9.580996096167208
      ],
      [
        "▁kasutamiseks",
        -9.581320675683662
      ],
      [
        "▁pika",
        -9.581959656374437
      ],
      [
        "▁võimalusi",
        -9.582096770248999
      ],
      [
        "▁21.",
        -9.58223227662181
      ],
      [
        "▁:D",
        -9.582241440067232
      ],
      [
        "▁taotleja",
        -9.583427179584836
      ],
      [
        "▁vali",
        -9.583571858166984
      ],
      [
        "▁sõidu",
        -9.584634800590866
      ],
      [
        "▁töötab",
        -9.584887930297045
      ],
      [
        "▁17.",
        -9.586223575046782
      ],
      [
        "▁Üle",
        -9.586288464268984
      ],
      [
        "▁turu",
        -9.586291116536241
      ],
      [
        "▁to",
        -9.587003844376099
      ],
      [
        "▁tahab",
        -9.587026420809003
      ],
      [
        "▁toodete",
        -9.587147174544711
      ],
      [
        "▁nõuded",
        -9.587348214724388
      ],
      [
        "▁tund",
        -9.587409884944348
      ],
      [
        "▁viimane",
        -9.588110060211774
      ],
      [
        "▁järjest",
        -9.588262727188283
      ],
      [
        "▁hinge",
        -9.588533743405517
      ],
      [
        "▁Ha",
        -9.588767625588448
      ],
      [
        "▁tulevad",
        -9.58904283651719
      ],
      [
        "▁otsa",
        -9.589215708941174
      ],
      [
        "▁seadus",
        -9.589540605295259
      ],
      [
        "▁tulemused",
        -9.589649127409274
      ],
      [
        "▁nii,",
        -9.590169135107507
      ],
      [
        "▁kiriku",
        -9.591145580290638
      ],
      [
        "▁töötajate",
        -9.591849878619966
      ],
      [
        "▁Mu",
        -9.59189082035265
      ],
      [
        "▁#",
        -9.593702613727206
      ],
      [
        "▁tööandja",
        -9.594988916972657
      ],
      [
        "ani",
        -9.595684171006052
      ],
      [
        "matu",
        -9.595724465296321
      ],
      [
        "seid",
        -9.596369008121863
      ],
      [
        "▁hakata",
        -9.596772583741007
      ],
      [
        "▁järelevalve",
        -9.596935462247647
      ],
      [
        "▁eba",
        -9.597751718189105
      ],
      [
        "▁Laste",
        -9.59821276909689
      ],
      [
        "▁28",
        -9.599500177937333
      ],
      [
        "▁edu",
        -9.600006928686266
      ],
      [
        "▁toetus",
        -9.600305212428921
      ],
      [
        "▁Meil",
        -9.60194412796378
      ],
      [
        "dus",
        -9.602396548255417
      ],
      [
        "▁kümne",
        -9.602782583319415
      ],
      [
        "likku",
        -9.603802676138491
      ],
      [
        "▁käsi",
        -9.6043553937954
      ],
      [
        "▁16.",
        -9.604724538923119
      ],
      [
        "▁blogi",
        -9.604962182255285
      ],
      [
        ",”",
        -9.605720041207508
      ],
      [
        "tavate",
        -9.60606278432569
      ],
      [
        "▁valu",
        -9.606243570491209
      ],
      [
        "▁keskmise",
        -9.606423096239045
      ],
      [
        "öö",
        -9.607274683083507
      ],
      [
        "▁reklaami",
        -9.608543714402954
      ],
      [
        "▁pisut",
        -9.60880144040637
      ],
      [
        "▁kirjutab",
        -9.610141745885898
      ],
      [
        "õ",
        -9.610198006890695
      ],
      [
        "19",
        -9.61097425616619
      ],
      [
        "▁jätta",
        -9.611065477730147
      ],
      [
        "▁jah",
        -9.611889350346067
      ],
      [
        "▁(v",
        -9.612040631703163
      ],
      [
        "▁arutelu",
        -9.61326107444441
      ],
      [
        "▁liha",
        -9.613866942767245
      ],
      [
        "▁vale",
        -9.614007567179282
      ],
      [
        "▁seejärel",
        -9.615007199924719
      ],
      [
        "▁heaks",
        -9.615070375216327
      ],
      [
        "miseks.",
        -9.615438695877529
      ],
      [
        "▁Ra",
        -9.615887564799216
      ],
      [
        "▁saadaval",
        -9.61822511633109
      ],
      [
        "▁enamasti",
        -9.619117678397277
      ],
      [
        "▁poliitika",
        -9.61991753627041
      ],
      [
        "▁Uue",
        -9.620199427797406
      ],
      [
        "▁järgmised",
        -9.62115712867849
      ],
      [
        "▁Hiina",
        -9.62363504807445
      ],
      [
        "▁juuli",
        -9.624285303231062
      ],
      [
        "▁komisjon",
        -9.625127975043931
      ],
      [
        "▁esimesel",
        -9.625695293970384
      ],
      [
        "▁31.",
        -9.625826262122374
      ],
      [
        "▁http://www.",
        -9.626611971870403
      ],
      [
        "▁teha,",
        -9.626720161493868
      ],
      [
        "▁hakkama",
        -9.62885062547482
      ],
      [
        "▁Tee",
        -9.628901713981229
      ],
      [
        "▁asuva",
        -9.628952089334355
      ],
      [
        "ce",
        -9.629431831441751
      ],
      [
        "valt",
        -9.629658078829426
      ],
      [
        "▁inimestele",
        -9.630919561285706
      ],
      [
        "▁õigused",
        -9.63103361728093
      ],
      [
        "statud",
        -9.631892974108396
      ],
      [
        "▁Ameerika",
        -9.631900965659018
      ],
      [
        "▁Jumala",
        -9.632098907627444
      ],
      [
        "▁35",
        -9.632470032473512
      ],
      [
        "▁idee",
        -9.632599830583562
      ],
      [
        "▁tulu",
        -9.63267731301827
      ],
      [
        "▁Ühe",
        -9.63268560700882
      ],
      [
        "▁Esimene",
        -9.634882822382107
      ],
      [
        "▁parema",
        -9.635055388283767
      ],
      [
        "▁külma",
        -9.635496679206113
      ],
      [
        "suse",
        -9.635745220733705
      ],
      [
        "man",
        -9.635969711287792
      ],
      [
        "▁muid",
        -9.636619838683163
      ],
      [
        "▁sees",
        -9.636848775541168
      ],
      [
        "▁18.",
        -9.637234167007446
      ],
      [
        "▁mõte",
        -9.637745958210058
      ],
      [
        "▁muutub",
        -9.637858472872377
      ],
      [
        "▁saata",
        -9.638355353337094
      ],
      [
        "▁(19",
        -9.638701583024005
      ],
      [
        "▁inim",
        -9.63971065256655
      ],
      [
        "▁õpi",
        -9.640459663900236
      ],
      [
        "▁Co",
        -9.640553343077404
      ],
      [
        "▁artikkel",
        -9.641044832934561
      ],
      [
        "U",
        -9.64124538200154
      ],
      [
        "je",
        -9.641309894997896
      ],
      [
        "▁seaduses",
        -9.641475367045647
      ],
      [
        "▁teksti",
        -9.641885597766468
      ],
      [
        "ime",
        -9.641917858735283
      ],
      [
        "▁suurim",
        -9.643113512619855
      ],
      [
        "juhi",
        -9.643579183252397
      ],
      [
        "▁sh",
        -9.643778355198474
      ],
      [
        "▁riigis",
        -9.644642222903606
      ],
      [
        "▁Peale",
        -9.645305566804359
      ],
      [
        "▁(E",
        -9.64584684185721
      ],
      [
        "info",
        -9.64590641214956
      ],
      [
        "▁südame",
        -9.646435505635937
      ],
      [
        "▁Uudised",
        -9.648233461755986
      ],
      [
        "▁läinud",
        -9.64826570365754
      ],
      [
        "▁alguse",
        -9.648282720290673
      ],
      [
        "▁vähendada",
        -9.64873352763063
      ],
      [
        "▁eesmärgiks",
        -9.650132669769965
      ],
      [
        "▁tõsta",
        -9.651057969049173
      ],
      [
        "▁Selles",
        -9.651584092478103
      ],
      [
        "▁Oli",
        -9.652252131765886
      ],
      [
        "▁proovi",
        -9.652589410433624
      ],
      [
        "▁olukord",
        -9.653138191010783
      ],
      [
        "▁Balti",
        -9.654680609161069
      ],
      [
        "kivi",
        -9.655791082711303
      ],
      [
        "▁brünett",
        -9.6563144050263
      ],
      [
        "▁kutse",
        -9.656349629378775
      ],
      [
        "▁võetakse",
        -9.656716316516178
      ],
      [
        "▁suuna",
        -9.657078701131507
      ],
      [
        "▁kehtetuks",
        -9.657080400052845
      ],
      [
        "tamine",
        -9.657095205088307
      ],
      [
        "th",
        -9.657802645024894
      ],
      [
        "mus",
        -9.65791504483916
      ],
      [
        "▁leia",
        -9.657922426127197
      ],
      [
        "▁oktoober",
        -9.658837825150862
      ],
      [
        "ski",
        -9.659237974521895
      ],
      [
        "▁27",
        -9.660799716820998
      ],
      [
        "▁Narva",
        -9.661459533149955
      ],
      [
        "▁avalduse",
        -9.662076518683403
      ],
      [
        "▁rolli",
        -9.663576201515518
      ],
      [
        "▁Esimese",
        -9.663652321053531
      ],
      [
        "40",
        -9.663722162819493
      ],
      [
        "▁võttes",
        -9.66411906830805
      ],
      [
        "süsteem",
        -9.664593831206565
      ],
      [
        "▁Rahva",
        -9.66496554567533
      ],
      [
        "lase",
        -9.665389545877769
      ],
      [
        "tehnika",
        -9.665557324366539
      ],
      [
        "mees",
        -9.666009804228075
      ],
      [
        "▁c",
        -9.666373574595333
      ],
      [
        "nt",
        -9.666490822784866
      ],
      [
        "▁pane",
        -9.66734044223271
      ],
      [
        "aeg",
        -9.667973196579648
      ],
      [
        "▁jäävad",
        -9.668668589890007
      ],
      [
        "▁Sotsiaal",
        -9.66873291445697
      ],
      [
        "teks",
        -9.668858113309415
      ],
      [
        "▁hooldus",
        -9.669377749805694
      ],
      [
        "▁vahele",
        -9.66955559920664
      ],
      [
        "malt",
        -9.669722722124359
      ],
      [
        "▁tegevust",
        -9.670177865676138
      ],
      [
        "▁kolmanda",
        -9.670409621102028
      ],
      [
        "▁2009",
        -9.670947309376029
      ],
      [
        "sid,",
        -9.671237022720213
      ],
      [
        "▁Eks",
        -9.671965409032499
      ],
      [
        "▁võimu",
        -9.67210293030439
      ],
      [
        "▁pikk",
        -9.672670188477984
      ],
      [
        "▁tarkvara",
        -9.67276593667998
      ],
      [
        "▁millal",
        -9.67290232853979
      ],
      [
        "▁tulemus",
        -9.673044717368821
      ],
      [
        "ak",
        -9.673420800106605
      ],
      [
        "▁parima",
        -9.674314822516092
      ],
      [
        "▁ajaks",
        -9.674671211177547
      ],
      [
        "▁Vali",
        -9.674777080917504
      ],
      [
        "hiljemalt",
        -9.675635905144429
      ],
      [
        "▁III",
        -9.676170738183707
      ],
      [
        "tult",
        -9.676276147048767
      ],
      [
        "▁president",
        -9.676902097705627
      ],
      [
        "▁aktsia",
        -9.677485441986665
      ],
      [
        "▁Teema",
        -9.678137709938895
      ],
      [
        "▁80",
        -9.678230994250907
      ],
      [
        "▁võistlus",
        -9.678370398079467
      ],
      [
        "▁alt",
        -9.678843763585263
      ],
      [
        "▁22.",
        -9.679459795469413
      ],
      [
        "▁osale",
        -9.679668607262894
      ],
      [
        "▁omavahel",
        -9.682153148259342
      ],
      [
        "▁Jüri",
        -9.68235176433295
      ],
      [
        "▁tagamiseks",
        -9.683360834773392
      ],
      [
        "▁Va",
        -9.684159175638653
      ],
      [
        "▁ellu",
        -9.684848287534116
      ],
      [
        "▁lennu",
        -9.68586272909078
      ],
      [
        "▁kirjalikult",
        -9.685963892932195
      ],
      [
        "ori",
        -9.686305091292787
      ],
      [
        "▁kasutab",
        -9.686356340914958
      ],
      [
        "▁kaamera",
        -9.686612333816424
      ],
      [
        "▁Saksamaa",
        -9.686863420084144
      ],
      [
        "▁teatas",
        -9.68698730058006
      ],
      [
        "▁täitmise",
        -9.687526714298219
      ],
      [
        "▁pa",
        -9.689091548016286
      ],
      [
        "▁ühise",
        -9.689864826630563
      ],
      [
        "▁juhtudel",
        -9.690668351597122
      ],
      [
        "▁raamat",
        -9.69087864246367
      ],
      [
        "kava",
        -9.692107934510759
      ],
      [
        "←",
        -9.69212485396483
      ],
      [
        "▁jõu",
        -9.692693701023618
      ],
      [
        "▁mõelda",
        -9.692995851976956
      ],
      [
        "▁2010",
        -9.693687131061244
      ],
      [
        "O",
        -9.693745078498992
      ],
      [
        "▁asukoht",
        -9.693878693514748
      ],
      [
        "▁Vaba",
        -9.694140648620742
      ],
      [
        "ngu",
        -9.6948752192205
      ],
      [
        "▁korraldab",
        -9.694911942007213
      ],
      [
        "▁Kultuuri",
        -9.696033659151304
      ],
      [
        "ap",
        -9.696940352991696
      ],
      [
        "▁nimel",
        -9.69721633262816
      ],
      [
        "▁the",
        -9.697245281110764
      ],
      [
        "▁ammu",
        -9.697363916671055
      ],
      [
        "TE",
        -9.699825498238198
      ],
      [
        "▁ukse",
        -9.699975658749949
      ],
      [
        "▁jõulu",
        -9.700951911861484
      ],
      [
        "▁aastate",
        -9.700978090372763
      ],
      [
        "▁(nt",
        -9.70247036855748
      ],
      [
        "▁panga",
        -9.70288961508113
      ],
      [
        "▁transpordi",
        -9.70307718368948
      ],
      [
        "▁peamiselt",
        -9.703297746555764
      ],
      [
        "▁võimalda",
        -9.703893240745055
      ],
      [
        "▁vajaduse",
        -9.704659591954334
      ],
      [
        "▁peatükk",
        -9.70547836837973
      ],
      [
        "▁inimest",
        -9.705798990604789
      ],
      [
        "▁must",
        -9.706013206581371
      ],
      [
        "likud",
        -9.706456688936614
      ],
      [
        "▁andnud",
        -9.7067094544181
      ],
      [
        "▁Mitte",
        -9.707587989986681
      ],
      [
        "▁pandud",
        -9.708413661921394
      ],
      [
        "▁käia",
        -9.708669180451029
      ],
      [
        "teenuse",
        -9.711578876895619
      ],
      [
        "▁kivi",
        -9.712640111844928
      ],
      [
        "▁30.",
        -9.713455943229157
      ],
      [
        "▁kõrvale",
        -9.713901285050149
      ],
      [
        "üha",
        -9.714102380560554
      ],
      [
        "▁ulatuses",
        -9.714214885680018
      ],
      [
        "▁kuulu",
        -9.714800978195697
      ],
      [
        "▁Hotel",
        -9.71498458140838
      ],
      [
        "▁huvitav",
        -9.716021173513246
      ],
      [
        "▁pean",
        -9.71616921672519
      ],
      [
        "▁probleemi",
        -9.716706226673981
      ],
      [
        "▁turva",
        -9.717186436975267
      ],
      [
        "▁x",
        -9.717531015624072
      ],
      [
        "▁Pro",
        -9.718216579174847
      ],
      [
        "▁ootab",
        -9.718292047116682
      ],
      [
        "▁ko",
        -9.718485899792718
      ],
      [
        "▁aju",
        -9.718490688930434
      ],
      [
        "▁tasub",
        -9.718680566712917
      ],
      [
        "Seetõttu",
        -9.718803145300711
      ],
      [
        "▁vajadusel",
        -9.718858071002419
      ],
      [
        "loo",
        -9.718938782557725
      ],
      [
        "▁EUR",
        -9.719318127036399
      ],
      [
        "uste",
        -9.719901759661793
      ],
      [
        "▁märgi",
        -9.720075654894277
      ],
      [
        "▁Ära",
        -9.721450749646152
      ],
      [
        "▁tootja",
        -9.72205978499965
      ],
      [
        "▁veebilehel",
        -9.722065179863836
      ],
      [
        "▁Ne",
        -9.72254481422192
      ],
      [
        "▁Tartus",
        -9.722744892182117
      ],
      [
        "stiku",
        -9.723141160834388
      ],
      [
        "▁liikmete",
        -9.723295980192923
      ],
      [
        "tada",
        -9.72336625481472
      ],
      [
        "▁aia",
        -9.723548792843962
      ],
      [
        "▁vastab",
        -9.723694907797793
      ],
      [
        "▁tänava",
        -9.723748539140924
      ],
      [
        "▁saksa",
        -9.723923980205177
      ],
      [
        "“.",
        -9.724071395816178
      ],
      [
        "▁hinnad",
        -9.724242965312236
      ],
      [
        "küla",
        -9.7251360528824
      ],
      [
        "▁Teataja",
        -9.725273632377478
      ],
      [
        "▁Ro",
        -9.727422612851708
      ],
      [
        "▁Saksa",
        -9.728436298906313
      ],
      [
        "▁too",
        -9.72879079653938
      ],
      [
        "▁In",
        -9.729078715878613
      ],
      [
        "▁lõuna",
        -9.72978415379917
      ],
      [
        "▁vastu.",
        -9.72990308792735
      ],
      [
        "▁suunatud",
        -9.73001444752216
      ],
      [
        "eeritud",
        -9.730016806293488
      ],
      [
        "kuu",
        -9.730118169541534
      ],
      [
        "▁The",
        -9.730292092734507
      ],
      [
        "▁muutunud",
        -9.731785176358866
      ],
      [
        "▁500",
        -9.731932295062435
      ],
      [
        "▁õnne",
        -9.732391028863091
      ],
      [
        "▁Lei",
        -9.73267317057379
      ],
      [
        "▁2017.",
        -9.733238233366594
      ],
      [
        "11",
        -9.733379916307474
      ],
      [
        ".ee/",
        -9.73550874047616
      ],
      [
        "▁tüdruk",
        -9.736699576323787
      ],
      [
        "▁rahu",
        -9.7367496912965
      ],
      [
        "▁investeerimis",
        -9.736766981187635
      ],
      [
        "vus",
        -9.737873647659502
      ],
      [
        "▁palun",
        -9.740956175475898
      ],
      [
        "▁alusel.",
        -9.74104862072658
      ],
      [
        "▁45",
        -9.741842351192899
      ],
      [
        "▁vajab",
        -9.742019523228794
      ],
      [
        "▁nendega",
        -9.742049947775572
      ],
      [
        "ameti",
        -9.742244053003624
      ],
      [
        "▁Viljandi",
        -9.742395117623179
      ],
      [
        "▁esine",
        -9.742487282018047
      ],
      [
        "▁arsti",
        -9.742702581387508
      ],
      [
        "▁teemal",
        -9.743317017167326
      ],
      [
        "18",
        -9.743467003449869
      ],
      [
        "▁liikmesriigi",
        -9.743705623343274
      ],
      [
        "▁võimalikul",
        -9.743831270321627
      ],
      [
        "su",
        -9.743963951515767
      ],
      [
        "▁müü",
        -9.74399013345999
      ],
      [
        "▁käsitle",
        -9.744160618524347
      ],
      [
        "▁järgmine",
        -9.74434988902453
      ],
      [
        "hoone",
        -9.744705358030624
      ],
      [
        "▁aadress",
        -9.747985173366352
      ],
      [
        "▁Ar",
        -9.748073015492455
      ],
      [
        "teenuste",
        -9.748492811016947
      ],
      [
        "▁hotelli",
        -9.748535918824572
      ],
      [
        "−",
        -9.748771259527064
      ],
      [
        "▁näinud",
        -9.749417280374097
      ],
      [
        "▁sellised",
        -9.750748128040486
      ],
      [
        "▁pehme",
        -9.751187547145928
      ],
      [
        "▁kohaldatakse",
        -9.751366038901086
      ],
      [
        "▁suurima",
        -9.751439111828475
      ],
      [
        "▁julgeoleku",
        -9.752206499162199
      ],
      [
        "16",
        -9.752344250152841
      ],
      [
        "vaba",
        -9.752618053514828
      ],
      [
        "▁piiratud",
        -9.752935250774605
      ],
      [
        "▁riski",
        -9.754026251457192
      ],
      [
        "▁viimasel",
        -9.755842927868013
      ],
      [
        "▁teistele",
        -9.756158132376564
      ],
      [
        "X",
        -9.75632690388272
      ],
      [
        "maid",
        -9.75634628999157
      ],
      [
        "▁erineva",
        -9.757152098764188
      ],
      [
        "tee",
        -9.757610499046365
      ],
      [
        "▁täita",
        -9.75824793480497
      ],
      [
        "▁tehnika",
        -9.758689592319548
      ],
      [
        "firma",
        -9.759055459577102
      ],
      [
        "▁ettevõte",
        -9.75908894453088
      ],
      [
        "milline",
        -9.759984006794284
      ],
      [
        "▁lemmik",
        -9.759987634874822
      ],
      [
        "▁25.",
        -9.760237440328673
      ],
      [
        "▁nõustu",
        -9.76046084798817
      ],
      [
        "▁lähe",
        -9.760664444432983
      ],
      [
        "iku",
        -9.760798163370112
      ],
      [
        "em",
        -9.760847903503722
      ],
      [
        "▁statistika",
        -9.761350082141576
      ],
      [
        "▁nädalal",
        -9.761834390311257
      ],
      [
        "▁jõuab",
        -9.762372697848656
      ],
      [
        "▁päikese",
        -9.762488552353986
      ],
      [
        "▁võtma",
        -9.762615277095254
      ],
      [
        "▁kirjandus",
        -9.76262765675991
      ],
      [
        "▁pärit",
        -9.762955610581091
      ],
      [
        "▁Na",
        -9.763609542338969
      ],
      [
        "▁suurendada",
        -9.763696999162125
      ],
      [
        "►",
        -9.76399484877129
      ],
      [
        "▁jõustu",
        -9.764221669575804
      ],
      [
        "▁rääkida",
        -9.764516181542657
      ],
      [
        "▁üli",
        -9.765224945164707
      ],
      [
        "ude",
        -9.765266991260404
      ],
      [
        "▁tooteid",
        -9.765895008443092
      ],
      [
        "▁Al",
        -9.766925522628632
      ],
      [
        "▁endast",
        -9.767022753899784
      ],
      [
        "▁Vabariik",
        -9.767233573954966
      ],
      [
        "▁teatri",
        -9.767557639936527
      ],
      [
        "▁Praegu",
        -9.769014772506523
      ],
      [
        "▁suvel",
        -9.769270890116662
      ],
      [
        "▁Komisjon",
        -9.770959696682368
      ],
      [
        "▁autori",
        -9.771300164429338
      ],
      [
        "▁nimekirja",
        -9.771410719475252
      ],
      [
        "▁An",
        -9.773298587441719
      ],
      [
        "▁saama",
        -9.77330688726873
      ],
      [
        "sõna",
        -9.773358467981172
      ],
      [
        "▁era",
        -9.774314906187396
      ],
      [
        "kirja",
        -9.774442416215576
      ],
      [
        "▁(A",
        -9.775210255761404
      ],
      [
        "▁teises",
        -9.775290211657127
      ],
      [
        "ika",
        -9.775826400277143
      ],
      [
        "▁saavutada",
        -9.776312528627098
      ],
      [
        "▁Le",
        -9.77742505393859
      ],
      [
        "▁arvan",
        -9.777650222751888
      ],
      [
        "▁rahvus",
        -9.777844504073489
      ],
      [
        "▁Nõukogu",
        -9.778359836345146
      ],
      [
        "▁ettevõtja",
        -9.77885816608383
      ],
      [
        "▁ära.",
        -9.779978210322534
      ],
      [
        "▁kirjutada",
        -9.780240538696619
      ],
      [
        "pp",
        -9.780607942726403
      ],
      [
        "▁detsember",
        -9.780623196041189
      ],
      [
        "▁osutatu",
        -9.780883792822417
      ],
      [
        "riigi",
        -9.781624472192581
      ],
      [
        "▁juttu",
        -9.781640002004263
      ],
      [
        "▁koostöös",
        -9.78201463535963
      ],
      [
        "▁esile",
        -9.782147898830942
      ],
      [
        "▁pilte",
        -9.782485463518794
      ],
      [
        "▁anna",
        -9.782692060865415
      ],
      [
        "▁käes",
        -9.782931915278915
      ],
      [
        "▁jõe",
        -9.783177112959395
      ],
      [
        "▁Buss",
        -9.783234841559935
      ],
      [
        "▁konkreetse",
        -9.783252589264153
      ],
      [
        "ly",
        -9.783991976813432
      ],
      [
        "▁jääda",
        -9.7857992492665
      ],
      [
        "▁tea,",
        -9.786099374511242
      ],
      [
        "90",
        -9.786195700457377
      ],
      [
        "▁pidanud",
        -9.786232099866144
      ],
      [
        "▁käe",
        -9.78673830062811
      ],
      [
        "▁kella",
        -9.788211757591199
      ],
      [
        "ab",
        -9.788378647176458
      ],
      [
        "▁lg",
        -9.789114014064133
      ],
      [
        "▁liikmed",
        -9.789156445263096
      ],
      [
        "▁muuda",
        -9.789307378252833
      ],
      [
        "▁parandada",
        -9.790080094119274
      ],
      [
        "▁kasutamist",
        -9.790542355261337
      ],
      [
        "▁ülevaate",
        -9.79056041948223
      ],
      [
        "tega.",
        -9.790586538106549
      ],
      [
        "▁ülesannete",
        -9.790592539957862
      ],
      [
        "▁tava",
        -9.7912302065276
      ],
      [
        "(7)",
        -9.791482652489934
      ],
      [
        "▁liiklus",
        -9.79192822105033
      ],
      [
        "▁öelda",
        -9.79223233098153
      ],
      [
        "▁jäätmete",
        -9.792805321110741
      ],
      [
        "▁teavita",
        -9.794333288622575
      ],
      [
        "▁Mulle",
        -9.794764610915252
      ],
      [
        "▁võime",
        -9.794794828558697
      ],
      [
        "▁püüa",
        -9.795286014375172
      ],
      [
        "▁(T",
        -9.795362261292784
      ],
      [
        "ta,",
        -9.795384444631713
      ],
      [
        "45",
        -9.7955194034303
      ],
      [
        "sid.",
        -9.79600069738502
      ],
      [
        "▁ehitise",
        -9.796236983208022
      ],
      [
        "▁nädalat",
        -9.796321212784061
      ],
      [
        "õiguse",
        -9.796850913529333
      ],
      [
        "▁soovib",
        -9.796889853963233
      ],
      [
        "▁(S",
        -9.797305999012542
      ],
      [
        "▁meeste",
        -9.797376581322501
      ],
      [
        "▁vett",
        -9.797390809917314
      ],
      [
        "▁tooted",
        -9.797779628446177
      ],
      [
        "ring",
        -9.798007376598044
      ],
      [
        "▁pro",
        -9.798166096205065
      ],
      [
        "▁talve",
        -9.7987540436797
      ],
      [
        "jo",
        -9.799319757277125
      ],
      [
        "▁värske",
        -9.79945808880494
      ],
      [
        "▁alal",
        -9.79946069145318
      ],
      [
        "▁31",
        -9.799620190893547
      ],
      [
        "8)",
        -9.800006927527901
      ],
      [
        "▁amatöör",
        -9.800136762004266
      ],
      [
        "▁lume",
        -9.800317061380262
      ],
      [
        "▁pakutakse",
        -9.800677746375689
      ],
      [
        "ID",
        -9.800725851954809
      ],
      [
        "▁teate",
        -9.800972890791876
      ],
      [
        "sõidu",
        -9.801423289489517
      ],
      [
        "š",
        -9.80149433679377
      ],
      [
        "▁tööpäeva",
        -9.801719449150179
      ],
      [
        "▁ühiskonna",
        -9.802818659492262
      ],
      [
        "▁viib",
        -9.804047062880976
      ],
      [
        "12",
        -9.804514110210278
      ],
      [
        "▁sihtpunkti",
        -9.805622725751864
      ],
      [
        "▁2015.",
        -9.805653992302123
      ],
      [
        "▁nõuab",
        -9.805780900807113
      ],
      [
        "▁informatsiooni",
        -9.806742163630767
      ],
      [
        "▁riikliku",
        -9.80737867684228
      ],
      [
        "tri",
        -9.80790346818976
      ],
      [
        "tegevuse",
        -9.808384999913656
      ],
      [
        "ch",
        -9.80843119583158
      ],
      [
        "▁konventsiooni",
        -9.808959400997466
      ],
      [
        "▁sünnipäeva",
        -9.808992917451915
      ],
      [
        "▁püsi",
        -9.809024908174617
      ],
      [
        "▁palu",
        -9.80910456901484
      ],
      [
        "▁Metsa",
        -9.809245024196638
      ],
      [
        "▁juurdepääsu",
        -9.809666975270398
      ],
      [
        "▁aitavad",
        -9.810515936505132
      ],
      [
        "▁veebi",
        -9.81059733684867
      ],
      [
        "tust",
        -9.811103605843705
      ],
      [
        "tesse",
        -9.812060092293404
      ],
      [
        "▁dokumentide",
        -9.813478948286154
      ],
      [
        "▁tulevikus",
        -9.813540368937801
      ],
      [
        "▁käis",
        -9.813684766533886
      ],
      [
        "▁nädal",
        -9.813965860174974
      ],
      [
        "▁nõuda",
        -9.814138976497683
      ],
      [
        "▁koera",
        -9.81425006185663
      ],
      [
        "2.",
        -9.81433109640969
      ],
      [
        "kese",
        -9.814658181269948
      ],
      [
        "▁ass",
        -9.815041189712751
      ],
      [
        "▁23.",
        -9.81531860504505
      ],
      [
        "▁pensioni",
        -9.817656553303507
      ],
      [
        "▁Võta",
        -9.818387071295318
      ],
      [
        "▁ilm",
        -9.819413047987144
      ],
      [
        "▁majutusasutus",
        -9.820493355101178
      ],
      [
        "▁tunda",
        -9.822379207464238
      ],
      [
        "▁2013.",
        -9.823455993310134
      ],
      [
        "▁väljaspool",
        -9.823628232050009
      ],
      [
        "ry",
        -9.824248133288698
      ],
      [
        "▁kaas",
        -9.824262337885507
      ],
      [
        "▁aru,",
        -9.824974326084593
      ],
      [
        "sk",
        -9.825890836248995
      ],
      [
        "mistõttu",
        -9.825967395297631
      ],
      [
        "▁ameti",
        -9.826394358655559
      ],
      [
        "▁selliseid",
        -9.827310403338267
      ],
      [
        "▁online",
        -9.827392480128466
      ],
      [
        "▁katse",
        -9.828871279441527
      ],
      [
        "▁jätka",
        -9.828935662969403
      ],
      [
        "▁vajaliku",
        -9.828947937956592
      ],
      [
        "pool",
        -9.829109927445849
      ],
      [
        "▁IT",
        -9.829515071627105
      ],
      [
        "▁Veel",
        -9.829618873798807
      ],
      [
        "▁muudab",
        -9.829922122090032
      ],
      [
        "▁lähedal",
        -9.829950182641797
      ],
      [
        "ho",
        -9.830016581116404
      ],
      [
        "▁tähtaja",
        -9.830241556707776
      ],
      [
        "▁teisel",
        -9.831062985651235
      ],
      [
        "▁koolis",
        -9.831069366930635
      ],
      [
        "▁saaja",
        -9.831089276022862
      ],
      [
        "▁toimuvad",
        -9.831411570839077
      ],
      [
        "▁autor",
        -9.832146348078396
      ],
      [
        "▁üheks",
        -9.832567730087188
      ],
      [
        "▁Põllumajandus",
        -9.832651540952153
      ],
      [
        "▁korraga",
        -9.832906785552137
      ],
      [
        "▁üksi",
        -9.832935584155875
      ],
      [
        "▁anti",
        -9.833787391541334
      ],
      [
        "vara",
        -9.833888849570304
      ],
      [
        "▁suuruse",
        -9.83394013566982
      ],
      [
        "suhteliselt",
        -9.834123072069
      ],
      [
        "▁õiguste",
        -9.834297101028309
      ],
      [
        "▁kontroll",
        -9.834904479273899
      ],
      [
        "&",
        -9.834967535865221
      ],
      [
        "▁annavad",
        -9.835129811813589
      ],
      [
        "kord",
        -9.836578294269152
      ],
      [
        "▁kahjuks",
        -9.836860956898878
      ],
      [
        "▁toit",
        -9.837572512896882
      ],
      [
        "▁kinnitab",
        -9.837704584724126
      ],
      [
        "▁maksab",
        -9.839118614460212
      ],
      [
        "▁'",
        -9.839223255069975
      ],
      [
        "Oleme",
        -9.839324578201033
      ],
      [
        "▁hinnaga",
        -9.839460561923243
      ],
      [
        "▁tuleviku",
        -9.839690384003532
      ],
      [
        "▁avalda",
        -9.840829627929878
      ],
      [
        "▁tulemusi",
        -9.841277786189703
      ],
      [
        "▁90",
        -9.84138458762005
      ],
      [
        "01",
        -9.841668936335076
      ],
      [
        "▁linnas",
        -9.841797878056429
      ],
      [
        "▁ühenduse",
        -9.842474333166567
      ],
      [
        "▁jne",
        -9.842703208933326
      ],
      [
        "▁laia",
        -9.842896347788399
      ],
      [
        "▁tipp",
        -9.84340597709869
      ],
      [
        "tamise",
        -9.844356687138573
      ],
      [
        "vere",
        -9.844901797427573
      ],
      [
        "▁El",
        -9.845582742312851
      ],
      [
        "õppe",
        -9.846110196211557
      ],
      [
        "▁Tere",
        -9.84637376079538
      ],
      [
        "▁märts",
        -9.846380750753877
      ],
      [
        "▁Mi",
        -9.846494724032176
      ],
      [
        "▁strateegia",
        -9.847044028036526
      ],
      [
        "▁eelmisel",
        -9.847152828780573
      ],
      [
        "▁programm",
        -9.847200674998152
      ],
      [
        "▁Tule",
        -9.847644419813895
      ],
      [
        "▁aastas",
        -9.848218353687493
      ],
      [
        "▁kaupa",
        -9.84870290462421
      ],
      [
        "▁viga",
        -9.848819236488659
      ],
      [
        "▁süüa",
        -9.849692466447813
      ],
      [
        "▁toetust",
        -9.850070312270415
      ],
      [
        "▁Välja",
        -9.850230163799134
      ],
      [
        "▁määral",
        -9.850252252648982
      ],
      [
        "▁meedia",
        -9.850622198396959
      ],
      [
        "▁aine",
        -9.851101427511448
      ],
      [
        "▁kõva",
        -9.851262310706804
      ],
      [
        "/või",
        -9.85128254624722
      ],
      [
        "▁juuksed",
        -9.851386336993283
      ],
      [
        "▁2000",
        -9.851664412645079
      ],
      [
        "▁hulk",
        -9.851825620493743
      ],
      [
        "▁võimalused",
        -9.851995508257048
      ],
      [
        "▁valdkonnas",
        -9.852170980217231
      ],
      [
        "▁Sul",
        -9.852449811673154
      ],
      [
        "▁toode",
        -9.852981761760987
      ],
      [
        "toodete",
        -9.853844677023497
      ],
      [
        "▁olles",
        -9.8544107124564
      ],
      [
        "kommunikatsiooni",
        -9.8545203760502
      ],
      [
        "▁kasuta",
        -9.854975681840749
      ],
      [
        "▁Tagasi",
        -9.855043852634116
      ],
      [
        "▁27.",
        -9.855671505713577
      ],
      [
        "▁28.",
        -9.856614704456607
      ],
      [
        "a)",
        -9.85707086219181
      ],
      [
        "eni",
        -9.857981827137587
      ],
      [
        "▁vältida",
        -9.858030453907586
      ],
      [
        "▁kohvi",
        -9.858301020093428
      ],
      [
        "koha",
        -9.858472356714223
      ],
      [
        "▁oleksid",
        -9.859495431951569
      ],
      [
        "J",
        -9.860793394987807
      ],
      [
        "▁vihma",
        -9.86143279049417
      ],
      [
        "Ehk",
        -9.86149067154463
      ],
      [
        "▁New",
        -9.861679616674493
      ],
      [
        "▁mail",
        -9.861981424658843
      ],
      [
        "▁nõus",
        -9.862165332150887
      ],
      [
        "▁vasta",
        -9.862575392460222
      ],
      [
        "▁täiendava",
        -9.863011069241168
      ],
      [
        "▁eest,",
        -9.863181261690636
      ],
      [
        "▁rakendus",
        -9.86475483589346
      ],
      [
        "▁sobiva",
        -9.864782536650523
      ],
      [
        "▁põhjust",
        -9.865056035926505
      ],
      [
        "▁andmise",
        -9.865613263204885
      ],
      [
        "kad",
        -9.865876796976814
      ],
      [
        "▁tegemise",
        -9.866845751654761
      ],
      [
        "▁tugev",
        -9.867326898128816
      ],
      [
        "iste",
        -9.867439577915418
      ],
      [
        "mar",
        -9.867551309713704
      ],
      [
        "▁selgelt",
        -9.867937137859794
      ],
      [
        "▁Linna",
        -9.868413727394868
      ],
      [
        "▁Lu",
        -9.868685373334738
      ],
      [
        "▁algas",
        -9.869487760453467
      ],
      [
        "▁kuju",
        -9.869743173133742
      ],
      [
        "▁sõiduki",
        -9.87012276587673
      ],
      [
        "▁hinnangul",
        -9.870170532596568
      ],
      [
        "▁laulu",
        -9.870325539010507
      ],
      [
        "▁Kasuta",
        -9.870718841150172
      ],
      [
        "am",
        -9.872180714843132
      ],
      [
        "liit",
        -9.872180877420139
      ],
      [
        "▁24.",
        -9.872325714576975
      ],
      [
        "▁eesmärkide",
        -9.87245210003456
      ],
      [
        "m.",
        -9.872572565437677
      ],
      [
        "▁side",
        -9.872773073444439
      ],
      [
        "▁pildid",
        -9.874013245072076
      ],
      [
        "▁kulude",
        -9.874033275936906
      ],
      [
        "▁perioodi",
        -9.874533793068803
      ],
      [
        "▁tänavu",
        -9.874669280226708
      ],
      [
        "der",
        -9.875173626451513
      ],
      [
        "ine",
        -9.87539184583928
      ],
      [
        "▁märgitud",
        -9.875554491483548
      ],
      [
        "▁konto",
        -9.875736345533912
      ],
      [
        "▁oodata",
        -9.875776564210387
      ],
      [
        "kultuuri",
        -9.8762201691058
      ],
      [
        "▁leidnud",
        -9.87665971799819
      ],
      [
        "▁Vee",
        -9.878182037851161
      ],
      [
        "▁paljude",
        -9.87874738408761
      ],
      [
        "▁artiklis",
        -9.878876789478326
      ],
      [
        "▁raamatukogu",
        -9.878939900398905
      ],
      [
        "▁dokumendi",
        -9.879413201848124
      ],
      [
        "tan",
        -9.879875701592276
      ],
      [
        "▁Lo",
        -9.880108316222216
      ],
      [
        "▁noored",
        -9.880471353532554
      ],
      [
        "▁minuti",
        -9.880682941989086
      ],
      [
        "17",
        -9.880960698000058
      ],
      [
        "▁mehe",
        -9.8809948762386
      ],
      [
        "eli",
        -9.881064736523722
      ],
      [
        "leht",
        -9.881330015498147
      ],
      [
        "▁(P",
        -9.88148282918006
      ],
      [
        "▁esitatakse",
        -9.882469033666617
      ],
      [
        "▁täitmiseks",
        -9.882524168450995
      ],
      [
        "▁hakka",
        -9.882633564205069
      ],
      [
        "▁veini",
        -9.883168263754769
      ],
      [
        "▁ühtegi",
        -9.883407484149693
      ],
      [
        "▁Kasutaja",
        -9.883467558363238
      ],
      [
        "▁naise",
        -9.883586387617525
      ],
      [
        "▁Ki",
        -9.88366666067436
      ],
      [
        "▁ülejäänud",
        -9.883688193723223
      ],
      [
        "uri",
        -9.883722458666567
      ],
      [
        "▁tutvuda",
        -9.883899557747718
      ],
      [
        "▁ääres",
        -9.88435575699
      ],
      [
        "▁külas",
        -9.884569058622612
      ],
      [
        "▁üldiselt",
        -9.8847772571832
      ],
      [
        "▁kaasas",
        -9.88580536245324
      ],
      [
        "▁määrata",
        -9.886166339660527
      ],
      [
        "taja",
        -9.886212100081217
      ],
      [
        "▁andma",
        -9.88630935263658
      ],
      [
        "→",
        -9.88644597970793
      ],
      [
        "▁ajalugu",
        -9.886570098628372
      ],
      [
        "▁kulud",
        -9.88744879009472
      ],
      [
        "▁lasta",
        -9.887622670546891
      ],
      [
        "ig",
        -9.887682555691462
      ],
      [
        "▁tähtis",
        -9.889114605876586
      ],
      [
        "▁vastas",
        -9.889914485691726
      ],
      [
        "▁seina",
        -9.889958981776346
      ],
      [
        "▁osaleda",
        -9.890143537761261
      ],
      [
        "justkui",
        -9.89019664245712
      ],
      [
        "▁Sest",
        -9.890377144540778
      ],
      [
        "▁vahel.",
        -9.891309822867768
      ],
      [
        "▁Hind",
        -9.891689336390751
      ],
      [
        "▁peetakse",
        -9.892097207993576
      ],
      [
        "vo",
        -9.892199952523939
      ],
      [
        "▁26.",
        -9.892628736986953
      ],
      [
        "▁endiselt",
        -9.893533994053856
      ],
      [
        "aga",
        -9.893943391976991
      ],
      [
        "▁omanik",
        -9.895073278239373
      ],
      [
        "▁süsteem",
        -9.895175428969175
      ],
      [
        "▁soo",
        -9.89531102300917
      ],
      [
        "▁keelt",
        -9.895642508548447
      ],
      [
        "▁seekord",
        -9.895773363295081
      ],
      [
        "▁edaspidi",
        -9.896831148967404
      ],
      [
        "▁külge",
        -9.897054411578543
      ],
      [
        "▁veebruar",
        -9.897520573380532
      ],
      [
        "ruumi",
        -9.897767409612358
      ],
      [
        "▁soovid",
        -9.898135072506564
      ],
      [
        "▁õhtu",
        -9.898644260896823
      ],
      [
        "▁raadio",
        -9.89925117943172
      ],
      [
        "▁tööstus",
        -9.899737850714143
      ],
      [
        "▁praktika",
        -9.900242263035386
      ],
      [
        "klubi",
        -9.90042976565325
      ],
      [
        "▁tüüpi",
        -9.900816394936319
      ],
      [
        "▁asjaolu",
        -9.901191035271282
      ],
      [
        "▁päritolu",
        -9.901435386470084
      ],
      [
        "▁Valitsuse",
        -9.901781579425752
      ],
      [
        "▁märkis",
        -9.901891670778198
      ],
      [
        "▁sotsiaalse",
        -9.902208020913545
      ],
      [
        "▁ühine",
        -9.902361718269127
      ],
      [
        "▁300",
        -9.902406844766757
      ],
      [
        "▁esma",
        -9.903018750038125
      ],
      [
        "wa",
        -9.903532815450548
      ],
      [
        "▁Itaalia",
        -9.903577569378637
      ],
      [
        "▁positiivse",
        -9.903842811041878
      ],
      [
        "▁otsing",
        -9.904052940408128
      ],
      [
        "▁teab",
        -9.904504574404172
      ],
      [
        "▁rikkumise",
        -9.904774289411861
      ],
      [
        "ir",
        -9.904795802041477
      ],
      [
        "▁vanemate",
        -9.904869706839417
      ],
      [
        "▁kuskil",
        -9.904973017528611
      ],
      [
        "▁asutuse",
        -9.906057673968345
      ],
      [
        "ci",
        -9.906128220738193
      ],
      [
        "▁tegin",
        -9.906556383103755
      ],
      [
        "▁turul",
        -9.906563858853605
      ],
      [
        "▁olemasolu",
        -9.907074784450007
      ],
      [
        "▁isikule",
        -9.907136137416675
      ],
      [
        "▁tantsu",
        -9.908307170869318
      ],
      [
        "▁ühest",
        -9.908778023691537
      ],
      [
        "▁150",
        -9.908852362782667
      ],
      [
        "▁meel",
        -9.909085842881574
      ],
      [
        "▁hakkavad",
        -9.909171593150973
      ],
      [
        "▁asu",
        -9.909181909410405
      ],
      [
        "minister",
        -9.909262733360098
      ],
      [
        "Alates",
        -9.910498566217147
      ],
      [
        "▁kogemus",
        -9.910675232156255
      ],
      [
        "▁2018.",
        -9.91114013911107
      ],
      [
        "▁Pole",
        -9.911271756678483
      ],
      [
        "▁Maailma",
        -9.911670291538538
      ],
      [
        "▁võrgu",
        -9.912490707194749
      ],
      [
        "▁Teine",
        -9.91267327981359
      ],
      [
        "tööd",
        -9.912776523268764
      ],
      [
        "▁kanda",
        -9.912831161239222
      ],
      [
        "▁kindla",
        -9.912922481952458
      ],
      [
        "un",
        -9.913162331384495
      ],
      [
        "▁mõlemad",
        -9.913902585597334
      ],
      [
        "koht",
        -9.914007502712984
      ],
      [
        "oloogia",
        -9.914306938906714
      ],
      [
        "▁naised",
        -9.914422808841874
      ],
      [
        "▁loetakse",
        -9.915656106955606
      ],
      [
        "▁asukohast",
        -9.915818104829583
      ],
      [
        "▁Eriti",
        -9.916272495167252
      ],
      [
        "▁aastaks",
        -9.916539374204211
      ],
      [
        "▁õppida",
        -9.916636960121533
      ],
      [
        "▁maakond",
        -9.916927147526303
      ],
      [
        "▁pruugi",
        -9.917235205650503
      ],
      [
        "▁kaubandus",
        -9.917676471140027
      ],
      [
        "▁A.",
        -9.918065897151495
      ],
      [
        "pere",
        -9.918229445201668
      ],
      [
        "▁suunas",
        -9.918593485694931
      ],
      [
        "õõ",
        -9.91950909350972
      ],
      [
        "▁Euroopas",
        -9.919870394108365
      ],
      [
        "14",
        -9.920018551397192
      ],
      [
        "▁minge",
        -9.920324407603918
      ],
      [
        "tuna",
        -9.920662353117264
      ],
      [
        "▁big",
        -9.921428728521235
      ],
      [
        "▁Andres",
        -9.92195703438653
      ],
      [
        "▁2016.",
        -9.922662956367908
      ],
      [
        "▁number",
        -9.923215786985054
      ],
      [
        "▁Tu",
        -9.924435820249084
      ],
      [
        "kate",
        -9.924568926626668
      ],
      [
        "▁määra",
        -9.924720266069013
      ],
      [
        "mängu",
        -9.924921298596855
      ],
      [
        "▁abikaasa",
        -9.925375141480863
      ],
      [
        "▁Sama",
        -9.92546087079911
      ],
      [
        "▁Booking.com-i",
        -9.925492300852358
      ],
      [
        "▁Keskkonna",
        -9.925586800126604
      ],
      [
        "▁Teksti",
        -9.92584717421796
      ],
      [
        "▁Ti",
        -9.926734318955578
      ],
      [
        "▁igas",
        -9.92675856478156
      ],
      [
        "▁29",
        -9.92694337887407
      ],
      [
        "▁jaanuar",
        -9.926981623964465
      ],
      [
        "▁tõde",
        -9.927596278630542
      ],
      [
        "▁lai",
        -9.927901638234651
      ],
      [
        "▁tekkis",
        -9.92803825223491
      ],
      [
        "▁Tegelikult",
        -9.928230537452919
      ],
      [
        "jaid",
        -9.92868676073105
      ],
      [
        "▁algus",
        -9.92998163454737
      ],
      [
        "▁türa",
        -9.930055689914973
      ],
      [
        "▁Ise",
        -9.93024301030436
      ],
      [
        "▁mehed",
        -9.930259324000726
      ],
      [
        "▁soe",
        -9.930360822275585
      ],
      [
        "▁kohas",
        -9.931513556361047
      ],
      [
        "▁Teise",
        -9.931686171090277
      ],
      [
        "▁esitanud",
        -9.932031688995874
      ],
      [
        "▁omavalitsuste",
        -9.932247188932354
      ],
      [
        "rid",
        -9.932739337932478
      ],
      [
        "▁teid",
        -9.933165569788484
      ],
      [
        "▁100%",
        -9.933371656109852
      ],
      [
        "soo",
        -9.93401525909758
      ],
      [
        "▁bussi",
        -9.93409724341183
      ],
      [
        "▁pani",
        -9.934199805628971
      ],
      [
        "▁registri",
        -9.934222659814171
      ],
      [
        "▁õigust",
        -9.93446023709699
      ],
      [
        "▁rahvusvaheliste",
        -9.934480751984063
      ],
      [
        "üü",
        -9.934842982229677
      ],
      [
        "▁minema",
        -9.935082222865754
      ],
      [
        "▁vahepeal",
        -9.935688179626936
      ],
      [
        "▁kinnisvara",
        -9.935854199010526
      ],
      [
        "▁tagasi.",
        -9.935862653688702
      ],
      [
        "▁Koos",
        -9.936622236830177
      ],
      [
        "▁Tallinn,",
        -9.936738460033512
      ],
      [
        "▁loe",
        -9.937496617415631
      ],
      [
        "▁presidendi",
        -9.937536345903832
      ],
      [
        "eti",
        -9.937839756404166
      ],
      [
        "▁tähenduses",
        -9.938004393360469
      ],
      [
        "▁kl",
        -9.938022650030598
      ],
      [
        "▁kohustuse",
        -9.938120962923986
      ],
      [
        "▁päraku",
        -9.938316495380034
      ],
      [
        "ür",
        -9.939841935923198
      ],
      [
        "Juba",
        -9.940259652826809
      ],
      [
        "lin",
        -9.940358735304073
      ],
      [
        "arve",
        -9.940497029458964
      ],
      [
        "▁vanem",
        -9.940775269351548
      ],
      [
        "▁Suure",
        -9.940955575079137
      ],
      [
        "kui",
        -9.942005976739182
      ],
      [
        "▁Mart",
        -9.942381754245506
      ],
      [
        "▁Vi",
        -9.942838411820428
      ],
      [
        "▁jagada",
        -9.94293130372711
      ],
      [
        "▁Poola",
        -9.943326539517422
      ],
      [
        "▁sügava",
        -9.94363264651259
      ],
      [
        "▁piirkonna",
        -9.945544634578358
      ],
      [
        "▁70",
        -9.946199538759092
      ],
      [
        "▁võimalusel",
        -9.946276517847036
      ],
      [
        "▁selgitas",
        -9.947042212433256
      ],
      [
        "õli",
        -9.948235194642375
      ],
      [
        "9)",
        -9.948362427052597
      ],
      [
        "▁raja",
        -9.948767963913298
      ],
      [
        "ed,",
        -9.949977402601586
      ],
      [
        "▁märtsil",
        -9.950043770475247
      ],
      [
        "▁laua",
        -9.950067524401598
      ],
      [
        "▁valgus",
        -9.950120793484643
      ],
      [
        "▁viimaste",
        -9.950490145184535
      ],
      [
        "▁puudu",
        -9.951999808205748
      ],
      [
        "▁jõudis",
        -9.952075860108382
      ],
      [
        "▁peame",
        -9.952624971071844
      ],
      [
        "▁sõbrad",
        -9.952781361077843
      ],
      [
        "!\"",
        -9.953009218595138
      ],
      [
        "▁koosneb",
        -9.954563289324222
      ],
      [
        "omakorda",
        -9.954806521213195
      ],
      [
        "▁muutmine",
        -9.955044658341418
      ],
      [
        "▁29.",
        -9.955770980537816
      ],
      [
        "▁kogemusi",
        -9.955855651773371
      ],
      [
        "▁aastaid",
        -9.95594705455941
      ],
      [
        "▁tootmis",
        -9.956223575756898
      ],
      [
        "punkti",
        -9.95799624171785
      ],
      [
        "▁huvitatud",
        -9.958179017407108
      ],
      [
        ":)",
        -9.958669251428768
      ],
      [
        "▁Nõukogude",
        -9.958848641884135
      ],
      [
        "nduse",
        -9.95891063735766
      ],
      [
        "▁Kokku",
        -9.958961149451413
      ],
      [
        "▁taime",
        -9.95898237787774
      ],
      [
        "▁Ju",
        -9.959124204604285
      ],
      [
        "▁valiku",
        -9.960127471384958
      ],
      [
        "▁lugeja",
        -9.960623837116596
      ],
      [
        "▁kava",
        -9.96070554163295
      ],
      [
        "▁kuula",
        -9.961011041359551
      ],
      [
        "▁Telli",
        -9.961064300130326
      ],
      [
        "▁protokolli",
        -9.961121169114293
      ],
      [
        "▁lähemalt",
        -9.961218553446262
      ],
      [
        "▁jõua",
        -9.961625878434717
      ],
      [
        "▁eestlaste",
        -9.961956545131887
      ],
      [
        "liidu",
        -9.96212192366487
      ],
      [
        "▁teave",
        -9.962135374292606
      ],
      [
        "▁Jaan",
        -9.962179888274047
      ],
      [
        "▁mure",
        -9.962455403419494
      ],
      [
        "▁elab",
        -9.96286376316101
      ],
      [
        "enda",
        -9.962906808370308
      ],
      [
        "dega.",
        -9.963724871092982
      ],
      [
        "▁Si",
        -9.964507163011206
      ],
      [
        "desse",
        -9.96475776915793
      ],
      [
        "luse",
        -9.96566598290557
      ],
      [
        "▁alustada",
        -9.965845068411907
      ],
      [
        "▁väärtus",
        -9.966161946035207
      ],
      [
        "▁rasva",
        -9.966217080872624
      ],
      [
        "▁õppekava",
        -9.966298502129796
      ],
      [
        "▁Osa",
        -9.967793980016102
      ],
      [
        "▁sina",
        -9.968068193421074
      ],
      [
        "▁vaade",
        -9.968149046109204
      ],
      [
        "▁mõnus",
        -9.968598557300338
      ],
      [
        "olgu",
        -9.968926026792069
      ],
      [
        "▁kasvanud",
        -9.968939759237815
      ],
      [
        "▁Eestisse",
        -9.969175870233585
      ],
      [
        "▁julge",
        -9.969338480212159
      ],
      [
        "▁kampaania",
        -9.969502862996148
      ],
      [
        "-aastane",
        -9.969547508335362
      ],
      [
        "▁äkki",
        -9.969558260793129
      ],
      [
        "▁jõud",
        -9.96957311839416
      ],
      [
        "▁käest",
        -9.96962649095082
      ],
      [
        "▁vere",
        -9.969907876081782
      ],
      [
        "riik",
        -9.970005581570433
      ],
      [
        "des.",
        -9.970152329292585
      ],
      [
        "ili",
        -9.970744410611161
      ],
      [
        "asutuse",
        -9.971451989788815
      ],
      [
        "volitatud",
        -9.97224917250305
      ],
      [
        "▁maini",
        -9.97240041742986
      ],
      [
        "▁põhjus",
        -9.972585660618677
      ],
      [
        "▁loa",
        -9.972600355848712
      ],
      [
        "▁pu",
        -9.97270503301197
      ],
      [
        "turu",
        -9.973165451416625
      ],
      [
        "välja",
        -9.973388276765252
      ],
      [
        "▁Teadus",
        -9.973893358343389
      ],
      [
        "25",
        -9.974255451639422
      ],
      [
        "▁järve",
        -9.97437255354375
      ],
      [
        "▁toeta",
        -9.974607728072506
      ],
      [
        "09",
        -9.974856337572678
      ],
      [
        "ava",
        -9.974862309300537
      ],
      [
        "maal",
        -9.97614912296091
      ],
      [
        "▁vahetu",
        -9.976565968160225
      ],
      [
        "▁kohustus",
        -9.977071878910813
      ],
      [
        "programmi",
        -9.977877691962327
      ],
      [
        "▁maksmise",
        -9.977886367642803
      ],
      [
        "=",
        -9.977970561737454
      ],
      [
        "🙂",
        -9.978113157661118
      ],
      [
        "▁materjali",
        -9.978346634905668
      ],
      [
        "▁Mai",
        -9.978907729538939
      ],
      [
        "▁taseme",
        -9.979069095206729
      ],
      [
        "▁mõiste",
        -9.979285179642838
      ],
      [
        "▁leidis",
        -9.97959049040988
      ],
      [
        "06",
        -9.979796240956329
      ],
      [
        "35",
        -9.979812559503738
      ],
      [
        "▁probleeme",
        -9.979889445646293
      ],
      [
        "▁kirjaliku",
        -9.980077984127568
      ],
      [
        "▁veo",
        -9.980197155280212
      ],
      [
        "▁masina",
        -9.98054185277729
      ],
      [
        "▁Tuba",
        -9.980850623616853
      ],
      [
        "▁tervishoiu",
        -9.981394432797007
      ],
      [
        "ravi",
        -9.981426505307994
      ],
      [
        "▁järgmiste",
        -9.982577296313142
      ],
      [
        "▁pilti",
        -9.983622535010646
      ],
      [
        "▁registreeritud",
        -9.983627495348202
      ],
      [
        "▁möödunud",
        -9.983779812806837
      ],
      [
        "▁küsida",
        -9.983828769415023
      ],
      [
        "▁kg",
        -9.984083570525232
      ],
      [
        "▁Loo",
        -9.984631304155327
      ],
      [
        "▁tõenäoliselt",
        -9.984888117240132
      ],
      [
        "▁hinnata",
        -9.985251567741164
      ],
      [
        "▁X",
        -9.985515675259585
      ],
      [
        "▁tehti",
        -9.985522685835942
      ],
      [
        "▁näe",
        -9.985790616266184
      ],
      [
        "▁silmas",
        -9.9866653152056
      ],
      [
        "▁Ca",
        -9.986670026938617
      ],
      [
        "Ü",
        -9.98683812451528
      ],
      [
        "sete",
        -9.98700647869833
      ],
      [
        "▁tagant",
        -9.987098936295384
      ],
      [
        "set",
        -9.9873444320578
      ],
      [
        "▁so",
        -9.988277404979911
      ],
      [
        "▁Väike",
        -9.988616331792212
      ],
      [
        "▁soola",
        -9.98911277913857
      ],
      [
        "äri",
        -9.989434688571306
      ],
      [
        "▁paneb",
        -9.989922693990987
      ],
      [
        "▁tahes",
        -9.990106874253328
      ],
      [
        "▁kuue",
        -9.99012734691823
      ],
      [
        "▁klubi",
        -9.990331683619498
      ],
      [
        "vahendite",
        -9.990471106033382
      ],
      [
        "viisi",
        -9.990612770762503
      ],
      [
        "▁alg",
        -9.990705178369033
      ],
      [
        "fe",
        -9.990709874380947
      ],
      [
        "▁kaheksa",
        -9.990836653803305
      ],
      [
        "▁tegevuste",
        -9.991242299066176
      ],
      [
        "▁Toomas",
        -9.99132844055098
      ],
      [
        "▁küsi",
        -9.991434762595373
      ],
      [
        "nime",
        -9.991603717825843
      ],
      [
        "▁kirjutatud",
        -9.992006147042929
      ],
      [
        "▁kasulik",
        -9.992103500098986
      ],
      [
        "▁loomulikult",
        -9.99213671725195
      ],
      [
        "▁mitmed",
        -9.992258196367654
      ],
      [
        "▁2008",
        -9.992408693243439
      ],
      [
        "▁sõnas",
        -9.993116462976557
      ],
      [
        "▁liikmesriigid",
        -9.993356784840778
      ],
      [
        "▁füüsilise",
        -9.993476208905943
      ],
      [
        "▁rahul",
        -9.993633361544594
      ],
      [
        "▁saada.",
        -9.99450713256132
      ],
      [
        "▁aadressil",
        -9.994564765097222
      ],
      [
        "asutuste",
        -9.995298844405056
      ],
      [
        "▁suutnud",
        -9.995953744857156
      ],
      [
        "▁vahendite",
        -9.99607109381016
      ],
      [
        "▁territooriumil",
        -9.996092184058774
      ],
      [
        "kuse",
        -9.996305752618326
      ],
      [
        "alt",
        -9.996344871586672
      ],
      [
        "▁kõigil",
        -9.996548942530247
      ],
      [
        "70",
        -9.996733579321983
      ],
      [
        "▁Leedu",
        -9.996829677543214
      ],
      [
        "likke",
        -9.996877568424043
      ],
      [
        "po",
        -9.996899148454212
      ],
      [
        "▁poolest",
        -9.997231515582616
      ],
      [
        "▁Äripäev",
        -9.997481685466543
      ],
      [
        "▁selles,",
        -9.997822773992917
      ],
      [
        "▁jälgida",
        -9.998172562622692
      ],
      [
        "▁2014.",
        -9.998624592047815
      ],
      [
        "▁super",
        -9.999033356258163
      ],
      [
        "▁lahe",
        -9.999482036686206
      ],
      [
        "▁seadme",
        -9.999760063889504
      ],
      [
        "▁mäleta",
        -9.999765005604829
      ],
      [
        "kool",
        -10.000035997209107
      ],
      [
        "▁lapsi",
        -10.000154912083447
      ],
      [
        "▁Kindlasti",
        -10.000229693557
      ],
      [
        "▁maksma",
        -10.000450893815437
      ],
      [
        "▁õpilaste",
        -10.000710296975123
      ],
      [
        "▁Igal",
        -10.001134454264776
      ],
      [
        "▁eelnevalt",
        -10.001342473715493
      ],
      [
        "▁määratakse",
        -10.001375566042864
      ],
      [
        "stik",
        -10.001447328700605
      ],
      [
        "▁Artikli",
        -10.001775768845679
      ],
      [
        "ast",
        -10.002757102243184
      ],
      [
        "▁kool",
        -10.00283369584201
      ],
      [
        "kaardi",
        -10.002883352008713
      ],
      [
        "▁So",
        -10.00304607969997
      ],
      [
        "amet",
        -10.004369357450148
      ],
      [
        "▁võidu",
        -10.004387591483667
      ],
      [
        "▁mõtet",
        -10.004615697637222
      ],
      [
        "ster",
        -10.004899798729506
      ],
      [
        "sele",
        -10.005205946570912
      ],
      [
        "60",
        -10.005785893405974
      ],
      [
        "ena",
        -10.005812047076796
      ],
      [
        "Tegemist",
        -10.005816380809076
      ],
      [
        "▁Valitsus",
        -10.006154177514036
      ],
      [
        "▁lause",
        -10.006321380690203
      ],
      [
        "▁kevad",
        -10.006419895564683
      ],
      [
        "▁kohus",
        -10.007578563002507
      ],
      [
        "▁nõude",
        -10.007602358496346
      ],
      [
        "▁protsessi",
        -10.00799919728211
      ],
      [
        "▁Tehnikaülikool",
        -10.009192883947692
      ],
      [
        "▁lähevad",
        -10.009522827834964
      ],
      [
        "las",
        -10.009530311535087
      ],
      [
        "▁projekt",
        -10.010369450390291
      ],
      [
        "▁nõuete",
        -10.01041257912086
      ],
      [
        "▁Kon",
        -10.011054458848019
      ],
      [
        "▁mulje",
        -10.011111926867237
      ],
      [
        "▁probleem",
        -10.012754606223082
      ],
      [
        "▁alkoholi",
        -10.013970420998636
      ],
      [
        "▁juunil",
        -10.014104228376821
      ],
      [
        "▁pakkuja",
        -10.015496356095044
      ],
      [
        "▁Ala",
        -10.015753775799542
      ],
      [
        "▁\"K",
        -10.015843642824187
      ],
      [
        "▁täitsa",
        -10.015857438749165
      ],
      [
        "▁suurte",
        -10.015902616515337
      ],
      [
        "▁musta",
        -10.01594188764733
      ],
      [
        "▁kujul",
        -10.016405000704152
      ],
      [
        ".“",
        -10.016579957747354
      ],
      [
        "auto",
        -10.016609608628295
      ],
      [
        "▁lõpeta",
        -10.017706009223728
      ],
      [
        "▁lõpu",
        -10.01785650534259
      ],
      [
        "22",
        -10.018005884834768
      ],
      [
        "05",
        -10.018884952424859
      ],
      [
        "▁päevas",
        -10.018952495089202
      ],
      [
        "wi",
        -10.019377898639583
      ],
      [
        "▁hinda",
        -10.019765143942667
      ],
      [
        "loa",
        -10.020320749450619
      ],
      [
        "▁Logi",
        -10.020733030737006
      ],
      [
        "▁koosseisu",
        -10.021078872028848
      ],
      [
        "Selleks",
        -10.021125250908561
      ],
      [
        "▁korraldatud",
        -10.02134104842733
      ],
      [
        "▁näita",
        -10.021525855739299
      ],
      [
        "perioodi",
        -10.021681867671933
      ],
      [
        "▁f",
        -10.021969549295036
      ],
      [
        "▁klientide",
        -10.022229442820693
      ],
      [
        "▁jätkuvalt",
        -10.022519989609707
      ],
      [
        "1.",
        -10.022928867419676
      ],
      [
        "▁poleks",
        -10.024224144905585
      ],
      [
        "var",
        -10.02461318772215
      ],
      [
        "▁Anna",
        -10.025430315206226
      ],
      [
        "▁aku",
        -10.025843416135867
      ],
      [
        "▁meelest",
        -10.025914455085845
      ],
      [
        "▁kiiremini",
        -10.026109630834997
      ],
      [
        "▁piirkonnas",
        -10.026674494229518
      ],
      [
        "▁Hi",
        -10.027625413630961
      ],
      [
        "▁asukoha",
        -10.028567014067466
      ],
      [
        "▁olev",
        -10.02961282435637
      ],
      [
        "▁ilmu",
        -10.029952348793621
      ],
      [
        "ana",
        -10.03098460946569
      ],
      [
        "▁Kahe",
        -10.03141169490571
      ],
      [
        "▁mujal",
        -10.031789406421495
      ],
      [
        "▁tasandil",
        -10.03180616724809
      ],
      [
        "▁korralduse",
        -10.032019886719706
      ],
      [
        "▁gaasi",
        -10.032845886672547
      ],
      [
        "▁mõnda",
        -10.03336010873082
      ],
      [
        "▁Se",
        -10.033441196714776
      ],
      [
        "▁tootmise",
        -10.033484514196806
      ],
      [
        "▁näha,",
        -10.033706240346188
      ],
      [
        "Selline",
        -10.033973513874137
      ],
      [
        "hel",
        -10.034117184496075
      ],
      [
        "▁kohapeal",
        -10.034223288803306
      ],
      [
        "tule",
        -10.035111851545953
      ],
      [
        "▁mingil",
        -10.035780327959975
      ],
      [
        "▁dokumendid",
        -10.036307458766261
      ],
      [
        "▁olevate",
        -10.036564827797296
      ],
      [
        "▁suudab",
        -10.036657970996941
      ],
      [
        "▁tarbija",
        -10.036746696595548
      ],
      [
        "tamist",
        -10.037683899719207
      ],
      [
        "▁küsimusi",
        -10.037878909722632
      ],
      [
        "▁rakendamise",
        -10.038119321921807
      ],
      [
        "▁soov",
        -10.038412714093898
      ],
      [
        "▁asjade",
        -10.0385185076555
      ],
      [
        "▁digi",
        -10.040204882780374
      ],
      [
        "ER",
        -10.040474458108116
      ],
      [
        "▁müük",
        -10.040610280117932
      ],
      [
        "▁PS",
        -10.04092265694494
      ],
      [
        "misele",
        -10.041163284327757
      ],
      [
        "idele",
        -10.041835985135643
      ],
      [
        "▁2011.",
        -10.042403460428918
      ],
      [
        "▁soovitame",
        -10.042479194747067
      ],
      [
        "kehtestab",
        -10.0425570348153
      ],
      [
        "▁kindel",
        -10.042607867775764
      ],
      [
        "▁tuule",
        -10.042618494970895
      ],
      [
        "▁Ehitus",
        -10.042701114441904
      ],
      [
        "▁Üld",
        -10.042945700676185
      ],
      [
        "▁hetke",
        -10.043302891662014
      ],
      [
        "▁praeguse",
        -10.043387558364454
      ],
      [
        "▁novembril",
        -10.043689612961387
      ],
      [
        "27",
        -10.043725434817508
      ],
      [
        "▁teenuseid",
        -10.044628974439554
      ],
      [
        "häid",
        -10.044793747230084
      ],
      [
        "▁Loodus",
        -10.044891038367506
      ],
      [
        "▁kood",
        -10.044940705003384
      ],
      [
        "▁kasvab",
        -10.045981167652243
      ],
      [
        "▁Taani",
        -10.046058905119326
      ],
      [
        "▁kindlustus",
        -10.046382829879114
      ],
      [
        "▁väljas",
        -10.046770869284254
      ],
      [
        "▁SA",
        -10.047011024986388
      ],
      [
        "80",
        -10.047225003902547
      ],
      [
        "▁eesmärgil",
        -10.047233454804338
      ],
      [
        "▁ratta",
        -10.047306925781216
      ],
      [
        "▁korras.",
        -10.04737236839632
      ],
      [
        "kust",
        -10.04770983763548
      ],
      [
        "▁koostamise",
        -10.04850491217725
      ],
      [
        "▁Mõned",
        -10.048528514287554
      ],
      [
        "▁tugeva",
        -10.049449897104179
      ],
      [
        "▁toetada",
        -10.049815243525389
      ],
      [
        "▁esimehe",
        -10.050142445831664
      ],
      [
        "▁keskmine",
        -10.050222225234279
      ],
      [
        "▁kaitsta",
        -10.050375752933554
      ],
      [
        "nna",
        -10.05085427517058
      ],
      [
        "▁piira",
        -10.050895134164042
      ],
      [
        "▁kaardi",
        -10.05147086953201
      ],
      [
        "▁takista",
        -10.05189807024695
      ],
      [
        "▁luule",
        -10.05205129525783
      ],
      [
        "▁täienda",
        -10.052296056598617
      ],
      [
        "asutus",
        -10.05230705309198
      ],
      [
        "▁lääne",
        -10.052332380518479
      ],
      [
        "▁tugi",
        -10.052346869172311
      ],
      [
        "▁küsimused",
        -10.052629146642115
      ],
      [
        "▁tutvusta",
        -10.052739612478952
      ],
      [
        "▁Mari",
        -10.052796647543925
      ],
      [
        "▁kinnistu",
        -10.052935469972699
      ],
      [
        "▁kütuse",
        -10.053140418124364
      ],
      [
        "▁Maksu",
        -10.053282475464142
      ],
      [
        "▁Ri",
        -10.05332646393193
      ],
      [
        "▁varu",
        -10.053868193936996
      ],
      [
        "▁meeskonna",
        -10.053964774546195
      ],
      [
        "st:",
        -10.054132458710011
      ],
      [
        "▁Just",
        -10.054655416230485
      ],
      [
        "▁relva",
        -10.054848331942427
      ],
      [
        "▁(EL",
        -10.05506660349587
      ],
      [
        "▁kategooria",
        -10.055405615849786
      ],
      [
        "oma",
        -10.055441838170267
      ],
      [
        "▁mälu",
        -10.055634653265049
      ],
      [
        "▁Sõna",
        -10.055686656794578
      ],
      [
        "mehe",
        -10.055687025670906
      ],
      [
        "▁vanema",
        -10.056731061786175
      ],
      [
        "▁osakonna",
        -10.057826802109755
      ],
      [
        "▁meiega",
        -10.058524933704632
      ],
      [
        "▁32",
        -10.059060980111248
      ],
      [
        "▁RT",
        -10.05924009946894
      ],
      [
        "▁E-",
        -10.059311233919441
      ],
      [
        "▁lähtu",
        -10.059437512071774
      ],
      [
        "▁sobivad",
        -10.059449898783157
      ],
      [
        "▁maantee",
        -10.0595604454354
      ],
      [
        "▁Sellise",
        -10.059714699882797
      ],
      [
        "▁võtta.",
        -10.059809153488619
      ],
      [
        "idest",
        -10.059881410114897
      ],
      [
        "▁elada",
        -10.060453217566348
      ],
      [
        "▁konkurentsi",
        -10.060521738326667
      ],
      [
        "▁lase",
        -10.06062135739414
      ],
      [
        "▁muutus",
        -10.062325225184745
      ],
      [
        "▁katuse",
        -10.062540243845408
      ],
      [
        "▁liik",
        -10.06291321153411
      ],
      [
        "▁suurepärane",
        -10.062942773408773
      ],
      [
        "▁arvestada",
        -10.063033156782659
      ],
      [
        "▁jälgi",
        -10.063048361453042
      ],
      [
        "08",
        -10.063377600736787
      ],
      [
        "▁leiad",
        -10.06338280653557
      ],
      [
        "▁Eri",
        -10.063464421961472
      ],
      [
        "é",
        -10.063815702250382
      ],
      [
        "kiri",
        -10.064489384022046
      ],
      [
        "▁Hispaania",
        -10.064843102966659
      ],
      [
        "▁eesmärgi",
        -10.064928642144626
      ],
      [
        "duse",
        -10.064935639249683
      ],
      [
        "▁eriala",
        -10.06531217492686
      ],
      [
        "▁ühele",
        -10.065444641658411
      ],
      [
        "▁Estonia",
        -10.065795494954948
      ],
      [
        "▁rõõmu",
        -10.066035407197269
      ],
      [
        "▁ürituse",
        -10.066165291155503
      ],
      [
        "(8)",
        -10.06626474804312
      ],
      [
        "▁Karl",
        -10.066595929667702
      ],
      [
        "▁väikse",
        -10.066948617127604
      ],
      [
        "▁meetri",
        -10.067264628539224
      ],
      [
        "▁vaatama",
        -10.067341294817314
      ],
      [
        "▁IV",
        -10.067362096206214
      ],
      [
        "▁majanduse",
        -10.067641037333765
      ],
      [
        "99",
        -10.0676865876206
      ],
      [
        "▁Soomes",
        -10.067842143645265
      ],
      [
        "▁suuremat",
        -10.067897417687435
      ],
      [
        "▁mootori",
        -10.068634816469679
      ],
      [
        "▁rind",
        -10.06974461766887
      ],
      [
        "▁makstakse",
        -10.06991640552524
      ],
      [
        "▁asuvad",
        -10.070191935984866
      ],
      [
        "▁osaliselt",
        -10.070200249550062
      ],
      [
        "▁hõlmab",
        -10.070252535580535
      ],
      [
        "vormi",
        -10.070799513902156
      ],
      [
        "umi",
        -10.070800781670474
      ],
      [
        "▁kinnisasja",
        -10.071033836026759
      ],
      [
        "▁dollari",
        -10.071430113693953
      ],
      [
        "▁soovivad",
        -10.07145993245724
      ],
      [
        "berg",
        -10.07190967767059
      ],
      [
        "▁võitis",
        -10.072232905746478
      ],
      [
        "kur",
        -10.072646634042544
      ],
      [
        "▁vormis",
        -10.072699316566517
      ],
      [
        "▁Küll",
        -10.072713247028146
      ],
      [
        "maksu",
        -10.073282851908793
      ],
      [
        "▁nalja",
        -10.073390967346596
      ],
      [
        "rm",
        -10.073746446504789
      ],
      [
        "▁lingid",
        -10.073906933344068
      ],
      [
        "▁36",
        -10.074301108513565
      ],
      [
        "määra",
        -10.07437306485845
      ],
      [
        "▁=",
        -10.07449446067028
      ],
      [
        "▁keskendu",
        -10.074661366040889
      ],
      [
        "▁tead",
        -10.074790467825459
      ],
      [
        "▁mugav",
        -10.074838246870836
      ],
      [
        "▁logi",
        -10.074932948103823
      ],
      [
        "▁Viimase",
        -10.075604335908421
      ],
      [
        "võime",
        -10.075606833666768
      ],
      [
        "▁tegemine",
        -10.075920349843997
      ],
      [
        "▁muna",
        -10.075941143081181
      ],
      [
        "▁lisatud",
        -10.076146840655401
      ],
      [
        "idega",
        -10.076926272102776
      ],
      [
        "Muidugi",
        -10.077773395349976
      ],
      [
        "taseme",
        -10.077892865256048
      ],
      [
        "▁punkt",
        -10.077938121575102
      ],
      [
        "▁2020",
        -10.078282277044352
      ],
      [
        "▁meele",
        -10.078527109966018
      ],
      [
        "kul",
        -10.078875581740247
      ],
      [
        "▁2012.",
        -10.078927231113266
      ],
      [
        "▁Ost",
        -10.079068649304492
      ],
      [
        "sõit",
        -10.07939510569894
      ],
      [
        "▁oktoobril",
        -10.079473003281777
      ],
      [
        "▁asutuste",
        -10.08025463034327
      ],
      [
        "!!!",
        -10.081304953281077
      ],
      [
        "▁september",
        -10.081476802993372
      ],
      [
        "▁Mängi",
        -10.081570375480577
      ],
      [
        "vas",
        -10.081719138711502
      ],
      [
        "▁Õ",
        -10.08191852171323
      ],
      [
        "▁grupi",
        -10.08208887328547
      ],
      [
        "▁Muu",
        -10.082262010911723
      ],
      [
        "▁kedagi",
        -10.082336647616163
      ],
      [
        "▁vabalt",
        -10.082941721654109
      ],
      [
        "min",
        -10.08297632968366
      ],
      [
        "▁kuul",
        -10.083342204704877
      ],
      [
        "▁tohiks",
        -10.083495739656986
      ],
      [
        "▁senise",
        -10.084041977150328
      ],
      [
        "ibu",
        -10.084083828171465
      ],
      [
        "▁kirjas",
        -10.084560009190502
      ],
      [
        "▁esinda",
        -10.08510356677434
      ],
      [
        "▁riikides",
        -10.085511611809093
      ],
      [
        "kat",
        -10.085796812451232
      ],
      [
        "▁ürita",
        -10.086158234370416
      ],
      [
        "▁Info",
        -10.08669050572242
      ],
      [
        "▁tulemusena",
        -10.087006810009065
      ],
      [
        "▁2009.",
        -10.08755105088505
      ],
      [
        "▁Harjumaa",
        -10.087750717368365
      ],
      [
        "▁kiirelt",
        -10.087851294174794
      ],
      [
        "its",
        -10.088364180955363
      ],
      [
        "▁isikliku",
        -10.088487749691872
      ],
      [
        "▁http://",
        -10.089048351793071
      ],
      [
        "▁eelda",
        -10.089081740470412
      ],
      [
        "▁tähenda",
        -10.089148870446325
      ],
      [
        "▁Palju",
        -10.089300862678684
      ],
      [
        "▁võeti",
        -10.09001378905695
      ],
      [
        "▁püüd",
        -10.090026871511192
      ],
      [
        "▁kantud",
        -10.0902568375946
      ],
      [
        "▁arvamus",
        -10.090271571847973
      ],
      [
        "▁ainus",
        -10.0911970307271
      ],
      [
        "▁üldise",
        -10.091856737738446
      ],
      [
        "▁käsitöö",
        -10.091960354299372
      ],
      [
        "▁hooaja",
        -10.093173856231786
      ],
      [
        "▁33",
        -10.093596807317653
      ],
      [
        "TA",
        -10.09375087517489
      ],
      [
        "▁jooksu",
        -10.09402984576125
      ],
      [
        "▁toetab",
        -10.094296224983815
      ],
      [
        "▁instituut",
        -10.095113981145694
      ],
      [
        "ksin",
        -10.095525399393047
      ],
      [
        "▁kaetud",
        -10.096064018490138
      ],
      [
        "13",
        -10.096089238495033
      ],
      [
        "▁nimelt",
        -10.096549182485706
      ],
      [
        "rit",
        -10.096835089016619
      ],
      [
        "ringi",
        -10.09728697781416
      ],
      [
        "▁Projekti",
        -10.097356363616498
      ],
      [
        "gen",
        -10.097839885542957
      ],
      [
        "▁kirjeldus",
        -10.097940952434985
      ],
      [
        "▁kaupade",
        -10.098283429602578
      ],
      [
        "▁Asukoht",
        -10.098486138034145
      ],
      [
        "▁juhtimise",
        -10.099884213184055
      ],
      [
        "sust",
        -10.100326150975034
      ],
      [
        "▁posti",
        -10.101071150200223
      ],
      [
        "▁tahan",
        -10.101116912938307
      ],
      [
        "poole",
        -10.101225040663529
      ],
      [
        "▁keskel",
        -10.10129584401054
      ],
      [
        "▁Rein",
        -10.101297046033782
      ],
      [
        "▁kontrollida",
        -10.101524427226195
      ],
      [
        "▁teeme",
        -10.101693686308657
      ],
      [
        "linna",
        -10.101907304793428
      ],
      [
        "stamise",
        -10.101929754477151
      ],
      [
        "▁isikud",
        -10.101969272165707
      ],
      [
        "▁hariduse",
        -10.102214229132077
      ],
      [
        "▁lõpuni",
        -10.102948233068382
      ],
      [
        "▁aruande",
        -10.103071799369646
      ],
      [
        "mäng",
        -10.103092906905406
      ],
      [
        "▁ERR",
        -10.103775012411337
      ],
      [
        "▁suurepärase",
        -10.103873599484412
      ],
      [
        "▁sõita",
        -10.104112628811702
      ],
      [
        "▁struktuuri",
        -10.104203722235816
      ],
      [
        "▁raudtee",
        -10.104489452108108
      ],
      [
        "▁ranna",
        -10.10590354254047
      ],
      [
        "per",
        -10.1059049968313
      ],
      [
        "▁laul",
        -10.106285578583812
      ],
      [
        "iv",
        -10.106630436285302
      ],
      [
        "▁madala",
        -10.10669098598972
      ],
      [
        "▁liikumise",
        -10.106808140936693
      ],
      [
        "▁linnu",
        -10.106991985704953
      ],
      [
        "Y",
        -10.107114683871414
      ],
      [
        "▁küpsiseid",
        -10.107298015393312
      ],
      [
        "▁jooksul.",
        -10.107360733196774
      ],
      [
        "ber",
        -10.10754690789975
      ],
      [
        "ari",
        -10.107836001624417
      ],
      [
        "materjali",
        -10.108391442220917
      ],
      [
        "▁mahu",
        -10.108551537231342
      ],
      [
        "▁väiksem",
        -10.10858399793954
      ],
      [
        "sh",
        -10.10875962831006
      ],
      [
        "▁Saaremaa",
        -10.108879735676924
      ],
      [
        "▁Au",
        -10.109057552903474
      ],
      [
        "▁Bo",
        -10.109266948976515
      ],
      [
        "millised",
        -10.109519545509288
      ],
      [
        "▁maksa",
        -10.109948723077942
      ],
      [
        "kse",
        -10.110164300784035
      ],
      [
        "▁kolmas",
        -10.11024373829829
      ],
      [
        "by",
        -10.110636378925587
      ],
      [
        "▁meditsiini",
        -10.11086899400535
      ],
      [
        "▁(1",
        -10.110921887532346
      ],
      [
        "päeval",
        -10.111108478276602
      ],
      [
        "▁köögi",
        -10.111117425702545
      ],
      [
        "▁kutsub",
        -10.111131616214198
      ],
      [
        "oo",
        -10.111353034226848
      ],
      [
        "▁arengukava",
        -10.111564237699966
      ],
      [
        "▁korraldada",
        -10.111854106695352
      ],
      [
        "Viimane",
        -10.112292433741484
      ],
      [
        "▁lisandu",
        -10.113501737861455
      ],
      [
        "ok",
        -10.11377453098785
      ],
      [
        "▁teemad",
        -10.114216092177898
      ],
      [
        "tuks",
        -10.114374996121757
      ],
      [
        "▁koosoleku",
        -10.114503349662094
      ],
      [
        "▁häda",
        -10.114806271531723
      ],
      [
        "▁leidub",
        -10.114846529429869
      ],
      [
        "▁kellega",
        -10.11496803873148
      ],
      [
        "Isegi",
        -10.115312286974113
      ],
      [
        "▁ülesanne",
        -10.115511140587756
      ],
      [
        "lli",
        -10.115906627876033
      ],
      [
        "▁Kategooria:",
        -10.117137699296022
      ],
      [
        "▁Küsi",
        -10.11755218100586
      ],
      [
        "▁kirjanduse",
        -10.117585085400844
      ],
      [
        "▁Euro",
        -10.117727414800122
      ],
      [
        "Q",
        -10.11818516126094
      ],
      [
        "!”",
        -10.118190519500466
      ],
      [
        "▁kiir",
        -10.118308639238197
      ],
      [
        "▁tulemuste",
        -10.1188056648483
      ],
      [
        "▁tehnilise",
        -10.119114846094014
      ],
      [
        "▁otsustab",
        -10.119851660989951
      ],
      [
        "▁sügisel",
        -10.120182917588476
      ],
      [
        "▁moel",
        -10.120261459875508
      ],
      [
        "▁Paljud",
        -10.120372447342323
      ],
      [
        "▁kuiva",
        -10.120596769615336
      ],
      [
        "▁sobi",
        -10.120760861308973
      ],
      [
        "▁lihtsam",
        -10.12094964992854
      ],
      [
        "NB!",
        -10.121438171430704
      ],
      [
        "▁dic",
        -10.122036100952268
      ],
      [
        "kk",
        -10.122042375554551
      ],
      [
        "LE",
        -10.122144310882005
      ],
      [
        "▁tekitab",
        -10.12214484205727
      ],
      [
        "▁ükskõik",
        -10.122315198500418
      ],
      [
        "tas",
        -10.122716015109571
      ],
      [
        "vil",
        -10.123234382272372
      ],
      [
        "▁testi",
        -10.12332876082573
      ],
      [
        "uu",
        -10.123629057196013
      ],
      [
        "▁ometi",
        -10.123660002513713
      ],
      [
        "▁protsendi",
        -10.123684209769868
      ],
      [
        "▁tekst",
        -10.123813164525163
      ],
      [
        "▁roll",
        -10.123991055577328
      ],
      [
        "▁teadmisi",
        -10.12472928207216
      ],
      [
        "▁hindamise",
        -10.124858169254288
      ],
      [
        "▁lõppu",
        -10.125493233914725
      ],
      [
        "tar",
        -10.126109160826774
      ],
      [
        "äärmiselt",
        -10.126221235371586
      ],
      [
        "▁vastata",
        -10.126305998664199
      ],
      [
        "▁tahad",
        -10.12644095628702
      ],
      [
        "▁keeruline",
        -10.126440979140353
      ],
      [
        "▁kinnitas",
        -10.126442690488766
      ],
      [
        "▁kasutus",
        -10.126877308362303
      ],
      [
        "▁retsepti",
        -10.127282176871493
      ],
      [
        "▁To",
        -10.127337877199867
      ],
      [
        "▁(2",
        -10.12798543698353
      ],
      [
        "02",
        -10.128068161067443
      ],
      [
        "m,",
        -10.128875631967205
      ],
      [
        "▁Pi",
        -10.12908614731206
      ],
      [
        "▁täidetud",
        -10.129757188422055
      ],
      [
        "▁Kar",
        -10.130247541708975
      ],
      [
        "▁ületa",
        -10.130559091224598
      ],
      [
        "ministri",
        -10.130711497933277
      ],
      [
        "▁sündinud",
        -10.131159624205118
      ],
      [
        "ni,",
        -10.13131046736638
      ],
      [
        "▁suht",
        -10.131529625722676
      ],
      [
        "▁õigusaktide",
        -10.132353279920878
      ],
      [
        "Ainult",
        -10.132464619099924
      ],
      [
        "▁Ni",
        -10.132480351549383
      ],
      [
        "▁J.",
        -10.132927882321045
      ],
      [
        "▁tegemiseks",
        -10.13338769758892
      ],
      [
        "▁pidu",
        -10.134263992099722
      ],
      [
        "▁ühtlas",
        -10.13429732975946
      ],
      [
        "▁taotlus",
        -10.135017387990256
      ],
      [
        "bo",
        -10.135325516418497
      ],
      [
        "▁avalik",
        -10.135461474636807
      ],
      [
        "aia",
        -10.13576797242373
      ],
      [
        "läbi",
        -10.135919646112649
      ],
      [
        "▁numbri",
        -10.135990946802721
      ],
      [
        "mb",
        -10.136135314081297
      ],
      [
        "▁teata",
        -10.13617255956276
      ],
      [
        "raamat",
        -10.136773653715156
      ],
      [
        "▁kommentaari",
        -10.136799494219154
      ],
      [
        "õhtu",
        -10.13681657183686
      ],
      [
        "▁pakkumise",
        -10.137019593651367
      ],
      [
        "▁vii",
        -10.137032721573794
      ],
      [
        "▁septembril",
        -10.137038980026448
      ],
      [
        "▁liigi",
        -10.137127311119208
      ],
      [
        "▁42",
        -10.13714633044945
      ],
      [
        "tama",
        -10.137202670101697
      ],
      [
        "▁kohustused",
        -10.13730238329573
      ],
      [
        "▁igale",
        -10.137391497059433
      ],
      [
        "▁kellegi",
        -10.137435417882909
      ],
      [
        "▁milleks",
        -10.138749634937309
      ],
      [
        "▁sammu",
        -10.138935468193587
      ],
      [
        "▁aastal.",
        -10.139117581956398
      ],
      [
        "▁Järgmine",
        -10.139377198302066
      ],
      [
        "▁hakanud",
        -10.139379836473358
      ],
      [
        "ara",
        -10.139409018188589
      ],
      [
        "▁asutus",
        -10.139575920653694
      ],
      [
        "▁Prantsusmaa",
        -10.139728981419022
      ],
      [
        "▁kehtestatakse",
        -10.139775859105944
      ],
      [
        "atsiooni",
        -10.140004504387896
      ],
      [
        "▁sõlmi",
        -10.140098939223897
      ],
      [
        "▁2007",
        -10.140909096320804
      ],
      [
        "▁saime",
        -10.141132284120403
      ],
      [
        "Ä",
        -10.14119050052134
      ],
      [
        "▁pikkus",
        -10.141358335891615
      ],
      [
        "▁jutu",
        -10.141724195038204
      ],
      [
        "▁paha",
        -10.141741892503976
      ],
      [
        "▁klient",
        -10.14193526016134
      ],
      [
        "muusika",
        -10.142737199122614
      ],
      [
        ":00",
        -10.142799550680502
      ],
      [
        "▁üksik",
        -10.143119046448035
      ],
      [
        "▁taotleda",
        -10.145130745860595
      ],
      [
        "Ning",
        -10.14596037237545
      ],
      [
        "▁risti",
        -10.146442418011492
      ],
      [
        "▁saaksid",
        -10.146763588623966
      ],
      [
        "▁tagama",
        -10.147556580884826
      ],
      [
        "ali",
        -10.147676283592823
      ],
      [
        "▁korralikult",
        -10.14819813013749
      ],
      [
        "▁mängida",
        -10.148277838275357
      ],
      [
        "▁Tänu",
        -10.148355830318465
      ],
      [
        "▁august",
        -10.149219665406314
      ],
      [
        "▁juurde.",
        -10.14961998485952
      ],
      [
        "stuse",
        -10.150453109561798
      ],
      [
        "▁ida",
        -10.150477711365749
      ],
      [
        "▁minna.",
        -10.150497761256197
      ],
      [
        "▁lahendus",
        -10.150779414158212
      ],
      [
        "nõukogu",
        -10.150907725542774
      ],
      [
        "▁sellepärast",
        -10.150929472352836
      ],
      [
        "▁omaniku",
        -10.151343870274005
      ],
      [
        "▁tingimustel",
        -10.151643690634765
      ],
      [
        "Seejärel",
        -10.151723320154161
      ],
      [
        "▁koostatud",
        -10.15182109894898
      ],
      [
        "osakonna",
        -10.152047038050192
      ],
      [
        "▁00",
        -10.15260942439954
      ],
      [
        "▁olukorra",
        -10.152643863058362
      ],
      [
        "▁värv",
        -10.153090662393716
      ],
      [
        "ate",
        -10.153205925691651
      ],
      [
        "▁Muud",
        -10.153659933081578
      ],
      [
        "▁seadmete",
        -10.15480231083164
      ],
      [
        "▁Ku",
        -10.154863817061635
      ],
      [
        "▁aastaga",
        -10.154869781724727
      ],
      [
        "▁käinud",
        -10.154976461540027
      ],
      [
        "▁konverentsi",
        -10.155065747490088
      ],
      [
        "▁38",
        -10.15507850022257
      ],
      [
        "▁kevadel",
        -10.155101436517935
      ],
      [
        "nik",
        -10.155199046039247
      ],
      [
        "kaart",
        -10.155325676953321
      ],
      [
        "▁kogus",
        -10.156152641689218
      ],
      [
        "▁kannab",
        -10.15633693527991
      ],
      [
        "uks",
        -10.156575839184697
      ],
      [
        "▁vastavad",
        -10.156703750982345
      ],
      [
        "▁rongi",
        -10.156984130385975
      ],
      [
        "▁muudatused",
        -10.157098337130172
      ],
      [
        "▁otsida",
        -10.15753358188001
      ],
      [
        "▁paranda",
        -10.157535923462877
      ],
      [
        "▁parimad",
        -10.157910641616432
      ],
      [
        "▁rahvusvaheline",
        -10.158392940525582
      ],
      [
        "▁ülevaade",
        -10.15850761316257
      ],
      [
        "▁ehitatud",
        -10.158774655864466
      ],
      [
        "▁olla.",
        -10.158866871345015
      ],
      [
        "▁põhjusel",
        -10.159259617382226
      ],
      [
        "d)",
        -10.15973972650009
      ],
      [
        "▁tahavad",
        -10.160223711309248
      ],
      [
        "▁armas",
        -10.160297229495448
      ],
      [
        "▁koolituse",
        -10.160390302880804
      ],
      [
        "07",
        -10.160705104992623
      ],
      [
        "▁otseselt",
        -10.161135563078332
      ],
      [
        "▁(või",
        -10.161236520796916
      ],
      [
        "▁selgub",
        -10.162707725577667
      ],
      [
        "lis",
        -10.162708890833024
      ],
      [
        "▁kõrgus",
        -10.16396518026204
      ],
      [
        "▁kusagil",
        -10.164380160705452
      ],
      [
        "sektori",
        -10.16458397190709
      ],
      [
        "tehnoloogia",
        -10.164625526483363
      ],
      [
        "▁Ke",
        -10.164666225743094
      ],
      [
        "▁ajast",
        -10.16498794097275
      ],
      [
        "plaani",
        -10.165265956555821
      ],
      [
        "“,",
        -10.166241276756196
      ],
      [
        "▁selja",
        -10.16654576405034
      ],
      [
        "▁Ba",
        -10.16658035009766
      ],
      [
        ">",
        -10.1666759023094
      ],
      [
        "▁menetlus",
        -10.167090936896518
      ],
      [
        "▁Sildid:",
        -10.16761052663927
      ],
      [
        "ris",
        -10.167701586171102
      ],
      [
        "▁rahastamise",
        -10.168003380635756
      ],
      [
        "▁vilja",
        -10.168031400091143
      ],
      [
        "▁teisele",
        -10.168354517359248
      ],
      [
        "stamine",
        -10.168483845589689
      ],
      [
        "▁Eestimaa",
        -10.16870761345802
      ],
      [
        "▁Otsi",
        -10.169188329207696
      ],
      [
        "atsioon",
        -10.16949995427682
      ],
      [
        "21",
        -10.169594821980244
      ],
      [
        "▁ilmunud",
        -10.169966162471058
      ],
      [
        "igi",
        -10.169977649221005
      ],
      [
        "▁segu",
        -10.170023721861426
      ],
      [
        "▁teose",
        -10.170686907143867
      ],
      [
        "▁Martin",
        -10.170868161434608
      ],
      [
        "▁ekspordi",
        -10.171382002322854
      ],
      [
        "▁võid",
        -10.171430642440399
      ],
      [
        "▁lasteaia",
        -10.171524078615086
      ],
      [
        "▁töötada",
        -10.17186661670252
      ],
      [
        "▁konkursi",
        -10.171882871289487
      ],
      [
        "▁Äri",
        -10.17233459519279
      ],
      [
        "▁Kaks",
        -10.172432909265542
      ],
      [
        "ruum",
        -10.172447083076854
      ],
      [
        "▁erinevates",
        -10.172505494555917
      ],
      [
        "▁määrab",
        -10.17259265917941
      ],
      [
        "za",
        -10.17298023949526
      ],
      [
        "ult",
        -10.173250396184272
      ],
      [
        "▁aita",
        -10.173904893269992
      ],
      [
        "uga",
        -10.17456748878909
      ],
      [
        "▁cumshot",
        -10.174693407528475
      ],
      [
        "▁turule",
        -10.175200620110964
      ],
      [
        "▁Muusika",
        -10.175497127799819
      ],
      [
        "▁hiljuti",
        -10.175554769542876
      ],
      [
        "▁1000",
        -10.175853570177404
      ],
      [
        "▁jala",
        -10.176166250606052
      ],
      [
        "▁võib-olla",
        -10.176189840353787
      ],
      [
        "aal",
        -10.176443574793261
      ],
      [
        "▁kaudu.",
        -10.17659439669071
      ],
      [
        "▁külasta",
        -10.17683182326735
      ],
      [
        "▁tolli",
        -10.176842060102848
      ],
      [
        "▁tubli",
        -10.177007466664868
      ],
      [
        "▁foorum",
        -10.177356606162519
      ],
      [
        "▁kümme",
        -10.177443083386695
      ],
      [
        "▁uhke",
        -10.177746516348957
      ],
      [
        "▁abielu",
        -10.178176658905059
      ],
      [
        "▁igati",
        -10.178675249453965
      ],
      [
        "▁meeles",
        -10.178839980013572
      ],
      [
        "▁2004",
        -10.1791827823639
      ],
      [
        "▁näitas",
        -10.180332649761326
      ],
      [
        "iti",
        -10.180487034258203
      ],
      [
        "▁nägu",
        -10.180523034221931
      ],
      [
        "▁vaeva",
        -10.181216407795857
      ],
      [
        "▁All",
        -10.181913751029786
      ],
      [
        "▁Po",
        -10.181987919357265
      ],
      [
        "zi",
        -10.18228169746915
      ],
      [
        "▁direktiiv",
        -10.18231672003358
      ],
      [
        "▁vajadus",
        -10.182495061250425
      ],
      [
        "▁2010.",
        -10.182897575494257
      ],
      [
        "▁toimib",
        -10.183232300590975
      ],
      [
        "tused",
        -10.183886691802753
      ],
      [
        "▁Or",
        -10.18433238799496
      ],
      [
        "▁oodatud",
        -10.184441258350507
      ],
      [
        "▁sektori",
        -10.184649339603666
      ],
      [
        "▁kana",
        -10.184884403821838
      ],
      [
        "▁rahvas",
        -10.184889190200725
      ],
      [
        "▁koori",
        -10.185513484140138
      ],
      [
        "▁kena",
        -10.185704364161234
      ],
      [
        "▁korteri",
        -10.185742578384955
      ],
      [
        "obi",
        -10.18596762291453
      ],
      [
        "▁sea",
        -10.185978276403926
      ],
      [
        "▁bio",
        -10.18602229488695
      ],
      [
        "▁Vii",
        -10.18737781959311
      ],
      [
        "▁olnud.",
        -10.18739992327425
      ],
      [
        "▁külm",
        -10.187547351889311
      ],
      [
        "▁võtavad",
        -10.187779624620257
      ],
      [
        "▁sõlmitud",
        -10.187858905696768
      ],
      [
        "36",
        -10.188397708742
      ],
      [
        "-19",
        -10.188579889090413
      ],
      [
        "▁erinevat",
        -10.188732241319533
      ],
      [
        "▁kon",
        -10.189089064570023
      ],
      [
        "▁kõikidele",
        -10.18917833484565
      ],
      [
        "▁vahetus",
        -10.189470204178672
      ],
      [
        "ff",
        -10.18947327656512
      ],
      [
        "▁jätkata",
        -10.18958329713544
      ],
      [
        "▁meetmeid",
        -10.189782956415002
      ],
      [
        "saar",
        -10.190013202054935
      ],
      [
        "▁ohutu",
        -10.190318508098384
      ],
      [
        "▁(juh",
        -10.190695430958197
      ],
      [
        "▁Tervise",
        -10.190791108093112
      ],
      [
        "▁sihtkohas",
        -10.190939707244059
      ],
      [
        "▁nendest",
        -10.19114338048448
      ],
      [
        "▁perse",
        -10.19119400749668
      ],
      [
        "oli",
        -10.19140513104031
      ],
      [
        "”;",
        -10.191579667021951
      ],
      [
        "▁kavatse",
        -10.191796973987561
      ],
      [
        "▁üllatus",
        -10.192023623705635
      ],
      [
        "▁jms",
        -10.192484913691384
      ],
      [
        "▁november",
        -10.192830748209225
      ],
      [
        "▁haigus",
        -10.193151599840682
      ],
      [
        "vel",
        -10.19315717835488
      ],
      [
        "kodu",
        -10.193288766017552
      ],
      [
        "ah",
        -10.193364818252682
      ],
      [
        "▁tellida",
        -10.193616014467755
      ],
      [
        "▁paika",
        -10.19418847088831
      ],
      [
        "▁ring",
        -10.19452302303792
      ],
      [
        "kuju",
        -10.195222280153988
      ],
      [
        "▁püha",
        -10.195228874852194
      ],
      [
        "pärast",
        -10.195308375748674
      ],
      [
        "▁küsimuse",
        -10.195412600765195
      ],
      [
        "▁kel",
        -10.195721523815536
      ],
      [
        "▁jalgsi",
        -10.19605587069084
      ],
      [
        "▁saamise",
        -10.19622688115407
      ],
      [
        "▁%",
        -10.196354771214185
      ],
      [
        "▁pikema",
        -10.19645641341659
      ],
      [
        "▁kujuta",
        -10.196714881113673
      ],
      [
        "▁(V",
        -10.197180737885006
      ],
      [
        "▁Kuni",
        -10.197385408083534
      ],
      [
        "▁toodet",
        -10.197687551591201
      ],
      [
        "▁tellimuse",
        -10.198113059265074
      ],
      [
        "!!",
        -10.198233746335534
      ],
      [
        "▁kohustuste",
        -10.198809463323437
      ],
      [
        "ST",
        -10.198973813586706
      ],
      [
        "▁selgeks",
        -10.199029005940908
      ],
      [
        "▁viita",
        -10.199421001599314
      ],
      [
        "süsteemide",
        -10.199495391715079
      ],
      [
        "iks",
        -10.199621719950972
      ],
      [
        "▁Palun",
        -10.199674084073118
      ],
      [
        "▁lõi",
        -10.200191061809617
      ],
      [
        "▁selgus",
        -10.200240668815997
      ],
      [
        "▁kasutajate",
        -10.200360263069285
      ],
      [
        "▁Õigus",
        -10.200703414314649
      ],
      [
        "▁r",
        -10.200720817580011
      ],
      [
        "▁jaanuaril",
        -10.200815001556498
      ],
      [
        "▁suuri",
        -10.200906514195914
      ],
      [
        "▁Do",
        -10.200961213808057
      ],
      [
        "menetluse",
        -10.201600180867764
      ],
      [
        "▁Go",
        -10.201747589198959
      ],
      [
        "▁nädalas",
        -10.201839214334285
      ],
      [
        "miste",
        -10.201982310390616
      ],
      [
        "▁isikuandmete",
        -10.202185134881205
      ],
      [
        "▁mo",
        -10.202416993754177
      ],
      [
        "või",
        -10.202441142044766
      ],
      [
        "23",
        -10.202575658193831
      ],
      [
        "▁(K",
        -10.20285407954696
      ],
      [
        "▁kestab",
        -10.203612301139248
      ],
      [
        "▁homme",
        -10.203736824585716
      ],
      [
        "▁tean",
        -10.20383570335619
      ],
      [
        "▁niisama",
        -10.204636225718172
      ],
      [
        "▁sõnad",
        -10.204727959400005
      ],
      [
        "▁film",
        -10.20520693098285
      ],
      [
        "▁kulub",
        -10.205235996216764
      ],
      [
        "▁Samal",
        -10.205907549936796
      ],
      [
        "▁garantii",
        -10.206174480232733
      ],
      [
        "ema",
        -10.206446278765146
      ],
      [
        "▁kaitstud",
        -10.206703521576147
      ],
      [
        "▁varsti",
        -10.20677232653164
      ],
      [
        "mets",
        -10.207149084386309
      ],
      [
        "▁suvi",
        -10.20718321839818
      ],
      [
        "usi",
        -10.20725068319424
      ],
      [
        "tingimuste",
        -10.20761419282988
      ],
      [
        "▁Toidu",
        -10.207690608113364
      ],
      [
        "koja",
        -10.20793742821748
      ],
      [
        "tingimused",
        -10.208032938948493
      ],
      [
        "▁pannud",
        -10.208313196770888
      ],
      [
        "▁perekonna",
        -10.20845439136334
      ],
      [
        "▁muuseumi",
        -10.208521801617433
      ],
      [
        "▁vanemad",
        -10.20871484205537
      ],
      [
        "▁korralik",
        -10.20888022420512
      ],
      [
        "▁leping",
        -10.209269789211827
      ],
      [
        "▁ostja",
        -10.209543746453022
      ],
      [
        "▁aprillil",
        -10.209565122068657
      ],
      [
        "▁arendada",
        -10.209580254229412
      ],
      [
        "▁lapsuke",
        -10.20979041433148
      ],
      [
        "▁tööta",
        -10.210073374462308
      ],
      [
        "▁seis",
        -10.210442089735015
[...]
