{
  "version": "1.0",
  "truncation": null,
  "padding": null,
  "added_tokens": [
    {
      "id": 0,
      "content": "[UNK]",
      "single_word": false,
      "lstrip": false,
      "rstrip": false,
      "normalized": false,
      "special": true
    },
    {
      "id": 1,
      "content": "[CLS]",
      "single_word": false,
      "lstrip": false,
      "rstrip": false,
      "normalized": false,
      "special": true
    },
    {
      "id": 2,
      "content": "[SEP]",
      "single_word": false,
      "lstrip": false,
      "rstrip": false,
      "normalized": false,
      "special": true
    },
    {
      "id": 3,
      "content": "[PAD]",
      "single_word": false,
      "lstrip": false,
      "rstrip": false,
      "normalized": false,
      "special": true
    },
    {
      "id": 4,
      "content": "[MASK]",
      "single_word": false,
      "lstrip": false,
      "rstrip": false,
      "normalized": false,
      "special": true
    }
  ],
  "normalizer": {
    "type": "Sequence",
    "normalizers": [
      {
        "type": "Nmt"
      },
      {
        "type": "NFKC"
      },
      {
        "type": "Replace",
        "pattern": {
          "Regex": " {2,}"
        },
        "content": " "
      }
    ]
  },
  "pre_tokenizer": {
    "type": "Metaspace",
    "replacement": "▁",
    "prepend_scheme": "always",
    "split": true
  },
  "post_processor": null,
  "decoder": {
    "type": "Metaspace",
    "replacement": "▁",
    "prepend_scheme": "always",
    "split": true
  },
  "model": {
    "type": "Unigram",
    "unk_id": null,
    "vocab": [
      [
        "[UNK]",
        0.0
      ],
      [
        "[CLS]",
        0.0
      ],
      [
        "[SEP]",
        0.0
      ],
      [
        "[PAD]",
        0.0
      ],
      [
        "[MASK]",
        0.0
      ],
      [
        "▁",
        -3.0298641373388113
      ],
      [
        ",",
        -3.0869057370133213
      ],
      [
        ".",
        -3.6246497189428704
      ],
      [
        "n",
        -3.9024238827878
      ],
      [
        "▁und",
        -4.117684644834392
      ],
      [
        "▁die",
        -4.228055106709526
      ],
      [
        "en",
        -4.33830879102836
      ],
      [
        "▁der",
        -4.351269248869774
      ],
      [
        "s",
        -4.3884175079711465
      ],
      [
        "▁zu",
        -4.623779644834085
      ],
      [
        "e",
        -4.68229338419308
      ],
      [
        "▁in",
        -4.738280904340105
      ],
      [
        "▁das",
        -4.851328578324197
      ],
      [
        "r",
        -5.026513247300344
      ],
      [
        "▁ein",
        -5.047480068138065
      ],
      [
        "▁ist",
        -5.111592590079765
      ],
      [
        "er",
        -5.126762682359398
      ],
      [
        "▁den",
        -5.142302737958586
      ],
      [
        "m",
        -5.15014846426172
      ],
      [
        "t",
        -5.162698102461051
      ],
      [
        "▁mit",
        -5.21536738130929
      ],
      [
        ":",
        -5.236316186647273
      ],
      [
        "▁von",
        -5.2540343740137505
      ],
      [
        "▁sich",
        -5.275028420981112
      ],
      [
        "▁nicht",
        -5.295204048869389
      ],
      [
        "▁er",
        -5.3169432717834795
      ],
      [
        "▁eine",
        -5.357340332481649
      ],
      [
        "▁auf",
        -5.373890294745909
      ],
      [
        "▁auch",
        -5.4402351618786025
      ],
      [
        "▁Sie",
        -5.473900278057342
      ],
      [
        "▁für",
        -5.485666464604993
      ],
      [
        "▁es",
        -5.648983871640513
      ],
      [
        "▁an",
        -5.699777183771885
      ],
      [
        "▁im",
        -5.708035440270551
      ],
      [
        "▁des",
        -5.737186236814761
      ],
      [
        "ich",
        -5.741002281024756
      ],
      [
        "▁sie",
        -5.753118920367742
      ],
      [
        "▁als",
        -5.81434579397408
      ],
      [
        "▁oder",
        -5.816988535993758
      ],
      [
        "ch",
        -5.821294043928663
      ],
      [
        "▁da",
        -5.883092813238488
      ],
      [
        "▁dem",
        -5.922115278914241
      ],
      [
        "▁seine",
        -5.9799592841767355
      ],
      [
        "▁bei",
        -5.985121741725492
      ],
      [
        "ung",
        -5.99675305722457
      ],
      [
        "▁aus",
        -6.017915618535829
      ],
      [
        "▁Die",
        -6.021966780667718
      ],
      [
        "?",
        -6.052188891374656
      ],
      [
        "▁um",
        -6.0941609918473025
      ],
      [
        "▁war",
        -6.120281449374269
      ],
      [
        "▁vor",
        -6.128197609539142
      ],
      [
        "“",
        -6.130589002535061
      ],
      [
        "▁mehr",
        -6.134104722141601
      ],
      [
        "▁hat",
        -6.148919123883672
      ],
      [
        "▁nach",
        -6.1637089057662315
      ],
      [
        "▁aber",
        -6.165266712613004
      ],
      [
        "d",
        -6.2130876435095805
      ],
      [
        "▁man",
        -6.230839083948681
      ],
      [
        "▁so",
        -6.237568423925674
      ],
      [
        "▁diese",
        -6.2388055738775865
      ],
      [
        "▁sind",
        -6.24448123562355
      ],
      [
        "▁wie",
        -6.256528983388556
      ],
      [
        "▁sein",
        -6.260452943519625
      ],
      [
        "▁werden",
        -6.333398881396032
      ],
      [
        "es",
        -6.34114185768589
      ],
      [
        "▁wird",
        -6.367639872756357
      ],
      [
        "▁über",
        -6.373376565461539
      ],
      [
        "lich",
        -6.378376754546901
      ],
      [
        "▁Da",
        -6.3973196137534165
      ],
      [
        "▁Und",
        -6.407034389467682
      ],
      [
        "▁–",
        -6.41245738354987
      ],
      [
        "▁E",
        -6.42016371757467
      ],
      [
        "▁I",
        -6.420626413686231
      ],
      [
        "▁einer",
        -6.43171462746773
      ],
      [
        "en.",
        -6.51445837600229
      ],
      [
        "▁andere",
        -6.536678272982263
      ],
      [
        "▁S",
        -6.5368241684389385
      ],
      [
        "▁kann",
        -6.554274573205526
      ],
      [
        "▁ge",
        -6.554561819168697
      ],
      [
        "▁noch",
        -6.554819137535243
      ],
      [
        "a",
        -6.568610158526823
      ],
      [
        "▁Der",
        -6.580179025218517
      ],
      [
        "▁Er",
        -6.5850625562515965
      ],
      [
        "-",
        -6.602863968586767
      ],
      [
        "▁wenn",
        -6.607295482168887
      ],
      [
        "▁In",
        -6.620655039008444
      ],
      [
        "▁mich",
        -6.627734194092167
      ],
      [
        "▁Das",
        -6.637270483301137
      ],
      [
        "▁(",
        -6.648576000709323
      ],
      [
        "▁haben",
        -6.660575486763697
      ],
      [
        "▁wurde",
        -6.663477230287985
      ],
      [
        "”",
        -6.676634354424248
      ],
      [
        "▁zum",
        -6.687192319447346
      ],
      [
        "▁immer",
        -6.687415428014013
      ],
      [
        "▁was",
        -6.7006800291703525
      ],
      [
        "der",
        -6.707819192406731
      ],
      [
        "▁nur",
        -6.725361140394432
      ],
      [
        "▁wir",
        -6.729928864947189
      ],
      [
        "▁bis",
        -6.738357313475723
      ],
      [
        "▁B",
        -6.745052896006975
      ],
      [
        "und",
        -6.745310851036674
      ],
      [
        "▁Hoffmann",
        -6.746559858985863
      ],
      [
        "in",
        -6.754771417612975
      ],
      [
        "▁Ring",
        -6.790480070099959
      ],
      [
        "▁be",
        -6.791779051933238
      ],
      [
        "▁du",
        -6.804418136382411
      ],
      [
        "st",
        -6.805468613975712
      ],
      [
        "l",
        -6.831236844852901
      ],
      [
        "▁zur",
        -6.834767993555046
      ],
      [
        ")",
        -6.835966442685436
      ],
      [
        "i",
        -6.850309211991437
      ],
      [
        "▁Ihre",
        -6.852866056877823
      ],
      [
        "▁am",
        -6.852882580222323
      ],
      [
        "em",
        -6.857652202889385
      ],
      [
        "▁mir",
        -6.869958275369978
      ],
      [
        "ÃŸ",
        -6.880709380885345
      ],
      [
        "▁ihm",
        -6.884862790187679
      ],
      [
        "▁K",
        -6.906252199786909
      ],
      [
        "▁dann",
        -6.914073110210293
      ],
      [
        "▁unter",
        -6.915096451414749
      ],
      [
        "▁David",
        -6.923396075945926
      ],
      [
        "mal",
        -6.962463532702826
      ],
      [
        "▁hatte",
        -6.967363521842438
      ],
      [
        "▁ihre",
        -6.9719486353881255
      ],
      [
        "▁Boxen",
        -6.975374755203506
      ],
      [
        "te",
        -6.977827080730773
      ],
      [
        "▁Ein",
        -6.980930283761972
      ],
      [
        "▁„",
        -6.983311433302658
      ],
      [
        ";",
        -6.987328462280409
      ],
      [
        "▁meine",
        -6.992875035556921
      ],
      [
        "▁Zeit",
        -7.0087742054792415
      ],
      [
        "▁W",
        -7.0105217893084815
      ],
      [
        "▁selbst",
        -7.018379650301879
      ],
      [
        "▁An",
        -7.018410672541913
      ],
      [
        "▁uns",
        -7.032981186450592
      ],
      [
        "!",
        -7.044535371656146
      ],
      [
        "▁Entwicklung",
        -7.046166342124122
      ],
      [
        "▁ab",
        -7.047881449729109
      ],
      [
        "▁Kind",
        -7.064735602128786
      ],
      [
        "einen",
        -7.072271221326583
      ],
      [
        "▁durch",
        -7.076177733400999
      ],
      [
        "▁ihn",
        -7.09142709410135
      ],
      [
        "▁sagt",
        -7.093196349220982
      ],
      [
        "x",
        -7.096840713837272
      ],
      [
        "▁G",
        -7.100451658282772
      ],
      [
        "▁viele",
        -7.102287359091681
      ],
      [
        "▁Es",
        -7.1066288426690996
      ],
      [
        "um",
        -7.111397417160115
      ],
      [
        "▁Kinder",
        -7.112509361757923
      ],
      [
        "▁viel",
        -7.1214565084831705
      ],
      [
        "▁gegen",
        -7.137748860592844
      ],
      [
        "▁ver",
        -7.140132336087959
      ],
      [
        "▁habe",
        -7.149875586802754
      ],
      [
        "ten",
        -7.155907865292008
      ],
      [
        "▁weil",
        -7.173988482251263
      ],
      [
        "▁A",
        -7.194722843467667
      ],
      [
        "▁Jahre",
        -7.197163949682721
      ],
      [
        "▁un",
        -7.198866929947476
      ],
      [
        "▁keine",
        -7.203101779628929
      ],
      [
        "▁d",
        -7.209512522392764
      ],
      [
        "▁wieder",
        -7.2104569411954795
      ],
      [
        "▁Gartmann",
        -7.235697227538665
      ],
      [
        "▁alle",
        -7.2420484642768725
      ],
      [
        "▁Ver",
        -7.253821927692355
      ],
      [
        "f",
        -7.257201732836773
      ],
      [
        "▁ihr",
        -7.260335785652336
      ],
      [
        "▁T",
        -7.267568373547647
      ],
      [
        "▁Gabapentin",
        -7.271422077771161
      ],
      [
        "ohne",
        -7.272203105503642
      ],
      [
        "▁Daten",
        -7.282624646806367
      ],
      [
        "t.",
        -7.282947953086335
      ],
      [
        "▁können",
        -7.292802837909527
      ],
      [
        "▁M",
        -7.300228280002694
      ],
      [
        "▁Welt",
        -7.30872948492862
      ],
      [
        "▁Kai",
        -7.3093334472327545
      ],
      [
        "seit",
        -7.309650221890671
      ],
      [
        "▁Ihr",
        -7.32290031992811
      ],
      [
        "▁Wie",
        -7.323163312022714
      ],
      [
        "▁So",
        -7.323335158226477
      ],
      [
        "den",
        -7.332552537718858
      ],
      [
        "▁D",
        -7.336949633937634
      ],
      [
        "n.",
        -7.344883557875374
      ],
      [
        "▁Ihnen",
        -7.346714887578921
      ],
      [
        "ß",
        -7.347427415921773
      ],
      [
        "▁hier",
        -7.348874909875583
      ],
      [
        "▁Menschen",
        -7.350823595060637
      ],
      [
        "▁schon",
        -7.350943744774138
      ],
      [
        "▁Jahren",
        -7.362777452553507
      ],
      [
        "▁Wen",
        -7.371399592417749
      ],
      [
        "▁Wir",
        -7.3878313334453285
      ],
      [
        "y",
        -7.396143304244827
      ],
      [
        "▁Ab",
        -7.401261667485419
      ],
      [
        "▁hin",
        -7.4021349433212364
      ],
      [
        "▁eines",
        -7.4134856102784035
      ],
      [
        "▁Be",
        -7.415506797834759
      ],
      [
        "▁Im",
        -7.415710694823021
      ],
      [
        "▁Manager",
        -7.42577228862971
      ],
      [
        "▁jetzt",
        -7.42831683947953
      ],
      [
        "▁gibt",
        -7.429666831466289
      ],
      [
        "zu",
        -7.445619804474263
      ],
      [
        "ungen",
        -7.46197942045119
      ],
      [
        "ge",
        -7.462688925127505
      ],
      [
        "▁Auf",
        -7.463978530485255
      ],
      [
        "▁ob",
        -7.476697917093308
      ],
      [
        "ar",
        -7.47946702922396
      ],
      [
        "▁einmal",
        -7.481938979339493
      ],
      [
        "▁waren",
        -7.486884927823377
      ],
      [
        "▁erst",
        -7.502775510071592
      ],
      [
        "b",
        -7.505110506027876
      ],
      [
        "▁Arzt",
        -7.512900759268986
      ],
      [
        "de",
        -7.513488074940486
      ],
      [
        "▁geht",
        -7.5216594010736975
      ],
      [
        ").",
        -7.521772580203585
      ],
      [
        "h",
        -7.52863550072659
      ],
      [
        "▁werden.",
        -7.533263828977145
      ],
      [
        "▁Ge",
        -7.535961170628093
      ],
      [
        "▁„To",
        -7.538499162566315
      ],
      [
        "▁ganz",
        -7.557427822576628
      ],
      [
        "▁also",
        -7.570215027583126
      ],
      [
        "▁will",
        -7.57058088041938
      ],
      [
        "▁sonder",
        -7.573414619909593
      ],
      [
        "▁N",
        -7.5809405316630745
      ],
      [
        "▁zwei",
        -7.581844145071546
      ],
      [
        "▁nie",
        -7.587262166391578
      ],
      [
        "g",
        -7.5923719120873745
      ],
      [
        "▁erste",
        -7.601230403772185
      ],
      [
        "och",
        -7.602730210148122
      ],
      [
        "▁drei",
        -7.614596144185568
      ],
      [
        "▁Kampf",
        -7.614787595874224
      ],
      [
        "▁mein",
        -7.631112317983894
      ],
      [
        "▁wo",
        -7.632344195655687
      ],
      [
        "hrend",
        -7.636476658162988
      ],
      [
        "...",
        -7.639340763109049
      ],
      [
        "▁gut",
        -7.6404506160739185
      ],
      [
        "▁ihnen",
        -7.642430529178988
      ],
      [
        "▁Wer",
        -7.649863392011035
      ],
      [
        "▁O",
        -7.652564365521183
      ],
      [
        "▁alles",
        -7.654635336616005
      ],
      [
        "▁R",
        -7.658978515880895
      ],
      [
        "▁F",
        -7.662007701038898
      ],
      [
        "▁Nach",
        -7.66266214360101
      ],
      [
        "▁heute",
        -7.6681178302389625
      ],
      [
        "▁wurden",
        -7.668136912856423
      ],
      [
        "o",
        -7.6751579941656
      ],
      [
        "▁Deutschland",
        -7.679347814864448
      ],
      [
        "▁Am",
        -7.68302265362445
      ],
      [
        "lichen",
        -7.684288569165976
      ],
      [
        "▁sei",
        -7.686808586069791
      ],
      [
        "▁P",
        -7.688767706473986
      ],
      [
        "▁Zu",
        -7.688830179862466
      ],
      [
        "▁kommt",
        -7.712147367853682
      ],
      [
        "z",
        -7.713655752217456
      ],
      [
        "▁damit",
        -7.725527358811049
      ],
      [
        "k",
        -7.726166447859728
      ],
      [
        "▁dazu",
        -7.728636851754791
      ],
      [
        "▁Aus",
        -7.733921441663801
      ],
      [
        "▁steht",
        -7.734446853546375
      ],
      [
        "▁neue",
        -7.736536506484628
      ],
      [
        "▁dich",
        -7.747804006435117
      ],
      [
        "▁unsere",
        -7.762857690852095
      ],
      [
        "▁Tag",
        -7.769089159046743
      ],
      [
        "▁Leben",
        -7.769633447761471
      ],
      [
        "▁ging",
        -7.77088386226571
      ],
      [
        "▁ins",
        -7.773004422256246
      ],
      [
        "ie",
        -7.775705180654948
      ],
      [
        "▁Kindern",
        -7.779637381926847
      ],
      [
        "▁wirklich",
        -7.781260128748066
      ],
      [
        "▁sehr",
        -7.781469925842955
      ],
      [
        "▁Vor",
        -7.783700110914435
      ],
      [
        "ischen",
        -7.7841411946742
      ],
      [
        "▁etwas",
        -7.784530914623694
      ],
      [
        "▁zurück",
        -7.786331007739166
      ],
      [
        "ieren",
        -7.787540125970792
      ],
      [
        "▁Z",
        -7.791270523444362
      ],
      [
        "▁kam",
        -7.791745087476171
      ],
      [
        "▁Au",
        -7.798283279979269
      ],
      [
        "▁2",
        -7.800178189821251
      ],
      [
        "▁ja",
        -7.801788531359984
      ],
      [
        "▁ist.",
        -7.805637790884729
      ],
      [
        "▁weiter",
        -7.8174612257873175
      ],
      [
        "am",
        -7.827725974167824
      ],
      [
        "rre",
        -7.828364672938853
      ],
      [
        "▁sprach",
        -7.8314251606588385
      ],
      [
        "▁Mit",
        -7.834304748731071
      ],
      [
        "vom",
        -7.838371382780246
      ],
      [
        "▁einfach",
        -7.840055240989609
      ],
      [
        "\"",
        -7.84029765154837
      ],
      [
        "▁Europa",
        -7.8436663466841114
      ],
      [
        "▁Als",
        -7.848411251667686
      ],
      [
        "her",
        -7.853938919642952
      ],
      [
        "an",
        -7.8672883825010125
      ],
      [
        "iert",
        -7.873844192609344
      ],
      [
        "▁Mann",
        -7.877726387191108
      ],
      [
        "▁tun",
        -7.8864619535136224
      ],
      [
        "halb",
        -7.893874666462729
      ],
      [
        "▁Uria",
        -7.897969629313462
      ],
      [
        "nde",
        -7.903841923521034
      ],
      [
        "▁Mal",
        -7.917516714561275
      ],
      [
        "ma",
        -7.92149356692226
      ],
      [
        "u",
        -7.922090077402366
      ],
      [
        "▁neu",
        -7.923694511283276
      ],
      [
        "▁eigene",
        -7.927237533525753
      ],
      [
        "sten",
        -7.932942491659265
      ],
      [
        "▁dies",
        -7.93581917695527
      ],
      [
        "chen",
        -7.936120738551537
      ],
      [
        "▁Sch",
        -7.942739325133517
      ],
      [
        "▁gehen",
        -7.945803867353099
      ],
      [
        "ig",
        -7.946359794702266
      ],
      [
        "▁18",
        -7.952729107477641
      ],
      [
        "▁Diese",
        -7.9545312258551615
      ],
      [
        "▁jede",
        -7.959025844264351
      ],
      [
        "▁soll",
        -7.960996245133789
      ],
      [
        "▁hinaus",
        -7.961211721903268
      ],
      [
        "p",
        -7.962505985734742
      ],
      [
        "heit",
        -7.979096363386392
      ],
      [
        "▁Geschichte",
        -7.981756142542204
      ],
      [
        "▁Beobachtung",
        -7.981757608047061
      ],
      [
        "▁konnte",
        -7.9817857311947185
      ],
      [
        "▁Angst",
        -7.9818009330976105
      ],
      [
        "▁Joab",
        -7.981824446945472
      ],
      [
        "▁sandte",
        -7.981885036883079
      ],
      [
        "▁solche",
        -7.982815744270377
      ],
      [
        "▁Stadt",
        -7.984699875956082
      ],
      [
        "▁kein",
        -7.984911974227024
      ],
      [
        "▁Was",
        -7.989816298066131
      ],
      [
        "▁Boxer",
        -7.990241221528741
      ],
      [
        "▁denn",
        -7.997934013090574
      ],
      [
        "▁Jahr",
        -8.000545281053554
      ],
      [
        "▁„Da",
        -8.005545126485927
      ],
      [
        "▁wä",
        -8.006450195903195
      ],
      [
        "/",
        -8.006962122629204
      ],
      [
        "igen",
        -8.008521234433287
      ],
      [
        "▁Haus",
        -8.012247878100442
      ],
      [
        "▁Fahr",
        -8.014225220294135
      ],
      [
        "▁wi",
        -8.019163759687187
      ],
      [
        "▁lassen",
        -8.02159324901294
      ],
      [
        "▁sollte",
        -8.028450375951888
      ],
      [
        "▁sagte",
        -8.029188514867494
      ],
      [
        "▁Bei",
        -8.029605867247414
      ],
      [
        "▁Weib",
        -8.030169054948743
      ],
      [
        "▁Familie",
        -8.035311001485233
      ],
      [
        "▁V",
        -8.039779183265212
      ],
      [
        "be",
        -8.04039767036616
      ],
      [
        "▁weiß",
        -8.04244883818938
      ],
      [
        "▁Verhalten",
        -8.045487333359468
      ],
      [
        "▁Um",
        -8.050661401584915
      ],
      [
        "einander",
        -8.058695754375062
      ],
      [
        "or",
        -8.0596645516097
      ],
      [
        "▁hast",
        -8.060848753797103
      ],
      [
        "▁Hier",
        -8.061088654049044
      ],
      [
        "c",
        -8.061755171667604
      ],
      [
        "igkeit",
        -8.062188571883548
      ],
      [
        "▁macht",
        -8.065942349261164
      ],
      [
        "▁würde",
        -8.071603192027677
      ],
      [
        "▁sagen",
        -8.080098609741414
      ],
      [
        "▁tat",
        -8.080201493051089
      ],
      [
        "sch",
        -8.083740883513526
      ],
      [
        "ing",
        -8.096288334695252
      ],
      [
        "▁zwischen",
        -8.101622988730648
      ],
      [
        "zug",
        -8.108157598840881
      ],
      [
        "v",
        -8.11900973447527
      ],
      [
        "▁kommen",
        -8.13425657341855
      ],
      [
        "▁eben",
        -8.134608106980293
      ],
      [
        "▁g",
        -8.135405309576381
      ],
      [
        "▁verschiedene",
        -8.142010697846432
      ],
      [
        "▁Ammon",
        -8.142015482833298
      ],
      [
        "▁Seit",
        -8.142219601141973
      ],
      [
        "▁Beispiel",
        -8.142279573101849
      ],
      [
        "▁Syrer",
        -8.142321629990466
      ],
      [
        "▁wollte",
        -8.143486612920839
      ],
      [
        "▁Zahlen",
        -8.145275748653733
      ],
      [
        "▁dafür",
        -8.14532159300965
      ],
      [
        "▁dabei",
        -8.146211390392223
      ],
      [
        "▁deine",
        -8.146473606297167
      ],
      [
        "▁oft",
        -8.147483208852702
      ],
      [
        "bar",
        -8.148099400966426
      ],
      [
        "al",
        -8.151543515958389
      ],
      [
        "▁richtig",
        -8.152330155011668
      ],
      [
        "▁10",
        -8.152634395894204
      ],
      [
        "▁dir",
        -8.160521504430733
      ],
      [
        "▁pa",
        -8.160819767643199
      ],
      [
        "▁b",
        -8.163309279567688
      ],
      [
        "▁Hause",
        -8.16715881733544
      ],
      [
        "▁direkt",
        -8.168888950389553
      ],
      [
        "▁Ma",
        -8.169869119520662
      ],
      [
        "bei",
        -8.177794233172769
      ],
      [
        "▁bin",
        -8.178216811643289
      ],
      [
        "▁Teil",
        -8.178875150361025
      ],
      [
        "▁Eine",
        -8.178950911274518
      ],
      [
        "▁Man",
        -8.180670931386057
      ],
      [
        "▁„I",
        -8.18167640031756
      ],
      [
        "▁Ziel",
        -8.183785710766452
      ],
      [
        "el",
        -8.190532183951493
      ],
      [
        "▁U",
        -8.191833061405672
      ],
      [
        "ige",
        -8.192341451428483
      ],
      [
        "andlung",
        -8.200924328756496
      ],
      [
        "▁\"",
        -8.206573323566424
      ],
      [
        "▁wenig",
        -8.210631680517878
      ],
      [
        "los",
        -8.212157713770436
      ],
      [
        "ab",
        -8.2125628666607
      ],
      [
        "00",
        -8.217305407396843
      ],
      [
        "▁Du",
        -8.224323211518465
      ],
      [
        "▁3",
        -8.22737296468761
      ],
      [
        "▁Buch",
        -8.230647296189295
      ],
      [
        "▁islamische",
        -8.232919412486304
      ],
      [
        "▁Israel",
        -8.232919423969099
      ],
      [
        "▁Führungskräfte",
        -8.232920165066687
      ],
      [
        "▁Theorie",
        -8.23292312262965
      ],
      [
        "▁Boxring",
        -8.232938815630208
      ],
      [
        "▁Parfum",
        -8.23294358416173
      ],
      [
        "▁Durch",
        -8.232946710421768
      ],
      [
        "▁Mutter",
        -8.23298887654034
      ],
      [
        "▁fast",
        -8.233195989847875
      ],
      [
        "platz",
        -8.237427623958354
      ],
      [
        "and",
        -8.238055167055494
      ],
      [
        "▁heraus",
        -8.238370858891116
      ],
      [
        "▁gesagt",
        -8.238588059135376
      ],
      [
        "▁weniger",
        -8.240317702500072
      ],
      [
        "▁wollen",
        -8.241596714000027
      ],
      [
        "gar",
        -8.243019148842572
      ],
      [
        "▁erlebt",
        -8.245360611377663
      ],
      [
        "▁Vo",
        -8.245679095874163
      ],
      [
        "▁nicht.",
        -8.247317299603434
      ],
      [
        "▁Nu",
        -8.250475024365098
      ],
      [
        "▁zusammen",
        -8.25079070513152
      ],
      [
        "▁entwickeln",
        -8.252118413004949
      ],
      [
        "P",
        -8.254717433473234
      ],
      [
        "ber",
        -8.256741149334045
      ],
      [
        "▁machen",
        -8.263517653081768
      ],
      [
        "ter",
        -8.263556078689511
      ],
      [
        "dem",
        -8.264488658359108
      ],
      [
        "▁große",
        -8.264865151227593
      ],
      [
        "▁nun",
        -8.266117792294398
      ],
      [
        "▁Selbst",
        -8.267144692590426
      ],
      [
        "▁aller",
        -8.269035082995687
      ],
      [
        "▁sind.",
        -8.269163205208866
      ],
      [
        "▁The",
        -8.273771013157543
      ],
      [
        "▁Tage",
        -8.27597545547502
      ],
      [
        "▁möchte",
        -8.276275409381412
      ],
      [
        "▁Beh",
        -8.279106549208056
      ],
      [
        "▁Me",
        -8.279532110933722
      ],
      [
        "▁a",
        -8.280464210150784
      ],
      [
        "ist",
        -8.283799483970135
      ],
      [
        "genommen",
        -8.29239932594907
      ],
      [
        "▁wird.",
        -8.293665354389997
      ],
      [
        "▁ausge",
        -8.297708457447914
      ],
      [
        "▁k",
        -8.300385650530124
      ],
      [
        "▁-",
        -8.301566857209941
      ],
      [
        "re",
        -8.301627659336061
      ],
      [
        "9",
        -8.301742092414699
      ],
      [
        "▁H",
        -8.303917609782705
      ],
      [
        "ll",
        -8.310265596023157
      ],
      [
        "5",
        -8.310558723882771
      ],
      [
        "▁Knechte",
        -8.312505346880878
      ],
      [
        "▁körperliche",
        -8.31637448392442
      ],
      [
        "ang",
        -8.317007455650508
      ],
      [
        "▁denen",
        -8.321750212327913
      ],
      [
        "ste",
        -8.327628820636042
      ],
      [
        "0",
        -8.329640669355877
      ],
      [
        "▁Imhoof",
        -8.332919405120531
      ],
      [
        "▁Nebenwirkungen",
        -8.332933328046108
      ],
      [
        "▁sechs",
        -8.332943868815555
      ],
      [
        "▁Kunststoff",
        -8.332952430224537
      ],
      [
        "▁Islam",
        -8.333233053600619
      ],
      [
        "▁steigen",
        -8.334702441964092
      ],
      [
        "▁Über",
        -8.335861939985477
      ],
      [
        "▁könnte",
        -8.336247970468023
      ],
      [
        "▁davon",
        -8.336978760762985
      ],
      [
        "he",
        -8.337759790167546
      ],
      [
        "▁besser",
        -8.337908766579648
      ],
      [
        "le",
        -8.337952585465025
      ],
      [
        "▁Solingen",
        -8.339033598987594
      ],
      [
        "▁junge",
        -8.339105325957146
      ],
      [
        "▁zeigt",
        -8.339985772095133
      ],
      [
        "▁lange",
        -8.348049068396545
      ],
      [
        "▁damals",
        -8.350644848752573
      ],
      [
        "▁Augen",
        -8.352522603671908
      ],
      [
        "se",
        -8.35255653372634
      ],
      [
        "▁Fü",
        -8.353425171769292
      ],
      [
        "▁C",
        -8.355993214359067
      ],
      [
        "mit",
        -8.361024172319643
      ],
      [
        "nd",
        -8.364481511585177
      ],
      [
        "essen",
        -8.364800516524157
      ],
      [
        "▁Angriff",
        -8.365016582297585
      ],
      [
        "e.",
        -8.365514665918075
      ],
      [
        "T",
        -8.369481380779886
      ],
      [
        "ss",
        -8.382990084748736
      ],
      [
        "▁20",
        -8.384223433524244
      ],
      [
        "▁Gegner",
        -8.3856326023357
      ],
      [
        "▁Do",
        -8.392321062565369
      ],
      [
        "▁L",
        -8.397360391741831
      ],
      [
        "A",
        -8.398761744710649
      ],
      [
        "keit",
        -8.40873991321865
      ],
      [
        "▁nichts",
        -8.411979029716427
      ],
      [
        "3",
        -8.412440516244665
      ],
      [
        "▁werde",
        -8.42114417845164
      ],
      [
        "▁deutsche",
        -8.422783210520935
      ],
      [
        "us",
        -8.424895722213417
      ],
      [
        "▁welche",
        -8.432559573092902
      ],
      [
        "im",
        -8.435162457351012
      ],
      [
        "▁all",
        -8.437202500013015
      ],
      [
        "gab",
        -8.439640898630064
      ],
      [
        "▁Un",
        -8.44209300273819
      ],
      [
        "▁muslimische",
        -8.444030516605299
      ],
      [
        "▁Faktoren",
        -8.444034961992008
      ],
      [
        "▁Frankfurt",
        -8.444047762142466
      ],
      [
        "▁Sport",
        -8.444076073822881
      ],
      [
        "▁Streit",
        -8.444085427410725
      ],
      [
        "tausend",
        -8.444104013482644
      ],
      [
        "▁eigentlich",
        -8.444213540911017
      ],
      [
        "▁genau",
        -8.444244756142517
      ],
      [
        "▁Gesicht",
        -8.444248052954316
      ],
      [
        "▁darauf",
        -8.444654578767217
      ],
      [
        "▁Sohn",
        -8.444830660588428
      ],
      [
        "▁Sonne",
        -8.445324610901876
      ],
      [
        "▁sowie",
        -8.445369869086479
      ],
      [
        "▁christliche",
        -8.446839110554095
      ],
      [
        "▁Den",
        -8.448379755135825
      ],
      [
        "▁Tat",
        -8.44849213471204
      ],
      [
        "▁Lage",
        -8.448971716292858
      ],
      [
        "▁wahr",
        -8.449877942538599
      ],
      [
        "▁2014",
        -8.450222594802016
      ],
      [
        "▁dort",
        -8.450883764694577
      ],
      [
        "▁Weil",
        -8.451012133850591
      ],
      [
        "falls",
        -8.451547402586131
      ],
      [
        "R",
        -8.451645481012502
      ],
      [
        "säch",
        -8.4532960189709
      ],
      [
        "weise",
        -8.453857668473837
      ],
      [
        "▁verloren",
        -8.454010549921902
      ],
      [
        "▁nehmen",
        -8.45431948068321
      ],
      [
        "▁kleine",
        -8.455441966944099
      ],
      [
        "▁Körper",
        -8.455576837123886
      ],
      [
        "▁ange",
        -8.45577725188678
      ],
      [
        "▁sozialen",
        -8.456198802270631
      ],
      [
        "▁jed",
        -8.457060861866886
      ],
      [
        "▁finden",
        -8.45731678466394
      ],
      [
        "▁später",
        -8.458124467896177
      ],
      [
        "▁Ja",
        -8.458419469398592
      ],
      [
        "▁machte",
        -8.461885859325118
      ],
      [
        "▁entwickelt",
        -8.463153330147062
      ],
      [
        "mals",
        -8.463562074460517
      ],
      [
        "▁lässt",
        -8.464235462355155
      ],
      [
        "at",
        -8.465042015352138
      ],
      [
        "stand",
        -8.465086015026646
      ],
      [
        "▁körperlichen",
        -8.469621980052306
      ],
      [
        "▁f",
        -8.47087795901706
      ],
      [
        "▁zweite",
        -8.47358402467895
      ],
      [
        "▁Ra",
        -8.478158061528838
      ],
      [
        "▁bekommen",
        -8.481001196070725
      ],
      [
        "wohl",
        -8.483632044893422
      ],
      [
        "ische",
        -8.484180133344367
      ],
      [
        "▁Arbeit",
        -8.486924818828776
      ],
      [
        "▁La",
        -8.496157036616966
      ],
      [
        "ein",
        -8.5019321250862
      ],
      [
        "▁Unter",
        -8.50792569096336
      ],
      [
        "▁Männer",
        -8.51178505977165
      ],
      [
        "▁Di",
        -8.512289505400345
      ],
      [
        "▁Konflikt",
        -8.514762038215618
      ],
      [
        "s.",
        -8.515245537157757
      ],
      [
        "▁de",
        -8.517556253614755
      ],
      [
        "▁stehen",
        -8.51797891463099
      ],
      [
        "▁sicher",
        -8.535098797332829
      ],
      [
        "treten",
        -8.535553904831758
      ],
      [
        "▁Arbeits",
        -8.536139225461959
      ],
      [
        "ol",
        -8.537492381306022
      ],
      [
        "die",
        -8.545271855039312
      ],
      [
        "fen",
        -8.545726466354584
      ],
      [
        "▁Frage",
        -8.547627370710675
      ],
      [
        "▁Probleme",
        -8.548470245432028
      ],
      [
        "▁Mittel",
        -8.554540853723564
      ],
      [
        "▁schnell",
        -8.557211892958005
      ],
      [
        "sche",
        -8.557845540141706
      ],
      [
        "▁euch",
        -8.565329151648552
      ],
      [
        "▁möglich",
        -8.568524020652708
      ],
      [
        "▁Hand",
        -8.568662317645426
      ],
      [
        "arbeit",
        -8.56879635943123
      ],
      [
        "▁HERR",
        -8.568957818526052
      ],
      [
        "’",
        -8.56903051623071
      ],
      [
        "▁London",
        -8.569030555857076
      ],
      [
        "▁Dezember",
        -8.569030577200012
      ],
      [
        "▁hervorragend",
        -8.56903111899215
      ],
      [
        "▁Büro",
        -8.569031166985509
      ],
      [
        "▁Volk",
        -8.569031670465314
      ],
      [
        "▁Eltern",
        -8.56903183426936
      ],
      [
        "▁Blick",
        -8.569034016540423
      ],
      [
        "▁Prozent",
        -8.569034267948856
      ],
      [
        "▁Speicher",
        -8.56903446249155
      ],
      [
        "▁externe",
        -8.569036696291484
      ],
      [
        "▁hätte",
        -8.569038933703897
      ],
      [
        "▁Gesamt",
        -8.569049472361245
      ],
      [
        "▁Vater",
        -8.569071247650319
      ],
      [
        "▁Türken",
        -8.569073855037272
      ],
      [
        "▁sofort",
        -8.569153061786663
      ],
      [
        "▁Peter",
        -8.56916958874859
      ],
      [
        "▁Million",
        -8.569209137044865
      ],
      [
        "▁Information",
        -8.5692229558264
      ],
      [
        "▁Geständnis",
        -8.569226110942312
      ],
      [
        "▁natürlich",
        -8.569261780787762
      ],
      [
        "▁Einnahme",
        -8.569442640488706
      ],
      [
        "▁liegt",
        -8.570136963612415
      ],
      [
        "schaft",
        -8.570420365718249
      ],
      [
        "▁bleibt",
        -8.570615088601098
      ],
      [
        "▁Fall",
        -8.570801248751838
      ],
      [
        "▁vier",
        -8.571460827977386
      ],
      [
        "ner",
        -8.571939123025315
      ],
      [
        "▁Christen",
        -8.573106585110034
      ],
      [
        "▁müssen",
        -8.573648809231429
      ],
      [
        "▁Unternehmen",
        -8.574665831239503
      ],
      [
        "▁erhalten",
        -8.574757661111054
      ],
      [
        "▁Le",
        -8.575990806514849
      ],
      [
        "▁Leib",
        -8.577920928953512
      ],
      [
        "▁2013",
        -8.578555396880303
      ],
      [
        "▁Schreib",
        -8.578669408095564
      ],
      [
        "▁gemacht",
        -8.578855964050538
      ],
      [
        "▁Darüber",
        -8.579024144211845
      ],
      [
        "▁Muslime",
        -8.579151531459615
      ],
      [
        "▁hatten",
        -8.579534268826166
      ],
      [
        "▁haben.",
        -8.579825262651982
      ],
      [
        "▁ent",
        -8.581109938146177
      ],
      [
        "▁bieten",
        -8.582902022271831
      ],
      [
        "▁meisten",
        -8.585184547493956
      ],
      [
        "liche",
        -8.587997535911478
      ],
      [
        "▁findet",
        -8.588017478306478
      ],
      [
        "▁Deutsche",
        -8.588712248768845
      ],
      [
        "▁glaubt",
        -8.588739669390982
      ],
      [
        "▁inner",
        -8.589334442905372
      ],
      [
        "▁Problem",
        -8.590021931758834
      ],
      [
        "▁Monate",
        -8.590200609828107
      ],
      [
        "▁Recht",
        -8.590975274458984
      ],
      [
        "▁allem",
        -8.593816980334443
      ],
      [
        "stellung",
        -8.594249862560979
      ],
      [
        "▁Schlag",
        -8.594683451495879
      ],
      [
        "▁zeigen",
        -8.595838776065921
      ],
      [
        "▁führen",
        -8.602300812418306
      ],
      [
        "S",
        -8.606551592461422
      ],
      [
        "ren",
        -8.610033654238281
      ],
      [
        "grund",
        -8.61277324111518
      ],
      [
        "▁Interesse",
        -8.61312441736951
      ],
      [
        "ale",
        -8.61578436123962
      ],
      [
        "▁Bereich",
        -8.622039257531469
      ],
      [
        "▁einige",
        -8.62393249942154
      ],
      [
        "aus",
        -8.624223383925884
      ],
      [
        "D",
        -8.625592815044433
      ],
      [
        "zogen",
        -8.626223960753387
      ],
      [
        "▁Training",
        -8.629290675869486
      ],
      [
        "▁19",
        -8.631302641951153
      ],
      [
        "▁sollten",
        -8.631414763661928
      ],
      [
        "kt",
        -8.631463332568607
      ],
      [
        "▁Sache",
        -8.635426657087558
      ],
      [
        "brechen",
        -8.635727222984581
      ],
      [
        "Box",
        -8.636561691901946
      ],
      [
        "▁beide",
        -8.637856138223956
      ],
      [
        "ion",
        -8.638857957283534
      ],
      [
        "▁Dies",
        -8.641529805029638
      ],
      [
        "▁„T",
        -8.643528027244495
      ],
      [
        "▁zwa",
        -8.647462579496636
      ],
      [
        "arf",
        -8.648604149107049
      ],
      [
        "zen",
        -8.649128936498622
      ],
      [
        "ende",
        -8.651300472167344
      ],
      [
        "nach",
        -8.653020890826484
      ],
      [
        "schen",
        -8.653677718771085
      ],
      [
        "▁muß",
        -8.656150967922546
      ],
      [
        "ation",
        -8.657696643617614
      ],
      [
        "ex",
        -8.661713291704865
      ],
      [
        "▁wohl",
        -8.66285793272391
      ],
      [
        "▁Bar",
        -8.665893555701583
      ],
      [
        "▁jeder",
        -8.669714973093003
      ],
      [
        "▁Woche",
        -8.670222743999636
      ],
      [
        "geben.",
        -8.672771727468014
      ],
      [
        "▁Box",
        -8.674431964801014
      ],
      [
        "on",
        -8.676003319823078
      ],
      [
        "O",
        -8.677904705259678
      ],
      [
        "▁KÃ¶nig",
        -8.681528306770888
      ],
      [
        "▁Wort",
        -8.685137236221971
      ],
      [
        "B",
        -8.686532244046466
      ],
      [
        "rä",
        -8.689240489396933
      ],
      [
        "▁Bo",
        -8.694307571324119
      ],
      [
        "▁muss",
        -8.697312563958636
      ],
      [
        "▁Weg",
        -8.699919493684318
      ],
      [
        "▁hab",
        -8.700720548621488
      ],
      [
        "▁Re",
        -8.70079926626011
      ],
      [
        "me",
        -8.70539082301634
      ],
      [
        "▁Bioökonomie",
        -8.706797003212026
      ],
      [
        "asse",
        -8.707943040493898
      ],
      [
        "▁Wasser",
        -8.708927100958007
      ],
      [
        "▁Uhr",
        -8.70946003855125
      ],
      [
        "▁plötzlich",
        -8.711887659138961
      ],
      [
        "▁Genç",
        -8.711887659140842
      ],
      [
        "▁konzentrieren",
        -8.711887661558523
      ],
      [
        "▁Stärke",
        -8.711887867003592
      ],
      [
        "▁Nathan",
        -8.71188794265484
      ],
      [
        "▁privat",
        -8.711887948541122
      ],
      [
        "▁Sicherheit",
        -8.7118887823866
      ],
      [
        "▁Berlin",
        -8.71189730115609
      ],
      [
        "▁falsch",
        -8.711914470883203
      ],
      [
        "▁überwinden",
        -8.711920349950532
      ],
      [
        "▁Juni",
        -8.711932308968105
      ],
      [
        "▁moderne",
        -8.711938003599581
      ],
      [
        "▁jeweil",
        -8.711948038329517
      ],
      [
        "▁Angebot",
        -8.711948514075377
      ],
      [
        "▁darüber",
        -8.711968326746204
      ],
      [
        "▁gehört",
        -8.711977465358933
      ],
      [
        "▁Regel",
        -8.712040052740443
      ],
      [
        "▁Folge",
        -8.712076311228275
      ],
      [
        "▁Lara",
        -8.712086266237534
      ],
      [
        "▁gerne",
        -8.712245406965906
      ],
      [
        "▁geworden",
        -8.712581894092217
      ],
      [
        "▁Abend",
        -8.713110460510997
      ],
      [
        "▁Kindheit",
        -8.713178770686755
      ],
      [
        "▁bevor",
        -8.713727963391506
      ],
      [
        "genannte",
        -8.713818844524212
      ],
      [
        "▁klar",
        -8.714103095487559
      ],
      [
        "▁Ländern",
        -8.714197938061167
      ],
      [
        "▁vo",
        -8.71488908660181
      ],
      [
        "raum",
        -8.715103111554011
      ],
      [
        "▁fühlt",
        -8.715261987483668
      ],
      [
        "▁erfahren",
        -8.715581895173802
      ],
      [
        "mindest",
        -8.71584872767215
      ],
      [
        "▁Kunden",
        -8.715866929372272
      ],
      [
        "▁starb",
        -8.716736763348683
      ],
      [
        "▁Grund",
        -8.716739949180667
      ],
      [
        "▁lie",
        -8.71748961688939
      ],
      [
        "▁erkennen",
        -8.718296461495024
      ],
      [
        "▁pro",
        -8.718339189925013
      ],
      [
        "▁kämpft",
        -8.720105904657023
      ],
      [
        "▁Minuten",
        -8.722323248098151
      ],
      [
        "▁sonst",
        -8.725079808807937
      ],
      [
        "▁&",
        -8.725181275469422
      ],
      [
        "▁Wä",
        -8.72529190643408
      ],
      [
        "▁Ziele",
        -8.730313857540281
      ],
      [
        "ständig",
        -8.731041139706857
      ],
      [
        "▁do",
        -8.731238384996457
      ],
      [
        "▁sprechen",
        -8.732288937726777
      ],
      [
        "▁weit",
        -8.733209467236668
      ],
      [
        "▁je",
        -8.733327915612364
      ],
      [
        "▁wichtigste",
        -8.733468714500791
      ],
      [
        "▁Ob",
        -8.733838983978107
      ],
      [
        "▁(Ber",
        -8.734626925032035
      ],
      [
        "▁Bitt",
        -8.736891020515877
      ],
      [
        "▁„Wi",
        -8.7369283633021
      ],
      [
        "gen",
        -8.74045166546737
      ],
      [
        "fallen",
        -8.745125280700044
      ],
      [
        "tag",
        -8.74670088320568
      ],
      [
        "recht",
        -8.74743915085294
      ],
      [
        "2",
        -8.749448075249042
      ],
      [
        "▁Club",
        -8.750614555734128
      ],
      [
        "hin",
        -8.754502458128522
      ],
      [
        "lagen",
        -8.754867100515165
      ],
      [
        "▁Wochen",
        -8.755864217306979
      ],
      [
        "7",
        -8.758875183644799
      ],
      [
        "auch",
        -8.758935351010699
      ],
      [
        "▁lernen",
        -8.760705013093528
      ],
      [
        "▁mehrere",
        -8.769943452767233
      ],
      [
        "ger",
        -8.77143167354043
      ],
      [
        "gabe",
        -8.772945508889231
      ],
      [
        "▁bereit",
        -8.773403358039513
      ],
      [
        "schließ",
        -8.780851861031698
      ],
      [
        "des",
        -8.783448398571434
      ],
      [
        "▁s",
        -8.78606896731599
      ],
      [
        "zwischen",
        -8.787795651412235
      ],
      [
        "kunden",
        -8.78815149734308
      ],
      [
        "▁Her",
        -8.79123501280621
      ],
      [
        "▁re",
        -8.79296297616961
      ],
      [
        "▁Freund",
        -8.795836710399783
      ],
      [
        "ft",
        -8.797326323934724
      ],
      [
        "ur",
        -8.810288436103367
      ],
      [
        "bereits",
        -8.81498664745295
      ],
      [
        "▁diesen",
        -8.816361076802227
      ],
      [
        "▁We",
        -8.82084852609324
      ],
      [
        "▁groß",
        -8.820978085845407
      ],
      [
        "▁wissen",
        -8.821056183211683
      ],
      [
        "▁sch",
        -8.822421469595708
      ],
      [
        "enden",
        -8.824460036098841
      ],
      [
        "▁w",
        -8.824855110258614
      ],
      [
        "▁Pf",
        -8.830796242459103
      ],
      [
        "1",
        -8.831469869351642
      ],
      [
        "aktion",
        -8.831539842443087
      ],
      [
        "▁letzte",
        -8.83366727770657
      ],
      [
        "et",
        -8.837951529197102
      ],
      [
        "tragen",
        -8.84569233610995
      ],
      [
        "▁Bi",
        -8.847540511476602
      ],
      [
        "au",
        -8.849524545045146
      ],
      [
        "ien",
        -8.853004300234547
      ],
      [
        "il",
        -8.855617315403828
      ],
      [
        "▁holen",
        -8.858196238193809
      ],
      [
        "aß",
        -8.85946706308887
      ],
      [
        "▁Mensch",
        -8.860398483777127
      ],
      [
        "heiten",
        -8.860509160787588
      ],
      [
        "▁Th",
        -8.86540847586511
      ],
      [
        "▁Mark",
        -8.865490080786667
      ],
      [
        "▁Erde",
        -8.865493328739534
      ],
      [
        "▁Neu",
        -8.866468639568508
      ],
      [
        "eher",
        -8.867290867862305
      ],
      [
        "▁sah",
        -8.867376997132126
      ],
      [
        "▁St",
        -8.874549720834773
      ],
      [
        "▁persönliche",
        -8.87460485415776
      ],
      [
        "punkt",
        -8.87745705394161
      ],
      [
        "▁Coach",
        -8.878284574752916
      ],
      [
        "▁Epilepsie",
        -8.878554325754541
      ],
      [
        "▁Netzwerk",
        -8.878554325758733
      ],
      [
        "▁französische",
        -8.878554325766066
      ],
      [
        "]",
        -8.878554325794479
      ],
      [
        "▁Jerusalem",
        -8.878554327373328
      ],
      [
        "▁Karriere",
        -8.878554331033792
      ],
      [
        "▁Brandanschlag",
        -8.87855435303687
      ],
      [
        "▁[",
        -8.878554432277287
      ],
      [
        "▁Freiheit",
        -8.878554526601677
      ],
      [
        "▁Verfügung",
        -8.878554554888478
      ],
      [
        "▁Beratung",
        -8.878554841467578
      ],
      [
        "▁Schläge",
        -8.878555478573992
      ],
      [
        "▁helfen",
        -8.878555551418481
      ],
      [
        "▁trainiert",
        -8.878556164116777
      ],
      [
        "▁Kontakt",
        -8.878556620324634
      ],
      [
        "▁Tochter",
        -8.878559330410784
      ],
      [
        "▁Boxcoaching",
        -8.878560739403921
      ],
      [
        "▁Brot",
        -8.878568192289812
      ],
      [
        "▁lernt",
        -8.878578266072305
      ],
      [
        "▁schlecht",
        -8.878592136436493
      ],
      [
        "▁Motor",
        -8.87859521264301
      ],
      [
        "▁Technik",
        -8.878597005937333
      ],
      [
        "▁2016",
        -8.878597273547228
      ],
      [
        "▁Leistung",
        -8.878611924459252
      ],
      [
        "▁Kämpfe",
        -8.878616402542214
      ],
      [
        "▁kaum",
        -8.878633539450956
      ],
      [
        "▁erinner",
        -8.878643907013625
      ],
      [
        "▁einzige",
        -8.878655324326939
      ],
      [
        "▁Chef",
        -8.878660866766669
      ],
      [
        "▁16",
        -8.878678839739415
      ],
      [
        "▁Phase",
        -8.878686494838664
      ],
      [
        "▁Platz",
        -8.878697997429846
      ],
      [
        "▁196",
        -8.878722365076907
      ],
      [
        "▁vielleicht",
        -8.878754783630797
      ],
      [
        "▁verbunden",
        -8.878795347527229
      ],
      [
        "▁Duft",
        -8.878826385058042
      ],
      [
        "▁fünf",
        -8.878836630036592
      ],
      [
        "▁Niederlage",
        -8.878920011330903
      ],
      [
        "▁stark",
        -8.879001590911034
      ],
      [
        "▁Christian",
        -8.879084827954523
      ],
      [
        "▁Rolle",
        -8.879187658227249
      ],
      [
        "▁Warum",
        -8.879347986281417
      ],
      [
        "▁getan",
        -8.87935213193242
      ],
      [
        "▁Dosis",
        -8.879899783164076
      ],
      [
        "▁hinter",
        -8.880041379399009
      ],
      [
        "▁Westen",
        -8.88008208588269
      ],
      [
        "▁Pun",
        -8.880174703512528
      ],
      [
        "Fight",
        -8.880259369522872
      ],
      [
        "▁heißt",
        -8.880351632506066
      ],
      [
        "▁Voss",
        -8.880449969229467
      ],
      [
        "▁gelang",
        -8.88063113749594
      ],
      [
        "▁Ã1⁄4ber",
        -8.880695680995766
      ],
      [
        "▁daran",
        -8.880711276957111
      ],
      [
        "▁Macht",
        -8.881116071856747
      ],
      [
        "▁Monat",
        -8.881411147658039
      ],
      [
        "▁geschrieben",
        -8.881506353073567
      ],
      [
        "▁Unser",
        -8.882145799577476
      ],
      [
        "▁darum",
        -8.882188523609432
      ],
      [
        "▁selber",
        -8.883080421435844
      ],
      [
        "▁New",
        -8.883219208857282
      ],
      [
        "▁fand",
        -8.88387518861415
      ],
      [
        "▁sehen",
        -8.883904113654909
      ],
      [
        "▁morgens",
        -8.884327089611546
      ],
      [
        "▁Klienten",
        -8.884429567131441
      ],
      [
        "▁passiert",
        -8.884431480041592
      ],
      [
        "ass",
        -8.885477548837272
      ],
      [
        "▁Name",
        -8.885806719056609
      ],
      [
        "▁Zentr",
        -8.886031570037288
      ],
      [
        "▁Colla",
        -8.886632388839597
      ],
      [
        "mlich",
        -8.88678520627068
      ],
      [
        "▁Meinung",
        -8.888877980783588
      ],
      [
        "▁amerikanische",
        -8.889012565209242
      ],
      [
        "▁geboren",
        -8.889308169545423
      ],
      [
        "ut",
        -8.890070773558417
      ],
      [
        "▁Herrn",
        -8.890157798847268
      ],
      [
        "▁Land",
        -8.890247859942313
      ],
      [
        "▁Jede",
        -8.890750541368384
      ],
      [
        "▁Fähigkeiten",
        -8.890833194963639
      ],
      [
        "▁treffen",
        -8.89156027660916
      ],
      [
        "▁alleine",
        -8.892281544304765
      ],
      [
        "▁berechtigt",
        -8.892923814674582
      ],
      [
        "4",
        -8.89677246592235
      ],
      [
        "▁lang",
        -8.899421077403556
      ],
      [
        "che",
        -8.900228933074228
      ],
      [
        "blick",
        -8.900229823092197
      ],
      [
        "uch",
        -8.901534674298325
      ],
      [
        "fern",
        -8.906049634642088
      ],
      [
        "teil",
        -8.90875756208947
      ],
      [
        "▁Fragen",
        -8.910517446976375
      ],
      [
        "▁finden.",
        -8.911870573358085
      ],
      [
        "so",
        -8.913457036654771
      ],
      [
        "▁Brief",
        -8.913984050141384
      ],
      [
        "▁Nah",
        -8.914389201452785
      ],
      [
        "▁Lebens",
        -8.914860748080114
      ],
      [
        "▁Gefühl",
        -8.914985767653397
      ],
      [
        "▁schreiben",
        -8.921025297806022
      ],
      [
        "gang",
        -8.922361644726301
      ],
      [
        "▁fest",
        -8.922813758941304
      ],
      [
        "▁1.",
        -8.92464189135515
      ],
      [
        "kommen.",
        -8.927327051346767
      ],
      [
        "▁(S",
        -8.92742016148567
      ],
      [
        "▁jemand",
        -8.928745535653517
      ],
      [
        "rund",
        -8.930277710819746
      ],
      [
        "eine",
        -8.932490750142971
      ],
      [
        "▁Flüchtlinge",
        -8.932551788916175
      ],
      [
        "▁199",
        -8.933397987608657
      ],
      [
        "ö",
        -8.93661091387957
      ],
      [
        "▁Art",
        -8.936808289616197
      ],
      [
        "ei",
        -8.937340328396672
      ],
      [
        "bau",
        -8.937638275804847
      ],
      [
        "up",
        -8.938184584792902
      ],
      [
        "▁i",
        -8.938386979428357
      ],
      [
        "▁Ali",
        -8.939905368428144
      ],
      [
        "▁Viel",
        -8.941098310871096
      ],
      [
        "W",
        -8.943032048253642
      ],
      [
        "erweise",
        -8.943723775131796
      ],
      [
        "▁Fronleichnam",
        -8.94390596936486
      ],
      [
        "▁Gesellschaft",
        -8.944301089626183
      ],
      [
        "▁schlagen",
        -8.946958249548647
      ],
      [
        "önnen",
        -8.947638350845441
      ],
      [
        "▁Philosophi",
        -8.955928906869286
      ],
      [
        "richt",
        -8.95846786298675
      ],
      [
        "s-",
        -8.958625195712033
      ],
      [
        "▁Ho",
        -8.95887272046636
      ],
      [
        "▁ward",
        -8.960716586400542
      ],
      [
        "ativ",
        -8.961215344868794
      ],
      [
        "▁Stellen",
        -8.962745827909012
      ],
      [
        "▁her",
        -8.964016052964627
      ],
      [
        "für",
        -8.967656310929302
      ],
      [
        "▁Mi",
        -8.967784296929961
      ],
      [
        "tet",
        -8.96896336054051
      ],
      [
        "▁Jahres",
        -8.969926834204717
      ],
      [
        "auf",
        -8.97026064056407
      ],
      [
        "▁Sein",
        -8.97031690779169
      ],
      [
        "▁„D",
        -8.970478869530524
      ],
      [
        "hauen",
        -8.97409727657867
      ],
      [
        "▁nahm",
        -8.974373470359323
      ],
      [
        "▁berufliche",
        -8.97462988673306
      ],
      [
        "▁9",
        -8.976675849001863
      ],
      [
        "▁Hin",
        -8.98084486240412
      ],
      [
        "▁Glaube",
        -8.983292320374433
      ],
      [
        "▁blieb",
        -8.984276392874781
      ],
      [
        "▁Viele",
        -8.985471879493494
      ],
      [
        "▁schlug",
        -8.986956436848756
      ],
      [
        "ann",
        -8.989885922355302
      ],
      [
        "▁Mein",
        -8.991850697661963
      ],
      [
        "000",
        -8.992275424458603
      ],
      [
        "▁Erfolg",
        -8.995327520379444
      ],
      [
        "▁e",
        -8.995665335774422
      ],
      [
        "legen",
        -8.995939916808606
      ],
      [
        "▁Afrika",
        -8.997151304738129
      ],
      [
        "E",
        -8.997744269531234
      ],
      [
        "schrieb",
        -9.000863748755632
      ],
      [
        "▁Idee",
        -9.000949824438692
      ],
      [
        "ke",
        -9.001989644406923
      ],
      [
        "45",
        -9.00213293621991
      ],
      [
        "U",
        -9.002463514396153
      ],
      [
        "▁gute",
        -9.00305717640621
      ],
      [
        "▁zog",
        -9.00526874772009
      ],
      [
        "▁essen",
        -9.00730795112335
      ],
      [
        "▁stet",
        -9.00905603661813
      ],
      [
        "sein",
        -9.011267929893792
      ],
      [
        "▁Film",
        -9.012063704439907
      ],
      [
        "is",
        -9.015177436139908
      ],
      [
        "▁Ba",
        -9.016074984689439
      ],
      [
        "▁Strategie",
        -9.020194727290969
      ],
      [
        "▁leicht",
        -9.02204322033687
      ],
      [
        "▁finde",
        -9.022606275439466
      ],
      [
        "50",
        -9.027212252173074
      ],
      [
        "schein",
        -9.029073882411254
      ],
      [
        "▁Gegen",
        -9.029377108618148
      ],
      [
        "liegen",
        -9.038319380047186
      ],
      [
        "▁weitere",
        -9.04191735263778
      ],
      [
        "▁los",
        -9.042413757777268
      ],
      [
        "▁geben",
        -9.044436323391515
      ],
      [
        "sweise",
        -9.04609921944093
      ],
      [
        "▁kurz",
        -9.047255501176377
      ],
      [
        "rade",
        -9.047804245670115
      ],
      [
        "un",
        -9.048164137679873
      ],
      [
        "▁Person",
        -9.048928046227154
      ],
      [
        "atz",
        -9.05176253798431
      ],
      [
        "ierung",
        -9.052209142254362
      ],
      [
        "Ã¤n",
        -9.052765950194983
      ],
      [
        "nken.",
        -9.052950677327475
      ],
      [
        "▁Arzneimittel",
        -9.053166370650088
      ],
      [
        "▁alt",
        -9.053499881890758
      ],
      [
        "▁15",
        -9.056702233034121
      ],
      [
        "▁denken",
        -9.056899527038171
      ],
      [
        "▁Bank",
        -9.056955206025101
      ],
      [
        "▁ander",
        -9.057761670768887
      ],
      [
        "zw",
        -9.059672004329816
      ],
      [
        "▁tot",
        -9.0598724962762
      ],
      [
        "lub",
        -9.060175744840546
      ],
      [
        "▁Mu",
        -9.06260518702736
      ],
      [
        "ern",
        -9.063422544239296
      ],
      [
        "▁wichtige",
        -9.063937889463052
      ],
      [
        "▁Ha",
        -9.064518953363281
      ],
      [
        "▁Liebe",
        -9.064630135975378
      ],
      [
        "▁Lehrer",
        -9.065533114169401
      ],
      [
        "▁Alltag",
        -9.065570437373788
      ],
      [
        "cker",
        -9.066730796190283
      ],
      [
        "▁etwa",
        -9.067022392473474
      ],
      [
        "▁halb",
        -9.067336597267957
      ],
      [
        "▁europäische",
        -9.068593324429305
      ],
      [
        "▁soziale",
        -9.069744278073063
      ],
      [
        "ahmen",
        -9.069934345123748
      ],
      [
        "▁Bild",
        -9.071655348649962
      ],
      [
        "▁m",
        -9.072574520334053
      ],
      [
        "▁Kreuz",
        -9.073235855031205
      ],
      [
        "tik",
        -9.073296046213631
      ],
      [
        "neben",
        -9.07345103811644
      ],
      [
        "zeitig",
        -9.074974386620498
      ],
      [
        "▁Partner",
        -9.075136130141946
      ],
      [
        "en?",
        -9.075694320279464
      ],
      [
        "satz",
        -9.076599017004087
      ],
      [
        "▁weh",
        -9.077169127812855
      ],
      [
        "▁Zusammenh",
        -9.07720824690539
      ],
      [
        "ismus",
        -9.07818149896637
      ],
      [
        "%",
        -9.078289310569568
      ],
      [
        "-Planck-Institut",
        -9.07855432579448
      ],
      [
        "▁Apotheker",
        -9.078554325847572
      ],
      [
        "▁Mindestalter",
        -9.078554326262415
      ],
      [
        "▁insbesondere",
        -9.078554326403243
      ],
      [
        "▁Patienten",
        -9.078554350750176
      ],
      [
        "▁Aufmerksamkeit",
        -9.078554353661552
      ],
      [
        "▁verurteilt",
        -9.078554371595189
      ],
      [
        "▁Veränderung",
        -9.078554380649113
      ],
      [
        "▁Druck",
        -9.078554430159778
      ],
      [
        "▁Rechtsanwält",
        -9.078554456525948
      ],
      [
        "▁Grenzen",
        -9.078555162981875
      ],
      [
        "▁A-Klasse",
        -9.078556288057666
      ],
      [
        "▁Bruder",
        -9.078556802748437
      ],
      [
        "▁usw.",
        -9.078558652226734
      ],
      [
        "▁York",
        -9.0785597566179
      ],
      [
        "unterschiedliche",
        -9.078571584477714
      ],
      [
        "▁Internet",
        -9.078582809496098
      ],
      [
        "▁bekannt",
        -9.07858380034755
      ],
      [
        "▁Kometen",
        -9.078584578643955
      ],
      [
        "▁Gäste",
        -9.078597279897373
      ],
      [
        "haupt",
        -9.078617520683089
      ],
      [
        "zehn",
        -9.078618020800352
      ],
      [
        "▁SSD-Festplatte",
        -9.078618378939558
      ],
      [
        "▁zwölf",
        -9.078631708695555
      ],
      [
        "▁spricht",
        -9.078635056881994
      ],
      [
        "▁durchsetzen",
        -9.078642094513373
      ],
      [
        "▁hilft",
        -9.078650223622981
      ],
      [
        "▁kennt",
        -9.07866215685337
      ],
      [
        "▁gewesen",
        -9.07867008821181
      ],
      [
        "bald",
        -9.078674848020711
      ],
      [
        "▁Tief",
        -9.078675060345558
      ],
      [
        "▁HERRN",
        -9.078675204191022
      ],
      [
        "▁Erfahrung",
        -9.078717077955114
      ],
      [
        "▁Seminare",
        -9.078731938637404
      ],
      [
        "▁Brow",
        -9.078861492281508
      ],
      [
        "▁Haft",
        -9.078899965011399
      ],
      [
        "▁bietet",
        -9.078966719639695
      ],
      [
        "leistung",
        -9.079075047778362
      ],
      [
        "▁17",
        -9.079125947281337
      ],
      [
        "2001).",
        -9.079304655420007
      ],
      [
        "▁erforderlich",
        -9.079367349572902
      ],
      [
        "▁Gerade",
        -9.079425225391093
      ],
      [
        "▁länger",
        -9.079640313448646
      ],
      [
        "▁100",
        -9.079700349595585
      ],
      [
        "▁Differenz",
        -9.079745701679501
      ],
      [
        "1)",
        -9.079755364276648
      ],
      [
        "▁gesetzliche",
        -9.079783061867118
      ],
      [
        "▁zulässige",
        -9.079804089103288
      ],
      [
        "▁bitte",
        -9.079896694795028
      ],
      [
        "▁Freud",
        -9.079901725743166
      ],
      [
        "▁drauf",
        -9.080150595665282
      ],
      [
        "▁Nord",
        -9.080602295432527
      ],
      [
        "▁außer",
        -9.08150853791792
      ],
      [
        "▁Mitte",
        -9.082195589286673
      ],
      [
        "▁kg",
        -9.08223085605485
      ],
      [
        "▁„Ein",
        -9.082897738850207
      ],
      [
        "▁sucht",
        -9.082993980470885
      ],
      [
        "▁nächste",
        -9.083101741575465
      ],
      [
        "ellen",
        -9.083128069472286
      ],
      [
        "▁schwer",
        -9.083169216621112
      ],
      [
        "▁Wirtschaft",
        -9.083821401034225
      ],
      [
        "▁Nase",
        -9.083887894734211
      ],
      [
        "▁Alter",
        -9.08392349710123
      ],
      [
        "▁allein",
        -9.084068461385144
      ],
      [
        "▁danach",
        -9.084967071056358
      ],
      [
        "▁1",
        -9.085769372225489
      ],
      [
        "▁Banker",
        -9.085954135506539
      ],
      [
        "elle",
        -9.086168591251793
      ],
      [
        "Ã1⁄4r",
        -9.086208580195336
      ],
      [
        "▁vorher",
        -9.086235244400893
      ],
      [
        "▁Arme",
        -9.086346369739603
      ],
      [
        "▁Schwächen",
        -9.086904929929178
      ],
      [
        "▁nahe",
        -9.087436877940345
      ],
      [
        "▁getrennt",
        -9.08781479749721
      ],
      [
        "vor",
        -9.087962080837693
      ],
      [
        "▁25",
        -9.08801263617439
      ],
      [
        "▁Kopf",
        -9.088405444010878
      ],
      [
        "sp",
        -9.088408489410082
      ],
      [
        "▁mg",
        -9.08842300515204
      ],
      [
        "▁setzen",
        -9.088572302121262
      ],
      [
        "▁Kollegen",
        -9.088578792920176
      ],
      [
        "▁ca",
        -9.089498219890128
      ],
      [
        "soweit",
        -9.089687021522302
      ],
      [
        "▁Gericht",
        -9.090345714184462
      ],
      [
        "▁suchen",
        -9.09045187405171
      ],
      [
        "▁Einsatz",
        -9.090971244107267
      ],
      [
        "icht",
        -9.091364055651919
      ],
      [
        "▁Zwei",
        -9.092344545911866
      ],
      [
        "▁hoch",
        -9.092577417666327
      ],
      [
        "▁Schule",
        -9.092912520285122
      ],
      [
        "▁sahen",
        -9.09356098651927
      ],
      [
        "▁Seite",
        -9.095749749520127
      ],
      [
        "▁braucht",
        -9.095969836611298
      ],
      [
        "stoff",
        -9.09609597158309
      ],
      [
        "ä",
        -9.096265197250611
      ],
      [
        "▁Persönlichkeits",
        -9.097009450621783
      ],
      [
        "kto",
        -9.097508121052801
      ],
      [
        "drige",
        -9.098826195411165
      ],
      [
        "▁welcher",
        -9.100768593825247
      ],
      [
        "▁erfolg",
        -9.101084261705893
      ],
      [
        "allen",
        -9.103097550634944
      ],
      [
        "ssen",
        -9.10362287650489
      ],
      [
        "▁Wissen",
        -9.105218542039417
      ],
      [
        "ord",
        -9.107481841242041
      ],
      [
        "▁„J",
        -9.109993523224942
      ],
      [
        "▁kaufen",
        -9.111902834780816
      ],
      [
        "▁Osten",
        -9.112575602812935
      ],
      [
        "▁Rabb",
        -9.113389968181144
      ],
      [
        "▁legt",
        -9.113935736967486
      ],
      [
        "▁gem",
        -9.115198163950694
      ],
      [
        "▁beeinflussen",
        -9.11585364247589
      ],
      [
        "▁Einzel",
        -9.116435456116335
      ],
      [
        "▁Mich",
        -9.118189505793426
      ],
      [
        "▁folg",
        -9.120461796606216
      ],
      [
        "ry",
        -9.121170171446698
      ],
      [
        "▁Festplatte",
        -9.12195570834791
      ],
      [
        "▁untersuch",
        -9.122846616070383
      ],
      [
        "▁Na",
        -9.126508263240453
      ],
      [
        "▁Rück",
        -9.12820277026295
      ],
      [
        "gehen",
        -9.128611723195194
      ],
      [
        "I",
        -9.129129163373808
      ],
      [
        "▁Seine",
        -9.129741767937281
      ],
      [
        "▁wer",
        -9.129941177210025
      ],
      [
        "▁Krieg",
        -9.130397199496946
      ],
      [
        "▁anders",
        -9.13089712330607
      ],
      [
        "hite",
        -9.131339097581334
      ],
      [
        "▁voll",
        -9.13378625012744
      ],
      [
        "Die",
        -9.134474766106635
      ],
      [
        "▁dachte",
        -9.134942820883392
      ],
      [
        "igung",
        -9.13529329921506
      ],
      [
        "schlossen",
        -9.140107935068917
      ],
      [
        "haltung",
        -9.140424529667326
      ],
      [
        "▁folgte",
        -9.140609486481743
      ],
      [
        "fühl",
        -9.145693297833407
      ],
      [
        "▁täglich",
        -9.146953913880832
      ],
      [
        "▁began",
        -9.147158587962776
      ],
      [
        "▁Herz",
        -9.14777591281072
      ],
      [
        "kehrt",
        -9.152483987006603
      ],
      [
        "▁weg",
        -9.152567206675648
      ],
      [
        "rte",
        -9.153194331272504
      ],
      [
        "▁bist",
        -9.15343736924604
      ],
      [
        "nahme",
        -9.15404873235088
      ],
      [
        "stellen",
        -9.154784688712493
      ],
      [
        "fähig",
        -9.155320553467433
      ],
      [
        "ausbildung",
        -9.158378550279563
      ],
      [
        "gaben",
        -9.158475877072236
      ],
      [
        "welt",
        -9.159836780811263
      ],
      [
        "▁stellt",
        -9.159888860099258
      ],
      [
        "aren",
        -9.160299088448426
      ],
      [
        "▁Pro",
        -9.160907132144882
      ],
      [
        "▁13",
        -9.161167004994608
      ],
      [
        "▁halten",
        -9.161908317597547
      ],
      [
        "lang",
        -9.163756824639943
      ],
      [
        "ntwicklung",
        -9.165727597842947
      ],
      [
        "straf",
        -9.165969098544757
      ],
      [
        "it",
        -9.166272397508047
      ],
      [
        "▁24",
        -9.168835122197285
      ],
      [
        "▁50",
        -9.171403152027208
      ],
      [
        "▁J",
        -9.171829181046826
      ],
      [
        "man",
        -9.174015298657505
      ],
      [
        "“)",
        -9.177164198177907
      ],
      [
        "w",
        -9.179499666762604
      ],
      [
        "kam",
        -9.184155937912415
      ],
      [
        "▁treten",
        -9.18440272809733
      ],
      [
        "▁echt",
        -9.18954861501401
      ],
      [
        "Ã¤",
        -9.190455978986417
      ],
      [
        "▁Freunde",
        -9.190922208381604
      ],
      [
        "▁liegen",
        -9.192567141238289
      ],
      [
        "druck",
        -9.193894675264037
      ],
      [
        "▁wäre",
        -9.196880488045881
      ],
      [
        "▁schön",
        -9.198199293534506
      ],
      [
        "▁heilige",
        -9.198942900844006
      ],
      [
        "▁bringt",
        -9.202037563094434
      ],
      [
        "▁Sy",
        -9.20408810623463
      ],
      [
        "▁Jo",
        -9.204712086296574
      ],
      [
        "▁stellen",
        -9.205355130519223
      ],
      [
        "▁genommen",
        -9.208705585474512
      ],
      [
        "▁entscheiden",
        -9.208858979468001
      ],
      [
        "tan",
        -9.21124003933413
      ],
      [
        "F",
        -9.217559275684849
      ],
      [
        "stern",
        -9.223122575373
      ],
      [
        "▁Bereiche",
        -9.226702413806741
      ],
      [
        "▁6",
        -9.230994054084878
      ],
      [
        "alität",
        -9.233291309628996
      ],
      [
        "▁Ju",
        -9.234056540025925
      ],
      [
        "chef",
        -9.234638365684543
      ],
      [
        "▁Berufs",
        -9.236343560514344
      ],
      [
        "preis",
        -9.238318482993705
      ],
      [
        "seinandersetzung",
        -9.243785428711854
      ],
      [
        "▁Angriffe",
        -9.246796616947838
      ],
      [
        "▁angreif",
        -9.24680933832476
      ],
      [
        "vertrauen",
        -9.247651850023464
      ],
      [
        "schlag",
        -9.247661503335234
      ],
      [
        "är",
        -9.248544177362486
      ],
      [
        "onfliktsituation",
        -9.24862767089617
      ],
      [
        "rr",
        -9.25098533876528
      ],
      [
        "▁Energie",
        -9.252787878058882
      ],
      [
        "ak",
        -9.253161296185649
      ],
      [
        "▁Ve",
        -9.253823173173625
      ],
      [
        "innen",
        -9.254193502121883
      ],
      [
        "ser",
        -9.255570698875676
      ],
      [
        "H",
        -9.256424422478869
      ],
      [
        "▁gefunden",
        -9.256815280083567
      ],
      [
        "da",
        -9.260135925324416
      ],
      [
        "zahl",
        -9.261105367169101
      ],
      [
        "▁Staat",
        -9.261286179288378
      ],
      [
        "frage",
        -9.263301371521264
      ],
      [
        "▁Schul",
        -9.263964039466298
      ],
      [
        "nn",
        -9.26821870928844
      ],
      [
        "fall",
        -9.272647214558802
      ],
      [
        "▁zurückzu",
        -9.274117327322113
      ],
      [
        "▁Ni",
        -9.274927309377434
      ],
      [
        "nis",
        -9.278087675825779
      ],
      [
        "isst",
        -9.278579229405537
      ],
      [
        "zeichen",
        -9.279289792169378
      ],
      [
        "▁4",
        -9.2802843702482
      ],
      [
        "EN",
        -9.280686194218722
      ],
      [
        "ti",
        -9.280789914876834
      ],
      [
        "fest",
        -9.281322805135488
      ],
      [
        "▁beeinfluss",
        -9.282662954840616
      ],
      [
        "rt",
        -9.282948511566715
      ],
      [
        "eiter",
        -9.283389053943633
      ],
      [
        "▁Hethiter",
        -9.287004618074992
      ],
      [
        "ität",
        -9.288184932965219
      ],
      [
        "▁Li",
        -9.288507834000058
      ],
      [
        "trag",
        -9.288713970052639
      ],
      [
        "nge",
        -9.29014581110584
      ],
      [
        "▁Haupt",
        -9.290611112846499
      ],
      [
        "▁Real",
        -9.293225836904272
      ],
      [
        "ic",
        -9.29383604720564
      ],
      [
        "▁richtige",
        -9.296246753329047
      ],
      [
        "sicht",
        -9.298635539646822
      ],
      [
        "lü",
        -9.298841875193322
      ],
      [
        "leben",
        -9.30374958891
      ],
      [
        "ehmen",
        -9.304372070176084
      ],
      [
        "▁beginn",
        -9.3048302739168
      ],
      [
        "▁stellte",
        -9.305542885687169
      ],
      [
        "all",
        -9.305900486288449
      ],
      [
        "feld",
        -9.307841541046137
      ],
      [
        "gegeben",
        -9.307918366267515
      ],
      [
        "▁Zwecke",
        -9.30799455008868
      ],
      [
        "hema",
        -9.310336860580799
      ],
      [
        "▁Weiter",
        -9.31190238824571
      ],
      [
        "▁recht",
        -9.312771315343081
      ],
      [
        "▁Auto",
        -9.313549351923767
      ],
      [
        "▁Te",
        -9.314974895111652
      ],
      [
        "▁Vers",
        -9.317845506817486
      ],
      [
        "öl",
        -9.319547340987766
      ],
      [
        "wert",
        -9.320807053996171
      ],
      [
        "▁Scho",
        -9.322399562788506
      ],
      [
        "▁meist",
        -9.32274597026836
      ],
      [
        "engl",
        -9.325985123093547
      ],
      [
        "züge",
        -9.326282095550647
      ],
      [
        "▁SSD",
        -9.328473163112697
      ],
      [
        "▁Euro",
        -9.328516208087851
      ],
      [
        "▁Hartkapsel",
        -9.328554325754528
      ],
      [
        "psychoanalytisch",
        -9.328554325754538
      ],
      [
        "▁Neu-Isenburg",
        -9.328554325754657
      ],
      [
        "▁kognitive",
        -9.328554325754851
      ],
      [
        "▁Oberfläche",
        -9.328554325755636
      ],
      [
        "€",
        -9.32855432579448
      ],
      [
        "‘",
        -9.32855432579448
      ],
      [
        "▁Kompetenzen",
        -9.328554326584694
      ],
      [
        "▁Ausländer",
        -9.328554337020442
      ],
      [
        "▁kontaktieren",
        -9.328554337474674
      ],
      [
        "▁global",
        -9.328554340185718
      ],
      [
        "▁gedreht",
        -9.328554347750186
      ],
      [
        "▁politische",
        -9.328554365753325
      ],
      [
        "▁Ziffern",
        -9.328554378545093
      ],
      [
        "▁Risiko",
        -9.328554385794423
      ],
      [
        "▁Kreuzfahrer",
        -9.328554385968696
      ],
      [
        "▁perfekt",
        -9.328554394195326
      ],
      [
        "▁durchzusetzen",
        -9.328554413999939
      ],
      [
        "▁Magnetfeld",
        -9.328554458874091
      ],
      [
        "▁Rübner",
        -9.328554462556344
      ],
      [
        "▁präsent",
        -9.32855448278712
      ],
      [
        "▁‚",
        -9.328554498441882
      ],
      [
        "▁Gehirn",
        -9.328554536146742
      ],
      [
        "▁erklär",
        -9.32855483664914
      ],
      [
        "▁Begegnung",
        -9.32855532219862
      ],
      [
        "-Szene",
        -9.328555717924361
      ],
      [
        "▁Saladin",
        -9.328555867836155
      ],
      [
        "▁Heimat",
        -9.328556354141872
      ],
      [
        "▁Schwierigkeiten",
        -9.328556534413364
      ],
      [
        "▁Täter",
        -9.328556582544577
      ],
      [
        "▁physisch",
        -9.32855770109373
      ],
      [
        "▁getroffen",
        -9.328558764985438
      ],
      [
        "▁Italien",
        -9.328559423015648
      ],
      [
        "▁Herrscher",
        -9.328559958673274
      ],
      [
        "▁gilt",
        -9.328561193637293
      ],
      [
        "▁Kultur",
        -9.328561485842844
      ],
      [
        "▁höher",
        -9.32856181081067
      ],
      [
        "glücklich",
        -9.328563062568037
      ],
      [
        "▁gestiegen",
        -9.328569096600832
      ],
      [
        "▁erfolgreich",
        -9.328576219238677
      ],
      [
        "▁Fleisch",
        -9.328576590459694
      ],
      [
        "zielt",
        -9.328579976093737
      ],
      [
        "▁Qualität",
        -9.32859556126309
      ],
      [
        "▁Fünf",
        -9.328599915253918
      ],
      [
        "boxer",
        -9.328603770371211
      ],
      [
        "▁Blut",
        -9.328606067196397
      ],
      [
        "▁Foto",
        -9.328611156346568
      ],
      [
        "▁spezielle",
        -9.32861207510922
      ],
      [
        "▁Polizei",
        -9.328618512052483
      ],
      [
        "▁Verbindung",
        -9.328620655133355
      ],
      [
        "▁Termin",
        -9.32862540013383
      ],
      [
        "Geschäftspartner",
        -9.328633270541173
      ],
      [
        "▁Zehn",
        -9.328642013315578
      ],
      [
        "▁half",
        -9.328643495666876
      ],
      [
        "▁Aufstehen",
        -9.328645323779526
      ],
      [
        "▁gelöscht",
        -9.328653984148398
      ],
      [
        "▁Selbstachtung",
        -9.328656625759159
      ],
      [
        "▁Zukunft",
        -9.328663616181613
      ],
      [
        "▁Verhältnis",
        -9.32866796849111
      ],
      [
        "▁häufig",
        -9.32867650865063
      ],
      [
        "▁Jesu",
        -9.32869480082761
      ],
      [
        "▁Juli",
        -9.328723206876596
      ],
      [
        "▁Preis",
        -9.328744612405675
      ],
      [
        "▁Clay",
        -9.328746223447183
      ],
      [
        "▁bedeutet",
        -9.328752565541613
      ],
      [
        "▁dritte",
        -9.328756110189769
      ],
      [
        "▁hervor",
        -9.328779499568657
      ],
      [
        "▁Eigenschaften",
        -9.328787701558142
      ],
      [
        "▁Krise",
        -9.328792315215374
      ],
      [
        "▁Eisen",
        -9.328797752061048
      ],
      [
        "▁Gleich",
        -9.328814350700009
      ],
      [
        "▁Bundesländer",
        -9.328818553914655
      ],
      [
        "▁Speise",
        -9.328827730193066
      ],
      [
        "▁Umwelt",
        -9.328828395979393
      ],
      [
        "▁behandelt",
        -9.328857465715126
      ],
      [
        "▁Spaß",
        -9.32887848670352
      ],
      [
        "▁Nov",
        -9.328882773659654
      ],
      [
        "▁psychische",
        -9.328883807291309
      ],
      [
        "▁Typ",
        -9.328896703176815
      ],
      [
        "▁Ebene",
        -9.328918571067339
      ],
      [
        "▁Genau",
        -9.328930477477266
      ],
      [
        "zimmer",
        -9.328959413963
      ],
      [
        "▁zuhauf",
        -9.328962348587588
      ],
      [
        "▁Mauer",
        -9.328997317843372
      ],
      [
        "▁spielen",
        -9.32905754771771
      ],
      [
        "▁Tür",
        -9.329100988446564
      ],
      [
        "▁mental",
        -9.32910669448603
      ],
      [
        "▁laut",
        -9.329143040364
      ],
      [
        "▁Port",
        -9.329143324776911
      ],
      [
        "▁seltene",
        -9.329242507580412
      ],
      [
        "▁steigt",
        -9.329268056497689
      ],
      [
        "▁Licht",
        -9.329313240430437
      ],
      [
        "▁schla",
        -9.329417118567829
      ],
      [
        "▁geschlagen",
        -9.329435481361152
      ],
      [
        "▁Christi",
        -9.32976496698896
      ],
      [
        "▁Ort",
        -9.329853787794262
      ],
      [
        "▁Liter",
        -9.330018675264487
      ],
      [
        "▁besteht",
        -9.330119743124435
      ],
      [
        "▁zuzuschlagen",
        -9.330159679179868
      ],
      [
        "▁einnehmen",
        -9.330410017854707
      ],
      [
        "▁Raum",
        -9.330533539026483
      ],
      [
        "▁Handlung",
        -9.330592321819266
      ],
      [
        "▁Mehr",
        -9.330645394742758
      ],
      [
        "▁verfügen",
        -9.330751962276812
      ],
      [
        "▁Tätigkeiten",
        -9.33075857495302
      ],
      [
        "▁Kranke",
        -9.330794362329554
      ],
      [
        "▁irgendein",
        -9.331108953248677
      ],
      [
        "▁hohe",
        -9.331247805253254
      ],
      [
        "▁Schwert",
        -9.331589952596223
      ],
      [
        "▁Train",
        -9.331673545746217
      ],
      [
        "▁erreichen",
        -9.331954594967904
      ],
      [
        "▁Ausbildung",
        -9.331968685650454
      ],
      [
        "▁Rost",
        -9.332116038859184
      ],
      [
        "▁abge",
        -9.332531188678534
      ],
      [
        "▁bestellt",
        -9.332656398985844
      ],
      [
        "▁hinein",
        -9.332811418637284
      ],
      [
        "WLAN-Festplatte",
        -9.332829169255046
      ],
      [
        "▁Tonnen",
        -9.333072349833245
      ],
      [
        "▁Also",
        -9.333188043907317
      ],
      [
        "funk",
        -9.333935931109888
      ],
      [
        "▁Lippen",
        -9.334090994128871
      ],
      [
        "▁Inter",
        -9.334106812582542
      ],
      [
        "▁sieben",
        -9.334152708408585
      ],
      [
        "▁Hel",
        -9.334636143146085
      ],
      [
        "▁persönlich",
        -9.334767724678063
      ],
      [
        "▁Weise",
        -9.335221333458861
      ],
      [
        "gegangen",
        -9.335515660357535
      ],
      [
        "▁erzählt",
        -9.335705948725945
      ],
      [
        "▁darin",
        -9.335724187804281
      ],
      [
        "▁Stunden",
        -9.335995726117705
      ],
      [
        "▁Nutz",
        -9.336084233390942
      ],
      [
        "▁Vorteile",
        -9.336357056644822
      ],
      [
        "▁Wider",
        -9.337068759806332
      ],
      [
        "ember",
        -9.337304270951234
      ],
      [
        "▁Schweiz",
        -9.337417257507251
      ],
      [
        "▁verändert",
        -9.337493771672461
      ],
      [
        "▁Frauen",
        -9.337805311797748
      ],
      [
        "isiert",
        -9.338365411844295
      ],
      [
        "▁Markt",
        -9.338605276582673
      ],
      [
        "müs",
        -9.33869955626072
      ],
      [
        "▁kennen",
        -9.339080228137188
      ],
      [
        "klassisch-barock",
        -9.339701532369244
      ],
      [
        "▁Anwend",
        -9.340592267723341
      ],
      [
        "worden",
        -9.341065497493815
      ],
      [
        "▁erleben",
        -9.341733229766023
      ],
      [
        "▁Boten",
        -9.342051839204519
      ],
      [
        "▁einge",
        -9.342093726752205
      ],
      [
        "beziehung",
        -9.342639761286145
      ],
      [
        "ierte",
        -9.343002582888131
      ],
      [
        "▁Göttingen",
        -9.343249072768407
      ],
      [
        "▁verteidigen",
        -9.343659778789501
      ],
      [
        "schutz",
        -9.343741788394448
      ],
      [
        "▁Laden",
        -9.344303240153424
      ],
      [
        "▁Boden",
        -9.34522203429075
      ],
      [
        "▁englisch",
        -9.345327568912355
      ],
      [
        "▁flohen",
        -9.345746741479612
      ],
      [
        "▁nimm",
        -9.346033027354624
      ],
      [
        "▁Hol",
        -9.34637249385684
      ],
      [
        "wagen",
        -9.346404979074746
      ],
      [
        "sverhältnisse",
        -9.34695896911297
      ],
      [
        "▁Test",
        -9.347301746195296
      ],
      [
        "▁Praxis",
        -9.347678220733993
      ],
      [
        "▁Coachings",
        -9.347691672798522
      ],
      [
        "▁starte",
        -9.348015814876286
      ],
      [
        "sk",
        -9.348569523237867
      ],
      [
        "▁Dank",
        -9.34902521053045
      ],
      [
        "▁verändern",
        -9.349057228551748
      ],
      [
        "irche",
        -9.350452752759157
      ],
      [
        "▁früher",
        -9.350736527412474
      ],
      [
        "▁Arztes",
        -9.35108258627682
      ],
      [
        "▁fielen",
        -9.351872860284873
      ],
      [
        "▁Oder",
        -9.352146638237995
      ],
      [
        "▁hundert",
        -9.352149153556574
      ],
      [
        "▁leer",
        -9.353065069860563
      ],
      [
        "▁beginnen",
        -9.353251639213399
      ],
      [
        "▁solle",
        -9.353504987251704
      ],
      [
        "▁schneller",
        -9.35423906187751
      ],
      [
        "▁musste",
        -9.3564674988367
      ],
      [
        "ler",
        -9.356859777558444
      ],
      [
        "▁Entwicklungs",
        -9.35758357554866
      ],
      [
        "▁tot.",
        -9.35803553681719
      ],
      [
        "▁Exi",
        -9.358255369519433
      ],
      [
        "träge",
        -9.359092412366515
      ],
      [
        "kampf",
        -9.360491074597881
      ],
      [
        "▁Wege",
        -9.360611027967602
      ],
      [
        "▁schließ",
        -9.36132750619061
      ],
      [
        "bel",
        -9.361633167503507
      ],
      [
        "▁Richt",
        -9.362119580044123
      ],
      [
        "▁sterben",
        -9.362179349493994
      ],
      [
        "ert",
        -9.362330192109013
      ],
      [
        "ständnis",
        -9.362958689728593
      ],
      [
        "▁per",
        -9.363059638576724
      ],
      [
        "ver",
        -9.36362541597176
      ],
      [
        "▁dürfen",
        -9.36370835155411
      ],
      [
        "▁führte",
        -9.363776280397992
      ],
      [
        "▁Worten",
        -9.363836930638607
      ],
      [
        "▁Mo",
        -9.364508674793404
      ],
      [
        "Boxen",
        -9.366679288014836
      ],
      [
        "räder",
        -9.367096574025135
      ],
      [
        "▁bleiben",
        -9.36735933472368
      ],
      [
        "▁gesund",
        -9.368364549263921
      ],
      [
        "leider",
        -9.36852635889366
      ],
      [
        "aufwand",
        -9.369417050975835
      ],
      [
        "▁Sieg",
        -9.369922553288943
      ],
      [
        "▁Kindes",
        -9.37004558953572
      ],
      [
        "▁kurze",
        -9.37048462278927
      ],
      [
        "▁Erst",
        -9.371247444056237
      ],
      [
        "agen",
        -9.3712994937412
      ],
      [
        "▁Lernen",
        -9.372524001600357
      ],
      [
        "gnet",
        -9.373018044504047
      ],
      [
        "▁wichtig",
        -9.373638689396518
      ],
      [
        "plan",
        -9.37388564517107
      ],
      [
        "▁Mä",
        -9.373938379637277
      ],
      [
        "▁kleiner",
        -9.374327032708528
      ],
      [
        "6",
        -9.374599684534111
      ],
      [
        "▁sp",
        -9.374998700531243
      ],
      [
        "tlichen",
        -9.376186730845767
      ],
      [
        "▁beste",
        -9.376509135782218
      ],
      [
        "▁sollen",
        -9.376580350950912
      ],
      [
        "▁Irgendw",
        -9.379293447587862
      ],
      [
        "tionen",
        -9.380214787548809
      ],
      [
        "▁z",
        -9.380772048930027
      ],
      [
        "▁Urias",
        -9.381508643620876
      ],
      [
        "▁Fach",
        -9.383538249775427
      ],
      [
        "gekommen.",
        -9.38407844994141
      ],
      [
        "▁De",
        -9.385081790745208
      ],
      [
        "aden",
        -9.385499236355718
      ],
      [
        "ck",
        -9.387653189295037
      ],
      [
        "▁Knechten",
        -9.39227190275582
      ],
      [
        "iger",
        -9.392543065185492
      ],
      [
        "▁glaube",
        -9.398846594370198
      ],
      [
        "▁gestellt",
        -9.399760092433628
      ],
      [
        "weisen",
        -9.401809553503675
      ],
      [
        "▁biobasierte",
        -9.401912550187966
      ],
      [
        "▁Geschäft",
        -9.404926182341487
      ],
      [
        "▁12",
        -9.405668665614574
      ],
      [
        "gefragt",
        -9.406184130023803
      ],
      [
        "etzt",
        -9.407224757075412
      ],
      [
        "▁wa",
        -9.409580697944321
      ],
      [
        "greifen",
        -9.409875982869865
      ],
      [
        "▁Straßen",
        -9.411118150787292
      ],
      [
        "▁Verm",
        -9.411673796516027
      ],
      [
        "▁Hat",
        -9.411717520972713
      ],
      [
        "anz",
        -9.413359166363318
      ],
      [
        "▁War",
        -9.41402376870213
      ],
      [
        "ähigkeit",
        -9.414114400081466
      ],
      [
        "son",
        -9.414263801913442
      ],
      [
        "tlich",
        -9.415742130816076
      ],
      [
        "▁hart",
        -9.417208568232557
      ],
      [
        "ro",
        -9.418744499236277
      ],
      [
        "▁Dinge",
        -9.419511108989855
      ],
      [
        "▁Wo",
        -9.420548355841591
      ],
      [
        "zeit",
        -9.421213342125888
      ],
      [
        "brauchen",
        -9.423769041998698
      ],
      [
        "sen",
        -9.423780104788229
      ],
      [
        "▁Si",
        -9.423997407253085
      ],
      [
        "▁versch",
        -9.424776403323829
      ],
      [
        "halt",
        -9.425392681382638
      ],
      [
        "nehmensberater",
        -9.425812049195153
      ],
      [
        "ong",
        -9.427569287515349
      ],
      [
        "wört",
        -9.429315450726326
      ],
      [
        "▁umge",
        -9.430499255357812
      ],
      [
        "▁5",
        -9.431067107209643
      ],
      [
        "▁ei",
        -9.431211469845104
      ],
      [
        "▁Lehre",
        -9.432999121447123
      ],
      [
        "bare",
        -9.433810967933931
      ],
      [
        "rige",
        -9.435413174920786
      ],
      [
        "▁stand",
        -9.436398088740685
      ],
      [
        "▁dar",
        -9.43673601634121
      ],
      [
        "▁eng",
        -9.437615626424446
      ],
      [
        "▁anzu",
        -9.440202376247097
      ],
      [
        "▁Oper",
        -9.440363061555866
      ],
      [
        "roh",
        -9.441137277039894
      ],
      [
        "▁extrem",
        -9.441482808884889
      ],
      [
        "▁Prozesse",
        -9.442847504483778
      ],
      [
        "▁gewisse",
        -9.443050939250593
      ],
      [
        "ieÃŸ",
        -9.443513159474477
      ],
      [
        "▁201",
        -9.4442858072996
      ],
      [
        "chwanger",
        -9.445088316938723
      ],
      [
        "▁Gespräche",
        -9.447760720854696
      ],
      [
        "geführt",
        -9.447935052948125
      ],
      [
        "ätz",
        -9.449193286574573
      ],
      [
        "▁Abe",
        -9.451055916387235
      ],
      [
        "▁Zeiten",
        -9.451200895158768
      ],
      [
        "gestellt",
        -9.452428459305283
      ],
      [
        "▁Beha",
        -9.454952403268019
      ],
      [
        "▁besonder",
        -9.4550664582886
      ],
      [
        "▁irgendw",
        -9.456880027649376
      ],
      [
        "▁manch",
        -9.457754031633442
      ],
      [
        "▁Forschung",
        -9.457946313009174
      ],
      [
        "nterstütz",
        -9.458353519369616
      ],
      [
        "▁v",
        -9.458939756026188
      ],
      [
        "▁Ro",
        -9.461264644080213
      ],
      [
        "▁Bas",
        -9.464925218240735
      ],
      [
        "wegen",
        -9.465087504819156
      ],
      [
        "haus",
        -9.466717295425697
      ],
      [
        "▁angeb",
        -9.47001320018206
      ],
      [
        "▁R.",
        -9.474007213713984
      ],
      [
        "▁Se",
        -9.474184260487931
      ],
      [
        "spiel",
        -9.475153582757601
      ],
      [
        "standen",
        -9.476257520121997
      ],
      [
        "▁Dein",
        -9.476904214537223
      ],
      [
        "▁Führungs",
        -9.47697714628409
      ],
      [
        "M",
        -9.47797472722137
      ],
      [
        "▁Sa",
        -9.480421640721156
      ],
      [
        "▁Men",
        -9.480782555177221
      ],
      [
        "teuer",
        -9.481109522390643
      ],
      [
        "▁beruflich",
        -9.482138335643937
      ],
      [
        "▁gleich",
        -9.48237573013556
      ],
      [
        "mmer",
        -9.48364520898712
      ],
      [
        "▁Handel",
        -9.48407036736126
      ],
      [
        "bild",
        -9.485367712760869
      ],
      [
        "▁vieler",
        -9.486203213616594
      ],
      [
        "▁Kon",
        -9.488010415047217
      ],
      [
        "▁Hab",
        -9.48952360355928
      ],
      [
        "eziehung",
        -9.489563386096279
      ],
      [
        "erade",
        -9.491079418477952
      ],
      [
        "▁bestimmte",
        -9.491717272127033
      ],
      [
        "▁unser",
        -9.491988959846768
      ],
      [
        "weg",
        -9.493178790042553
      ],
      [
        "▁To",
        -9.493439673675141
      ],
      [
        "▁schöne",
        -9.49369501916063
      ],
      [
        "8",
        -9.495310877204128
      ],
      [
        "Ã1⁄4",
        -9.495897647579755
      ],
      [
        "schließen",
        -9.496571431675292
      ],
      [
        "▁60",
        -9.49664841433388
      ],
      [
        "▁Oh",
        -9.496676658884343
      ],
      [
        "▁niema",
        -9.49753924169199
      ],
      [
        "ell",
        -9.497819364045801
      ],
      [
        "schlagen",
        -9.498486727916218
      ],
      [
        "hand",
        -9.500268947101308
      ],
      [
        "lassen",
        -9.501449506613127
      ],
      [
        "alten",
        -9.501632704678181
      ],
      [
        "▁„In",
        -9.501836660185294
      ],
      [
        "▁Sinn",
        -9.504796886964254
      ],
      [
        "weis",
        -9.505383517081247
      ],
      [
        "ken",
        -9.505471755540096
      ],
      [
        "fäll",
        -9.506459738916272
      ],
      [
        "▁setzt",
        -9.506544927796089
      ],
      [
        "▁spielt",
        -9.510968550726586
      ],
      [
        "▁Philosoph",
        -9.511464529705837
      ],
      [
        "▁Gespräch",
        -9.511930970588233
      ],
      [
        "kommen",
        -9.512588595449579
      ],
      [
        "▁Lös",
        -9.513537380722928
      ],
      [
        "G",
        -9.51424033485708
      ],
      [
        "▁Lau",
        -9.51643289854236
      ],
      [
        "er.",
        -9.516579673767666
      ],
      [
        "▁letzt",
        -9.517176453683659
      ],
      [
        "ls",
        -9.518113990900211
      ],
      [
        "lei",
        -9.518548406457738
      ],
      [
        "mil",
        -9.518665969991403
      ],
      [
        "▁Lehr",
        -9.519866912018461
      ],
      [
        "ine",
        -9.519950207763687
      ],
      [
        "▁Prozess",
        -9.521739407351198
      ],
      [
        "werden",
        -9.52332743002791
      ],
      [
        "▁Act!",
        -9.525529537836471
      ],
      [
        "ust",
        -9.526251280034984
      ],
      [
        "▁90",
        -9.528670675501896
      ],
      [
        "▁Mass",
        -9.530121096706482
      ],
      [
        "▁Eigen",
        -9.53123930416494
      ],
      [
        "▁Ti",
        -9.532043954320034
      ],
      [
        "▁darau",
        -9.535924747573004
      ],
      [
        "▁frühe",
        -9.539276885629999
      ],
      [
        "▁Co",
        -9.539899099681463
      ],
      [
        "tel",
        -9.540000595633849
      ],
      [
        "▁älter",
        -9.540574706747954
      ],
      [
        "rung",
        -9.541009213527778
      ],
      [
        "ad",
        -9.543017647856555
      ],
      [
        "▁Nä",
        -9.544039055868932
      ],
      [
        "▁Neue",
        -9.546277433236606
      ],
      [
        "bst",
        -9.54739779293423
      ],
      [
        "▁„W",
        -9.547449792453005
      ],
      [
        "id",
        -9.547799036268966
      ],
      [
        "hause",
        -9.548163385887923
      ],
      [
        "ßt",
        -9.54848738445873
      ],
      [
        "▁h",
        -9.548498896652285
      ],
      [
        "om",
        -9.54872775815416
      ],
      [
        "▁fu",
        -9.549901830632603
      ],
      [
        "▁gel",
        -9.550809733960726
      ],
      [
        "▁Ga",
        -9.554025933513524
      ],
      [
        "▁Abs",
        -9.554697312935568
      ],
      [
        "by",
        -9.555218558852847
      ],
      [
        "sg",
        -9.555246860342203
      ],
      [
        "eite",
        -9.55608831736058
      ],
      [
        "igt",
        -9.558867543801327
      ],
      [
        "▁könne",
        -9.55978278320731
      ],
      [
        "▁rechte",
        -9.561397863662226
      ],
      [
        "Ein",
        -9.562063129705326
      ],
      [
        "▁Geschäfts",
        -9.564273243681576
      ],
      [
        "▁direkte",
        -9.564651959630694
      ],
      [
        "unter",
        -9.56597479668083
      ],
      [
        "Ã¶",
        -9.567396516769605
      ],
      [
        "Afrika",
        -9.568911115552838
      ],
      [
        "gefähr",
        -9.57187689602552
      ],
      [
        "ckt",
        -9.573362082321342
      ],
      [
        "rf",
        -9.576960963944833
      ],
      [
        "▁klein",
        -9.577455391423005
      ],
      [
        "▁lasse",
        -9.578286900022501
      ],
      [
        "als",
        -9.578934355974248
      ],
      [
        "gesetzt",
        -9.57894984502906
      ],
      [
        "rei",
        -9.580163862613269
      ],
      [
        "gekommen",
        -9.580774825183777
      ],
      [
        "▁fragt",
        -9.583237266913653
      ],
      [
        "rieren",
        -9.583469088857912
      ],
      [
        "stag",
        -9.584434526280688
      ],
      [
        "ja",
        -9.585349433863051
      ],
      [
        "schung",
        -9.585770629237325
      ],
      [
        "hält",
        -9.586740385063173
      ],
      [
        "▁p",
        -9.59029414436635
      ],
      [
        "erien",
        -9.590566543325732
      ],
      [
        "▁we",
        -9.590748666971022
      ],
      [
        "▁Straße",
        -9.590827386257082
      ],
      [
        "iten",
        -9.59149014952936
      ],
      [
        "statt",
        -9.591617288173653
      ],
      [
        "▁ex",
        -9.592426302119515
      ],
      [
        "▁zieh",
        -9.592549638903325
      ],
      [
        "reichen",
        -9.597251970247008
      ],
      [
        "hr",
        -9.597366802059769
      ],
      [
        "nien",
        -9.600768465490816
      ],
      [
        "▁8",
        -9.603091615987935
      ],
      [
        "tätig",
        -9.604837756871552
      ],
      [
        "ock",
        -9.606238151889364
      ],
      [
        "nt",
        -9.606311497547217
      ],
      [
        "▁zeige",
        -9.60659231791576
      ],
      [
        "sagen",
        -9.607170767739682
      ],
      [
        "▁seien",
        -9.60734969056969
      ],
      [
        "▁Deutsch",
        -9.607510422608573
      ],
      [
        "elten",
        -9.60793906230035
      ],
      [
        "ator",
        -9.609423642952368
      ],
      [
        "▁komm",
        -9.610885074976752
      ],
      [
        "Deutschland",
        -9.61192495388053
      ],
      [
        "▁Fe",
        -9.612488954816747
      ],
      [
        "ßen",
        -9.614822073961063
      ],
      [
        "apie",
        -9.618120691664833
      ],
      [
        "ahl",
        -9.622920148495908
      ],
      [
        "▁Konflikte",
        -9.623118146378213
      ],
      [
        "ik",
        -9.62367898905892
      ],
      [
        "ster",
        -9.624633993806103
      ],
      [
        "▁erw",
        -9.626162048593857
      ],
      [
        "'",
        -9.62640574892711
      ],
      [
        "-Festplatte",
        -9.628000141519436
      ],
      [
        "nen",
        -9.62834104738744
      ],
      [
        "▁Anh",
        -9.628641886752101
      ],
      [
        "▁Persönlichkeit",
        -9.629771821693716
      ],
      [
        "ü",
        -9.630027655891721
      ],
      [
        "gesamt",
        -9.630712094829104
      ],
      [
        "ätze",
        -9.632745141538317
      ],
      [
        "greift",
        -9.63284451597659
      ],
      [
        "twa",
        -9.633431183112627
      ],
      [
        "▁oben",
        -9.635592536903523
      ],
      [
        "▁11",
        -9.635934381455309
      ],
      [
        "von",
        -9.636133050055744
      ],
      [
        "urz",
        -9.637256079613698
      ],
      [
        "▁Klasse",
        -9.637327091514262
      ],
      [
        "▁Mobb",
        -9.638324157850045
      ],
      [
        "art",
        -9.639511936881023
      ],
      [
        "omas",
        -9.639900519056853
      ],
      [
        "ne",
        -9.64190841692796
      ],
      [
        "▁En",
        -9.643040733858832
      ],
      [
        "▁nä",
        -9.643757009341002
      ],
      [
        "ntsprechend",
        -9.64591023127034
      ],
      [
        "▁versucht",
        -9.646603488245217
      ],
      [
        "▁Is",
        -9.647152162795749
      ],
      [
        "▁Zahl",
        -9.647488801832338
      ],
      [
        "▁Dan",
        -9.648379904866076
      ],
      [
        "▁Klient",
        -9.64921056535703
      ],
      [
        "▁morgen",
        -9.649441860519378
      ],
      [
        "▁Frau",
        -9.649657804516325
      ],
      [
        "dienst",
        -9.651370878253429
      ],
      [
        "ort",
        -9.652530898795685
      ],
      [
        "▁Form",
        -9.654131153659689
      ],
      [
        "▁gro",
        -9.656148822621976
      ],
      [
        "▁Gott",
        -9.65622530238839
      ],
      [
        "▁Mil",
        -9.656293650615739
      ],
      [
        "▁Fähigkeit",
        -9.656312383309583
      ],
      [
        "loss",
        -9.65648860799039
      ],
      [
        "tritt",
        -9.657643465017136
      ],
      [
        "inform",
        -9.657821715032169
      ],
      [
        "▁Besch",
        -9.658470655265315
      ],
      [
        "▁sog",
        -9.659193618297124
      ],
      [
        "▁Psych",
        -9.659702739409425
      ],
      [
        "uar",
        -9.659835865674843
      ],
      [
        "rklärung",
        -9.66025509471865
      ],
      [
        "wir",
        -9.660294691019036
      ],
      [
        "▁verhält",
        -9.660504715288829
      ],
      [
        "▁Coaching",
        -9.660526433237838
      ],
      [
        "IN",
        -9.660628240984286
      ],
      [
        "▁Anfang",
        -9.661881705825031
      ],
      [
        "▁Katholik",
        -9.661887659088901
      ],
      [
        "▁Düsseldorf",
        -9.661887659088986
      ],
      [
        "▁Restaurant",
        -9.661887659089563
      ],
      [
        "▁Verzweiflung",
        -9.661887659091079
      ],
      [
        "▁Universität",
        -9.661887659091782
      ],
      [
        "▁Giovanna",
        -9.661887659099207
      ],
      [
        "▁Beißhemmung",
        -9.661887659099795
      ],
      [
        "NZTC",
        -9.66188765911963
      ],
      [
        "▁Authentizität",
        -9.661887659124963
      ],
      [
        "▁Antiepileptik",
        -9.661887659127812
      ],
      [
        "▁medizinische",
        -9.661887659268087
      ],
      [
        "▁Industrie",
        -9.661887659343293
      ],
      [
        "▁Propheten",
        -9.661887659363998
      ],
      [
        "▁Frankreich",
        -9.66188765960717
      ],
      [
        "sozio-emotionale",
        -9.661887660025945
      ],
      [
        "▁promoviert",
        -9.66188766038622
      ],
      [
        "▁Ägypte",
        -9.66188766038848
      ],
      [
        "▁interessant",
        -9.661887661510335
      ],
      [
        "▁kontrollier",
        -9.661887661743854
      ],
      [
        "▁Weltkrieg",
        -9.661887662343904
      ],
      [
        "▁Franzose",
        -9.661887662909908
      ],
      [
        "▁Konzept",
        -9.6618876636975
      ],
      [
        "▁Hadadeser",
        -9.661887663714374
      ],
      [
        "Selbsterkenntnis",
        -9.661887665414405
      ],
      [
        "▁Neonazi",
        -9.661887665886074
      ],
      [
        "▁regelmäßig",
        -9.661887666111024
      ],
      [
        "▁Konkurren",
        -9.661887666300084
      ],
      [
        "▁Möglichkeit",
        -9.66188766657668
      ],
      [
        "▁Betroffen",
        -9.661887666860606
      ],
      [
        "klusiv",
        -9.661887666939654
      ],
      [
        "▁Bedeutung",
        -9.661887667414694
      ],
      [
        "▁Donnerstag",
        -9.661887671410014
      ],
      [
        "▁trotzdem",
        -9.661887672424822
      ],
      [
        "▁Migration",
        -9.661887672774064
      ],
      [
        "industrie",
        -9.661887675919088
      ],
      [
        "▁biologisch",
        -9.661887679302389
      ],
      [
        "▁Höchst",
        -9.661887687403508
      ],
      [
        "▁Religion",
        -9.661887700974729
      ],
      [
        "▁Amerika",
        -9.661887711278528
      ],
      [
        "▁Verantwort",
        -9.661887726485885
      ],
      [
        "▁Fremdenhass",
        -9.661887730881949
      ],
      [
        "▁Kräfte",
        -9.661887749514712
      ],
      [
        "▁Hybrid-",
        -9.66188776784123
      ],
      [
        "▁Sparring",
        -9.661887780602237
      ],
      [
        "▁beobachtet",
        -9.66188779757541
      ],
      [
        "▁Methode",
        -9.661887804474055
      ],
      [
        "▁Rabatt",
        -9.661887808047748
      ],
      [
        "▁Taktik",
        -9.66188782571668
      ],
      [
        "zeichnet",
        -9.661887842930902
      ],
      [
        "▁IHK",
        -9.661887850877681
      ],
      [
        "▁arabische",
        -9.661887882992644
      ],
      [
        "▁automatisch",
        -9.661887906775547
      ],
      [
        "▁männliche",
        -9.661887916736193
      ],
      [
        "▁Behörden",
        -9.661887928027358
      ],
      [
        "orientierte",
        -9.661888094000819
      ],
      [
        "▁profitier",
        -9.661888115213111
      ],
      [
        "▁Kalif",
        -9.661888136420961
      ],
      [
        "kompliziert",
        -9.661888197523204
      ],
      [
        "▁Premier",
        -9.66188826506728
      ],
      [
        "▁Balkan",
        -9.661888489122308
      ],
      [
        "forderung",
        -9.661888635893497
      ],
      [
        "eriphere",
        -9.661888720337261
      ],
      [
        "▁Nerven",
        -9.661889016830436
      ],
      [
        "▁Papst",
        -9.661889305779209
      ],
      [
        "▁Rezept",
        -9.661889815140636
      ],
      [
        "▁Höhe",
        -9.661889916623327
      ],
      [
        "▁Städte",
        -9.661890212356003
      ],
      [
        "▁gemeinsam",
        -9.66189039885995
      ],
      [
        "wechsel",
        -9.661890570381692
      ],
      [
        "▁MS-",
        -9.661891052522979
      ],
      [
        "▁psychologisch",
        -9.661891439851022
      ],
      [
        "▁Kontroll",
        -9.661891442935795
      ],
      [
        "online",
        -9.661891904628098
      ],
      [
        "Gordon",
        -9.6618921603241
      ],
      [
        "▁Gegenwart",
        -9.661892217371644
      ],
      [
        "▁bemerken",
        -9.661895566391836
      ],
      [
        "▁Nahrungsmittel",
        -9.661895579595628
      ],
      [
        "▁genutzt",
        -9.661895808696606
      ],
      [
        "usiness-",
        -9.661897326317241
      ],
      [
        "Nostrum",
        -9.661898365655297
      ],
      [
        "igital",
        -9.661901352193974
      ],
      [
        "▁Erkrankung",
        -9.661901614649528
      ],
      [
        "▁Glück",
        -9.661901835820029
      ],
      [
        "▁verhaftet",
        -9.66190323701481
      ],
      [
        "▁berührt",
        -9.661903446402194
      ],
      [
        "▁Antwort",
        -9.66190351052376
      ],
      [
        "▁übersteigt",
        -9.661903671909327
      ],
      [
        "▁studiert",
        -9.66190577816903
      ],
      [
        "▁Gewalt",
        -9.661906014335457
      ],
      [
        "▁Tausende",
        -9.661906401163415
      ],
      [
        "▁Gegenangriff",
        -9.661906904564216
      ],
      [
        "▁Kontext",
        -9.661907883826785
      ],
      [
        "▁Vorstands",
        -9.66190808359435
      ],
      [
        "▁Kleinkindzimmer",
        -9.661908212843933
      ],
      [
        "▁gestrichen",
        -9.661913796691955
      ],
      [
        "▁Einwander",
        -9.66191682863527
      ],
      [
        "▁Geschäftsführ",
        -9.661919087703897
      ],
      [
        "▁Weiterbildung",
        -9.661925313887453
      ],
      [
        "▁Park",
        -9.66192746629054
      ],
      [
        "▁Vorschul",
        -9.661929152170737
      ],
      [
        "sicherheit",
        -9.661929384304537
      ],
      [
        "▁Boot",
        -9.661932865520914
      ],
      [
        "▁Ängste",
        -9.661934759316313
      ],
      [
        "▁stößt",
        -9.661936775445035
      ],
      [
        "▁übermittelt",
        -9.661937147353047
      ],
      [
        "▁Jugend",
        -9.661940347893797
      ],
      [
        "▁vergessen",
        -9.66194428674311
      ],
      [
        "▁Mitglieder",
        -9.661945831555835
      ],
      [
        "▁Kraftfahrzeug",
        -9.661958849423863
      ],
      [
        "▁entgegen",
        -9.661961229704298
      ],
      [
        "▁Video",
        -9.661963128032372
      ],
      [
        "▁Kapit",
        -9.661969292450312
      ],
      [
        "▁fachlich",
        -9.66197008539982
      ],
      [
        "▁Gesetz",
        -9.661977673470709
      ],
      [
        "▁Montag",
        -9.661995986858111
      ],
      [
        "▁Imperi",
        -9.662001286667568
      ],
      [
        "▁fehlt",
        -9.662001437023767
      ],
      [
        "▁Radikal",
        -9.662004170817935
      ],
      [
        "nonym",
        -9.66200865770764
      ],
      [
        "▁Begriff",
        -9.662011353365887
      ],
      [
        "wirkungen",
        -9.662017310314587
      ],
      [
        "▁Fahrrad",
        -9.662026384133451
      ],
      [
        "▁Pflanze",
        -9.662027020454175
      ],
      [
        "isch",
        -9.662046953344444
      ],
      [
        "▁PKW",
        -9.662051376648574
      ],
      [
        "▁Klar",
        -9.662059727551714
      ],
      [
        "▁sitzt",
        -9.662067325427156
      ],
      [
        "▁abzubauen",
        -9.662071397215119
      ],
      [
        "▁normal",
        -9.662076850970971
      ],
      [
        "▁Terror",
        -9.662082257867311
      ],
      [
        "▁erreichte",
        -9.662093185907583
      ],
      [
        "▁Hanun",
        -9.662099577356186
      ],
      [
        "▁Doppel",
        -9.662112656085098
      ],
      [
        "▁belager",
        -9.662114907996113
      ],
      [
        "▁USA",
        -9.662127425699556
      ],
      [
        "▁fastete",
        -9.662132555130434
      ],
      [
        "▁kürz",
        -9.662143743874804
      ],
      [
        "▁Häufig",
        -9.662157092909005
      ],
      [
        "▁Natur",
        -9.662157549919762
      ],
      [
        "▁Situation",
        -9.662161594499699
      ],
      [
        "komplexe",
        -9.662164610261886
      ],
      [
        "▁2015",
        -9.662174993016286
      ],
      [
        "▁hielt",
        -9.662175704550123
      ],
      [
        "▁Hostie",
        -9.662184823320175
      ],
      [
        "▁Überleben",
        -9.662219156578828
      ],
      [
        "▁beträgt",
        -9.662224056208258
      ],
      [
        "▁Wolf",
        -9.662226851758405
      ],
      [
        "▁abends",
        -9.662235858986374
      ],
      [
        "▁Strand",
        -9.662244261266482
      ],
      [
        "▁größer",
        -9.6622461577434
      ],
      [
        "▁näher",
        -9.662283958295149
      ],
      [
        "▁kaufst",
        -9.662294760121052
      ],
      [
        "▁Einfluss",
        -9.662305002144528
      ],
      [
        "▁1993",
        -9.662310492061511
      ],
      [
        "▁Gruppe",
        -9.662329196636193
      ],
      [
        "▁Hub",
        -9.66233401038609
      ],
      [
        "▁Erkenn",
        -9.662352569883804
      ],
      [
        "▁Bindung",
        -9.662360392775298
      ],
      [
        "▁ausländische",
        -9.662398140142415
      ],
      [
        "hy",
        -9.662408757422929
      ],
      [
        "▁Kraft",
        -9.662410197648162
      ],
      [
        "▁Schlaf",
        -9.662440404999597
      ],
      [
        "▁Start",
        -9.662501546883531
      ],
      [
        "▁angegriffen",
        -9.662514328680643
      ],
      [
        "▁stammt",
        -9.662515761501885
      ],
      [
        "▁Öff",
        -9.662534295088049
      ],
      [
        "▁200",
        -9.662541217029412
      ],
      [
        "AS",
        -9.662554249942549
      ],
      [
        "▁galt",
        -9.662595988253896
      ],
      [
        "IE",
        -9.662614635574457
      ],
      [
        "▁abgelegt",
        -9.662620463802698
      ],
      [
        "▁Aktivität",
        -9.662666605055081
      ],
      [
        "▁Präs",
        -9.662685798674413
      ],
      [
        "▁Attacke",
        -9.662715348890409
      ],
      [
        "▁kW",
        -9.662807743970076
      ],
      [
        "▁Weiß",
        -9.662829636216598
      ],
      [
        "▁sitzen",
        -9.6628391699331
      ],
      [
        "▁Schulz",
        -9.662858192932628
      ],
      [
        "▁empfehlenswert",
        -9.662888305925424
      ],
      [
        "▁Gewicht",
        -9.662929006911927
      ],
      [
        "▁Dadurch",
        -9.662948657355148
      ],
      [
        "▁Mahl",
        -9.662988658546947
      ],
      [
        "▁empf",
        -9.663003224841166
      ],
      [
        "gestalte",
        -9.663007860973504
      ],
      [
        "▁Engl",
        -9.663072503588074
      ],
      [
        "▁praktisch",
        -9.663136703177706
      ],
      [
        "▁boxt",
        -9.663179528472769
      ],
      [
        "▁Tod",
        -9.66320157146247
      ],
      [
        "▁Baby",
        -9.663241655409673
      ],
      [
        "▁veröffentlich",
        -9.663245157030145
      ],
      [
        "▁Welche",
        -9.66328285361039
      ],
      [
        "▁Bewerber",
        -9.663302377440454
      ],
      [
        "mobb",
        -9.663325119899469
      ],
      [
        "▁Fehler",
        -9.663339373742012
      ],
      [
        "-Ad",
        -9.663347697135906
      ],
      [
        "▁ausreichend",
        -9.663388371713669
      ],
      [
        "▁benötigt",
        -9.66343916352236
      ],
      [
        "▁beschäftigt",
        -9.663475396097919
      ],
      [
        "▁endlich",
        -9.663491603972254
      ],
      [
        "anteil",
        -9.663530054468701
      ],
      [
        "wächst",
        -9.663563945947644
      ],
      [
        "EX",
        -9.663654980435032
      ],
      [
        "▁lebendig",
        -9.663696277802272
      ],
      [
        "▁Bundes",
        -9.66381967088251
      ],
      [
        "▁Neben",
        -9.663835407955087
      ],
      [
        "▁Boxc",
        -9.663913230720532
      ],
      [
        "▁Geld",
        -9.663941656631362
      ],
      [
        "▁Süd",
        -9.66398427664884
      ],
      [
        "▁speichern",
        -9.664097181852123
      ],
      [
        "▁eingesetzt",
        -9.664118399223533
      ],
      [
        "schrank",
        -9.664296549725789
      ],
      [
        "2018",
        -9.664353880101107
      ],
      [
        "▁still",
        -9.66451813268607
      ],
      [
        "wirtschaft",
        -9.66477037098037
      ],
      [
        "▁auftritt",
        -9.664842939015468
      ],
      [
        "▁Fä",
        -9.664914967573733
      ],
      [
        "▁Schwellungen",
        -9.665067077760783
      ],
      [
        "▁trafen",
        -9.665086174344284
      ],
      [
        "▁„Mi",
        -9.665235339253805
      ],
      [
        "▁auszu",
        -9.665459073399898
      ],
      [
        "▁Brand",
        -9.665569914258747
      ],
      [
        "app",
        -9.66558204044698
      ],
      [
        "rief",
        -9.66575719493989
      ],
      [
        "▁erhöht",
        -9.665852936869536
      ],
      [
        "▁Frieden",
        -9.666130017383674
      ],
      [
        "▁Schnee",
        -9.666137404372352
      ],
      [
        "▁bekommt",
        -9.666624507760318
      ],
      [
        "▁Bundesver",
        -9.666776925806154
      ],
      [
        "▁Sitzung",
        -9.667270474096593
      ],
      [
        "▁Gelegenheit",
        -9.66728722319097
      ],
      [
        "▁Linke",
        -9.667441743466474
      ],
      [
        "gute",
        -9.66747942387373
      ],
      [
        "▁erobert",
        -9.66759244691095
      ],
      [
        "▁Gottes",
        -9.667628247143394
      ],
      [
        "▁beantworte",
        -9.667819558035479
      ],
      [
        "▁Partnerin",
        -9.668016521872921
      ],
      [
        "▁größten",
        -9.668144394723825
      ],
      [
        "▁Gedanken",
        -9.668184233533859
      ],
      [
        "▁Todes",
        -9.668333256672433
      ],
      [
        "▁tut",
        -9.66840993064833
      ],
      [
        "▁lebt",
        -9.668430400488518
      ],
      [
        "▁Kleider",
        -9.668695825905704
      ],
      [
        "-Tou",
        -9.669129386754982
      ],
      [
        "▁Psychoanalyse",
        -9.669469623387384
      ],
      [
        "▁gehören",
        -9.670087748861185
      ],
      [
        "▁Job",
        -9.670520167763563
      ],
      [
        "▁verwenden",
        -9.670580068437477
      ],
      [
        "betrieb",
        -9.670907231286725
      ],
      [
        "▁Haushalt",
        -9.67092467300395
      ],
      [
        "▁nette",
        -9.670960771946197
      ],
      [
        "▁Haut",
        -9.671035210078042
      ],
      [
        "▁toll",
        -9.671060562535748
      ],
      [
        "▁derzeitige",
        -9.671320805743616
      ],
      [
        "sge",
        -9.67143529111991
      ],
      [
        "liefert",
        -9.671448144916727
      ],
      [
        "▁Fernsehe",
        -9.671484862712338
      ],
      [
        "drück",
        -9.671640061872361
      ],
      [
        "▁beweg",
        -9.671907764627981
      ],
      [
        "▁aufge",
        -9.671921076091449
      ],
      [
        "▁tief",
        -9.671946284408758
      ],
      [
        "▁interessiert",
        -9.671994606560881
      ],
      [
        "▁merkte",
        -9.672255617553429
      ],
      [
        "▁Alt",
        -9.672709889389663
      ],
      [
        "▁leiden",
        -9.672823784945457
      ],
      [
        "▁Schweizer",
        -9.673015617081091
      ],
      [
        "▁verursacht",
        -9.673165821552582
      ],
      [
        "▁Schmerzen",
        -9.673290650337469
      ],
      [
        "▁Ehe",
        -9.673323629368078
      ],
      [
        "▁vorbei",
        -9.674136863355221
      ],
      [
        "▁abzu",
        -9.674258896746641
      ],
      [
        "▁Reiter",
        -9.674416483681265
      ],
      [
        "▁verletzt",
        -9.674525870238792
      ],
      [
        "35",
        -9.674556515549444
      ],
      [
        "tation",
        -9.67459031803108
      ],
      [
        "oben",
        -9.674928673860421
      ],
      [
        "▁diskutiert",
        -9.67511890926487
      ],
      [
        "Hersteller",
        -9.675320875203642
      ],
      [
        "▁menschlich",
        -9.675522233895347
      ],
      [
        "▁Formen",
        -9.675763472849841
      ],
      [
        "gebildet",
        -9.675922632535983
      ],
      [
        "▁Antriebs",
        -9.676071847412267
      ],
      [
        "▁geb",
        -9.676083659003211
      ],
      [
        "geschickt",
        -9.676365986037172
      ],
      [
        "▁Ernährung",
        -9.676894549941933
      ],
      [
        "anci",
        -9.6772251692043
      ],
      [
        "▁unterstützen",
        -9.677435197494574
      ],
      [
        "▁Mitarbeitern",
        -9.67745129556139
      ],
      [
        "▁23",
        -9.677492874949827
      ],
      [
        "hmen",
        -9.67754417659434
      ],
      [
        "▁versuchte",
        -9.677808055645993
      ],
      [
        "▁produziert",
        -9.677883674486118
      ],
      [
        "▁gut“",
        -9.677892229622074
      ],
      [
        "▁gehol",
        -9.677959294480628
      ],
      [
        "▁fÃ1⁄4r",
        -9.678072216316915
      ],
      [
        "▁entdeckt",
        -9.679057411386028
      ],
      [
        "lock",
        -9.679382897464441
      ],
      [
        "stört",
        -9.67976710279807
      ],
      [
        "oxi",
        -9.6801021744798
      ],
      [
        "gelegt",
        -9.680226152900474
      ],
      [
        "▁Richtig",
        -9.680482823966113
      ],
      [
        "▁verlieren",
        -9.680565047604889
      ],
      [
        "▁Ausbildungs",
        -9.681152507910705
      ],
      [
        "▁feiern",
        -9.681782707760226
      ],
      [
        "▁verbraucht",
        -9.681840210175329
      ],
      [
        "▁Event",
        -9.681986228155967
      ],
      [
        "-T",
        -9.68200336532205
      ],
      [
        "▁Dokumentation",
        -9.68205744876834
      ],
      [
        "erobern",
        -9.683500691851098
      ],
      [
        "▁rass",
        -9.683891885466204
      ],
      [
        "▁freuen",
        -9.684142750577394
      ],
      [
        "▁Rache",
        -9.68422555119108
      ],
      [
        "▁Autor",
        -9.68426385515799
      ],
      [
        "-Weihnacht",
        -9.684475478640726
      ],
      [
        "▁Presse",
        -9.684651941742374
      ],
      [
        "▁erkannte",
        -9.684766418267435
      ],
      [
        "iÃŸt",
        -9.68498022383091
      ],
      [
        "▁Nicht-",
        -9.685897460117708
      ],
      [
        "▁Alltags",
        -9.686282453113114
      ],
      [
        "fäng",
        -9.68642617560146
      ],
      [
        "▁Mare",
        -9.686863297221914
      ],
      [
        "▁Weitere",
        -9.686982925508747
      ],
      [
        "ga",
        -9.687054837951699
      ],
      [
        "ilitär",
        -9.68719518540686
      ],
      [
        "▁*",
        -9.68725635482123
      ],
      [
        "anische",
        -9.687743073408743
      ],
      [
        "▁kindliche",
        -9.687811271812578
      ],
      [
        "▁leisten",
        -9.688152685515957
      ],
      [
        "▁Banken",
        -9.688204725298341
      ],
      [
        "▁Leiden",
        -9.688375853180037
      ],
      [
        "▁wor",
        -9.688508283509574
      ],
      [
        "▁l",
        -9.688628134474335
      ],
      [
        "▁schaffen",
        -9.688928597573314
      ],
      [
        "▁verordnet",
        -9.689796283835179
      ],
      [
        "arten",
        -9.690338769131166
      ],
      [
        "ney",
        -9.690374403935623
      ],
      [
        "▁kannst",
        -9.691307526283653
      ],
      [
        "▁Akt",
        -9.691605037042795
      ],
      [
        "oment",
        -9.692349219819915
      ],
      [
        "▁jemanden",
        -9.692807914327652
      ],
      [
        "nsystemforschung",
        -9.693148916432197
      ],
      [
        "▁198",
        -9.693631512348814
      ],
      [
        "jahr",
        -9.694556422781156
      ],
      [
        "▁Schlüssel",
        -9.69488206943869
      ],
      [
        "eben",
        -9.696093513683591
      ],
      [
        "▁verwendet",
        -9.696443877041071
      ],
      [
        "▁Zell",
        -9.697161946575429
      ],
      [
        "▁Gut",
        -9.69724503984319
      ],
      [
        "li",
        -9.69737853434177
      ],
      [
        "▁KÃ¶nigs",
        -9.697477858946606
      ],
      [
        "brannt",
        -9.697806737290811
      ],
      [
        "▁früh",
        -9.698610445575572
      ],
      [
        "▁Zwecken",
        -9.699217917513641
      ],
      [
        "▁Car",
        -9.699227231971648
      ],
      [
        "national",
        -9.699453117979058
      ],
      [
        "▁Feinde",
        -9.70007773347681
      ],
      [
        "erlebnis",
        -9.701947927011165
      ],
      [
        "▁fahren",
        -9.70199473384784
      ],
      [
        "▁benötigen",
        -9.70281065322349
      ],
      [
        "▁versteh",
        -9.703276605775763
      ],
      [
        "▁teil",
        -9.703337550483017
      ],
      [
        "kurs",
        -9.703456428710313
      ],
      [
        "▁Ins",
        -9.704618528513816
      ],
      [
        "▁ges",
        -9.705310240145222
      ],
      [
        "▁Lehrern",
        -9.705360326951038
      ],
      [
        "ühler",
        -9.706683596820104
      ],
      [
        "ielleicht",
        -9.707354212861357
      ],
      [
        "ers",
        -9.70846719307179
      ],
      [
        "▁bestehen",
        -9.709111789301174
      ],
      [
        "▁stecken",
        -9.709589768779463
      ],
      [
        "▁frei",
        -9.710757439118487
      ],
      [
        "entscheidung",
        -9.710772562870682
      ],
      [
        "▁Mü",
        -9.71205733137179
      ],
      [
        "▁Ohn",
        -9.712437089262945
      ],
      [
        "▁Sonn",
        -9.71253170130121
      ],
      [
        "tur",
        -9.712712456636757
      ],
      [
        "▁fr",
        -9.712939256075504
      ],
      [
        "▁Hund",
        -9.713503124931195
      ],
      [
        "chrift",
        -9.713694895815738
      ],
      [
        "hl",
        -9.713995707133417
      ],
      [
        "isten",
        -9.714792876266332
      ],
      [
        "fe",
        -9.71496645694667
      ],
      [
        "▁26",
        -9.715369608662979
      ],
      [
        "nschläge",
        -9.71545980056789
      ],
      [
        "more",
        -9.717391908050203
      ],
      [
        "▁Personal",
        -9.717497939352965
      ],
      [
        "eln",
        -9.720404239005896
      ],
      [
        "▁ganze",
        -9.72064918278966
      ],
      [
        "▁Aggressionen",
        -9.72114664862173
      ],
      [
        "▁Bal",
        -9.721407458395314
      ],
      [
        "GB",
        -9.723313769238757
      ],
      [
        "ings",
        -9.72381881614228
      ],
      [
        "▁Mai",
        -9.724334010842984
      ],
      [
        "personal",
        -9.725221073556643
      ],
      [
        "▁„E",
        -9.725480211849007
      ],
      [
        "▁aufzeig",
        -9.725720087819647
      ],
      [
        "▁Herr",
        -9.72738675199864
      ],
      [
        "▁Balanc",
        -9.728145185522513
      ],
      [
        "swerte",
        -9.728285045226308
      ],
      [
        "▁Zug",
        -9.728479327937332
      ],
      [
        "▁interne",
        -9.729845060745031
      ],
      [
        "▁Schuld",
        -9.730776308452693
      ],
      [
        "▁Emo",
        -9.731075205682759
      ],
      [
        "▁verarbeite",
        -9.733078408147708
      ],
      [
        "▁gelten",
        -9.734170069005776
      ],
      [
        "hafte",
        -9.73446618870448
      ],
      [
        "▁lieben",
        -9.734947583650918
      ],
      [
        "▁üblich",
        -9.735239560867061
      ],
      [
        "wie",
        -9.735240941167405
      ],
      [
        "traße",
        -9.735604538971113
      ],
      [
        "▁Studie",
        -9.735750460705871
      ],
      [
        "treiben",
        -9.736202825636536
      ],
      [
        "▁Lekt",
        -9.736810016798776
      ],
      [
        "▁For",
        -9.737661441558794
      ],
      [
        "▁'",
        -9.73815536679325
      ],
      [
        "▁dein",
        -9.738674118468213
      ],
      [
        "▁Verd",
        -9.738785010336038
      ],
      [
        "te.",
        -9.738913537570278
      ],
      [
        "▁ml",
        -9.739224768149532
      ],
      [
        "▁Gl",
        -9.740338997280835
      ],
      [
        "öffentlichen",
        -9.741478892305068
      ],
      [
        "▁etliche",
        -9.742826849507681
      ],
      [
        "▁bringen",
        -9.74305013603803
      ],
      [
        "rfüll",
        -9.74439731164741
      ],
      [
        "▁streiten",
        -9.744574772463796
      ],
      [
        "rägt",
        -9.74672300078059
      ],
      [
        "▁Gehe",
        -9.747351852921616
      ],
      [
        "▁kamen",
        -9.748133328031043
      ],
      [
        "organ",
        -9.748281414578248
      ],
      [
        "chnitt",
        -9.748373787687633
      ],
      [
        "▁Zw",
        -9.748932206330466
      ],
      [
        "3.",
        -9.750512222125394
      ],
      [
        "ah",
        -9.750756579393672
      ],
      [
        "schied",
        -9.751618223739758
      ],
      [
        "▁zahlreiche",
        -9.753795709165278
      ],
      [
        "ünge",
        -9.754009483069728
      ],
      [
        "chluß",
        -9.754834072353002
      ],
      [
        "▁to",
        -9.75494311306781
      ],
      [
        "the",
        -9.756813854875492
      ],
      [
        "▁entsprechende",
        -9.757059797458648
      ],
      [
        "aufe",
        -9.758666408403332
      ],
      [
        "▁hand",
        -9.75991086730017
      ],
      [
        "▁Text",
        -9.760217345859004
      ],
      [
        "wissenschaft",
        -9.760863427090001
      ],
      [
        "tlichkeit",
        -9.761774116645375
      ],
      [
        "en”",
        -9.76324262274526
      ],
      [
        "yce",
        -9.763989251626114
      ],
      [
        "▁Bio",
        -9.764552951281678
      ],
      [
        "▁Ch",
        -9.764558004533368
      ],
      [
        "wort",
        -9.765921710021647
      ],
      [
        "danken",
        -9.766119866212456
      ],
      [
        "über",
        -9.766713309769166
      ],
      [
        "chtet",
        -9.768245261609279
      ],
      [
        "▁greifen",
        -9.770054556374644
      ],
      [
        "GE",
        -9.770881109061088
      ],
      [
        "▁gefunden.",
        -9.771328113454997
      ],
      [
        "cken",
        -9.771757451636697
      ],
      [
        "orre",
        -9.771902316565424
      ],
      [
        "▁„H",
        -9.772619985969353
      ],
      [
        "di",
        -9.773104673279834
      ],
      [
        "gebar",
        -9.774556415175839
      ],
      [
        "stieg",
        -9.774929545306492
      ],
      [
        "rig",
        -9.775732016207215
      ],
      [
        "ment",
        -9.77622684473413
      ],
      [
        "▁Sp",
        -9.776625079541914
      ],
      [
        "ding",
        -9.778431270439679
      ],
      [
        "stum",
        -9.780077351299838
      ],
      [
        "aktive",
        -9.7816464226516
      ],
      [
        "hn",
        -9.78288393681012
      ],
      [
        "ummer",
        -9.783029037688522
      ],
      [
        "rühstück",
        -9.783867354167016
      ],
      [
        "ap",
        -9.783932599801819
      ],
      [
        "hen",
        -9.785642971236907
      ],
      [
        "ps",
        -9.787071622022292
      ],
      [
        "▁deut",
        -9.788444628323997
      ],
      [
        "▁weiteren",
        -9.788601488399838
      ],
      [
        "▁Haus.",
        -9.788709662470723
      ],
      [
        "▁arbeitet",
        -9.791367834340917
      ],
      [
        "halte",
        -9.792444256318989
      ],
      [
        "folgen",
        -9.792456469779973
      ],
      [
        "potenzi",
        -9.792497362673643
      ],
      [
        "▁andern",
        -9.794137375519153
      ],
      [
        "▁sti",
        -9.794666076634835
      ],
      [
        "▁Bund",
        -9.795247787829844
      ],
      [
        "tia",
        -9.795900078757162
      ],
      [
        "-To",
        -9.797408034539897
      ],
      [
        "landet",
        -9.797484983219475
      ],
      [
        "ard",
        -9.798124186772792
      ],
      [
        "stritten",
        -9.798503575625814
      ],
      [
        "stärke",
        -9.79900139994738
      ],
      [
        "ute",
        -9.799992972483507
      ],
      [
        "▁z.",
        -9.800539832190692
      ],
      [
        "▁Ne",
        -9.801221498884804
      ],
      [
        "ndlung",
        -9.801284235528593
      ],
      [
        "stanz",
        -9.801601453527393
      ],
      [
        "▁Fla",
        -9.801973611535114
      ],
      [
        "lass",
        -9.801982259645438
      ],
      [
        "uthenti",
        -9.801996468027554
      ],
      [
        "▁nichts.",
        -9.802498314212443
      ],
      [
        "▁ha",
        -9.803894574228512
      ],
      [
        "▁Versicherungs",
        -9.804853544709326
      ],
      [
        "67",
        -9.804934381232599
      ],
      [
        "▁inter",
        -9.806734024996283
      ],
      [
        "dose",
        -9.808456758202988
      ],
      [
        "rum",
        -9.809023010674187
      ],
      [
        "▁erforder",
        -9.811944856706534
      ],
      [
        "▁Dor",
        -9.812425480050624
      ],
      [
        "ominan",
        -9.812650564781093
      ],
      [
        "zig",
        -9.813962182729604
      ],
      [
        "–",
        -9.814296365108765
      ],
      [
        "▁gar",
        -9.814633550706347
      ],
      [
        "form",
        -9.815187298834429
      ],
      [
        "swort",
        -9.815561816005404
      ],
      [
        "▁(A",
        -9.816638511059034
      ],
      [
        "▁Wa",
        -9.820160050034511
      ],
      [
        "▁Jahrhunderte",
        -9.821404817592988
      ],
      [
        "geld",
        -9.821410492520748
      ],
      [
        "ohn",
        -9.821642274901853
      ],
      [
        "▁emotionale",
        -9.821843083869647
      ],
      [
        "signi",
        -9.82261916857729
      ],
      [
        "oog",
        -9.823607593325129
      ],
      [
        "umm",
        -9.826254928494704
      ],
      [
        "anischen",
        -9.828883560565238
      ],
      [
        "▁bewusst",
        -9.829394209045255
      ],
      [
        "▁Erfolgs",
        -9.829925114108075
      ],
      [
        "▁Produkte",
        -9.830393842312894
      ],
      [
        "ul",
        -9.831681334543346
      ],
      [
        "▁Beend",
        -9.838927773239329
      ],
      [
        "ielstrebig",
        -9.839083210811376
      ],
      [
        "hängen",
        -9.841554685557623
      ],
      [
        "sion",
        -9.845456656036706
      ],
      [
        "ndet",
        -9.846750094917274
      ],
      [
        "▁kon",
        -9.848879809463188
      ],
      [
        "assung",
        -9.849594629040428
      ],
      [
        "ziehung",
        -9.850406906261242
      ],
      [
        "▁Wunde",
        -9.850459844662216
      ],
      [
        "ose",
        -9.850682534103075
      ],
      [
        "wohn",
        -9.8506946414021
      ],
      [
        "▁Mut",
        -9.851055543974526
      ],
      [
        "gleich",
        -9.852863025857335
      ],
      [
        "legt",
        -9.85476078496874
      ],
      [
        "▁hört",
        -9.855358560211432
      ],
      [
        "resse",
        -9.85572425929383
      ],
      [
        "▁entscheidende",
        -9.856277016133113
      ],
      [
        "▁Wah",
        -9.857231333827226
      ],
      [
        "▁Männern",
        -9.857705044375997
      ],
      [
        "stall",
        -9.858004449791986
      ],
      [
        "▁Davids",
        -9.858610067475949
      ],
      [
        "▁Modelle",
        -9.858912490204986
      ],
      [
        "▁Kra",
        -9.85911472899506
      ],
      [
        "▁Ger",
        -9.863415752717797
      ],
      [
        "ier",
        -9.864837334941264
      ],
      [
        "▁Ze",
        -9.865574311307077
      ],
      [
        "▁2,",
        -9.867090910039183
      ],
      [
        "eque",
        -9.870623184759049
      ],
      [
        "▁Bestandteil",
        -9.87392222364779
      ],
      [
        "2000",
        -9.874082839937143
      ],
      [
        "▁schwerwiegend",
        -9.879612031740129
      ],
      [
        "la",
        -9.879699495693634
      ],
      [
        "ucht",
        -9.88001802247091
      ],
      [
        "▁Feld",
        -9.880658944586537
      ],
      [
        "personen",
        -9.880787623168134
      ],
      [
        "-A",
        -9.880815249791828
      ],
      [
        "situation",
        -9.882250522105563
      ],
      [
        "▁As",
        -9.882693392848912
      ],
      [
        "e-",
        -9.884475474252564
      ],
      [
        "▁Kom",
        -9.884669048129956
      ],
      [
        "▁besitz",
        -9.886340861947712
      ],
      [
        "▁Met",
        -9.886931237711279
      ],
      [
        "sbereiche",
        -9.88811501122121
      ],
      [
        "r.",
        -9.89031056706281
      ],
      [
        "ebsite",
        -9.892439098028046
      ],
      [
        "▁reg",
        -9.89446388604169
      ],
      [
        "▁Ost",
        -9.895178834453231
      ],
      [
        "▁Abi",
        -9.89527838561073
      ],
      [
        "▁Dre",
        -9.895837608926632
      ],
      [
        "lu",
        -9.896559633916413
      ],
      [
        "sonst",
        -9.897152590301117
      ],
      [
        "▁möglicher",
        -9.897629920671772
      ],
      [
        "▁Fremd",
        -9.898411449783449
      ],
      [
        "ht",
        -9.901770814819582
      ],
      [
        "▁gerä",
        -9.901854612459779
      ],
      [
        "▁Tu",
        -9.902980406797022
      ],
      [
        "▁Feu",
        -9.905884156109261
      ],
      [
        "▁Spr",
        -9.906509931516867
      ],
      [
        "▁möchten",
        -9.908637498908956
      ],
      [
        "-Box",
        -9.909461571879332
      ],
      [
        "bett",
        -9.910163351491304
      ],
      [
        "mont",
        -9.912337967796367
      ],
      [
        "K",
        -9.914838107180751
      ],
      [
        "tzlich",
        -9.915623670805015
      ],
      [
        "▁he",
        -9.915853312641955
      ],
      [
        "bringt.",
        -9.916205069326734
      ],
      [
        "arbeitet",
        -9.917447579758507
      ],
      [
        "▁„A",
        -9.91789826550676
      ],
      [
        "/h",
        -9.918627938366717
      ],
      [
        "▁Imm",
        -9.918997724305605
      ],
      [
        "▁Fas",
        -9.922017588067481
      ],
      [
        "▁Hä",
        -9.922916473773455
      ],
      [
        "▁besondere",
        -9.922964190189266
      ],
      [
        "ens",
        -9.924564853932122
      ],
      [
        "ve",
        -9.925272947782107
      ],
      [
        "▁besch",
        -9.92530792154693
      ],
      [
        "▁frage",
        -9.925773249522553
      ],
      [
        "▁Verein",
        -9.925873349131473
      ],
      [
        "dient",
        -9.926436086046758
      ],
      [
        "angabe",
        -9.927119140408758
      ],
      [
        "fasst",
        -9.932280897006812
      ],
      [
        "▁Spe",
        -9.933082863131215
      ],
      [
        "▁wär",
        -9.933128605858972
      ],
      [
        "eits",
        -9.93342267631792
      ],
      [
        "▁gleiche",
        -9.934386063635493
      ],
      [
        "▁Wu",
        -9.934555839136518
      ],
      [
        "▁Produkt",
        -9.935379299930517
      ],
      [
        "▁Box-",
        -9.936622755947948
      ],
      [
        "▁Modell",
        -9.938656900313662
      ],
      [
        "▁Erb",
        -9.940257920446198
      ],
      [
        "▁Beruf",
        -9.940372204804067
      ],
      [
        "po",
        -9.941910420647265
      ],
      [
        "▁eins",
        -9.942571439933229
      ],
      [
        "wegs",
        -9.943687234280734
      ],
      [
        "▁selbe",
        -9.943936171289321
      ],
      [
        "bring",
        -9.944329678600333
      ],
      [
        "▁emotional",
        -9.944905137694661
      ],
      [
        "lichkeit",
        -9.945476236946444
      ],
      [
        "▁Jahrhundert",
        -9.945606760139187
      ],
      [
        "▁Dr",
        -9.946508833546147
      ],
      [
        "▁bl",
        -9.947051418253395
      ],
      [
        "inger",
        -9.94796824441221
      ],
      [
        "äusch",
        -9.94864495882903
      ],
      [
        "▁anderer",
        -9.948794932523786
      ],
      [
        "▁umgeh",
        -9.949812246940713
      ],
      [
        "▁eure",
        -9.950004006444782
      ],
      [
        "▁30",
        -9.950614571995406
      ],
      [
        "▁Versicherung",
        -9.951050283564774
      ],
      [
        "▁boxen",
        -9.951262936345023
      ],
      [
        "▁(201",
        -9.952189561267454
      ],
      [
        "d.",
        -9.952757394074466
      ],
      [
        "rain",
        -9.95290287927699
      ],
      [
        "▁Felde",
        -9.955630718948534
      ],
      [
        "richtete",
        -9.955835293958767
      ],
      [
        "ventu",
        -9.955926059307274
      ],
      [
        "▁br",
        -9.956035364014149
      ],
      [
        "men",
        -9.958306529723279
      ],
      [
        "▁Fronleichnams",
        -9.958428694039995
      ],
      [
        "lose",
        -9.95889067545377
      ],
      [
        "▁Rund",
        -9.960075331103038
      ],
      [
        "▁„De",
        -9.960996567565832
      ],
      [
        "N",
        -9.961374857589682
      ],
      [
        "ckung",
        -9.963353573148384
      ],
      [
        "ach",
        -9.964020659822756
      ],
      [
        "▁Zen",
        -9.965447659017238
      ],
      [
        "erst",
        -9.966236962128802
      ],
      [
        "▁ir",
        -9.971478721556156
      ],
      [
        "ob",
        -9.974119688883624
      ],
      [
        "▁sieht",
        -9.974438430287904
      ],
      [
        "raten",
        -9.976126132780763
      ],
      [
        "▁zahlen",
        -9.977602238168586
      ],
      [
        "▁Prot",
        -9.979882006750072
      ],
      [
        "tigt",
        -9.980148748114804
      ],
      [
        "mmen",
        -9.98661399906853
      ],
      [
        "flichten",
        -9.986932348297676
      ],
      [
        "▁boxe",
        -9.990136691188555
      ],
      [
        "▁gewiss",
        -9.991519085661704
      ],
      [
        "ill",
        -9.992475616208651
      ],
      [
        "end",
        -9.992654715676432
      ],
      [
        "▁194",
        -9.993493973541467
      ],
      [
        "mm",
        -9.995290645076723
      ],
      [
        "▁Beste",
        -9.995333753777533
      ],
      [
        "▁Ding",
        -9.995819451697539
      ],
      [
        "▁K.",
        -9.996252675835013
      ],
      [
        "ehen.",
        -9.996908291536187
      ],
      [
        "nade",
        -9.998424665724068
      ],
      [
        "▁reagier",
        -9.999477831499123
      ],
      [
        "ng",
        -9.999704963669654
      ],
      [
        "gt",
        -10.00016764919336
      ],
      [
        "chen.",
        -10.00133619827548
      ],
      [
        "hörte",
        -10.001683037575148
      ],
      [
        "osition",
        -10.00330662429541
      ],
      [
        "einer",
        -10.003747606418866
      ],
      [
        "▁tau",
        -10.00385748847488
      ],
      [
        "mann",
        -10.003953399643956
      ],
      [
        "inde",
        -10.004942205967147
      ],
      [
        "▁Geheim",
        -10.008580053360301
      ],
      [
        "▁gewinne",
        -10.008683670132639
      ],
      [
        "V",
        -10.009193884809523
      ],
      [
        "▁Beg",
        -10.009919096215562
      ],
      [
        "boxen",
        -10.010442577111167
      ],
      [
        "nabhängig",
        -10.011005497605236
      ],
      [
        "▁Red",
        -10.012026670510224
      ],
      [
        "▁le",
        -10.012451283058217
      ],
      [
        "-Be",
        -10.013621448001851
      ],
      [
        "▁Kriegs",
        -10.014470338275467
      ],
      [
        "aus.",
        -10.016031898040062
      ],
      [
        "▁Miss",
        -10.016387075368272
      ],
      [
        "eason",
        -10.01726714453712
      ],
      [
        "sprachige",
        -10.017305996160138
      ],
      [
        "▁Profi",
        -10.017775256955552
      ],
      [
        "▁gera",
        -10.017869258428927
      ],
      [
        "▁heut",
        -10.017983624076754
      ],
      [
        "▁Texte",
        -10.019318622489045
      ],
      [
        "ko",
        -10.019976801076627
      ],
      [
        "▁krieg",
        -10.020384086346132
      ],
      [
        "ou",
        -10.021774852587257
      ],
      [
        "▁Bri",
        -10.021928370971672
      ],
      [
        "▁14",
        -10.023005874088469
      ],
      [
        "lernen.",
        -10.02619985456332
      ],
      [
        "▁Marke",
        -10.02690108758587
      ],
      [
        "▁All",
        -10.034938651754082
      ],
      [
        "„",
        -10.03581125973756
      ],
      [
        "ruf",
        -10.036349215036559
      ],
      [
        "▁folgt",
        -10.036856486783778
      ],
      [
        "▁Jud",
        -10.03743946526649
      ],
      [
        "▁Schwan",
        -10.038070662099917
      ],
      [
        "▁Scha",
        -10.038542725968487
      ],
      [
        "▁häng",
        -10.038808552338196
      ],
      [
        "▁Tages",
        -10.038825148798706
      ],
      [
        "eschwindigkeit",
        -10.03950499535262
      ],
      [
        "Ch",
        -10.039798053237924
      ],
      [
        "land",
        -10.041743376261367
      ],
      [
        "herz",
        -10.04183429333526
      ],
      [
        "▁Ta",
        -10.042337672857263
      ],
      [
        "(",
        -10.042550162435239
      ],
      [
        "▁übrig",
        -10.04333676941494
      ],
      [
        "▁stell",
        -10.04747495600222
      ],
      [
        "▁Wh",
        -10.0483341927504
      ],
      [
        "stellt",
        -10.049231235045095
      ],
      [
        "▁Rechner",
        -10.049528675388038
      ],
      [
        "▁miss",
        -10.049950192519841
      ],
      [
        "ziehen",
        -10.050946185844223
      ],
      [
        "kten",
        -10.051576443745123
      ],
      [
        "versorg",
        -10.052508033750684
      ],
      [
        "zweifel",
        -10.053864269485766
      ],
      [
        "C",
        -10.053906947534648
      ],
      [
        "haft",
        -10.054610464218591
      ],
      [
        "ieren.",
        -10.054723142373918
      ],
      [
        "ssi",
        -10.055811069186626
      ],
      [
        "än",
        -10.056409942811145
      ],
      [
        "lässt",
        -10.057621986071805
      ],
      [
        "acher",
        -10.058923059756031
      ],
      [
        "tra",
        -10.059332333044939
      ],
      [
        "Real",
        -10.05941469722478
      ],
      [
        "förder",
        -10.0608996668023
      ],
      [
        "▁danke",
        -10.060912185045446
      ],
      [
        "hör",
        -10.060956216527211
      ],
      [
        "▁eigen",
        -10.063456587178118
      ],
      [
        "änger",
        -10.063660180145824
      ],
      [
        "hob",
        -10.064217095256556
      ],
      [
        "holen.",
        -10.064465694531167
      ],
      [
        "▁Dra",
        -10.064515694410623
      ],
      [
        "Z",
        -10.064895011618237
      ],
      [
        "forschung",
        -10.065245037757482
      ],
      [
        "▁Sonnensystem",
        -10.066019680292126
      ],
      [
        "▁di",
        -10.066036947208449
      ],
      [
        "ri",
        -10.06635404785236
      ],
      [
        "▁jene",
        -10.067234752493768
      ],
      [
        "▁bo",
        -10.067469701526383
      ],
      [
        "uß",
        -10.068771048814886
      ],
      [
        "vo",
        -10.069560531325433
      ],
      [
        "▁übliche",
        -10.070628800788917
      ],
      [
        "▁ließ",
        -10.071176711981188
      ],
      [
        "Mein",
        -10.071212359976817
      ],
      [
        "ung.",
        -10.071501629349482
      ],
      [
        "18",
        -10.071874561184465
      ],
      [
        "▁Aggression",
        -10.071946663708259
      ],
      [
        "genden",
        -10.072012454286149
      ],
      [
        "ktion",
        -10.072739955330084
      ],
      [
        "▁Auge",
        -10.072871414537012
      ],
      [
        "▁st",
        -10.072932043369741
      ],
      [
        "▁stritt",
        -10.073382689685944
      ],
      [
        "habt",
        -10.077303831036788
      ],
      [
        "feier",
        -10.079084639354212
      ],
      [
        "rzeit",
        -10.081852145564774
      ],
      [
        "▁bereite",
        -10.082903772646917
      ],
      [
        "▁schreibe",
        -10.086339797733848
      ],
      [
        "▁Gef",
        -10.087131268492229
      ],
      [
        "L",
        -10.087288562588066
      ],
      [
        "ntscheidung",
        -10.087704345573478
      ],
      [
        "▁mach",
        -10.088077679751516
      ],
      [
        "ling",
        -10.088270985624124
      ],
      [
        "stelle",
        -10.08902078872884
      ],
      [
        "link",
        -10.090133348951593
      ],
      [
        "ieter",
        -10.091241613691846
      ],
      [
        "▁He",
        -10.092541151490858
      ],
      [
        "▁verbesser",
        -10.092818401977118
      ],
      [
        "tiert",
        -10.092899516637381
      ],
      [
        "schätzt",
        -10.09358071375479
      ],
      [
        "stein",
        -10.093947455373073
      ],
      [
        "stenz",
        -10.095173173273455
      ],
      [
        "▁Lern",
        -10.098815537901919
      ],
      [
        "▁Kin",
        -10.099640802330805
      ],
      [
        "▁Dach",
        -10.09971615123831
      ],
      [
        "sellschaftliche",
        -10.100156387761283
      ],
      [
        "▁DIN",
        -10.101328739859525
      ],
      [
        "ago",
        -10.103594849953742
      ],
      [
        "▁Kosten",
        -10.103647487330536
      ],
      [
        "Mor",
        -10.104066991041993
      ],
      [
        "▁verb",
        -10.104704414384573
      ],
      [
        "▁verk",
        -10.105211733659164
      ],
      [
        "kla",
        -10.105836883757584
      ],
      [
        "pur",
        -10.105892601194789
      ],
      [
        "OR",
        -10.106396787296465
      ],
      [
        "▁hi",
        -10.106808719475367
      ],
      [
        "to",
        -10.107676750250711
      ],
      [
        "▁gewisser",
        -10.108101450820655
      ],
      [
        "mentare",
        -10.109101568820037
      ],
      [
        "▁Lese",
        -10.1091563008941
      ],
      [
        "▁reich",
        -10.10929454392699
      ],
      [
        "▁Schei",
        -10.109574456814057
      ],
      [
        "iva",
        -10.11048312883342
      ],
      [
        "setzung",
        -10.110808230513138
      ],
      [
        "▁gep",
        -10.11156833909666
      ],
      [
        "erkenn",
        -10.112111135616173
      ],
      [
        "▁(B",
        -10.112954317977845
      ],
      [
        "▁Bis",
        -10.11341024862852
      ],
      [
        "fälle",
        -10.114296898031784
      ],
      [
        "▁Früh",
        -10.114690512552608
      ],
      [
        "▁bleibe",
        -10.116934165655449
      ],
      [
        "verarbeit",
        -10.117819427207147
      ],
      [
        "stücke",
        -10.119157072774351
      ],
      [
        "gewinn",
        -10.119394371693483
      ],
      [
        "ffen",
        -10.119661205222084
      ],
      [
        "war",
        -10.12398967339862
      ],
      [
        "stände",
        -10.124062040723633
      ],
      [
        ".de",
        -10.124263013968271
      ],
      [
        "ce",
        -10.124314860228257
      ],
      [
        "chtete",
        -10.124845245617783
      ],
      [
        "▁Intens",
        -10.12490489647708
      ],
      [
        "vertrag",
        -10.125750364905956
      ],
      [
        "ett",
        -10.126807439100125
      ],
      [
        "schätz",
        -10.128274297940521
      ],
      [
        "atenschutz",
        -10.128714648565271
      ],
      [
        "bieten",
        -10.128757628584657
      ],
      [
        "regi",
        -10.12907823107154
      ],
      [
        "▁Dokument",
        -10.12978378047302
      ],
      [
        "▁Ex",
        -10.130484438315648
      ],
      [
        "spielt",
        -10.131572487034713
      ],
      [
        "weiter",
        -10.132259894653268
      ],
      [
        "setzte",
        -10.132367449673161
      ],
      [
        "▁zus",
        -10.132436356179623
      ],
      [
        "wahr",
        -10.132609770253154
      ],
      [
        "▁Prote",
        -10.132829055916384
      ],
      [
        "blich",
        -10.132896757702792
      ],
      [
        "age",
        -10.133047917926731
      ],
      [
        "zieren",
        -10.134797807454353
      ],
      [
        "greif",
        -10.135099241695457
      ],
      [
        "▁Wei",
        -10.135834276795343
      ],
      [
        "▁Lieb",
        -10.136229537784779
      ],
      [
        "▁gew",
        -10.13633601786226
      ],
      [
        "lig",
        -10.136738546958169
      ],
      [
        "▁Mitarbeiter",
        -10.137137842381795
      ],
      [
        "▁zie",
        -10.137368510419998
      ],
      [
        "96",
        -10.137482206324991
      ],
      [
        "▁fÃ1⁄4",
        -10.137927849895012
      ],
      [
        "▁Schwäche",
        -10.137936512278811
      ],
      [
        "training",
        -10.138489512905549
      ],
      [
        "▁Nicht",
        -10.13861326397972
      ],
      [
        "▁Boxk",
        -10.13948839824912
      ],
      [
        "tum",
        -10.140075893416807
      ],
      [
        "loy",
        -10.140590837059626
      ],
      [
        "minister",
        -10.140746586270835
      ],
      [
        "▁Wettbewerb",
        -10.140981037923183
      ],
      [
        "▁Christ",
        -10.141236967601484
      ],
      [
        "lle",
        -10.141292925474035
      ],
      [
        "▁äußer",
        -10.141547056663072
      ],
      [
        "schloss",
        -10.142541542302421
      ],
      [
        "nehm",
        -10.143028063895725
      ],
      [
        "▁Lade",
        -10.143738843410603
      ],
      [
        "ück",
        -10.143801122827263
      ],
      [
        "▁Tra",
        -10.144621051929397
      ],
      [
        "Herr",
        -10.145419678794658
      ],
      [
        "damals",
        -10.145542879308895
      ],
      [
        "gebracht",
        -10.145702687854078
      ],
      [
        "akt",
        -10.145714538364114
      ],
      [
        "üfte",
        -10.146671049004837
      ],
      [
        "▁fahre",
        -10.147063252581818
      ],
      [
        "▁Rich",
        -10.147508790266958
      ],
      [
        "system",
        -10.147836885226262
      ],
      [
        "▁Gü",
        -10.147838846082081
      ],
      [
        "▁entstand",
        -10.147966818662569
      ],
      [
        "sam",
        -10.148600974690972
      ],
      [
        "▁Bote",
        -10.148891348055454
      ],
      [
        "▁deutsch",
        -10.14981872142786
      ],
      [
        "▁lief",
        -10.149984589214018
      ],
      [
        "örter",
        -10.150177211437951
      ],
      [
        "alt",
        -10.150315947385263
      ],
      [
        "gangen",
        -10.150585031127967
      ],
      [
        "method",
        -10.150923382348823
      ],
      [
        "ogene",
        -10.151336228625658
      ],
      [
        "▁freue",
        -10.152381722178713
      ],
      [
        "uste",
        -10.153856523926782
      ],
      [
        "▁Ã1⁄4b",
        -10.154203319373536
      ],
      [
        "üge",
        -10.154644817436099
      ],
      [
        "▁freu",
        -10.155260611757122
      ],
      [
        "merk",
        -10.155291764819813
      ],
      [
        "hrte",
        -10.155492289267698
      ],
      [
        "ständige",
        -10.156128563599369
      ],
      [
        "▁heiß",
        -10.156140126995993
      ],
      [
        "eitung",
        -10.156165077157528
      ],
      [
        "▁späte",
        -10.156451687824031
      ],
      [
        "pu",
        -10.156811449499811
      ],
      [
        "kra",
        -10.158215203765494
      ],
      [
        "speicher",
        -10.158488159511881
      ],
      [
        "▁Not",
        -10.158525264814488
      ],
      [
        "▁trau",
        -10.158814226512382
      ],
      [
        "▁Trä",
        -10.159168726707167
      ],
      [
        "▁Kleink",
        -10.159169460132034
      ],
      [
        "verstä",
        -10.159842447717821
      ],
      [
        "▁dauer",
        -10.160109026014826
      ],
      [
        "▁empfehlen",
        -10.160291872003002
      ],
      [
        "wusste",
        -10.160522055553916
      ],
      [
        "▁Deut",
        -10.160523072773685
      ],
      [
        "abe",
        -10.160699913458473
      ],
      [
        "rafträder",
        -10.160980965675847
      ],
      [
        "▁Qu",
        -10.16110161338522
      ],
      [
        "ruppe",
        -10.161168464827993
      ],
      [
        "pass",
        -10.161276374668224
      ],
      [
        "lüchtlinge",
        -10.161338891221678
      ],
      [
        "äufig",
        -10.161339995934124
      ],
      [
        "kunft",
        -10.161436213431596
      ],
      [
        "rogramm",
        -10.161486482578466
      ],
      [
        "Q",
        -10.16176263859725
      ],
      [
        "onflikt",
        -10.161789551358996
      ],
      [
        "▁Kompli",
        -10.161810852477
      ],
      [
        "▁Spiel",
        -10.161878401527728
      ],
      [
        "bank",
        -10.161879400191006
      ],
      [
        "JJJJ",
        -10.161887659087856
      ],
      [
        "ā",
        -10.161887659087862
      ],
      [
        "▁Phosphor",
        -10.161887659087883
      ],
      [
        "▁CHANEL",
        -10.161887659087958
      ],
      [
        "▁Bath-Seba",
        -10.16188765908804
      ],
      [
        "▁Spirituelle",
        -10.161887659089839
      ],
      [
        "▁säkular",
        -10.161887659090572
      ],
      [
        "Eldorado",
        -10.161887659094273
      ],
      [
        "▁„Seishin”",
        -10.161887659098152
      ],
      [
        "▁katholische",
        -10.16188765909866
      ],
      [
        "▁Säugling",
        -10.161887659099836
      ],
      [
        "▁Angeklagten",
        -10.161887659101549
      ],
      [
        "▁Individu",
        -10.161887659102762
      ],
      [
        "ltikulturalismus",
        -10.161887659105307
      ],
      [
        "▁(E-17",
        -10.161887659105362
      ],
      [
        "▁Alkohol",
        -10.161887659111558
      ],
      [
        "▁Network",
        -10.161887659123774
      ],
      [
        "://www.",
        -10.161887659127794
      ],
      [
        "🙂",
        -10.161887659127814
      ],
      [
        "@",
        -10.161887659127814
      ],
      [
        "😉",
        -10.161887659127814
      ],
      [
        "umov-Gerasimenko",
        -10.161887659127814
      ],
      [
        "▁Brooklyn",
        -10.161887659127814
      ],
      [
        "▁komfortable",
        -10.161887659130086
      ],
      [
        ".Schwule",
        -10.1618876591384
      ],
      [
        "▁NAS-Server",
        -10.161887659170919
      ],
      [
        "▁Sowjet",
        -10.161887659185497
      ],
      [
        "▁Raffarin",
        -10.161887659192827
      ],
      [
        "▁unrealistisch",
        -10.16188765921422
      ],
      [
        "ebook-",
        -10.16188765922328
      ],
      [
        "struktur",
        -10.161887659237092
      ],
      [
        "▁Disziplin",
        -10.161887659239241
      ],
      [
        "Webclient",
        -10.161887659259197
      ],
      [
        "▁Dschihad",
        -10.161887659278333
      ],
      [
        "▁Computer",
        -10.161887659335479
      ],
      [
        "▁mittelgroße",
        -10.161887659343318
      ],
      [
        "konzepte",
        -10.161887659349787
      ],
      [
        "relevant",
        -10.16188765937309
      ],
      [
        "▁argument",
        -10.161887659779508
      ],
      [
        "befriedig",
        -10.161887659819865
      ],
      [
        "steuropa",
        -10.161887659973265
      ],
      [
        "▁Wuppertal",
        -10.16188766010938
      ],
      [
        "▁Philae",
        -10.161887660621947
      ],
      [
        "▁Charakter",
        -10.161887660744412
      ],
      [
        "▁repräsent",
        -10.161887661635616
      ],
      [
        "▁Gelatine",
        -10.161887662003718
      ],
      [
        "▁plünderte",
        -10.16188766234421
      ],
      [
        "▁Eskapade",
        -10.161887662965139
      ],
      [
        "▁offenkundig",
        -10.161887663290285
      ],
      [
        "▁Suizid",
        -10.161887664412726
      ],
      [
        "▁Kommunikation",
        -10.161887665194898
      ],
      [
        "▁qualifizierte",
        -10.161887665301148
      ],
      [
        "▁Aufzeichnung",
        -10.161887666144088
      ],
      [
        "▁beschreibt",
        -10.161887668933327
      ],
      [
        "▁Feldhauptmann",
        -10.161887669202564
      ],
      [
        "Halbinsel",
        -10.161887669648562
      ],
      [
        "Technologie",
        -10.161887669910588
      ],
      [
        "▁unbekannte",
        -10.161887670805186
      ],
      [
        "Suede\"",
        -10.161887672885774
      ],
      [
        "▁erbitterte",
        -10.161887674876985
      ],
      [
        "▁diejenigen",
        -10.161887677355764
      ],
      [
        "▁Argumente",
        -10.161887679772006
      ],
      [
        "▁Aufbewahrung",
        -10.161887680646315
      ],
      [
        "▁empfohlen",
        -10.161887681147318
      ],
      [
        "▁friedliche",
        -10.161887685419886
      ],
      [
        "formular",
        -10.161887686660183
      ],
      [
        "▁Russland",
        -10.161887692279528
      ],
      [
        "probleme",
        -10.161887692653204
      ],
      [
        "▁Interpretation",
        -10.16188769882108
      ],
      [
        "▁Astronom",
        -10.161887708107566
      ],
      [
        "urlaub",
        -10.161887708872003
      ],
      [
        "bestimmung",
        -10.161887713089426
      ],
      [
        "▁rÃ1⁄4stete",
        -10.161887716490693
      ],
      [
        "▁Loyalität",
        -10.161887719955441
      ],
      [
        "▁www.",
        -10.161887725225403
      ],
      [
        "▁Identität",
        -10.161887727377579
      ],
      [
        "kultur",
        -10.161887727526057
      ],
      [
        "▁Sunniten",
        -10.161887736423337
      ],
      [
        "▁Justiz",
        -10.161887737250458
      ],
      [
        "▁Getränke",
        -10.161887743779909
      ],
      [
        "▁Akkus",
        -10.16188775403336
      ],
      [
        "▁Lenkers",
        -10.161887767816191
      ],
      [
        "▁formuliert",
        -10.161887777827546
      ],
      [
        "▁begegnen",
        -10.16188778687578
      ],
      [
        "▁90er-Jahre",
        -10.161887788187407
      ],
      [
        "▁Vergangenheit",
        -10.1618877943047
      ],
      [
        "▁Broker",
        -10.161887801343125
      ],
      [
        "emporär",
        -10.161887808406517
      ],
      [
        "günstig",
        -10.161887817935082
      ],
      [
        "▁Kampfsport",
        -10.161887821200065
      ],
      [
        "▁ethnischen",
        -10.161887821399793
      ],
      [
        "▁Überzeugung",
        -10.161887837685216
      ],
      [
        "otografie",
        -10.16188785622217
      ],
      [
        "▁Genetische",
        -10.161887872711821
      ],
      [
        "▁lebenslange",
        -10.161887876652916
      ],
      [
        "▁vergleichbar",
        -10.161887890907554
      ],
      [
        "▁Erwartung",
        -10.16188790079242
      ],
      [
        "Highlight",
        -10.161887920713932
      ],
      [
        "▁ernsthafte",
        -10.16188792518983
      ],
      [
        "symbol",
        -10.16188794792737
      ],
      [
        "▁Börse",
        -10.161887974524367
      ],
      [
        "ächtnis",
        -10.161887975709252
      ],
      [
        "▁angeordnet",
        -10.161887980828666
      ],
      [
        "▁Bücher",
        -10.161888002709963
      ],
      [
        "bürger",
        -10.161888031893184
      ],
      [
        "▁Freitag",
        -10.161888060038493
      ],
      [
        "▁Unterscheidung",
        -10.16188808218806
      ],
      [
        "▁Politik",
        -10.161888119743624
      ],
      [
        "▁eindeutig",
        -10.161888140657858
      ],
      [
        "berlandesgericht",
        -10.16188815885296
      ],
      [
        "▁Abisai",
        -10.161888191166227
      ],
      [
        "▁beliebt",
        -10.16188823000251
      ],
      [
        "▁Ã",
        -10.161888241642686
      ],
      [
        "▁neuropathische",
        -10.16188831547956
      ],
      [
        "▁bestätigt",
        -10.161888348540879
      ],
      [
        "▁lokal",
        -10.161888365003598
      ],
      [
        "▁HDD",
        -10.161888368167125
      ],
      [
        "▁unbewusste",
        -10.161888390522934
      ],
      [
        "eilensteine",
        -10.16188847422293
      ],
      [
        "▁permanent",
        -10.161888502493936
      ],
      [
        "konventionelle",
        -10.161888516195287
      ],
      [
        "▁KÃ¶nigshauses",
        -10.16188852259386
      ],
      [
        "▁Hochschule",
        -10.161888560179804
      ],
      [
        "▁Aqua",
        -10.16188866161616
      ],
      [
        "▁Essensplan",
        -10.161888725145326
      ],
      [
        "-Cli",
        -10.161888891450209
      ],
      [
        "lächeln",
        -10.161888963213826
      ],
      [
        "▁komisch",
        -10.161889039075644
      ],
      [
        "▁Wechsel",
        -10.161889435090693
      ],
      [
        "▁Vadim",
        -10.161889532025324
      ],
      [
        "konstru",
        -10.161889547282268
      ],
      [
        "▁„Lass",
        -10.16188956544254
      ],
      [
        "▁verachtet",
        -10.16188966906397
      ],
      [
        "▁Speichermedi",
        -10.16189000354798
      ],
      [
        "▁Dreharbeiten",
        -10.161890119240244
      ],
      [
        "▁verzichte",
        -10.161890217037955
      ],
      [
        "▁Balkon",
        -10.161890338132984
      ],
      [
        "▁Schluck",
        -10.161890456106992
      ],
      [
        "▁Leigh",
        -10.161890464618013
      ],
      [
        "▁attestiert",
        -10.161890468096686
      ],
      [
        "▁öfter",
        -10.161890539082801
      ],
      [
        "▁gefiel",
        -10.161890550801903
      ],
      [
        "▁Bevölkerungs",
        -10.161890620806837
      ],
      [
        "▁Gesundheit",
        -10.161890723852578
      ],
      [
        "▁hilfreich",
        -10.16189075048187
      ],
      [
        "▁Trink",
        -10.161891234951907
      ],
      [
        "▁Schluss",
        -10.161891435904986
      ],
      [
        "▁Werbetext",
        -10.161891520748142
      ],
      [
        "▁Migranten",
        -10.161891525857465
      ],
      [
        "chulabschluss",
        -10.1618917871663
      ],
      [
        "▁Expedition",
        -10.161892241811959
      ],
      [
        "▁ausgestattet",
        -10.161892492672647
      ],
      [
        "▁Ergebnis",
        -10.161892567821702
      ],
      [
        "▁umzusetzen",
        -10.161892993412785
      ],
      [
        "▁älteste",
        -10.161893227402304
      ],
      [
        "▁verborgen",
        -10.161893257239358
      ],
      [
        "▁ungewöhnlich",
        -10.161893569217321
      ],
      [
        "▁http",
        -10.161893716804697
      ],
      [
        "▁Datumsangabe",
        -10.161893724333119
      ],
      [
        "▁General",
        -10.16189387136096
      ],
      [
        "▁bloß",
        -10.161893872381444
      ],
      [
        "▁Hilfsmotor",
        -10.161893985225916
      ],
      [
        "▁realistisch",
        -10.161894019442233
      ],
      [
        "/kg",
        -10.161894029244941
      ],
      [
        "▁Fördermaßnahmen",
        -10.161894056463893
      ],
      [
        "▁gesteckt",
        -10.161894133653103
      ],
      [
        "▁Chance",
        -10.161894663595644
      ],
      [
        "▁(Österreich)",
        -10.161895538253217
      ],
      [
        "▁begrüß",
        -10.161895613256876
      ],
      [
        "▁schwule",
        -10.161895854796349
      ],
      [
        "▁ausgestanzt",
        -10.161896044411135
      ],
      [
        "türk",
        -10.161896122457973
      ],
      [
        "▁Gutachter",
        -10.161896379506974
      ],
      [
        "künftig",
        -10.161896651933143
      ],
      [
        "▁wÃ¤re",
        -10.161898533862301
      ],
      [
        "mäßig",
        -10.161898957934463
      ],
      [
        "▁kümmern",
        -10.161899116521123
      ],
      [
        "sehbar",
        -10.161899390483256
      ],
      [
        "ows",
        -10.161899762115059
      ],
      [
        "nterdisziplinäre",
        -10.161899878996362
      ],
      [
        "▁preisgibt",
        -10.161899934750158
      ],
      [
        "▁Bunker",
        -10.161900117241084
      ],
      [
        "▁Anwalt",
        -10.161900196602337
      ],
      [
        "geschaff",
        -10.161900541819012
      ],
      [
        "▁begrenzt",
        -10.161901327078974
      ],
      [
        "▁festgenommen.",
        -10.161901448938707
      ],
      [
        "▁Maacha",
        -10.161901494307925
      ],
      [
        "▁Anfangsdosis",
        -10.1619015306465
      ],
      [
        "▁Refle",
        -10.161903434671942
      ],
      [
        "geschichte",
        -10.161903715804783
      ],
      [
        "riginal",
        -10.161904280123633
      ],
      [
        "▁Spielzeug",
        -10.161904588147582
      ],
      [
        "▁Boxkämpfe",
        -10.1619051330729
      ],
      [
        "wendig",
        -10.161907070720833
      ],
      [
        "▁mehrfach",
        -10.161907660813897
      ],
      [
        "▁Händen'",
        -10.161908920153897
      ],
      [
        "▁Minderheit",
        -10.161909108585084
      ],
      [
        "▁Zweifel",
        -10.161909636235757
      ],
      [
        "▁this",
        -10.16191001230013
      ],
      [
        "▁Pomme",
        -10.161910508330255
      ],
      [
        "▁Fenster",
        -10.161911763355318
      ],
      [
        "▁Führerschein",
        -10.161913170562425
      ],
      [
        "afrika",
        -10.161913564622845
      ],
      [
        "▁benutzt",
        -10.161914024161312
      ],
      [
        "▁sportlich",
        -10.161915979444409
      ],
      [
        "▁Doktor",
        -10.161919088973864
      ],
      [
        "▁Motto",
        -10.161919327405412
      ],
      [
        "CHT",
        -10.161920247110352
      ],
      [
        "▁Akzeptanz",
        -10.161921692383736
      ],
      [
        "▁verderbte",
        -10.161922478006453
      ],
      [
        "▁Jahrzehnte",
        -10.161923114514707
      ],
      [
        "▁jährlich",
        -10.16192347300526
      ],
      [
        "▁osmanische",
        -10.161923977471247
      ],
      [
        "▁Führungskraft",
        -10.161924251436828
      ],
      [
        "▁betont",
        -10.161925783065353
      ],
      [
        "▁Veranstaltung",
        -10.161928339586431
      ],
      [
        "▁hoffentlich",
        -10.161929403140979
      ],
      [
        "▁ergänzen",
        -10.161929679629944
      ],
      [
        "▁Romanistik",
        -10.161931507123452
      ],
      [
        "▁genießen",
        -10.161932764637305
      ],
      [
        "▁Seele",
        -10.16193307436407
      ],
      [
        "herrscht",
        -10.161933560199035
      ],
      [
        "▁ermutigen",
        -10.161934426284162
      ],
      [
        "▁Großbank",
        -10.161934892908985
      ],
      [
        "▁billig",
        -10.161938339697214
      ],
      [
        "▁IV.",
        -10.161939579582153
      ],
      [
        "▁Motorrad",
        -10.161939602272378
      ],
      [
        "bewohnte",
        -10.16193980563131
      ],
      [
        "▁Urteil",
        -10.161943636744127
      ],
      [
        "▁Projekt",
        -10.161943649497037
      ],
      [
        "▁Status",
        -10.161944490165482
      ],
      [
        "▁Mailand",
        -10.161944596129366
      ],
      [
        "▁Tank",
        -10.161946482312661
      ],
      [
        "▁Paul",
        -10.161948078505212
      ],
      [
        "▁ändern",
        -10.161948117028736
      ],
      [
        "Ã1⁄4ndig",
        -10.161948616262308
      ],
      [
        "▁geschah",
        -10.161949330541889
      ],
      [
        "▁hervorrufen",
        -10.161949458361573
      ],
      [
        "trÃ¶ste",
        -10.161949933927806
      ],
      [
        "▁Management",
        -10.161950912344071
      ],
      [
        "▁Rettung",
        -10.161951585112092
      ],
      [
        "italien",
        -10.161952985603845
      ],
      [
        "stitution",
        -10.161955530683391
      ],
      [
        "▁anzusprechen",
        -10.16195888384201
      ],
      [
        "▁sorgt",
        -10.161962971936552
      ],
      [
        "umweltfreundlich",
        -10.161964352142446
      ],
      [
        "proben",
        -10.161964850908275
      ],
      [
        "▁kriegerische",
        -10.161966237151255
      ],
      [
        "▁Lehner",
        -10.161966327876945
      ],
      [
        "LL",
        -10.161967366393657
      ],
      [
        "stoßen",
        -10.161969693235015
      ],
      [
        "▁angeboten",
        -10.161970122367356
      ],
      [
        "▁überwiegend",
        -10.161971414918169
      ],
      [
        "▁gewalt",
        -10.161972552754323
      ],
      [
        "▁Gym",
        -10.161973531892135
      ],
      [
        "▁Bekannt",
        -10.161975213453996
      ],
      [
        "▁Zigar",
        -10.161978504770747
      ],
      [
        "▁Funk-Festplatte",
        -10.161980520991811
      ],
      [
        "▁Silber",
        -10.161984871674347
      ],
      [
        "46",
        -10.161988260043799
      ],
      [
        "dition",
        -10.161988808230316
      ],
      [
        "▁Rehob",
        -10.161989720259266
      ],
      [
        "vater",
        -10.161993244796696
      ],
      [
        "▁Notfall",
        -10.16199390572568
      ],
      [
        "▁Kompliment",
        -10.161995012302569
      ],
      [
        "▁Papier",
        -10.161995762880908
      ],
      [
        "▁Gefahr",
        -10.162002543598474
      ],
      [
        "▁Artikel",
        -10.162005960549328
      ],
      [
        "mobil",
        -10.162008097079823
      ],
      [
        "▁Times",
        -10.16200866596199
      ],
      [
        "▁ängstlich",
        -10.162008997353523
      ],
      [
        "▁Labor",
        -10.16202139930564
      ],
      [
        "▁Motiv",
        -10.16202481089257
      ],
      [
        "▁Fällen",
        -10.162026643264138
      ],
      [
        "▁Erwachsene",
        -10.16202896090638
      ],
      [
        "▁Handschuh",
        -10.162029450013511
      ],
      [
        "▁Lebensmittel",
        -10.162029744286137
      ],
      [
        "▁Wirkstoff",
        -10.162029999266432
      ],
      [
        "▁sanft",
        -10.162035374649925
      ],
      [
        "▁wünsch",
        -10.162036860048088
      ],
      [
        "▁Zuschauer",
        -10.162040534401616
      ],
      [
        "▁Respekt",
        -10.162047984004124
      ],
      [
        "▁wesentliche",
        -10.162049926997266
      ],
      [
        "▁definiert",
        -10.162056634969483
      ],
      [
        "▁Plastik",
        -10.162057879040113
      ],
      [
        "▁\"Leib",
        -10.162061912884171
      ],
      [
        "▁weltweit",
        -10.162063976474641
      ],
      [
        "▁verkauft",
        -10.16206925734414
      ],
      [
        "▁Varianten",
        -10.162070313965138
      ],
      [
        "▁positiv",
        -10.16207308240205
      ],
      [
        "drängt",
        -10.162082795997899
      ],
      [
        "▁Stress",
        -10.162083543732795
      ],
      [
        "▁wiederholt",
        -10.162088957310885
      ],
      [
        "▁stattfinden",
        -10.162091548509286
      ],
      [
        "▁verprügelt",
        -10.162096106907397
      ],
      [
        "▁Flash",
        -10.162097951834468
      ],
      [
        "ützen",
        -10.162098197323663
      ],
      [
        "▁Oates",
        -10.162102884622886
      ],
      [
        "▁genug",
        -10.162103334556889
      ],
      [
        "▁offenbar",
        -10.162110853228363
      ],
      [
        "▁erlaub",
        -10.162115697470718
      ],
      [
        "▁Regung",
        -10.162127370005575
      ],
      [
        "monat",
        -10.162128154165373
      ],
      [
        "Kaldaue",
        -10.162128465861947
      ],
      [
        "▁Parad",
        -10.162137185030822
      ],
      [
        "▁Material",
        -10.162137529669911
      ],
      [
        "▁Leidenschaft",
        -10.162137992841487
      ],
      [
        "▁komplette",
        -10.162142760009562
      ],
      [
        "sible",
        -10.162151833258989
      ],
      [
        "▁Vorstände",
        -10.162160225290002
      ],
      [
        "▁versuchen",
        -10.16216294851849
      ],
      [
        "▁Reihe",
        -10.162164110823698
      ],
      [
        "faktor",
        -10.162169463274296
      ],
      [
        "▁Auskunft",
        -10.16218354156991
      ],
      [
        "▁geändert",
        -10.162184824159816
      ],
      [
        "▁Anfänge",
        -10.16218787909154
      ],
      [
        "▁verbringen",
        -10.162193049196576
      ],
      [
        "▁wahr'",
        -10.162196311559876
      ],
      [
        "▁steckt",
        -10.162198424435497
      ],
      [
        "▁Gebrauch",
        -10.162198478718583
      ],
      [
        "▁leib",
        -10.162202482361897
      ],
      [
        "▁2017",
        -10.162206789860209
      ],
      [
        "▁Mittler",
        -10.162210151863006
      ],
      [
        "arning",
        -10.162213848510145
      ],
      [
        "▁Keller",
        -10.162228315978954
      ],
      [
        "ohlend",
        -10.16223336054115
      ],
      [
        "▁Faust",
        -10.16223719765323
      ],
      [
        "▁Kabel",
        -10.162256235509403
      ],
      [
        "▁Ã1⁄4bel",
        -10.162258278669823
      ],
      [
        "▁aktuell",
        -10.162259195755423
      ],
      [
        "▁1946",
        -10.162259671348155
      ],
      [
        "▁Nahrung",
        -10.162268650298818
      ],
      [
        "auftrag",
        -10.162279011151538
      ],
      [
        "▁redeten",
        -10.162282881190812
      ],
      [
        "efangene",
        -10.16228600566814
      ],
      [
        "▁Programm",
        -10.162289210008879
      ],
      [
        "▁Kühl",
        -10.16229006937204
      ],
      [
        "▁Garde",
        -10.16229773333931
      ],
      [
        "▁Unsinn",
        -10.16229841831
      ],
      [
        "▁Info",
        -10.16230136340153
      ],
      [
        "▁geprügelt",
        -10.162326633947677
      ],
      [
        "▁Schwester",
        -10.162326957966346
      ],
      [
        "▁seltsam",
        -10.16232918458991
      ],
      [
        "prozess",
        -10.162367380178367
      ],
      [
        "▁nackt",
        -10.162370765422809
      ],
      [
        "▁ruh",
        -10.162372683754064
      ],
      [
        "▁42",
        -10.16237515790024
      ],
      [
        "hase",
        -10.162392260588149
      ],
      [
        "▁Verkehr",
        -10.162396002751166
      ],
      [
        "▁Heute",
        -10.162411089243601
      ],
      [
        "▁jüngere",
        -10.16241673322849
      ],
      [
        ".de/",
        -10.162426684294578
      ],
      [
        "muliert",
        -10.162431261909823
      ],
      [
        "▁Salo",
        -10.16246022846466
      ],
      [
        "▁Jean",
        -10.162494536486168
      ],
      [
        "▁hingegen",
        -10.162495452101235
      ],
      [
        "▁Tors",
        -10.162504928281967
      ],
      [
        "▁damalige",
        -10.162521914926966
      ],
      [
        "Besitz",
        -10.16252725491967
      ],
      [
        "▁Medien",
        -10.162527954069477
      ],
      [
        "▁Asien",
        -10.162533875764117
      ],
      [
        "▁Spenden",
        -10.162551555670126
      ],
      [
        "▁beschreiben",
        -10.1625584452243
      ],
      [
        "▁Wandel",
        -10.162580166545412
      ],
      [
        "▁Ära",
        -10.162595289165035
      ],
      [
        "▁Säcke",
        -10.16260947705821
      ],
      [
        "▁Kaj",
        -10.162619566704366
      ],
      [
        "▁Regis",
        -10.162634576757826
      ],
      [
        "▁zustande",
        -10.162638212180626
      ],
      [
        "Vorsitzende",
        -10.162647781750016
      ],
      [
        "▁aufgeteilt",
        -10.162655547087889
      ],
      [
        "75%",
        -10.162660304084412
      ],
      [
        "▁freigegeben",
        -10.162675103734587
      ],
      [
        "ount",
        -10.16267670037858
      ],
      [
        "▁prim",
        -10.162687168235635
      ],
      [
        "▁Quelle",
        -10.162705660158275
      ],
      [
        "▁elektronische",
        -10.162708045422264
      ],
      [
        "▁Hinter",
        -10.162737213202776
      ],
      [
        "arcs",
        -10.162738559724586
      ],
      [
        "▁Aspekt",
        -10.16274476459747
      ],
      [
        "▁Stimmung",
        -10.162745936717714
      ],
      [
        "▁Studium",
        -10.16274724605889
      ],
      [
        "▁UN",
        -10.162755482415497
      ],
      [
        "▁Lust",
        -10.162760940028573
      ],
      [
        "ammte",
        -10.16276815499271
      ],
      [
        "mög",
        -10.162793111331837
      ],
      [
        "strang",
        -10.162795074888304
      ],
      [
        "▁Dritte",
        -10.162797707818214
      ],
      [
        "▁Vergehen",
        -10.162798130918866
      ],
      [
        "erschütte",
        -10.162815562288769
      ],
      [
        "▁laufen",
        -10.162819724678
      ],
      [
        "achtung",
        -10.16284563896847
      ],
      [
        "os",
        -10.16286322422839
      ],
      [
        "▁verbinde",
        -10.162888478337797
      ],
      [
        "▁NAS",
        -10.162903760050728
      ],
      [
        "▁eröffne",
        -10.162935782149344
      ],
      [
        "gebär",
        -10.162978933540577
      ],
      [
        "/U",
        -10.163000503479816
      ],
      [
        "▁weinte",
        -10.163003613893533
      ],
      [
        "▁Krafträder",
        -10.163005553195108
      ],
      [
        "▁not",
        -10.163007913692216
      ],
      [
        "▁28",
        -10.163009434396677
      ],
      [
        "▁Gemein",
        -10.163018697112888
      ],
      [
        "üler",
        -10.163020115163766
      ],
      [
        "▁Führen",
        -10.163109894790416
      ],
      [
        "Ã1⁄4nde",
        -10.163120693770779
      ],
      [
        "▁Trend",
        -10.163177125338276
      ],
      [
        "▁Atem",
        -10.163195839072786
      ],
      [
        "▁Ungl",
        -10.163207898421863
      ],
      [
        "▁konsta",
        -10.1633097600414
      ],
      [
        "fahrt",
        -10.163345049348521
      ],
      [
        "▁Benzin",
        -10.163347099982158
      ],
      [
        "alismus",
        -10.163371893147145
      ],
      [
        "▁wohnen",
        -10.16339914344556
      ],
      [
        "▁wachsende",
        -10.163421276946034
      ],
      [
        "▁2005",
        -10.163427031351524
      ],
      [
        "▁kop",
        -10.16342896910718
      ],
      [
        "▁aufzubauen",
        -10.16344219103127
      ],
      [
        "▁vielmehr",
        -10.163447678133931
      ],
      [
        "▁Maske",
        -10.163477172133016
      ],
      [
        "▁Nachteil",
        -10.163524655774644
      ],
      [
        "▁erledig",
        -10.163527619660853
      ],
      [
        "▁westliche",
        -10.163564734630118
      ],
      [
        "halle",
        -10.163564766835144
      ],
      [
        "▁Absicht",
        -10.163576848961263
      ],
      [
        "▁verstanden",
        -10.163576978575286
      ],
      [
        "▁gelungen",
        -10.163592561662519
      ],
      [
        "▁gegenüber",
        -10.163593517196194
      ],
      [
        "Verhaltensmuster",
        -10.163625516838456
      ],
      [
        "▁wunder",
        -10.163650264277962
      ],
      [
        "▁ehemalige",
        -10.16367815208488
      ],
      [
        "▁aufgedeckt",
        -10.16370013755635
      ],
      [
        "Musik",
        -10.163743156999237
      ],
      [
        "▁(C",
        -10.163756042126721
      ],
      [
        "▁schreibt",
        -10.163763011805388
      ],
      [
        "▁Frühp",
        -10.163793726646016
      ],
      [
        "bruch",
        -10.163802165430377
      ],
      [
        "▁behalten",
        -10.163804530801732
      ],
      [
        "tnisse",
        -10.163815860899998
      ],
      [
        "▁Prü",
        -10.16383459346609
      ],
      [
        "▁\"S",
        -10.163862584180203
      ],
      [
        "▁trink",
        -10.163880093999454
      ],
      [
        "▁ausgeht",
        -10.163954668245028
      ],
      [
        "view",
        -10.163971374243598
      ],
      [
        "laufen.",
        -10.163975617060883
      ],
      [
        "hamm",
        -10.163990352052949
      ],
      [
        "▁gehalten",
        -10.164023315456816
      ],
      [
        "▁Szene",
        -10.164093100374274
      ],
      [
        "▁Hü",
        -10.164195777072552
      ],
      [
        "▁Anfall",
        -10.164215589487767
      ],
      [
        "▁München",
        -10.164249117730378
      ],
      [
        "▁Gewinn",
        -10.164277754123571
      ],
      [
        "▁endete",
        -10.164296638606748
      ],
      [
        "chädig",
        -10.16430185621838
      ],
      [
        "▁Zen-",
        -10.164372417493283
      ],
      [
        "▁\"W",
        -10.16442083314047
      ],
      [
        "achmittag",
        -10.164427517288612
      ],
      [
        "▁Verliere",
        -10.164445329843252
      ],
      [
        "▁enthalten",
        -10.164483787535646
      ],
      [
        "ight",
        -10.164488263912814
      ],
      [
        "▁KG",
        -10.164495370190929
      ],
      [
        "anager",
        -10.164507610701198
      ],
      [
        "▁Strom",
        -10.164507987214867
      ],
      [
        "▁US",
        -10.16451280404917
      ],
      [
        "▁post",
        -10.164577551770709
      ],
      [
        "▁schlägt",
        -10.164582975087232
      ],
      [
        "▁„Sie",
        -10.16464174333961
      ],
      [
        "▁überzeugt",
        -10.164690642823825
      ],
      [
        "kostet",
        -10.164715266959249
      ],
      [
        "seitig",
        -10.164750025710811
      ],
      [
        "▁Erklärung",
        -10.164773931974185
      ],
      [
        "▁Erober",
        -10.164816714263058
      ],
      [
        "ralien",
        -10.164873452727278
      ],
      [
        "▁entdecken",
        -10.164980999824165
      ],
      [
        "▁Wohl",
        -10.165007317359134
      ],
      [
        "▁Datum",
        -10.165204089534964
      ],
      [
        "▁Unschuld",
        -10.165244728521374
      ],
      [
        "orge",
        -10.16550402119677
      ],
      [
        "zuschauen",
        -10.165557808596171
      ],
      [
        "▁Zeitpunkt",
        -10.165607516470494
      ],
      [
        "schreit",
        -10.165699696967746
      ],
      [
        "▁zugelassen",
        -10.165736104932968
      ],
      [
        "zugang",
        -10.165821640534201
      ],
      [
        "gen.",
        -10.165981554351927
      ],
      [
        "dolf",
        -10.166296563947537
      ],
      [
        "▁nennen",
        -10.166324017691032
      ],
      [
        "▁(H",
        -10.166326946588553
      ],
      [
        "▁König",
        -10.166480082769388
      ],
      [
        "▁offensi",
        -10.166554471808753
      ],
      [
        "▁Schwer",
        -10.16665952629203
      ],
      [
        "elbstbewusst",
        -10.166808842417646
      ],
      [
        "▁gefährlich",
        -10.16685682012814
      ],
      [
        "storben",
        -10.167027738363588
      ],
      [
        "▁Tsche",
        -10.16703806664849
      ],
      [
        "▁bekam",
        -10.167045107803247
      ],
      [
        "▁Erik",
        -10.16707474414147
      ],
      [
        "▁Gebiet",
        -10.167127683071449
      ],
      [
        "rüste",
        -10.1671634049494
      ],
      [
        "steiger",
        -10.167178978746445
      ],
      [
        "sprü",
        -10.16718755135636
      ],
      [
        "nerv",
        -10.167287227491233
      ],
      [
        "äuser",
        -10.167333202400526
      ],
      [
        "läute",
[...]
