{
  "version": "1.0",
  "truncation": null,
  "padding": null,
  "added_tokens": [
    {
      "id": 0,
      "content": "[UNK]",
      "single_word": false,
      "lstrip": false,
      "rstrip": false,
      "normalized": false,
      "special": true
    },
    {
      "id": 1,
      "content": "[CLS]",
      "single_word": false,
      "lstrip": false,
      "rstrip": false,
      "normalized": false,
      "special": true
    },
    {
      "id": 2,
      "content": "[SEP]",
      "single_word": false,
      "lstrip": false,
      "rstrip": false,
      "normalized": false,
      "special": true
    },
    {
      "id": 3,
      "content": "[PAD]",
      "single_word": false,
      "lstrip": false,
      "rstrip": false,
      "normalized": false,
      "special": true
    },
    {
      "id": 4,
      "content": "[MASK]",
      "single_word": false,
      "lstrip": false,
      "rstrip": false,
      "normalized": false,
      "special": true
    }
  ],
  "normalizer": {
    "type": "Sequence",
    "normalizers": [
      {
        "type": "Nmt"
      },
      {
        "type": "NFKC"
      },
      {
        "type": "Replace",
        "pattern": {
          "Regex": " {2,}"
        },
        "content": " "
      }
    ]
  },
  "pre_tokenizer": {
    "type": "Metaspace",
    "replacement": "▁",
    "prepend_scheme": "always",
    "split": true
  },
  "post_processor": null,
  "decoder": {
    "type": "Metaspace",
    "replacement": "▁",
    "prepend_scheme": "always",
    "split": true
  },
  "model": {
    "type": "Unigram",
    "unk_id": 0,
    "vocab": [
      [
        "[UNK]",
        0.0
      ],
      [
        "[CLS]",
        0.0
      ],
      [
        "[SEP]",
        0.0
      ],
      [
        "[PAD]",
        0.0
      ],
      [
        "[MASK]",
        0.0
      ],
      [
        "▁",
        -2.5156384519332686
      ],
      [
        ",",
        -3.5103579594072034
      ],
      [
        ".",
        -3.6398897142699553
      ],
      [
        "n",
        -3.80882577111152
      ],
      [
        "▁ja",
        -3.9671628331976976
      ],
      [
        "▁on",
        -4.459205133541236
      ],
      [
        "t",
        -4.520740141535363
      ],
      [
        "a",
        -4.541624348480745
      ],
      [
        "en",
        -5.127636276281674
      ],
      [
        "-",
        -5.311820058162539
      ],
      [
        ":",
        -5.478227976091093
      ],
      [
        "in",
        -5.520897991877947
      ],
      [
        "▁ei",
        -5.547903435778091
      ],
      [
        "▁että",
        -5.574343234521217
      ],
      [
        ")",
        -5.65445439418194
      ],
      [
        "sta",
        -5.737167541977339
      ],
      [
        "s",
        -5.747488524521859
      ],
      [
        "i",
        -5.7628217045632475
      ],
      [
        "ä",
        -5.774539343384417
      ],
      [
        "ta",
        -5.788973506177486
      ],
      [
        "ssa",
        -5.802185697217302
      ],
      [
        "▁-",
        -5.905922485808578
      ],
      [
        "▁oli",
        -5.9209897304512324
      ],
      [
        "kin",
        -5.979751436799811
      ],
      [
        "▁se",
        -6.042283433721273
      ],
      [
        "▁(",
        -6.067474093142669
      ],
      [
        "lla",
        -6.081790823980343
      ],
      [
        "!",
        -6.1059811511796696
      ],
      [
        "an",
        -6.110074099888912
      ],
      [
        "▁tai",
        -6.151150356378329
      ],
      [
        "lle",
        -6.216733186467971
      ],
      [
        "?",
        -6.2325597289750885
      ],
      [
        "▁mutta",
        -6.2391462530627475
      ],
      [
        "▁myös",
        -6.266331877843081
      ],
      [
        "▁kun",
        -6.2759874895303795
      ],
      [
        "▁ole",
        -6.287883540801241
      ],
      [
        "e",
        -6.297060893134722
      ],
      [
        "si",
        -6.3040541234307454
      ],
      [
        "ja",
        -6.355754122061537
      ],
      [
        "▁ovat",
        -6.361872071972783
      ],
      [
        "▁niin",
        -6.363166216933038
      ],
      [
        "na",
        -6.413277455132892
      ],
      [
        "mme",
        -6.477063257926613
      ],
      [
        "▁voi",
        -6.485169558915759
      ],
      [
        "▁kuin",
        -6.490493267841085
      ],
      [
        "ksi",
        -6.567214236088448
      ],
      [
        "...",
        -6.568666281725186
      ],
      [
        "▁joka",
        -6.606579499129744
      ],
      [
        "ko",
        -6.626970255272823
      ],
      [
        "ni",
        -6.631891558696882
      ],
      [
        "nen",
        -6.640392980112102
      ],
      [
        "▁jo",
        -6.652463344308439
      ],
      [
        "▁sitten",
        -6.664796411754709
      ],
      [
        "▁sen",
        -6.6747954786761206
      ],
      [
        "u",
        -6.680591298292777
      ],
      [
        "o",
        -6.695670349189417
      ],
      [
        "sti",
        -6.720554133422958
      ],
      [
        "vat",
        -6.792780260083882
      ],
      [
        "▁1",
        -6.793530037540169
      ],
      [
        "▁sekä",
        -6.83932232618532
      ],
      [
        "a.",
        -6.874408337331369
      ],
      [
        "stä",
        -6.875526746864141
      ],
      [
        "▁olla",
        -6.917195789857388
      ],
      [
        "▁►",
        -6.955118996511098
      ],
      [
        "llä",
        -6.966429986999119
      ],
      [
        "ssä",
        -6.973609800480181
      ],
      [
        "▁sitä",
        -7.006495642861573
      ],
      [
        "▁vain",
        -7.016313734908961
      ],
      [
        "▁jos",
        -7.02055000399127
      ],
      [
        "a,",
        -7.02123171202914
      ],
      [
        "▁nyt",
        -7.025194076068873
      ],
      [
        "on",
        -7.026010807804635
      ],
      [
        "y",
        -7.054689547506795
      ],
      [
        "▁vielä",
        -7.0668051734954
      ],
      [
        "▁ollut",
        -7.097614338563899
      ],
      [
        "▁–",
        -7.10303715081554
      ],
      [
        "minen",
        -7.113304322594681
      ],
      [
        "▁saa",
        -7.118320281410718
      ],
      [
        "▁2",
        -7.132683124859797
      ],
      [
        "▁olisi",
        -7.138400516751027
      ],
      [
        "jen",
        -7.140008493063155
      ],
      [
        "maan",
        -7.141347634657858
      ],
      [
        "et",
        -7.154020040513856
      ],
      [
        "tä",
        -7.159666810287193
      ],
      [
        "ista",
        -7.1602406771905756
      ],
      [
        "/",
        -7.163688312243821
      ],
      [
        "\"",
        -7.167295253545532
      ],
      [
        "▁kaikki",
        -7.170027167115952
      ],
      [
        "▁Ja",
        -7.178956041946744
      ],
      [
        "▁ihan",
        -7.199235279338662
      ],
      [
        "▁mitä",
        -7.202456920125906
      ],
      [
        "sa",
        -7.221825989574162
      ],
      [
        "▁siitä",
        -7.269524183793742
      ],
      [
        "▁\"",
        -7.270308025477931
      ],
      [
        "inen",
        -7.282864759911703
      ],
      [
        "lta",
        -7.285466043862046
      ],
      [
        "▁vaan",
        -7.285475425032434
      ],
      [
        "▁A",
        -7.301120128602138
      ],
      [
        "▁ne",
        -7.310688619321601
      ],
      [
        "▁hän",
        -7.314393782281369
      ],
      [
        "▁tulee",
        -7.317360606567533
      ],
      [
        "ten",
        -7.339771858181557
      ],
      [
        "pa",
        -7.344321043582104
      ],
      [
        "▁kanssa",
        -7.346309828767941
      ],
      [
        "nyt",
        -7.348398016739917
      ],
      [
        "nut",
        -7.349141918973341
      ],
      [
        "us",
        -7.3513653871693645
      ],
      [
        "▁S",
        -7.3562997482133685
      ],
      [
        "ki",
        -7.377523469690631
      ],
      [
        "▁mukaan",
        -7.379228572955057
      ],
      [
        "jotka",
        -7.379687363333657
      ],
      [
        "▁K",
        -7.386845659376068
      ],
      [
        "▁Se",
        -7.391481171894357
      ],
      [
        "▁paljon",
        -7.404594051460965
      ],
      [
        "▁3",
        -7.410240599745977
      ],
      [
        "▁koko",
        -7.4228711121915545
      ],
      [
        "sen",
        -7.423561763610541
      ],
      [
        "▁aina",
        -7.426532698484268
      ],
      [
        "▁Jos",
        -7.437822096165835
      ],
      [
        "va",
        -7.461253180056424
      ],
      [
        "N",
        -7.469873879384837
      ],
      [
        "▁kyllä",
        -7.471167906921654
      ],
      [
        "h",
        -7.4742854067424656
      ],
      [
        "▁jälkeen",
        -7.480924049000995
      ],
      [
        "▁itse",
        -7.483687693534829
      ],
      [
        "la",
        -7.500605255673081
      ],
      [
        "▁vaikka",
        -7.509530381748014
      ],
      [
        "nä",
        -7.512462150541047
      ],
      [
        "▁:)",
        -7.514267470063691
      ],
      [
        "▁olen",
        -7.515719481017076
      ],
      [
        "▁hyvin",
        -7.519205763630628
      ],
      [
        "▁kuitenkin",
        -7.544122347138094
      ],
      [
        "▁eri",
        -7.565287299610079
      ],
      [
        "▁T",
        -7.56701189187331
      ],
      [
        "▁aika",
        -7.5775961368015246
      ],
      [
        "▁_",
        -7.5792315633144565
      ],
      [
        "nsa",
        -7.58136595202931
      ],
      [
        "▁tämä",
        -7.595356544768846
      ],
      [
        "▁hyvä",
        -7.595857688914913
      ],
      [
        "▁siis",
        -7.602992061373827
      ],
      [
        "▁Suomen",
        -7.606709899184104
      ],
      [
        "▁tuo",
        -7.6071638028230595
      ],
      [
        "ti",
        -7.618452192164845
      ],
      [
        "▁Ei",
        -7.61901476197532
      ],
      [
        "än",
        -7.620593535363627
      ],
      [
        "▁eivät",
        -7.620980007631193
      ],
      [
        "sin",
        -7.621045727242938
      ],
      [
        "▁sillä",
        -7.6228828998937175
      ],
      [
        "tu",
        -7.631611647567871
      ],
      [
        "ke",
        -7.636739758647268
      ],
      [
        ";",
        -7.637282171466309
      ],
      [
        ").",
        -7.640120681028085
      ],
      [
        "iden",
        -7.641619543782754
      ],
      [
        "k",
        -7.641918166043483
      ],
      [
        "▁jossa",
        -7.652531839172017
      ],
      [
        "▁4",
        -7.656952942848559
      ],
      [
        "▁M",
        -7.657067462686623
      ],
      [
        "han",
        -7.66192692651761
      ],
      [
        "▁koska",
        -7.664682014850303
      ],
      [
        "▁eli",
        -7.67996545893134
      ],
      [
        "tti",
        -7.695703977000539
      ],
      [
        "▁vähän",
        -7.6973130992236385
      ],
      [
        "issa",
        -7.7060485633282365
      ],
      [
        "illa",
        -7.7061907432354815
      ],
      [
        "▁taas",
        -7.7113439429544055
      ],
      [
        "▁ennen",
        -7.713162217366433
      ],
      [
        "▁Tämä",
        -7.716128667934711
      ],
      [
        "▁osa",
        -7.71675645489529
      ],
      [
        "▁E",
        -7.717437942709719
      ],
      [
        "T",
        -7.717738637514305
      ],
      [
        "un",
        -7.719869520081918
      ],
      [
        "”",
        -7.72096349293361
      ],
      [
        "▁eikä",
        -7.725859424235235
      ],
      [
        "l",
        -7.726409146039275
      ],
      [
        "▁En",
        -7.728777843358188
      ],
      [
        "vät",
        -7.734192509765396
      ],
      [
        "taan",
        -7.736199961439096
      ],
      [
        "kaan",
        -7.738092989456721
      ],
      [
        "m",
        -7.739275818885837
      ],
      [
        "▁jonka",
        -7.739358592345015
      ],
      [
        "▁5",
        -7.742220950958906
      ],
      [
        "ttiin",
        -7.746306817454444
      ],
      [
        "▁tuli",
        -7.751759624705414
      ],
      [
        "▁yli",
        -7.753491890347101
      ],
      [
        "sta.",
        -7.760086857695459
      ],
      [
        "▁pitää",
        -7.770219635415719
      ],
      [
        "t,",
        -7.777631269607609
      ],
      [
        "ka",
        -7.78572089602808
      ],
      [
        "li",
        -7.786342630857593
      ],
      [
        "ri",
        -7.794278840283386
      ],
      [
        "neet",
        -7.796459560190009
      ],
      [
        "▁P",
        -7.799593684950247
      ],
      [
        "▁mitään",
        -7.799900908241822
      ],
      [
        "▁Kun",
        -7.817925299990179
      ],
      [
        "den",
        -7.818987353564594
      ],
      [
        "hän",
        -7.822300612025778
      ],
      [
        "▁joten",
        -7.824363484386655
      ],
      [
        "te",
        -7.825780415226237
      ],
      [
        "▁miten",
        -7.8323483646848135
      ],
      [
        "d",
        -7.839037222666821
      ],
      [
        "r",
        -7.842886847844266
      ],
      [
        "▁vuoden",
        -7.849578018805733
      ],
      [
        "▁10",
        -7.8537541104195725
      ],
      [
        "▁Mutta",
        -7.854177761554688
      ],
      [
        "▁yksi",
        -7.855661700780363
      ],
      [
        "tta",
        -7.86173448449412
      ],
      [
        "ssa.",
        -7.8647937600605236
      ],
      [
        "ille",
        -7.878277512160942
      ],
      [
        "▁hänen",
        -7.8803054400228625
      ],
      [
        "ku",
        -7.881182938566331
      ],
      [
        "▁siihen",
        -7.881618454441373
      ],
      [
        "ma",
        -7.883547218814565
      ],
      [
        "▁vuotta",
        -7.889979148484601
      ],
      [
        "▁niitä",
        -7.890278152068058
      ],
      [
        "▁juuri",
        -7.891789758320321
      ],
      [
        "▁/",
        -7.897991026525764
      ],
      [
        "kään",
        -7.898364708524634
      ],
      [
        "▁tässä",
        -7.918754741380287
      ],
      [
        "▁tämän",
        -7.920292135916723
      ],
      [
        "kä",
        -7.928404214472014
      ],
      [
        "▁H",
        -7.941318158035349
      ],
      [
        "▁V",
        -7.941664041132517
      ],
      [
        "▁vuonna",
        -7.943886937123217
      ],
      [
        "▁mikä",
        -7.948895763325353
      ],
      [
        "▁tehdä",
        -7.949022507052469
      ],
      [
        "is",
        -7.950469243799475
      ],
      [
        "▁enemmän",
        -7.966197835910643
      ],
      [
        "kuten",
        -7.971843412690244
      ],
      [
        "▁olivat",
        -7.971849103515561
      ],
      [
        "▁I",
        -7.981629554397378
      ],
      [
        "ihin",
        -7.984426357630758
      ],
      [
        "▁klo",
        -7.987654524016653
      ],
      [
        "▁6",
        -7.991096361525713
      ],
      [
        "▁työ",
        -7.991327277363517
      ],
      [
        "v",
        -7.992949896633911
      ],
      [
        "▁noin",
        -7.997128129572355
      ],
      [
        "▁(1)",
        -7.997332001777728
      ],
      [
        "lle.",
        -7.999512230261743
      ],
      [
        "ia",
        -8.003262542897236
      ],
      [
        "▁uusi",
        -8.008891766543027
      ],
      [
        "ksi.",
        -8.009371442186236
      ],
      [
        "isi",
        -8.00967138651105
      ],
      [
        "▁”",
        -8.02113949760213
      ],
      [
        "▁kaksi",
        -8.02270348714973
      ],
      [
        "▁lisää",
        -8.037240680639192
      ],
      [
        "istä",
        -8.042148089107558
      ],
      [
        "jä",
        -8.046753908427114
      ],
      [
        "▁C",
        -8.046797517486116
      ],
      [
        "ne",
        -8.047748738889716
      ],
      [
        "▁siinä",
        -8.049753332656847
      ],
      [
        "to",
        -8.05859324923651
      ],
      [
        "le",
        -8.058711820678965
      ],
      [
        "▁ettei",
        -8.070003672958105
      ],
      [
        "▁ilman",
        -8.07416757704075
      ],
      [
        "mään",
        -8.075731586607356
      ],
      [
        "▁O",
        -8.080629013241658
      ],
      [
        "▁JA",
        -8.080787560402536
      ],
      [
        "ttu",
        -8.084803038471376
      ],
      [
        "ä.",
        -8.09694249338528
      ],
      [
        "▁No",
        -8.097980263373845
      ],
      [
        "▁Nyt",
        -8.09803471085699
      ],
      [
        "▁voidaan",
        -8.098781222993743
      ],
      [
        "▁he",
        -8.09909597779088
      ],
      [
        "▁Hän",
        -8.103564274674918
      ],
      [
        "▁On",
        -8.105452849876382
      ],
      [
        "▁Olen",
        -8.115740991407034
      ],
      [
        "▁tästä",
        -8.121235175926945
      ],
      [
        "aan",
        -8.124208065630029
      ],
      [
        "▁jotain",
        -8.135057409825277
      ],
      [
        "misen",
        -8.135517540604313
      ],
      [
        "pä",
        -8.137315320668211
      ],
      [
        "A",
        -8.144778497066174
      ],
      [
        "▁aikana",
        -8.14603801951571
      ],
      [
        "▁sai",
        -8.14739361246846
      ],
      [
        "▁enää",
        -8.154697347535278
      ],
      [
        "▁8",
        -8.156087568549463
      ],
      [
        "▁B",
        -8.158784374163032
      ],
      [
        "it",
        -8.165279996561862
      ],
      [
        "▁aivan",
        -8.172944183684779
      ],
      [
        "ltä",
        -8.176465175389648
      ],
      [
        "▁7",
        -8.18151209514346
      ],
      [
        "llinen",
        -8.191072218022846
      ],
      [
        "▁L",
        -8.197438644354673
      ],
      [
        "▁esimerkiksi",
        -8.198020621290876
      ],
      [
        "kö",
        -8.205522537932342
      ],
      [
        "▁oma",
        -8.212184474933547
      ],
      [
        "▁Jo",
        -8.212816261415517
      ],
      [
        "kka",
        -8.216089566997338
      ],
      [
        "▁näin",
        -8.219378194083657
      ],
      [
        "▁vai",
        -8.220756848784097
      ],
      [
        "▁ehkä",
        -8.223273892106844
      ],
      [
        "mis",
        -8.22759935883641
      ],
      [
        "▁lisäksi",
        -8.228246210195188
      ],
      [
        "mista",
        -8.234539560574818
      ],
      [
        "▁edes",
        -8.239578949626344
      ],
      [
        "▁1.",
        -8.24116004361685
      ],
      [
        "g",
        -8.24657547492103
      ],
      [
        "ita",
        -8.246839261080291
      ],
      [
        "▁vasta",
        -8.247698403041829
      ],
      [
        "▁Mitä",
        -8.248944343705194
      ],
      [
        ".fi",
        -8.249493180052085
      ],
      [
        "sta,",
        -8.249854320540221
      ],
      [
        "S",
        -8.254929649435935
      ],
      [
        "lla.",
        -8.267343551316598
      ],
      [
        "ty",
        -8.26763761151626
      ],
      [
        "da",
        -8.269670642490826
      ],
      [
        "▁20",
        -8.273269507205919
      ],
      [
        "an.",
        -8.273584313279809
      ],
      [
        "▁aikaa",
        -8.27477346193916
      ],
      [
        "▁saada",
        -8.280915080698914
      ],
      [
        "▁niiden",
        -8.281908811479262
      ],
      [
        "se",
        -8.283127060304142
      ],
      [
        "tiin",
        -8.283328261407675
      ],
      [
        "▁minä",
        -8.290711431464878
      ],
      [
        "re",
        -8.296678490109613
      ],
      [
        "▁olevan",
        -8.302650604412658
      ],
      [
        "▁tällä",
        -8.302874874999251
      ],
      [
        "▁me",
        -8.30300099346783
      ],
      [
        "▁18",
        -8.303961623300385
      ],
      [
        "p",
        -8.304403446796163
      ],
      [
        "massa",
        -8.305874425044337
      ],
      [
        "▁&",
        -8.306006087463736
      ],
      [
        "▁kertaa",
        -8.307676473705868
      ],
      [
        "▁oikein",
        -8.309146713263374
      ],
      [
        "▁tätä",
        -8.313438043058017
      ],
      [
        "isen",
        -8.31375230765174
      ],
      [
        "▁12",
        -8.31650905689496
      ],
      [
        "▁jopa",
        -8.31763217131302
      ],
      [
        "▁pari",
        -8.317998745360072
      ],
      [
        "ra",
        -8.321122767631406
      ],
      [
        "▁9",
        -8.321390408642435
      ],
      [
        "▁todella",
        -8.324183098696512
      ],
      [
        "▁hieman",
        -8.32636473992804
      ],
      [
        "▁joku",
        -8.327371726737269
      ],
      [
        "▁voisi",
        -8.327420100350466
      ],
      [
        "▁ainakin",
        -8.327566925365613
      ],
      [
        "pi",
        -8.328737853935724
      ],
      [
        "▁Kaikki",
        -8.333341379001716
      ],
      [
        "▁viime",
        -8.334684917322772
      ],
      [
        "▁kuinka",
        -8.349075572484086
      ],
      [
        "kaa",
        -8.350135147003185
      ],
      [
        "essa",
        -8.352909775729294
      ],
      [
        "van",
        -8.354046976794827
      ],
      [
        "▁vuosi",
        -8.367512845715101
      ],
      [
        "▁käyttää",
        -8.373409544296095
      ],
      [
        "▁tähän",
        -8.373826707933784
      ],
      [
        "▁siellä",
        -8.374046869334535
      ],
      [
        "▁15",
        -8.374090188262711
      ],
      [
        "▁:D",
        -8.376804703902724
      ],
      [
        "tin",
        -8.379583023726028
      ],
      [
        "▁usein",
        -8.383214481867052
      ],
      [
        "ä,",
        -8.383337932244164
      ],
      [
        "▁pää",
        -8.386934030467534
      ],
      [
        "▁alkaa",
        -8.38695122522317
      ],
      [
        "tään",
        -8.391221594338951
      ],
      [
        "▁kuva",
        -8.392137709463412
      ],
      [
        "mi",
        -8.395951777194295
      ],
      [
        "ve",
        -8.398407623946772
      ],
      [
        "er",
        -8.398864244239077
      ],
      [
        "▁kautta",
        -8.39964291690164
      ],
      [
        "▁iso",
        -8.407163550339813
      ],
      [
        "▁kanssa.",
        -8.40791214216686
      ],
      [
        "▁Suomessa",
        -8.409877032450774
      ],
      [
        "▁jota",
        -8.410041966652718
      ],
      [
        "▁löytyy",
        -8.411847986723592
      ],
      [
        ":n",
        -8.414218398776699
      ],
      [
        "kin.",
        -8.418979097752787
      ],
      [
        "▁ajan",
        -8.429631559230058
      ],
      [
        "de",
        -8.43160245157678
      ],
      [
        "▁päivä",
        -8.432991697585182
      ],
      [
        "­",
        -8.437236344316828
      ],
      [
        "▁silloin",
        -8.43753948268893
      ],
      [
        "▁oman",
        -8.438726932518463
      ],
      [
        "▁pois",
        -8.439497068913147
      ],
      [
        "kki",
        -8.439958716212958
      ],
      [
        "▁Tässä",
        -8.443479640278039
      ],
      [
        "tus",
        -8.448181391251447
      ],
      [
        "ään",
        -8.448371977107545
      ],
      [
        "set",
        -8.451274578035905
      ],
      [
        "▁k",
        -8.460946889091973
      ],
      [
        "malla",
        -8.462472941578623
      ],
      [
        "▁pitäisi",
        -8.46532507126402
      ],
      [
        "pe",
        -8.468367319809673
      ],
      [
        "x",
        -8.469406954638785
      ],
      [
        "▁muuta",
        -8.470070181487145
      ],
      [
        "▁heti",
        -8.470360751451219
      ],
      [
        "▁muut",
        -8.470805490247944
      ],
      [
        "mo",
        -8.475212752929432
      ],
      [
        "1",
        -8.47765225014238
      ],
      [
        "▁kerran",
        -8.479316018244662
      ],
      [
        "ro",
        -8.481712945666416
      ],
      [
        "▁jää",
        -8.48455960433766
      ],
      [
        "▁ottaa",
        -8.487079764995897
      ],
      [
        "▁joita",
        -8.492821505547486
      ],
      [
        "lainen",
        -8.496400244530115
      ],
      [
        "▁antaa",
        -8.49688403498472
      ],
      [
        "▁yhtä",
        -8.50007674622872
      ],
      [
        "),",
        -8.500712948444002
      ],
      [
        "▁määrä",
        -8.50222944573416
      ],
      [
        "c",
        -8.503272442561997
      ],
      [
        "▁mukana",
        -8.505209796735059
      ],
      [
        "▁D",
        -8.506269307108278
      ],
      [
        "▁pieni",
        -8.50646138275994
      ],
      [
        "▁p",
        -8.516118242115274
      ],
      [
        "sten",
        -8.516380073450192
      ],
      [
        "via",
        -8.517402013124562
      ],
      [
        "2",
        -8.520368112029088
      ],
      [
        "▁ku",
        -8.520468295168602
      ],
      [
        "iset",
        -8.520614331749387
      ],
      [
        "▁11",
        -8.529743152812003
      ],
      [
        "▁Me",
        -8.534503890789384
      ],
      [
        "vä",
        -8.536604797843427
      ],
      [
        "▁R",
        -8.538696790673958
      ],
      [
        "▁kolme",
        -8.542662530346108
      ],
      [
        "▁tullut",
        -8.544239907541117
      ],
      [
        "vi",
        -8.545239453892842
      ],
      [
        "nen,",
        -8.545844528733022
      ],
      [
        "▁samalla",
        -8.549285537133464
      ],
      [
        "▁toimi",
        -8.55106877891524
      ],
      [
        "▁Sen",
        -8.554656780497856
      ],
      [
        "sia",
        -8.555098839048066
      ],
      [
        "▁käyttö",
        -8.55653821120767
      ],
      [
        "▁liian",
        -8.559138595310271
      ],
      [
        "▁saanut",
        -8.562104411759966
      ],
      [
        "▁olet",
        -8.563323113570872
      ],
      [
        "▁meidän",
        -8.563617844161293
      ],
      [
        "maa",
        -8.565371116918241
      ],
      [
        "sä",
        -8.571882319606166
      ],
      [
        "▁2014",
        -8.572640729132106
      ],
      [
        "▁mun",
        -8.57313348804169
      ],
      [
        "man",
        -8.576756836153844
      ],
      [
        "▁joskus",
        -8.580842995894647
      ],
      [
        "▁koti",
        -8.582733045576578
      ],
      [
        "▁moni",
        -8.586650528403531
      ],
      [
        "ssa,",
        -8.587406814886243
      ],
      [
        "▁Tunnist",
        -8.590302015253446
      ],
      [
        "▁asia",
        -8.590838393174836
      ],
      [
        "hi",
        -8.593283439870687
      ],
      [
        "▁tosi",
        -8.593494523085754
      ],
      [
        "lä",
        -8.593652062664443
      ],
      [
        "▁%",
        -8.59484882217652
      ],
      [
        "▁koulu",
        -8.595505530830566
      ],
      [
        "▁et",
        -8.596575220411058
      ],
      [
        "ha",
        -8.597051454640514
      ],
      [
        "▁välillä",
        -8.598133671206838
      ],
      [
        "3",
        -8.598592160777232
      ],
      [
        "▁voit",
        -8.602115247441876
      ],
      [
        "▁koskaan",
        -8.602562850766104
      ],
      [
        "▁Mikä",
        -8.60302660743979
      ],
      [
        "▁nimi",
        -8.60403076241738
      ],
      [
        "▁kirja",
        -8.605208024325474
      ],
      [
        "eet:",
        -8.60571937377958
      ],
      [
        "nne",
        -8.60717302101167
      ],
      [
        "▁mm.",
        -8.60934276663423
      ],
      [
        "▁suuri",
        -8.61050396621022
      ],
      [
        "▁täällä",
        -8.610688988712479
      ],
      [
        "lan",
        -8.613145170945652
      ],
      [
        "b",
        -8.613444892195501
      ],
      [
        "tte",
        -8.615050748181217
      ],
      [
        "▁heidän",
        -8.61672660240412
      ],
      [
        "▁perus",
        -8.616870830558387
      ],
      [
        "kseen",
        -8.62501439177153
      ],
      [
        "ttä",
        -8.62534534736763
      ],
      [
        "▁käy",
        -8.627158426591091
      ],
      [
        "▁14",
        -8.62749653248354
      ],
      [
        "mpi",
        -8.627618750473026
      ],
      [
        "▁muuten",
        -8.627913267429175
      ],
      [
        "▁2.",
        -8.63169980293564
      ],
      [
        "▁minun",
        -8.633142945509896
      ],
      [
        "▁toiminta",
        -8.635646772557072
      ],
      [
        "▁jotta",
        -8.637508372274604
      ],
      [
        "lle,",
        -8.638054778944124
      ],
      [
        "ton",
        -8.638388144703802
      ],
      [
        "▁jäsen",
        -8.638638966272575
      ],
      [
        "▁toinen",
        -8.63931404086582
      ],
      [
        "▁13",
        -8.644168682767399
      ],
      [
        "▁F",
        -8.645446527920079
      ],
      [
        "nsä",
        -8.649198911361776
      ],
      [
        "▁Oy",
        -8.649908522162173
      ],
      [
        "seen",
        -8.652020737339374
      ],
      [
        "▁30",
        -8.654444613214869
      ],
      [
        "▁16",
        -8.65484726315792
      ],
      [
        "▁(2)",
        -8.662283416267215
      ],
      [
        "▁Itse",
        -8.662826013855035
      ],
      [
        "kas",
        -8.663122495631315
      ],
      [
        "▁2015",
        -8.663953855364475
      ],
      [
        "▁19",
        -8.665738130214226
      ],
      [
        "me",
        -8.667835331078901
      ],
      [
        "▁missä",
        -8.670851194835743
      ],
      [
        "f",
        -8.680324551981633
      ],
      [
        "▁lasten",
        -8.680478168199919
      ],
      [
        "▁yhdessä",
        -8.682592890934979
      ],
      [
        "▁muun",
        -8.682966398378152
      ],
      [
        "▁kuuluu",
        -8.686530338485374
      ],
      [
        "po",
        -8.68764773978854
      ],
      [
        "at",
        -8.688731633448826
      ],
      [
        "▁He",
        -8.691356031447787
      ],
      [
        "▁täysin",
        -8.691833517880323
      ],
      [
        "▁2016",
        -8.692812802603976
      ],
      [
        "▁hyvää",
        -8.700541166306598
      ],
      [
        "isten",
        -8.701045986907461
      ],
      [
        "▁varmasti",
        -8.704075636469987
      ],
      [
        "▁Ne",
        -8.70889542208938
      ],
      [
        "al",
        -8.709439773533653
      ],
      [
        "▁vastaan",
        -8.710530303231737
      ],
      [
        "sto",
        -8.710902761126398
      ],
      [
        "▁oleva",
        -8.711180669022237
      ],
      [
        "▁sama",
        -8.714138092515748
      ],
      [
        "▁samaa",
        -8.715573978419277
      ],
      [
        "▁lisä",
        -8.715972627829117
      ],
      [
        "▁ympäristö",
        -8.716825244377567
      ],
      [
        "in.",
        -8.718716111702197
      ],
      [
        "Lisäksi",
        -8.719263479327536
      ],
      [
        "▁N",
        -8.721619969978786
      ],
      [
        "issä",
        -8.723516055349572
      ],
      [
        "▁näyttää",
        -8.727542650025113
      ],
      [
        "ina",
        -8.729967656902991
      ],
      [
        "▁U",
        -8.730503912108368
      ],
      [
        "ys",
        -8.73125025959827
      ],
      [
        "▁alle",
        -8.732481216556506
      ],
      [
        "▁yleensä",
        -8.734582631526479
      ],
      [
        "joiden",
        -8.736075954474744
      ],
      [
        "lu",
        -8.736529008557111
      ],
      [
        "j",
        -8.737434732016784
      ],
      [
        "▁toimii",
        -8.73790716881188
      ],
      [
        "ksen",
        -8.738319362464193
      ],
      [
        "Myös",
        -8.739924677727414
      ],
      [
        "▁tarjoaa",
        -8.74155474701567
      ],
      [
        "ed",
        -8.743229928714339
      ],
      [
        "▁nämä",
        -8.746833435937203
      ],
      [
        "▁muita",
        -8.748672051565736
      ],
      [
        "▁Tämän",
        -8.751738945531512
      ],
      [
        "▁uuden",
        -8.752779071305449
      ],
      [
        "uksen",
        -8.754555177520247
      ],
      [
        "jolloin",
        -8.75572449416837
      ],
      [
        "▁edelleen",
        -8.755749306861192
      ],
      [
        "ks",
        -8.755955395378075
      ],
      [
        "▁tekee",
        -8.756148555049768
      ],
      [
        "Jaa",
        -8.756260622737557
      ],
      [
        "▁maailman",
        -8.758319790025652
      ],
      [
        "lo",
        -8.758779720285752
      ],
      [
        "▁peli",
        -8.759198321189416
      ],
      [
        "▁päästä",
        -8.76109108125994
      ],
      [
        "▁alkoi",
        -8.761172316124208
      ],
      [
        "▁Kiitos",
        -8.763378009658053
      ],
      [
        ".\"",
        -8.764046674423659
      ],
      [
        "kan",
        -8.76416671992094
      ],
      [
        "▁2013",
        -8.764173994769463
      ],
      [
        "▁2012",
        -8.768665934776946
      ],
      [
        "▁kesä",
        -8.771860865359443
      ],
      [
        "▁lähes",
        -8.771901823389033
      ],
      [
        "▁mies",
        -8.772059320257934
      ],
      [
        "ttaa",
        -8.77541281940617
      ],
      [
        "▁varmaan",
        -8.777208554254845
      ],
      [
        "▁17",
        -8.780009045948313
      ],
      [
        "di",
        -8.78334434632103
      ],
      [
        "▁voivat",
        -8.784453658421583
      ],
      [
        "▁(3",
        -8.785076135539077
      ],
      [
        "neen",
        -8.785104671165705
      ],
      [
        "työ",
        -8.786697155523768
      ],
      [
        "▁Ra",
        -8.786867438241789
      ],
      [
        "▁osaa",
        -8.78845421871744
      ],
      [
        "▁muiden",
        -8.78913355919054
      ],
      [
        "▁niistä",
        -8.789390522107748
      ],
      [
        "isia",
        -8.79039834909134
      ],
      [
        "▁G",
        -8.791274021462906
      ],
      [
        "▁ensi",
        -8.791726465820808
      ],
      [
        "▁vie",
        -8.792344808736749
      ],
      [
        "▁huhtikuu",
        -8.79354820168729
      ],
      [
        "▁Suomi",
        -8.794112406684324
      ],
      [
        "ut",
        -8.795465602387175
      ],
      [
        "▁Helsingin",
        -8.796519268631943
      ],
      [
        "▁helmikuu",
        -8.796604764747451
      ],
      [
        "▁2018",
        -8.79835545563606
      ],
      [
        "'",
        -8.798405413241204
      ],
      [
        "iin",
        -8.799618661792284
      ],
      [
        "ö",
        -8.799668095428945
      ],
      [
        "EN",
        -8.801025395074813
      ],
      [
        "▁yhden",
        -8.8016794251361
      ],
      [
        "▁tänään",
        -8.802165930171064
      ],
      [
        "▁kertoo",
        -8.803843906662909
      ],
      [
        "▁Kuva",
        -8.80467084855188
      ],
      [
        "erittäin",
        -8.80488933695596
      ],
      [
        "yn",
        -8.811959537637062
      ],
      [
        "▁meillä",
        -8.812758092157058
      ],
      [
        "▁joissa",
        -8.813973579339283
      ],
      [
        "ry",
        -8.81532839301226
      ],
      [
        "▁3.",
        -8.815398460428604
      ],
      [
        "▁avulla",
        -8.81668968489496
      ],
      [
        "es",
        -8.817827218528057
      ],
      [
        "päivä",
        -8.81872363202201
      ],
      [
        "▁kaiken",
        -8.819204266325807
      ],
      [
        "▁2017",
        -8.822809309807493
      ],
      [
        "ja,",
        -8.823485890240503
      ],
      [
        "]",
        -8.824120692699367
      ],
      [
        "▁päivän",
        -8.824745741312746
      ],
      [
        "▁marraskuu",
        -8.826003059366592
      ],
      [
        "▁Miten",
        -8.834054506748984
      ],
      [
        "▁luo",
        -8.834509138533956
      ],
      [
        "▁kannattaa",
        -8.836721189056952
      ],
      [
        "mu",
        -8.838810914024169
      ],
      [
        "▁Oli",
        -8.838873102029961
      ],
      [
        "▁Vaikka",
        -8.840964893630161
      ],
      [
        "▁tuntuu",
        -8.841790651694962
      ],
      [
        "_",
        -8.84388796765613
      ],
      [
        "▁vesi",
        -8.849249647631156
      ],
      [
        "▁tarvitse",
        -8.849641596641971
      ],
      [
        "jo",
        -8.85056745356389
      ],
      [
        "▁minulle",
        -8.858476293376599
      ],
      [
        "miseen",
        -8.858952427710783
      ],
      [
        "▁mahdollista",
        -8.860484747134006
      ],
      [
        "▁muutama",
        -8.861324612477873
      ],
      [
        "pu",
        -8.862717113229035
      ],
      [
        "ja.",
        -8.862739058829394
      ],
      [
        "▁tehty",
        -8.863032146177458
      ],
      [
        "▁Niin",
        -8.863386113105243
      ],
      [
        "▁kuitenkaan",
        -8.863972699839525
      ],
      [
        "▁Kyllä",
        -8.865390469154502
      ],
      [
        "▁josta",
        -8.866986986866918
      ],
      [
        "ly",
        -8.867166053912927
      ],
      [
        "▁päälle",
        -8.868298457737588
      ],
      [
        "vien",
        -8.869061139257129
      ],
      [
        "ilta",
        -8.870888532560171
      ],
      [
        "▁läpi",
        -8.871802875742128
      ],
      [
        "▁tulisi",
        -8.872961752434616
      ],
      [
        "stä.",
        -8.873039601446376
      ],
      [
        "▁kiva",
        -8.87639457278917
      ],
      [
        "▁toisen",
        -8.877049486979555
      ],
      [
        "▁loppu",
        -8.879463044549345
      ],
      [
        "\".",
        -8.879596147079418
      ],
      [
        "▁tule",
        -8.880244563960417
      ],
      [
        "ho",
        -8.880295915498055
      ],
      [
        "▁monta",
        -8.88082947724871
      ],
      [
        "▁aikaan",
        -8.88187889696703
      ],
      [
        "▁Voi",
        -8.884478760812284
      ],
      [
        "ksi,",
        -8.88785197476545
      ],
      [
        "▁Näin",
        -8.890933686717368
      ],
      [
        "▁+",
        -8.891953053554769
      ],
      [
        "E",
        -8.893083654147226
      ],
      [
        "ta.",
        -8.893764724238629
      ],
      [
        "▁kovin",
        -8.894647693727169
      ],
      [
        "▁muu",
        -8.89620850727429
      ],
      [
        "▁jolla",
        -8.897499100818038
      ],
      [
        "Onko",
        -8.899142901575502
      ],
      [
        "▁ihana",
        -8.899152906097019
      ],
      [
        "▁m",
        -8.900582396415967
      ],
      [
        "4",
        -8.90073971579127
      ],
      [
        "▁usko",
        -8.902449743027713
      ],
      [
        "▁auto",
        -8.903528324466127
      ],
      [
        "an,",
        -8.904138256190326
      ],
      [
        "tettiin",
        -8.907340193459312
      ],
      [
        "▁W",
        -8.91041420623555
      ],
      [
        "▁palvelu",
        -8.910518247160853
      ],
      [
        "▁esim.",
        -8.911660350366672
      ],
      [
        "▁meni",
        -8.912332387637356
      ],
      [
        "▁maaliskuuta",
        -8.912368314194893
      ],
      [
        "▁sähkö",
        -8.91250654782883
      ],
      [
        "▁uutta",
        -8.912894124653633
      ],
      [
        "▁asioita",
        -8.915107508982011
      ],
      [
        "▁tieto",
        -8.91724118428609
      ],
      [
        "▁kävi",
        -8.919398616315853
      ],
      [
        "▁Minä",
        -8.919585626535035
      ],
      [
        "▁ala",
        -8.920482551050522
      ],
      [
        "▁verran",
        -8.921180280456447
      ],
      [
        "▁ry",
        -8.923524466311969
      ],
      [
        "▁uusia",
        -8.924934225864781
      ],
      [
        "▁sinne",
        -8.926980987134256
      ],
      [
        "lla,",
        -8.928218113236747
      ],
      [
        "su",
        -8.930877843675974
      ],
      [
        "isin",
        -8.931003995167533
      ],
      [
        "D",
        -8.931516423991244
      ],
      [
        "▁matka",
        -8.932460798088801
      ],
      [
        "▁piti",
        -8.93399174134857
      ],
      [
        "lta.",
        -8.935557963414038
      ],
      [
        "▁kuukautta",
        -8.936002908962571
      ],
      [
        "▁J",
        -8.936999802139368
      ],
      [
        "▁to",
        -8.937133537875654
      ],
      [
        "▁pitkä",
        -8.937282823916895
      ],
      [
        "he",
        -8.937672204758206
      ],
      [
        "joista",
        -8.939196401785443
      ],
      [
        "▁kaupunki",
        -8.939639740692765
      ],
      [
        "▁tavalla",
        -8.940008939668878
      ],
      [
        "tammikuuta",
        -8.94187745084966
      ],
      [
        "▁000",
        -8.942727807361143
      ],
      [
        "▁la",
        -8.944234931766367
      ],
      [
        "▁puoli",
        -8.944794870364955
      ],
      [
        "w",
        -8.945436129115482
      ],
      [
        "teen",
        -8.946143126109792
      ],
      [
        "▁toukokuuta",
        -8.948119007070286
      ],
      [
        "▁väli",
        -8.948431483323727
      ],
      [
        "K:n",
        -8.948915014994807
      ],
      [
        "▁miksi",
        -8.949553610196425
      ],
      [
        "▁Uusi",
        -8.950917214885273
      ],
      [
        "▁mä",
        -8.95100569817362
      ],
      [
        "joulukuuta",
        -8.95110065992899
      ],
      [
        "nti",
        -8.951403007644053
      ],
      [
        "▁25",
        -8.953343980435138
      ],
      [
        "▁joulu",
        -8.953640942298975
      ],
      [
        "▁[",
        -8.953813998754995
      ],
      [
        "▁omaa",
        -8.954945618861036
      ],
      [
        "illä",
        -8.956087413629476
      ],
      [
        "▁hetkellä",
        -8.957716280300403
      ],
      [
        "▁menee",
        -8.95827178571573
      ],
      [
        "▁kaikille",
        -8.958723188626474
      ],
      [
        "▁Helsinki",
        -8.959398125758806
      ],
      [
        "▁sanoi",
        -8.959991191166036
      ],
      [
        "▁sanoa",
        -8.960481391178924
      ],
      [
        "▁Tai",
        -8.961133825972484
      ],
      [
        "(5)",
        -8.961157820517876
      ],
      [
        "▁kaupungin",
        -8.961609597434606
      ],
      [
        "▁nopeasti",
        -8.962570737058368
      ],
      [
        "▁tietoa",
        -8.966264699759183
      ],
      [
        "▁pysty",
        -8.967437299477982
      ],
      [
        "▁*",
        -8.969342619021056
      ],
      [
        "▁lapsen",
        -8.970897255983717
      ],
      [
        "el",
        -8.971687309317684
      ],
      [
        "▁kulttuuri",
        -8.97343902339016
      ],
      [
        "▁päivänä",
        -8.974284755172373
      ],
      [
        "iä",
        -8.974908897284935
      ],
      [
        "ar",
        -8.975584553668755
      ],
      [
        "▁silti",
        -8.975627001984673
      ],
      [
        "▁elämän",
        -8.975960448026193
      ],
      [
        "▁onko",
        -8.976158292039575
      ],
      [
        "▁takaisin",
        -8.9783034750943
      ],
      [
        "aika",
        -8.979562380566806
      ],
      [
        "▁päivää",
        -8.97989376124324
      ],
      [
        "(",
        -8.981277210141574
      ],
      [
        "▁näitä",
        -8.981823022517617
      ],
      [
        "O",
        -8.984887063621265
      ],
      [
        "▁La",
        -8.985670209039466
      ],
      [
        "tty",
        -8.985994975398288
      ],
      [
        "do",
        -8.987460358492541
      ],
      [
        "▁ruoka",
        -8.987884478573509
      ],
      [
        "ju",
        -8.988145587369523
      ],
      [
        "▁Työ",
        -8.988228123083815
      ],
      [
        "▁tutkimus",
        -8.989065268012645
      ],
      [
        "▁muista",
        -8.991513326541497
      ],
      [
        "tetaan",
        -8.994631799240125
      ],
      [
        "▁suoraan",
        -8.99690380514997
      ],
      [
        "▁euroa",
        -8.996943828854937
      ],
      [
        "▁täytyy",
        -8.998518318459602
      ],
      [
        "heinäkuuta",
        -8.998749031742099
      ],
      [
        "palvelu",
        -8.999202900100371
      ],
      [
        "mistä",
        -9.00000205975184
      ],
      [
        "P",
        -9.001702628872223
      ],
      [
        "▁asti",
        -9.001997701987499
      ],
      [
        "▁helposti",
        -9.003522290300321
      ],
      [
        "vo",
        -9.004100232508048
      ],
      [
        "▁ihmiset",
        -9.006041331543436
      ],
      [
        "▁saattaa",
        -9.006365259597278
      ],
      [
        "▁Tuo",
        -9.007896855654408
      ],
      [
        "▁tiedä",
        -9.008811480092493
      ],
      [
        "▁perhe",
        -9.011341031147602
      ],
      [
        "ppi",
        -9.01272772054342
      ],
      [
        "▁tulla",
        -9.014077486225972
      ],
      [
        "tie",
        -9.014847256855049
      ],
      [
        "▁50",
        -9.014912965962328
      ],
      [
        "▁100",
        -9.015084102577253
      ],
      [
        "▁jäi",
        -9.015548369663412
      ],
      [
        "\",",
        -9.015731200001508
      ],
      [
        "▁kohti",
        -9.018163822892761
      ],
      [
        "▁erityisesti",
        -9.019145852133232
      ],
      [
        "▁vanha",
        -9.021725034282504
      ],
      [
        "▁mistä",
        -9.021948789962693
      ],
      [
        "▁kai",
        -9.022438292862642
      ],
      [
        "K",
        -9.024522605103027
      ],
      [
        "▁(4",
        -9.02615155325999
      ],
      [
        "▁2011",
        -9.026340226181677
      ],
      [
        "▁melko",
        -9.026480900292018
      ],
      [
        "▁Ku",
        -9.027047850844681
      ],
      [
        "▁kiinni",
        -9.027788164410428
      ],
      [
        "▁pikku",
        -9.02800128682685
      ],
      [
        "itä",
        -9.030194799475186
      ],
      [
        "▁äiti",
        -9.032969281017008
      ],
      [
        "▁olleet",
        -9.035068269111171
      ],
      [
        "imme",
        -9.03761439257935
      ],
      [
        "ttava",
        -9.037999120169452
      ],
      [
        "▁of",
        -9.038747530794321
      ],
      [
        "ga",
        -9.039303320704878
      ],
      [
        "▁vaikuttaa",
        -9.040246462252712
      ],
      [
        "▁vuoksi",
        -9.040811968453925
      ],
      [
        "▁minua",
        -9.041908208291504
      ],
      [
        "▁viikon",
        -9.042761599307813
      ],
      [
        "▁Lue",
        -9.043311705302958
      ],
      [
        "tun",
        -9.044262219015838
      ],
      [
        "▁maa",
        -9.049323883360142
      ],
      [
        "▁tietää",
        -9.05376815283487
      ],
      [
        "▁2010",
        -9.055541242423317
      ],
      [
        "▁johon",
        -9.057220337947188
      ],
      [
        "lin",
        -9.057428063679566
      ],
      [
        "▁ensin",
        -9.060154618542931
      ],
      [
        "kirja",
        -9.060192147336926
      ],
      [
        "▁Hyvä",
        -9.061101301989407
      ],
      [
        "▁sain",
        -9.062311350686615
      ],
      [
        "esi",
        -9.06236578313013
      ],
      [
        "▁Re",
        -9.068409966748051
      ],
      [
        "▁sinulle",
        -9.070945280812687
      ],
      [
        "▁väri",
        -9.072815528945862
      ],
      [
        "▁varten",
        -9.074443880851625
      ],
      [
        "▁tehnyt",
        -9.075615137286189
      ],
      [
        "▁musta",
        -9.075707243181299
      ],
      [
        "▁sinun",
        -9.077929412600572
      ],
      [
        "een",
        -9.079135515150407
      ],
      [
        "▁lapsi",
        -9.07999934882884
      ],
      [
        "▁P.",
        -9.083222211172142
      ],
      [
        "5",
        -9.083800373129858
      ],
      [
        "▁kyse",
        -9.08467331260822
      ],
      [
        "kko",
        -9.086595011543013
      ],
      [
        "▁blogi",
        -9.088583774829239
      ],
      [
        "mä",
        -9.089064347788891
      ],
      [
        "▁työn",
        -9.089574677636818
      ],
      [
        "▁Lähettä",
        -9.09193267188759
      ],
      [
        "rin",
        -9.09290102623295
      ],
      [
        "▁tiedot",
        -9.093255978063564
      ],
      [
        "▁nuo",
        -9.093711321276643
      ],
      [
        "▁<3",
        -9.094338106635758
      ],
      [
        "esta",
        -9.094489042090318
      ],
      [
        "tö",
        -9.09458020424307
      ],
      [
        "▁mieltä",
        -9.096114573695704
      ],
      [
        "ru",
        -9.096851019157342
      ],
      [
        "▁sijaan",
        -9.09873972781132
      ],
      [
        "▁erityis",
        -9.10015317396429
      ],
      [
        "▁4.",
        -9.100877400458046
      ],
      [
        "tila",
        -9.10311064173965
      ],
      [
        "ge",
        -9.103261115746193
      ],
      [
        "L",
        -9.103505655417862
      ],
      [
        "▁kuvia",
        -9.104332018407439
      ],
      [
        "ella",
        -9.109534328855332
      ],
      [
        "▁tuki",
        -9.110147657293652
      ],
      [
        "G",
        -9.111162606834796
      ],
      [
        "▁hoito",
        -9.112121561810946
      ],
      [
        "▁meille",
        -9.11219469755616
      ],
      [
        "▁ensimmäinen",
        -9.11280351026764
      ],
      [
        "▁mennä",
        -9.115105011984518
      ],
      [
        "▁;)",
        -9.115467290348846
      ],
      [
        "▁ma",
        -9.115867139805072
      ],
      [
        "▁Eli",
        -9.116894962856442
      ],
      [
        "▁kahden",
        -9.11779444228257
      ],
      [
        "IN",
        -9.119529998489323
      ],
      [
        "il",
        -9.120668215969504
      ],
      [
        "▁•",
        -9.12273964880363
      ],
      [
        "essä",
        -9.123731526137242
      ],
      [
        "isiin",
        -9.123853887752164
      ],
      [
        "▁oikeus",
        -9.124043857780435
      ],
      [
        "▁Näi",
        -9.124263170886113
      ],
      [
        "H",
        -9.124460673810901
      ],
      [
        "▁onkin",
        -9.124848737624218
      ],
      [
        "▁sanoo",
        -9.125270734949197
      ],
      [
        "▁ihmisten",
        -9.125378542209322
      ],
      [
        "keskus",
        -9.126210632278895
      ],
      [
        "▁Osa",
        -9.126370970780346
      ],
      [
        "▁v",
        -9.126670986552
      ],
      [
        "▁Voit",
        -9.127077453767367
      ],
      [
        "ssi",
        -9.127108989883084
      ],
      [
        "ppa",
        -9.127780300091182
      ],
      [
        "▁»",
        -9.128644811453194
      ],
      [
        "▁(7)",
        -9.130224447742698
      ],
      [
        "ta,",
        -9.13047095115465
      ],
      [
        "taa",
        -9.133369524759956
      ],
      [
        "▁no",
        -9.134760123578523
      ],
      [
        "▁24",
        -9.135803281699244
      ],
      [
        "▁kaikkea",
        -9.13733953326673
      ],
      [
        "▁sivu",
        -9.137869461071578
      ],
      [
        "▁käytetään",
        -9.139301950981846
      ],
      [
        "▁arvo",
        -9.139516332932821
      ],
      [
        "6",
        -9.140181069962653
      ],
      [
        "AN",
        -9.140385311444128
      ],
      [
        "▁ammatti",
        -9.141764498400189
      ],
      [
        "ee",
        -9.141834446970158
      ],
      [
        "pää",
        -9.142159157068086
      ],
      [
        "ni.",
        -9.14268593243705
      ],
      [
        "I",
        -9.143500218806114
      ],
      [
        "ajan",
        -9.143832299066412
      ],
      [
        "na.",
        -9.14390054260739
      ],
      [
        "▁tyttö",
        -9.144673571570888
      ],
      [
        "▁sisältää",
        -9.14550835518693
      ],
      [
        "ista.",
        -9.146538926331512
      ],
      [
        "▁Tilaa",
        -9.147755323990635
      ],
      [
        "ön",
        -9.14791135415016
      ],
      [
        "sesti",
        -9.151953895886802
      ],
      [
        "▁kehitys",
        -9.15202717359999
      ],
      [
        "▁nähdä",
        -9.152220514605734
      ],
      [
        "▁hieno",
        -9.152601922271028
      ],
      [
        "▁henkilö",
        -9.154293790109097
      ],
      [
        "▁tänä",
        -9.15456078884582
      ],
      [
        "▁Ha",
        -9.157900258366773
      ],
      [
        "C",
        -9.158432817669212
      ],
      [
        "▁viikkoa",
        -9.158998166535234
      ],
      [
        "▁neljä",
        -9.159265522792527
      ],
      [
        "hin",
        -9.160964374255858
      ],
      [
        "▁mielestä",
        -9.1609989340847
      ],
      [
        "▁käyttöön",
        -9.161883802950761
      ],
      [
        "▁alku",
        -9.164951814640453
      ],
      [
        "vaa",
        -9.165352970999951
      ],
      [
        "kuva",
        -9.165576482380862
      ],
      [
        "lain",
        -9.165815628388717
      ],
      [
        "▁sinä",
        -9.167331228490582
      ],
      [
        "▁helppo",
        -9.169495360769865
      ],
      [
        "▁kesäkuu",
        -9.171839795646756
      ],
      [
        "hu",
        -9.173344016972486
      ],
      [
        "M",
        -9.175996085438218
      ],
      [
        "▁Pa",
        -9.177118339683553
      ],
      [
        "▁erilaisia",
        -9.178930727518196
      ],
      [
        "▁etu",
        -9.179196283358149
      ],
      [
        "▁su",
        -9.1801864417588
      ],
      [
        "▁siksi",
        -9.18369963477945
      ],
      [
        "ce",
        -9.183832493256885
      ],
      [
        "ing",
        -9.183848089559206
      ],
      [
        "▁2009",
        -9.186400882999497
      ],
      [
        "00",
        -9.1870072714501
      ],
      [
        "on.",
        -9.187008016638606
      ],
      [
        "▁lukea",
        -9.187169744132053
      ],
      [
        "▁minulla",
        -9.187652567787445
      ],
      [
        "▁syy",
        -9.18786789908566
      ],
      [
        "▁video",
        -9.189467896869703
      ],
      [
        "▁perusteella",
        -9.191640993165358
      ],
      [
        "▁Tällä",
        -9.192132602259804
      ],
      [
        "▁suurin",
        -9.192383802384917
      ],
      [
        "▁tehdään",
        -9.193085710339293
      ],
      [
        "▁pakko",
        -9.193665411240016
      ],
      [
        "▁21",
        -9.194397551023735
      ],
      [
        "▁tärkeä",
        -9.197760575847418
      ],
      [
        "▁hinta",
        -9.199398179117447
      ],
      [
        "▁x",
        -9.20028291404816
      ],
      [
        "▁yhteydessä",
        -9.200549712900917
      ],
      [
        "▁ihminen",
        -9.201157546207671
      ],
      [
        "bi",
        -9.203026334064884
      ],
      [
        "+",
        -9.204532892239817
      ],
      [
        "▁Y",
        -9.205449033680281
      ],
      [
        "▁haluaa",
        -9.206021049333966
      ],
      [
        "▁sellainen",
        -9.207041774466234
      ],
      [
        "alan",
        -9.208350508349572
      ],
      [
        "▁auttaa",
        -9.210413466923573
      ],
      [
        "z",
        -9.210711721593146
      ],
      [
        "uus",
        -9.21168064335442
      ],
      [
        "misesta",
        -9.212451076557858
      ],
      [
        "B",
        -9.213757555451235
      ],
      [
        "▁vastaa",
        -9.214260051255295
      ],
      [
        "▁siten",
        -9.215319441537684
      ],
      [
        "mies",
        -9.215965542053182
      ],
      [
        "▁toi",
        -9.216730830330215
      ],
      [
        "▁mut",
        -9.217797147136682
      ],
      [
        "mmin",
        -9.218072320734528
      ],
      [
        "▁22",
        -9.21934470531081
      ],
      [
        "▁saman",
        -9.220012222488503
      ],
      [
        "▁takia",
        -9.220360266115016
      ],
      [
        "min",
        -9.220583634792003
      ],
      [
        "▁ihmisen",
        -9.221097649326438
      ],
      [
        "ssä.",
        -9.222041280392375
      ],
      [
        "or",
        -9.222049626429339
      ],
      [
        "▁asiat",
        -9.222505170989992
      ],
      [
        "▁Na",
        -9.222635371056644
      ],
      [
        "kku",
        -9.223494116150613
      ],
      [
        "▁alla",
        -9.229712490320674
      ],
      [
        "siin",
        -9.229802578956418
      ],
      [
        "▁huono",
        -9.230488981148568
      ],
      [
        "▁katso",
        -9.230746272723309
      ],
      [
        "▁paremmin",
        -9.232752757015728
      ],
      [
        "▁Ma",
        -9.232811405522781
      ],
      [
        "▁The",
        -9.23372416098653
      ],
      [
        "ir",
        -9.233901164983072
      ],
      [
        "▁muassa",
        -9.234226052397222
      ],
      [
        "▁jälleen",
        -9.234500488396364
      ],
      [
        "▁myötä",
        -9.235119562534138
      ],
      [
        "▁tuon",
        -9.235367442956992
      ],
      [
        "3)",
        -9.235557422617742
      ],
      [
        "ikka",
        -9.236887603426595
      ],
      [
        "▁oikeasti",
        -9.238433391884202
      ],
      [
        "▁yhteen",
        -9.238721562527953
      ],
      [
        "llisen",
        -9.239150317170985
      ],
      [
        "▁toki",
        -9.239198031731256
      ],
      [
        "▁osalta",
        -9.239495628093717
      ],
      [
        "▁=",
        -9.239894975916062
      ],
      [
        "▁Yksi",
        -9.239943046275801
      ],
      [
        "US",
        -9.24046085309097
      ],
      [
        "vin",
        -9.240464457931754
      ],
      [
        "▁tuntia",
        -9.242095535267065
      ],
      [
        "▁vaiheessa",
        -9.2424609824326
      ],
      [
        "▁epä",
        -9.24336317432326
      ],
      [
        "▁Su",
        -9.24368890370024
      ],
      [
        "▁Euroopan",
        -9.244051779621469
      ],
      [
        "▁saat",
        -9.24477969047239
      ],
      [
        "▁tarkoittaa",
        -9.244804444744336
      ],
      [
        "▁rakennus",
        -9.245148145913099
      ],
      [
        "palvelut",
        -9.248418337670643
      ],
      [
        "6)",
        -9.248937666628997
      ],
      [
        "▁häntä",
        -9.250288651609054
      ],
      [
        "▁joilla",
        -9.250507262332317
      ],
      [
        "▁kar",
        -9.251073589072455
      ],
      [
        "▁Miksi",
        -9.251283020659422
      ],
      [
        "kin,",
        -9.251322954524364
      ],
      [
        "kun",
        -9.252451264881637
      ],
      [
        "▁ulos",
        -9.253158327864611
      ],
      [
        "▁olemme",
        -9.253284933942103
      ],
      [
        "▁puu",
        -9.253933936049517
      ],
      [
        "▁pidä",
        -9.256568467819594
      ],
      [
        "▁olemassa",
        -9.256610700761772
      ],
      [
        "▁halua",
        -9.256984187036295
      ],
      [
        "▁vaikea",
        -9.257057759950587
      ],
      [
        "J",
        -9.25806334086478
      ],
      [
        "talo",
        -9.25872188314911
      ],
      [
        "▁tunne",
        -9.259167565118538
      ],
      [
        "▁vero",
        -9.260770202042021
      ],
      [
        "▁40",
        -9.261045496147446
      ],
      [
        "mällä",
        -9.261112162088914
      ],
      [
        "▁paras",
        -9.26124259087559
      ],
      [
        "▁Ni",
        -9.261929680361728
      ],
      [
        "utta",
        -9.262254633967757
      ],
      [
        "▁sieltä",
        -9.262449262061729
      ],
      [
        "▁tänne",
        -9.262622892069107
      ],
      [
        "▁laittaa",
        -9.262658950824731
      ],
      [
        "▁olin",
        -9.266337835165917
      ],
      [
        "▁Mä",
        -9.266828691174624
      ],
      [
        "▁re",
        -9.267047228876809
      ],
      [
        "estä",
        -9.26731563308979
      ],
      [
        "▁kotona",
        -9.267721994863876
      ],
      [
        "▁Viime",
        -9.269039181502283
      ],
      [
        "ot",
        -9.270148912325343
      ],
      [
        "Tänään",
        -9.27050834157832
      ],
      [
        "▁mieli",
        -9.271163115862397
      ],
      [
        "▁Oma",
        -9.27229794923175
      ],
      [
        "▁www.",
        -9.274629129677042
      ],
      [
        "hoito",
        -9.276068827771716
      ],
      [
        "▁melkein",
        -9.276761781322353
      ],
      [
        "tut",
        -9.27753630301196
      ],
      [
        "W",
        -9.279252074024967
      ],
      [
        "▁oikea",
        -9.279345274690517
      ],
      [
        "17",
        -9.28034670379937
      ],
      [
        "▁varsin",
        -9.282145601415056
      ],
      [
        "▁Ta",
        -9.283183221076946
      ],
      [
        "▁ollaan",
        -9.28345148241214
      ],
      [
        "▁yliopisto",
        -9.283972548447808
      ],
      [
        "▁Ehkä",
        -9.284603796910217
      ],
      [
        "nnut",
        -9.284901289338269
      ],
      [
        "▁ase",
        -9.285309419693549
      ],
      [
        "ivat",
        -9.286688692025772
      ],
      [
        "▁tietysti",
        -9.286974801155669
      ],
      [
        "▁kuvaa",
        -9.287229966305958
      ],
      [
        "▁kukaan",
        -9.287340136387357
      ],
      [
        "▁yhä",
        -9.287664540310546
      ],
      [
        "ttua",
        -9.287837842915362
      ],
      [
        "ter",
        -9.288867517328402
      ],
      [
        "▁malli",
        -9.29032400531447
      ],
      [
        "▁Koska",
        -9.290549525010775
      ],
      [
        "ili",
        -9.291010035734946
      ],
      [
        "▁ihmisiä",
        -9.291494956865598
      ],
      [
        "▁0",
        -9.29266654693902
      ],
      [
        "▁Anna",
        -9.294515677105027
      ],
      [
        "▁aiemmin",
        -9.294727646181771
      ],
      [
        "*",
        -9.294852794064031
      ],
      [
        "▁muutaman",
        -9.294866353852012
      ],
      [
        "V",
        -9.295194135306467
      ],
      [
        "▁minkä",
        -9.295710212097848
      ],
      [
        "▁tapa",
        -9.295786068195511
      ],
      [
        "▁(6",
        -9.296609980414997
      ],
      [
        "▁Ro",
        -9.29679025376294
      ],
      [
        "▁To",
        -9.298071658229798
      ],
      [
        "▁elämä",
        -9.300504664978757
      ],
      [
        "▁ulko",
        -9.302359932983167
      ],
      [
        "▁jonkin",
        -9.303668409962109
      ],
      [
        "▁yksin",
        -9.304656184797452
      ],
      [
        "30",
        -9.304724363990257
      ],
      [
        "▁Ke",
        -9.304866737973686
      ],
      [
        "ur",
        -9.305174833091286
      ],
      [
        "ck",
        -9.306524109608791
      ],
      [
        "▁käydä",
        -9.306598681699862
      ],
      [
        "määrä",
        -9.307186610032495
      ],
      [
        "Nämä",
        -9.30732015047153
      ],
      [
        "▁yritys",
        -9.308371607532447
      ],
      [
        "matta",
        -9.308475794663995
      ],
      [
        "▁paikka",
        -9.308801419954609
      ],
      [
        "▁teki",
        -9.310478656670071
      ],
      [
        "▁ongelma",
        -9.31065730892756
      ],
      [
        "▁ka",
        -9.313215056877858
      ],
      [
        "▁Sitten",
        -9.313253429111636
      ],
      [
        "Siinä",
        -9.313507463383543
      ],
      [
        "▁yhtään",
        -9.31400948753425
      ],
      [
        "▁asu",
        -9.31544542803461
      ],
      [
        "mpaa",
        -9.31608159171666
      ],
      [
        "▁käytössä",
        -9.320620012139404
      ],
      [
        ".com",
        -9.32079406008887
      ],
      [
        "▁vähintään",
        -9.322026031971175
      ],
      [
        "▁Pää",
        -9.323702384612705
      ],
      [
        "paikka",
        -9.325990400456785
      ],
      [
        "▁tarkoitus",
        -9.326438961795791
      ],
      [
        "▁olo",
        -9.327269369878818
      ],
      [
        "▁kohta",
        -9.32753760239488
      ],
      [
        "▁viikko",
        -9.327796482620037
      ],
      [
        "▁kirjoittaa",
        -9.327999024562965
      ],
      [
        "▁käsi",
        -9.328306668914554
      ],
      [
        "mässä",
        -9.330340227460262
      ],
      [
        "▁tosin",
        -9.330449636006566
      ],
      [
        "▁pian",
        -9.330983673752609
      ],
      [
        "▁luonnon",
        -9.331144218463974
      ],
      [
        "▁valmis",
        -9.333694486150758
      ],
      [
        "ilu",
        -9.334029131256798
      ],
      [
        "▁parempi",
        -9.334527287068255
      ],
      [
        "▁€",
        -9.334883119459459
      ],
      [
        "▁oo",
        -9.335708519755496
      ],
      [
        "▁23",
        -9.336199707249754
      ],
      [
        "elle",
        -9.33672588238021
      ],
      [
        "▁asiakas",
        -9.340080866492272
      ],
      [
        "▁kommentteja",
        -9.34058649760146
      ],
      [
        "▁te",
        -9.341064404028472
      ],
      [
        "▁yhteis",
        -9.34112143730042
      ],
      [
        "ll",
        -9.341809509841212
      ],
      [
        "▁huolimatta",
        -9.34182945757765
      ],
      [
        "llisesti",
        -9.342141003289584
      ],
      [
        "7",
        -9.34325830869229
      ],
      [
        "▁lokakuuta",
        -9.34375125369342
      ],
      [
        "▁nuori",
        -9.343781592780564
      ],
      [
        "tys",
        -9.343794571959943
      ],
      [
        "▁Meillä",
        -9.343946325183087
      ],
      [
        "isesti",
        -9.345237082418624
      ],
      [
        "▁tosiaan",
        -9.34724651463635
      ],
      [
        "▁#",
        -9.34737730514819
      ],
      [
        "▁luku",
        -9.348124092621875
      ],
      [
        "ven",
        -9.349019285376048
      ],
      [
        "10",
        -9.349199657294927
      ],
      [
        "▁oon",
        -9.349461633216054
      ],
      [
        "▁ha",
        -9.349484027382594
      ],
      [
        "llis",
        -9.349855331333938
      ],
      [
        "▁seksi",
        -9.35093613183542
      ],
      [
        "eli",
        -9.350975920105004
      ],
      [
        "iksi",
        -9.351897627127936
      ],
      [
        "▁syyskuuta",
        -9.352423091720368
      ],
      [
        "▁mikään",
        -9.353293651381167
      ],
      [
        "▁the",
        -9.3532978471276
      ],
      [
        "0",
        -9.354651979328715
      ],
      [
        "▁tapauksessa",
        -9.354663279483615
      ],
      [
        "kunta",
        -9.35586446817437
      ],
      [
        "oi",
        -9.356371312037206
      ],
      [
        "ET",
        -9.356962094973877
      ],
      [
        "ihin.",
        -9.357102212758347
      ],
      [
        "▁kirjan",
        -9.357589305784042
      ],
      [
        "ien",
        -9.358969402468922
      ],
      [
        "▁mielestäni",
        -9.358986009444049
      ],
      [
        "▁tahansa",
        -9.359910005677776
      ],
      [
        "▁Palvelu",
        -9.360508470873958
      ],
      [
        "▁saadaan",
        -9.360577577535224
      ],
      [
        "▁pu",
        -9.361314123149949
      ],
      [
        "▁pienen",
        -9.36150296588749
      ],
      [
        "▁mihin",
        -9.361683456513642
      ],
      [
        "sti.",
        -9.363099706225945
      ],
      [
        "▁löytää",
        -9.36356266812049
      ],
      [
        "uksia",
        -9.36373218962373
      ],
      [
        "▁jotenkin",
        -9.364035572965328
      ],
      [
        "▁juttu",
        -9.364513929256455
      ],
      [
        "▁loma",
        -9.366792951993695
      ],
      [
        "▁erikois",
        -9.366897962258038
      ],
      [
        "▁poika",
        -9.369068000987255
      ],
      [
        "▁taka",
        -9.369337088707953
      ],
      [
        "4)",
        -9.369858347687357
      ],
      [
        "▁kaunis",
        -9.370000872164303
      ],
      [
        "▁Aika",
        -9.370342500066709
      ],
      [
        "▁nainen",
        -9.371034824822157
      ],
      [
        "kkaa",
        -9.371715479664942
      ],
      [
        "▁kotiin",
        -9.371852221829306
      ],
      [
        "▁alkaen",
        -9.372564819683447
      ],
      [
        "miseen.",
        -9.37289901500762
      ],
      [
        "▁tapahtuu",
        -9.372989711450487
      ],
      [
        "▁asiaa",
        -9.374267189491693
      ],
      [
        "▁energia",
        -9.374542127650255
      ],
      [
        "▁sisällä",
        -9.375128523120443
      ],
      [
        "▁alue",
        -9.375938159264981
      ],
      [
        "si.",
        -9.376746837421898
      ],
      [
        "▁yleis",
        -9.378245699063593
      ],
      [
        "▁maksaa",
        -9.378287117707888
      ],
      [
        "”,",
        -9.378555060095124
      ],
      [
        "▁koulutus",
        -9.378581072179504
      ],
      [
        "▁kauan",
        -9.379404309097398
      ],
      [
        "▁liittyvi",
        -9.379873857157362
      ],
      [
        "▁ilo",
        -9.38126548240447
      ],
      [
        "▁ilma",
        -9.381957993919642
      ],
      [
        "▁Po",
        -9.382276341249392
      ],
      [
        "mahdollisimman",
        -9.383236496133634
      ],
      [
        "mista.",
        -9.383774517938903
      ],
      [
        "usta",
        -9.384074002884253
      ],
      [
        "▁kuvan",
        -9.384098655345774
      ],
      [
        "▁vara",
        -9.38459373312158
      ],
      [
        "men",
        -9.384640404203656
      ],
      [
        "▁kokonaan",
        -9.385658987514411
      ],
      [
        "ver",
        -9.386139443891217
      ],
      [
        "llista",
        -9.386382716358032
      ],
      [
        "▁näkyy",
        -9.388272152526493
      ],
      [
        "▁Pro",
        -9.390239977052758
      ],
      [
        "ltaan",
        -9.39189162055398
      ],
      [
        "▁Sa",
        -9.392503134952957
      ],
      [
        "▁koe",
        -9.392789383398327
      ],
      [
        "▁sinulla",
        -9.392919111021147
      ],
      [
        "▁X",
        -9.393931424531534
      ],
      [
        "▁syö",
        -9.395115579584886
      ],
      [
        "▁porno",
        -9.395554307290599
      ],
      [
        "lais",
        -9.395906511184226
      ],
      [
        "▁Tästä",
        -9.396498266219705
      ],
      [
        "taso",
        -9.397318573461536
      ],
      [
        "▁kuvat",
        -9.397701045928166
      ],
      [
        "▁5.",
        -9.397801666118063
      ],
      [
        "▁ostaa",
        -9.398338362729794
      ],
      [
        "▁g",
        -9.398377622748345
      ],
      [
        "ista,",
        -9.39862273527159
      ],
      [
        "▁Ihan",
        -9.399675158198065
      ],
      [
        "enkä",
        -9.401783233100549
      ],
      [
        "mm",
        -9.402230190757795
      ],
      [
        "▁hyviä",
        -9.404292056403818
      ],
      [
        "▁So",
        -9.404635068108668
      ],
      [
        "▁lopulta",
        -9.405515804311166
      ],
      [
        "▁tekemään",
        -9.405858268879463
      ],
      [
        "ttää",
        -9.406377542051171
      ],
      [
        "▁sinua",
        -9.406601333546277
      ],
      [
        "▁sisä",
        -9.406659087240872
      ],
      [
        "▁tärkeää",
        -9.408632076235772
      ],
      [
        "liitto",
        -9.409251460710701
      ],
      [
        "▁myöhemmin",
        -9.409384252374563
      ],
      [
        "tuu",
        -9.410794034838968
      ],
      [
        "▁Tu",
        -9.410816711634222
      ],
      [
        "▁näistä",
        -9.410937134858123
      ],
      [
        "▁Sitä",
        -9.411184409600132
      ],
      [
        "▁Hei",
        -9.411696247543489
      ],
      [
        "▁sana",
        -9.412820969243672
      ],
      [
        "johtaja",
        -9.413212298863563
      ],
      [
        "je",
        -9.413548769324313
      ],
      [
        "!!",
        -9.414841877178837
      ],
      [
        "▁pitkään",
        -9.41488354285869
      ],
      [
        "▁koira",
        -9.415163498325278
      ],
      [
        "▁Sivu",
        -9.415885379325509
      ],
      [
        "▁useita",
        -9.415915410670298
      ],
      [
        "issa.",
        -9.417023485844968
      ],
      [
        "▁ääni",
        -9.417799532385745
      ],
      [
        "▁esi",
        -9.418661684957375
      ],
      [
        "▁pääsi",
        -9.419521509271707
      ],
      [
        "ba",
        -9.42078444621873
      ],
      [
        "▁and",
        -9.422261911771482
      ],
      [
        "▁talous",
        -9.422736779838225
      ],
      [
        "▁mukaan.",
        -9.423636114257118
      ],
      [
        "mpia",
        -9.425733115921362
      ],
      [
        "▁lähteä",
        -9.426511895004843
      ],
      [
        "ukset",
        -9.427096337691967
      ],
      [
        "▁puhu",
        -9.428696129596727
      ],
      [
        "▁kiitos",
        -9.429286166508797
      ],
      [
        "▁kannalta",
        -9.429658435853419
      ],
      [
        "▁tuote",
        -9.429800814267036
      ],
      [
        "t:",
        -9.430634849390858
      ],
      [
        "os",
        -9.430712866403471
      ],
      [
        "▁vähemmän",
        -9.43134615620288
      ],
      [
        "▁kuka",
        -9.431739944209088
      ],
      [
        "tettu",
        -9.43186098385797
      ],
      [
        "▁metsä",
        -9.431915869119553
      ],
      [
        "kunnes",
        -9.433139411788789
      ],
      [
        "mia",
        -9.433606096549969
      ],
      [
        "ile",
        -9.434819568839957
      ],
      [
        "▁päällä",
        -9.435242290345666
      ],
      [
        "▁uudelleen",
        -9.435442145111296
      ],
      [
        "▁ainoa",
        -9.436758938795807
      ],
      [
        "▁tuota",
        -9.437128879609887
      ],
      [
        "▁yhteyttä",
        -9.437406069072736
      ],
      [
        "▁Lisää",
        -9.438166868692438
      ],
      [
        "mmat",
        -9.440474025804292
      ],
      [
        "▁Va",
        -9.440645222523123
      ],
      [
        "▁syystä",
        -9.441721302084591
      ],
      [
        "▁kuukausi",
        -9.442617186826782
      ],
      [
        "8)",
        -9.442908923041461
      ],
      [
        "▁so",
        -9.44339180715929
      ],
      [
        "▁26",
        -9.44366487318872
      ],
      [
        "ch",
        -9.44396137059639
      ],
      [
        "▁seuraa",
        -9.443966762719736
      ],
      [
        "▁tarvitaan",
        -9.444115979122891
      ],
      [
        "▁kello",
        -9.444539486188365
      ],
      [
        "▁lähellä",
        -9.444870446291159
      ],
      [
        "▁Ko",
        -9.445522296806915
      ],
      [
        "uuteen",
        -9.446841757438346
      ],
      [
        "▁omat",
        -9.44686202168839
      ],
      [
        "voi",
        -9.446926713812626
      ],
      [
        "ainoastaan",
        -9.447494726291406
      ],
      [
        "▁kokonais",
        -9.44890291725222
      ],
      [
        "▁mieleen",
        -9.449863079785228
      ],
      [
        "▁saisi",
        -9.450043907933715
      ],
      [
        "▁ensimmäisen",
        -9.450080408778298
      ],
      [
        "▁Pu",
        -9.450287152752658
      ],
      [
        "▁takana",
        -9.450859787325385
      ],
      [
        "▁kaikkia",
        -9.451115059290139
      ],
      [
        "▁Kirja",
        -9.451728430556294
      ],
      [
        "järjestelmä",
        -9.452566217062284
      ],
      [
        "toiminta",
        -9.452656886009969
      ],
      [
        "▁pääsee",
        -9.453503850368659
      ],
      [
        "tit",
        -9.45381021890583
      ],
      [
        "▁kova",
        -9.455021656390368
      ],
      [
        "stä,",
        -9.455429524462417
      ],
      [
        "▁asian",
        -9.456188909863332
      ],
      [
        ".”",
        -9.456306729577975
      ],
      [
        "▁mene",
        -9.456468914280368
      ],
      [
        "ni,",
        -9.456536643219712
      ],
      [
        "liiton",
        -9.457063538060488
      ],
      [
        "ala",
        -9.457356886851263
      ],
      [
        "▁miljoonaa",
        -9.4577828726519
      ],
      [
        "▁saavat",
        -9.457875998373758
      ],
      [
        "▁Olet",
        -9.458164336384908
      ],
      [
        "▁ra",
        -9.45833554638558
      ],
      [
        "▁tila",
        -9.458900714063418
      ],
      [
        "▁laina",
        -9.459962117919899
      ],
      [
        "▁pe",
        -9.460859537015324
      ],
      [
        "▁Katso",
        -9.461692591849971
      ],
      [
        "viä",
        -9.46208800348592
      ],
      [
        "▁sopii",
        -9.462301258654612
      ],
      [
        "▁kasvu",
        -9.463319221109126
      ],
      [
        "Atom",
        -9.464138237829705
      ],
      [
        "▁tee",
        -9.46461764925516
      ],
      [
        "mat",
        -9.464660192887164
      ],
      [
        "▁vähä",
        -9.465491519022386
      ],
      [
        "▁sano",
        -9.46601417391787
      ],
      [
        "▁seura",
        -9.466648613833247
      ],
      [
        "kit",
        -9.466744889511205
      ],
      [
        "▁28",
        -9.467065453673863
      ],
      [
        "lähinnä",
        -9.467448858948373
      ],
      [
        "st",
        -9.46859041436118
      ],
      [
        "työn",
        -9.469738863798064
      ],
      [
        "▁jonkun",
        -9.470696039300169
      ],
      [
        "peli",
        -9.470982331938183
      ],
      [
        "▁muutos",
        -9.47254278317078
      ],
      [
        "▁jälkeen.",
        -9.473638785827312
      ],
      [
        "▁Li",
        -9.4737147073536
      ],
      [
        "▁laaja",
        -9.47431252104667
      ],
      [
        "▁haluat",
        -9.475107208086898
      ],
      [
        "laiset",
        -9.475554247466704
      ],
      [
        "toimi",
        -9.475660023932718
      ],
      [
        "▁2008",
        -9.476220348556582
      ],
      [
        "kk",
        -9.476491471334187
      ],
      [
        "elokuuta",
        -9.476894635936578
      ],
      [
        "▁Teema",
        -9.477878804883485
      ],
      [
        "ska",
        -9.478222987172323
      ],
      [
        "▁kanssa,",
        -9.478350678844555
      ],
      [
        "tetään",
        -9.479103853462322
      ],
      [
        "▁mulla",
        -9.479582867625371
      ],
      [
        "▁ympäri",
        -9.480208510359883
      ],
      [
        "▁päässä",
        -9.480363878823393
      ],
      [
        "▁Yli",
        -9.481107026596172
      ],
      [
        "▁viesti",
        -9.481420014623044
      ],
      [
        "▁sex",
        -9.483810019941533
      ],
      [
        "▁Muut",
        -9.485073849399186
      ],
      [
        "ää",
        -9.485959547214012
      ],
      [
        "▁tilaa",
        -9.486897244313118
      ],
      [
        "▁(8",
        -9.487149436638296
      ],
      [
        "kat",
        -9.488489410674969
      ],
      [
        "fi",
        -9.488769714641531
      ],
      [
        "lta,",
        -9.489163551629144
      ],
      [
        "laa",
        -9.490138293000035
      ],
      [
        "▁ohi",
        -9.490356548247842
      ],
      [
        "▁jatkaa",
        -9.491462360810948
      ],
      [
        "▁vapaa",
        -9.49260644656746
      ],
      [
        "nee",
        -9.493150891283552
      ],
      [
        "▁viikolla",
        -9.493328887856798
      ],
      [
        "▁cm",
        -9.49382447109321
      ],
      [
        "dy",
        -9.493933047120809
      ],
      [
        "▁Kuusamo",
        -9.494194193122008
      ],
      [
        "▁De",
        -9.494342433942316
      ],
      [
        "▁mukava",
        -9.494472362458211
      ],
      [
        "▁ryhmä",
        -9.494681695399258
      ],
      [
        "▁hänelle",
        -9.496154069504094
      ],
      [
        "staan",
        -9.496456933106309
      ],
      [
        "▁jossain",
        -9.497814040749123
      ],
      [
        "▁tehtävä",
        -9.4980389286312
      ],
      [
        "R",
        -9.49807997490138
      ],
      [
        "▁yö",
        -9.498999547283876
      ],
      [
        "kset",
        -9.499183746373042
      ],
      [
        "▁mennessä",
        -9.50083954202934
      ],
      [
        "▁toivo",
        -9.501232934938837
      ],
      [
        "▁Seuraava",
        -9.501420805197665
      ],
      [
        "▁niihin",
        -9.502030082672707
      ],
      [
        "▁Ar",
        -9.502601487627814
      ],
      [
        "▁nuorten",
        -9.503755927285077
      ],
      [
        "▁isot",
        -9.504539726790288
      ],
      [
        "ski",
        -9.505410102865973
      ],
      [
        "▁sun",
        -9.506756777139032
      ],
      [
        "▁sille",
        -9.506989260135462
      ],
      [
        "▁Jumalan",
        -9.507588120754358
      ],
      [
        "▁Koko",
        -9.50849687386468
      ],
      [
        "▁Vi",
        -9.509214728915264
      ],
      [
        "▁sellaista",
        -9.510389626722127
      ],
      [
        "▁terveys",
        -9.510932409613805
      ],
      [
        "▁maksu",
        -9.511160132046442
      ],
      [
        "▁mahdollisuus",
        -9.512020186388543
      ],
      [
        "▁tulevat",
        -9.512706259326503
      ],
      [
        "kää",
        -9.513151175395205
      ],
      [
        "▁opetus",
        -9.515047157923359
      ],
      [
        "▁6.",
        -9.516735970217756
      ],
      [
        "▁huomioon",
        -9.51958776600181
      ],
      [
        "▁takaa",
        -9.519766084243493
      ],
      [
        "▁päin",
        -9.5202353280397
      ],
      [
        "ran",
        -9.520256883762993
      ],
      [
        "▁raha",
        -9.522020316353341
      ],
      [
        "per",
        -9.522130210773051
      ],
      [
        "▁valtion",
        -9.522207624501231
      ],
      [
        "▁itsensä",
        -9.522448715799275
      ],
      [
        "mäki",
        -9.522776531948761
      ],
      [
        "▁lapset",
        -9.522798893305072
      ],
      [
        "▁Lu",
        -9.522923775457322
      ],
      [
        "Ä",
        -9.523237999927924
      ],
      [
        "minen,",
        -9.523484140650735
      ],
      [
        "IS",
        -9.524146005856334
      ],
      [
        "päällikkö",
        -9.525171220183056
      ],
      [
        "▁Pe",
        -9.52554175230556
      ],
      [
        "▁kohtaan",
        -9.525909606980187
      ],
      [
        "▁toiminnan",
        -9.52648365126143
      ],
      [
        "▁Mi",
        -9.52699430755509
      ],
      [
        "isuus",
        -9.527649873095688
      ],
      [
        "▁lähi",
        -9.527661871591889
      ],
      [
        "▁Koti",
        -9.52811102699457
      ],
      [
        "▁verkko",
        -9.528718734768205
      ],
      [
        "▁omia",
        -9.52991540798359
      ],
      [
        "▁27",
        -9.530101121737875
      ],
      [
        "▁Blogger",
        -9.53037413745814
      ],
      [
        "ani",
        -9.53095225134349
      ],
      [
        "▁valo",
        -9.531131873412718
      ],
      [
        "hd",
        -9.5320852386395
      ],
      [
        "▁korkea",
        -9.533427658699527
      ],
      [
        "▁hyvän",
        -9.535816662619375
      ],
      [
        "8",
        -9.5365885614276
      ],
      [
        "maan.",
        -9.536595753058267
      ],
      [
        "▁upea",
        -9.536879006753825
      ],
      [
        "▁ajo",
        -9.537527011206585
      ],
      [
        "voinut",
        -9.539502966179231
      ],
      [
        "▁ero",
        -9.539599781291045
      ],
      [
        "▁perheen",
        -9.540311250128688
      ],
      [
        "▁omaan",
        -9.540797707404373
      ],
      [
        "▁miehen",
        -9.540819460715621
      ],
      [
        "▁kertoi",
        -9.54114394225699
      ],
      [
        "▁In",
        -9.54234093769924
      ],
      [
        "▁kansan",
        -9.542391908838116
      ],
      [
        "▁varsinkin",
        -9.543178489902548
      ],
      [
        "kseni",
        -9.543648513912977
      ],
      [
        "▁hä",
        -9.543794115952561
      ],
      [
        "co",
        -9.543890501643002
      ],
      [
        "tava",
        -9.544794576809402
      ],
      [
        "suunnitelma",
        -9.544851176552658
      ],
      [
        "puu",
        -9.546309573362748
      ],
      [
        "so",
        -9.547237591563933
      ],
      [
        "▁Iso",
        -9.547292065359755
      ],
      [
        "▁tilanne",
        -9.54752960144532
      ],
      [
        "▁toisin",
        -9.548154511031486
      ],
      [
        "mien",
        -9.548685941177478
      ],
      [
        "▁Sama",
        -9.549015999784126
      ],
      [
        "▁kohtaa",
        -9.549439845065491
      ],
      [
        "▁liike",
        -9.549458297979724
      ],
      [
        "ero",
        -9.549831802643995
      ],
      [
        "▁Tampereen",
        -9.55021226699128
      ],
      [
        "▁ihmis",
        -9.550919152129678
      ],
      [
        "@",
        -9.551161020222127
      ],
      [
        "▁7.",
        -9.551805338794363
      ],
      [
        "osa",
        -9.552233236815667
      ],
      [
        "▁Si",
        -9.55236043164916
      ],
      [
        "▁työtä",
        -9.552482528130524
      ],
      [
        "▁Onneksi",
        -9.553082458011751
      ],
      [
        "▁hi",
        -9.554034172492301
      ],
      [
        "▁jättää",
        -9.554200102213432
      ],
      [
        "▁alusta",
        -9.555063228822075
      ],
      [
        "tar",
        -9.556296200006962
      ],
      [
        "▁sä",
        -9.556482018120814
      ],
      [
        "ava",
        -9.556777666413241
      ],
      [
        "▁juhla",
        -9.557354800755196
      ],
      [
        "▁Jumala",
        -9.557389903883827
      ],
      [
        "▁niin,",
        -9.55755708450906
      ],
      [
        "▁esiin",
        -9.558013374107471
      ],
      [
        "du",
        -9.558023532439314
      ],
      [
        "▁talvi",
        -9.558837374502774
      ],
      [
        "▁“",
        -9.559245631399895
      ],
      [
        "tien",
        -9.559631684018246
      ],
      [
        "▁c",
        -9.560059781955125
      ],
      [
        "▁kieli",
        -9.561050732360952
      ],
      [
        "9",
        -9.561429922454133
      ],
      [
        "teet",
        -9.562844934552292
      ],
      [
        "▁Vuoden",
        -9.563146457389298
      ],
      [
        "son",
        -9.563216802246309
      ],
      [
        "▁tiedon",
        -9.564515928692458
      ],
      [
        "▁saatu",
        -9.564917694895925
      ],
      [
        "▁uudet",
        -9.565263807104149
      ],
      [
        "▁rahaa",
        -9.566320287952358
      ],
      [
        "ille.",
        -9.566808130521533
      ],
      [
        "▁emme",
        -9.566890211668468
      ],
      [
        "▁lähtee",
        -9.567837809806367
      ],
      [
        "tua",
        -9.568775833097895
      ],
      [
        "▁>",
        -9.569163680018246
      ],
      [
        "▁siirty",
        -9.569897918699777
      ],
      [
        "▁asiasta",
        -9.570987088445385
      ],
      [
        "▁ym.",
        -9.572263137978561
      ],
      [
        "▁sisään",
        -9.572832371175252
      ],
      [
        "onneksi",
        -9.57285052270625
      ],
      [
        "din",
        -9.574210412530732
      ],
      [
        "▁Moni",
        -9.575669841528994
      ],
      [
        "▁puolella",
        -9.575912833682072
      ],
      [
        "▁yhteensä",
        -9.576334999742059
      ],
      [
        "–",
        -9.577122799141975
      ],
      [
        "▁keski",
        -9.5772200034177
      ],
      [
        "▁viisi",
        -9.57734730275972
      ],
      [
        "▁prosenttia",
        -9.578395503926364
      ],
      [
        "▁kilpailu",
        -9.578520384232746
      ],
      [
        "▁vir",
        -9.57876700929692
      ],
      [
        "iltä",
        -9.580329548739563
      ],
      [
        "15",
        -9.580993782542837
      ],
      [
        "▁--",
        -9.58120489044926
      ],
      [
        "▁pi",
        -9.582539374208324
      ],
      [
        "▁selvästi",
        -9.583395202621652
      ],
      [
        "▁puolesta",
        -9.583564850076058
      ],
      [
        "”.",
        -9.583713042204554
      ],
      [
        "▁Sisällön",
        -9.583982003462133
      ],
      [
        "▁eilen",
        -9.584350853100373
      ],
      [
        "▁Kesä",
        -9.585787512986062
      ],
      [
        "▁esitys",
        -9.58720472945621
      ],
      [
        "▁olemaan",
        -9.58774079094401
      ],
      [
        "▁tutki",
        -9.588065399557623
      ],
      [
        "▁(9",
        -9.588428146371319
      ],
      [
        "llä.",
        -9.5897171735141
      ],
      [
        "TA",
        -9.590117498782776
      ],
      [
        "▁suhteen",
        -9.590650205216782
      ],
      [
        "▁(SL)",
        -9.592480615533493
      ],
      [
        "▁yhteistyö",
        -9.592624225573399
      ],
      [
        "fa",
        -9.593823867730112
      ],
      [
        "▁Mu",
        -9.595366920031573
      ],
      [
        "▁Olin",
        -9.596071922045123
      ],
      [
        "▁Ti",
        -9.596379890097026
      ],
      [
        "▁hu",
        -9.596489995225966
      ],
      [
        "▁ns.",
        -9.596989737534628
      ],
      [
        "F",
        -9.597651845988903
      ],
      [
        "▁ainakaan",
        -9.598587793263993
      ],
      [
        "▁huippu",
        -9.598768015011593
      ],
      [
        "▁EU:",
        -9.59945422916574
      ],
      [
        "▁tuntui",
        -9.59968465662492
      ],
      [
        "▁de",
        -9.599915463613954
      ],
      [
        "▁urheilu",
        -9.600630809142212
      ],
      [
        "▁lain",
        -9.602192822596503
      ],
      [
        "ky",
        -9.603077462214703
      ],
      [
        "▁nimittäin",
        -9.603385060612187
      ],
      [
        "▁vaatii",
        -9.605381365171567
      ],
      [
        "▁Venäjän",
        -9.605665957381273
      ],
      [
        "be",
        -9.606402966925533
      ],
      [
        "▁kasvaa",
        -9.606409751435526
      ],
      [
        "▁kovasti",
        -9.606681421535455
      ],
      [
        "pin",
        -9.607300223352642
      ],
      [
        "▁meitä",
        -9.608674324288906
      ],
      [
        "▁valita",
        -9.608787188517578
      ],
      [
        "▁2007",
        -9.609534784533448
      ],
      [
        "▁ikinä",
        -9.609554273209014
      ],
      [
        "U",
        -9.61048196605244
      ],
      [
        "▁jne.",
        -9.611609790717909
      ],
      [
        "joko",
        -9.61237076880732
      ],
      [
        "▁Metsä",
        -9.612466429554999
      ],
      [
        "▁elä",
        -9.613419028990826
      ],
      [
        "inen,",
        -9.613795903943824
      ],
      [
        "▁monet",
        -9.61420430250444
      ],
      [
        "▁sota",
        -9.6157893873849
      ],
      [
        "▁omasta",
        -9.616050601260518
      ],
      [
        "▁var",
        -9.616157776091237
      ],
      [
        "▁alussa",
        -9.616299187426264
      ],
      [
        "▁valtio",
        -9.616998286898426
      ],
      [
        "▁arviointi",
        -9.617160517478627
      ],
      [
        "illa.",
        -9.618096780646647
      ],
      [
        "11",
        -9.618227612038638
      ],
      [
        "▁paitsi",
        -9.618447316387044
      ],
      [
        "aali",
        -9.619108919166816
      ],
      [
        "oja",
        -9.619769999745678
      ],
      [
        "Esimerkiksi",
        -9.619870586976088
      ],
      [
        "▁tietty",
        -9.620260563770643
      ],
      [
        "rit",
        -9.621450976859933
      ],
      [
        "▁aikana.",
        -9.621461596015466
      ],
      [
        "▁Al",
        -9.621538048697857
      ],
      [
        "▁Saa",
        -9.621719005228437
      ],
      [
        "▁Matka",
        -9.621987785397675
      ],
      [
        "9)",
        -9.622619637055873
      ],
      [
        "▁kerta",
        -9.623441434240643
      ],
      [
        "tto",
        -9.624392517795329
      ],
      [
        "▁paino",
        -9.625434972828533
      ],
      [
        "▁projekti",
        -9.625790861672748
      ],
      [
        "▁myynti",
        -9.626065145000444
      ],
      [
        "▁muuttaa",
        -9.627123011555883
      ],
      [
        "▁vahva",
        -9.627154923370613
      ],
      [
        "nsa.",
        -9.627577632257807
      ],
      [
        "Tätä",
        -9.628389995482316
      ],
      [
        "▁aurinko",
        -9.630118341918301
      ],
      [
        "väri",
        -9.631145973229444
      ],
      [
        "▁siltä",
        -9.631244882841905
      ],
      [
        "▁aamu",
        -9.631570917122225
      ],
      [
        "tieto",
        -9.631596280857497
      ],
      [
        "ryhmä",
        -9.631861793155167
      ],
      [
        "ville",
        -9.632346499951565
      ],
      [
        "▁kohdalla",
        -9.63245166615706
      ],
      [
        "▁isä",
        -9.632478061546548
      ],
      [
        "ste",
        -9.633321560499265
      ],
      [
        "50",
        -9.633452864783113
      ],
      [
        "▁löytyi",
        -9.63444096883909
      ],
      [
        "▁lasku",
        -9.63499549936302
      ],
      [
        "▁tarina",
        -9.635019609335323
      ],
      [
        "▁Mo",
        -9.635253204603183
      ],
      [
        "▁lähti",
        -9.637079361803135
      ],
      [
        "▁minusta",
        -9.63726831458587
      ],
      [
        "▁Blogi",
        -9.637536704337027
      ],
      [
        "▁8.",
        -9.639740000799968
      ],
      [
        "▁toista",
        -9.642542831448003
      ],
      [
        "▁pääse",
        -9.642721764444783
      ],
      [
        "▁teksti",
        -9.642815583523182
      ],
      [
        "▁hei",
        -9.642875122020266
      ],
      [
        "▁raja",
        -9.644093356232004
      ],
      [
        "ohjelma",
        -9.645009991408383
      ],
      [
        "siä",
        -9.645359583160232
      ],
      [
        "mon",
        -9.645865035130036
      ],
      [
        "▁suunnittelu",
        -9.646089656960248
      ],
      [
        "▁kuukauden",
        -9.646425507720988
      ],
      [
        "▁liittyvät",
        -9.64654351260778
      ],
      [
        "▁kysymys",
        -9.647082701937464
      ],
      [
        "▁lähde",
        -9.647559807040281
      ],
      [
        "▁po",
        -9.648305127338094
      ],
      [
        "▁koskeva",
        -9.649380051466537
      ],
      [
        "KO",
        -9.649399245779414
      ],
      [
        "hti",
        -9.649575633172091
      ],
      [
        "▁poliisi",
        -9.649701799606305
      ],
      [
        "▁edessä",
        -9.649726851409081
      ],
      [
        "vesi",
        -9.650430132129134
      ],
      [
        "▁Juha",
        -9.650526309207308
      ],
      [
        "um",
        -9.651031965877324
      ],
      [
        "▁suoja",
        -9.651822986832215
      ],
      [
        "lliset",
        -9.652116125050952
      ],
      [
        "▁keskustelu",
        -9.652276404364823
      ],
      [
        "ker",
        -9.65257379009146
      ],
      [
        "der",
        -9.65278642839072
      ],
      [
        "▁tausta",
        -9.653937610872212
      ],
      [
        "▁taso",
        -9.655029756406185
      ],
      [
        "▁välttämättä",
        -9.655494609089105
      ],
      [
        "▁sähköpostitse",
        -9.655495370707978
      ],
      [
        "▁ymmärtää",
        -9.656060319463725
      ],
      [
        "▁kunta",
        -9.656191168623252
      ],
      [
        "ineen",
        -9.656218165310891
      ],
      [
        "katu",
        -9.656284044202325
      ],
      [
        "▁mone",
        -9.65682149960852
      ],
      [
        "teli",
        -9.657324993524387
      ],
      [
        "▁jaksa",
        -9.657764907817569
      ],
      [
        "▁b",
        -9.657828688656632
      ],
      [
        "▁tietenkin",
        -9.65794392398925
      ],
      [
        "Porn",
        -9.658034298836025
      ],
      [
        "▁ohjelma",
        -9.6585938150507
      ],
      [
        "▁kuulu",
        -9.658945359868714
      ],
      [
        "alue",
        -9.659805559538398
      ],
      [
        "uri",
        -9.659815093097412
      ],
      [
        "▁minut",
        -9.65989663320695
      ],
      [
        "18",
        -9.659979256184538
      ],
      [
        "▁asiassa",
        -9.661144951732659
      ],
      [
        "▁l",
        -9.661165943223537
      ],
      [
        "▁tavoitteena",
        -9.661196332945755
      ],
      [
        "eksi",
        -9.661203709360024
      ],
      [
        "▁sy",
        -9.661574753172369
      ],
      [
        "▁maan",
        -9.662056640157008
      ],
      [
        "▁hetken",
        -9.663311129589733
      ],
      [
        "esti",
        -9.663462350966856
      ],
      [
        "tuksen",
        -9.663561416864681
      ],
      [
        "▁laatu",
        -9.663897267770064
      ],
      [
        "▁valinta",
        -9.664393585043562
      ],
      [
        "▁oikeastaan",
        -9.665561500365117
      ],
      [
        "▁syytä",
        -9.665618634423838
      ],
      [
        "▁vaikutus",
        -9.665776466125774
      ],
      [
        "▁kaiki",
        -9.666319699392456
      ],
      [
        "▁60",
        -9.66686528155444
      ],
      [
        "▁odottaa",
        -9.6670461590981
      ],
      [
        "▁kommenttia",
        -9.667591018517804
      ],
      [
        "▁for",
        -9.667642309580511
      ],
      [
        "maton",
        -9.667939152717384
      ],
      [
        "▁yrityksen",
        -9.667953457268911
      ],
      [
        "▁alueen",
        -9.66879621864643
      ],
      [
        "▁aja",
        -9.669084592823834
      ],
      [
        "laisten",
        -9.669290080753505
      ],
      [
        "▁Turun",
        -9.669673144697754
      ],
      [
        "▁naisten",
        -9.669889118020894
      ],
      [
        "▁loppuun",
        -9.670128008080741
      ],
      [
        "▁suora",
        -9.670584935069408
      ],
      [
        "▁teille",
        -9.671016583005542
      ],
      [
        "▁sit",
        -9.672249526545338
      ],
      [
        "▁mm",
        -9.672505640923985
      ],
      [
        "tää",
        -9.67330334815442
      ],
      [
        "▁täynnä",
        -9.673307119508358
      ],
      [
        "▁lu",
        -9.673363398948663
      ],
      [
        "Kuinka",
        -9.673702807495172
      ],
      [
        "äiden",
        -9.673950348510882
      ],
      [
        "▁Pekka",
        -9.67694227702792
      ],
      [
        "ps",
        -9.677213765528327
      ],
      [
        "Minulla",
        -9.677231258213599
      ],
      [
        "etenkin",
        -9.677249388285563
      ],
      [
        "lehti",
        -9.677909666200364
      ],
      [
        "▁kon",
        -9.678002678047115
      ],
      [
        "▁Musta",
        -9.67841333746544
      ],
      [
        "kaan.",
        -9.678463324207456
      ],
      [
        "bo",
        -9.6791054502173
      ],
      [
        "uuden",
        -9.679423958108664
      ],
      [
        "▁asunto",
        -9.679607368222035
      ],
      [
        "▁lapsille",
        -9.680244836939131
      ],
      [
        "▁Ala",
        -9.68041125440818
      ],
      [
        "isiä",
        -9.681203509591684
      ],
      [
        "▁asioista",
        -9.681826881664744
      ],
      [
        "▁aiheuttaa",
        -9.681915484566556
      ],
      [
        "jien",
        -9.682207386262018
      ],
      [
        "▁(10",
        -9.682238408742442
      ],
      [
        "▁Le",
        -9.6823133950334
      ],
      [
        "gi",
        -9.682566278914106
      ],
      [
        "go",
        -9.683508162527616
      ],
      [
        "Toinen",
        -9.68406130067558
      ],
      [
        "▁Bo",
        -9.684414924316293
      ],
      [
        "▁pala",
        -9.684610044442728
      ],
      [
        "▁Helsingissä",
        -9.684687235167424
      ],
      [
        "▁riittää",
        -9.68474875461337
      ],
      [
        "▁pohja",
        -9.684856066798165
      ],
      [
        "▁talo",
        -9.68656087249208
      ],
      [
        "▁nykyään",
        -9.688336883901588
      ],
      [
        "20",
        -9.68868125840254
      ],
      [
        "▁Puu",
        -9.688748397633095
      ],
      [
        "▁elämää",
        -9.689942130112954
      ],
      [
        "▁jokin",
        -9.69066125015911
      ],
      [
        "▁kauppa",
        -9.69150598130865
      ],
      [
        "▁suo",
        -9.69176395654417
      ],
      [
        "▁mielessä",
        -9.695428651154582
      ],
      [
        "▁Ota",
        -9.695668238159492
      ],
      [
        "▁vettä",
        -9.696079637378269
      ],
      [
        "▁auton",
        -9.696084444989012
      ],
      [
        "▁lisätä",
        -9.697494942517567
      ],
      [
        "▁pro",
        -9.697568258666049
      ],
      [
        "—",
        -9.697733914348909
      ],
      [
        "▁Suomeen",
        -9.698158292349534
      ],
      [
        "▁kesken",
        -9.698736122462755
      ],
      [
        "▁tukea",
        -9.699053722580643
      ],
      [
        "▁teini",
        -9.699420726816278
      ],
      [
        "▁kuulla",
        -9.699726052640866
      ],
      [
        "▁jäänyt",
        -9.701007713100257
      ],
      [
        "py",
        -9.70135110209885
      ],
      [
        "▁elää",
        -9.701894394655337
      ],
      [
        "▁ratkaisu",
        -9.70218238578456
      ],
      [
        "essaan",
        -9.70261053086503
      ],
      [
        "laisia",
        -9.702648149424192
      ],
      [
        "▁heitä",
        -9.702898937299029
      ],
      [
        "▁tunnin",
        -9.703028408103492
      ],
      [
        "▁kysy",
        -9.703461168246767
      ],
      [
        "▁Kuka",
        -9.703554038994795
      ],
      [
        "▁naiset",
        -9.70366747917749
      ],
      [
        "▁esille",
        -9.703740331190106
      ],
      [
        "ske",
        -9.704397211219813
      ],
      [
        "▁ru",
        -9.704426849298835
      ],
      [
        "sarja",
        -9.70448972573261
      ],
      [
        "▁sunnuntai",
        -9.70471263129968
      ],
      [
        "kauppa",
        -9.705857485122202
      ],
      [
        "▁(M",
        -9.706192281603155
      ],
      [
        "tulo",
        -9.706194086794254
      ],
      [
        "▁apua",
        -9.706795502657677
      ],
      [
        "▁Vuon",
        -9.707257529013877
      ],
      [
        "▁sää",
        -9.708127149470023
      ],
      [
        "▁kala",
        -9.70829919567023
      ],
      [
        "ttävä",
        -9.708485775357659
      ],
      [
        "ukka",
        -9.709138973721473
      ],
      [
        "▁km",
        -9.709268038325932
      ],
      [
        "▁jostain",
        -9.709992334936175
      ],
      [
        "1.",
        -9.710596003153308
      ],
      [
        "▁Perus",
        -9.710682749546649
      ],
      [
        "▁200",
        -9.711076873115925
      ],
      [
        "▁pitänyt",
        -9.711448298063228
      ],
      [
        "▁Ka",
        -9.712817658336704
      ],
      [
        "joihin",
        -9.7131926280062
      ],
      [
        "▁tuossa",
        -9.713632503712024
      ],
      [
        "▁sisältö",
        -9.713866796371962
      ],
      [
        "▁tarkoitettu",
        -9.714386983962882
      ],
      [
        "laisen",
        -9.714944073707747
      ],
      [
        "▁Ri",
        -9.715221755499407
      ],
      [
        "▁alueella",
        -9.715482450316749
      ],
      [
        "tee",
        -9.71572591304598
      ],
      [
        "▁käynyt",
        -9.716236404407738
      ],
      [
        "▁Tutkimus",
        -9.716411453714013
      ],
      [
        "▁teho",
        -9.717306465124771
      ],
      [
        "▁Joulu",
        -9.71745371418665
      ],
      [
        "▁meri",
        -9.717827815325858
      ],
      [
        "tusta",
        -9.71866314199524
      ],
      [
        "llaan",
        -9.718792895240185
      ],
      [
        "ise",
        -9.719385810961096
      ],
      [
        "▁media",
        -9.720775807622475
      ],
      [
        "ji",
        -9.72151611521319
      ],
      [
        "▁posti",
        -9.721645011451255
      ],
      [
        "ellä",
        -9.72185510777392
      ],
      [
        "▁kertoa",
        -9.722214505993525
      ],
      [
        "▁pysy",
        -9.722586680660022
      ],
      [
        "▁Nä",
        -9.722817413698984
      ],
      [
        "▁kokeilla",
        -9.723158433872367
      ],
      [
        "gin",
        -9.72327725498236
      ],
      [
        "▁vaimo",
        -9.723375359585871
      ],
      [
        "▁verrattuna",
        -9.723598124487147
      ],
      [
        "▁hauska",
        -9.724023386013009
      ],
      [
        "▁9.",
        -9.725391741174308
      ],
      [
        "▁kyseessä",
        -9.725567855993157
      ],
      [
        "maksu",
        -9.725752226746007
      ],
      [
        "▁toimia",
        -9.726381003449658
      ],
      [
        "▁kunnan",
        -9.726485340407592
      ],
      [
        "emme",
        -9.726585028417126
      ],
      [
        "▁Ihana",
        -9.727684528996077
      ],
      [
        "▁Ki",
        -9.72781456037714
      ],
      [
        "▁muutami",
        -9.728179447861862
      ],
      [
        "ssaan",
        -9.728936842495974
      ],
      [
        "oli",
        -9.729564426912269
      ],
      [
        "▁tulos",
        -9.729667568595689
      ],
      [
        "▁joudu",
        -9.730932304735214
      ],
      [
        "▁vaihtoehto",
        -9.731103685242331
      ],
      [
        "▁hänet",
        -9.731292646999616
      ],
      [
        "len",
        -9.731455323895384
      ],
      [
        "▁ehdottomasti",
        -9.732377465889368
      ],
      [
        "kkä",
        -9.733360774463623
      ],
      [
        "sivat",
        -9.73418842186328
      ],
      [
        "numero",
        -9.734286349020696
      ],
      [
        "▁halu",
        -9.735636790053823
      ],
      [
        "tiedot",
        -9.735817269563306
      ],
      [
        "tor",
        -9.735883422017242
      ],
      [
        "mman",
        -9.7359305059971
      ],
      [
        "▁osan",
        -9.736972111149964
      ],
      [
        "12",
        -9.737735781276658
      ],
      [
        "▁Ru",
        -9.737867479231857
      ],
      [
        "tele",
        -9.738095442034119
      ],
      [
        "▁Toisaalta",
        -9.738308792802286
      ],
      [
        "▁Silloin",
        -9.73832466063378
      ],
      [
        "mus",
        -9.738808465853317
      ],
      [
        "pas",
        -9.739083438108704
      ],
      [
        "järjestelmän",
        -9.73955062603211
      ],
      [
        "▁voima",
        -9.739797544485832
      ],
      [
        "ettiin",
        -9.739894016888755
      ],
      [
        "pit",
        -9.742156615104372
      ],
      [
        "iseen",
        -9.742366047860067
      ],
      [
        "vel",
        -9.743324815505186
      ],
      [
        "▁liikaa",
        -9.743621964267463
      ],
      [
        "▁liikunta",
        -9.74421707725486
      ],
      [
        "▁tulo",
        -9.744430607871923
      ],
      [
        "ny",
        -9.745077504162207
      ],
      [
        "toiminnan",
        -9.745629659994066
      ],
      [
        "neiden",
        -9.746335093726977
      ],
      [
        "▁Ennen",
        -9.746949637221682
      ],
      [
        "▁milloin",
        -9.74720055024539
      ],
      [
        "▁hallituksen",
        -9.747419292918195
      ],
      [
        "▁etäisyys",
        -9.74772867293978
      ],
      [
        "▁kommentti",
        -9.747771739005819
      ],
      [
        "lli",
        -9.748017834942218
      ],
      [
        "▁Et",
        -9.748234076954972
      ],
      [
        "olo",
        -9.748509036020835
      ],
      [
        "kuu",
        -9.74898532938676
      ],
      [
        "▁pyrki",
        -9.749035112040449
      ],
      [
        "▁parasta",
        -9.749124223024676
      ],
      [
        "ttanut",
        -9.749432319368868
      ],
      [
        "arvo",
        -9.749895463525338
      ],
      [
        "▁veden",
        -9.750202784473558
      ],
      [
        "▁etsi",
        -9.751665096484366
      ],
      [
        "▁toimintaa",
        -9.751918962560488
      ],
      [
        "▁Lo",
        -9.752194787253242
      ],
      [
        "koulu",
        -9.752225686582712
      ],
      [
        "kauden",
        -9.752360681720434
      ],
      [
        "▁mennyt",
        -9.75252743120025
      ],
      [
        "▁Olisi",
        -9.752928491092412
      ],
      [
        "▁kutsu",
        -9.75312347156375
      ],
      [
        "▁noita",
        -9.754913411399661
      ],
      [
        "▁käytetty",
        -9.756049824107365
      ],
      [
        "▁puheenjohtaja",
        -9.75672450431558
      ],
      [
        "▁aloittaa",
        -9.756891209900422
      ],
      [
        "▁vastaan.",
        -9.757030374265728
      ],
      [
        "▁29",
        -9.757371045840923
      ],
      [
        "laista",
        -9.758245502939594
      ],
      [
        "▁Ympäristö",
        -9.759753308454693
      ],
      [
        "▁tavoin",
        -9.760367404715748
      ],
      [
        "ole",
        -9.760546839078028
      ],
      [
        "▁eniten",
        -9.7614494861332
      ],
      [
        "▁turvallisuus",
        -9.761615471610845
      ],
      [
        "taisiin",
        -9.762023478262897
      ],
      [
        "▁kolmen",
        -9.762474376603656
      ],
      [
        "▁Auto",
        -9.762772740651542
      ],
      [
        "▁kielen",
        -9.762796074676142
      ],
      [
        "▁vei",
        -9.763411140411481
      ],
      [
        "▁suu",
        -9.76466546444819
      ],
      [
        "a!",
        -9.764813995466657
      ],
      [
        "▁eteen",
        -9.765933210608955
      ],
      [
        "▁alas",
        -9.7664704296782
      ],
      [
        "▁mo",
        -9.766557401229568
      ],
      [
        "met",
        -9.7666700214866
      ],
      [
        "▁yrittää",
        -9.766789467680352
      ],
      [
        "kunnan",
        -9.767811747252143
      ],
      [
        "mö",
        -9.768465740666823
      ],
      [
        "▁toiseen",
        -9.76860643323513
      ],
      [
        "Y",
        -9.76921329170729
      ],
      [
        "▁paperi",
        -9.769269267028049
      ],
      [
        ">",
        -9.770127653930317
      ],
      [
        "ppu",
        -9.771582989885042
      ],
      [
        "tko",
        -9.771827854887226
      ],
      [
        "▁runo",
        -9.772153480714696
      ],
      [
        ":)",
        -9.772305713290406
      ],
      [
        "▁tein",
        -9.773202115376236
      ],
      [
        "▁seuraava",
        -9.774089574820938
      ],
      [
        "▁rooli",
        -9.77528669806022
      ],
      [
        "▁liikenne",
        -9.776973090094689
      ],
      [
        "huone",
        -9.777025288206177
      ],
      [
        "▁öljy",
        -9.7775220836579
      ],
      [
        "uko",
        -9.778095407865536
      ],
      [
        "ng",
        -9.778240145781115
      ],
      [
        "▁vuodesta",
        -9.778415169962312
      ],
      [
        "TI",
        -9.77863075015982
      ],
      [
        "tteli",
        -9.779341857790989
      ],
      [
        "▁piene",
        -9.779491589582689
      ],
      [
        "Älä",
        -9.77995515057977
      ],
      [
        "sh",
        -9.780377592854059
      ],
      [
        "▁musiikki",
        -9.780814206057007
      ],
      [
        "▁eteenpäin",
        -9.780965612715729
      ],
      [
        "▁liittyy",
        -9.78170223809854
      ],
      [
        "▁arvioi",
        -9.781717744183648
      ],
      [
        "pohja",
        -9.781779963445064
      ],
      [
        "▁omalla",
        -9.782057597922208
      ],
      [
        "▁Kohtee",
        -9.782455039245171
      ],
      [
        "▁kahvi",
        -9.78253206723992
      ],
      [
        "laki",
        -9.782572873145448
      ],
      [
        "▁rahoitus",
        -9.7831752427389
      ],
      [
        "▁rakenne",
        -9.783741489814098
      ],
      [
        "ministeriö",
        -9.783977370361688
      ],
      [
        "toista",
        -9.784698950233686
      ],
      [
        "▁Te",
        -9.784703562601738
      ],
      [
        "eri",
        -9.784813564879656
      ],
      [
        "▁f",
        -9.784910686466123
      ],
      [
        "▁laske",
        -9.784980152484323
      ],
      [
        "▁varma",
        -9.785315923566461
      ],
      [
        "▁Fa",
        -9.785321602309104
      ],
      [
        "▁anna",
        -9.785837451791885
      ],
      [
        "▁suuren",
        -9.786055340156711
      ],
      [
        "’",
        -9.786544411930915
      ],
      [
        "90",
        -9.787047173630892
      ],
      [
        "▁kevät",
        -9.787704833296281
      ],
      [
        "▁Sähkö",
        -9.788131892786541
      ],
      [
        "hen",
        -9.78828756655839
      ],
      [
        "▁nopea",
        -9.788557181172875
      ],
      [
        "▁31",
        -9.789602350237391
      ],
      [
        "▁Matti",
        -9.789733860009196
      ],
      [
        "▁totta",
        -9.790151822467632
      ],
      [
        "▁ylös",
        -9.790180890050369
      ],
      [
        "▁numero",
        -9.790463020212117
      ],
      [
        "teidän",
        -9.791884517951383
      ],
      [
        "▁muutenkin",
        -9.792437114246217
      ],
      [
        "▁mukaisesti",
        -9.792746040985577
      ],
      [
        "TO",
        -9.792874756705523
      ],
      [
        "ras",
        -9.793844248312606
      ],
      [
        "itse",
        -9.79553581106929
      ],
      [
        "▁mitta",
        -9.795607592235122
      ],
      [
        "aine",
        -9.795859917064174
      ],
      [
        "Siitä",
        -9.795905024340929
      ],
      [
        "mikäli",
        -9.796215350403694
      ],
      [
        "ul",
        -9.796228373714474
      ],
      [
        "▁Ai",
        -9.797009137326818
      ],
      [
        "asioiden",
        -9.798115519566391
      ],
      [
        "▁auki",
        -9.798318767351299
      ],
      [
        "th",
        -9.798699004768643
      ],
      [
        "än.",
        -9.798712257053108
      ],
      [
        "▁kestävä",
        -9.799544619030577
      ],
      [
        "▁kuusi",
        -9.800620243735018
      ],
      [
        "▁laita",
        -9.801164684476806
      ],
      [
        "▁pieniä",
        -9.802477228482068
      ],
      [
        "▁elokuva",
        -9.803035322466727
      ],
      [
        "▁hyvät",
        -9.803396829031133
      ],
      [
        "on,",
        -9.803691093463671
      ],
      [
        "©",
        -9.804098213085929
      ],
      [
        "▁(S",
        -9.804238296089943
      ],
      [
        "ivät",
        -9.804556831805703
      ],
      [
        "▁sala",
        -9.804725643121753
      ],
      [
        "▁ihanaa",
        -9.804913941821548
      ],
      [
        "▁kanta",
        -9.804998516766954
      ],
      [
        "matka",
        -9.805379320583494
      ],
      [
        "▁sosiaali",
        -9.806001333940658
      ],
      [
        "▁Maa",
        -9.806260540524432
      ],
      [
        "▁tutkimuksen",
        -9.80687688480121
      ],
      [
        "mme.",
        -9.807805591598672
      ],
      [
        "▁kautta.",
        -9.807825114129173
      ],
      [
        "▁itseään",
        -9.807872629962617
      ],
      [
        "malli",
        -9.808735318848768
      ],
      [
        "▁kone",
        -9.809186404369136
      ],
      [
        "▁löydät",
        -9.810467029436566
      ],
      [
        "▁merkitys",
        -9.810822180492796
      ],
      [
        "▁valta",
        -9.810822659485625
      ],
      [
        "▁ongelmia",
        -9.811133402246018
      ],
      [
        "INEN",
        -9.811482231282973
      ],
      [
        "miin",
        -9.81220372042739
      ],
      [
        "jokainen",
        -9.81433968947218
      ],
      [
        "kse",
        -9.814751707001662
      ],
      [
        "▁kasva",
        -9.815067039509106
      ],
      [
        "▁sijaitsee",
        -9.816282107424431
      ],
      [
        "▁opiskelija",
        -9.817007086111214
      ],
      [
        "Toivottavasti",
        -9.818170742748254
      ],
      [
        "▁vii",
        -9.818919255966925
      ],
      [
        "▁syntyy",
        -9.819222737249255
      ],
      [
        "▁nyky",
        -9.8193801668464
      ],
      [
        "9.",
        -9.820278986886084
      ],
      [
        "▁toimivat",
        -9.820374330695884
      ],
      [
        "▁perse",
        -9.820610849588043
      ],
      [
        "▁tuolla",
        -9.820981475688772
      ],
      [
        "=",
        -9.821599476021708
      ],
      [
        "▁tulossa",
        -9.82174511674559
      ],
      [
        "miseksi",
        -9.822055580464415
      ],
      [
        "▁jatko",
        -9.822076156788459
      ],
      [
        "▁taide",
        -9.823008116091206
      ],
      [
        "voima",
        -9.823794595507156
      ],
      [
        "▁tarpeeksi",
        -9.823855691600343
      ],
      [
        "▁vuosina",
        -9.824273259100854
      ],
      [
        "▁vastaava",
        -9.824451118831469
      ],
      [
        "▁(ja",
        -9.824634498972518
      ],
      [
        "elta",
        -9.82551692246002
      ],
      [
        "▁tuoksu",
        -9.826186244345255
      ],
      [
        "▁lähtien",
        -9.826324581771402
      ],
      [
        "ment",
        -9.826549423273985
      ],
      [
        "tori",
        -9.82691795908868
      ],
      [
        "▁monia",
        -9.827845254250793
      ],
      [
        "että",
        -9.827901754968092
      ],
      [
        "80",
        -9.828929100373456
      ],
      [
        "▁tekijä",
        -9.829273684339896
      ],
      [
        "▁Vielä",
        -9.829620744719259
      ],
      [
        "▁Kar",
        -9.82998421139466
      ],
      [
        "oppi",
        -9.83016177869794
      ],
      [
        "▁tanssi",
        -9.830308901793618
      ],
      [
        "▁hoitaa",
        -9.831158301712312
      ],
      [
        "niemi",
        -9.831550443529176
      ],
      [
        "X",
        -9.831959661243106
      ],
      [
        "▁huomattavasti",
        -9.832114229662256
      ],
      [
        "▁itselleen",
        -9.832407013767932
      ],
      [
        "▁jotakin",
        -9.832616637631546
      ],
      [
        "▁molemmat",
        -9.833400926731393
      ],
      [
        "▁puolestaan",
        -9.833435963904725
      ],
      [
        "3.",
        -9.833552091263574
      ],
      [
        "▁Antti",
        -9.833957326918476
      ],
      [
        "suoja",
        -9.834330466662879
      ],
      [
        "▁kymmenen",
        -9.83438160608501
      ],
      [
        "▁Kai",
        -9.836084337675558
      ],
      [
        "vän",
        -9.83609048563935
      ],
      [
        "▁hotelli",
        -9.836091746148917
      ],
      [
        "tutkimus",
        -9.836702754487039
      ],
      [
        "▁jatka",
        -9.837289946708353
      ],
      [
        "!\"",
        -9.83767263153149
      ],
      [
        "▁myy",
        -9.837686698487857
      ],
      [
        "kar",
        -9.838407870661882
      ],
      [
        "▁Tähän",
        -9.83850905873119
      ],
      [
        "▁tapaa",
        -9.838639195572178
      ],
      [
        "▁euron",
        -9.838714783652197
      ],
      [
        "▁Oulun",
        -9.839141820835692
      ],
      [
        "?\"",
        -9.839301424792112
      ],
      [
        "▁seuraavi",
        -9.839510616095456
      ],
      [
        "▁Siksi",
        -9.839708237208779
      ],
      [
        "auto",
        -9.84064482253618
      ],
      [
        "▁kuuluvat",
        -9.841330312408562
      ],
      [
        "▁Mun",
        -9.84136306365869
      ],
      [
        "6.",
        -9.842140595576637
      ],
      [
        "▁paksu",
        -9.842186219067926
      ],
      [
        "kasta",
        -9.84258760355356
      ],
      [
        "▁ro",
        -9.8425893701594
      ],
      [
        "joki",
        -9.843333293209275
      ],
      [
        "▁itsekin",
        -9.843712943731862
      ],
      [
        "▁Koulu",
        -9.843791802850792
      ],
      [
        "oma",
        -9.843987212829468
      ],
      [
        "▁puhelin",
        -9.844062222656856
      ],
      [
        "▁omista",
        -9.844764122155153
      ],
      [
        "▁juo",
        -9.844978328232735
      ],
      [
        "saa",
        -9.845573128345663
      ],
      [
        "tia",
        -9.845804427728112
      ],
      [
        "▁ilmeisesti",
        -9.846246894788356
      ],
      [
        "sy",
        -9.846650131100759
      ],
      [
        "uutta",
        -9.846656662292585
      ],
      [
        "▁talon",
        -9.846876925802093
      ],
      [
        "mp",
        -9.847335761674925
      ],
      [
        "▁Rakennus",
        -9.847428762025496
      ],
      [
        "▁ilta",
        -9.847772021582912
      ],
      [
        "▁naisen",
        -9.847785674614212
      ],
      [
        "▁ota",
        -9.848383233442615
      ],
      [
        "▁pyöri",
        -9.84889529942983
      ],
      [
        "▁joukko",
        -9.849109374361039
      ],
      [
        "tuki",
        -9.849191619954304
      ],
      [
        "▁kylmä",
        -9.85081463213647
      ],
      [
        "▁nähnyt",
        -9.850970931960358
      ],
      [
        "▁Oy:",
        -9.85106147672845
      ],
      [
        "▁perjantai",
        -9.852072375560308
      ],
      [
        "▁sopiva",
        -9.852134329798702
      ],
      [
        "▁perustuu",
        -9.852729478212137
      ],
      [
        "▁tien",
        -9.852956644551808
      ],
      [
        "▁Lasten",
        -9.853238026191235
      ],
      [
        "kausi",
        -9.853632061637306
      ],
      [
        "▁homo",
        -9.853675047675033
      ],
      [
        "suus",
        -9.853820731421333
      ],
      [
        "▁opiskelu",
        -9.854068325567724
      ],
      [
        "▁näytti",
        -9.854410356814098
      ],
      [
        "▁homma",
        -9.855177971409402
      ],
      [
        "kortti",
        -9.855188089430278
      ],
      [
        "hiukan",
        -9.856940718214315
      ],
      [
        "▁Kirjoittaja",
        -9.857428583547987
      ],
      [
        "▁tuotanto",
        -9.857438979145872
      ],
      [
        "▁Asia",
        -9.858073393079898
      ],
      [
        "▁vaali",
        -9.858467272912687
      ],
      [
        "▁Timo",
        -9.859037437941709
      ],
      [
        "KE",
        -9.859679494252163
      ],
      [
        "▁kirkko",
        -9.85975818616727
      ],
      [
        "▁näkee",
        -9.860658655937954
      ],
      [
        "▁vastuu",
        -9.860891108998638
      ],
      [
        "oitu",
        -9.861264536736039
      ],
      [
        "ttele",
        -9.861567910759339
      ],
      [
        "▁Tervetuloa",
        -9.861637689018734
      ],
      [
        "60",
        -9.862074902181867
      ],
      [
        "▁nais",
        -9.862750171083949
      ],
      [
        "19",
        -9.862947495185873
      ],
      [
        "▁iho",
        -9.863011774795375
      ],
      [
        "▁palkka",
        -9.863506221623002
      ],
      [
        "ston",
        -9.863628788345927
      ],
      [
        "▁samoin",
        -9.863835061640918
      ],
      [
        "▁ruokaa",
        -9.86408924506325
      ],
      [
        "▁tie",
        -9.864181524000738
      ],
      [
        "▁toisaalta",
        -9.864577498875093
      ],
      [
        "mättä",
        -9.865202200251925
      ],
      [
        "▁olisivat",
        -9.865245030455082
      ],
      [
        "utu",
        -9.865251389057079
      ],
      [
        "▁Finland",
        -9.865291779585817
      ],
      [
        "▁tyyli",
        -9.865532060513818
      ],
      [
        "▁ajatus",
        -9.865632596832155
      ],
      [
        "kuntien",
        -9.866260524175154
      ],
      [
        "tissit,",
        -9.867115524951904
      ],
      [
        "▁vastasi",
        -9.867476281506905
      ],
      [
        "▁tarjolla",
        -9.867594847942723
      ],
      [
        "▁mulle",
        -9.867700086163742
      ],
      [
        "▁idea",
        -9.867811721517132
      ],
      [
        "▁blogin",
        -9.86847074365467
      ],
      [
        "▁pohti",
        -9.868640799259767
      ],
      [
        "▁suur",
        -9.868971075326488
      ],
      [
        "kaikista",
        -9.869344286694178
      ],
      [
        "▁kuiva",
        -9.871106478288787
      ],
      [
        "▁yllä",
        -9.871284715491917
      ],
      [
        "▁jatkuu",
        -9.871607634176865
      ],
      [
        "▁pitkin",
        -9.871969683573269
      ],
      [
        "▁kehittämis",
        -9.872063276641118
      ],
      [
        "▁Twitteri",
        -9.872352612408552
      ],
      [
        "▁nii",
        -9.872516054298552
      ],
      [
        "▁Vai",
        -9.872544509222978
      ],
      [
        "▁varten.",
        -9.872845555105293
      ],
      [
        "▁paha",
        -9.87323357064462
      ],
      [
        "▁Toimi",
        -9.873728557342334
      ],
      [
        "tojen",
        -9.873883068324245
      ],
      [
        "▁Täällä",
        -9.874079466591908
      ],
      [
        "fe",
        -9.874414634740601
      ],
      [
        "▁ohje",
        -9.87449919085942
      ],
      [
        "▁kuuma",
        -9.876145781212328
      ],
      [
        "▁kiinteistö",
        -9.876659447178499
      ],
      [
        "▁tietoja",
        -9.876711816274348
      ],
      [
        "▁vuokra",
        -9.876928985843353
      ],
      [
        "isti",
        -9.877605450997288
      ],
      [
        "&",
        -9.87794985682492
      ],
      [
        "▁ry:",
        -9.878249136294105
      ],
      [
        "▁ikä",
        -9.878481097926906
      ],
      [
        "▁lähettämi",
        -9.878509695338394
      ],
      [
        "▁2006",
        -9.879282365534493
      ],
      [
        "▁soi",
        -9.879293176823236
      ],
      [
        "las",
        -9.879432053712568
      ],
      [
        "▁antoi",
        -9.88047272561242
      ],
      [
        "Bloggaa",
        -9.880541183810193
      ],
      [
        "IT",
        -9.880552894624723
      ],
      [
        "▁käytännössä",
        -9.880663124485867
      ],
      [
        "▁Mar",
        -9.881470123602755
      ],
      [
        "▁suure",
        -9.881753015855459
      ],
      [
        "▁jatkuvasti",
        -9.882116072211717
      ],
      [
        "var",
        -9.882506199718335
      ],
      [
        "▁kukka",
        -9.882597991780896
      ],
      [
        "vaikkapa",
        -9.882914223516737
      ],
      [
        "▁tavoite",
        -9.883127228611002
      ],
      [
        "ger",
        -9.883589029834255
      ],
      [
        "▁hallitus",
        -9.883920894701781
      ],
      [
        "SI",
        -9.884074892663584
      ],
      [
        "don",
        -9.884544201732522
      ],
      [
        "▁Sain",
        -9.885186400554694
      ],
      [
        "▁sovi",
        -9.885841862687492
      ],
      [
        "▁saatiin",
        -9.885979463318069
      ],
      [
        "▁vuodessa",
        -9.886013708711612
      ],
      [
        "viin",
        -9.88674152288392
      ],
      [
        "▁Siis",
        -9.886831608431521
      ],
      [
        "misestä",
        -9.88765209719857
      ],
      [
        "▁hetki",
        -9.888530268952856
      ],
      [
        "▁maku",
        -9.888950413207779
      ],
      [
        "▁aikaisemmin",
        -9.889030109060155
      ],
      [
        "▁Val",
        -9.891440976826669
      ],
      [
        "▁muisti",
        -9.891528658380313
      ],
      [
        "▁Facebookiin",
        -9.891778236229602
      ],
      [
        "▁silmä",
        -9.89220390518969
      ],
      [
        "▁tunte",
        -9.892472666249745
      ],
      [
        "▁ylä",
        -9.893874717426542
      ],
      [
        "ca",
        -9.89387686625897
      ],
      [
        "▁muihin",
        -9.894055429967063
      ],
      [
        "▁normaali",
        -9.894407030962094
      ],
      [
        "▁kestää",
        -9.895136671351453
      ],
      [
        "ksesi",
        -9.895400166608173
      ],
      [
        "▁laji",
        -9.895937717418079
      ],
      [
        "▁ilmoitus",
        -9.89638612311543
      ],
      [
        "▁kehittäminen",
        -9.898155542619023
      ],
      [
        "▁irti",
        -9.898834069551341
      ],
      [
        "▁pinta",
        -9.900275021557992
      ],
      [
        "tur",
        -9.900458931138449
      ],
      [
        "▁Vuosi",
        -9.900575796960872
      ],
      [
        "Meidän",
        -9.90076999860139
      ],
      [
        "imi",
        -9.902568750153826
      ],
      [
        "a?",
        -9.902627231901324
      ],
      [
        "▁70",
        -9.903520266008613
      ],
      [
        "berg",
        -9.903568473334897
      ],
      [
        "ojen",
        -9.903948786668579
      ],
      [
        "▁missään",
        -9.904512778527131
      ],
      [
        "▁julkaisu",
        -9.905259195267213
      ],
      [
        "dan",
        -9.905618147223464
      ],
      [
        "▁Mikko",
        -9.90566122086705
      ],
      [
        "ita,",
        -9.905787157409769
      ],
      [
        "▁maassa",
        -9.905966049276973
      ],
      [
        "▁turva",
        -9.906381951262453
      ],
      [
        "pelkästään",
        -9.906427611087437
      ],
      [
        "▁kerro",
        -9.90673800572264
      ],
      [
        "▁kir",
        -9.9068679401202
      ],
      [
        "as",
        -9.907963838203257
      ],
      [
        "▁kivi",
        -9.90798286409295
      ],
      [
        "ilija",
        -9.909020849499981
      ],
      [
        "▁pidetään",
        -9.909300025874943
      ],
      [
        "väli",
        -9.909590463705756
      ],
      [
        "ik",
        -9.909634168221743
      ],
      [
        "▁al",
        -9.910448172399185
      ],
      [
        "▁Pinteresti",
        -9.910630687851512
      ],
      [
        "▁lopussa",
        -9.911535563613437
      ],
      [
        "▁hyväksy",
        -9.911893250595277
      ],
      [
        "▁vuoteen",
        -9.91189371970663
      ],
      [
        "milf",
        -9.913314742151602
      ],
      [
        "▁osuus",
        -9.9134913007439
      ],
      [
        "ihin,",
        -9.913552960783829
      ],
      [
        "▁voimassa",
        -9.913702294949069
      ],
      [
        "▁keskellä",
        -9.914209785872401
      ],
      [
        "▁ensimmäistä",
        -9.914809211210454
      ],
      [
        "ei",
        -9.915443127409649
      ],
      [
        "▁entistä",
        -9.915547829030253
      ],
      [
        "▁s.",
        -9.915633765835647
      ],
      [
        "▁kaveri",
        -9.91583972672683
      ],
      [
        "▁pol",
        -9.916049796850213
      ],
      [
        "2)",
        -9.91669839750495
      ],
      [
        "s-",
        -9.91696823872278
      ],
      [
        "▁yhteise",
        -9.917046169915649
      ],
      [
        "▁pienet",
        -9.917898358590831
      ],
      [
        "Samalla",
        -9.917914704395919
      ],
      [
        "▁Lopu",
        -9.918843868114745
      ],
      [
        "▁Kau",
        -9.919533561513528
      ],
      [
        "▁II",
        -9.91969363047673
      ],
      [
        "järven",
        -9.919952255394122
      ],
      [
        "▁ON",
        -9.920852463096548
      ],
      [
        "kkari",
        -9.921068052096121
      ],
      [
        "▁sellaisia",
        -9.921106909193352
      ],
      [
        "▁luonto",
        -9.92157342164846
      ],
      [
        "▁Toiminta",
        -9.921894367298913
      ],
      [
        "▁helppoa",
        -9.921901829111091
      ],
      [
        "aatio",
        -9.922240564766005
      ],
      [
        "▁johtaa",
        -9.922350931282988
      ],
      [
        "my",
        -9.92344507456431
      ],
      [
        "▁netti",
        -9.923461689372239
      ],
      [
        "ttaessa",
        -9.92430037990237
      ],
      [
        "ris",
        -9.924474465407403
      ],
      [
        "▁tuotteita",
        -9.924647720491645
      ],
      [
        "▁suihin",
        -9.924684893439961
      ],
      [
        "eseen",
        -9.925250690731431
      ],
      [
        "▁Lähetä",
        -9.925420244864156
      ],
      [
        "▁tekevät",
        -9.925864185953493
      ],
      [
        "▁hyvinvointi",
        -9.925870052799297
      ],
      [
        "▁huomiota",
        -9.925969320957597
      ],
      [
        "▁huolto",
        -9.926082191419326
      ],
      [
        "▁huomaa",
        -9.92636779712098
      ],
      [
        "▁keksi",
        -9.926619386649934
      ],
      [
        "▁Joten",
        -9.927787313010922
      ],
      [
        "▁kasvi",
        -9.927825791914582
      ],
      [
        "▁jakaa",
        -9.928165690069733
      ],
      [
        "uksista",
        -9.928547656051709
      ],
      [
        "▁maanantai",
        -9.929190931529604
      ],
      [
        "teiden",
        -9.929345772432395
      ],
      [
        "▁viestintä",
        -9.929915496057145
      ],
      [
        "▁kannata",
        -9.93061504407033
      ],
      [
        "▁tuosta",
        -9.93068023522958
      ],
      [
        "ime",
        -9.930828463237756
      ],
      [
        "val",
        -9.931003035840323
      ],
      [
        "ointi",
        -9.931906509116942
      ],
      [
        "uden",
        -9.93244199237443
      ],
      [
        "▁kestä",
        -9.934120743893343
      ],
      [
        "ltä.",
        -9.934467667421147
      ],
      [
        "▁puutarha",
        -9.935312847694052
      ],
      [
        "▁suku",
        -9.936718225205851
      ],
      [
        "▁kantaa",
        -9.936771120291118
      ],
      [
        "▁Ho",
        -9.937019489194133
      ],
      [
        "ajat",
        -9.9376579894543
      ],
      [
        "▁ansiosta",
        -9.93781943665663
      ],
      [
        "Eikä",
        -9.938123877952375
      ],
      [
        "hy",
        -9.938290320800927
      ],
      [
        "Hänen",
        -9.939299233379252
      ],
      [
        "▁Siellä",
        -9.939918812765749
      ],
      [
        "14",
        -9.940005134694145
      ],
      [
        "▁Z",
        -9.940269015612696
      ],
      [
        "▁lyhyt",
        -9.940587709535507
      ],
      [
        "vero",
        -9.94063832762128
      ],
      [
        "vis",
        -9.940644150173888
      ],
      [
        "▁kunnossa",
        -9.940648130389683
      ],
      [
        "▁merkittävä",
        -9.940797529695546
      ],
      [
        "yt",
        -9.94194510718351
      ],
      [
        "▁Tiede",
        -9.942274933670273
      ],
      [
        "oikeus",
        -9.942399246221331
      ],
      [
        "▁käytön",
        -9.942977028607258
      ],
      [
        "▁kesän",
        -9.943249007629841
      ],
      [
        "uttaa",
        -9.943901106894685
      ],
      [
        "▁töitä",
        -9.944934705016916
      ],
      [
        "▁yhteisö",
        -9.945160811244325
      ],
      [
        "▁Oi",
        -9.945291847043737
      ],
      [
        "▁olisin",
        -9.945363506368867
      ],
      [
        "▁palvelut",
        -9.945383835106293
      ],
      [
        "▁nousi",
        -9.945470245286002
      ],
      [
        "▁versio",
        -9.946172223510692
      ],
      [
        "▁puhe",
        -9.946184208096764
      ],
      [
        "▁katsoa",
        -9.946315474705996
      ],
      [
        "keskuksen",
        -9.94651893562164
      ],
      [
        "▁luoda",
        -9.946745198993506
      ],
      [
        "▁palaa",
        -9.94674811905343
      ],
      [
        "▁Aina",
        -9.94718071316504
      ],
      [
        "▁aihe",
        -9.947880835013155
      ],
      [
        "▁vanhan",
        -9.94791489181468
      ],
      [
        "▁super",
        -9.948145518889314
      ],
      [
        "▁heille",
        -9.948565036597081
      ],
      [
        "▁yhteiskunta",
        -9.948917469790924
      ],
      [
        "seksi",
        -9.949641684555733
      ],
      [
        "kuvia",
        -9.9497120326409
      ],
      [
        "▁par",
        -9.950078071506526
      ],
      [
        "▁hyvi",
        -9.950165081813356
      ],
      [
        "ansa",
        -9.950301314336993
      ],
      [
        "ber",
        -9.950433343343397
      ],
      [
        "▁Mistä",
        -9.950618123349697
      ],
      [
        "08",
        -9.951654176921963
      ],
      [
        "omien",
        -9.953011991592703
      ],
      [
        "vää",
        -9.953265481657319
      ],
      [
        "▁Toki",
        -9.95383240803454
      ],
      [
        "▁omassa",
        -9.954691336124585
      ],
      [
        "▁(P",
        -9.954789289885941
      ],
      [
        "seura",
        -9.954815349484107
      ],
      [
        "▁per",
        -9.955193238432388
      ],
      [
        "8.",
        -9.955209731636462
      ],
      [
        "▁tunti",
        -9.955314641502257
      ],
      [
        "▁toimisto",
        -9.955506706945311
      ],
      [
        "ON",
        -9.955810613937372
      ],
      [
        "▁'",
        -9.956083900684575
      ],
      [
        "piste",
        -9.956132880582619
      ],
      [
        "ita.",
        -9.956164967304144
      ],
      [
        "▁Peli",
        -9.956495886675484
      ],
      [
        "▁Ju",
        -9.95666998649357
      ],
      [
        "llisten",
        -9.957259658955955
      ],
      [
        "▁ke",
        -9.957378725165679
      ],
      [
        "▁sopi",
        -9.95738195616413
      ],
      [
        "hä",
        -9.957785870901688
      ],
      [
        "▁tasolla",
        -9.957792368940922
      ],
      [
        "▁vuosien",
        -9.958139074416465
      ],
      [
        "▁tuottaa",
        -9.958456902398952
      ],
      [
        "vuus",
        -9.958749262921067
      ],
      [
        "05",
        -9.958876729286807
      ],
      [
        "▁asti.",
        -9.959072162478748
      ],
      [
        "Z",
        -9.959238195101726
      ],
      [
        "har",
        -9.959765377246505
      ],
      [
        "▁kuvaus",
        -9.960043597345042
      ],
      [
        "eh",
        -9.960957234197451
      ],
      [
        "▁Be",
        -9.961126043376062
      ],
      [
        "Olemme",
        -9.961170016778112
      ],
      [
        "tuksia",
        -9.961460216550343
      ],
      [
        "▁niissä",
        -9.96163722904707
      ],
      [
        "▁erikseen",
        -9.96176121997972
      ],
      [
        "▁kii",
        -9.962007917973867
      ],
      [
        "misessa",
        -9.962039615816936
      ],
      [
        "nnin",
        -9.962161093648813
      ],
      [
        "ren",
        -9.962536987163244
      ],
      [
        "▁muistaa",
        -9.963393547479708
      ],
      [
        "▁kunnon",
        -9.96388204888615
      ],
      [
        "▁ihme",
        -9.96445167062207
      ],
      [
        "▁tulokset",
        -9.965484447252257
      ],
      [
        "▁anaali",
        -9.965826156481207
      ],
      [
        "▁jatkuva",
        -9.966307745962636
      ],
      [
        "JA",
        -9.966357546275702
      ],
      [
        "▁erilaisi",
        -9.966375295852682
      ],
      [
        "▁metalli",
        -9.967012102903578
      ],
      [
        "masta",
        -9.967358470450872
      ],
      [
        "▁hyvin.",
        -9.967402935317244
      ],
      [
        "▁koske",
        -9.968047154749794
      ],
      [
        "▁päättää",
        -9.968210059563582
      ],
      [
        "pari",
        -9.969157678496895
      ],
      [
        "Joskus",
        -9.969159778729104
      ],
      [
        "40",
        -9.96916445049173
      ],
      [
        "▁kyseise",
        -9.96925856624322
      ],
      [
        "rä",
        -9.969601951714214
      ],
      [
        "ohje",
        -9.96971682533896
      ],
      [
        "▁Car",
        -9.969764687153175
      ],
      [
        "▁vuoro",
        -9.97014147232239
      ],
      [
        "▁Har",
        -9.970642022766086
      ],
      [
        "▁Valitse",
        -9.971047335685292
      ],
      [
        "toimisto",
        -9.971129975717519
      ],
      [
        "kkaan",
        -9.971524415861335
      ],
      [
        "▁laulu",
        -9.971650145749157
      ],
      [
        "▁oppi",
        -9.972675632502838
      ],
      [
        "▁80",
        -9.972737364490914
      ],
      [
        "▁kansa",
        -9.973488393754527
      ],
      [
        "▁haku",
        -9.973933111144587
      ],
      [
        "▁vauva",
        -9.974684294349668
      ],
      [
        "▁lahja",
        -9.97588884919665
      ],
      [
        "koti",
        -9.976842833107845
      ],
      [
        "▁näkökulmasta",
        -9.976969123604967
      ],
      [
        "▁suurimma",
        -9.977254016006652
      ],
      [
        "▁teko",
        -9.977558924757059
      ],
      [
        "vara",
        -9.979101217270271
      ],
      [
        "▁runsaasti",
        -9.979254343497981
      ],
      [
        "▁tää",
        -9.979308065964148
      ],
      [
        "▁laki",
        -9.979370237440971
      ],
      [
        "▁olevaa",
        -9.979524529857358
      ],
      [
        "ellei",
        -9.979737183923241
      ],
      [
        "▁Minun",
        -9.979804562099048
      ],
      [
        "▁Yritys",
        -9.979905434836153
      ],
      [
        "▁jalka",
        -9.979970455295106
      ],
      [
        "▁mahtava",
        -9.980415616347377
      ],
      [
        "lleen",
        -9.980501808276884
      ],
      [
        "kul",
        -9.980505948362683
      ],
      [
        "▁Kuvi",
        -9.980695415518245
      ],
      [
        "1)",
        -9.981249669692449
      ],
      [
        "yttä",
        -9.981311106458712
      ],
      [
        "osta",
        -9.981652447246915
      ],
      [
        "▁pientä",
        -9.98274039102523
      ],
      [
        "▁Luo",
        -9.982817986714458
      ],
      [
        "▁arki",
        -9.983026082787518
      ],
      [
        "▁Pi",
        -9.983255599764348
      ],
      [
        "köhän",
        -9.983578182358185
      ],
      [
        "llisia",
        -9.983749138582382
      ],
      [
        "▁kesällä",
        -9.983795220615821
      ],
      [
        "▁esittää",
        -9.983880158557362
      ],
      [
        "▁henkilöstö",
        -9.984283697299688
      ],
      [
        "ff",
        -9.984310042760196
      ],
      [
        "▁kyl",
        -9.984378354031152
      ],
      [
        "▁12.",
        -9.985794265486327
      ],
      [
        "▁Saat",
        -9.986035065281243
      ],
      [
        "▁hieronta",
        -9.98625502278303
      ],
      [
        "▁päässyt",
        -9.986547954859763
      ],
      [
        "tella",
        -9.98690338829898
      ],
      [
        "▁keskiviikko",
        -9.98711564691502
      ],
      [
        "▁♥",
        -9.987251334365709
      ],
      [
        "▁yritysten",
        -9.987560198303296
      ],
      [
        "▁reissu",
        -9.98781085717254
      ],
      [
        "▁tavoitteet",
        -9.9886391240955
      ],
      [
        "🙂",
        -9.988751300598828
      ],
      [
        "▁kirjaa",
        -9.989143990990032
      ],
      [
        "▁haluan",
        -9.989390108283311
      ],
      [
        "▁ajattelin",
        -9.989664807279201
      ],
      [
        "ministeriön",
        -9.989832752882633
      ],
      [
        "▁tehtiin",
        -9.989968240245563
      ],
      [
        "llään",
        -9.990458097377402
      ],
      [
        "▁Päivä",
        -9.990941488343534
      ],
      [
        "tetty",
        -9.991055092030892
      ],
      [
        "▁35",
        -9.99133006328464
      ],
      [
        "▁mitenkään",
        -9.991715475429407
      ],
      [
        "▁tarvitsee",
        -9.993376188453691
      ],
      [
        "▁Ensi",
        -9.993857835463483
      ],
      [
        "▁maahan",
        -9.99426283824939
      ],
      [
        "▁puolet",
        -9.994498289880653
      ],
      [
        "gen",
        -9.994514798181134
      ],
      [
        "▁olikin",
        -9.994641223585319
      ],
      [
        "itti",
        -9.994762248131588
      ],
      [
        "▁istu",
        -9.995011132149031
      ],
      [
        "tapa",
        -9.995042126854138
      ],
      [
        "▁Ruotsin",
        -9.995203300246994
      ],
      [
        "▁le",
        -9.995437689628375
      ],
      [
        "▁aiheesta",
        -9.995725654358413
      ],
      [
        "am",
        -9.99601150813233
      ],
      [
        "▁pelaaja",
        -9.996197167726852
      ],
      [
        "▁osto",
        -9.996479503225562
      ],
      [
        "▁edellä",
        -9.997051542117237
      ],
      [
        "ör",
        -9.997639536021445
      ],
      [
        "▁Ensimmäise",
        -9.99775582217508
      ],
      [
        "▁yksilö",
        -9.997998538681095
      ],
      [
        "elin",
        -9.998396229266996
      ],
      [
        "▁Kari",
        -9.998415626143228
      ],
      [
        "tel",
        -9.998736964743529
      ],
      [
        "etaan",
        -9.998826988385446
      ],
      [
        "-vuotias",
        -9.99894864213119
      ],
      [
        "ttelu",
        -9.99901930453087
      ],
      [
        "▁tapahtunut",
        -9.999056860661586
      ],
      [
        "▁ajatuksia",
        -9.999070017884968
      ],
      [
        "▁järjestää",
        -9.999357397059622
      ],
      [
        "▁Vesi",
        -9.99970702380804
      ],
      [
        "▁ohjeet",
        -10.000671157286298
      ],
      [
        "▁matkan",
        -10.001438313994885
      ],
      [
        "▁Kaksi",
        -10.002517152753917
      ],
      [
        "▁Hi",
        -10.002772103914179
      ],
      [
        "▁leikki",
        -10.00291265206405
      ],
      [
        "lti",
        -10.003179086378161
      ],
      [
        "koi",
        -10.004983956024436
      ],
      [
        "▁syntyi",
        -10.0051720711167
      ],
      [
        "▁ymmärrä",
        -10.00518885867126
      ],
      [
        "▁(A",
        -10.005366547609984
      ],
      [
        "▁jäte",
        -10.005631725239803
      ],
      [
        "▁opettaja",
        -10.005743915400481
      ],
      [
        "▁huo",
        -10.005867420783822
      ],
      [
        "▁pitkän",
        -10.00597274556452
      ],
      [
        "▁saan",
        -10.005979755795048
      ],
      [
        "▁Tuote",
        -10.007903989065529
      ],
      [
        "▁nostaa",
        -10.008168844595339
      ],
      [
        "▁seurata",
        -10.00926001114999
      ],
      [
        "▁niille",
        -10.00942016341062
      ],
      [
        "tro",
        -10.009471302415436
      ],
      [
        "▁piha",
        -10.010065124515776
      ],
      [
        "pal",
        -10.010184707505735
      ],
      [
        "oita",
        -10.010320926210952
      ],
      [
        "▁joukkoon",
        -10.010776943524792
      ],
      [
        "▁tapahtui",
        -10.011238907852203
      ],
      [
        "▁paikalla",
        -10.011862568192235
      ],
      [
        "id",
        -10.012026006532743
      ],
      [
        "mmi",
        -10.012135973089483
      ],
      [
        "▁saaneet",
        -10.012541373783058
      ],
      [
        "▁h",
        -10.012851315906484
      ],
      [
        "▁syvä",
        -10.013243299134054
      ],
      [
        "24",
        -10.013250376059322
      ],
      [
        "▁hy",
        -10.013777247215415
      ],
      [
        "ensa",
        -10.01380174498533
      ],
      [
        "▁tutustu",
        -10.013945908353318
      ],
      [
        "▁Energia",
        -10.013951860542562
      ],
      [
        "tä.",
        -10.014005720796925
      ],
      [
        "▁joutuu",
        -10.014508279374184
      ],
      [
        "▁kurssi",
        -10.015180969134732
      ],
      [
        "ille,",
        -10.015194395139034
      ],
      [
        "▁10.",
        -10.015566175915556
      ],
      [
        "▁millään",
        -10.015659864216797
      ],
      [
        "▁luotto",
        -10.015790662991833
      ],
      [
        "Sillä",
        -10.016185349751504
      ],
      [
        "▁väliin",
        -10.016277846350476
      ],
      [
        "▁käyttöä",
        -10.01698599994672
      ],
      [
        "▁alan",
        -10.01701325805477
      ],
      [
        "un.",
        -10.017627043264534
      ],
      [
        "vasta",
        -10.017638700247305
      ],
      [
        "4.",
        -10.01814257225117
      ],
      [
        "etten",
        -10.018619229048944
      ],
      [
        "▁alkanut",
        -10.01872091487147
      ],
      [
        "▁lista",
        -10.018753024035131
      ],
      [
        "ula",
        -10.019140675646968
      ],
      [
        "▁pois.",
        -10.019379451667303
      ],
      [
        "▁kohde",
        -10.019405289248109
      ],
      [
        "aste",
        -10.020717130571867
      ],
      [
        "▁parantaa",
        -10.02075917694132
      ],
      [
        "muoto",
        -10.020823523726861
      ],
      [
        "▁paikallis",
        -10.020886220177594
      ],
      [
        "TÄ",
        -10.020981471483768
      ],
      [
        "▁itselleni",
        -10.021142059473076
      ],
      [
        "mer",
        -10.02123751592004
      ],
      [
        "▁Joka",
        -10.021341763141205
      ],
      [
        "lia",
        -10.02143746432542
      ],
      [
        "▁vaihto",
        -10.021478650574714
      ],
      [
        "▁lasta",
        -10.02174328868313
      ],
      [
        "▁ihania",
        -10.021998958087382
      ],
      [
        "▁lasi",
        -10.022758088321769
      ],
      [
        "amme",
        -10.023123501179633
      ],
      [
        "▁tarvittaessa",
        -10.024255189198666
      ],
      [
        "▁ulkona",
        -10.024355640148412
      ],
      [
        "▁euroa.",
        -10.024369538280766
      ],
      [
        "▁lehti",
        -10.024499405820054
      ],
      [
        "istu",
        -10.024571222164624
      ],
      [
        "llisuus",
        -10.024868676969273
      ],
      [
        "▁joukkue",
        -10.025563370766847
      ],
      [
        "ura",
        -10.025949612694605
      ],
      [
        "▁Her",
        -10.025960367921073
      ],
      [
        "▁aikoina",
        -10.02615274366573
      ],
      [
        "AT",
        -10.026234358579185
      ],
      [
        "▁maksa",
        -10.026561386789677
      ],
      [
        "kieli",
        -10.02659564259482
      ],
      [
        "▁ette",
        -10.026853516213865
      ],
      [
        "päivän",
        -10.027047047222508
      ],
      [
        "▁aamulla",
        -10.027147984788451
      ],
      [
        "▁seuraavat",
        -10.027587990056178
      ],
      [
        "23",
        -10.02788028208659
      ],
      [
        "▁tarpeen",
        -10.027935745755652
      ],
      [
        "▁Suuri",
        -10.028208632533333
      ],
      [
        "sson",
        -10.028217747664712
      ],
      [
        "▁tuoda",
        -10.028401505146496
      ],
      [
        "▁korva",
        -10.028939350445487
      ],
      [
        "▁otettu",
        -10.029268785754955
      ],
      [
        "kohta",
        -10.029559640598098
      ],
      [
        "▁ihmistä",
        -10.029732379774096
      ],
      [
        "▁pal",
        -10.029782852474543
      ],
      [
        "puoli",
        -10.029840676295276
      ],
      [
        "aatti",
        -10.030009555157191
      ],
      [
        "nä.",
        -10.030276850146873
      ],
      [
        "isa",
        -10.030571695581296
      ],
      [
        "minen.",
        -10.031060071391382
      ],
      [
        "▁(18+)",
        -10.031092298610996
      ],
      [
        "etta",
        -10.031535958931444
      ],
      [
        "▁suurempi",
        -10.032217794391244
      ],
      [
        "▁muuttuu",
        -10.032587424260477
      ],
      [
        "LI",
        -10.032927041303143
      ],
      [
        "▁45",
        -10.033639489716037
      ],
      [
        "▁vaikuttavat",
        -10.033798830082747
      ],
      [
        "▁Mulla",
        -10.033842425454225
      ],
      [
        "16",
        -10.03443590288408
      ],
      [
        "▁hänellä",
        -10.034458097479199
      ],
      [
        "▁pika",
        -10.035113212280269
      ],
      [
        "käyttö",
        -10.035537382055955
      ],
      [
        "▁toimiva",
        -10.035711526170157
      ],
      [
        "▁pehmeä",
        -10.036026524077426
      ],
      [
        "▁Da",
        -10.03608654512945
      ],
      [
        "▁otti",
        -10.036276634794376
      ],
      [
        "risti",
        -10.036324427029488
      ],
      [
        "▁otetaan",
        -10.036756351632205
      ],
      [
        "▁toteuttaa",
        -10.0371336035929
      ],
      [
        "▁Käyttö",
        -10.03738944493934
      ],
      [
        "▁lo",
        -10.0376259519434
      ],
      [
        "ikko",
        -10.03786169232132
      ],
      [
        "▁välissä",
        -10.038049814681468
      ],
      [
        "▁kirkon",
        -10.038113667519314
      ],
      [
        "▁toisella",
        -10.03835020043698
      ],
      [
        "▁Tuli",
        -10.038585756427505
      ],
      [
        "▁tykkää",
        -10.038836608526136
      ],
      [
        "lahti",
        -10.038935476207659
      ],
      [
        "▁suosi",
        -10.038967103155152
      ],
      [
        "▁ky",
        -10.039039241891626
      ],
      [
        "7.",
        -10.039061769028699
      ],
      [
        "!!!",
        -10.039416811382765
      ],
      [
        "▁kirjoitus",
        -10.039457504407558
      ],
      [
        "▁Tieto",
        -10.039661402194906
      ],
      [
        "▁vittu",
        -10.039719248285207
      ],
      [
        "▁parin",
        -10.040306784992579
      ],
      [
        "▁asiantuntija",
        -10.040530734670604
      ],
      [
        "▁puolen",
        -10.040853958693354
      ],
      [
        "koko",
        -10.040931479384474
      ],
      [
        "▁osin",
        -10.04102078316691
      ],
      [
        "sti,",
        -10.042020335865645
      ],
      [
        "▁Kut",
        -10.042584099369776
      ],
      [
        "▁pyri",
        -10.043472095305145
      ],
      [
        "raja",
        -10.043654205301804
      ],
      [
        "mista,",
        -10.043860792576483
      ],
      [
        "▁kor",
        -10.043953127330113
      ],
      [
        "▁keskitty",
        -10.044506716109089
      ],
      [
        "▁totesi",
        -10.044750879728015
      ],
      [
        ".fi/",
        -10.044804762500242
      ],
      [
        "uu",
        -10.04509943668895
      ],
      [
        "▁lukenut",
        -10.045653062791565
      ],
      [
        "▁koulun",
        -10.046071625482142
      ],
      [
        "hinta",
        -10.046164214753503
      ],
      [
        "isto",
        -10.046691190463195
      ],
      [
        "issa,",
        -10.04693080676621
      ],
      [
        "yhtiö",
        -10.047497141159727
      ],
      [
        "▁lapsia",
        -10.0479335419844
      ],
      [
        "ily",
        -10.04857758054717
      ],
      [
        "kone",
        -10.048716741419282
      ],
      [
        "▁aio",
        -10.048840859817057
      ],
      [
        "ol",
        -10.0489806128721
      ],
      [
        "▁täysi",
        -10.0490796812845
      ],
      [
        "▁millä",
        -10.050779947111469
      ],
      [
        "▁by",
        -10.051146207073227
      ],
      [
        "▁Hinta",
        -10.051160239295186
      ],
      [
        "▁nimenomaan",
        -10.051263171241
      ],
      [
        "Eilen",
        -10.051311989341709
      ],
      [
        "▁2000",
        -10.051571097363205
      ],
      [
        "▁valvo",
        -10.05201286511847
      ],
      [
        "omi",
        -10.052434978247465
      ],
      [
        "▁2005",
        -10.05275677946856
      ],
      [
        "yö",
        -10.053308692317746
      ],
      [
        "▁(1",
        -10.053668320851468
      ],
      [
        "▁kerralla",
        -10.053694233607239
      ],
      [
        "▁sisustus",
        -10.053951843378272
      ],
      [
        "▁500",
        -10.054061465705997
      ],
      [
        "▁meno",
        -10.054066893449784
      ],
      [
        "▁Per",
        -10.055014099280543
      ],
      [
        "ilee",
        -10.055141867938676
      ],
      [
        "▁amatööri",
        -10.055937163599143
      ],
      [
        "▁Pari",
        -10.056065076718296
      ],
      [
        "01",
        -10.056118060894896
      ],
      [
        "▁Ruoka",
        -10.056222528942726
      ],
      [
        "Tosin",
        -10.05672099937415
      ],
      [
        "▁jokaise",
        -10.057703357270533
      ],
      [
        "▁osoittaa",
        -10.057758003120547
      ],
      [
        "ranta",
        -10.057898358566444
      ],
      [
        "▁tunnelma",
        -10.05805709961329
      ],
      [
        "alueen",
        -10.058493309443755
      ],
      [
        "▁(12",
        -10.058657482599067
      ],
      [
        "▁paikan",
        -10.058660381617605
      ],
      [
        "▁lienee",
        -10.058915405119045
      ],
      [
        "▁johtaja",
        -10.05914213654646
      ],
      [
        "▁asiakkaan",
        -10.060251546943954
      ],
      [
        "▁Johanna",
        -10.06081945185342
      ],
      [
        "▁Pieni",
        -10.06104558247815
      ],
      [
        "▁tasa",
        -10.061237574029747
      ],
      [
        "▁maailma",
        -10.062241477258478
      ],
      [
        "▁suuntaan",
        -10.06269226747937
      ],
      [
        "▁har",
        -10.06269329923082
      ],
      [
        "oo",
        -10.063039849150805
      ],
      [
        "▁saatavilla",
        -10.063056743612542
      ],
      [
        "▁miesten",
        -10.063301780584833
      ],
      [
        "tuskin",
        -10.063566714510138
      ],
      [
        "yty",
        -10.063629753176155
      ],
      [
        "▁elinkeino",
        -10.064306073502287
      ],
      [
        "▁sijaitseva",
        -10.064369894000661
      ],
      [
        "LE",
        -10.06440788652048
      ],
      [
        "▁oltava",
        -10.06453577267305
      ],
      [
        "▁pien",
        -10.065033698624816
      ],
      [
        "▁lääkäri",
        -10.065524005664699
      ],
      [
        "▁just",
        -10.065859933252447
      ],
      [
        "▁miljoona",
        -10.065915667287843
      ],
      [
        "02",
        -10.066087528003589
      ],
      [
        "▁voin",
        -10.066883009380977
      ],
      [
        "villa",
        -10.067441195257754
      ],
      [
        "perä",
        -10.067622197953384
      ],
      [
        "▁kokemuksia",
        -10.067833901941402
      ],
      [
        "valta",
        -10.068083855922243
      ],
      [
        "▁tarkoituksena",
        -10.068184272230445
      ],
      [
        "▁tuohon",
        -10.068439700033146
      ],
      [
        "▁suurta",
        -10.0685645439183
      ],
      [
        "25",
        -10.068947501486736
      ],
      [
        "é",
        -10.069062913582759
      ],
      [
        "▁paina",
        -10.069579803086569
      ],
      [
        "▁mitään.",
        -10.069808207375466
      ],
      [
        "▁suomalainen",
        -10.069865613113361
      ],
      [
        "▁kivaa",
        -10.07012081275689
      ],
      [
        "▁siirtä",
        -10.070247523671314
      ],
      [
        "rk",
        -10.070860675236741
      ],
      [
        "▁syksyllä",
        -10.071547724321226
      ],
      [
        "▁etukäteen",
        -10.071646068586947
      ],
      [
        "▁kur",
        -10.071918246040855
      ],
      [
        "▁Man",
        -10.072110010354274
      ],
      [
        "▁voida",
        -10.07214164765291
      ],
      [
        "vuosi",
        -10.073029949912474
      ],
      [
        "▁(K",
        -10.073461517513792
      ],
      [
        "tta.",
        -10.073475039673887
      ],
      [
        "tettava",
        -10.073819310113212
      ],
      [
        "▁mahdollisesti",
        -10.074076068534652
      ],
      [
        "▁kokemus",
        -10.074140569568428
      ],
      [
        "NA",
        -10.074250254383898
      ],
      [
        "▁Di",
        -10.074713034024565
      ],
      [
        "▁Ba",
        -10.074779756080698
      ],
      [
        "▁keittiö",
        -10.07493348221742
      ],
      [
        "▁ikään",
        -10.075265725050087
      ],
      [
        "▁muka",
        -10.076281772539751
      ],
      [
        "aikaa",
        -10.076558126805686
      ],
      [
        "▁ajatella",
        -10.077302571040073
      ],
      [
        "▁Eri",
        -10.07743918437744
      ],
      [
        "▁SE",
        -10.0776509920431
      ],
      [
        "res",
        -10.077890801587621
      ],
      [
        "▁täältä",
        -10.078011471717328
      ],
      [
        "VA",
        -10.07812524071435
      ],
      [
        "▁tili",
        -10.078962481304934
      ],
      [
        "▁puhua",
        -10.079144631338135
      ],
      [
        "▁kpl",
        -10.07926559501568
      ],
      [
        "▁huomenna",
        -10.079667907612478
      ],
      [
        "▁ranta",
        -10.079812578940746
      ],
      [
        "▁illalla",
        -10.079868565820952
      ],
      [
        "mar",
        -10.081173917446227
      ],
      [
        "joille",
        -10.081558060540587
      ],
      [
        "sella",
        -10.081562160587772
      ],
      [
        "mainen",
        -10.08174018639345
      ],
      [
        "▁maali",
        -10.082298388277074
      ],
      [
        "▁Netti",
        -10.082837635618512
      ],
      [
        "tio",
        -10.084137563523957
      ],
      [
        "▁(E",
        -10.084189326085287
      ],
      [
        "▁kunnolla",
        -10.084287335559125
      ],
      [
        "ruoka",
        -10.084327036350214
      ],
      [
        "▁Vanha",
        -10.0846540397547
      ],
      [
        "sk",
        -10.085376924118293
      ],
      [
        "▁päätös",
        -10.085648439831807
      ],
      [
        "▁Ca",
        -10.085730538988866
      ],
      [
        "▁(11",
        -10.085828098785527
      ],
      [
        "06",
        -10.085896724404899
      ],
      [
        "▁kuvio",
        -10.086157539158556
      ],
      [
        "TU",
        -10.086376076301505
      ],
      [
        "otto",
        -10.08649601257357
      ],
      [
        "▁13.",
        -10.086779502079917
      ],
      [
        "▁Maria",
        -10.087084375637907
      ],
      [
        "▁yliopiston",
        -10.08758616039744
      ],
      [
        "turva",
        -10.087639413156356
      ],
      [
        "▁materiaali",
        -10.087853189802791
      ],
      [
        "tui",
        -10.088002655035922
      ],
      [
        "45",
        -10.088322294071794
      ],
      [
        "▁olis",
        -10.088533438876137
      ],
      [
        "ukseen",
        -10.088553346393248
      ],
      [
        "ssä,",
        -10.088760392416239
      ],
      [
        "STA",
        -10.089265451968958
      ],
      [
        "▁valitse",
        -10.089293674217796
      ],
      [
        "▁uskon",
        -10.08934530633811
      ],
      [
        "▁katto",
        -10.089553014274395
      ],
      [
        "▁sula",
        -10.089793147475092
      ],
      [
        "▁ollessa",
        -10.089928011962897
      ],
      [
        "▁11.",
        -10.090332850992393
      ],
      [
        "▁pystyy",
        -10.090348015914032
      ],
      [
        "▁samassa",
        -10.090844516569465
      ],
      [
        "vasti",
        -10.091232528555226
      ],
      [
        "eja",
        -10.09176868172893
      ],
      [
        "liike",
        -10.092482078420732
      ],
      [
        "▁suunniteltu",
        -10.09255829853861
      ],
      [
        "▁Nokia",
        -10.092928796471
      ],
      [
        "▁(T",
        -10.092954776879392
      ],
      [
        "MINEN",
        -10.094665041274093
      ],
      [
        "▁puh.",
        -10.095078614234954
      ],
      [
        "paino",
        -10.095838108409882
      ],
      [
        "▁sauna",
        -10.096155071747583
      ],
      [
        "▁por",
        -10.096270786610042
      ],
      [
        "▁Anne",
        -10.096296974662643
      ],
      [
        "▁Kulttuuri",
        -10.096427863400844
      ],
      [
        "▁32",
        -10.096584447156012
      ],
      [
        "▁päähän",
        -10.096608910922065
      ],
      [
        "▁peri",
        -10.096689654011545
      ],
      [
        "▁eka",
        -10.096705169801393
      ],
      [
        "▁33",
        -10.096833907282186
      ],
      [
        "▁onnistu",
        -10.097092615223655
      ],
      [
        "▁muille",
        -10.09719592389675
      ],
      [
        "▁koskevi",
        -10.097261520939693
      ],
      [
        "▁kamera",
        -10.098374280181545
      ],
      [
        "▁keho",
        -10.098608524343721
      ],
      [
        "▁nousee",
        -10.098826760243274
      ],
      [
        "tön",
        -10.09941600185509
      ],
      [
        "▁val",
        -10.099715951761597
      ],
      [
        "kissa",
        -10.099765697731932
      ],
      [
        "kel",
        -10.099824595626028
      ],
      [
        "reita",
        -10.100048197690919
      ],
      [
        "nsa,",
        -10.100907958972698
      ],
      [
        "▁Joo",
        -10.10116394352658
      ],
      [
        "korkeakoulu",
        -10.10126335787652
      ],
      [
        "ude",
        -10.101525661318771
      ],
      [
        "▁lupaa",
        -10.10162395320912
      ],
      [
        "joen",
        -10.101705860538162
      ],
      [
        "ila",
        -10.102093404604563
      ],
      [
        "▁kaikke",
        -10.102422059931229
      ],
      [
        "Hamster",
        -10.102595797991222
      ],
      [
        "▁kunnia",
        -10.102761681992945
      ],
      [
        "▁syksy",
        -10.103189265206531
      ],
      [
        "▁90",
        -10.103598056730121
      ],
      [
        "▁selvää",
        -10.10385779284595
      ],
      [
        "▁Päivi",
        -10.103949607763514
      ],
      [
        "viikko",
        -10.103972208125619
      ],
      [
        "sivu",
        -10.104005910690379
      ],
      [
        "Ensimmäinen",
        -10.105065148489707
      ],
      [
        "▁keväällä",
        -10.105210880634676
      ],
      [
        "blogi",
        -10.10536245077345
      ],
      [
        "▁Aloit",
        -10.105362916906461
      ],
      [
        "kuin",
        -10.105534735499244
      ],
      [
        "tion",
        -10.10592841821531
      ],
      [
        "▁tapaan",
        -10.105985592767702
      ],
      [
        "▁au",
        -10.106275843603562
      ],
      [
        "kohan",
        -10.106592925494919
      ],
      [
        "ori",
        -10.10669933561346
      ],
      [
        "▁tiety",
        -10.10692889482109
      ],
      [
        "pito",
        -10.107513508721205
      ],
      [
        "isessa",
        -10.10789867813055
      ],
      [
        "▁Mies",
        -10.107959400501873
      ],
      [
        "▁tapahtuma",
        -10.108274229747146
      ],
      [
        "▁Jussi",
        -10.108537883793922
      ],
      [
        "▁kirjasto",
        -10.108567420854534
      ],
      [
        "asi",
        -10.108661734657517
      ],
      [
        "▁teema",
        -10.108914124491161
      ],
      [
        "▁miehet",
        -10.109537915454387
      ],
      [
        "Aivan",
        -10.110599020282317
      ],
      [
        "reiden",
        -10.110622426879843
      ],
      [
        "▁Paavo",
        -10.111499329204946
      ],
      [
        "▁Uuden",
        -10.111699203702383
      ],
      [
        "tkö",
        -10.112106917211605
      ],
      [
        "▁lumi",
        -10.112308727335648
      ],
      [
        "uh",
        -10.112413497531278
      ],
      [
        "▁hankinta",
        -10.112627252497063
      ],
      [
        "▁tyytyväinen",
        -10.112645476615661
      ],
      [
        "▁tarkemmin",
        -10.112701905727917
      ],
      [
        "▁Vain",
        -10.11302393684079
      ],
      [
        "▁usea",
        -10.113301156867083
      ],
      [
        "ttuja",
        -10.11346976685422
      ],
      [
        "▁Yle",
        -10.113510749560124
      ],
      [
        "wa",
        -10.1135761846645
      ],
      [
        "▁Herra",
        -10.11408849242493
      ],
      [
        "▁kommentoi",
        -10.11463437064241
      ],
      [
        "▁Toise",
        -10.114848539699189
      ],
      [
        "▁liitty",
        -10.115164870916894
      ],
      [
        "▁mukavaa",
        -10.115187294850685
      ],
      [
        "inä",
        -10.115336061657885
      ],
      [
        "▁hyväksi",
        -10.115346927375997
      ],
      [
        "nnu",
        -10.115825235559457
      ],
      [
        "koon",
        -10.11587921703201
      ],
      [
        "Eikö",
        -10.11597318278373
      ],
      [
        "▁haaste",
        -10.116281425631442
      ],
      [
        "udu",
        -10.116294460043882
      ],
      [
        "▁14.",
        -10.116628283333615
      ],
      [
        "▁kehittää",
        -10.116739353097131
      ],
      [
        "elli",
        -10.116869318708249
      ],
      [
        "luokka",
        -10.117099601849187
      ],
      [
        "▁parissa",
        -10.1172219298738
      ],
      [
        "▁Perhe",
        -10.117365089944723
      ],
      [
        "mpiä",
        -10.117542742642328
      ],
      [
        "yksiä",
        -10.117713659059415
      ],
      [
        "▁Tampere",
        -10.117756890310094
      ],
      [
        "▁kaava",
        -10.117814429357416
      ],
      [
        "▁näkö",
        -10.118257381726941
      ],
      [
        "silla",
        -10.118473486951665
      ],
      [
        "ic",
        -10.118602209514158
      ],
      [
        "▁Yhtiö",
        -10.118944326778973
      ],
      [
        "päin",
        -10.11921032673451
      ],
      [
        "▁sarja",
        -10.11935783094545
      ],
      [
        "▁kans",
        -10.120463048055994
      ],
      [
        "▁pelaa",
        -10.120789772277973
      ],
      [
        "▁Jukka",
        -10.120953462126828
      ],
      [
        "keskustelu",
        -10.121338840304926
      ],
      [
        "uudessa",
        -10.121518444512834
      ],
      [
        "▁suhteessa",
        -10.12168942044958
      ],
      [
        "kari",
        -10.121917508085868
      ],
      [
        "▁miestä",
        -10.121948687565943
      ],
      [
        "▁Jeesus",
        -10.122560062791168
      ],
      [
        "▁kiinnostaa",
        -10.122791143213668
      ],
      [
        "▁monen",
        -10.123489476070949
      ],
      [
        "▁juttuja",
        -10.123561589973129
      ],
      [
        "▁osallistua",
        -10.125315106637352
      ],
      [
        "▁onnistunut",
        -10.12533820950064
      ],
      [
        "ehdot",
        -10.1255578949998
      ],
      [
        "uksesta",
        -10.125852460003259
      ],
      [
        "▁pääti",
        -10.126034966044344
      ],
      [
        "▁tarjota",
        -10.126066741651316
      ],
      [
        "▁lämpö",
        -10.12611890592647
      ],
      [
        "▁juoksu",
        -10.126279615897147
      ],
      [
        "oh",
        -10.126586172980414
      ],
      [
        "merkki",
        -10.126591040783172
      ],
      [
        "▁suuria",
        -10.127137216723288
      ],
      [
        "▁liha",
        -10.127186683978447
      ],
      [
        "pel",
        -10.128098583205153
      ],
      [
        "ttely",
        -10.129338048774875
      ],
      [
        "▁Sisä",
        -10.129477649769498
      ],
      [
        "▁vihdoin",
        -10.130221807598815
      ],
      [
        "▁(tai",
        -10.130633553751004
      ],
      [
        "poika",
        -10.13085219806776
      ],
      [
        "▁ali",
        -10.131396309138191
      ],
      [
        "ttavat",
        -10.131621774648341
      ],
      [
        "▁erä",
        -10.13185939278485
      ],
      [
        "▁jälki",
        -10.132161715417848
      ],
      [
        "▁lopuksi",
        -10.132770536575556
      ],
      [
        "ase",
        -10.1333772229974
      ],
      [
        "ive",
        -10.13367461177522
      ],
      [
        "luo",
        -10.133838353658863
      ],
      [
        "▁markkina",
        -10.134005865347667
      ],
      [
        "▁tälle",
        -10.134155928018817
      ],
      [
        "▁huone",
        -10.134189894644646
      ],
      [
        "▁moottori",
        -10.134567037169283
      ],
      [
        "▁Sähköposti",
        -10.13457929739931
      ],
      [
        "em",
        -10.13485292287151
      ],
      [
        "simme",
        -10.134989944969242
      ],
      [
        "▁määrää",
        -10.135008193695448
      ],
      [
        "▁ystävä",
        -10.135111472252945
      ],
      [
        "▁sopimus",
        -10.13511463479308
      ],
      [
        "▁rasva",
        -10.135244859919
      ],
      [
        "▁valtava",
        -10.135453782142575
      ],
      [
        "▁valmiiksi",
        -10.135527208654768
      ],
      [
        "teho",
        -10.135638745520708
      ],
      [
        "▁suosikki",
        -10.13611998857941
      ],
      [
        "ketju",
        -10.136220133173577
      ],
      [
        "tukset",
        -10.13720610805971
      ],
      [
        "▁selkeä",
        -10.137602139036254
      ],
      [
        "pelkkä",
        -10.137886171742583
      ],
      [
        "työt",
        -10.138199909999631
      ],
      [
        "▁lauantaina",
        -10.138206930721548
      ],
      [
        "▁valkoinen",
        -10.138438472282118
      ],
      [
        "▁Co",
        -10.13881542136463
      ],
      [
        "toja",
        -10.138946270043155
      ],
      [
        "ner",
        -10.139051862220914
      ],
      [
        "▁suomen",
        -10.139625842241085
      ],
      [
        "▁Media",
        -10.139692349423552
      ],
      [
        "▁sentään",
        -10.13971045929426
      ],
      [
        "▁todennäköisesti",
        -10.139737043663747
      ],
      [
        "ak",
        -10.140089554663492
      ],
      [
        "▁kuule",
        -10.140359702325565
      ],
      [
        "▁vieressä",
        -10.140405531544559
      ],
      [
        "▁yleise",
        -10.140591077018705
      ],
      [
        "▁pesu",
        -10.140637729243533
      ],
      [
        "▁ravintola",
        -10.141113451923502
      ],
      [
        "▁Vii",
        -10.141382101310915
      ],
      [
        "del",
        -10.142574145757939
      ],
      [
        "▁tykkään",
        -10.143421174883844
      ],
      [
        "▁kysyi",
        -10.143457918145822
      ],
      [
        "▁Alue",
        -10.143721662280177
      ],
      [
        "pro",
        -10.143954114165048
      ],
      [
        "tis",
        -10.144155861188974
      ],
      [
        "▁yhdellä",
        -10.144165153750775
      ],
      [
        "laji",
        -10.144708845862223
      ],
      [
        "mma",
        -10.145032004462013
      ],
      [
        "▁yhtiö",
        -10.145350995237457
      ],
      [
        "▁taitaa",
        -10.146003214912461
      ],
      [
        "AL",
        -10.146064122031774
      ],
      [
        "▁selvi",
        -10.146904217083636
      ],
      [
        "IDEN",
        -10.147154754878006
      ],
      [
        "▁15.",
        -10.147211818763797
      ],
      [
        "im",
        -10.147346876469168
      ],
      [
        "▁haluavat",
        -10.147904870066675
      ],
      [
        "03",
        -10.148076813961316
      ],
      [
        "▁<",
        -10.148506033791389
      ],
      [
        "▁minuuttia",
        -10.148859903692873
      ],
      [
        "▁tuttu",
        -10.149115248798735
      ],
      [
        "▁tietä",
        -10.149147493206115
      ],
      [
        "-S",
        -10.14929033222631
      ],
      [
        "tavat",
        -10.149666310287028
      ],
      [
        "▁lattia",
        -10.14997533172978
      ],
      [
        "▁käytä",
        -10.150178637498694
      ],
      [
        "jille",
        -10.150834597103888
      ],
      [
        "inti",
        -10.150838722982169
      ],
      [
        "itten",
        -10.150944755199909
      ],
      [
        "Hyvää",
        -10.151390625580092
      ],
      [
        "teko",
        -10.15152812454587
      ],
      [
        "▁Kaiki",
        -10.15241945061468
      ],
      [
        "tason",
        -10.152542612746046
      ],
      [
        "▁päivi",
        -10.152788798710791
      ],
      [
        "▁tuotteet",
        -10.153213718441311
      ],
      [
        "▁seitsemän",
        -10.154009825791242
      ],
      [
        "▁Käy",
        -10.15432727212415
      ],
      [
        "jia",
        -10.1543912751725
      ],
      [
        "▁käytöstä",
        -10.154636562749712
      ],
      [
        "▁lukija",
        -10.15473579543703
      ],
      [
        "▁matkailu",
        -10.154952807422735
      ],
      [
        "▁kulta",
        -10.155053310373255
      ],
      [
        "▁kodin",
        -10.155057148310112
      ],
      [
        "laatu",
        -10.155093450583792
      ],
      [
        "ajo",
        -10.155315390157382
      ],
      [
        "▁elämästä",
        -10.15557284937118
      ],
      [
        "5)",
        -10.156108564934922
      ],
      [
        "ika",
        -10.156133917452312
      ],
      [
        "▁Aamu",
        -10.15672579646239
      ],
      [
        "▁Du",
        -10.15684242281764
      ],
      [
        "LA",
        -10.15688115182769
      ],
      [
        "▁ar",
        -10.156995456478136
      ],
      [
        "▁kirjoja",
        -10.157417353971937
      ],
      [
        "▁tällöin",
        -10.158048775679276
      ],
      [
        "▁kerä",
        -10.159266525737312
      ],
      [
        "▁lauantai",
        -10.159294621761308
      ],
      [
        "▁lento",
        -10.159551900916755
      ],
      [
        "▁omistaja",
        -10.159790456028885
      ],
      [
        "▁voisin",
        -10.159992947120557
      ],
      [
        "illa,",
        -10.16057066529648
      ],
      [
        "▁tulevaisuudessa",
        -10.161026944232228
      ],
      [
        "▁levy",
        -10.161086783518456
      ],
      [
        "▁toimitus",
        -10.161121971864363
      ],
      [
        "▁Pikku",
        -10.161125309440067
      ],
      [
        "▁Uude",
        -10.161136586285073
      ],
      [
        "raa",
        -10.161712711434332
      ],
      [
        "▁arvio",
        -10.161978777923707
      ],
      [
        "5.",
        -10.161984131578446
      ],
      [
        "▁Lisätietoja",
        -10.162061410447489
      ],
      [
        "ohjelman",
        -10.162460753431823
      ],
      [
        "ministeri",
        -10.162733302324744
      ],
      [
        "▁viimeksi",
        -10.162995849153136
      ],
      [
        "▁Syksy",
        -10.16338267312488
      ],
      [
        "▁seuraavan",
        -10.16408368690858
      ],
      [
        "yys",
        -10.164744285742493
      ],
      [
        "selle",
        -10.164874449367545
      ],
      [
        "henkilö",
        -10.164916488635516
      ],
      [
        "▁Tä",
        -10.165353437981658
      ],
      [
        "▁hakea",
        -10.165650056982248
      ],
      [
        "kulttuuri",
        -10.165703022366968
      ],
      [
        "▁ohjaus",
        -10.166196361161582
      ],
      [
        "▁Pidä",
        -10.166409180822281
      ],
      [
        "72",
        -10.166530254908908
      ],
      [
        "▁alta",
        -10.1666946605581
      ],
      [
        "▁mennään",
        -10.167372314470429
      ],
      [
        "niillä",
        -10.167840320745867
      ],
      [
        "ari",
        -10.1682484469608
      ],
      [
        "seminaari",
        -10.168256529373991
      ],
      [
        "ttamaan",
        -10.168262385577506
      ],
      [
        "▁lähettää",
        -10.168462535018561
      ],
      [
        "▁(H",
        -10.168608808506281
      ],
      [
        "▁lie",
        -10.168897383708426
      ],
      [
        "▁vuosia",
        -10.169046083520369
      ],
      [
        "13",
        -10.169047131855901
      ],
      [
        "▁OY",
        -10.169385907429604
      ],
      [
        "▁uudestaan",
        -10.169938522210593
      ],
      [
        "▁selkeästi",
        -10.170299649681393
      ],
      [
        "▁Keski",
        -10.170344688758
      ],
      [
        "kaikilla",
        -10.170715487861802
      ],
      [
        "raha",
        -10.170856467792833
      ],
      [
        "▁kulu",
        -10.171422241757401
      ],
      [
        "neita",
        -10.1716188299145
      ],
      [
        "▁j",
        -10.171662296052189
      ],
      [
        "▁sekin",
        -10.171667620503989
      ],
      [
        "▁Pal",
        -10.172669656161599
      ],
      [
        "▁Heikki",
        -10.172773625344997
      ],
      [
        "▁mielen",
        -10.172788581298668
      ],
      [
        "▁käsin",
        -10.173236718304157
      ],
      [
        "▁Väli",
        -10.173956998272008
      ],
      [
        "▁osta",
        -10.174042817309381
      ],
      [
        "▁Ohjelma",
        -10.174119127099633
      ],
      [
        "55",
        -10.174895276046676
      ],
      [
        "työtä",
        -10.175210590890803
      ],
      [
        "▁paikalle",
        -10.175445715630262
      ],
      [
        "laitoksen",
        -10.175509425918811
      ],
      [
        "▁halunnut",
        -10.175627990347422
      ],
      [
        "▁nousu",
        -10.175844342916953
      ],
      [
        "▁kansalais",
        -10.176432093569225
      ],
      [
        "▁paikallise",
        -10.17673632026952
      ],
      [
        "tyy",
        -10.17691061738179
      ],
      [
        "▁Naisten",
        -10.177446100185163
      ],
      [
        "▁matkaa",
        -10.177456554741818
      ],
      [
        "▁selvittää",
        -10.177934699479742
      ],
      [
        "ilma",
        -10.178111311673137
      ],
      [
        "ron",
        -10.179412491037285
      ],
      [
        "isesta",
        -10.179748727644448
      ],
      [
        "suunnittelu",
        -10.180756371200188
      ],
      [
        "▁(V",
        -10.18090474374101
      ],
      [
        "järvi",
        -10.180973335651567
      ],
      [
        "▁saakka",
        -10.181679529173353
      ],
      [
        "HA",
        -10.18197888838235
      ],
      [
        "asu",
        -10.18198896726005
      ],
      [
        "ation",
        -10.183078929185822
      ],
      [
        "▁koskee",
        -10.183259168563664
      ],
      [
        "▁tarvittava",
        -10.183657698895713
      ],
      [
        "▁Lapin",
        -10.183768216703264
      ],
      [
        "▁mitkä",
        -10.184029700187104
      ],
      [
        "▁Ker",
        -10.18404203268236
      ],
      [
        "▁tavalla.",
        -10.184057380900743
      ],
      [
        "pun",
        -10.184064182316774
      ],
      [
        "27",
        -10.184471001067188
      ],
      [
        "▁miettiä",
        -10.184564902168185
      ],
      [
        "▁keino",
        -10.18461903932507
      ],
      [
        "▁muovi",
        -10.18521256278393
      ],
      [
        "▁Lisä",
        -10.185438731931045
      ],
      [
        "▁viimeinen",
        -10.18546781707747
      ],
      [
        "▁reuna",
        -10.185611006086798
      ],
      [
        "ster",
        -10.185868095849301
      ],
      [
        "à",
        -10.186041550010552
      ],
      [
        "▁Hyvin",
        -10.186782881232444
      ],
      [
        "käs",
        -10.187366014865304
      ],
      [
        "▁(20",
        -10.187728869949588
      ],
      [
        "▁We",
        -10.187831005604172
      ],
      [
        "▁uni",
        -10.187840486365822
      ],
      [
        "70",
        -10.187843093485288
      ],
      [
        "▁naapuri",
        -10.18795092130745
      ],
      [
        "▁sivusto",
        -10.188182099040038
      ],
      [
        "▁treeni",
        -10.188202534701617
      ],
      [
        "▁suostu",
        -10.188204147988506
      ],
      [
        "▁ollenkaan",
        -10.188362174698433
      ],
      [
        "▁voitto",
        -10.188476400968879
      ],
      [
        "▁hauskaa",
        -10.189417064240708
      ],
      [
        "▁Keskustelu",
        -10.189493366633553
      ],
      [
        "▁Ammatti",
        -10.189585813651735
      ],
      [
        "Oletko",
        -10.189737471997933
      ],
      [
        "▁turha",
        -10.19023032257534
      ],
      [
        "▁lähtö",
        -10.190432670561862
      ],
      [
        "ken",
        -10.19071692449426
      ],
      [
        "▁Pitkä",
        -10.190870931790874
      ],
      [
        "sesta",
        -10.190925082075228
      ],
      [
        "nimi",
        -10.191134547986831
      ],
      [
        "▁kera",
        -10.191631803778236
      ],
      [
        "▁seurakunta",
        -10.19170324490263
      ],
      [
        "▁ilmainen",
        -10.192503950866588
      ],
      [
        "iksi.",
        -10.192723054574211
      ],
      [
        "▁jäädä",
        -10.192744627647564
      ],
      [
        "▁Kal",
        -10.192799592953541
      ],
      [
        "▁Ky",
        -10.193247243605535
      ],
      [
        "▁riski",
        -10.193652551157442
      ],
      [
        "tkin",
        -10.194046605414798
      ],
      [
        "▁koskevat",
        -10.194248242821123
      ],
      [
        "▁muutoksia",
        -10.194446465673746
      ],
      [
        "▁avulla.",
        -10.194639525168594
      ],
      [
        "▁vaihtaa",
        -10.194651588948513
      ],
      [
        "ci",
        -10.194768880040659
      ],
      [
        "by",
        -10.194922268936894
      ],
      [
        "▁töissä",
        -10.19501564730976
      ],
      [
        "eissa",
        -10.195030134494061
      ],
      [
        "▁erityise",
        -10.195586104095948
      ],
      [
        "▁lämpötila",
        -10.196061067191032
      ],
      [
        "iko",
        -10.19607116659029
      ],
      [
        "▁hyvältä",
        -10.196149722271537
      ],
      [
        "▁sydän",
        -10.196315962070614
      ],
      [
        "▁tuomio",
        -10.197108180545701
      ],
      [
        "jän",
        -10.197112252674485
      ],
      [
        "teri",
        -10.197149589876535
      ],
      [
        "▁vuo",
        -10.197527885834482
      ],
      [
        "▁16.",
        -10.198232673432083
      ],
      [
        "▁Juuri",
        -10.199188126305536
      ],
      [
        "▁julkise",
        -10.19923166036289
      ],
      [
        "LO",
        -10.199270702399724
      ],
      [
        "▁My",
        -10.19929826255839
      ],
      [
        "▁Arvo",
        -10.199568056901434
      ],
      [
        "▁teen",
        -10.199919173819998
      ],
      [
        "yh",
        -10.200123550402765
      ],
      [
        "▁Kiva",
        -10.200281365572213
      ],
      [
        "mistä.",
        -10.200532075687118
      ],
      [
        "ilin",
        -10.200893139875165
      ],
      [
        "ettu",
        -10.20148892730276
      ],
      [
        "▁muutokset",
        -10.201727571289613
      ],
      [
        "▁kulke",
        -10.201773260175791
      ],
      [
        "▁reilu",
        -10.201783926000024
      ],
      [
        "valo",
        -10.203166556692265
      ],
      [
        "▁Hieno",
        -10.203330999259762
      ],
      [
        "▁Var",
        -10.203404157022288
      ],
      [
        "▁keskenään",
        -10.203432217884318
      ],
      [
        "kuvat",
        -10.203443313281571
      ],
      [
        "jää",
        -10.204856242104443
      ],
      [
        "▁syödä",
        -10.204891617692947
      ],
      [
        "▁Mari",
        -10.205591553925288
      ],
      [
        "▁kaupan",
        -10.205973238176796
      ],
      [
        "amaan",
        -10.20623394886877
      ],
      [
        "▁muoto",
        -10.206325905144098
      ],
      [
        "ss",
        -10.206840200711213
      ],
      [
        "▁tulevi",
        -10.207142469616262
      ],
      [
        "▁pysyvä",
        -10.20738277982993
      ],
      [
        "▁pankki",
        -10.20814557303714
      ],
      [
        "▁Meri",
        -10.208259768413964
      ],
      [
        "▁hengen",
        -10.208349183952729
      ],
      [
        "mpää",
        -10.20851896478532
      ],
      [
        "▁Vasta",
        -10.208973739506662
      ],
      [
        "nny",
        -10.209309019546136
      ],
      [
        "opas",
        -10.2094350811308
      ],
      [
        "▁toivottavasti",
        -10.20961079866862
      ],
      [
        "▁kissa",
        -10.2098038169424
      ],
      [
        "▁Jari",
        -10.209990974126542
      ],
      [
        "▁aikaa.",
        -10.210113554647258
      ],
      [
        "koira",
        -10.210480191127566
      ],
      [
        "▁(2",
        -10.211103456537323
      ],
      [
        "▁toiminut",
        -10.211399775858453
      ],
      [
        "▁äidin",
        -10.21181748953467
      ],
      [
        "maiden",
        -10.211846385674164
      ],
      [
        "▁väärin",
        -10.212113043770387
      ],
      [
        "▁Ilma",
        -10.212193026704437
      ],
      [
        "lasku",
        -10.212768869657465
      ],
      [
        "▁Loppu",
        -10.212941161283478
      ],
      [
        ":00",
        -10.213289618778573
      ],
      [
        "▁alkavat",
        -10.213787766552219
      ],
      [
        "▁Oulu",
        -10.214331852991833
      ],
      [
        "por",
        -10.214579665631312
      ],
      [
        "35",
        -10.214645723442352
      ],
      [
        "▁kappale",
        -10.21479061369271
      ],
      [
        "logitekstit",
        -10.214790658498423
      ],
      [
        "▁nauttia",
        -10.215693013591565
      ],
      [
        "▁taakse",
        -10.215718211897109
      ],
      [
        "▁annettu",
        -10.216036684244823
      ],
      [
        "▁palo",
        -10.216097959250352
      ],
      [
        "▁Sal",
        -10.216319884742983
      ],
      [
        "▁eläin",
        -10.216554935208382
      ],
      [
        "ele",
        -10.216713887100946
      ],
      [
        "▁toisten",
        -10.216812746384658
      ],
      [
        "07",
        -10.216889601394197
      ],
      [
        "KA",
        -10.217002344092004
      ],
      [
        "'s",
        -10.21725593709114
      ],
      [
        "▁vi",
        -10.217843532052942
      ],
      [
        "▁lainkaan",
        -10.217979971349807
      ],
      [
        "ell",
        -10.2179921439256
      ],
      [
        "▁kieltä",
        -10.218280521013707
      ],
      [
        "▁(L",
        -10.218294233182764
      ],
      [
        "▁yritä",
        -10.218617044072726
      ],
      [
        "ttyä",
        -10.218810141471705
      ],
      [
[...]
