{
  "version": "1.0",
  "truncation": null,
  "padding": null,
  "added_tokens": [
    {
      "id": 0,
      "content": "[UNK]",
      "single_word": false,
      "lstrip": false,
      "rstrip": false,
      "normalized": false,
      "special": true
    },
    {
      "id": 1,
      "content": "[CLS]",
      "single_word": false,
      "lstrip": false,
      "rstrip": false,
      "normalized": false,
      "special": true
    },
    {
      "id": 2,
      "content": "[SEP]",
      "single_word": false,
      "lstrip": false,
      "rstrip": false,
      "normalized": false,
      "special": true
    },
    {
      "id": 3,
      "content": "[PAD]",
      "single_word": false,
      "lstrip": false,
      "rstrip": false,
      "normalized": false,
      "special": true
    },
    {
      "id": 4,
      "content": "[MASK]",
      "single_word": false,
      "lstrip": false,
      "rstrip": false,
      "normalized": false,
      "special": true
    }
  ],
  "normalizer": {
    "type": "Sequence",
    "normalizers": [
      {
        "type": "Nmt"
      },
      {
        "type": "NFKC"
      },
      {
        "type": "Replace",
        "pattern": {
          "Regex": " {2,}"
        },
        "content": " "
      }
    ]
  },
  "pre_tokenizer": {
    "type": "Metaspace",
    "replacement": "▁",
    "prepend_scheme": "always",
    "split": true
  },
  "post_processor": null,
  "decoder": {
    "type": "Metaspace",
    "replacement": "▁",
    "prepend_scheme": "always",
    "split": true
  },
  "model": {
    "type": "Unigram",
    "unk_id": null,
    "vocab": [
      [
        "[UNK]",
        0.0
      ],
      [
        "[CLS]",
        0.0
      ],
      [
        "[SEP]",
        0.0
      ],
      [
        "[PAD]",
        0.0
      ],
      [
        "[MASK]",
        0.0
      ],
      [
        "▁",
        -3.0353864743428076
      ],
      [
        ",",
        -3.337567787115569
      ],
      [
        ".",
        -3.7204373835695286
      ],
      [
        "▁und",
        -3.9794851145620616
      ],
      [
        "▁die",
        -4.011650981825667
      ],
      [
        "▁der",
        -4.0776085516370575
      ],
      [
        "en",
        -4.54104113244513
      ],
      [
        "▁in",
        -4.566650605076438
      ],
      [
        "▁zu",
        -4.732470577787826
      ],
      [
        "s",
        -4.754897811451638
      ],
      [
        "▁das",
        -4.919878670220408
      ],
      [
        "▁ist",
        -4.951643156994546
      ],
      [
        "▁den",
        -4.952976592065703
      ],
      [
        "▁nicht",
        -4.99642658215677
      ],
      [
        "▁von",
        -5.046314467752273
      ],
      [
        "e",
        -5.051966988145182
      ],
      [
        "n",
        -5.081099757650955
      ],
      [
        "▁mit",
        -5.086059726722752
      ],
      [
        "▁ich",
        -5.118379346840673
      ],
      [
        "▁auf",
        -5.152243579752678
      ],
      [
        "▁für",
        -5.1606244429167365
      ],
      [
        "▁es",
        -5.180918580064308
      ],
      [
        "▁ein",
        -5.233511208506242
      ],
      [
        "▁sich",
        -5.304986037095166
      ],
      [
        "▁auch",
        -5.323929410681593
      ],
      [
        "▁eine",
        -5.41378779334547
      ],
      [
        ":",
        -5.42082681841552
      ],
      [
        "▁Sie",
        -5.471693773659398
      ],
      [
        "▁im",
        -5.48183438397824
      ],
      [
        "▁dem",
        -5.563516425165375
      ],
      [
        "▁an",
        -5.633385415214494
      ],
      [
        "▁des",
        -5.635064963785631
      ],
      [
        "▁dass",
        -5.6600436714553855
      ],
      [
        "▁Die",
        -5.670443439552367
      ],
      [
        "er",
        -5.67952395174281
      ],
      [
        "▁oder",
        -5.793397701474543
      ],
      [
        "▁sie",
        -5.82492888480898
      ],
      [
        "▁so",
        -5.897787474634489
      ],
      [
        "▁als",
        -5.903967268601729
      ],
      [
        "▁wir",
        -5.91002695782125
      ],
      [
        "-",
        -5.940970667557929
      ],
      [
        "▁bei",
        -5.955793587666404
      ],
      [
        "▁sind",
        -5.974524465367297
      ],
      [
        "▁wie",
        -5.983738589783741
      ],
      [
        "▁noch",
        -5.993262680699582
      ],
      [
        "▁nach",
        -6.022197794576996
      ],
      [
        "▁aus",
        -6.028237378417202
      ],
      [
        ")",
        -6.033603895632039
      ],
      [
        "▁man",
        -6.046951783412814
      ],
      [
        "▁um",
        -6.055145275381314
      ],
      [
        "?",
        -6.078316006476092
      ],
      [
        "▁Ich",
        -6.085117059267386
      ],
      [
        "▁aber",
        -6.115130943746408
      ],
      [
        "▁einen",
        -6.124809219777896
      ],
      [
        "▁nur",
        -6.13165056074674
      ],
      [
        "▁Das",
        -6.173134285974939
      ],
      [
        "▁über",
        -6.187001041802134
      ],
      [
        "▁hat",
        -6.206510989542263
      ],
      [
        "!",
        -6.217832944104385
      ],
      [
        "▁wird",
        -6.256113207923477
      ],
      [
        "▁einer",
        -6.260789412257893
      ],
      [
        "▁kann",
        -6.271347528657998
      ],
      [
        "▁er",
        -6.272003373628623
      ],
      [
        "▁wenn",
        -6.289579177363766
      ],
      [
        "▁einem",
        -6.325172294980764
      ],
      [
        "▁werden",
        -6.333824982500232
      ],
      [
        "▁war",
        -6.372384215413586
      ],
      [
        "▁am",
        -6.386680009820585
      ],
      [
        "▁zum",
        -6.393138535345043
      ],
      [
        "▁-",
        -6.414933091881515
      ],
      [
        "▁uns",
        -6.416400982056821
      ],
      [
        "es",
        -6.418562772989276
      ],
      [
        "▁vor",
        -6.432505386090547
      ],
      [
        "▁mehr",
        -6.448331810549009
      ],
      [
        "▁was",
        -6.4609423063022415
      ],
      [
        "▁mir",
        -6.469108860977938
      ],
      [
        "▁haben",
        -6.471572155143793
      ],
      [
        "▁mich",
        -6.474840749048992
      ],
      [
        "▁dann",
        -6.485648875816663
      ],
      [
        "▁Der",
        -6.489427195843254
      ],
      [
        "▁schon",
        -6.500520167743769
      ],
      [
        "▁sehr",
        -6.523657238973502
      ],
      [
        "▁–",
        -6.527344465555167
      ],
      [
        "▁(",
        -6.545363630845198
      ],
      [
        "▁Es",
        -6.59705627288249
      ],
      [
        "t",
        -6.607489875914377
      ],
      [
        "r",
        -6.611462167181347
      ],
      [
        "▁durch",
        -6.619283703439734
      ],
      [
        "▁zur",
        -6.623680543737478
      ],
      [
        "▁du",
        -6.642848253487536
      ],
      [
        "▁immer",
        -6.651777568717199
      ],
      [
        "▁habe",
        -6.672937759613259
      ],
      [
        "▁wieder",
        -6.688178575057018
      ],
      [
        "▁bis",
        -6.716583352813894
      ],
      [
        "“",
        -6.717198176098217
      ],
      [
        "...",
        -6.729892420025813
      ],
      [
        "▁da",
        -6.7525226609390465
      ],
      [
        "\"",
        -6.755953742065184
      ],
      [
        "m",
        -6.768686469764484
      ],
      [
        "▁In",
        -6.781722091583337
      ],
      [
        "▁diese",
        -6.785809697595376
      ],
      [
        "▁Wir",
        -6.826752018821908
      ],
      [
        "▁hier",
        -6.830466570640157
      ],
      [
        "▁mal",
        -6.842927241742661
      ],
      [
        "▁gibt",
        -6.871591041372888
      ],
      [
        "▁können",
        -6.878019226171785
      ],
      [
        "▁Und",
        -6.924434109606278
      ],
      [
        "▁alle",
        -6.972826309798986
      ],
      [
        "▁keine",
        -6.980001980712627
      ],
      [
        "▁ihr",
        -6.986417727631185
      ],
      [
        "▁ja",
        -7.046210815320704
      ],
      [
        "▁unter",
        -7.054969241483503
      ],
      [
        "▁werden.",
        -7.059799766142731
      ],
      [
        "▁dieser",
        -7.078485330391436
      ],
      [
        "▁wurde",
        -7.09529291741387
      ],
      [
        "▁„",
        -7.105997736287593
      ],
      [
        "▁Ein",
        -7.114991733652486
      ],
      [
        "▁Zeit",
        -7.119551079717965
      ],
      [
        "▁viel",
        -7.126445041856025
      ],
      [
        "▁ganz",
        -7.135284938486276
      ],
      [
        "▁vom",
        -7.141686886360278
      ],
      [
        "▁bin",
        -7.142163405080995
      ],
      [
        "▁Wenn",
        -7.152198865900852
      ],
      [
        "▁etwas",
        -7.158605017865035
      ],
      [
        "▁doch",
        -7.162390297015891
      ],
      [
        "▁gut",
        -7.200312272056399
      ],
      [
        "▁sein",
        -7.201031930349949
      ],
      [
        "▁einfach",
        -7.21170714876302
      ],
      [
        "▁muss",
        -7.226486175893992
      ],
      [
        "▁Du",
        -7.245278192625962
      ],
      [
        "▁\"",
        -7.255985480359836
      ],
      [
        "d",
        -7.266807699359024
      ],
      [
        "▁jetzt",
        -7.272866021828184
      ],
      [
        "▁anderen",
        -7.284224766803767
      ],
      [
        "▁diesem",
        -7.301054053217371
      ],
      [
        "▁alles",
        -7.30975482208639
      ],
      [
        "▁Aber",
        -7.32715098861606
      ],
      [
        "▁ihre",
        -7.32847336656299
      ],
      [
        "▁selbst",
        -7.330048832169478
      ],
      [
        "▁2",
        -7.336450138280721
      ],
      [
        "▁Er",
        -7.337266699156128
      ],
      [
        "a",
        -7.337325775719087
      ],
      [
        "▁1",
        -7.352899935580577
      ],
      [
        "in",
        -7.3713328332326125
      ],
      [
        "▁ab",
        -7.378863589175765
      ],
      [
        "▁Menschen",
        -7.380265932750337
      ],
      [
        "▁damit",
        -7.400211345540631
      ],
      [
        "▁...",
        -7.409831680292511
      ],
      [
        "▁Ihre",
        -7.4252200081796715
      ],
      [
        "▁eines",
        -7.425715459935764
      ],
      [
        "▁Jahr",
        -7.433388180522378
      ],
      [
        "▁meine",
        -7.439883859041199
      ],
      [
        "▁Wie",
        -7.458891915871979
      ],
      [
        "▁So",
        -7.4666472264652235
      ],
      [
        "▁geht",
        -7.469524019064247
      ],
      [
        "▁ob",
        -7.469829103378199
      ],
      [
        "▁Ihr",
        -7.470369350864617
      ],
      [
        "▁viele",
        -7.4749237494536995
      ],
      [
        "▁Im",
        -7.484526873341135
      ],
      [
        "▁Jahren",
        -7.500852732093097
      ],
      [
        "▁seine",
        -7.501658851891355
      ],
      [
        "/",
        -7.520352017947488
      ],
      [
        "▁hatte",
        -7.520607668632531
      ],
      [
        "▁weil",
        -7.523644440453232
      ],
      [
        "▁ist,",
        -7.523930776079945
      ],
      [
        "▁denn",
        -7.539019029441615
      ],
      [
        "▁ohne",
        -7.5411094403443
      ],
      [
        "▁Da",
        -7.559907271463889
      ],
      [
        "▁andere",
        -7.56370483922108
      ],
      [
        "▁unsere",
        -7.563743192767529
      ],
      [
        "▁Mit",
        -7.571748600651562
      ],
      [
        "▁nun",
        -7.581866092601544
      ],
      [
        "ung",
        -7.582973607077799
      ],
      [
        "▁Ihnen",
        -7.583880916721496
      ],
      [
        "▁Was",
        -7.5844724094056915
      ],
      [
        "▁ist.",
        -7.586665568277111
      ],
      [
        "▁sondern",
        -7.587229214845344
      ],
      [
        "▁wirklich",
        -7.6101102571399455
      ],
      [
        "▁3",
        -7.616357052085025
      ],
      [
        ";",
        -7.616587539527842
      ],
      [
        "▁zwei",
        -7.622944905239615
      ],
      [
        "▁Bei",
        -7.628334609968444
      ],
      [
        ").",
        -7.630193420581596
      ],
      [
        "▁beim",
        -7.636970600642153
      ],
      [
        "▁gegen",
        -7.6542829025064805
      ],
      [
        "▁Diese",
        -7.6582012971604385
      ],
      [
        "▁also",
        -7.66331466702203
      ],
      [
        "▁Daten",
        -7.67163934515119
      ],
      [
        "▁heute",
        -7.678235048091311
      ],
      [
        "▁dieses",
        -7.685318929039173
      ],
      [
        "▁Eine",
        -7.687393931106003
      ],
      [
        "▁Für",
        -7.687679332612781
      ],
      [
        "▁Auch",
        -7.69162141320162
      ],
      [
        "i",
        -7.693688908005965
      ],
      [
        "▁wo",
        -7.696522088582551
      ],
      [
        "▁Jahre",
        -7.69895296752701
      ],
      [
        "▁würde",
        -7.699522392248715
      ],
      [
        "▁Auf",
        -7.7045691855227485
      ],
      [
        "▁dir",
        -7.71163471033249
      ],
      [
        "▁ihn",
        -7.713810475915674
      ],
      [
        "▁sollte",
        -7.721318672467211
      ],
      [
        "▁neue",
        -7.727052410154247
      ],
      [
        "▁einmal",
        -7.73381501172441
      ],
      [
        "▁bereits",
        -7.756621355996973
      ],
      [
        "▁Leben",
        -7.758439569124695
      ],
      [
        "▁weiter",
        -7.760440939007667
      ],
      [
        "▁kein",
        -7.764049168158104
      ],
      [
        "▁Tag",
        -7.765607983273874
      ],
      [
        "▁seit",
        -7.770000501711161
      ],
      [
        "▁ersten",
        -7.787749632445699
      ],
      [
        "▁waren",
        -7.798022000757317
      ],
      [
        "▁kommt",
        -7.802119358226076
      ],
      [
        "▁sowie",
        -7.802753566543998
      ],
      [
        "▁Welt",
        -7.807646446030972
      ],
      [
        "▁S",
        -7.811894193344989
      ],
      [
        "▁dabei",
        -7.8148174703495155
      ],
      [
        "▁zwischen",
        -7.8225115287769
      ],
      [
        "▁diesen",
        -7.8261092564885
      ],
      [
        "▁mein",
        -7.852363100182448
      ],
      [
        "▁soll",
        -7.853242085644945
      ],
      [
        "▁ihm",
        -7.857576131847294
      ],
      [
        "▁nichts",
        -7.8663414677199395
      ],
      [
        "▁dazu",
        -7.866899922612465
      ],
      [
        "▁erst",
        -7.870354420092642
      ],
      [
        "▁werden,",
        -7.871694065918556
      ],
      [
        "▁Hier",
        -7.873778006452426
      ],
      [
        "▁können.",
        -7.88294388060976
      ],
      [
        "st",
        -7.883402324551181
      ],
      [
        "▁Kinder",
        -7.887727457752419
      ],
      [
        "▁Fall",
        -7.896322390424334
      ],
      [
        "▁müssen",
        -7.897242165596939
      ],
      [
        "▁B",
        -7.902022230676899
      ],
      [
        "▁euch",
        -7.903551150987948
      ],
      [
        "▁4",
        -7.905142076465799
      ],
      [
        "▁wäre",
        -7.9056016319121
      ],
      [
        "▁unserer",
        -7.907906536468081
      ],
      [
        "den",
        -7.911829619648442
      ],
      [
        "▁Nach",
        -7.914901062835245
      ],
      [
        "▁dich",
        -7.916442099164046
      ],
      [
        "▁natürlich",
        -7.9238506879439665
      ],
      [
        "o",
        -7.923893983505682
      ],
      [
        "▁Deutschland",
        -7.93299589016047
      ],
      [
        "de",
        -7.935737101137944
      ],
      [
        "▁allem",
        -7.938707311313996
      ],
      [
        "▁gar",
        -7.951287067200205
      ],
      [
        "▁Am",
        -7.952789007751253
      ],
      [
        "▁gerne",
        -7.964826851186107
      ],
      [
        "▁machen",
        -7.967553743415996
      ],
      [
        "▁wohl",
        -7.972233940209691
      ],
      [
        "▁seiner",
        -7.973988748000421
      ],
      [
        "▁neuen",
        -7.976910105961812
      ],
      [
        "▁dafür",
        -7.980086230367938
      ],
      [
        "▁finden",
        -7.983567324578429
      ],
      [
        "▁Uhr",
        -7.988219900862074
      ],
      [
        "▁5",
        -7.989786486002609
      ],
      [
        "▁wird.",
        -7.9933845310779414
      ],
      [
        "▁jedoch",
        -7.994567300233475
      ],
      [
        "▁meiner",
        -7.998803289379049
      ],
      [
        "▁genau",
        -8.001314971835756
      ],
      [
        "▁An",
        -8.001697541737514
      ],
      [
        "▁sein.",
        -8.002657997371863
      ],
      [
        "▁Ende",
        -8.004846350430059
      ],
      [
        "▁dort",
        -8.010153026431986
      ],
      [
        "▁“",
        -8.015870344647885
      ],
      [
        "▁ver",
        -8.02612690620071
      ],
      [
        "▁haben.",
        -8.027832337961748
      ],
      [
        "▁gerade",
        -8.028880923097784
      ],
      [
        "▁steht",
        -8.030207099929413
      ],
      [
        "▁ihrer",
        -8.033436130175566
      ],
      [
        "▁Teil",
        -8.060443501873939
      ],
      [
        "te",
        -8.062220270737962
      ],
      [
        "▁welche",
        -8.069604786824346
      ],
      [
        "h",
        -8.070125688494139
      ],
      [
        "▁allen",
        -8.073518250042095
      ],
      [
        "▁möchte",
        -8.081044590070174
      ],
      [
        "▁Unternehmen",
        -8.081937883076641
      ],
      [
        "▁Thema",
        -8.095168423770637
      ],
      [
        "▁schnell",
        -8.10010707757051
      ],
      [
        "▁sind.",
        -8.100987775589363
      ],
      [
        "▁letzten",
        -8.10134505129803
      ],
      [
        "▁Seite",
        -8.102365489599231
      ],
      [
        "y",
        -8.102594455081947
      ],
      [
        "▁davon",
        -8.103336010297177
      ],
      [
        "▁ihren",
        -8.104976627873823
      ],
      [
        "▁vielen",
        -8.108523581679576
      ],
      [
        "▁Informationen",
        -8.1088050865112
      ],
      [
        "▁lange",
        -8.110083834102248
      ],
      [
        "▁Arbeit",
        -8.112903680160992
      ],
      [
        "▁drei",
        -8.1160040542738
      ],
      [
        "▁paar",
        -8.122621635413086
      ],
      [
        "▁sein,",
        -8.126771126782282
      ],
      [
        "▁10",
        -8.128925329709766
      ],
      [
        "▁große",
        -8.133805164004658
      ],
      [
        "▁Stadt",
        -8.136102686138994
      ],
      [
        "▁daß",
        -8.140052369707355
      ],
      [
        "▁A",
        -8.140141961153919
      ],
      [
        "▁kann.",
        -8.142180219498014
      ],
      [
        "▁Kunden",
        -8.142542601076332
      ],
      [
        "▁seinen",
        -8.143465848449456
      ],
      [
        "▁Als",
        -8.143520498586055
      ],
      [
        "l",
        -8.144765031164878
      ],
      [
        "▁darauf",
        -8.152035317586034
      ],
      [
        "▁einige",
        -8.158961725035677
      ],
      [
        "▁wurden",
        -8.15933165717406
      ],
      [
        "▁Man",
        -8.160272293202466
      ],
      [
        "▁Wer",
        -8.16154182163163
      ],
      [
        "▁will",
        -8.162107019621716
      ],
      [
        "▁macht",
        -8.163135773707923
      ],
      [
        "g",
        -8.166861189298816
      ],
      [
        "▁haben,",
        -8.170455950309798
      ],
      [
        "▁Geld",
        -8.178207244525115
      ],
      [
        "em",
        -8.178612159559439
      ],
      [
        "▁jeden",
        -8.180325934452252
      ],
      [
        "▁Weg",
        -8.181387275815966
      ],
      [
        "▁hat.",
        -8.184537169032854
      ],
      [
        "▁Euro",
        -8.18992764868601
      ],
      [
        "der",
        -8.194783336554558
      ],
      [
        "▁liegt",
        -8.19864544291894
      ],
      [
        "▁jeder",
        -8.20262947049363
      ],
      [
        "▁eigentlich",
        -8.206200461487136
      ],
      [
        "▁bzw.",
        -8.207939452800584
      ],
      [
        "▁Mal",
        -8.210149787672162
      ],
      [
        "▁vielleicht",
        -8.212896957915223
      ],
      [
        "▁§",
        -8.213932880785864
      ],
      [
        "▁meinen",
        -8.215858567506055
      ],
      [
        "▁sei",
        -8.217146725654075
      ],
      [
        "),",
        -8.22365829067441
      ],
      [
        "▁konnte",
        -8.228725414961103
      ],
      [
        "▁wenig",
        -8.230847281549758
      ],
      [
        "▁kommen",
        -8.231652975573892
      ],
      [
        "▁Buch",
        -8.231791191095756
      ],
      [
        "▁nie",
        -8.236350822866912
      ],
      [
        "▁Vor",
        -8.237581439715383
      ],
      [
        "▁besser",
        -8.250541059014786
      ],
      [
        "­",
        -8.250614694913743
      ],
      [
        "▁Grund",
        -8.250960822014592
      ],
      [
        "▁möglich",
        -8.251529041036116
      ],
      [
        "▁sogar",
        -8.25422792992954
      ],
      [
        "▁gute",
        -8.267223845167324
      ],
      [
        "▁Um",
        -8.279911992411781
      ],
      [
        "▁direkt",
        -8.280794292145918
      ],
      [
        "ge",
        -8.283124306619758
      ],
      [
        "▁richtig",
        -8.284035799708851
      ],
      [
        "▁werde",
        -8.285818033759703
      ],
      [
        "▁während",
        -8.287495273477477
      ],
      [
        "▁Dann",
        -8.30007051817439
      ],
      [
        "▁6",
        -8.302602345414448
      ],
      [
        "▁hätte",
        -8.30370054824539
      ],
      [
        "▁Frau",
        -8.304863249501343
      ],
      [
        "▁oft",
        -8.307474328028997
      ],
      [
        "▁hin",
        -8.31258589464854
      ],
      [
        "▁eigenen",
        -8.31380130160852
      ],
      [
        "▁Fragen",
        -8.318137720742184
      ],
      [
        "▁gilt",
        -8.321234104860844
      ],
      [
        "▁gleich",
        -8.322894088218625
      ],
      [
        "▁1.",
        -8.325337560981406
      ],
      [
        "▁zwar",
        -8.32583829047432
      ],
      [
        "▁deine",
        -8.326439256854895
      ],
      [
        "▁meinem",
        -8.334473911370045
      ],
      [
        "▁be",
        -8.345505449292657
      ],
      [
        "▁weiß",
        -8.351346629379805
      ],
      [
        "▁sehen",
        -8.351763732723873
      ],
      [
        "▁Art",
        -8.351937308210442
      ],
      [
        "▁Aus",
        -8.352520417352
      ],
      [
        "▁hat,",
        -8.354977405090224
      ],
      [
        "▁ihnen",
        -8.358577769782578
      ],
      [
        "▁keinen",
        -8.359300929517543
      ],
      [
        "▁stehen",
        -8.359575440124264
      ],
      [
        "▁unseren",
        -8.359576291148528
      ],
      [
        "▁Frage",
        -8.361489008933031
      ],
      [
        "▁weitere",
        -8.362939750437054
      ],
      [
        "▁hast",
        -8.36362758403009
      ],
      [
        "▁Spiel",
        -8.363748269039137
      ],
      [
        "▁zusammen",
        -8.36500678933167
      ],
      [
        "▁sollten",
        -8.37144063916462
      ],
      [
        "▁fast",
        -8.371772304143967
      ],
      [
        "▁unser",
        -8.37565683816347
      ],
      [
        "▁sind,",
        -8.375916206271686
      ],
      [
        "▁P",
        -8.383040853986126
      ],
      [
        "▁sicher",
        -8.384551724188753
      ],
      [
        "▁Dank",
        -8.387697223917378
      ],
      [
        "▁denen",
        -8.388534526898118
      ],
      [
        "▁erste",
        -8.390900930087353
      ],
      [
        "▁20",
        -8.392301281762844
      ],
      [
        "”",
        -8.392389264276519
      ],
      [
        "▁Frauen",
        -8.3956435007146
      ],
      [
        "▁sieht",
        -8.39675137261551
      ],
      [
        "▁zurück",
        -8.397072717448365
      ],
      [
        "▁Artikel",
        -8.397344126952039
      ],
      [
        "k",
        -8.40155315693647
      ],
      [
        "▁Doch",
        -8.401915839391885
      ],
      [
        "▁könnte",
        -8.402318005883497
      ],
      [
        "“,",
        -8.403840061207564
      ],
      [
        "b",
        -8.404547943060525
      ],
      [
        "▁Land",
        -8.407963584334112
      ],
      [
        "▁Ab",
        -8.41104074608806
      ],
      [
        "▁etwa",
        -8.415919248709931
      ],
      [
        "▁hab",
        -8.41644001729579
      ],
      [
        "ten",
        -8.416567945350542
      ],
      [
        "▁ge",
        -8.419408201458369
      ],
      [
        "▁gab",
        -8.419863583627242
      ],
      [
        "▁Beispiel",
        -8.420112370961098
      ],
      [
        "▁finde",
        -8.420608771822241
      ],
      [
        "▁allerdings",
        -8.421203253917396
      ],
      [
        "▁ins",
        -8.42213825901066
      ],
      [
        "▁Wasser",
        -8.423456648111861
      ],
      [
        "▁Entfernung",
        -8.426257093081816
      ],
      [
        "▁lassen",
        -8.428847326331178
      ],
      [
        "▁beiden",
        -8.435957589670862
      ],
      [
        "▁nächsten",
        -8.437273883481886
      ],
      [
        "▁Internet",
        -8.443120188041766
      ],
      [
        "▁»",
        -8.446653389250198
      ],
      [
        "▁großen",
        -8.446872826357932
      ],
      [
        "▁Ihrer",
        -8.448835471984847
      ],
      [
        "▁gehen",
        -8.45345600038769
      ],
      [
        "z",
        -8.454462685946382
      ],
      [
        "▁Haus",
        -8.467230941845568
      ],
      [
        "▁kannst",
        -8.468448285908508
      ],
      [
        "▁G",
        -8.4722094745653
      ],
      [
        "▁besonders",
        -8.472921085391414
      ],
      [
        "▁Zu",
        -8.478251017110212
      ],
      [
        "▁Tage",
        -8.479842063821069
      ],
      [
        "▁Ziel",
        -8.480683144719764
      ],
      [
        "▁Ver",
        -8.486402736120738
      ],
      [
        "▁besten",
        -8.487116423108205
      ],
      [
        "▁leider",
        -8.48753286544742
      ],
      [
        "▁findet",
        -8.487698800561237
      ],
      [
        "▁Mann",
        -8.488018852837383
      ],
      [
        "▁wollen",
        -8.488848834190893
      ],
      [
        "▁Dies",
        -8.491237531937065
      ],
      [
        "an",
        -8.49483463541865
      ],
      [
        ".“",
        -8.499572654697662
      ],
      [
        "▁Wochen",
        -8.50352542331184
      ],
      [
        "▁Be",
        -8.503604297001917
      ],
      [
        "▁unserem",
        -8.506279752357514
      ],
      [
        "▁ganze",
        -8.508540711866859
      ],
      [
        "▁M",
        -8.510618256666072
      ],
      [
        "▁K",
        -8.514066177957622
      ],
      [
        "▁H",
        -8.517618521186831
      ],
      [
        "▁weniger",
        -8.524488689285082
      ],
      [
        "seinem",
        -8.525708600030054
      ],
      [
        "▁bitte",
        -8.526394870179494
      ],
      [
        "▁Abs.",
        -8.527720071154647
      ],
      [
        "be",
        -8.527869551068475
      ],
      [
        "▁Geschichte",
        -8.530055177992063
      ],
      [
        "▁eher",
        -8.537188340963613
      ],
      [
        "▁Personen",
        -8.537566004084038
      ],
      [
        "▁Ort",
        -8.537914909336582
      ],
      [
        "▁gemacht",
        -8.552063920933248
      ],
      [
        "▁D",
        -8.552893707884476
      ],
      [
        "▁kurz",
        -8.553141641592203
      ],
      [
        "▁später",
        -8.554246442617048
      ],
      [
        "▁E",
        -8.555456135561718
      ],
      [
        "▁wollte",
        -8.556083807847083
      ],
      [
        "▁Denn",
        -8.55709358185475
      ],
      [
        "▁wird,",
        -8.557588431305215
      ],
      [
        "▁eben",
        -8.561385444943372
      ],
      [
        "▁Recht",
        -8.562123643498277
      ],
      [
        "▁Dir",
        -8.565674649310722
      ],
      [
        "c",
        -8.566570820808318
      ],
      [
        "▁rund",
        -8.571920663200759
      ],
      [
        "▁Woche",
        -8.576215484868289
      ],
      [
        "▁meisten",
        -8.576232243391846
      ],
      [
        "▁kleine",
        -8.576725989787061
      ],
      [
        "sten",
        -8.582275833200754
      ],
      [
        "▁2.",
        -8.585589487147605
      ],
      [
        "▁Bild",
        -8.589160519975357
      ],
      [
        "▁dies",
        -8.595032570458901
      ],
      [
        "▁15",
        -8.604174886300775
      ],
      [
        "f",
        -8.604773197436828
      ],
      [
        "▁Also",
        -8.607118078832649
      ],
      [
        "al",
        -8.6101726720986
      ],
      [
        "▁pro",
        -8.610299681376643
      ],
      [
        "▁Kosten",
        -8.611823052347917
      ],
      [
        "▁ca.",
        -8.61274335646893
      ],
      [
        "▁7",
        -8.612763404426927
      ],
      [
        "▁darf",
        -8.612809890833056
      ],
      [
        "▁S.",
        -8.614120408694141
      ],
      [
        "▁kam",
        -8.61440568567515
      ],
      [
        "▁Person",
        -8.615180330403785
      ],
      [
        "▁aller",
        -8.6178570359102
      ],
      [
        "▁kleinen",
        -8.618063644306128
      ],
      [
        "▁Entwicklung",
        -8.61815765141779
      ],
      [
        "▁Problem",
        -8.620078149152551
      ],
      [
        "▁18",
        -8.626696473015734
      ],
      [
        "▁hatten",
        -8.63211508917246
      ],
      [
        "ing",
        -8.632150187229502
      ],
      [
        "▁ging",
        -8.634164177026829
      ],
      [
        "▁Liebe",
        -8.635965612165055
      ],
      [
        "▁8",
        -8.63675821574478
      ],
      [
        "▁Von",
        -8.638339793824915
      ],
      [
        "▁bietet",
        -8.638558630016012
      ],
      [
        "▁darüber",
        -8.639197426216287
      ],
      [
        "▁30",
        -8.63949908945966
      ],
      [
        "▁Bereich",
        -8.642993475767637
      ],
      [
        "▁Ist",
        -8.644878092529185
      ],
      [
        "▁2018",
        -8.645006947253338
      ],
      [
        "▁per",
        -8.648981154675141
      ],
      [
        "▁Familie",
        -8.649173534965579
      ],
      [
        "u",
        -8.650922619264218
      ],
      [
        "▁Über",
        -8.651487120820358
      ],
      [
        "▁weit",
        -8.656389564700369
      ],
      [
        "▁Hand",
        -8.658158608114752
      ],
      [
        "▁erhalten",
        -8.660262755265597
      ],
      [
        "▁Nicht",
        -8.660319813257372
      ],
      [
        "▁jemand",
        -8.660400265779849
      ],
      [
        "▁Rahmen",
        -8.667685961481851
      ],
      [
        "▁F",
        -8.67420058746913
      ],
      [
        "▁je",
        -8.67472820869602
      ],
      [
        "ver",
        -8.675441555463037
      ],
      [
        "▁Blick",
        -8.676541051010492
      ],
      [
        "▁Preis",
        -8.676604810070183
      ],
      [
        "▁machen.",
        -8.676874341303563
      ],
      [
        "▁wegen",
        -8.682234549893167
      ],
      [
        "▁tun",
        -8.683443434389286
      ],
      [
        "▁sagt",
        -8.686430128103163
      ],
      [
        "▁C",
        -8.689394601286525
      ],
      [
        "▁an.",
        -8.692048363229246
      ],
      [
        "▁Stunden",
        -8.69259468038942
      ],
      [
        "▁Alle",
        -8.694528719287078
      ],
      [
        "▁wer",
        -8.69479165916831
      ],
      [
        "▁lässt",
        -8.6973950801806
      ],
      [
        "▁überhaupt",
        -8.700037493224835
      ],
      [
        "▁daher",
        -8.701824082461439
      ],
      [
        "▁Prozent",
        -8.705733067636288
      ],
      [
        "▁Berlin",
        -8.706567087044919
      ],
      [
        "ihrem",
        -8.707767935306306
      ],
      [
        "▁sagte",
        -8.707942795571778
      ],
      [
        "\",",
        -8.708263417111164
      ],
      [
        "▁Platz",
        -8.713161862983549
      ],
      [
        "lich",
        -8.713199338667211
      ],
      [
        "▁&",
        -8.71816570423372
      ],
      [
        "▁un",
        -8.719084413234562
      ],
      [
        "▁recht",
        -8.719451462345935
      ],
      [
        "▁Auto",
        -8.723252197638121
      ],
      [
        "▁Eltern",
        -8.728025546778616
      ],
      [
        "▁dein",
        -8.73009557984095
      ],
      [
        "▁geben",
        -8.73104844775308
      ],
      [
        "▁Unter",
        -8.732443166704915
      ],
      [
        "um",
        -8.732615382986596
      ],
      [
        "▁solche",
        -8.733690045985506
      ],
      [
        "▁schön",
        -8.734258708786625
      ],
      [
        "▁sofort",
        -8.73457723634368
      ],
      [
        "▁Kind",
        -8.736632421210514
      ],
      [
        "▁Dabei",
        -8.738437801367665
      ],
      [
        "▁Gott",
        -8.743857440625204
      ],
      [
        "▁Film",
        -8.748293610162133
      ],
      [
        "▁schwer",
        -8.751879793117784
      ],
      [
        "▁können,",
        -8.75243442686254
      ],
      [
        "▁warum",
        -8.763825975906013
      ],
      [
        "▁Hotel",
        -8.764010833270785
      ],
      [
        "▁L",
        -8.764065370910947
      ],
      [
        "▁kaum",
        -8.764250353868992
      ],
      [
        "▁jedem",
        -8.77016947916449
      ],
      [
        "▁12",
        -8.770532427222472
      ],
      [
        "▁deutlich",
        -8.774547749584203
      ],
      [
        "▁bist",
        -8.781437179054091
      ],
      [
        "▁Leute",
        -8.781761510393315
      ],
      [
        "▁T",
        -8.786312171054114
      ],
      [
        "▁innerhalb",
        -8.795707287796368
      ],
      [
        "▁Zukunft",
        -8.795793485744454
      ],
      [
        "▁bleibt",
        -8.801195729716177
      ],
      [
        "▁Mitarbeiter",
        -8.802285235096141
      ],
      [
        "▁eigene",
        -8.80263201725935
      ],
      [
        "▁Mai",
        -8.805946718870858
      ],
      [
        "▁Projekt",
        -8.806094443126307
      ],
      [
        ".de",
        -8.807074276612742
      ],
      [
        "▁Produkt",
        -8.809100595487177
      ],
      [
        "▁vier",
        -8.80994001735061
      ],
      [
        "▁lassen.",
        -8.810125089700543
      ],
      [
        "▁Musik",
        -8.810667132770273
      ],
      [
        "▁Seiten",
        -8.810736082751237
      ],
      [
        "▁sagen",
        -8.811183453193294
      ],
      [
        "▁Durch",
        -8.812086454141744
      ],
      [
        "▁I",
        -8.812537279064925
      ],
      [
        "▁Ihrem",
        -8.812820243182466
      ],
      [
        "▁Dinge",
        -8.815947299220857
      ],
      [
        "▁zeigt",
        -8.816290133286438
      ],
      [
        "▁Form",
        -8.816375225574133
      ],
      [
        "▁Selbst",
        -8.817099045497564
      ],
      [
        "▁Bilder",
        -8.818965892077035
      ],
      [
        "▁Zum",
        -8.819233540521891
      ],
      [
        "▁stellen",
        -8.819265989563544
      ],
      [
        "▁gehört",
        -8.820240427045722
      ],
      [
        "ch",
        -8.821939138814917
      ],
      [
        "▁neu",
        -8.825795997607226
      ],
      [
        "▁Augen",
        -8.826293627475723
      ],
      [
        "▁Nur",
        -8.827464199889594
      ],
      [
        "▁Anfang",
        -8.828401548719198
      ],
      [
        "▁wissen",
        -8.828883623725387
      ],
      [
        "▁Millionen",
        -8.829573530656278
      ],
      [
        "▁klar",
        -8.831623752510534
      ],
      [
        "▁Mein",
        -8.831919917922043
      ],
      [
        "▁Namen",
        -8.832426644679195
      ],
      [
        "▁Meine",
        -8.834516863881106
      ],
      [
        "▁worden",
        -8.835849498231209
      ],
      [
        "▁Team",
        -8.835900103855128
      ],
      [
        "▁Deine",
        -8.836541386038462
      ],
      [
        "▁wichtig",
        -8.839649824153842
      ],
      [
        "▁besteht",
        -8.839974887887331
      ],
      [
        "▁Meinung",
        -8.840441985989653
      ],
      [
        "▁R",
        -8.840587766447285
      ],
      [
        "zu",
        -8.842188773403208
      ],
      [
        "▁Reise",
        -8.84766572467581
      ],
      [
        "▁Hilfe",
        -8.847899371571472
      ],
      [
        "▁Spaß",
        -8.848134291266653
      ],
      [
        "▁Gesellschaft",
        -8.850538215859435
      ],
      [
        "▁nehmen",
        -8.853703336632128
      ],
      [
        "▁Seit",
        -8.85546903563344
      ],
      [
        "▁Minuten",
        -8.855535973127397
      ],
      [
        "▁sonst",
        -8.867362891382163
      ],
      [
        "“.",
        -8.867873125219395
      ],
      [
        "▁guten",
        -8.868131447055577
      ],
      [
        "ste",
        -8.868370052546924
      ],
      [
        "▁anders",
        -8.868453735731372
      ],
      [
        "▁ebenfalls",
        -8.870652842609069
      ],
      [
        "▁Nun",
        -8.871207990608035
      ],
      [
        "▁Tagen",
        -8.871348962371643
      ],
      [
        "▁14",
        -8.87566982899175
      ],
      [
        "▁Lage",
        -8.876617553181395
      ],
      [
        "▁heißt",
        -8.877788284976983
      ],
      [
        "'",
        -8.877951741854606
      ],
      [
        "▁Weise",
        -8.878818875492945
      ],
      [
        "Damit",
        -8.879400318439082
      ],
      [
        "et",
        -8.879854136108985
      ],
      [
        "▁hoch",
        -8.879898292544329
      ],
      [
        "▁bieten",
        -8.880868196218731
      ],
      [
        "2",
        -8.883672678346999
      ],
      [
        "▁Ge",
        -8.888150741622901
      ],
      [
        "▁Jetzt",
        -8.888489322486924
      ],
      [
        "w",
        -8.888795894024693
      ],
      [
        "▁jede",
        -8.892062609351006
      ],
      [
        "▁/",
        -8.8921754089953
      ],
      [
        "▁2017",
        -8.895131637422642
      ],
      [
        "▁Dieser",
        -8.8991418922069
      ],
      [
        "▁Abend",
        -8.900555929639433
      ],
      [
        "▁2016",
        -8.902626722733228
      ],
      [
        "▁Vielleicht",
        -8.904627022680716
      ],
      [
        "▁verschiedenen",
        -8.906374886994698
      ],
      [
        "▁stark",
        -8.906506017017282
      ],
      [
        "▁daran",
        -8.906798720983906
      ],
      [
        "▁Den",
        -8.90755132635109
      ],
      [
        "▁Sicherheit",
        -8.90920342907581
      ],
      [
        "▁echt",
        -8.9099134216812
      ],
      [
        "▁%",
        -8.91019147087996
      ],
      [
        "▁gegenüber",
        -8.911350577231868
      ],
      [
        "us",
        -8.912001192850537
      ],
      [
        "▁Nacht",
        -8.91478230670412
      ],
      [
        "▁V",
        -8.915540472337904
      ],
      [
        "▁leicht",
        -8.918565801904089
      ],
      [
        "t.",
        -8.91985759333543
      ],
      [
        "▁Stelle",
        -8.920694370871244
      ],
      [
        "▁September",
        -8.920862061807313
      ],
      [
        "▁deutschen",
        -8.921942621185446
      ],
      [
        "▁frei",
        -8.923526395765522
      ],
      [
        "▁bisher",
        -8.923851108386106
      ],
      [
        "▁Verfügung",
        -8.924688579655946
      ],
      [
        "▁Beitrag",
        -8.926701980821875
      ],
      [
        "▁bleiben",
        -8.92741946725618
      ],
      [
        "▁Natur",
        -8.928458623308666
      ],
      [
        "▁Produkte",
        -8.928781960613561
      ],
      [
        "▁ganzen",
        -8.929828353528851
      ],
      [
        "▁Wahl",
        -8.932251081516792
      ],
      [
        "▁freuen",
        -8.933146629148338
      ],
      [
        "▁Oktober",
        -8.9346537891993
      ],
      [
        "sch",
        -8.935074258158389
      ],
      [
        "▁aus.",
        -8.93620206429828
      ],
      [
        "▁100",
        -8.940118579802737
      ],
      [
        "▁16",
        -8.940394059993555
      ],
      [
        "▁z.B.",
        -8.943881278662616
      ],
      [
        "▁Körper",
        -8.944132943234251
      ],
      [
        "▁W",
        -8.944451381276178
      ],
      [
        "▁Entscheidung",
        -8.9451689359077
      ],
      [
        ".\"",
        -8.94554845539162
      ],
      [
        "▁50",
        -8.94616914601541
      ],
      [
        "▁oben",
        -8.947720173367639
      ],
      [
        "re",
        -8.94853780933647
      ],
      [
        "▁wurde.",
        -8.94904984730401
      ],
      [
        "▁Mutter",
        -8.94979967109629
      ],
      [
        "ist",
        -8.950243444927366
      ],
      [
        "▁deshalb",
        -8.95283356071357
      ],
      [
        "p",
        -8.957629544901765
      ],
      [
        "▁Bitte",
        -8.957756120216908
      ],
      [
        "▁3.",
        -8.960315913511469
      ],
      [
        "▁sollen",
        -8.962789684886637
      ],
      [
        "▁hinaus",
        -8.964525180194363
      ],
      [
        "chen",
        -8.964973989403168
      ],
      [
        "▁fest",
        -8.965191557208874
      ],
      [
        "▁Euch",
        -8.966644973305382
      ],
      [
        "S",
        -8.967830029448573
      ],
      [
        "▁Dr.",
        -8.972137707710187
      ],
      [
        "▁tatsächlich",
        -8.97272658003139
      ],
      [
        "▁Mensch",
        -8.973679653163128
      ],
      [
        "▁Möglichkeit",
        -8.975601715900309
      ],
      [
        "▁genug",
        -8.975916343568535
      ],
      [
        "und",
        -8.976090251966967
      ],
      [
        "▁lang",
        -8.976531636039102
      ],
      [
        "▁stellt",
        -8.977446096193736
      ],
      [
        "▁mehrere",
        -8.98120043673311
      ],
      [
        "▁kann,",
        -8.983408155546474
      ],
      [
        "▁Markt",
        -8.983459964187936
      ],
      [
        "▁Juni",
        -8.983714269116977
      ],
      [
        "▁all",
        -8.98466821271818
      ],
      [
        "▁Kopf",
        -8.985275605023482
      ],
      [
        "▁gesamte",
        -8.985431500719248
      ],
      [
        "▁gemeinsam",
        -8.98555019997165
      ],
      [
        "▁Gedanken",
        -8.987564724871817
      ],
      [
        "▁insbesondere",
        -8.990889302023653
      ],
      [
        "▁Regel",
        -8.991462370580665
      ],
      [
        "el",
        -8.992100354134784
      ],
      [
        "▁bedeutet",
        -8.99260391952157
      ],
      [
        "▁17",
        -8.993260835154764
      ],
      [
        "▁Wert",
        -8.99355534029779
      ],
      [
        "▁hinter",
        -8.99400493523046
      ],
      [
        "▁Erfolg",
        -8.995718640276156
      ],
      [
        "▁her",
        -8.997452245161867
      ],
      [
        "▁verschiedene",
        -8.997607224959202
      ],
      [
        "on",
        -8.999377126930925
      ],
      [
        "▁Europa",
        -9.000898914606958
      ],
      [
        "▁Probleme",
        -9.000989503076097
      ],
      [
        "▁ziemlich",
        -9.001063774609253
      ],
      [
        "▁Schule",
        -9.00185238387041
      ],
      [
        "▁sagen,",
        -9.003306300749339
      ],
      [
        "▁endlich",
        -9.005053721806153
      ],
      [
        "▁Qualität",
        -9.00593152988214
      ],
      [
        "▁bekommen",
        -9.008050285697252
      ],
      [
        "▁USA",
        -9.009118258682497
      ],
      [
        "▁musste",
        -9.010862557921726
      ],
      [
        "▁Oder",
        -9.013597807479954
      ],
      [
        "▁Bau",
        -9.01394653936889
      ],
      [
        "▁Dich",
        -9.013997469185552
      ],
      [
        "▁unterschiedlich",
        -9.016285473209564
      ],
      [
        "▁bekannt",
        -9.018443934949113
      ],
      [
        "▁November",
        -9.018950692921301
      ],
      [
        "▁Mitglieder",
        -9.01940199848125
      ],
      [
        "▁Erfahrung",
        -9.021087388345364
      ],
      [
        "▁war.",
        -9.024228558071819
      ],
      [
        "▁war,",
        -9.024622548232607
      ],
      [
        "▁bestimmt",
        -9.026138546065281
      ],
      [
        "▁super",
        -9.026783666377641
      ],
      [
        "1",
        -9.028705616380167
      ],
      [
        "ur",
        -9.030784233565335
      ],
      [
        "▁Online",
        -9.032515818091424
      ],
      [
        "▁Herr",
        -9.036332100693835
      ],
      [
        "▁Viele",
        -9.036630132919786
      ],
      [
        "▁Nutzung",
        -9.03756540630208
      ],
      [
        "▁N",
        -9.037625529880877
      ],
      [
        "▁Ja,",
        -9.037652484252277
      ],
      [
        "▁Energie",
        -9.03843917098445
      ],
      [
        "▁März",
        -9.0391247359256
      ],
      [
        "▁arbeiten",
        -9.039667773902417
      ],
      [
        "▁Angebot",
        -9.04113576012605
      ],
      [
        "▁Nr.",
        -9.041358525987365
      ],
      [
        "▁Lebens",
        -9.042003044325085
      ],
      [
        "▁9",
        -9.042635627412261
      ],
      [
        "▁leben",
        -9.044889452932713
      ],
      [
        "▁braucht",
        -9.047384765877085
      ],
      [
        "▁Juli",
        -9.048184646607446
      ],
      [
        "▁Wo",
        -9.049024045905488
      ],
      [
        "▁Dezember",
        -9.049939155803527
      ],
      [
        "▁Website",
        -9.05029378569152
      ],
      [
        "ab",
        -9.050826669646709
      ],
      [
        "▁mindestens",
        -9.050998708979597
      ],
      [
        "\".",
        -9.051223792791411
      ],
      [
        "▁Interesse",
        -9.052876562422053
      ],
      [
        "▁neben",
        -9.053458411600255
      ],
      [
        "▁«",
        -9.053591405438231
      ],
      [
        "▁würden",
        -9.055152598848432
      ],
      [
        "▁weiteren",
        -9.055164750420108
      ],
      [
        "▁weg",
        -9.058401153457721
      ],
      [
        "▁Jahres",
        -9.061954979796525
      ],
      [
        "▁Situation",
        -9.064396489900377
      ],
      [
        "▁Glück",
        -9.06452192112111
      ],
      [
        "▁€",
        -9.064725109593672
      ],
      [
        "▁länger",
        -9.068924044750615
      ],
      [
        "▁Familien",
        -9.069076432015478
      ],
      [
        "▁Höhe",
        -9.070264548278349
      ],
      [
        "le",
        -9.070533284716065
      ],
      [
        "▁Gefühl",
        -9.072309742911598
      ],
      [
        "▁Wort",
        -9.07736160741511
      ],
      [
        "▁fand",
        -9.077702602519773
      ],
      [
        "▁System",
        -9.081445004177988
      ],
      [
        "▁allein",
        -9.083113466064502
      ],
      [
        "▁Medien",
        -9.083203762600661
      ],
      [
        "▁Heute",
        -9.08454155520188
      ],
      [
        "▁Raum",
        -9.084931762047836
      ],
      [
        "▁nutzen",
        -9.08564936840871
      ],
      [
        "▁2015",
        -9.086718838632432
      ],
      [
        "▁Hause",
        -9.087221333376291
      ],
      [
        "▁jedes",
        -9.087270848904891
      ],
      [
        "▁schöne",
        -9.088782020102629
      ],
      [
        "▁bevor",
        -9.089957179691684
      ],
      [
        "▁Unsere",
        -9.09083953213154
      ],
      [
        "▁Zimmer",
        -9.092240493366553
      ],
      [
        "▁völlig",
        -9.092538501241876
      ],
      [
        "at",
        -9.093489323559426
      ],
      [
        "]",
        -9.096843023789987
      ],
      [
        "▁Kontakt",
        -9.100236987841198
      ],
      [
        "▁E-Mail",
        -9.100867806790967
      ],
      [
        "▁Danke",
        -9.102293599199868
      ],
      [
        "▁tolle",
        -9.103704105582583
      ],
      [
        "▁Einsatz",
        -9.103985495285057
      ],
      [
        "▁August",
        -9.104849157922233
      ],
      [
        "▁Bad",
        -9.105552631832204
      ],
      [
        "▁April",
        -9.108303621351803
      ],
      [
        "▁groß",
        -9.110041179556703
      ],
      [
        "▁Herz",
        -9.111891271372622
      ],
      [
        "▁Warum",
        -9.113396270079548
      ],
      [
        "ig",
        -9.113672579908695
      ],
      [
        "▁Ob",
        -9.115248676389196
      ],
      [
        "▁fünf",
        -9.116301852429048
      ],
      [
        "▁Licht",
        -9.116338461620538
      ],
      [
        "▁Themen",
        -9.116876818097067
      ],
      [
        "▁Vergleich",
        -9.120745098264413
      ],
      [
        "▁2014",
        -9.121652150003353
      ],
      [
        "▁dessen",
        -9.121947894237955
      ],
      [
        "▁folgenden",
        -9.12237793655327
      ],
      [
        "▁trotzdem",
        -9.12349328571642
      ],
      [
        "▁mag",
        -9.124050943440697
      ],
      [
        "▁Vater",
        -9.124337085900711
      ],
      [
        "▁Alles",
        -9.124430493708646
      ],
      [
        "▁bald",
        -9.125315652236106
      ],
      [
        "▁Januar",
        -9.126490357579433
      ],
      [
        "innen",
        -9.127824238482255
      ],
      [
        "s-",
        -9.128544420309936
      ],
      [
        "▁Bis",
        -9.13124541405363
      ],
      [
        "▁Außerdem",
        -9.13272825371713
      ],
      [
        "▁scheint",
        -9.134332500204973
      ],
      [
        "▁voll",
        -9.135986615949566
      ],
      [
        "▁Schritt",
        -9.136344917930904
      ],
      [
        "▁Blog",
        -9.137763110519836
      ],
      [
        "▁Monate",
        -9.138325425897278
      ],
      [
        "sowohl",
        -9.142974498572466
      ],
      [
        "▁machen,",
        -9.144566838648425
      ],
      [
        "▁rein",
        -9.144705472710726
      ],
      [
        "▁liebe",
        -9.144811940716423
      ],
      [
        "▁nämlich",
        -9.150571927631303
      ],
      [
        "▁beste",
        -9.152328861354498
      ],
      [
        "▁Nähe",
        -9.152428445079305
      ],
      [
        "3",
        -9.152777886255302
      ],
      [
        "▁Programm",
        -9.15548736292743
      ],
      [
        "▁selber",
        -9.156151040417209
      ],
      [
        "»",
        -9.156229492761728
      ],
      [
        "▁Sinne",
        -9.157185193890431
      ],
      [
        "▁Mehr",
        -9.15738279837949
      ],
      [
        "▁handelt",
        -9.157934917630591
      ],
      [
        "▁einigen",
        -9.16020453484451
      ],
      [
        "▁anderes",
        -9.160788799779722
      ],
      [
        "▁Partner",
        -9.162020462736042
      ],
      [
        "▁damals",
        -9.163595336059338
      ],
      [
        "!!!",
        -9.16362868067165
      ],
      [
        "▁Sport",
        -9.165428981143116
      ],
      [
        "ich",
        -9.166068853291076
      ],
      [
        "▁Politik",
        -9.16633336641149
      ],
      [
        "▁Facebook",
        -9.168112856352908
      ],
      [
        "▁Erfahrungen",
        -9.171765948189746
      ],
      [
        "▁unbedingt",
        -9.172555960064471
      ],
      [
        "▁Landes",
        -9.172684648005031
      ],
      [
        "▁Kindern",
        -9.173510819978425
      ],
      [
        "▁zweiten",
        -9.174240841748137
      ],
      [
        "▁erfolgt",
        -9.17481762414779
      ],
      [
        "▁Gruppe",
        -9.176524453984447
      ],
      [
        "▁dürfen",
        -9.178509280362839
      ],
      [
        "▁Service",
        -9.179494576708832
      ],
      [
        "▁Unterstützung",
        -9.18033583447699
      ],
      [
        "▁[",
        -9.182597005391031
      ],
      [
        "▁darum",
        -9.18303933742162
      ],
      [
        "▁of",
        -9.18330760398344
      ],
      [
        "▁11",
        -9.184123941989792
      ],
      [
        "▁Sache",
        -9.184124096137666
      ],
      [
        "▁gesagt",
        -9.186562206008041
      ],
      [
        "▁Schutz",
        -9.186788204054393
      ],
      [
        "▁Angst",
        -9.18763341159552
      ],
      [
        "ter",
        -9.18927995354208
      ],
      [
        "▁Moment",
        -9.190542309246423
      ],
      [
        "land",
        -9.190639376071447
      ],
      [
        "▁früher",
        -9.190675898354186
      ],
      [
        "▁bisschen",
        -9.190918276205151
      ],
      [
        "▁Antwort",
        -9.191577984536583
      ],
      [
        "▁EU",
        -9.192432971492018
      ],
      [
        "▁U",
        -9.193875366570584
      ],
      [
        "ische",
        -9.194960099258484
      ],
      [
        "▁liegen",
        -9.195380357674537
      ],
      [
        "▁Fotos",
        -9.19645031568582
      ],
      [
        "igen",
        -9.197131568908102
      ],
      [
        "▁konnten",
        -9.200191804114256
      ],
      [
        "▁Natürlich",
        -9.201488516401216
      ],
      [
        "▁Sch",
        -9.201766879237493
      ],
      [
        "▁Sommer",
        -9.20229046380799
      ],
      [
        "is",
        -9.202314726400072
      ],
      [
        "▁Video",
        -9.203046741673536
      ],
      [
        "▁Vielen",
        -9.203907687033173
      ],
      [
        "▁zumindest",
        -9.20556386095692
      ],
      [
        "▁neues",
        -9.206189665056247
      ],
      [
        "ie",
        -9.20700931716635
      ],
      [
        "▁heraus",
        -9.208460384258998
      ],
      [
        "falls",
        -9.208559101873911
      ],
      [
        "▁Leistung",
        -9.210952007705577
      ],
      [
        "▁beispielsweise",
        -9.211101134091535
      ],
      [
        "▁13",
        -9.215324130359537
      ],
      [
        "▁Essen",
        -9.217893717224271
      ],
      [
        "▁Kultur",
        -9.218095121929553
      ],
      [
        "▁Suche",
        -9.218717602512942
      ],
      [
        "zeit",
        -9.219131503578149
      ],
      [
        "▁sah",
        -9.222976657702432
      ],
      [
        "aufgrund",
        -9.223154458279453
      ],
      [
        "▁Männer",
        -9.223615263808538
      ],
      [
        "▁führt",
        -9.223677280186141
      ],
      [
        "▁Z",
        -9.226754107644592
      ],
      [
        "▁welches",
        -9.22682793942895
      ],
      [
        "▁letzte",
        -9.227162153341872
      ],
      [
        "▁hohe",
        -9.227331292257322
      ],
      [
        "▁Allerdings",
        -9.23060119416568
      ],
      [
        "▁Deutschen",
        -9.230658967818709
      ],
      [
        "▁Un",
        -9.2310532687612
      ],
      [
        "▁25",
        -9.23106689990508
      ],
      [
        "▁Ergebnis",
        -9.231447589766237
      ],
      [
        "▁beide",
        -9.232082682563377
      ],
      [
        "▁gern",
        -9.232747308536432
      ],
      [
        "▁Monat",
        -9.234763906947055
      ],
      [
        "▁2013",
        -9.23498354127452
      ],
      [
        "gen",
        -9.23541289067791
      ],
      [
        "▁führen",
        -9.23638813721386
      ],
      [
        "ungen",
        -9.237060111707802
      ],
      [
        "▁Dazu",
        -9.237250048602823
      ],
      [
        "▁möchten",
        -9.23868823864381
      ],
      [
        "▁jeweilige",
        -9.238905261742769
      ],
      [
        "4",
        -9.239606609703873
      ],
      [
        "▁Neben",
        -9.239715101891672
      ],
      [
        "somit",
        -9.24150745650471
      ],
      [
        "'s",
        -9.241630085567554
      ],
      [
        "▁helfen",
        -9.246737173931242
      ],
      [
        "▁O",
        -9.247354300988675
      ],
      [
        "▁weiterhin",
        -9.247614824672159
      ],
      [
        "▁40",
        -9.248960874608319
      ],
      [
        "▁eure",
        -9.249256722416678
      ],
      [
        "▁Google",
        -9.251928952864105
      ],
      [
        "▁toll",
        -9.252726162675579
      ],
      [
        "mm",
        -9.255023563658638
      ],
      [
        "▁Richtung",
        -9.258583114112795
      ],
      [
        "▁Behandlung",
        -9.2587061241802
      ],
      [
        "▁Monaten",
        -9.259205964768345
      ],
      [
        "▁spielen",
        -9.259521745047302
      ],
      [
        "▁Re",
        -9.259789558566437
      ],
      [
        "▁nächste",
        -9.263680588661813
      ],
      [
        "▁lieber",
        -9.265643022463346
      ],
      [
        "ieren",
        -9.266486985061164
      ],
      [
        "▁Urlaub",
        -9.267304430271356
      ],
      [
        "▁Haupt",
        -9.267856455668262
      ],
      [
        "▁denke",
        -9.268111084228192
      ],
      [
        "▁Satz",
        -9.26981673943185
      ],
      [
        "▁gesehen",
        -9.270340804340625
      ],
      [
        "▁Schüler",
        -9.271008047471915
      ],
      [
        "▁nimmt",
        -9.271878245719783
      ],
      [
        "▁alten",
        -9.274806110002164
      ],
      [
        "keit",
        -9.275224832754823
      ],
      [
        "iert",
        -9.275303458514298
      ],
      [
        "▁Alter",
        -9.275936125026405
      ],
      [
        "▁wissen,",
        -9.276625071731301
      ],
      [
        "▁meist",
        -9.276935144234447
      ],
      [
        "▁statt",
        -9.279290102731752
      ],
      [
        "dadurch",
        -9.280633223938406
      ],
      [
        "▁vorher",
        -9.280793646498438
      ],
      [
        "▁Software",
        -9.2821150282468
      ],
      [
        "▁persönlich",
        -9.28227229671138
      ],
      [
        "▁Welche",
        -9.28295404647063
      ],
      [
        "▁GmbH",
        -9.283125784749874
      ],
      [
        "▁lesen",
        -9.28371663709501
      ],
      [
        "▁Na",
        -9.284405794543375
      ],
      [
        "▁Wohnung",
        -9.284508347043303
      ],
      [
        "▁Freude",
        -9.286818414551536
      ],
      [
        "▁Unser",
        -9.288823999809104
      ],
      [
        "▁Lösung",
        -9.289319293409216
      ],
      [
        "▁ab.",
        -9.289519858289154
      ],
      [
        "▁:)",
        -9.29206630704229
      ],
      [
        "▁kennen",
        -9.292143440783617
      ],
      [
        "▁soweit",
        -9.292972935376401
      ],
      [
        "▁danach",
        -9.293759998370934
      ],
      [
        "▁Ja",
        -9.294510886506558
      ],
      [
        "haus",
        -9.295536057480685
      ],
      [
        "▁freue",
        -9.298431482728144
      ],
      [
        "▁Zur",
        -9.299984635405842
      ],
      [
        "▁Sollte",
        -9.300644326656531
      ],
      [
        "▁Anspruch",
        -9.300892268547077
      ],
      [
        "▁Vertrag",
        -9.301989326995201
      ],
      [
        "▁Kraft",
        -9.303489731476626
      ],
      [
        "▁Rolle",
        -9.304024266352585
      ],
      [
        "▁entsprechend",
        -9.305120363198201
      ],
      [
        "▁Praxis",
        -9.305790231022037
      ],
      [
        "x",
        -9.305940570768797
      ],
      [
        "ischen",
        -9.306760504805203
      ],
      [
        "▁Dein",
        -9.308234001159601
      ],
      [
        "▁Besuch",
        -9.308507320815478
      ],
      [
        "▁Staat",
        -9.30858557962841
      ],
      [
        "▁Menge",
        -9.309749644989717
      ],
      [
        "▁halten",
        -9.310661404503795
      ],
      [
        "▁täglich",
        -9.312048445278357
      ],
      [
        "▁Auswahl",
        -9.313440853603975
      ],
      [
        "▁deutsche",
        -9.314270642818101
      ],
      [
        "▁stand",
        -9.31496312689268
      ],
      [
        "▁Fehler",
        -9.316834576156698
      ],
      [
        "▁schönen",
        -9.317159278141737
      ],
      [
        "▁Bank",
        -9.318761518362244
      ],
      [
        "▁verwendet",
        -9.319944683123111
      ],
      [
        "▁jeweils",
        -9.320236688853527
      ],
      [
        "▁(1)",
        -9.320876265446104
      ],
      [
        "▁Beginn",
        -9.322022154943834
      ],
      [
        "▁befindet",
        -9.322351361305694
      ],
      [
        "▁Patienten",
        -9.323562864556116
      ],
      [
        "▁Bundes",
        -9.3244652451246
      ],
      [
        "«",
        -9.325240932633026
      ],
      [
        "N",
        -9.325686399902196
      ],
      [
        "▁finden.",
        -9.326187831249213
      ],
      [
        "▁Polizei",
        -9.329555050593111
      ],
      [
        "▁Leider",
        -9.329795942601672
      ],
      [
        "▁Möglichkeiten",
        -9.330589183653945
      ],
      [
        "t,",
        -9.33092004644249
      ],
      [
        "▁bereit",
        -9.331299613286536
      ],
      [
        "▁Zeitpunkt",
        -9.331420290235707
      ],
      [
        "▁anderem",
        -9.332317047878998
      ],
      [
        "▁irgendwie",
        -9.332788333319373
      ],
      [
        "▁4.",
        -9.333205099205369
      ],
      [
        "ä",
        -9.333652769364724
      ],
      [
        "▁Kann",
        -9.334692313359215
      ],
      [
        "▁Luft",
        -9.336324937794599
      ],
      [
        "▁Punkt",
        -9.337159030830808
      ],
      [
        "▁Foto",
        -9.338521769131159
      ],
      [
        "▁gefunden",
        -9.338728438479794
      ],
      [
        "▁müssen.",
        -9.339949602173915
      ],
      [
        "▁Bürger",
        -9.341812329759101
      ],
      [
        "▁Kunst",
        -9.342430190353596
      ],
      [
        "▁obwohl",
        -9.343695703539066
      ],
      [
        "▁Text",
        -9.34380466710152
      ],
      [
        "▁Mittel",
        -9.349807156592744
      ],
      [
        "▁Kauf",
        -9.35058762587424
      ],
      [
        "▁Unternehmens",
        -9.35161708524031
      ],
      [
        "▁Idee",
        -9.35260520610441
      ],
      [
        "▁halt",
        -9.352632281000883
      ],
      [
        "▁manchmal",
        -9.352683317484978
      ],
      [
        "▁Sinn",
        -9.3527176221647
      ],
      [
        "▁sehe",
        -9.353609517044134
      ],
      [
        "▁2012",
        -9.35469183207776
      ],
      [
        "aus",
        -9.358243355898235
      ],
      [
        "▁24",
        -9.360404831532094
      ],
      [
        "▁wichtige",
        -9.36073421603463
      ],
      [
        "▁einzelnen",
        -9.362360836408874
      ],
      [
        "mal",
        -9.364947560832396
      ],
      [
        "di",
        -9.366071980423218
      ],
      [
        "▁Mir",
        -9.368222094450037
      ],
      [
        "▁Nutzer",
        -9.368367193159049
      ],
      [
        "▁statt.",
        -9.371235131819368
      ],
      [
        "▁aktuellen",
        -9.371546131136068
      ],
      [
        "▁Test",
        -9.371970398022711
      ],
      [
        "▁J",
        -9.372346578206926
      ],
      [
        "▁Kirche",
        -9.373571351037974
      ],
      [
        "mann",
        -9.374280137164849
      ],
      [
        "▁lernen",
        -9.374465512133318
      ],
      [
        "▁wünsche",
        -9.374891881925675
      ],
      [
        "▁fällt",
        -9.375356343655515
      ],
      [
        "am",
        -9.375942760957415
      ],
      [
        "bar",
        -9.376538311829643
      ],
      [
        "▁richtige",
        -9.377026607857685
      ],
      [
        "▁Ausbildung",
        -9.379467253917468
      ],
      [
        "▁@",
        -9.380413351081923
      ],
      [
        "▁Arzt",
        -9.380943086691566
      ],
      [
        "▁personenbezogen",
        -9.381649367272551
      ],
      [
        "▁Zusammenhang",
        -9.383484666978266
      ],
      [
        "▁folgende",
        -9.38387152352853
      ],
      [
        "▁de",
        -9.385781455472959
      ],
      [
        "▁Februar",
        -9.38588863709256
      ],
      [
        "▁komplett",
        -9.386209800585092
      ],
      [
        "▁Winter",
        -9.387164896633337
      ],
      [
        "▁Leistungen",
        -9.387375684460507
      ],
      [
        "▁häufig",
        -9.388374323517093
      ],
      [
        "▁solchen",
        -9.389974499461498
      ],
      [
        "▁regelmäßig",
        -9.390932396807033
      ],
      [
        "▁brauchen",
        -9.391929942143026
      ],
      [
        "▁Spieler",
        -9.39241359402897
      ],
      [
        "▁Deshalb",
        -9.39288999967473
      ],
      [
        "▁habe.",
        -9.3936309135841
      ],
      [
        "▁zunächst",
        -9.395552937634445
      ],
      [
        "▁Titel",
        -9.395556309408903
      ],
      [
        "▁insgesamt",
        -9.395926893655377
      ],
      [
        "▁Verbindung",
        -9.3961265614519
      ],
      [
        "’s",
        -9.397316823095526
      ],
      [
        "▁Sicht",
        -9.398683581149879
      ],
      [
        "▁Personal",
        -9.398790725212379
      ],
      [
        "▁Viel",
        -9.399745740362667
      ],
      [
        "▁ent",
        -9.40010727973298
      ],
      [
        "▁Beratung",
        -9.401200945853281
      ],
      [
        "▁erfahren",
        -9.401291120205952
      ],
      [
        "▁Maßnahmen",
        -9.4015331451282
      ],
      [
        "▁Wetter",
        -9.405589233654759
      ],
      [
        "▁Ruhe",
        -9.405767659758414
      ],
      [
        "berg",
        -9.40578422755059
      ],
      [
        "▁jederzeit",
        -9.407056243374722
      ],
      [
        "bau",
        -9.409028011671499
      ],
      [
        "▁gewesen",
        -9.409189553084941
      ],
      [
        "▁Fällen",
        -9.410148503313241
      ],
      [
        "▁bringt",
        -9.411030602393348
      ],
      [
        "▁Garten",
        -9.411428833684038
      ],
      [
        "▁Während",
        -9.411667076893595
      ],
      [
        "▁Schweiz",
        -9.41223611825281
      ],
      [
        "▁tut",
        -9.413047371557663
      ],
      [
        "▁glaube",
        -9.413190042466933
      ],
      [
        "▁Tipps",
        -9.413830210137306
      ],
      [
        "dem",
        -9.414325324591086
      ],
      [
        "▁alt",
        -9.414995506510447
      ],
      [
        "▁Macht",
        -9.415289614437008
      ],
      [
        "▁darin",
        -9.415388090693193
      ],
      [
        "▁Folge",
        -9.41613647054649
      ],
      [
        "▁einzige",
        -9.418543534541808
      ],
      [
        "▁welcher",
        -9.419346608915522
      ],
      [
        "▁habt",
        -9.419800474291403
      ],
      [
        "Sehr",
        -9.420335703217571
      ],
      [
        "▁absolut",
        -9.420429095053493
      ],
      [
        "▁Wirtschaft",
        -9.42065926827842
      ],
      [
        "▁Sonntag",
        -9.421366739599364
      ],
      [
        "▁setzen",
        -9.42165877563748
      ],
      [
        "▁durchaus",
        -9.422461361398991
      ],
      [
        "▁60",
        -9.422520491661567
      ],
      [
        "liche",
        -9.42339642898494
      ],
      [
        "▁anderer",
        -9.423539971337721
      ],
      [
        "🙂",
        -9.42370522145405
      ],
      [
        "▁wahrscheinlich",
        -9.424176091715474
      ],
      [
        "▁vorbei",
        -9.425045124093055
      ],
      [
        "▁selten",
        -9.425730461295137
      ],
      [
        "▁Tod",
        -9.426800964917156
      ],
      [
        "(",
        -9.428653677229356
      ],
      [
        "▁Start",
        -9.430818239804413
      ],
      [
        "▁möglichst",
        -9.430947835593464
      ],
      [
        "▁Wissen",
        -9.432117065100496
      ],
      [
        "▁Je",
        -9.432235070796597
      ],
      [
        "▁alte",
        -9.43448242742915
      ],
      [
        "▁Band",
        -9.435608123002613
      ],
      [
        "▁Mädchen",
        -9.436432617920588
      ],
      [
        "▁sehen,",
        -9.436729849065685
      ],
      [
        "▁Gemeinde",
        -9.43743209929205
      ],
      [
        "los",
        -9.438639874654337
      ],
      [
        "dass",
        -9.439091550186415
      ],
      [
        "▁bringen",
        -9.439469346986765
      ],
      [
        "wobei",
        -9.440326799968455
      ],
      [
        "▁Erst",
        -9.442620426056106
      ],
      [
        "▁persönlichen",
        -9.442835481183126
      ],
      [
        "it",
        -9.443300573156208
      ],
      [
        "▁gelten",
        -9.443347777707036
      ],
      [
        "▁B.",
        -9.44360255697105
      ],
      [
        "▁Aufgaben",
        -9.444847539928443
      ],
      [
        "▁Link",
        -9.446628023515785
      ],
      [
        "?“",
        -9.448346950023643
      ],
      [
        "ü",
        -9.450666128512191
      ],
      [
        "▁Absatz",
        -9.451348631510285
      ],
      [
        "▁raus",
        -9.451592005230195
      ],
      [
        "▁junge",
        -9.451869078949631
      ],
      [
        "▁Stück",
        -9.454030608771905
      ],
      [
        "▁funktioniert",
        -9.45455903580119
      ],
      [
        "ar",
        -9.454781536028054
      ],
      [
        "▁genommen",
        -9.454990717998172
      ],
      [
        "▁Sachen",
        -9.455355827767495
      ],
      [
        "▁niemand",
        -9.456065298002384
      ],
      [
        "▁Morgen",
        -9.456492617541715
      ],
      [
        "▁langsam",
        -9.456890641165538
      ],
      [
        "▁hätten",
        -9.459489999050707
      ],
      [
        "▁gleichen",
        -9.459593777111333
      ],
      [
        "▁Universität",
        -9.460641812309618
      ],
      [
        "▁Straße",
        -9.461029783007483
      ],
      [
        "▁beginnt",
        -9.461467199230539
      ],
      [
        "▁erklärt",
        -9.461519771613276
      ],
      [
        "▁geben.",
        -9.46174690804207
      ],
      [
        "▁schließlich",
        -9.462650501918642
      ],
      [
        "ia",
        -9.46371197847906
      ],
      [
        "▁Schul",
        -9.46455027956942
      ],
      [
        "ierung",
        -9.4652538397489
      ],
      [
        "▁erfolgreich",
        -9.46637459605165
      ],
      [
        "▁läuft",
        -9.468589313450355
      ],
      [
        "▁b",
        -9.469204077992876
      ],
      [
        "▁Freund",
        -9.46996409173325
      ],
      [
        "▁gestellt",
        -9.47034460286688
      ],
      [
        "▁Jeder",
        -9.47063297381794
      ],
      [
        "▁Wunsch",
        -9.471159988906031
      ],
      [
        "▁Jugend",
        -9.471384895037188
      ],
      [
        "▁Neu",
        -9.471934324492164
      ],
      [
        "▁Art.",
        -9.472229431221354
      ],
      [
        "▁muß",
        -9.473483893725106
      ],
      [
        "▁Stunde",
        -9.474014449708207
      ],
      [
        "▁gleichzeitig",
        -9.474043312437647
      ],
      [
        "▁gehören",
        -9.474754404604962
      ],
      [
        "isch",
        -9.47598442102354
      ],
      [
        "▁Verein",
        -9.477552149584604
      ],
      [
        "▁Ländern",
        -9.479010226486654
      ],
      [
        "▁Regierung",
        -9.479194610766994
      ],
      [
        "stand",
        -9.48012273434912
      ],
      [
        "▁Partei",
        -9.48122773956715
      ],
      [
        "▁suchen",
        -9.482220897212141
      ],
      [
        "R",
        -9.483518496718245
      ],
      [
        "▁kommen.",
        -9.484191879028605
      ],
      [
        "▁Zahl",
        -9.484311467553132
      ],
      [
        "▁bewusst",
        -9.485908787526427
      ],
      [
        "ke",
        -9.487847631072274
      ],
      [
        "▁Zusammenarbeit",
        -9.488230099163282
      ],
      [
        "▁Freitag",
        -9.488740284923807
      ],
      [
        "5",
        -9.489515653501925
      ],
      [
        "▁App",
        -9.489677116714677
      ],
      [
        "▁Jesus",
        -9.490147824020264
      ],
      [
        "▁wurde,",
        -9.490207319309231
      ],
      [
        "▁Druck",
        -9.490912458894915
      ],
      [
        "▁Verfahren",
        -9.491115062101361
      ],
      [
        "▁hatte.",
        -9.4915672634931
      ],
      [
        "▁Liste",
        -9.491697119169274
      ],
      [
        "▁hilft",
        -9.492085352419672
      ],
      [
        "▁früh",
        -9.492246937528918
      ],
      [
        "▁mittlerweile",
        -9.493058363358577
      ],
      [
        "▁Bedeutung",
        -9.494730054912772
      ],
      [
        "▁2011",
        -9.495528935069473
      ],
      [
        "▁Verarbeitung",
        -9.495865405995099
      ],
      [
        "ein",
        -9.4960023897901
      ],
      [
        "▁Gruppen",
        -9.496545185561919
      ],
      [
        "▁Erde",
        -9.496845141647832
      ],
      [
        "Daher",
        -9.498608697299858
      ],
      [
        "▁Rechts",
        -9.498753914319817
      ],
      [
        "▁bestimmte",
        -9.499048715822033
      ],
      [
        "▁könnten",
        -9.499510360938121
      ],
      [
        "▁denken",
        -9.4995702360216
      ],
      [
        "!!",
        -9.500198006833006
      ],
      [
        "or",
        -9.50120739872035
      ],
      [
        "▁Dort",
        -9.501512750841187
      ],
      [
        "▁Bücher",
        -9.502472372591647
      ],
      [
        "▁Sonne",
        -9.50255523703468
      ],
      [
        "▁Wochenende",
        -9.503087328718117
      ],
      [
        "▁ständig",
        -9.503881621924794
      ],
      [
        "▁Post",
        -9.504373438309756
      ],
      [
        "▁Tages",
        -9.50474745194363
      ],
      [
        "▁könnt",
        -9.505561295278856
      ],
      [
        "▁schlecht",
        -9.5056911789809
      ],
      [
        "▁Reihe",
        -9.506004113214448
      ],
      [
        "vergangenen",
        -9.506378810804566
      ],
      [
        "▁ebenso",
        -9.506443698861169
      ],
      [
        "▁Aufgabe",
        -9.506595938909417
      ],
      [
        "▁Menschen,",
        -9.509575894473105
      ],
      [
        "▁www.",
        -9.509661261999561
      ],
      [
        "▁Webseite",
        -9.509992882137976
      ],
      [
        "▁Möglichkeit,",
        -9.5112416190202
      ],
      [
        "▁genauso",
        -9.511532793347463
      ],
      [
        "▁München",
        -9.512169236365619
      ],
      [
        "▁habe,",
        -9.512238144263295
      ],
      [
        "▁Freunde",
        -9.512281607111703
      ],
      [
        "▁zusätzlich",
        -9.512720323160679
      ],
      [
        "▁Mitglied",
        -9.512892238336462
      ],
      [
        "▁Chance",
        -9.513955015566072
      ],
      [
        "▁Umwelt",
        -9.515561798622773
      ],
      [
        "im",
        -9.51593643388578
      ],
      [
        "▁Kampf",
        -9.51888655637353
      ],
      [
        "▁deiner",
        -9.51933414002665
      ],
      [
        "▁Boden",
        -9.520913469148535
      ],
      [
        "▁nachdem",
        -9.521301439342839
      ],
      [
        "▁total",
        -9.521399143301686
      ],
      [
        "T",
        -9.521573376396214
      ],
      [
        "▁lieben",
        -9.524248394477173
      ],
      [
        "▁gemäß",
        -9.524708628965582
      ],
      [
        "▁gut.",
        -9.525167015948458
      ],
      [
        "▁Teilnehmer",
        -9.525396973515717
      ],
      [
        "▁hohen",
        -9.525506031925364
      ],
      [
        "▁ausschließlich",
        -9.52608691226138
      ],
      [
        "da",
        -9.52699831309325
      ],
      [
        "▁Krieg",
        -9.529040103346471
      ],
      [
        "▁Saison",
        -9.530690255763359
      ],
      [
        "ation",
        -9.530857629316818
      ],
      [
        "ra",
        -9.530857917862296
      ],
      [
        "’",
        -9.530879297298876
      ],
      [
        "▁zufrieden",
        -9.530932019155617
      ],
      [
        "G",
        -9.531042127255905
      ],
      [
        "▁Weitere",
        -9.531566062583835
      ],
      [
        "▁zeigen",
        -9.53158781868294
      ],
      [
        "▁Datenschutz",
        -9.53165247851893
      ],
      [
        "▁Haut",
        -9.531811959574682
      ],
      [
        "▁Ideen",
        -9.532981042642811
      ],
      [
        "▁fahren",
        -9.533530705481452
      ],
      [
        "▁hatte,",
        -9.533959136094907
      ],
      [
        "▁Inhalte",
        -9.534010279471623
      ],
      [
        "▁danke",
        -9.534885947619397
      ],
      [
        "▁Punkte",
        -9.535708571058912
      ],
      [
        "▁richtigen",
        -9.536846909522126
      ],
      [
        "▁Gäste",
        -9.536988209063821
      ],
      [
        "▁Samstag",
        -9.537428461522332
      ],
      [
        "▁gegeben",
        -9.53797062346704
      ],
      [
        "▁knapp",
        -9.538954225292962
      ],
      [
        "▁Anwendung",
        -9.539377650584925
      ],
      [
        "▁„Ich",
        -9.540201747981108
      ],
      [
        "man",
        -9.540786550823015
      ],
      [
        "▁Ganz",
        -9.541015845497938
      ],
      [
        "▁•",
        -9.542406330504797
      ],
      [
        "▁sechs",
        -9.542705096364479
      ],
      [
        "▁19",
        -9.542827131638969
      ],
      [
        "▁aktiv",
        -9.542993653267065
      ],
      [
        "verständlich",
        -9.543403780782587
      ],
      [
        "▁bestimmten",
        -9.545134714638914
      ],
      [
        "▁öffentlichen",
        -9.54560959236435
      ],
      [
        "▁Termin",
        -9.549411401030294
      ],
      [
        "▁Deutsche",
        -9.549457084354053
      ],
      [
        "▁Gottes",
        -9.550167900037195
      ],
      [
        "▁gutes",
        -9.551878486458577
      ],
      [
        "▁gemacht.",
        -9.551977752003435
      ],
      [
        "▁zehn",
        -9.552005074209909
      ],
      [
        "▁wann",
        -9.552137067849596
      ],
      [
        "▁spielt",
        -9.552765573687111
      ],
      [
        "▁Stand",
        -9.553898775430127
      ],
      [
        "▁kleiner",
        -9.55461006447906
      ],
      [
        "▁Tür",
        -9.555492639643846
      ],
      [
        "bald",
        -9.555530527666694
      ],
      [
        "▁keiner",
        -9.555695050072043
      ],
      [
        "▁Sohn",
        -9.55677661174578
      ],
      [
        "Zudem",
        -9.559017108759402
      ],
      [
        "▁weltweit",
        -9.559920480113146
      ],
      [
        "▁Fach",
        -9.560822864751312
      ],
      [
        "▁bekommt",
        -9.561425299684688
      ],
      [
        "▁zweite",
        -9.561454507891767
      ],
      [
        "▁Veranstaltung",
        -9.562002489379438
      ],
      [
        "▁Kurs",
        -9.562488973393206
      ],
      [
        "▁Angaben",
        -9.563954113580529
      ],
      [
        "▁los",
        -9.564281591003517
      ],
      [
        "▁alleine",
        -9.564617868979525
      ],
      [
        "▁Firma",
        -9.565552901315254
      ],
      [
        "▁offen",
        -9.56643047628744
      ],
      [
        "▁entfernt",
        -9.566458803412608
      ],
      [
        "▁Basis",
        -9.567306768724173
      ],
      [
        "▁genannten",
        -9.567310163375055
      ],
      [
        "▁Herausforderung",
        -9.567419832371506
      ],
      [
        "▁Mitte",
        -9.567508118126705
      ],
      [
        "▁wirst",
        -9.568558163526836
      ],
      [
        "▁See",
        -9.568962993626542
      ],
      [
        "▁geworden",
        -9.56985688304691
      ],
      [
        "▁teilweise",
        -9.569983816763784
      ],
      [
        "▁online",
        -9.571343514059853
      ],
      [
        "▁Stellen",
        -9.57217730867612
      ],
      [
        "un",
        -9.573350291119384
      ],
      [
        "▁'",
        -9.573503300460018
      ],
      [
        "hand",
        -9.574158491842049
      ],
      [
        "▁erster",
        -9.5743811608443
      ],
      [
        "arbeit",
        -9.574501444169478
      ],
      [
        "▁Telefon",
        -9.57662334517019
      ],
      [
        "▁2010",
        -9.576809652481835
      ],
      [
        "▁setzt",
        -9.57820667815583
      ],
      [
        "▁derzeit",
        -9.579725019495076
      ],
      [
        "▁dennoch",
        -9.580137943409945
      ],
      [
        "▁Forum",
        -9.58032332143094
      ],
      [
        "▁Pro",
        -9.580337823667069
      ],
      [
        "▁Gesamt",
        -9.580401458809792
      ],
      [
        "recht",
        -9.580638542088778
      ],
      [
        "▁treffen",
        -9.58109329777064
      ],
      [
        "▁km",
        -9.582549163625817
      ],
      [
        "schutz",
        -9.583118565756259
      ],
      [
        "▁Schon",
        -9.583287792409955
      ],
      [
        "!“",
        -9.58397599011035
      ],
      [
        "▁Gegen",
        -9.584067811393322
      ],
      [
        "▁21",
        -9.584684049737252
      ],
      [
        "▁(2)",
        -9.58503246749727
      ],
      [
        "weg",
        -9.585584831439013
      ],
      [
        "▁laut",
        -9.58597796916387
      ],
      [
        "▁5.",
        -9.586127928780915
      ],
      [
        "▁Inhalt",
        -9.586681175184726
      ],
      [
        "▁Herzen",
        -9.587158741206519
      ],
      [
        "au",
        -9.58837575832195
      ],
      [
        "end",
        -9.589167718905003
      ],
      [
        "▁Tier",
        -9.589215019757539
      ],
      [
        "▁Arbeits",
        -9.589684161514109
      ],
      [
        "▁nochmal",
        -9.590341436083367
      ],
      [
        "▁Bett",
        -9.590434872573471
      ],
      [
        "▁ja,",
        -9.591155770687624
      ],
      [
        "▁weiß,",
        -9.592307950010365
      ],
      [
        "▁Version",
        -9.595026409074606
      ],
      [
        "▁Bericht",
        -9.595589601154527
      ],
      [
        "▁Dass",
        -9.595995038084812
      ],
      [
        "▁glauben",
        -9.597284519336416
      ],
      [
        "▁Hamburg",
        -9.59777632509574
      ],
      [
        "▁wollen.",
        -9.59788059024045
      ],
      [
        "▁wünschen",
        -9.599762029757425
      ],
      [
        "zahl",
        -9.600231758069977
      ],
      [
        "▁entwickelt",
        -9.600987502892833
      ],
      [
        "▁wenige",
        -9.600998256889469
      ],
      [
        "▁mache",
        -9.601673717925204
      ],
      [
        "platz",
        -9.601851443927245
      ],
      [
        "▁Gründen",
        -9.602625266319336
      ],
      [
        "B",
        -9.603218092163166
      ],
      [
        "heit",
        -9.603327754555272
      ],
      [
        "A",
        -9.603952212292823
      ],
      [
        "▁Bezug",
        -9.604238234307285
      ],
      [
        "▁spricht",
        -9.604563408342788
      ],
      [
        "▁dagegen",
        -9.60490969276357
      ],
      [
        "ma",
        -9.606042520524095
      ],
      [
        "▁Region",
        -9.606125710562107
      ],
      [
        "stets",
        -9.606890688856183
      ],
      [
        "▁Flug",
        -9.607166899979326
      ],
      [
        "▁Pflege",
        -9.607901063528638
      ],
      [
        "▁Gespräch",
        -9.608032965647087
      ],
      [
        "▁Ergebnisse",
        -9.608377075577394
      ],
      [
        "▁Dauer",
        -9.609312844949155
      ],
      [
        "▁etc.",
        -9.609763991134587
      ],
      [
        "▁Verantwortung",
        -9.610566218722003
      ],
      [
        "▁erreicht",
        -9.611622895097188
      ],
      [
        "v",
        -9.612006172174791
      ],
      [
        "▁trotz",
        -9.612044513740479
      ],
      [
        "▁Tochter",
        -9.61215753585235
      ],
      [
        "▁gestern",
        -9.612158624228549
      ],
      [
        "▁falsch",
        -9.612831653332194
      ],
      [
        "▁Länder",
        -9.612919969197836
      ],
      [
        "▁Nord",
        -9.613268254158708
      ],
      [
        "heim",
        -9.613476609182376
      ],
      [
        "▁erreichen",
        -9.613724037915958
      ],
      [
        "▁gehen.",
        -9.61398259586577
      ],
      [
        "▁Beim",
        -9.616018687544585
      ],
      [
        "▁entscheiden",
        -9.616061575170415
      ],
      [
        "▁Weil",
        -9.61615793621506
      ],
      [
        "deinem",
        -9.616537344336994
      ],
      [
        "▁Begriff",
        -9.617606323632987
      ],
      [
        "▁Computer",
        -9.617838395704599
      ],
      [
        "▁hält",
        -9.618537929440025
      ],
      [
        "▁genutzt",
        -9.619830518280512
      ],
      [
        "▁Netz",
        -9.61988641260211
      ],
      [
        "spiel",
        -9.620620951762966
      ],
      [
        "▁sehen.",
        -9.62178489589267
      ],
      [
        "ler",
        -9.621834167131958
      ],
      [
        "weder",
        -9.621865862869647
      ],
      [
        "indem",
        -9.622025841576331
      ],
      [
        "▁herzlich",
        -9.62247181512825
      ],
      [
        "▁wurden.",
        -9.622513150054797
      ],
      [
        "▁perfekt",
        -9.622573819146027
      ],
      [
        "▁sprechen",
        -9.623253992756931
      ],
      [
        "▁bekommen.",
        -9.624554934124408
      ],
      [
        "▁Bevölkerung",
        -9.625311391414986
      ],
      [
        "▁Marketing",
        -9.625430340992251
      ],
      [
        "▁Diskussion",
        -9.625760763399166
      ],
      [
        "j",
        -9.626091463802066
      ],
      [
        "▁Gerät",
        -9.62727261540256
      ],
      [
        "▁gut,",
        -9.628549429621213
      ],
      [
        "▁2009",
        -9.628987965657581
      ],
      [
        "▁Kunde",
        -9.629775425668184
      ],
      [
        "▁Wald",
        -9.629936228332664
      ],
      [
        "▁hoffe",
        -9.630232701797059
      ],
      [
        "▁Sprache",
        -9.630967263284461
      ],
      [
        "▁möglich.",
        -9.63142041455916
      ],
      [
        "▁wollen,",
        -9.631559114311196
      ],
      [
        "▁inzwischen",
        -9.631605993155995
      ],
      [
        "Nachdem",
        -9.63163884566226
      ],
      [
        "▁Hund",
        -9.632536461608023
      ],
      [
        "lediglich",
        -9.633474077604326
      ],
      [
        "grund",
        -9.634118749229602
      ],
      [
        "E",
        -9.635064218326354
      ],
      [
        "▁Rechte",
        -9.635082063069941
      ],
      [
        "▁[...]",
        -9.635311630624187
      ],
      [
        "*",
        -9.636330631625794
      ],
      [
        "▁Abschluss",
        -9.636491266274534
      ],
      [
        "▁schaffen",
        -9.637357474338197
      ],
      [
        "▁Geschäfts",
        -9.637399875828425
      ],
      [
        "▁morgen",
        -9.638015031544139
      ],
      [
        "ad",
        -9.638858039288762
      ],
      [
        "▁Falls",
        -9.64080116051857
      ],
      [
        "▁Betrieb",
        -9.641104465176976
      ],
      [
        "▁entsprechende",
        -9.641815997734792
      ],
      [
        "▁Windows",
        -9.642211489715898
      ],
      [
        "▁Verwendung",
        -9.642213922526263
      ],
      [
        "▁Gefahr",
        -9.642253990661363
      ],
      [
        "▁Wahrheit",
        -9.643250020375628
      ],
      [
        "to",
        -9.643556695088915
      ],
      [
        "▁automatisch",
        -9.644385517330303
      ],
      [
        "▁Hat",
        -9.644708381358726
      ],
      [
        "▁Noch",
        -9.645659723565194
      ],
      [
        "▁unten",
        -9.646022071287959
      ],
      [
        "M",
        -9.64604250098676
      ],
      [
        "▁Zeit,",
        -9.647291017622951
      ],
      [
        "▁Besucher",
        -9.648643234632605
      ],
      [
        "bereich",
        -9.649068710201057
      ],
      [
        "ige",
        -9.649372309922022
      ],
      [
        "▁ähnlich",
        -9.649927030943452
      ],
      [
        "▁notwendig",
        -9.650118986196428
      ],
      [
        "▁lassen,",
        -9.650959390246499
      ],
      [
        "▁Gewalt",
        -9.651153494077722
      ],
      [
        "6",
        -9.652512716441638
      ],
      [
        "▁jene",
        -9.652836739272917
      ],
      [
        "▁unterstützen",
        -9.652898342339245
      ],
      [
        "versicherung",
        -9.653067529550807
      ],
      [
        "ö",
        -9.653338512629604
      ],
      [
        "art",
        -9.653936148741447
      ],
      [
        "▁Gesundheit",
        -9.654083976933546
      ],
      [
        "▁22",
        -9.654583686761011
      ],
      [
        "tag",
        -9.65510369104033
      ],
      [
        "▁relativ",
        -9.656769131413732
      ],
      [
        "▁musst",
        -9.657123706974888
      ],
      [
        "▁tragen",
        -9.658735460028275
      ],
      [
        "▁6.",
        -9.658993470166507
      ],
      [
        "▁Web",
        -9.659948901864897
      ],
      [
        "_",
        -9.660523918438745
      ],
      [
        "▁Wege",
        -9.660553640753792
      ],
      [
        "▁näher",
        -9.660829984809723
      ],
      [
        "wissenschaftlich",
        -9.661356641150043
      ],
      [
        "▁tun,",
        -9.661408370720867
      ],
      [
        "▁Job",
        -9.66282210254213
      ],
      [
        "▁Österreich",
        -9.663039867617028
      ],
      [
        "Ich",
        -9.663044242998117
      ],
      [
        "▁Antrag",
        -9.663044610391427
      ],
      [
        "▁x",
        -9.663777318086662
      ],
      [
        "▁unterstützt",
        -9.664138939536034
      ],
      [
        "▁verwenden",
        -9.664278617787431
      ],
      [
        "▁neuer",
        -9.66509280394246
      ],
      [
        "▁Preise",
        -9.66519601099375
      ],
      [
        "il",
        -9.665667774949409
      ],
      [
        "schaft",
        -9.666682434313099
      ],
      [
        "▁Gründe",
        -9.666885637636772
      ],
      [
        "▁Steuer",
        -9.6670100267663
      ],
      [
        "▁findest",
        -9.667669550057125
      ],
      [
        "ende",
        -9.667719287398095
      ],
      [
        "▁wichtigsten",
        -9.669393362699063
      ],
      [
        "▁Lust",
        -9.669942087233808
      ],
      [
        "EN",
        -9.671443380992578
      ],
      [
        "▁Fenster",
        -9.671524995567182
      ],
      [
        "as",
        -9.673601847959276
      ],
      [
        "▁Interessen",
        -9.674876292283273
      ],
      [
        "▁Rest",
        -9.676344442521733
      ],
      [
        "▁gefällt",
        -9.676423732597643
      ],
      [
        "▁Name",
        -9.677196535621004
      ],
      [
        "▁Spiele",
        -9.677650932188818
      ],
      [
        "▁Ent",
        -9.678289884033024
      ],
      [
        "▁Größe",
        -9.679086642398442
      ],
      [
        "▁Risiko",
        -9.67947843902822
      ],
      [
        "▁Montag",
        -9.67958058621115
      ],
      [
        "▁geben,",
        -9.67992604735598
      ],
      [
        "buch",
        -9.680400748917537
      ],
      [
        "ta",
        -9.680667431177213
      ],
      [
        "▁Organisation",
        -9.683320076811814
      ],
      [
        "▁passiert",
        -9.683643961301843
      ],
      [
        "▁geschrieben",
        -9.684087065847732
      ],
      [
        "▁Dafür",
        -9.684564403053724
      ],
      [
        "▁Gesetz",
        -9.685258520710333
      ],
      [
        "▁Studien",
        -9.685720432937108
      ],
      [
        "▁Klasse",
        -9.685757968186202
      ],
      [
        "▁Blut",
        -9.686033183265089
      ],
      [
        "ismus",
        -9.686200677859901
      ],
      [
        "▁überall",
        -9.687447396669134
      ],
      [
        "▁will,",
        -9.687813614238914
      ],
      [
        "ka",
        -9.687823857295186
      ],
      [
        "▁2006",
        -9.688495918638491
      ],
      [
        "▁soll.",
        -9.689013462323867
      ],
      [
        "😉",
        -9.68939868294386
      ],
      [
        "▁seines",
        -9.689753182984289
      ],
      [
        "▁20.",
        -9.691677895884615
      ],
      [
        "▁Anbieter",
        -9.693295165782008
      ],
      [
        "▁Zeichen",
        -9.693622310030364
      ],
      [
        "▁Bar",
        -9.694190369275692
      ],
      [
        "▁Frankfurt",
        -9.695996681388086
      ],
      [
        "▁De",
        -9.696165043598203
      ],
      [
        "▁verstehen",
        -9.699322075573368
      ],
      [
        "auf",
        -9.69946103199032
      ],
      [
        "▁Kommentar",
        -9.699779386346043
      ],
      [
        "ik",
        -9.700067684109122
      ],
      [
        "H",
        -9.700091993276725
      ],
      [
        "▁Design",
        -9.700756891750057
      ],
      [
        "▁übrigens",
        -9.701579335013587
      ],
      [
        "▁kenne",
        -9.701732703125815
      ],
      [
        "▁Gericht",
        -9.701773723843218
      ],
      [
        "bild",
        -9.702787401765477
      ],
      [
        "▁Gute",
        -9.703431734055663
      ],
      [
        "▁cm",
        -9.70362891727941
      ],
      [
        "▁*",
        -9.703854595364625
      ],
      [
        "▁Bildung",
        -9.704029250414154
      ],
      [
        "▁muss.",
        -9.704963900589345
      ],
      [
        "▁reicht",
        -9.704984590867738
      ],
      [
        "▁ändern",
        -9.705401927258698
      ],
      [
        "▁Strand",
        -9.705864051781017
      ],
      [
        "▁aktuelle",
        -9.706025875347379
      ],
      [
        "▁Zwei",
        -9.707125642569654
      ],
      [
        "▁Beziehung",
        -9.707575073191316
      ],
      [
        "▁Küche",
        -9.70762206828381
      ],
      [
        "▁Technik",
        -9.708533331912765
      ],
      [
        "▁guter",
        -9.7090811690905
      ],
      [
        "▁glücklich",
        -9.709568609680861
      ],
      [
        "▁würde.",
        -9.71008038651302
      ],
      [
        "▁Tisch",
        -9.710156232350187
      ],
      [
        "▁Kommunikation",
        -9.710169975873818
      ],
      [
        "▁gefallen",
        -9.71064429920661
      ],
      [
        "▁gelesen",
        -9.710687185470768
      ],
      [
        "▁Ziele",
        -9.710700640986106
      ],
      [
        "▁zahlreiche",
        -9.711941714938202
      ],
      [
        "▁Worte",
        -9.712058418506416
      ],
      [
        "ster",
        -9.712150994833454
      ],
      [
        "os",
        -9.712186564708183
      ],
      [
        "▁2008",
        -9.712416027314292
      ],
      [
        "▁machte",
        -9.712451123618912
      ],
      [
        "▁Zeiten",
        -9.712787227053576
      ],
      [
        ".«",
        -9.713668850415235
      ],
      [
        "▁Hallo",
        -9.714051644237268
      ],
      [
        "▁warten",
        -9.71587533989539
      ],
      [
        "▁Co",
        -9.71726619160122
      ],
      [
        "▁Anforderungen",
        -9.718232138254352
      ],
      [
        "▁Zweck",
        -9.718668260970695
      ],
      [
        "▁außer",
        -9.719217969700898
      ],
      [
        "▁egal",
        -9.720398096017142
      ],
      [
        "▁New",
        -9.721208572566393
      ],
      [
        "▁Bin",
        -9.72247958095534
      ],
      [
        "▁Kurz",
        -9.722589427471341
      ],
      [
        "▁Anzahl",
        -9.722658970691812
      ],
      [
        "nach",
        -9.722908151763058
      ],
      [
        "▁verloren",
        -9.723292138088372
      ],
      [
        "▁Planung",
        -9.723505910557648
      ],
      [
        "▁X",
        -9.723642197862205
      ],
      [
        "▁usw.",
        -9.72453972347578
      ],
      [
        "▁Vergangenheit",
        -9.724714754918907
      ],
      [
        "▁schneller",
        -9.725360910783383
      ],
      [
        "▁Opfer",
        -9.725893520226775
      ],
      [
        "▁Angebote",
        -9.727101928303433
      ],
      [
        "▁7.",
        -9.727326523394925
      ],
      [
        "▁Waren",
        -9.727577514151543
      ],
      [
        "▁verpflichtet",
        -9.727956278365014
      ],
      [
        "▁erwartet",
        -9.728630022695835
      ],
      [
        "▁kamen",
        -9.729031595888447
      ],
      [
        "▁Meer",
        -9.729371806818111
      ],
      [
        "▁Strom",
        -9.731876922042103
      ],
      [
        "▁grundsätzlich",
        -9.733972642553269
      ],
      [
        "▁wichtig,",
        -9.73518810282458
      ],
      [
        "sofern",
        -9.73566509066449
      ],
      [
        "▁kaufen",
        -9.736069242137216
      ],
      [
        "ion",
        -9.736641452299931
      ],
      [
        "▁tun.",
        -9.737241620480294
      ],
      [
        "▁Staaten",
        -9.738010462456575
      ],
      [
        "▁zuletzt",
        -9.73838102131797
      ],
      [
        "▁erneut",
        -9.738672061424332
      ],
      [
        "7",
        -9.7389398425804
      ],
      [
        "▁Plan",
        -9.739153926049532
      ],
      [
        "▁interessant",
        -9.739227946345853
      ],
      [
        "▁unterwegs",
        -9.739505888136527
      ],
      [
        "▁Dienst",
        -9.739818903105999
      ],
      [
        "▁„Die",
        -9.740063272219956
      ],
      [
        "▁Grundlage",
        -9.740536875962112
      ],
      [
        "▁schreiben",
        -9.740604737425507
      ],
      [
        "▁erwarten",
        -9.74085429761514
      ],
      [
        "30",
        -9.741159882879241
      ],
      [
        "W",
        -9.742966136050672
      ],
      [
        "▁Meter",
        -9.743525288298011
      ],
      [
        "▁geeignet",
        -9.744423047606816
      ],
      [
        "▁Umgang",
        -9.744625015867648
      ],
      [
        "▁Bedingungen",
        -9.744741869204613
      ],
      [
        "▁Firmen",
        -9.745253337369736
      ],
      [
        "-S",
        -9.745318911341815
      ],
      [
        "!\"",
        -9.745671973231289
      ],
      [
        "▁gekommen",
        -9.74598438541166
      ],
      [
        "▁Zeitraum",
        -9.746960236033466
      ],
      [
        "V",
        -9.747531217073437
      ],
      [
        "▁Rat",
        -9.74795552289633
      ],
      [
        "▁Eindruck",
        -9.748166861861058
      ],
      [
        "▁plötzlich",
        -9.74848055167531
      ],
      [
        "▁Leser",
        -9.75002487561651
      ],
      [
        "▁verbunden",
        -9.75104242545672
      ],
      [
        "▁Tat",
        -9.751826899856127
      ],
      [
        "▁erklären",
        -9.752587857013664
      ],
      [
        "▁sicherlich",
        -9.754399420508388
      ],
      [
        "▁gehe",
        -9.75484067311281
      ],
      [
        "▁Umgebung",
        -9.755808108183711
      ],
      [
        "▁19.",
        -9.75587559181819
      ],
      [
        "▁gebracht",
        -9.757259612956293
      ],
      [
        "▁enthalten",
        -9.757698532603992
      ],
      [
        "▁welchen",
        -9.757777602200349
      ],
      [
        "ro",
        -9.757896348380655
      ],
      [
        "▁erforderlich",
        -9.757934068767216
      ],
      [
        "▁Gelegenheit",
        -9.758038325893875
      ],
      [
        "▁Himmel",
        -9.758207573900577
      ],
      [
        "▁kennt",
        -9.758563575059515
      ],
      [
        "....",
        -9.758741343472781
      ],
      [
        "ier",
        -9.75948267358029
      ],
      [
        "he",
        -9.76128732458308
      ],
      [
        "▁ruhig",
        -9.761356104067524
      ],
      [
        "stadt",
        -9.761773001975783
      ],
      [
        "▁wären",
        -9.762726380414543
      ],
      [
        "▁Freundin",
        -9.763186411089752
      ],
      [
        "▁Grenzen",
        -9.763978990632268
      ],
      [
        "▁fertig",
        -9.76421647700373
      ],
      [
        "▁Tiere",
        -9.764410677360143
      ],
      [
        "feld",
        -9.764828093553751
      ],
      [
        "▁St.",
        -9.764971182607386
      ],
      [
        "▁Einige",
        -9.765225124777846
      ],
      [
        "▁Seine",
        -9.76662305860823
      ],
      [
        "▁seien",
        -9.766773337168269
      ],
      [
        "▁versucht",
        -9.767216128342643
      ],
      [
        "▁größte",
        -9.769110332213367
      ],
      [
        "▁Modell",
        -9.77007765175027
      ],
      [
        "▁Traum",
        -9.770090265839102
      ],
      [
        "▁Zugang",
        -9.77029706494222
      ],
      [
        "▁passt",
        -9.770659745196124
      ],
      [
        "▁(B",
        -9.771867608423232
      ],
      [
        "▁11.",
        -9.77189736091607
      ],
      [
        "▁Holz",
        -9.772598070012053
      ],
      [
        "▁wichtiger",
        -9.772761390651981
      ],
      [
        "▁interessiert",
        -9.773741409063303
      ],
      [
        "▁Freiheit",
        -9.774269191373723
      ],
      [
        "▁jungen",
        -9.77443189387844
      ],
      [
        "▁wusste",
        -9.774505553444055
      ],
      [
        "▁Gerade",
        -9.774513716007215
      ],
      [
        "ti",
        -9.774750767043269
      ],
      [
        "▁laufen",
        -9.774797005513427
      ],
      [
        "enden",
        -9.775436287543984
      ],
      [
        "▁Volk",
        -9.775920098301762
      ],
      [
        "▁2007",
        -9.776425872376208
      ],
      [
        "▁dachte",
        -9.777237177374117
      ],
      [
        "▁Wirkung",
        -9.777259459786622
      ],
      [
        "th",
        -9.777484015275007
      ],
      [
        "▁Dem",
        -9.77805138279005
      ],
      [
        "form",
        -9.778522897221887
      ],
      [
        "markt",
        -9.778759350923021
      ],
      [
        "▁Material",
        -9.778790071049274
      ],
      [
        "▁größer",
        -9.780819461279467
      ],
      [
        "▁wenigen",
        -9.780820370742193
      ],
      [
        "▁worden.",
        -9.781760315042952
      ],
      [
        "▁Ausland",
        -9.782573279994295
      ],
      [
        "▁Prüfung",
        -9.782584707638982
      ],
      [
        "▁Bewegung",
        -9.78397697560344
      ],
      [
        "▁zurück.",
        -9.784217222698404
      ],
      [
        "▁Gesicht",
        -9.785905845221269
      ],
      [
        "▁müsste",
        -9.78591973256086
      ],
      [
        "D",
        -9.786685868859264
      ],
      [
        "▁Vorteil",
        -9.786992762852208
      ],
      [
        "▁Insel",
        -9.789050471769247
      ],
      [
        "▁gesagt,",
        -9.789278030995744
      ],
      [
        "▁verlassen",
        -9.789732720672749
      ],
      [
        "▁solltest",
        -9.790041553708935
      ],
      [
        "▁10.",
        -9.791422249403636
      ],
      [
        "▁ehrlich",
        -9.792727460258195
      ],
      [
        "▁0",
        -9.792939719069071
      ],
      [
        "▁politische",
        -9.793217859775702
      ],
      [
        "▁Hintergrund",
        -9.793377459168099
      ],
      [
        "▁herum",
        -9.793595241073817
      ],
      [
        "K",
        -9.794246322431333
      ],
      [
        "▁folgt",
        -9.795767770855598
      ],
      [
        "▁9.",
        -9.796993259928929
      ],
      [
        "▁Unterschied",
        -9.797591730134815
      ],
      [
        "▁besondere",
        -9.797716736864922
      ],
      [
        "▁nötig",
        -9.797743110603331
      ],
      [
        "▁Folgen",
        -9.798129676265322
      ],
      [
        "▁Industrie",
        -9.798833345749372
      ],
      [
        "die",
        -9.799049531627423
      ],
      [
        "großer",
        -9.80081099222308
      ],
      [
        "▁Funktion",
        -9.801836208266922
      ],
      [
        "▁miteinander",
        -9.802354320465724
      ],
      [
        "▁18.",
        -9.803400552097143
      ],
      [
        "▁15.",
        -9.803509961536513
      ],
      [
        "▁La",
        -9.80369987958992
      ],
      [
        "▁Darüber",
        -9.803722074440927
      ],
      [
        "▁Arbeitgeber",
        -9.804609137399096
      ],
      [
        "stelle",
        -9.806288541964092
      ],
      [
        "▁zuvor",
        -9.807164283329648
      ],
      [
        "▁200",
        -9.808350185974003
      ],
      [
        "▁komme",
        -9.80859624606326
      ],
      [
        "▁gleiche",
        -9.80859697470854
      ],
      [
        "▁vergessen",
        -9.808664075822794
      ],
      [
        "vor",
        -9.808889079960519
      ],
      [
        "▁Herrn",
        -9.809240182194959
      ],
      [
        "ul",
        -9.809299656252007
      ],
      [
        "ach",
        -9.810072243717514
      ],
      [
        "▁Verfügung.",
        -9.810158033250538
      ],
      [
        "▁nehmen.",
        -9.810629150128715
      ],
      [
        "▁Studie",
        -9.811405233169538
      ],
      [
        "▁Ihres",
        -9.8117689912097
      ],
      [
        "▁Wind",
        -9.812202292430968
      ],
      [
        "▁Kollegen",
        -9.812264660164878
      ],
      [
        "system",
        -9.812960120394594
      ],
      [
        "▁(und",
        -9.813535908765193
      ],
      [
        "▁Geist",
        -9.81375919679499
      ],
      [
        "▁Schluss",
        -9.813825161968524
      ],
      [
        "▁außerdem",
        -9.81387492545353
      ],
      [
        "▁Frage,",
        -9.813894342736265
      ],
      [
        "▁Handy",
        -9.81406267760514
      ],
      [
        "▁80",
        -9.814108537574654
      ],
      [
        "▁Fest",
        -9.814131681752063
      ],
      [
        "go",
        -9.814613333074558
      ],
      [
        "▁Aktion",
        -9.814652640053662
      ],
      [
        "▁irgendwann",
        -9.815105103223399
      ],
      [
        "▁David",
        -9.815130703863975
      ],
      [
        "▁größten",
        -9.815582882053548
      ],
      [
        "▁21.",
        -9.815799002624173
      ],
      [
        "▁Werk",
        -9.816034331104941
      ],
      [
        "▁z.",
        -9.81613041948641
      ],
      [
        "▁90",
        -9.816538780170628
      ],
      [
        "li",
        -9.81781176539366
      ],
      [
        "▁Lehrer",
        -9.818008638136014
      ],
      [
        "ir",
        -9.818301137268188
      ],
      [
        "▁:-)",
        -9.819237010101546
      ],
      [
        "▁Alltag",
        -9.819329185195384
      ],
      [
        "▁Habe",
        -9.819780096962077
      ],
      [
        "▁Beiträge",
        -9.820257362507956
      ],
      [
        "▁PC",
        -9.820347731347614
      ],
      [
        "▁sozialen",
        -9.820823309327066
      ],
      [
        "9",
        -9.821141963329664
      ],
      [
        "▁12.",
        -9.822049732542675
      ],
      [
        "-K",
        -9.823751017823595
      ],
      [
        "▁Top",
        -9.824045185838674
      ],
      [
        "her",
        -9.825135542066597
      ],
      [
        "zudem",
        -9.825333091797035
      ],
      [
        "▁lag",
        -9.825684280180347
      ],
      [
        "▁daran,",
        -9.827426423297812
      ],
      [
        "▁23",
        -9.828833847961912
      ],
      [
        "▁politischen",
        -9.830267435871255
      ],
      [
        "▁Kaffee",
        -9.831227921675392
      ],
      [
        "▁Sozial",
        -9.83226839953228
      ],
      [
        "▁14.",
        -9.832826822116434
      ],
      [
        "▁8.",
        -9.832869132996818
      ],
      [
        "straße",
        -9.833224268011886
      ],
      [
        "):",
        -9.83336985512797
      ],
      [
        "▁erzählt",
        -9.83361507440111
      ],
      [
        "▁spät",
        -9.83369070138616
      ],
      [
        "▁f",
        -9.833696361844787
      ],
      [
        "ja",
        -9.83417575431002
      ],
      [
        "▁Bereichen",
        -9.834977033224085
      ],
      [
        "‘",
        -9.835093309195265
      ],
      [
        "▁schwierig",
        -9.835271209615946
      ],
      [
        "▁empfehlen",
        -9.835754576932384
      ],
      [
        "▁Frankreich",
        -9.836002846711288
      ],
      [
        "▁Gast",
        -9.836549155913424
      ],
      [
        "▁entschieden",
        -9.836653740720138
      ],
      [
        "▁Hersteller",
        -9.837133549700138
      ],
      [
        "▁Nummer",
        -9.837191740813875
      ],
      [
        "0",
        -9.837404066868661
      ],
      [
        "▁War",
        -9.83760388342916
      ],
      [
        "▁Verhalten",
        -9.837881231889716
      ],
      [
        "▁sorgen",
        -9.837899126566446
      ],
      [
        "↑",
        -9.839146302467011
      ],
      [
        "▁begann",
        -9.839364713306185
      ],
      [
        "▁Berg",
        -9.840182169833794
      ],
      [
        "▁_",
        -9.843685614572713
      ],
      [
        "▁erstellt",
        -9.843975078961346
      ],
      [
        "19",
        -9.844075432508072
      ],
      [
        "▁beachten",
        -9.844800504403384
      ],
      [
        "▁Super",
        -9.845179444043751
      ],
      [
        "▁Sein",
        -9.845577401064034
      ],
      [
        "▁erhalten.",
        -9.846014285853752
      ],
      [
        "▁Büro",
        -9.846640780011036
      ],
      [
        "des",
        -9.847620042688895
      ],
      [
        "8",
        -9.847708555137086
      ],
      [
        "▁angeboten",
        -9.847872140481092
      ],
      [
        "▁persönliche",
        -9.84812157234926
      ],
      [
        "pe",
        -9.848399720061936
      ],
      [
        "ha",
        -9.848900929707774
      ],
      [
        "▁Straßen",
        -9.849907731071905
      ],
      [
        "▁13.",
        -9.850126839375708
      ],
      [
        "▁besonderen",
        -9.850437026803764
      ],
      [
        "▁\"Die",
        -9.850961391087303
      ],
      [
        "-B",
        -9.851260043945835
      ],
      [
        "▁Gewinn",
        -9.851624723994231
      ],
      [
        "▁Finanz",
        -9.851717733810542
      ],
      [
        "▁Köln",
        -9.852275958050956
      ],
      [
        "▁Wirtschafts",
        -9.852967125088304
      ],
      [
        "▁vorhanden",
        -9.853273850000942
      ],
      [
        "▁iPhone",
        -9.853443369845508
      ],
      [
        "▁Einfluss",
        -9.853509114990999
      ],
      [
        "weise",
        -9.853512044811804
      ],
      [
        "▁daraus",
        -9.853687328254853
      ],
      [
        "▁Nein,",
        -9.85394509529262
      ],
      [
        "▁Stimme",
        -9.854022576317552
      ],
      [
        "son",
        -9.854129675908073
      ],
      [
        "▁drauf",
        -9.855074574641773
      ],
      [
        "versammlung",
        -9.855139220358556
      ],
      [
        "▁Bedarf",
        -9.855504057829815
      ],
      [
        "▁Besonders",
        -9.856503890263973
      ],
      [
        "▁ziehen",
        -9.857319228404455
      ],
      [
        "▁aktuell",
        -9.857599142590079
      ],
      [
        "▁extrem",
        -9.857886947381747
      ],
      [
        "▁einiges",
        -9.858125337029708
      ],
      [
        "▁China",
        -9.859909501226484
      ],
      [
        "▁>",
        -9.860062981123578
      ],
      [
        "▁Gebäude",
        -9.86031007223192
      ],
      [
        "▁Rechnung",
        -9.860607476844322
      ],
      [
        "▁Standard",
        -9.861274250266092
      ],
      [
        "▁Falle",
        -9.861847726798683
      ],
      [
        "▁Fuß",
        -9.862223425496673
      ],
      [
        "ber",
        -9.86266611685263
      ],
      [
        "▁Umsetzung",
        -9.863197203387582
      ],
      [
        "▁Nachrichten",
        -9.863293397487709
      ],
      [
        "werk",
        -9.86357546197177
      ],
      [
        "▁Verbraucher",
        -9.863885295656228
      ],
      [
        "▁(z.B.",
        -9.864473615651693
      ],
      [
        "▁Projekte",
        -9.865144004108249
      ],
      [
        "▁ernst",
        -9.865149398535458
      ],
      [
        "▁kostenlos",
        -9.865707081273623
      ],
      [
        "▁Ordnung",
        -9.866202730769952
      ],
      [
        "▁Produktion",
        -9.866271362712874
      ],
      [
        "▁heutigen",
        -9.867367568663202
      ],
      [
        "10",
        -9.86793086421776
      ],
      [
        "zi",
        -9.868374252130156
      ],
      [
        "▁ausreichend",
        -9.868570089377368
      ],
      [
        "▁Kilometer",
        -9.869287081984208
      ],
      [
        "▁Hälfte",
        -9.869337277014305
      ],
      [
        "▁wählen",
        -9.869461871658606
      ],
      [
        "▁Stein",
        -9.869663297057102
      ],
      [
        "▁rechts",
        -9.869999880057563
      ],
      [
        "leben",
        -9.870349876446546
      ],
      [
        "▁17.",
        -9.870584152100873
      ],
      [
        "▁Beruf",
        -9.871703709505525
      ],
      [
        "▁Zustand",
        -9.871734292767496
      ],
      [
        "▁Urteil",
        -9.87178920388719
      ],
      [
        "▁fallen",
        -9.87214078637134
      ],
      [
        "▁Forschung",
        -9.872524971893153
      ],
      [
        "kommenden",
        -9.872791624266629
      ],
      [
        "F",
        -9.872974916649973
      ],
      [
        "▁Deutsch",
        -9.873043243665741
      ],
      [
        "▁höher",
        -9.873447374114424
      ],
      [
        "▁befinden",
        -9.87384167177552
      ],
      [
        "Westerwald",
        -9.874228740888498
      ],
      [
        "▁Peter",
        -9.87439600605057
      ],
      [
        "▁kurze",
        -9.874429438309358
      ],
      [
        "▁gedacht",
        -9.874598608309553
      ],
      [
        "▁entwickeln",
        -9.874614125119445
      ],
      [
        "▁entweder",
        -9.875733803683797
      ],
      [
        "▁erkennen",
        -9.87625020285141
      ],
      [
        "▁Freunden",
        -9.876930398950398
      ],
      [
        "▁Prozess",
        -9.8772542082881
      ],
      [
        "▁Tour",
        -9.878058929588152
      ],
      [
        "▁meines",
        -9.878677514851255
      ],
      [
        "welt",
        -9.880008922974815
      ],
      [
        "▁National",
        -9.880082063769976
      ],
      [
        "▁gewinnen",
        -9.880119211324605
      ],
      [
        "00",
        -9.88025166653345
      ],
      [
        "▁internationalen",
        -9.88047663341137
      ],
      [
        "lichen",
        -9.88086002166842
      ],
      [
        "▁Bestellung",
        -9.8819212514754
      ],
      [
        "▁sinnvoll",
        -9.882713998248509
      ],
      [
        "▁Apple",
        -9.883105629165705
      ],
      [
        "▁jedenfalls",
        -9.883255025387692
      ],
      [
        "P",
        -9.884230520601449
      ],
      [
        "▁Rede",
        -9.88439625429227
      ],
      [
        "▁Ober",
        -9.884923309183822
      ],
      [
        "▁Öffentlichkeit",
        -9.886906609284136
      ],
      [
        "▁bringen.",
        -9.887046268205204
      ],
      [
        "bei",
        -9.887071604287229
      ],
      [
        "▁hören",
        -9.88719043221709
      ],
      [
        "▁Hunde",
        -9.887249260925206
      ],
      [
        "▁klar,",
        -9.889299230514434
      ],
      [
        "▁fehlt",
        -9.88943976583369
      ],
      [
        "stellen",
        -9.889704134763665
      ],
      [
        "▁16.",
        -9.890602533877018
      ],
      [
        "durchschnittlich",
        -9.891162549039269
      ],
      [
        "▁Hoch",
        -9.89148283238487
      ],
      [
        "lage",
        -9.892482858267996
      ],
      [
        "▁Wien",
        -9.892724586614026
      ],
      [
        "▁Linie",
        -9.892753595280247
      ],
      [
        "▁dauert",
        -9.892819182414467
      ],
      [
        "C",
        -9.892869531880422
      ],
      [
        "raum",
        -9.893398469640033
      ],
      [
        "▁einzelne",
        -9.89343306216129
      ],
      [
        "▁Werbung",
        -9.894463699509178
      ],
      [
        "▁beträgt",
        -9.895466870190708
      ],
      [
        "kosten",
        -9.896094979532485
      ],
      [
        "▁müssen,",
        -9.896313369950953
      ],
      [
        "▁Park",
        -9.896464469280941
      ],
      [
        "▁geht.",
        -9.896717142707594
      ],
      [
        "ff",
        -9.897701658194437
      ],
      [
        "▁Hoffnung",
        -9.89844281216427
      ],
      [
        "▁ermöglicht",
        -9.898589095875847
      ],
      [
        "▁kleines",
        -9.898740421213152
      ],
      [
        "▁praktisch",
        -9.899321833834245
      ],
      [
        "▁seid",
        -9.901253881857286
      ],
      [
        "▁Geschenk",
        -9.901685475459214
      ],
      [
        "▁berechtigt",
        -9.901707128571578
      ],
      [
        "▁70",
        -9.901984674095687
      ],
      [
        "▁Zeitung",
        -9.902253328198661
      ],
      [
        "stein",
        -9.902514487456635
      ],
      [
        "▁Geschäft",
        -9.903484110614404
      ],
      [
        "▁konnte.",
        -9.905104586336954
      ],
      [
        "gl.",
        -9.90529192196743
      ],
      [
        "▁Cookies",
        -9.906163943686622
      ],
      [
        "▁Milliarden",
        -9.906874955124653
      ],
      [
        "▁Michael",
        -9.90710717307115
      ],
      [
        "L",
        -9.907920051954731
      ],
      [
        "als",
        -9.907930012675894
      ],
      [
        "ei",
        -9.908853255560356
      ],
      [
        "▁The",
        -9.908929463960954
      ],
      [
        "▁Gut",
        -9.909155617250509
      ],
      [
        "▁Kritik",
        -9.910229703728511
      ],
      [
        "bach",
        -9.910322395991283
      ],
      [
        "▁Hotels",
        -9.910632012331654
      ],
      [
        "elters",
        -9.910936390692246
      ],
      [
        "▁Grad",
        -9.911413071300045
      ],
      [
        "▁AG",
        -9.912176056801407
      ],
      [
        "▁Gold",
        -9.91346415410454
      ],
      [
        "▁SPD",
        -9.913578682861417
      ],
      [
        "▁2000",
        -9.913687593946683
      ],
      [
        "zen",
        -9.914252695596545
      ],
      [
        "▁verfügt",
        -9.914577944873002
      ],
      [
        "▁Kredit",
        -9.914833677305914
      ],
      [
        "▁Information",
        -9.914983836350592
      ],
      [
        "▁getan",
        -9.915407740954208
      ],
      [
        "Dieses",
        -9.91742913221456
      ],
      [
        "▁Werte",
        -9.918264790920823
      ],
      [
        "▁Auftrag",
        -9.918412693963294
      ],
      [
        "▁Hinweis",
        -9.91961188280984
      ],
      [
        "▁Al",
        -9.919714292487223
      ],
      [
        "▁gesund",
        -9.920235602993873
      ],
      [
        "wert",
        -9.921489317610988
      ],
      [
        "▁könnte.",
        -9.921688718151422
      ],
      [
        "▁Sitz",
        -9.922337252862818
      ],
      [
        "▁Keine",
        -9.922678829777878
      ],
      [
        "wie",
        -9.9227372722757
      ],
      [
        "▁Infos",
        -9.92332117671627
      ],
      [
        "▁Mail",
        -9.924072516419205
      ],
      [
        "▁informieren",
        -9.925021331885656
      ],
      [
        "▁legen",
        -9.925199399199897
      ],
      [
        "▁Teilnahme",
        -9.925383480299706
      ],
      [
        "▁Schlaf",
        -9.926049776491425
      ],
      [
        "ß",
        -9.926165309083522
      ],
      [
        "Z",
        -9.926574633785744
      ],
      [
        "▁ließ",
        -9.92758887723804
      ],
      [
        "▁durchgeführt",
        -9.927673638837597
      ],
      [
        "ton",
        -9.928168331769427
      ],
      [
        "▁dürfte",
        -9.928536241279312
      ],
      [
        "▁eingesetzt",
        -9.928724347975312
      ],
      [
        "▁Versuch",
        -9.929559641069261
      ],
      [
        "▁Kamera",
        -9.929939797767288
      ],
      [
        "@",
        -9.930354545579764
      ],
      [
        "▁Monats",
        -9.931263795615251
      ],
      [
        "▁Änderungen",
        -9.932445001915887
      ],
      [
        "▁weiter.",
        -9.933081346105329
      ],
      [
        "▁Homepage",
        -9.933344637897578
      ],
      [
        "▁lohnt",
        -9.933379100577358
      ],
      [
        "▁wirkt",
        -9.933648381715788
      ],
      [
        "seite",
        -9.933838151794108
      ],
      [
        "▁Seele",
        -9.9339922972353
      ],
      [
        "▁Tätigkeit",
        -9.934534835084326
      ],
      [
        "▁kostet",
        -9.935576688189887
      ],
      [
        "plan",
        -9.93595921214035
      ],
      [
        "ut",
        -9.935998373942457
      ],
      [
        "▁Anlage",
        -9.93644776052211
      ],
      [
        "mit",
        -9.937102838904687
      ],
      [
        "▁mehreren",
        -9.937275319245096
      ],
      [
        "▁klein",
        -9.937662587426207
      ],
      [
        "▁gibt.",
        -9.937760187836869
      ],
      [
        "▁\"Ich",
        -9.938088325854125
      ],
      [
        "▁(§",
        -9.93814838223246
      ],
      [
        "O",
        -9.938854184525788
      ],
      [
        "▁sch",
        -9.939632160141262
      ],
      [
        "▁Grüße",
        -9.940680015219083
      ],
      [
        "▁voller",
        -9.940833436552536
      ],
      [
        "▁gespannt",
        -9.94097621507293
      ],
      [
        "druck",
        -9.941852466611111
      ],
      [
        "▁hört",
        -9.942104871096195
      ],
      [
        "▁Teile",
        -9.942157343069734
      ],
      [
        "▁Neue",
        -9.94235702913587
      ],
      [
        "▁nahe",
        -9.942651234312596
      ],
      [
        "▁manche",
        -9.942823448804118
      ],
      [
        "▁Details",
        -9.942950591359097
      ],
      [
        "mi",
        -9.94313475341902
      ],
      [
        "▁Tor",
        -9.943522833334466
      ],
      [
        "20",
        -9.943721351623557
      ],
      [
        "▁niemals",
        -9.943983196264771
      ],
      [
        "▁TV",
        -9.944380031011368
      ],
      [
        "▁k",
        -9.945366893029352
      ],
      [
        "▁Geräte",
        -9.945787690134027
      ],
      [
        "▁Fahrt",
        -9.946283982802576
      ],
      [
        "▁fühlt",
        -9.946408843422976
      ],
      [
        "▁Haben",
        -9.946551086207766
      ],
      [
        "▁vermutlich",
        -9.947553049109104
      ],
      [
        "▁Zahlen",
        -9.947716439416126
      ],
      [
        "▁Karte",
        -9.947951540314929
      ],
      [
        "▁Fußball",
        -9.949351174352493
      ],
      [
        "▁the",
        -9.949478566887505
      ],
      [
        "▁Arbeitnehmer",
        -9.949704353517838
      ],
      [
        "▁Karten",
        -9.949965019651763
      ],
      [
        "▁angezeigt",
        -9.950573691092579
      ],
      [
        "▁Links",
        -9.950656013972855
      ],
      [
        "▁erleben",
        -9.951599852692606
      ],
      [
        "▁Groß",
        -9.952008140864558
      ],
      [
        "▁Frühstück",
        -9.95214492298889
      ],
      [
        "▁gezeigt",
        -9.952372887017548
      ],
      [
        "▁versuchen",
        -9.952624756006635
      ],
      [
        "▁gemacht,",
        -9.952787513500745
      ],
      [
        "▁Informations",
        -9.953175671379928
      ],
      [
        "Gibt",
        -9.953267930460582
      ],
      [
        "▁Obwohl",
        -9.95397902128645
      ],
      [
        "▁Aussage",
        -9.95508423763437
      ],
      [
        "▁Immer",
        -9.955490352232111
      ],
      [
        "la",
        -9.955495905546462
      ],
      [
        "▁stimmt",
        -9.956329522436175
      ],
      [
        "▁nahm",
        -9.956329773151035
      ],
      [
        "▁Bayern",
        -9.956379406396998
      ],
      [
        "nd",
        -9.956471895445109
      ],
      [
        "▁welchem",
        -9.956626322060544
      ],
      [
        "▁Voraussetzungen",
        -9.95680376553911
      ],
      [
        "▁Einzel",
        -9.956906520099405
      ],
      [
        "▁erfüllt",
        -9.957899108351718
      ],
      [
        "▁unabhängig",
        -9.95814151176248
      ],
      [
        "rat",
        -9.958260310311278
      ],
      [
        "▁Arbeiten",
        -9.958944982738185
      ],
      [
        "gang",
        -9.959322249513328
      ],
      [
        "entwicklung",
        -9.959370748644501
      ],
      [
        "▁außerhalb",
        -9.961983435059462
      ],
      [
        "▁Heimat",
        -9.963165949152865
      ],
      [
        "▁veröffentlicht",
        -9.963495140248313
      ],
      [
        "▁Fahrzeug",
        -9.963534537192599
      ],
      [
        "▁Anmeldung",
        -9.96522240944014
      ],
      [
        "▁ermöglichen",
        -9.965243428186
      ],
      [
        "ger",
        -9.965886917661422
      ],
      [
        "▁verstanden",
        -9.966633706333653
      ],
      [
        "▁Ach",
        -9.967370184317723
      ],
      [
        "▁Zug",
        -9.96776328887719
      ],
      [
        "är",
        -9.967782398140441
      ],
      [
        "▁Konzept",
        -9.969142343041954
      ],
      [
        "▁geändert",
        -9.96955924866336
      ],
      [
        "▁Vereins",
        -9.970642202641658
      ],
      [
        "preis",
        -9.971763909008077
      ],
      [
        "▁Experten",
        -9.97178690594447
      ],
      [
        "▁Antworten",
        -9.97246112363295
      ],
      [
        "▁mehr.",
        -9.972830200589229
      ],
      [
        "▁Änderung",
        -9.972993789513694
      ],
      [
        "▁Wissenschaft",
        -9.97332758172525
      ],
      [
        "▁sicher,",
        -9.973373138737124
      ],
      [
        "▁gibt,",
        -9.97338188544273
      ],
      [
        "▁Sicherheits",
        -9.973477135055568
      ],
      [
        "▁Wünsche",
        -9.973501906259859
      ],
      [
        "für",
        -9.973668024186502
      ],
      [
        "▁kommen,",
        -9.974268344872051
      ],
      [
        "Dienstleistungen",
        -9.974325486704819
      ],
      [
        "▁Klima",
        -9.975248998519167
      ],
      [
        "von",
        -9.975276891789882
      ],
      [
        "▁Einen",
        -9.97556407679229
      ],
      [
        "▁arbeitet",
        -9.975982828026734
      ],
      [
        "▁Studium",
        -9.976166414246537
      ],
      [
        "-T",
        -9.976278416269448
      ],
      [
        "-F",
        -9.976450600632724
      ],
      [
        "▁größere",
        -9.976489026892569
      ],
      [
        "▁dahin",
        -9.976620029718816
      ],
      [
        "?\"",
        -9.977210116788928
      ],
      [
        "▁Farben",
        -9.977970786011044
      ],
      [
        "▁trägt",
        -9.97857206557443
      ],
      [
        "▁zuerst",
        -9.978736419758471
      ],
      [
        "▁Training",
        -9.979406994303682
      ],
      [
        "▁nett",
        -9.979474591441651
      ],
      [
        "▁lebt",
        -9.979498255188949
      ],
      [
        "▁wollten",
        -9.979653089357393
      ],
      [
        "▁erstmal",
        -9.98024934293463
      ],
      [
        "ko",
        -9.980263358847962
      ],
      [
        "burg",
        -9.980590439473167
      ],
      [
        "▁500",
        -9.980590859116937
      ],
      [
        "Europäischen",
        -9.980637928431728
      ],
      [
        "▁Bewertung",
        -9.98076735076872
      ],
      [
        "▁überzeugt",
        -9.981038008049703
      ],
      [
        "▁;-)",
        -9.981849625780757
      ],
      [
        "▁Parteien",
        -9.983269599396387
      ],
      [
        "▁Hände",
        -9.983600749940681
      ],
      [
        "▁Funktionen",
        -9.983882766041585
      ],
      [
        "▁Ton",
        -9.984894818241333
      ],
      [
        "▁Sind",
        -9.984922561971047
      ],
      [
        "▁wunderbar",
        -9.985258302965816
      ],
      [
        "▁Überblick",
        -9.985266266577042
      ],
      [
        "▁hängt",
        -9.986093512019515
      ],
      [
        "▁Kreis",
        -9.98623932764786
      ],
      [
        "▁Förderung",
        -9.98670293567957
      ],
      [
        "▁Mittwoch",
        -9.98672853229668
      ],
      [
        "▁Eure",
        -9.986970966487583
      ],
      [
        "lo",
        -9.987051126426959
      ],
      [
        "▁Auge",
        -9.990084287751266
      ],
      [
        "▁Lesen",
        -9.99027518163537
      ],
      [
        "▁Regeln",
        -9.990283332746326
      ],
      [
        "▁Smartphone",
        -9.990723473987263
      ],
      [
        "gruppe",
        -9.990765183515702
      ],
      [
        "▁Wein",
        -9.991186251224448
      ],
      [
        "▁Vertrauen",
        -9.992453031791884
      ],
      [
        "ly",
        -9.993871474903539
      ],
      [
        "▁positiv",
        -9.99408325670473
      ],
      [
        "▁Geburtstag",
        -9.994176633969733
      ],
      [
        "▁essen",
        -9.994454914918155
      ],
      [
        "ert",
        -9.994714737080953
      ],
      [
        "▁Bestimmungen",
        -9.994815364736777
      ],
      [
        "▁Bus",
        -9.995405265488689
      ],
      [
        "▁anschließend",
        -9.995560537605616
      ],
      [
        "▁Zentrum",
        -9.995902359372874
      ],
      [
        "▁Stiftung",
        -9.996439661801475
      ],
      [
        "ine",
        -9.997361418949541
      ],
      [
        "▁Danach",
        -9.997654052298245
      ],
      [
        "fest",
        -9.997712340700126
      ],
      [
        "▁Presse",
        -9.998149135161064
      ],
      [
        "▁;)",
        -9.998234564079567
      ],
      [
        "▁Verständnis",
        -9.99854900571503
      ],
      [
        "▁28",
        -9.998751036135195
      ],
      [
        "▁weiss",
        -9.99877518741064
      ],
      [
        "▁achten",
        -9.99889015275979
      ],
      [
        "▁Feld",
        -9.99908287186738
      ],
      [
        "▁Weiter",
        -9.999139263133674
      ],
      [
        "▁schriftlich",
        -9.999637868855318
      ],
      [
        "▁Aufenthalt",
        -9.999645144708115
      ],
      [
        "▁stellen.",
        -9.999787126070476
      ],
      [
        "▁35",
        -10.000175019309953
      ],
      [
        "▁enthält",
        -10.000175642200393
      ],
      [
        "▁Kommentare",
        -10.00082775268734
      ],
      [
        "▁Ohne",
        -10.00189017472562
      ],
      [
        "▁Aktivitäten",
        -10.001991949867781
      ],
      [
        "▁(3)",
        -10.002833591372081
      ],
      [
        "▁zusätzliche",
        -10.003254660886613
      ],
      [
        "▁gespeichert",
        -10.003264689482247
      ],
      [
        "▁Vorstand",
        -10.003327415772167
      ],
      [
        "▁+",
        -10.003725741818222
      ],
      [
        "50",
        -10.003948258584387
      ],
      [
        "▁nehme",
        -10.004034754994255
      ],
      [
        "▁ab,",
        -10.004618109575777
      ],
      [
        "hilfe",
        -10.004618304351252
      ],
      [
        "fall",
        -10.005168410203268
      ],
      [
        "▁benötigt",
        -10.005601513913646
      ],
      [
        "▁freut",
        -10.005910470787796
      ],
      [
        "▁dritten",
        -10.006083342041114
      ],
      [
        "▁Browser",
        -10.006778783451146
      ],
      [
        "▁geführt",
        -10.007566863002005
      ],
      [
        "▁geltend",
        -10.008191476733845
      ],
      [
        "▁Videos",
        -10.008291257922703
      ],
      [
        "▁Server",
        -10.008430832800972
      ],
      [
        "▁vollständig",
        -10.008490558525775
      ],
      [
        "gehen",
        -10.00868746920761
      ],
      [
        "▁Erklärung",
        -10.008757670852212
      ],
      [
        "▁trifft",
        -10.009269655487595
      ],
      [
        "politik",
        -10.009850230984785
      ],
      [
        "▁tätig",
        -10.01060593546923
      ],
      [
        "▁europäischen",
        -10.010755607161752
      ],
      [
        "▁Flughafen",
        -10.011326742174553
      ],
      [
        "▁Kein",
        -10.011638073636679
      ],
      [
        "▁Mannschaft",
        -10.01216398764504
      ],
      [
        "▁deswegen",
        -10.012287152465092
      ],
      [
        "-P",
        -10.013875879452474
      ],
      [
        "▁Gebiet",
        -10.014324180816988
      ],
      [
        "▁IT",
        -10.014358081106025
      ],
      [
        "▁Anteil",
        -10.014557326642642
      ],
      [
        "▁gesetzlichen",
        -10.014964462867107
      ],
      [
        "▁Union",
        -10.014973576761136
      ],
      [
        "▁zählt",
        -10.015378167564124
      ],
      [
        "▁genießen",
        -10.017139620621549
      ],
      [
        "01",
        -10.017601542979595
      ],
      [
        "▁—",
        -10.017606795152432
      ],
      [
        "kommen",
        -10.019011236120342
      ],
      [
        "▁hoffen",
        -10.02018435141997
      ],
      [
        "▁wahr",
        -10.020186441138158
      ],
      [
        "▁freundlich",
        -10.02095168452308
      ],
      [
        "programm",
        -10.02189124485002
      ],
      [
        "-A",
        -10.022031638692837
      ],
      [
        "▁bleiben.",
        -10.022620515507608
      ],
      [
        "▁beschäftigt",
        -10.022865068410727
      ],
      [
        "▁Banken",
        -10.023019337999756
      ],
      [
        "▁leisten",
        -10.023255352805869
      ],
      [
        "▁acht",
        -10.023292693502029
      ],
      [
        "▁Konto",
        -10.023685811202592
      ],
      [
        "▁fragte",
        -10.023823261517936
      ],
      [
        "▁halten.",
        -10.024261849080297
      ],
      [
        ".de/",
        -10.024459405498355
      ],
      [
        "▁soziale",
        -10.024573524765472
      ],
      [
        "▁tief",
        -10.024642275315724
      ],
      [
        "▁geboren",
        -10.024644503920419
      ],
      [
        "▁Ernährung",
        -10.025197526787558
      ],
      [
        "▁gebe",
        -10.02760174620483
      ],
      [
        "▁Brief",
        -10.027901420749071
      ],
      [
        "▁schreibt",
        -10.028538447537375
      ],
      [
        "▁Mehrheit",
        -10.029390327621966
      ],
      [
        "unternehmen",
        -10.029649207716673
      ],
      [
        "bi",
        -10.030239784687742
      ],
      [
        "▁30.",
        -10.030570769437052
      ],
      [
        "▁fragen",
        -10.031969170688386
      ],
      [
        "▁Klein",
        -10.032067196606967
      ],
      [
        "▁erhält",
        -10.03256623985791
      ],
      [
        "ve",
        -10.033123705891697
      ],
      [
        "▁Baby",
        -10.03355751285321
      ],
      [
        "▁Nachricht",
        -10.034065826868131
      ],
      [
        "isierung",
        -10.034365082868646
      ],
      [
        "▁Herbst",
        -10.034412595380676
      ],
      [
        "▁Politiker",
        -10.034642557765107
      ],
      [
        "über",
        -10.034879452103475
      ],
      [
        "▁gewählt",
        -10.034892354550568
      ],
      [
        "daten",
        -10.035003138077261
      ],
      [
        "▁vereinbart",
        -10.035617976262433
      ],
      [
        "▁sieben",
        -10.03568284375956
      ],
      [
        "▁Genau",
        -10.03628449021366
      ],
      [
        "zug",
        -10.036326738283353
      ],
      [
        "▁zieht",
        -10.036347586211377
      ],
      [
        "technik",
        -10.036749974930451
      ],
      [
        "▁Russland",
        -10.037312376755338
      ],
      [
        "▁Sex",
        -10.037328279998464
      ],
      [
        "▁Kontrolle",
        -10.03760462810118
      ],
      [
        "▁irgendwo",
        -10.0381721597623
      ],
      [
        "▁Verwaltung",
        -10.038176569395667
      ],
      [
        "▁(19",
        -10.038204796462475
      ],
      [
        "ze",
        -10.038347302736588
      ],
      [
        "▁gefragt",
        -10.038580317958125
      ],
      [
        "▁verantwortlich",
        -10.038768147477327
      ],
      [
        "▁interessante",
        -10.03907600473556
      ],
      [
        "▁Gewicht",
        -10.039116488749594
      ],
      [
        "ic",
        -10.03928064374334
      ],
      [
        "▁Ar",
        -10.039869293618088
      ],
      [
        "▁22.",
        -10.039948693010594
      ],
      [
        "▁waren.",
        -10.04147531789376
      ],
      [
        "▁Privat",
        -10.041689179421102
      ],
      [
        "▁Israel",
        -10.041755951931027
      ],
      [
        "per",
        -10.041854573820967
      ],
      [
        "▁Jahrhundert",
        -10.042083379241795
      ],
      [
        "▁erscheint",
        -10.042832246700389
      ],
      [
        "▁gekauft",
        -10.043054004449427
      ],
      [
        "▁getroffen",
        -10.04380703686158
      ],
      [
        "▁offensichtlich",
        -10.043956122257141
      ],
      [
        "▁König",
        -10.044029163489649
      ],
      [
        "so",
        -10.044415904037393
      ],
      [
        "▁begeistert",
        -10.044543035176808
      ],
      [
        "▁Oh",
        -10.045497279805803
      ],
      [
        "▁will.",
        -10.04558237494706
      ],
      [
        "▁All",
        -10.045685891638783
      ],
      [
        "▁gesetzt",
        -10.04584876798166
      ],
      [
        "▁Aufnahme",
        -10.046370945258044
      ],
      [
        "▁Not",
        -10.04651488901774
      ],
      [
        "▁schauen",
        -10.046581977883259
      ],
      [
        "▁entstehen",
        -10.046974166942112
      ],
      [
        "▁Italien",
        -10.047023205329044
      ],
      [
        "▁Zahlung",
        -10.047652518771898
      ],
      [
        "▁benötigen",
        -10.04831912759499
      ],
      [
        "▁Lösungen",
        -10.050102534922665
      ],
      [
        "▁Schaden",
        -10.051086194672788
      ],
      [
        "▁Ahnung",
        -10.051450801794935
      ],
      [
        "▁Unfall",
        -10.051454064723526
      ],
      [
        "▁Trainer",
        -10.051967262520684
      ],
      [
        "▁Netzwerk",
        -10.052005724468284
      ],
      [
        "▁stehen.",
        -10.052075636710631
      ],
      [
        "▁Betreuung",
        -10.0526213655778
      ],
      [
        "fahren",
        -10.052752610463717
      ],
      [
        "punkt",
        -10.054371213781405
      ],
      [
        "▁Vorteile",
        -10.054809875683251
      ],
      [
        "ling",
        -10.055526320805736
      ],
      [
        "▁Ca",
        -10.055655658120997
      ],
      [
        "▁schönes",
        -10.056700331374623
      ],
      [
        "▁Glas",
        -10.057423094118572
      ],
      [
        "▁Führung",
        -10.057488119706816
      ],
      [
        "▁Schulen",
        -10.057699599343394
      ],
      [
        "▁genannt",
        -10.057821785976639
      ],
      [
        "▁Klar",
        -10.058498537530946
      ],
      [
        "▁passende",
        -10.058566063965912
      ],
      [
        "▁Amy",
        -10.058947014628709
      ],
      [
        "é",
        -10.059110304551751
      ],
      [
        "▁Entscheidungen",
        -10.05949070060655
      ],
      [
        "„Das",
        -10.05959143960279
      ],
      [
        "▁23.",
        -10.059728069155252
      ],
      [
        "▁erwähnt",
        -10.059833065621053
      ],
      [
        "▁Dennoch",
        -10.05992659181208
      ],
      [
        "▁frage",
        -10.060441667793452
      ],
      [
        "▁45",
        -10.06084796769144
      ],
      [
        "▁hinein",
        -10.061570739541152
      ],
      [
        "▁wurden,",
        -10.06179040652063
      ],
      [
        "▁technische",
        -10.063077428102716
      ],
      [
        "▁Wahrscheinlich",
        -10.063421948433692
      ],
      [
        "–",
        -10.06342619541934
      ],
      [
        "▁reden",
        -10.06419294895695
      ],
      [
        "▁eigenes",
        -10.064957136540952
      ],
      [
        "▁Lieblings",
        -10.065005809587927
      ],
      [
        "▁US",
        -10.0650343978727
      ],
      [
        "▁internationale",
        -10.065635095565348
      ],
      [
        "▁Feuer",
        -10.065656628476855
      ],
      [
        ".com",
        -10.06640448774709
      ],
      [
        "▁2005",
        -10.066679798963008
      ],
      [
        "▁längst",
        -10.066813091703395
      ],
      [
        "▁Position",
        -10.0668899918041
      ],
      [
        "▁gemeinsame",
        -10.068391854828718
      ],
      [
        "▁Verkehrs",
        -10.068715115738124
      ],
      [
        "▁Anschluss",
        -10.069316200612722
      ],
      [
        "▁verändert",
        -10.069534732208398
      ],
      [
        "▁normal",
        -10.070498635537792
      ],
      [
        "▁dank",
        -10.070706800255923
      ],
      [
        "▁besuchen",
        -10.070743415326492
      ],
      [
        "▁Verordnung",
        -10.071002605861793
      ],
      [
        "▁langen",
        -10.071042625228941
      ],
      [
        "▁Zwischen",
        -10.071904099429485
      ],
      [
        "▁San",
        -10.072228305578388
      ],
      [
        "▁Weihnachten",
        -10.073106989243534
      ],
      [
        "▁halte",
        -10.073283613966343
      ],
      [
        "▁Einführung",
        -10.073994120569534
      ],
      [
        "fern",
        -10.074594335275084
      ],
      [
        "▁gehen,",
        -10.075172660297403
      ],
      [
        "▁27",
        -10.075183521548698
      ],
      [
        "▁Verkauf",
        -10.076322493243783
      ],
      [
        "▁„Wir",
        -10.076528643122053
      ],
      [
        "▁zahlen",
        -10.078121861500442
      ],
      [
        "▁gelernt",
        -10.0782185462249
      ],
      [
        "ol",
        -10.078704268336455
      ],
      [
        "▁Ablauf",
        -10.079174161218539
      ],
      [
        "▁Amazon",
        -10.079620478472915
      ],
      [
        "▁Geburt",
        -10.079653902405786
      ],
      [
        "▁Treffen",
        -10.080101976128033
      ],
      [
        "▁hoffe,",
        -10.080207768382149
      ],
      [
        "▁Veranstaltungen",
        -10.081125870234057
      ],
      [
        "▁Bewerbung",
        -10.081700284044299
      ],
      [
        "▁General",
        -10.082031400575854
      ],
      [
        "▁Ex",
        -10.082623720805024
      ],
      [
        "▁Demokratie",
        -10.083021490262109
      ],
      [
        "▁Hof",
        -10.083190940438985
      ],
      [
        "ität",
        -10.083530015008241
      ],
      [
        "▁Umfang",
        -10.083791478197465
      ],
      [
        "▁Adresse",
        -10.084039293169209
      ],
      [
        "siehe",
        -10.084709203718393
      ],
      [
        "▁EUR",
        -10.08472457299823
      ],
      [
        "satz",
        -10.085012306946231
      ],
      [
        "▁denke,",
        -10.085679079681938
      ],
      [
        "mo",
        -10.086015635567911
      ],
      [
        "▁Handel",
        -10.087510613407881
      ],
      [
        "▁Mo",
        -10.08864549371473
      ],
      [
        "▁Seminar",
        -10.088827018855865
      ],
      [
        "▁Staats",
        -10.089138537589793
      ],
      [
        "Dadurch",
        -10.089623498871141
      ],
      [
        "▁sollte.",
        -10.091177986441096
      ],
      [
        "▁Papier",
        -10.091273834625536
      ],
      [
        "▁Unternehmer",
        -10.091349942627748
      ],
      [
        "teil",
        -10.091428040764011
      ],
      [
        "▁Dienstag",
        -10.091586627258263
      ],
      [
        "▁blieb",
        -10.09170208604608
      ],
      [
        "schen",
        -10.091916648461723
      ],
      [
        "hausen",
        -10.09269568203646
      ],
      [
        "▁Vom",
        -10.092862467639836
      ],
      [
        "▁(S",
        -10.093921091228095
      ],
      [
        "▁sucht",
        -10.095323824177107
      ],
      [
        "▁26",
        -10.095669664762703
      ],
      [
        "gesellschaft",
        -10.095707149084774
      ],
      [
        "▁riesig",
        -10.096463276092752
      ],
      [
        "▁dient",
        -10.096905803974323
      ],
      [
        "▁Betriebs",
        -10.09712908916626
      ],
      [
        "▁25.",
        -10.097166724010371
      ],
      [
        "▁Durchführung",
        -10.097777208567278
      ],
      [
        "fahrt",
        -10.098397399696788
      ],
      [
        "▁halb",
        -10.098664044662778
      ],
      [
        "▁Frei",
        -10.099303780148192
      ],
      [
        "▁Zwecke",
        -10.09999441751319
      ],
      [
        "▁31.",
        -10.100411459024215
      ],
      [
        "▁Trotzdem",
        -10.101588532252133
      ],
      [
        "▁sogenannte",
        -10.10174671198617
      ],
      [
        "tal",
        -10.101955422459586
      ],
      [
        "▁hart",
        -10.102329126616219
      ],
      [
        "▁Prof.",
        -10.103811546526838
      ],
      [
        "fach",
        -10.104022032575859
      ],
      [
        "▁Jede",
        -10.104228894262697
      ],
      [
        "▁zahlreichen",
        -10.1043563165709
      ],
      [
        "▁bequem",
        -10.1055404103071
      ],
      [
        "▁Paris",
        -10.105741201593936
      ],
      [
        "▁abge",
        -10.105851656367447
      ],
      [
        "▁Tee",
        -10.106001550545944
      ],
      [
        "▁folgen",
        -10.106162600933114
      ],
      [
        "▁Wunder",
        -10.106388248091202
      ],
      [
        "▁finden,",
        -10.107251849232608
      ],
      [
        "▁Zugriff",
        -10.107384672027937
      ],
      [
        "▁Aufbau",
        -10.108594526581449
      ],
      [
        "bank",
        -10.108985583921422
      ],
      [
        "▁Datei",
        -10.111185670618529
      ],
      [
        "▁nein",
        -10.111440939695973
      ],
      [
        "▁St",
        -10.11248824981496
      ],
      [
        "▁Eis",
        -10.112692992910564
      ],
      [
        "▁Transport",
        -10.11309905895961
      ],
      [
        "▁meinte",
        -10.115485459587212
      ],
      [
        "▁Benutzer",
        -10.116450542828328
      ],
      [
        "/oder",
        -10.117230788384493
      ],
      [
        "▁24.",
        -10.117538525989298
      ],
      [
        "gesellschaftlich",
        -10.117945503679227
      ],
      [
        "▁E-Mail-Adresse",
        -10.117984726839671
      ],
      [
        "▁Lieferung",
        -10.118434269846293
      ],
      [
        "▁schöner",
        -10.118634216594884
      ],
      [
        "▁sowas",
        -10.118888438528625
      ],
      [
        "▁spannend",
        -10.118954533512444
      ],
      [
        "erweise",
        -10.11954046688314
      ],
      [
        "up",
        -10.12079905272752
      ],
      [
        "führung",
        -10.12081431454438
      ],
      [
        "▁mussten",
        -10.120923629130157
      ],
      [
        "▁geht,",
        -10.121153038238571
      ],
      [
        "▁Bruder",
        -10.12163225318977
      ],
      [
        "▁Jugendliche",
        -10.122153157563606
      ],
      [
        "▁Vorstellung",
        -10.12271185536024
      ],
      [
        "▁u.",
        -10.12302487208844
      ],
      [
        "▁Runde",
        -10.124965008184702
      ],
      [
        "▁Interview",
        -10.125344595741556
      ],
      [
        "▁hierzu",
        -10.125687672841352
      ],
      [
        "▁erlebt",
        -10.125701613352732
      ],
      [
        "▁zeigen,",
        -10.125792772681717
      ],
      [
        "▁beraten",
        -10.126053926976702
      ],
      [
        "lichkeit",
        -10.127435884419413
      ],
      [
        "▁Auswirkungen",
        -10.128172217059449
      ],
      [
        "▁beginnen",
        -10.128646093782434
      ],
      [
        "▁Anfrage",
        -10.128788501061315
      ],
      [
        "▁Analyse",
        -10.128831993276242
      ],
      [
        "hof",
        -10.130177447179864
      ],
      [
        "▁unglaublich",
        -10.130398294164571
      ],
      [
        "▁bekommen,",
        -10.131087042055118
      ],
      [
        "▁http://www.",
        -10.131186927139492
      ],
      [
        "▁Lebensmittel",
        -10.131733096790406
      ],
      [
        "▁Ma",
        -10.132007846721873
      ],
      [
        "frei",
        -10.132254498926281
      ],
      [
        "▁Frieden",
        -10.132551911235582
      ],
      [
        "▁sage",
        -10.132806993616196
      ],
      [
        "▁erinnern",
        -10.133424923009478
      ],
      [
        "▁Kategorie",
        -10.134305922716418
      ],
      [
        "▁‚",
        -10.134668656514497
      ],
      [
        "▁gewisse",
        -10.13686213564231
      ],
      [
        "▁bessere",
        -10.136994230611563
      ],
      [
        "▁Präsident",
        -10.13709661531588
      ],
      [
        "che",
        -10.137116114550096
      ],
      [
        "▁Schlüssel",
        -10.13742940153324
      ],
      [
        "▁glaube,",
        -10.137625203510417
      ],
      [
        "▁vor.",
        -10.13779183872729
      ],
      [
        "▁aufmerksam",
        -10.138126606844343
      ],
      [
        "▁ausdrücklich",
        -10.138222607987892
      ],
      [
        "▁Drei",
        -10.138324502724103
      ],
      [
        "ex",
        -10.138445789661363
      ],
      [
        "▁Waffen",
        -10.138741233416699
      ],
      [
        "▁Voll",
        -10.138760933397066
      ],
      [
        "▁Autor",
        -10.138860645068828
      ],
      [
        "▁Leuten",
        -10.139091962256519
      ],
      [
        "▁Chancen",
        -10.13946810571142
      ],
      [
        "▁Pflanzen",
        -10.139756389272588
      ],
      [
        "▁Fleisch",
        -10.140207679844123
      ],
      [
        "tor",
        -10.140523919540385
      ],
      [
        "▁eh",
        -10.140926864628977
      ],
      [
        "▁sorgt",
        -10.141224025765034
      ],
      [
        "▁28.",
        -10.141270683038606
      ],
      [
        "▁Erinnerung",
        -10.141612230113694
      ],
      [
        "ce",
        -10.141779698859349
      ],
      [
        "▁Jo",
        -10.141818982276732
      ],
      [
        "mittel",
        -10.143087961767982
      ],
      [
        "▁entgegen",
        -10.143157332307478
      ],
      [
        "ak",
        -10.143162782601454
      ],
      [
        "▁genauer",
        -10.14358775939833
      ],
      [
        "▁dran",
        -10.144026992095071
      ],
      [
        "▁entstanden",
        -10.144515140133654
      ],
      [
        "▁Ware",
        -10.144574799486243
      ],
      [
        "▁klingt",
        -10.14471028347544
      ],
      [
        "▁wesentlich",
        -10.146196438050318
      ],
      [
        "▁sowieso",
        -10.1465321251461
      ],
      [
        "▁Engagement",
        -10.146969104132538
      ],
      [
        "▁öffnen",
        -10.14702284583596
      ],
      [
        "Innen",
        -10.147403863450897
      ],
      [
        "▁West",
        -10.148135014909931
      ],
      [
        "▁öffentliche",
        -10.148322087697638
      ],
      [
        "▁gehalten",
        -10.148452527336572
      ],
      [
        "deinen",
        -10.149235485061034
      ],
      [
        "▁dringend",
        -10.150661171094228
      ],
      [
        "▁erlaubt",
        -10.151782312741206
      ],
      [
        "▁Ausdruck",
        -10.151868306282807
      ],
      [
        "▁Pflicht",
        -10.152590769968768
      ],
      [
        "▁Gemeinschaft",
        -10.152947027433292
      ],
      [
        "▁geworden.",
        -10.153337391540555
      ],
      [
        "▁stolz",
        -10.153426619651022
      ],
      [
        "▁2003",
        -10.153600316271596
      ],
      [
        "▁links",
        -10.153672951074324
      ],
      [
        "ca",
        -10.154145809747217
      ],
      [
        "▁hast,",
        -10.154149558216794
      ],
      [
        "▁behandelt",
        -10.154780396680874
      ],
      [
        "▁Vertrags",
        -10.155194552828736
      ],
      [
        "co",
        -10.155441787401447
      ],
      [
        "▁bestehen",
        -10.155568218371187
      ],
      [
        "▁stellte",
        -10.155721852513185
      ],
      [
        "▁Stuttgart",
        -10.155792240114774
      ],
      [
        "▁Englisch",
        -10.156345734066488
      ],
      [
        "▁Business",
        -10.156394666696901
      ],
      [
        "▁27.",
        -10.156472094991841
      ],
      [
        "▁Farbe",
        -10.156763287287344
      ],
      [
        "▁Eigentlich",
        -10.15743162347383
      ],
      [
        "leistung",
        -10.1576560863803
      ],
      [
        "▁Mut",
        -10.158051579916773
      ],
      [
        "▁willst",
        -10.158198602381574
      ],
      [
        "▁u.a.",
        -10.15819914714396
      ],
      [
        "do",
        -10.158475812814176
      ],
      [
        "▁Krankheit",
        -10.158687061407427
      ],
      [
        "▁Theater",
        -10.159611936089291
      ],
      [
        "▁#",
        -10.160979357159901
      ],
      [
        "▁denkt",
        -10.161057847845349
      ],
      [
        "°C",
        -10.161837736340294
      ],
      [
        "band",
        -10.161863255300414
      ],
      [
        "▁erreichen.",
        -10.163259139807302
      ],
      [
        "▁Roman",
        -10.163716597945292
      ],
      [
        "▁Kern",
        -10.164006457924511
      ],
      [
        "pa",
        -10.164490225967928
      ],
      [
        "▁Aufmerksamkeit",
        -10.164599071804485
      ],
      [
        "▁Merkel",
        -10.16464141264835
      ],
      [
        "▁Behörden",
        -10.16520988197724
      ],
      [
        "▁Gegner",
        -10.165547786143879
      ],
      [
        "▁moderne",
        -10.165557482526463
      ],
      [
        "▁Stil",
        -10.166240262050376
      ],
      [
        "▁Geschmack",
        -10.166273946121928
      ],
      [
        "▁sprach",
        -10.166760229172432
      ],
      [
        "ana",
        -10.167044121423654
      ],
      [
        "pf",
        -10.167672688374097
      ],
      [
        "▁Jugendlichen",
        -10.168433281907793
      ],
      [
        "test",
        -10.16893832286242
      ],
      [
        "▁Schritte",
        -10.169151460948157
      ],
      [
        "▁Werbe",
        -10.169510745201013
      ],
      [
        "▁einiger",
        -10.16952991186971
      ],
      [
        "ft",
        -10.170204334192393
      ],
      [
        "▁darunter",
        -10.170591446847757
      ],
      [
        "▁dazu,",
        -10.172168695449423
      ],
      [
        "▁Manchmal",
        -10.17234391769404
      ],
      [
        "▁unmittelbar",
        -10.172457207091878
      ],
      [
        "▁II",
        -10.172710686387468
      ],
      [
        "▁angegeben",
        -10.17392829273481
      ],
      [
        "▁Verlauf",
        -10.174228293642937
      ],
      [
        "▁wenigstens",
        -10.174912837795585
      ],
      [
        "▁Realität",
        -10.175016160700245
      ],
      [
        "▁Bahn",
        -10.175358400725836
      ],
      [
        "▁Schreiben",
        -10.175614478213436
      ],
      [
        "▁brauche",
        -10.17576290835149
      ],
      [
        "▁leichter",
        -10.175767287919971
      ],
      [
        "▁Lauf",
        -10.175785951442366
      ],
      [
        "▁York",
        -10.176024364938012
      ],
      [
        "▁privaten",
        -10.176115020624302
      ],
      [
        "▁stärker",
        -10.176537408659215
      ],
      [
        "du",
        -10.176599515921978
      ],
      [
        "▁jährlich",
        -10.176621935329173
      ],
      [
        "18",
        -10.176787135707883
      ],
      [
        "▁Laufe",
        -10.177988251377732
      ],
      [
        "▁vollkommen",
        -10.178858173434467
      ],
      [
        "▁Andere",
        -10.178977980890917
      ],
      [
        "▁Strecke",
        -10.179771066125259
      ],
      [
        "15",
        -10.179790992897676
      ],
      [
        "▁Stimmung",
        -10.179864646640453
      ],
      [
        "▁Lager",
        -10.179869189694106
      ],
      [
        "▁Nutzen",
        -10.180055734140478
      ],
      [
        "rechtlichen",
        -10.180684500186622
      ],
      [
        "▁Würde",
        -10.180904830295523
      ],
      [
        "ran",
        -10.18128893680069
      ],
      [
        "05",
        -10.181561094215592
      ],
      [
        "▁Rück",
        -10.181694034089755
      ],
      [
        "▁gemeinsamen",
        -10.181714741547989
      ],
      [
        "▁sitzen",
        -10.182213714850118
      ],
      [
        "▁wert",
        -10.18246620126762
      ],
      [
        "▁Restaurant",
        -10.183881611342063
      ],
      [
        "sbedingungen",
        -10.18440940283556
      ],
      [
        "▁warm",
        -10.184849552852329
      ],
      [
        "▁Frist",
        -10.185060575370557
      ],
      [
        "▁Künstler",
        -10.185345666745281
      ],
      [
        "▁verstehe",
        -10.18544351393979
      ],
      [
        "dienst",
        -10.185546192746376
      ],
      [
        "▁starke",
        -10.185738177583298
      ],
      [
        "▁Serie",
        -10.186060044203394
      ],
      [
        "▁Kapitel",
        -10.18606750683779
      ],
      [
        "igkeit",
        -10.186326063677743
      ],
      [
        "tisch",
        -10.186868793693526
      ],
      [
        "schule",
        -10.18706826727668
      ],
      [
        "▁Gegensatz",
        -10.187388787863505
      ],
      [
        "▁Mund",
        -10.187682923303827
      ],
      [
        "▁Thomas",
        -10.188615177621807
      ],
      [
        "▁vertreten",
        -10.188808269029034
      ],
      [
        "▁Original",
        -10.189421040958134
      ],
      [
        "ag",
        -10.189860783521697
      ],
      [
        "▁Wieder",
        -10.190371055512612
      ],
      [
        "▁26.",
        -10.190426081125686
      ],
      [
        "▁gegangen",
        -10.190829294482857
      ],
      [
        "▁Freizeit",
        -10.190837533209482
      ],
      [
        "▁Ausstellung",
        -10.191414268448732
      ],
      [
        "▁Schön",
        -10.191782383326682
      ],
      [
        "▁erhöht",
        -10.191786609533338
      ],
      [
        "▁Hab",
        -10.191830046299662
      ],
      [
        "▁Studenten",
        -10.19385416163292
      ],
      [
        "▁150",
        -10.194340762899078
      ],
      [
        "▁Charakter",
        -10.194979091507776
      ],
      [
        "▁Motto",
        -10.195027274605462
      ],
      [
        "▁Prinzip",
        -10.195950666711687
      ],
      [
        "▁Austausch",
        -10.196790535184451
      ],
      [
        "▁Therapie",
        -10.197388781571298
      ],
      [
        "▁Karriere",
        -10.197650220227779
      ],
      [
        "▁Geschichten",
        -10.198091075516263
      ],
      [
        "▁Atmosphäre",
        -10.198190387985392
      ],
      [
        "▁informiert",
        -10.198775695103539
      ],
      [
        "▁Management",
        -10.199255216352899
      ],
      [
        "desto",
        -10.199606511773869
      ],
      [
        "ow",
        -10.199763464570754
      ],
      [
        "▁benutzt",
        -10.200644486941332
      ],
      [
        "▁sämtliche",
        -10.200806353800091
      ],
      [
        "▁bezeichnet",
        -10.201228194544676
      ],
      [
        "▁schlimm",
        -10.201783702050987
      ],
      [
        "▁Download",
        -10.20192517935637
      ],
      [
        "▁Beide",
        -10.202565317875223
      ],
      [
        "ry",
        -10.202614579535723
      ],
      [
        "sche",
        -10.20270554053899
      ],
      [
        "▁ergeben",
        -10.2028040018748
      ],
      [
        "haft",
        -10.203172717876969
      ],
      [
        "▁Anzeige",
        -10.203290014718936
      ],
      [
        "▁schafft",
        -10.203597240333945
      ],
      [
        "▁solange",
        -10.204411681992125
      ],
      [
        "▁32",
        -10.204554802470561
      ],
      [
        "iere",
        -10.204741607389494
      ],
      [
        "▁letzter",
        -10.205123007618916
      ],
      [
        "▁hinzu",
        -10.205416026103503
      ],
      [
        "▁Schmerzen",
        -10.205954538010477
      ],
      [
        "▁Schnee",
        -10.206272689688724
      ],
      [
        "▁Sonder",
        -10.206397855529294
      ],
      [
        "ho",
        -10.20668511564897
      ],
      [
        "ell",
        -10.208004467621787
      ],
      [
        "▁Zustimmung",
        -10.20867269097899
      ],
      [
        "▁Juden",
        -10.209149466748878
      ],
      [
        "▁Bedürfnisse",
        -10.210069530799299
      ],
      [
        "ina",
        -10.211080309142027
      ],
      [
        "▁Einstellung",
        -10.212040951124832
      ],
      [
        "▁Verbesserung",
        -10.212937325568314
      ],
      [
        "▁Arm",
        -10.213151858642366
      ],
      [
        "▁Berliner",
        -10.213180035522537
      ],
      [
        "▁einfacher",
        -10.21319037735449
      ],
      [
        "▁verfügbar",
        -10.213338549659973
      ],
      [
        "▁zählen",
        -10.214311732315068
      ],
      [
        "ub",
        -10.215340273873572
      ],
      [
        "▁Egal",
        -10.215416374942388
      ],
      [
        "▁Glauben",
        -10.21581534260752
      ],
      [
        "▁echte",
        -10.21609408566363
      ],
      [
        "▁Wichtig",
        -10.216105732417768
      ],
      [
        "and",
        -10.216985671987604
      ],
      [
        "▁angenehm",
        -10.217093960545345
      ],
      [
        "iv",
        -10.218130768016927
      ],
      [
        "▁2019",
        -10.21898877219828
      ],
      [
        "▁Alt",
        -10.219660516761815
      ],
      [
        "gruppen",
        -10.220353329201322
      ],
      [
        "▁zusammen.",
        -10.220674948615963
      ],
      [
        "▁Media",
        -10.220827734142677
      ],
      [
        "▁Abschnitt",
        -10.22084441581707
      ],
      [
        "▁Bier",
        -10.220944909277854
      ],
      [
        "▁meint",
        -10.221166769305126
      ],
      [
        "▁Unterlagen",
        -10.221475053749673
      ],
      [
        "fa",
        -10.221836098855288
      ],
      [
        "▁zunehmend",
        -10.221941651862565
      ],
      [
        "ck",
        -10.221990669372335
      ],
      [
        "▁Haftung",
        -10.222943440904317
      ],
      [
        "fe",
        -10.22374639668736
      ],
      [
        "▁beschlossen",
        -10.22447852308003
      ],
      [
        "§",
        -10.224538800173598
      ],
      [
        "▁eindeutig",
        -10.224623224760618
      ],
      [
        "▁Tipp",
        -10.224943389979497
      ],
      [
        "▁Länge",
        -10.225637597538487
      ],
      [
        "▁ergibt",
        -10.225851611832772
      ],
      [
        "▁Radio",
        -10.226120430940735
      ],
      [
        "-G",
        -10.226121539447945
      ],
      [
        "▁Gas",
        -10.226520456159395
      ],
      [
        "▁Gestaltung",
        -10.226637135791027
      ],
      [
        "▁London",
        -10.22667555987194
      ],
      [
        "▁Kon",
        -10.226804239058689
      ],
      [
        "▁PS",
        -10.226822970769426
      ],
      [
        "▁oder?",
        -10.22694509231558
      ],
      [
        "▁Regen",
        -10.227707999975722
      ],
      [
        "▁Rücken",
        -10.228163452102725
      ],
      [
        "▁Schweizer",
        -10.228352669303044
      ],
      [
        "▁End",
        -10.228488483756013
      ],
      [
        "▁Wettbewerb",
        -10.22928223206548
      ],
      [
        "▁waren,",
        -10.229805566371553
      ],
      [
        "▁Hinweise",
        -10.22990274304744
      ],
      [
        "▁Stress",
        -10.230214306204832
      ],
      [
        "▁offenbar",
        -10.230336512275134
      ],
      [
        "▁draußen",
        -10.230351079970042
      ],
      [
        "Veröffentlichung",
        -10.230352553746023
      ],
      [
        "▁Euro.",
        -10.230452214931667
      ],
      [
        "ierte",
        -10.231598070896784
      ],
      [
        "▁aufgenommen",
        -10.232486746474493
      ],
      [
        "▁Fahrer",
        -10.232701393828762
      ],
      [
        "▁2004",
        -10.232874640369527
      ],
      [
        "▁Einfach",
        -10.233059213056684
      ],
      [
        "▁Insgesamt",
        -10.233354193105196
      ],
      [
        "eln",
        -10.233709894108866
      ],
      [
        "-Be",
        -10.233927450352663
      ],
      [
        "ment",
        -10.233936126537555
      ],
      [
        "▁halbe",
        -10.234239547983343
      ],
      [
        "ken",
        -10.234487994849689
      ],
      [
        "▁Generation",
        -10.234539464267343
      ],
      [
        "▁Ka",
        -10.234729517294321
      ],
      [
        "▁Fälle",
        -10.23482751964849
      ],
      [
        "a)",
        -10.234972908187963
      ],
      [
        "▁Fähigkeiten",
        -10.2350042175864
      ],
      [
        "▁jemanden",
        -10.23528963713814
      ],
      [
        "▁Medizin",
        -10.235704707869738
      ],
      [
        "▁Stimmen",
        -10.235987851184799
      ],
      [
        "▁300",
        -10.236315020109187
      ],
      [
        "▁Einrichtung",
        -10.237157600920309
      ],
      [
        "▁Bio",
        -10.237257777928683
      ],
      [
        "▁Vorbereitung",
        -10.237836796450225
      ],
      [
        "▁zog",
        -10.23811308754508
      ],
      [
        "▁:D",
        -10.23992886907773
      ],
      [
        "▁sauber",
        -10.240053593263696
      ],
      [
        "▁Grünen",
        -10.240673233820537
      ],
      [
        "▁würde,",
        -10.241103568516728
      ],
      [
        "technischen",
        -10.241224175801893
      ],
      [
        "▁Bereits",
        -10.24122566019712
      ],
      [
        "▁Fans",
        -10.242117876040295
      ],
      [
        "rlei",
        -10.242289209971378
      ],
      [
        "▁abgeschlossen",
        -10.243190400925144
      ],
      [
        "▁Dorf",
        -10.243457842116541
      ],
      [
        "▁nix",
        -10.243580689017527
      ],
      [
        "▁Beste",
        -10.243593421309438
      ],
      [
        "ant",
        -10.243736438642095
      ],
      [
        "▁führte",
        -10.244081482629735
      ],
      [
        "▁deutscher",
        -10.244135901512148
      ],
      [
        "▁Standort",
        -10.244551382597123
      ],
      [
        "▁Gegenteil",
        -10.244819089029525
      ],
      [
        "▁Produkten",
        -10.245311420549164
      ],
      [
        "▁Darstellung",
        -10.245481182337006
      ],
      [
        "spätestens",
        -10.245530228922515
      ],
      [
        "▁rum",
        -10.24573506924564
      ],
      [
        "▁geschützt",
        -10.245826406705339
      ],
      [
        "▁Kapital",
        -10.24650861334776
      ],
      [
        "▁Hast",
        -10.247526074122693
      ],
      [
        "▁Leistungs",
        -10.248219400977376
      ],
      [
        "▁meistens",
        -10.248406222068436
      ],
      [
        "▁Berufs",
        -10.24932857457533
      ],
      [
        "▁(E",
        -10.250841631064514
      ],
      [
        "▁bitten",
        -10.251133238003469
      ],
      [
        "▁höhere",
        -10.251518505823627
      ],
      [
        "▁erinnert",
        -10.25172399860173
      ],
      [
        "▁Martin",
        -10.252237861465
      ],
      [
        "sport",
        -10.252431448146794
      ],
      [
        "ort",
        -10.252676003088018
      ],
      [
        "08",
        -10.253119144803037
      ],
      [
        "▁Vortrag",
        -10.253161693689439
      ],
      [
        "▁Reich",
        -10.253210269962649
      ],
      [
        "▁ungefähr",
        -10.25354375330972
      ],
      [
        "▁29.",
        -10.253899960410042
      ],
      [
        "▁übernehmen",
        -10.254190894977684
      ],
      [
        "▁Veränderungen",
        -10.254433746020375
      ],
      [
        "▁weiteres",
        -10.254754294376252
      ],
      [
        "▁verdient",
        -10.254852778193083
      ],
      [
        "Y",
        -10.255389853353226
      ],
      [
        "▁Zweifel",
        -10.255402935689487
      ],
      [
        "▁Meister",
        -10.256018354281416
      ],
      [
        "02",
        -10.256194183068319
      ],
      [
        "▁bekomme",
        -10.256574440226654
      ],
      [
        "▁führen.",
        -10.256631397707869
      ],
      [
        "▁Kombination",
        -10.256682763251703
      ],
      [
        "▁Finanzierung",
        -10.25683687120259
      ],
      [
        "▁Vertreter",
        -10.257037835935364
      ],
      [
        "tage",
        -10.258206826357089
      ],
      [
        "see",
        -10.258467197721998
      ],
      [
        "▁Schwester",
        -10.25849792188315
      ],
      [
        "si",
        -10.258888315018858
      ],
      [
        "▁Fan",
        -10.260269337962786
      ],
      [
        "▁möchten,",
        -10.260828405801394
      ],
      [
        "▁individuell",
        -10.261037098750263
      ],
      [
        "▁Paket",
        -10.261561676919076
      ],
      [
        "▁Teams",
        -10.26244418526246
      ],
      [
        "▁(v",
        -10.262472931050754
      ],
      [
        "▁Öl",
        -10.262765437473917
      ],
      [
        "▁erhoben",
        -10.263015429709494
      ],
      [
        "▁maximal",
        -10.26371434006741
      ],
      [
        "lauf",
        -10.264155294222443
      ],
      [
        "▁weiterer",
        -10.264561878236018
      ],
      [
        "▁perfekte",
        -10.264772174748032
      ],
      [
        "▁Konzert",
        -10.264940097605834
      ],
      [
        "ring",
        -10.26701164461365
      ],
      [
        "▁sagen.",
        -10.267271993092706
      ],
      [
        "▁glaubt",
        -10.267502459977315
      ],
      [
        "▁Versand",
        -10.267732649048773
      ],
      [
        "tz",
        -10.268346136608134
      ],
      [
        "ür",
        -10.268532288875036
      ],
      [
        "▁berichtet",
        -10.268786411228916
      ],
      [
        "▁Neues",
        -10.268795019368046
      ],
      [
        "▁Kirchen",
        -10.269358124441474
      ],
      [
        "▁wiederum",
        -10.269610188422806
      ],
      [
        "▁Käufer",
        -10.269909287873183
      ],
      [
        "▁Me",
        -10.270296232195143
      ],
      [
        "▁Kreuz",
        -10.270401649489221
      ],
      [
        "▁Ehe",
        -10.270632052811358
      ],
      [
        "▁Co.",
        -10.270864329333863
      ],
      [
        "▁sonstige",
        -10.271189736315531
      ],
      [
        "bedingungen",
        -10.27150559612236
      ],
      [
        "▁Herstellung",
        -10.27224876176817
      ],
      [
        "▁Typ",
        -10.272760008605609
      ],
      [
        "▁Täter",
        -10.27428052778189
      ],
      [
        "iz",
        -10.27458211195706
      ],
      [
        "▁Literatur",
        -10.275322326684023
      ],
      [
        "▁individuelle",
        -10.275417925971162
      ],
      [
        "▁Lern",
        -10.275478583359504
      ],
      [
        "▁Süd",
        -10.275687946912093
      ],
      [
        "▁Bord",
        -10.275771307830489
      ],
      [
        "▁allgemeinen",
        -10.275890967194048
      ],
      [
        "▁Grenze",
        -10.276537075776341
      ],
      [
        "09",
        -10.276806608768688
      ],
      [
        "▁Spielen",
        -10.27694974235725
      ],
      [
        "▁schön,",
        -10.278062844611284
      ],
      [
        "▁bekam",
        -10.278485957596532
      ],
      [
        "▁Ferien",
        -10.278906782883215
      ],
      [
        "ker",
        -10.279111778649483
      ],
      [
        "hin",
        -10.27912604859215
      ],
      [
        "▁umfasst",
        -10.27912858704784
      ],
      [
        "▁Kooperation",
        -10.27937395567949
      ],
      [
        "▁Newsletter",
        -10.27939609363618
      ],
      [
        "▁Flüchtlinge",
        -10.279501849844522
      ],
      [
        "▁́s",
        -10.279840071756881
      ],
      [
        "▁Spanien",
        -10.280566422285908
      ],
      [
        "▁Ersatz",
        -10.280764214899204
      ],
      [
        "▁Zoll",
        -10.281869083179608
      ],
      [
        "▁prüfen",
        -10.282350915822821
      ],
      [
        "▁Sorgen",
        -10.283103939478277
      ],
      [
        "wirtschaft",
        -10.28346521832871
      ],
      [
        "schreiben",
        -10.283592272183725
      ],
      [
        "▁Verlag",
        -10.283654871591676
      ],
      [
        "-M",
        -10.2839045225016
      ],
      [
        "▁erstmals",
        -10.284068040261428
      ],
      [
        "▁Schloss",
        -10.284785521877545
      ],
      [
        "▁bewegen",
        -10.284795808446852
      ],
      [
        "▁Gesundheits",
        -10.285668252122589
      ],
      [
        "▁gewonnen",
        -10.286160643042374
      ],
      [
        "▁Schuld",
        -10.286561957257788
      ],
      [
        "▁Le",
        -10.286631620853353
      ],
      [
        "▁Live",
        -10.288347413658185
      ],
      [
        "J",
        -10.288397699515686
      ],
      [
        "▁entdeckt",
        -10.289201905366486
      ],
      [
        "▁Filme",
        -10.289245621908872
      ],
      [
        "▁v",
        -10.289638824332135
      ],
      [
        "▁Sp",
        -10.289848105462845
      ],
      [
        "▁intensiv",
        -10.28990127933448
      ],
      [
        "e\"",
        -10.290473244035308
      ],
      [
        "en“",
        -10.29109984595831
      ],
      [
        "▁schrieb",
        -10.291281239461611
      ],
      [
        "▁private",
        -10.29222501408317
      ],
      [
        "kreis",
        -10.292425885803187
      ],
      [
        "▁Sa",
        -10.292513948646869
      ],
      [
        "▁(D",
        -10.292710165208364
      ],
      [
        "▁Rad",
        -10.293153638968587
      ],
      [
        "▁Pi",
        -10.293270245900334
      ],
      [
        "en\"",
        -10.293836551963478
      ],
      [
        "▁gelungen",
        -10.294710743885862
      ],
      [
        "▁möglicherweise",
        -10.295702653711587
      ],
      [
        "▁Hochzeit",
        -10.295736197589463
      ],
      [
        "▁tritt",
        -10.296432490374858
      ],
      [
        "-H",
        -10.297384773519202
      ],
      [
        "▁Zuhause",
        -10.297586973317284
      ],
      [
        "▁Her",
        -10.29763862241758
      ],
      [
        "▁Marken",
        -10.297864929758873
      ],
      [
        "▁abzu",
        -10.2979335898157
      ],
      [
        "▁bezahlt",
        -10.298264306087088
      ],
      [
        "▁legt",
        -10.298487786229494
      ],
      [
        "17",
        -10.299363201944566
      ],
      [
        "stehenden",
        -10.299367332818992
      ],
      [
        "▁erzählen",
        -10.29946290436563
      ],
      [
        "▁versuche",
        -10.299548797435792
      ],
      [
        "▁Unterkunft",
        -10.301840874314843
      ],
      [
        "▁Erfüllung",
        -10.301844115178671
      ],
      [
        "▁Chef",
        -10.302008941209193
      ],
      [
        "▁dürfen.",
        -10.302233549688891
      ],
      [
        "▁Alternative",
        -10.302441394826499
      ],
      [
        "▁Hi",
        -10.30279688508156
      ],
      [
        "industrie",
        -10.30284223906743
      ],
      [
        "▁Worten",
        -10.303041134441465
      ],
      [
        "-E",
        -10.303333610155347
      ],
      [
        "▁optimal",
        -10.303606482481166
      ],
      [
        "Somit",
        -10.303717107140503
      ],
      [
        "liste",
        -10.304434337604999
      ],
      [
        "▁Städte",
        -10.30460754838705
      ],
      [
        "▁gehabt",
        -10.305208987896428
      ],
      [
        "▁Unterricht",
        -10.305444377450403
      ],
      [
        "sp",
        -10.305562211337879
      ],
      [
        "mals",
        -10.306014303446876
      ],
      [
        "▁Islam",
        -10.30629508335932
      ],
      [
        "▁Social",
        -10.307494900166589
      ],
      [
        "▁positive",
        -10.307952770474794
      ],
      [
        "▁Ri",
        -10.308013339945482
      ],
      [
        "03",
        -10.308171128770955
      ],
      [
        "«,",
        -10.308221141330591
      ],
      [
        "▁Strategie",
        -10.308536777058084
      ],
      [
        "▁Kommission",
        -10.309352907872537
      ],
      [
        "bel",
        -10.309811043104286
      ],
      [
        "▁helfen,",
        -10.310091576087903
      ],
      [
        "nahme",
        -10.310568527674107
      ],
      [
        "▁Arten",
        -10.311250800800664
      ],
      [
        "▁=",
        -10.312327815951171
      ],
      [
        "we",
        -10.312979540013021
      ],
      [
        "▁Des",
        -10.313380257021318
      ],
      [
        "▁Donnerstag",
        -10.31391207651967
      ],
      [
        "▁Aufwand",
        -10.314119089139123
      ],
      [
        "▁teilen",
        -10.31465127456538
      ],
      [
        "ben",
        -10.314669709523173
      ],
      [
        "▁übertragen",
        -10.315532316384926
      ],
      [
        "▁fragt",
        -10.315982754907873
      ],
      [
        "▁erfüllen",
        -10.317335552035537
      ],
      [
        "arbeiten",
        -10.317959566671885
      ],
      [
        "▁Kriterien",
        -10.318043677566436
      ],
      [
        "▁abhängig",
        -10.318118105298531
      ],
      [
        "▁Ausgabe",
        -10.318265959274285
      ],
      [
        "▁Plattform",
        -10.318266143724816
      ],
      [
        "▁2002",
        -10.318283629187253
      ],
      [
        "▁eventuell",
        -10.31911624879784
      ],
      [
        "▁richtet",
        -10.319286003141013
      ],
      [
        "(oder",
        -10.31935605020836
      ],
      [
        "▁Geschwindigkeit",
        -10.319781623800754
      ],
      [
        "▁Muss",
        -10.319793547972905
      ],
      [
        "▁gewesen.",
        -10.320169189464771
      ],
      [
        "▁Laut",
        -10.320454787036844
      ],
      [
        "▁Methoden",
        -10.320969752222497
      ],
      [
        "▁bislang",
        -10.321450520817748
      ],
      [
        "▁Aktien",
        -10.321895478406855
      ],
      [
        "▁Motor",
        -10.32210932713332
      ],
      [
        ".....",
        -10.322225372329388
      ],
      [
        "▁Umfeld",
        -10.322472132697323
      ],
      [
        "▁Ost",
        -10.322648346262513
      ],
      [
        "▁teuer",
        -10.323096295940157
      ],
      [
        "▁werden?",
        -10.323152954463986
      ],
      [
        "▁wenden",
        -10.323539349590167
      ],
      [
        "▁fühlen",
        -10.323704476849933
      ],
      [
        "▁Bildern",
        -10.323853078298782
      ],
      [
        "▁überlegen",
        -10.324050759405988
      ],
      [
        "▁Klassen",
        -10.324649512943925
      ],
      [
        "hn",
        -10.324851189718514
      ],
      [
        "▁bezahlen",
        -10.324870031312862
      ],
      [
        "▁Info",
        -10.325162928111979
      ],
      [
        "▁Ausnahme",
        -10.325250778336176
      ],
      [
        "▁davor",
        -10.325423031704123
      ],
      [
        "▁Einkommen",
        -10.325482408848298
      ],
      [
        "▁klappt",
        -10.325794836845002
      ],
      [
        "▁Gefühle",
        -10.326508837911517
      ],
      [
        "▁Sand",
        -10.326955881656373
      ],
      [
        "smöglichkeiten",
        -10.327491680157674
      ],
      [
        "▁Institut",
        -10.327593780734407
      ],
      [
        "▁dargestellt",
        -10.327932241799331
      ],
      [
        "▁betrachtet",
        -10.327990575089373
      ],
      [
        "po",
        -10.328214948505767
      ],
      [
        "uch",
        -10.328222046012147
      ],
      [
        "▁Amt",
        -10.328381880756483
      ],
      [
        "▁Paul",
        -10.32845333152384
      ],
      [
        "▁verkauft",
        -10.328644224140778
      ],
      [
        "reise",
        -10.329009794745605
      ],
      [
        "-C",
        -10.329188565037493
      ],
      [
        "entsprechenden",
        -10.329733676135533
      ],
      [
        "▁No",
        -10.32994908517253
      ],
      [
        "▁begonnen",
        -10.330461056875162
      ],
      [
        "▁verstehen,",
        -10.33109366429639
      ],
      [
        "hi",
        -10.332224326768294
      ],
      [
        "▁Mar",
        -10.332614167598681
      ],
      [
        "bahn",
        -10.332657919369225
      ],
      [
        "▁Gesetzes",
        -10.332757994090098
      ],
      [
        "▁Haare",
        -10.332999797935578
      ],
      [
        "tra",
        -10.333076119553905
      ],
      [
        "▁Ebene",
        -10.333168890537308
      ],
      [
        "rad",
        -10.333339581981784
      ],
      [
        "▁liebsten",
        -10.333471092106123
      ],
      [
        "anlage",
        -10.333640514109241
      ],
      [
        "▁Museum",
        -10.333774013083852
      ],
      [
        "▁nutzen.",
        -10.334985205464328
      ],
      [
        "wissenschaften",
        -10.335406128191124
      ],
      [
        "▁29",
        -10.3356823521321
      ],
      [
        "▁soll,",
        -10.336004121467205
      ],
      [
        "▁sagen:",
        -10.336087101196625
      ],
      [
        "▁Sekunden",
        -10.336281265548926
      ],
      [
        "▁drin",
        -10.336300135060977
      ],
      [
        "▁hielt",
        -10.337360250634653
      ],
      [
        "▁treten",
        -10.337605244306749
      ],
      [
        "▁Trump",
        -10.338206677443509
      ],
      [
        "▁Restaurants",
        -10.338522459673701
      ],
      [
        "▁Reisen",
        -10.338564098694686
      ],
      [
        "▁Texte",
        -10.338584396229773
      ],
      [
        "?«",
        -10.338979805357198
      ],
      [
        "04",
        -10.339509932508129
      ],
      [
        "-Re",
        -10.340120903616887
      ],
      [
        "▁Schäden",
        -10.340179518670126
      ],
      [
        "▁erheblich",
        -10.340891058095789
      ],
      [
        "▁Ansicht",
        -10.340934430221832
      ],
      [
        "▁Fahrrad",
        -10.341448658637418
      ],
      [
        "▁Trotz",
        -10.342276657169462
      ],
      [
        "▁Betrag",
        -10.342491213161331
      ],
      [
        "▁betroffen",
        -10.342732231568384
      ],
      [
        "▁kalt",
        -10.34275698862653
      ],
      [
        "▁bilden",
        -10.34299154539531
      ],
      [
        "11",
        -10.343139080381494
      ],
      [
        "▁Handels",
        -10.343156598988664
      ],
      [
        "geschichte",
        -10.343179091786396
      ],
      [
        "▁Versicherungs",
        -10.343205318165296
      ],
      [
        "▁sein?",
        -10.343316842750312
      ],
      [
        "▁Gerne",
        -10.34378535734892
      ],
      [
        "-Sch",
        -10.343981910185587
      ],
      [
        "▁Wand",
        -10.344565294635608
      ],
      [
        "▁lecker",
        -10.344628341908233
      ],
      [
        "▁schnelle",
        -10.345175418369905
      ],
      [
        "▁hierbei",
        -10.34517875578998
      ],
      [
        "gleich",
        -10.345547227280559
      ],
      [
        "▁genügend",
        -10.34600977957595
      ],
      [
        "▁öffentlich",
        -10.346269547740473
      ],
      [
        "nde",
        -10.346526590107967
      ],
      [
        "▁momentan",
        -10.346825769538668
      ],
      [
        "▁Türkei",
        -10.347089873691859
      ],
      [
        "▁muss,",
        -10.347721547580637
      ],
      [
        "gesetz",
        -10.348031043288241
      ],
      [
        "▁Richter",
        -10.348256381970074
      ],
      [
        "!)",
        -10.348746691512169
      ],
      [
        "▁Mitarbeitern",
        -10.349015874328515
      ],
      [
        "▁hingegen",
        -10.349066116529283
      ],
      [
        "ren",
        -10.349276951759183
      ],
      [
        "▁Ärzte",
        -10.349378209598523
      ],
      [
        "▁nochmals",
        -10.349692573947902
      ],
      [
        "▁Schiff",
        -10.349787623350338
      ],
      [
        "geld",
        -10.349797116286304
      ],
      [
        "▁Microsoft",
        -10.350295131969293
      ],
      [
        "▁einfache",
        -10.350415204683316
      ],
      [
        "▁allgemein",
        -10.350737666076096
      ],
      [
        "▁(M",
        -10.35138084682345
      ],
      [
        "▁macht.",
        -10.351855311252432
      ],
      [
        "▁Nachmittag",
        -10.352230896553012
      ],
      [
        "▁Ansprüche",
        -10.353037055907567
      ],
      [
        "betrieb",
        -10.353191224057959
      ],
      [
        "▁e.V.",
        -10.353622585816758
      ],
      [
        "▁Krankenhaus",
        -10.35408814648815
      ],
      [
        "▁steigt",
        -10.354599780471979
      ],
      [
        "▁Schließlich",
        -10.354730141375441
      ],
      [
        "▁vieles",
        -10.354810149875338
      ],
      [
        "▁Beziehungen",
        -10.354838295047488
      ],
      [
        "▁möchte.",
        -10.355168290979815
      ],
      [
        "forschung",
        -10.355433484161292
      ],
      [
        "▁Per",
        -10.35548322426586
      ],
      [
        "▁verfolgt",
        -10.355600069019317
      ],
      [
        "▁Option",
        -10.355650011482357
      ],
      [
        "kraft",
        -10.35572195696716
      ],
      [
        "krieg",
        -10.355910983278324
      ],
      [
        "▁Mühe",
        -10.355983680974576
      ],
      [
        "st,",
        -10.356010579786874
      ],
      [
        "e“",
        -10.356156309228428
      ],
      [
        "sel",
        -10.35624479722258
      ],
      [
        "▁p",
        -10.356656179480282
      ],
      [
        "▁gespielt",
        -10.35681508988084
      ],
      [
        "▁(Ja",
        -10.357028997563066
      ],
      [
        "▁starten",
        -10.357548462141022
      ],
      [
        "gel",
        -10.357685857052754
      ],
      [
        "▁Untersuchung",
        -10.35769185052428
      ],
      [
        "est",
        -10.358018469138681
      ],
      [
        "▁definitiv",
        -10.359252176610196
      ],
      [
        "▁erstellen",
        -10.359446696021447
      ],
      [
        "▁Bibel",
        -10.359598418625957
      ],
      [
        "▁möglichen",
        -10.359947775284944
      ],
      [
        "▁Ganze",
        -10.361076062483196
      ],
      [
        "▁Wann",
        -10.361241767276365
      ],
      [
        "▁Dach",
        -10.36143463797955
      ],
      [
        "verkehr",
        -10.361765928446003
      ],
      [
        "▁Förder",
        -10.362431497225005
      ],
      [
        "▁generell",
        -10.362675591838498
      ],
      [
        "io",
        -10.363069598087918
      ],
      [
        "▁Technologie",
        -10.36327825213835
      ],
      [
        "40",
        -10.363370121147177
      ],
      [
        "▁Verhältnis",
        -10.36352478002894
      ],
      [
        "▁stammt",
        -10.363919448061761
      ],
      [
        "wand",
        -10.36407434711855
      ],
      [
        "iger",
        -10.364178564000081
      ],
      [
        "▁versteht",
        -10.364394226819309
      ],
      [
        "▁erstes",
        -10.36450405993603
      ],
      [
        "wa",
        -10.364552206030226
      ],
      [
        "hinsichtlich",
        -10.364954190788787
      ],
      [
        "▁verlieren",
        -10.365300287730985
      ],
      [
        "▁vorstellen",
        -10.365327309685858
      ],
      [
        "▁könne",
        -10.365848906112952
      ],
      [
        "▁weshalb",
        -10.366097633765918
      ],
      [
        "▁brachte",
        -10.366124902926337
      ],
      [
        "▁Fahr",
        -10.366212236859884
      ],
      [
        "▁(F",
        -10.366399636094794
      ],
      [
        "▁verletzt",
        -10.366733877050311
      ],
      [
        "▁Integration",
        -10.36677076460825
      ],
      [
        "▁eng",
        -10.3667762378602
      ],
      [
        "▁tolles",
        -10.366833660529949
      ],
      [
        "▁International",
        -10.366919285660085
      ],
      [
        "▁Ansonsten",
        -10.367243626750186
      ],
      [
        "X",
        -10.367523962220272
      ],
      [
        "ri",
        -10.367801660089528
      ],
      [
        "▁Ruf",
        -10.36800145485596
      ],
      [
        "unter",
        -10.368025334582914
      ],
      [
        "▁Main",
        -10.368679599999485
      ],
      [
        "▁kurzer",
        -10.369549036384617
      ],
      [
        "▁Weihnachts",
        -10.37017694343615
      ],
      [
        "▁Fisch",
        -10.370192720834051
      ],
      [
        "▁Messe",
        -10.370215969592728
      ],
      [
        "schlag",
        -10.370280214233865
      ],
      [
        "▁Deutschlands",
        -10.370306753683582
      ],
      [
        "▁Dollar",
        -10.370687439189137
      ],
      [
        "▁Einrichtungen",
        -10.371434406197311
      ],
      [
        "▁(A",
        -10.371668689207178
      ],
      [
        "▁2001",
        -10.371859121097437
      ],
      [
        "▁gefunden.",
        -10.37196803075297
      ],
      [
        "▁Sitzung",
        -10.372339716361335
      ],
      [
        "▁Finger",
        -10.372665257661936
      ],
      [
        "▁Sieg",
        -10.372677836740452
      ],
      [
        "▁freie",
        -10.372820874890547
      ],
      [
        "s“",
        -10.372857955272863
      ],
      [
        "▁w",
        -10.372957370011704
      ],
      [
        "▁künftig",
        -10.37299346747259
      ],
      [
        "Wird",
        -10.373245125707928
      ],
      [
        "ator",
        -10.373378620334481
      ],
      [
        "▁nehmen,",
        -10.37380013200633
      ],
      [
        "▁Denken",
        -10.374026647923706
      ],
      [
        "▁fühle",
        -10.374281648407631
      ],
      [
        "schau",
        -10.37435203587027
      ],
      [
        "▁Beweis",
[...]
