{
  "version": "1.0",
  "truncation": null,
  "padding": null,
  "added_tokens": [
    {
      "id": 0,
      "content": "[UNK]",
      "single_word": false,
      "lstrip": false,
      "rstrip": false,
      "normalized": false,
      "special": true
    },
    {
      "id": 1,
      "content": "[CLS]",
      "single_word": false,
      "lstrip": false,
      "rstrip": false,
      "normalized": false,
      "special": true
    },
    {
      "id": 2,
      "content": "[SEP]",
      "single_word": false,
      "lstrip": false,
      "rstrip": false,
      "normalized": false,
      "special": true
    },
    {
      "id": 3,
      "content": "[PAD]",
      "single_word": false,
      "lstrip": false,
      "rstrip": false,
      "normalized": false,
      "special": true
    },
    {
      "id": 4,
      "content": "[MASK]",
      "single_word": false,
      "lstrip": false,
      "rstrip": false,
      "normalized": false,
      "special": true
    }
  ],
  "normalizer": {
    "type": "Sequence",
    "normalizers": [
      {
        "type": "Nmt"
      },
      {
        "type": "NFKC"
      },
      {
        "type": "Replace",
        "pattern": {
          "Regex": " {2,}"
        },
        "content": " "
      }
    ]
  },
  "pre_tokenizer": {
    "type": "Metaspace",
    "replacement": "▁",
    "prepend_scheme": "always",
    "split": true
  },
  "post_processor": null,
  "decoder": {
    "type": "Metaspace",
    "replacement": "▁",
    "prepend_scheme": "always",
    "split": true
  },
  "model": {
    "type": "Unigram",
    "unk_id": 0,
    "vocab": [
      [
        "[UNK]",
        0.0
      ],
      [
        "[CLS]",
        0.0
      ],
      [
        "[SEP]",
        0.0
      ],
      [
        "[PAD]",
        0.0
      ],
      [
        "[MASK]",
        0.0
      ],
      [
        "▁",
        -3.278125178439371
      ],
      [
        "▁the",
        -3.3213307409293424
      ],
      [
        "▁to",
        -3.683455606663033
      ],
      [
        ",",
        -3.7852515737266117
      ],
      [
        "▁and",
        -3.8688959012872495
      ],
      [
        ".",
        -3.9114850770455387
      ],
      [
        "▁of",
        -3.9362615846777693
      ],
      [
        "▁a",
        -3.951002574692369
      ],
      [
        "▁in",
        -4.372584402010379
      ],
      [
        "▁I",
        -4.561387321364583
      ],
      [
        "▁is",
        -4.622816178173261
      ],
      [
        "▁you",
        -4.6983288197787445
      ],
      [
        "▁that",
        -4.70413307979776
      ],
      [
        "▁for",
        -4.732393596384391
      ],
      [
        "s",
        -5.0169894365799035
      ],
      [
        "▁on",
        -5.082556473431547
      ],
      [
        "▁with",
        -5.112540725115071
      ],
      [
        "▁it",
        -5.132782587456219
      ],
      [
        "▁be",
        -5.152803597774341
      ],
      [
        "▁are",
        -5.254249071330939
      ],
      [
        "▁have",
        -5.304062593501101
      ],
      [
        "▁your",
        -5.378303734544144
      ],
      [
        "▁this",
        -5.388359770470274
      ],
      [
        "▁as",
        -5.403549811507842
      ],
      [
        "▁was",
        -5.449985719383982
      ],
      [
        "▁or",
        -5.565794513953712
      ],
      [
        "▁The",
        -5.576907571979227
      ],
      [
        "▁not",
        -5.587260915900215
      ],
      [
        "▁at",
        -5.618597965988872
      ],
      [
        "▁will",
        -5.746927273632396
      ],
      [
        "▁from",
        -5.771090836827424
      ],
      [
        "▁can",
        -5.7733693834026205
      ],
      [
        "▁my",
        -5.8089696387198835
      ],
      [
        "▁but",
        -5.811076540048473
      ],
      [
        "▁we",
        -5.863618294796014
      ],
      [
        "▁an",
        -5.8726516853584325
      ],
      [
        "▁by",
        -5.902621472210056
      ],
      [
        "▁all",
        -5.940600500154542
      ],
      [
        "▁they",
        -6.004265680685874
      ],
      [
        ":",
        -6.010841464904026
      ],
      [
        "▁about",
        -6.036019031634542
      ],
      [
        "?",
        -6.0495051339201655
      ],
      [
        "▁so",
        -6.063599299827235
      ],
      [
        "▁he",
        -6.084724543365944
      ],
      [
        "▁more",
        -6.105830522179373
      ],
      [
        "▁one",
        -6.124348061929499
      ],
      [
        "▁has",
        -6.1464942625144285
      ],
      [
        "▁do",
        -6.213668451406351
      ],
      [
        "▁their",
        -6.21536379676936
      ],
      [
        "!",
        -6.232898114271713
      ],
      [
        "▁out",
        -6.234386231335913
      ],
      [
        "▁like",
        -6.242235313852518
      ],
      [
        "▁if",
        -6.261474071627999
      ],
      [
        "▁his",
        -6.265740598198228
      ],
      [
        "▁up",
        -6.285028594788892
      ],
      [
        "▁what",
        -6.300722254940299
      ],
      [
        "▁our",
        -6.308993472736658
      ],
      [
        "▁would",
        -6.340318358488435
      ],
      [
        "ing",
        -6.34586645718451
      ],
      [
        "▁just",
        -6.353841177979408
      ],
      [
        "▁who",
        -6.366779095032291
      ],
      [
        "▁had",
        -6.391102504693043
      ],
      [
        "▁been",
        -6.401754705514426
      ],
      [
        "▁me",
        -6.446824526271099
      ],
      [
        "▁get",
        -6.4474003963305595
      ],
      [
        "▁some",
        -6.452062774957067
      ],
      [
        "▁which",
        -6.453836890376195
      ],
      [
        "▁when",
        -6.457576535196212
      ],
      [
        "-",
        -6.497090740574686
      ],
      [
        "’s",
        -6.5221942438266325
      ],
      [
        "▁her",
        -6.542157215116177
      ],
      [
        "▁time",
        -6.543947579160049
      ],
      [
        ")",
        -6.55253461584662
      ],
      [
        "▁there",
        -6.5622296612536655
      ],
      [
        "▁It",
        -6.566148787116573
      ],
      [
        "▁were",
        -6.597256132102681
      ],
      [
        "▁other",
        -6.599317602158699
      ],
      [
        "a",
        -6.603064733860165
      ],
      [
        "▁any",
        -6.638733612694393
      ],
      [
        "▁how",
        -6.647382624230989
      ],
      [
        "▁This",
        -6.647752210256314
      ],
      [
        "ed",
        -6.648919906296161
      ],
      [
        "t",
        -6.660478884898668
      ],
      [
        "▁people",
        -6.677408801900365
      ],
      [
        "▁than",
        -6.68298552156954
      ],
      [
        "▁We",
        -6.686899329848503
      ],
      [
        "▁no",
        -6.709491498298798
      ],
      [
        "▁them",
        -6.71515090368481
      ],
      [
        "...",
        -6.715352897253636
      ],
      [
        "▁You",
        -6.721777101684937
      ],
      [
        "▁also",
        -6.725095483479683
      ],
      [
        "'s",
        -6.727825998467701
      ],
      [
        "d",
        -6.732151221136805
      ],
      [
        "▁A",
        -6.735329160184769
      ],
      [
        "▁know",
        -6.746099779445325
      ],
      [
        "▁make",
        -6.770388828701996
      ],
      [
        "▁she",
        -6.771237178980398
      ],
      [
        "▁into",
        -6.775471993043251
      ],
      [
        "▁If",
        -6.78990260253487
      ],
      [
        "▁very",
        -6.802465993960626
      ],
      [
        "e",
        -6.807902708337425
      ],
      [
        "▁only",
        -6.8331527756222545
      ],
      [
        "▁see",
        -6.859251178469799
      ],
      [
        ";",
        -6.87273196010174
      ],
      [
        "▁new",
        -6.874249964524772
      ],
      [
        "▁In",
        -6.874788627409963
      ],
      [
        "▁over",
        -6.889715768230575
      ],
      [
        "▁think",
        -6.901044674714527
      ],
      [
        "▁good",
        -6.911058926818454
      ],
      [
        "▁could",
        -6.923469216862747
      ],
      [
        "▁much",
        -6.92967760578091
      ],
      [
        "▁may",
        -6.942805532581442
      ],
      [
        "s,",
        -6.968576484557822
      ],
      [
        "▁these",
        -6.977782670299053
      ],
      [
        "▁need",
        -6.9825408014666515
      ],
      [
        "\"",
        -6.984022088764945
      ],
      [
        "▁really",
        -7.007055802407516
      ],
      [
        "▁want",
        -7.01471958382715
      ],
      [
        "▁first",
        -7.0271886360789555
      ],
      [
        "▁should",
        -7.032685651982408
      ],
      [
        "▁-",
        -7.0380174294424105
      ],
      [
        "▁many",
        -7.042788586284825
      ],
      [
        "▁most",
        -7.0459284686585075
      ],
      [
        "▁even",
        -7.054021199956788
      ],
      [
        "▁us",
        -7.059254665326959
      ],
      [
        "▁way",
        -7.063211817340392
      ],
      [
        "▁back",
        -7.066572804391917
      ],
      [
        "y",
        -7.06743766009836
      ],
      [
        "▁He",
        -7.074001813185685
      ],
      [
        "▁And",
        -7.0790125632516006
      ],
      [
        "▁because",
        -7.087217572555243
      ],
      [
        "▁(",
        -7.115915238492757
      ],
      [
        "s.",
        -7.11632634837674
      ],
      [
        "▁–",
        -7.125396520324244
      ],
      [
        "▁work",
        -7.127600525055197
      ],
      [
        "”",
        -7.129311577884122
      ],
      [
        "▁use",
        -7.129923743434961
      ],
      [
        "▁go",
        -7.130003260987042
      ],
      [
        "▁am",
        -7.1401801133039395
      ],
      [
        "▁take",
        -7.141608915607151
      ],
      [
        "▁But",
        -7.157866757552426
      ],
      [
        "▁said",
        -7.174606882993375
      ],
      [
        "▁then",
        -7.176018564850022
      ],
      [
        "o",
        -7.1781442578615735
      ],
      [
        "▁going",
        -7.1787837138742425
      ],
      [
        "▁where",
        -7.180825137249702
      ],
      [
        "▁two",
        -7.195646224321276
      ],
      [
        "▁“",
        -7.201422013109623
      ],
      [
        "▁after",
        -7.209916960526247
      ],
      [
        "▁its",
        -7.211882575851348
      ],
      [
        "▁those",
        -7.214020685489526
      ],
      [
        "▁\"",
        -7.229896313589833
      ],
      [
        "▁being",
        -7.2302753357670735
      ],
      [
        "▁help",
        -7.240339306966305
      ],
      [
        "▁great",
        -7.247597218848567
      ],
      [
        "▁through",
        -7.2660198007261165
      ],
      [
        "i",
        -7.2742006299796085
      ],
      [
        "▁now",
        -7.276957815964417
      ],
      [
        "▁such",
        -7.28063462297845
      ],
      [
        "▁him",
        -7.291365109643245
      ],
      [
        ".”",
        -7.301360781668148
      ],
      [
        "▁find",
        -7.315337118636952
      ],
      [
        ".\"",
        -7.316711162164841
      ],
      [
        "▁before",
        -7.333709386322603
      ],
      [
        "▁still",
        -7.337778327247481
      ],
      [
        "▁well",
        -7.353611708573165
      ],
      [
        "/",
        -7.357505793170905
      ],
      [
        "▁made",
        -7.363656489152586
      ],
      [
        "▁look",
        -7.377028302028426
      ],
      [
        "▁did",
        -7.3784647584757455
      ],
      [
        "▁best",
        -7.384619484537543
      ],
      [
        "n",
        -7.388174885565698
      ],
      [
        "▁years",
        -7.3886243806889595
      ],
      [
        "▁love",
        -7.394402676457883
      ],
      [
        "'",
        -7.400353029176038
      ],
      [
        "▁little",
        -7.402732592329304
      ],
      [
        "▁There",
        -7.403639231802094
      ],
      [
        "▁right",
        -7.406674459847844
      ],
      [
        "▁something",
        -7.419011426572906
      ],
      [
        "▁don't",
        -7.42341817383339
      ],
      [
        "▁What",
        -7.428604878100238
      ],
      [
        "r",
        -7.429928814727422
      ],
      [
        "▁last",
        -7.432231705103577
      ],
      [
        "▁few",
        -7.434055401890385
      ],
      [
        "▁I'm",
        -7.435159553193639
      ],
      [
        "▁here",
        -7.436969033264976
      ],
      [
        "▁own",
        -7.451328183376713
      ],
      [
        "▁things",
        -7.472007633166163
      ],
      [
        "▁down",
        -7.472126485765074
      ],
      [
        "▁They",
        -7.474442234780106
      ],
      [
        "▁come",
        -7.492883746039345
      ],
      [
        "▁around",
        -7.513716219078713
      ],
      [
        "ly",
        -7.52477901484616
      ],
      [
        "▁same",
        -7.531457267676341
      ],
      [
        "▁off",
        -7.542625763232184
      ],
      [
        "▁sure",
        -7.543331656165291
      ],
      [
        "▁always",
        -7.548476383197842
      ],
      [
        "▁never",
        -7.551026494055108
      ],
      [
        "▁got",
        -7.557959642888248
      ],
      [
        "▁every",
        -7.561033028360315
      ],
      [
        "▁don’t",
        -7.56575401600168
      ],
      [
        "▁day",
        -7.568861323062265
      ],
      [
        "▁lot",
        -7.5827490256430465
      ],
      [
        "▁long",
        -7.583815184561043
      ],
      [
        "▁say",
        -7.5907916305897185
      ],
      [
        "▁it.",
        -7.593337826474448
      ],
      [
        "▁while",
        -7.597329534781757
      ],
      [
        "▁So",
        -7.59786551755359
      ],
      [
        "▁For",
        -7.600294835909345
      ],
      [
        "m",
        -7.6020425760845995
      ],
      [
        "▁used",
        -7.605011455452384
      ],
      [
        "▁too",
        -7.605911793369446
      ],
      [
        "▁information",
        -7.6106395924847625
      ],
      [
        "▁each",
        -7.624939973123171
      ],
      [
        "▁As",
        -7.6254288851159195
      ],
      [
        "▁it's",
        -7.631658144344032
      ],
      [
        "▁might",
        -7.638919669970603
      ],
      [
        "▁must",
        -7.642684794583115
      ],
      [
        "▁part",
        -7.662877547490881
      ],
      [
        "▁I’m",
        -7.666492398351869
      ],
      [
        "▁it’s",
        -7.669248503222775
      ],
      [
        ").",
        -7.68831212546425
      ],
      [
        "▁better",
        -7.697021031968784
      ],
      [
        "er",
        -7.698163458892569
      ],
      [
        "▁does",
        -7.704704019328034
      ],
      [
        "▁next",
        -7.711862051510364
      ],
      [
        "▁year",
        -7.713352834424779
      ],
      [
        "▁When",
        -7.735331121929599
      ],
      [
        "▁different",
        -7.743554767101568
      ],
      [
        "▁give",
        -7.745214440308759
      ],
      [
        "▁She",
        -7.745512551201642
      ],
      [
        "▁feel",
        -7.74916356087668
      ],
      [
        "▁keep",
        -7.7641368798511845
      ],
      [
        "▁life",
        -7.764170052699493
      ],
      [
        "▁found",
        -7.765058804871611
      ],
      [
        "▁My",
        -7.786110444548717
      ],
      [
        "▁To",
        -7.796573458731105
      ],
      [
        "▁without",
        -7.7992044338213145
      ],
      [
        "▁home",
        -7.802494987362451
      ],
      [
        "▁i",
        -7.80556169362999
      ],
      [
        "▁another",
        -7.811609711671625
      ],
      [
        ",”",
        -7.816244997448399
      ],
      [
        "▁why",
        -7.826520920523215
      ],
      [
        "▁both",
        -7.827479654780392
      ],
      [
        "▁place",
        -7.828963746428196
      ],
      [
        "▁looking",
        -7.837598939221277
      ],
      [
        "▁put",
        -7.844697887304582
      ],
      [
        "▁business",
        -7.85115060597869
      ],
      [
        "▁under",
        -7.856811477033704
      ],
      [
        "▁able",
        -7.857643657141008
      ],
      [
        "▁thing",
        -7.858223122721299
      ],
      [
        "on",
        -7.872703153312916
      ],
      [
        "▁since",
        -7.890988022742803
      ],
      [
        "▁read",
        -7.893141500111547
      ],
      [
        "▁between",
        -7.895497237279718
      ],
      [
        ",\"",
        -7.9045140137526335
      ],
      [
        "▁three",
        -7.930985167561211
      ],
      [
        "in",
        -7.9311458057952215
      ],
      [
        "’",
        -7.943006316737243
      ],
      [
        "▁number",
        -7.945920077794959
      ],
      [
        "▁world",
        -7.94656551409202
      ],
      [
        "▁2",
        -7.949525211249053
      ],
      [
        "▁end",
        -7.955233788427343
      ],
      [
        "▁How",
        -7.9605763340229565
      ],
      [
        "▁That",
        -7.964021858365113
      ],
      [
        "▁set",
        -7.970966483613934
      ],
      [
        "▁having",
        -7.981195319245234
      ],
      [
        "▁using",
        -7.987455565590391
      ],
      [
        "▁ever",
        -7.987856340578837
      ],
      [
        "▁start",
        -8.00505971888098
      ],
      [
        "▁free",
        -8.013861966533927
      ],
      [
        "▁getting",
        -8.015192523131082
      ],
      [
        "▁during",
        -8.015329443488264
      ],
      [
        "▁actually",
        -8.02515486145652
      ],
      [
        "▁important",
        -8.025498332768716
      ],
      [
        "▁making",
        -8.027589033459295
      ],
      [
        "▁thought",
        -8.030549427353606
      ],
      [
        "▁doing",
        -8.031334630858018
      ],
      [
        "f",
        -8.035574222802433
      ],
      [
        "▁old",
        -8.03577806853723
      ],
      [
        "▁working",
        -8.047234638369327
      ],
      [
        "▁3",
        -8.056342638911422
      ],
      [
        "▁person",
        -8.05942108283051
      ],
      [
        "▁family",
        -8.060241825902919
      ],
      [
        "▁high",
        -8.061634979202399
      ],
      [
        "▁try",
        -8.07253932649217
      ],
      [
        "▁It’s",
        -8.074370810512063
      ],
      [
        "▁enough",
        -8.07607890319474
      ],
      [
        "▁someone",
        -8.081691529451174
      ],
      [
        "▁least",
        -8.086122356848694
      ],
      [
        "▁already",
        -8.088148708942361
      ],
      [
        "▁let",
        -8.089044766773172
      ],
      [
        "▁big",
        -8.094938367821165
      ],
      [
        "▁tell",
        -8.09568336406793
      ],
      [
        "▁until",
        -8.097693404986645
      ],
      [
        "▁site",
        -8.099566729958235
      ],
      [
        "▁care",
        -8.102109176206302
      ],
      [
        "is",
        -8.106809125791175
      ],
      [
        "▁came",
        -8.108320998508376
      ],
      [
        "▁It's",
        -8.125600229080709
      ],
      [
        "▁1",
        -8.125859533626452
      ],
      [
        "▁bit",
        -8.129292254893851
      ],
      [
        "▁days",
        -8.131479177440092
      ],
      [
        "al",
        -8.133806342559279
      ],
      [
        "▁believe",
        -8.138532472546983
      ],
      [
        "▁small",
        -8.143175563470587
      ],
      [
        "▁done",
        -8.143900159070858
      ],
      [
        "▁Do",
        -8.146340726650315
      ],
      [
        "▁show",
        -8.147299909645024
      ],
      [
        "▁hard",
        -8.148653506022903
      ],
      [
        "▁away",
        -8.154079191809858
      ],
      [
        "▁post",
        -8.16658000865997
      ],
      [
        "▁far",
        -8.174169482973234
      ],
      [
        "▁experience",
        -8.179439466457781
      ],
      [
        "▁man",
        -8.179883448025135
      ],
      [
        "h",
        -8.18166915095629
      ],
      [
        "▁All",
        -8.188524749636295
      ],
      [
        "▁change",
        -8.188706117320589
      ],
      [
        "▁kind",
        -8.19745733611976
      ],
      [
        "▁point",
        -8.201789915033757
      ],
      [
        "re",
        -8.202454969352596
      ],
      [
        "▁you’re",
        -8.205261769884373
      ],
      [
        "▁full",
        -8.206315619856197
      ],
      [
        "▁10",
        -8.211040232634511
      ],
      [
        "▁support",
        -8.211203631204105
      ],
      [
        "▁5",
        -8.211287260981388
      ],
      [
        "▁provide",
        -8.211476088408817
      ],
      [
        "▁call",
        -8.212049463574278
      ],
      [
        "an",
        -8.217741419842394
      ],
      [
        "▁within",
        -8.221210836752892
      ],
      [
        "▁less",
        -8.221373221891115
      ],
      [
        "▁hope",
        -8.221571611554824
      ],
      [
        "▁New",
        -8.226828013670058
      ],
      [
        "▁means",
        -8.227943932886824
      ],
      [
        "▁anything",
        -8.22858026154705
      ],
      [
        "▁often",
        -8.229735620336953
      ],
      [
        "▁money",
        -8.230832698475071
      ],
      [
        "▁I've",
        -8.231881346860746
      ],
      [
        "▁went",
        -8.23463097040092
      ],
      [
        "▁against",
        -8.236346202408614
      ],
      [
        "▁—",
        -8.242257481123328
      ],
      [
        "▁...",
        -8.24327271781779
      ],
      [
        "▁order",
        -8.246140635326359
      ],
      [
        "▁including",
        -8.247030177385328
      ],
      [
        "▁Your",
        -8.247815215073702
      ],
      [
        "▁available",
        -8.252586321282525
      ],
      [
        "▁school",
        -8.255126051118697
      ],
      [
        "c",
        -8.264218148087936
      ],
      [
        "),",
        -8.266960560740229
      ],
      [
        "▁‘",
        -8.270029906555726
      ],
      [
        "▁real",
        -8.270817920398512
      ],
      [
        "▁One",
        -8.275976512600707
      ],
      [
        "▁become",
        -8.277618033160989
      ],
      [
        "▁following",
        -8.278351314700442
      ],
      [
        "or",
        -8.279760582694738
      ],
      [
        "▁pretty",
        -8.281064280408092
      ],
      [
        "▁them.",
        -8.282018451419306
      ],
      [
        "▁At",
        -8.287659994440954
      ],
      [
        "▁once",
        -8.288988891449344
      ],
      [
        "▁said.",
        -8.290553573033081
      ],
      [
        "▁&",
        -8.297388887817137
      ],
      [
        "▁makes",
        -8.299730545824913
      ],
      [
        "▁I’ve",
        -8.30024845549006
      ],
      [
        "▁blog",
        -8.303184462104888
      ],
      [
        "▁trying",
        -8.305013447339869
      ],
      [
        "g",
        -8.305763345909055
      ],
      [
        "l",
        -8.306897530403814
      ],
      [
        "▁top",
        -8.307069318028818
      ],
      [
        "▁left",
        -8.310689389202619
      ],
      [
        "▁book",
        -8.315931530319217
      ],
      [
        "▁web",
        -8.316444322081244
      ],
      [
        "▁social",
        -8.317442622313123
      ],
      [
        "▁Thanks",
        -8.318374333623296
      ],
      [
        "▁time.",
        -8.318543078102003
      ],
      [
        "▁4",
        -8.322455177548425
      ],
      [
        "▁local",
        -8.324033217593042
      ],
      [
        "▁health",
        -8.324714395432482
      ],
      [
        "▁team",
        -8.325327076555777
      ],
      [
        "▁personal",
        -8.328896134852137
      ],
      [
        "▁quite",
        -8.333042764066425
      ],
      [
        "▁please",
        -8.334208712544195
      ],
      [
        "▁probably",
        -8.334827810561695
      ],
      [
        "▁data",
        -8.338065474397375
      ],
      [
        "▁With",
        -8.340834176423517
      ],
      [
        "▁whole",
        -8.341002439529186
      ],
      [
        "▁understand",
        -8.343171525962477
      ],
      [
        "▁live",
        -8.344184896067942
      ],
      [
        "▁service",
        -8.345006455135847
      ],
      [
        "▁seen",
        -8.345557907141028
      ],
      [
        "▁car",
        -8.348684475732762
      ],
      [
        "▁\"I",
        -8.348704823610264
      ],
      [
        "▁Here",
        -8.349555677192892
      ],
      [
        "▁case",
        -8.352636567425685
      ],
      [
        "▁children",
        -8.356857595556962
      ],
      [
        "▁company",
        -8.357533614956987
      ],
      [
        "▁though",
        -8.359671925354526
      ],
      [
        "▁open",
        -8.359704790955295
      ],
      [
        "▁play",
        -8.362276937339695
      ],
      [
        "▁name",
        -8.366441311409455
      ],
      [
        "▁Thank",
        -8.368391194976402
      ],
      [
        "p",
        -8.369152774902107
      ],
      [
        "▁website",
        -8.369686589981375
      ],
      [
        "▁public",
        -8.370767353009963
      ],
      [
        "▁pay",
        -8.371756481493467
      ],
      [
        "▁week",
        -8.372292203060333
      ],
      [
        "▁easy",
        -8.375338236842282
      ],
      [
        "▁per",
        -8.376472663268032
      ],
      [
        "?\"",
        -8.378850961047903
      ],
      [
        "u",
        -8.379337454795532
      ],
      [
        "▁again",
        -8.384113329812825
      ],
      [
        "▁water",
        -8.384429705828522
      ],
      [
        "▁No",
        -8.386558032606363
      ],
      [
        "▁told",
        -8.38850524878318
      ],
      [
        "▁everything",
        -8.39001398011438
      ],
      [
        "▁didn't",
        -8.392898268994982
      ],
      [
        "▁game",
        -8.392969300645106
      ],
      [
        "▁took",
        -8.397965498015138
      ],
      [
        "▁These",
        -8.398000298127885
      ],
      [
        "▁can't",
        -8.399826627693662
      ],
      [
        "▁idea",
        -8.400186781532952
      ],
      [
        "▁nothing",
        -8.40384449413213
      ],
      [
        "b",
        -8.403957542644386
      ],
      [
        "▁comes",
        -8.405914060569337
      ],
      [
        "▁On",
        -8.40888415670227
      ],
      [
        "▁started",
        -8.41785582401755
      ],
      [
        "▁seems",
        -8.422836780561573
      ],
      [
        "▁system",
        -8.42325973645536
      ],
      [
        "▁services",
        -8.423368610157711
      ],
      [
        "▁wanted",
        -8.427630315437995
      ],
      [
        "▁past",
        -8.430796246316342
      ],
      [
        "▁learn",
        -8.43667246924961
      ],
      [
        "▁Not",
        -8.44252405601386
      ],
      [
        "▁check",
        -8.44618418385834
      ],
      [
        "▁anyone",
        -8.447275319847042
      ],
      [
        "▁students",
        -8.448068441515453
      ],
      [
        "▁shall",
        -8.457204889888475
      ],
      [
        "▁second",
        -8.4597758141551
      ],
      [
        "▁Our",
        -8.460159709357933
      ],
      [
        "▁several",
        -8.460981493123189
      ],
      [
        "▁called",
        -8.461291592152433
      ],
      [
        "▁times",
        -8.462191691144445
      ],
      [
        "▁taking",
        -8.464796437354263
      ],
      [
        "▁online",
        -8.464895087435726
      ],
      [
        "▁everyone",
        -8.466463973504402
      ],
      [
        "▁me.",
        -8.466695025674062
      ],
      [
        "▁given",
        -8.466873746059811
      ],
      [
        "▁you're",
        -8.468990067547287
      ],
      [
        "▁After",
        -8.469325430624478
      ],
      [
        "▁ask",
        -8.475445296433751
      ],
      [
        "▁share",
        -8.475694796928499
      ],
      [
        "▁insurance",
        -8.477391947493633
      ],
      [
        "▁needs",
        -8.477594475463357
      ],
      [
        "▁course",
        -8.477850605457066
      ],
      [
        "▁job",
        -8.479691935625183
      ],
      [
        "▁group",
        -8.481514448106912
      ],
      [
        "▁list",
        -8.485487680368417
      ],
      [
        "▁across",
        -8.486056021093637
      ],
      [
        "▁state",
        -8.495792785977203
      ],
      [
        "▁food",
        -8.497288275939793
      ],
      [
        "▁whether",
        -8.49868459618214
      ],
      [
        "▁side",
        -8.499829504521218
      ],
      [
        "▁run",
        -8.502492860000087
      ],
      [
        "▁“I",
        -8.504564859058744
      ],
      [
        "▁However,",
        -8.511325792029073
      ],
      [
        "▁along",
        -8.513182388455528
      ],
      [
        "▁mind",
        -8.51462783121749
      ],
      [
        "▁large",
        -8.515752706245603
      ],
      [
        "▁bad",
        -8.518942232665228
      ],
      [
        "▁almost",
        -8.520189578459517
      ],
      [
        "▁reading",
        -8.520562222607307
      ],
      [
        "▁create",
        -8.521790184219277
      ],
      [
        "▁visit",
        -8.522653037696347
      ],
      [
        "▁together",
        -8.525435292913782
      ],
      [
        "▁head",
        -8.532671480234328
      ],
      [
        "ers",
        -8.541283809389919
      ],
      [
        "▁room",
        -8.54512361076168
      ],
      [
        "▁yet",
        -8.551724701188656
      ],
      [
        "▁coming",
        -8.552091379029786
      ],
      [
        "▁offer",
        -8.552175933470338
      ],
      [
        "▁says",
        -8.55586034195368
      ],
      [
        "▁contact",
        -8.56064981191631
      ],
      [
        "▁process",
        -8.561597300748033
      ],
      [
        "▁rather",
        -8.565950745670733
      ],
      [
        "▁possible",
        -8.565996977862117
      ],
      [
        "▁story",
        -8.566097432136758
      ],
      [
        "▁looks",
        -8.567435999863438
      ],
      [
        "▁Just",
        -8.567752181383067
      ],
      [
        "I",
        -8.571201979337678
      ],
      [
        "▁problem",
        -8.572854208121958
      ],
      [
        "▁didn’t",
        -8.574528581299447
      ],
      [
        "▁happy",
        -8.578568588873331
      ],
      [
        "▁months",
        -8.578844928899162
      ],
      [
        "▁women",
        -8.579356477508732
      ],
      [
        "▁hours",
        -8.583775912807134
      ],
      [
        "▁plan",
        -8.584499421434272
      ],
      [
        "▁fact",
        -8.585800211847864
      ],
      [
        "▁form",
        -8.586932784180279
      ],
      [
        "▁others",
        -8.58832065645226
      ],
      [
        "x",
        -8.593644028168756
      ],
      [
        "▁based",
        -8.594422762380393
      ],
      [
        "▁power",
        -8.60366458218223
      ],
      [
        "▁night",
        -8.6037697392723
      ],
      [
        "▁6",
        -8.60499564141154
      ],
      [
        "▁government",
        -8.606644150509638
      ],
      [
        "▁nice",
        -8.606917847727331
      ],
      [
        "▁can’t",
        -8.612532004852694
      ],
      [
        "▁young",
        -8.613502455732144
      ],
      [
        "▁talk",
        -8.614259236560462
      ],
      [
        "▁asked",
        -8.615460528829011
      ],
      [
        "▁matter",
        -8.620286668632469
      ],
      [
        "▁mean",
        -8.621129691080652
      ],
      [
        "▁couple",
        -8.621327418165446
      ],
      [
        "▁body",
        -8.621649246723509
      ],
      [
        "▁above",
        -8.623417233023455
      ],
      [
        "k",
        -8.624067559179732
      ],
      [
        "▁taken",
        -8.624716408699381
      ],
      [
        "▁especially",
        -8.624739193387983
      ],
      [
        "▁four",
        -8.629808624307286
      ],
      [
        "▁friends",
        -8.630235297713273
      ],
      [
        "▁early",
        -8.633080723687057
      ],
      [
        "▁said,",
        -8.633422588734645
      ],
      [
        "▁leave",
        -8.633984694164432
      ],
      [
        "▁house",
        -8.634331216743067
      ],
      [
        "▁fun",
        -8.639156284631019
      ],
      [
        "▁S",
        -8.641248804493554
      ],
      [
        "▁Please",
        -8.642581534181062
      ],
      [
        "▁men",
        -8.644860399022464
      ],
      [
        "▁stop",
        -8.646256329951198
      ],
      [
        "▁close",
        -8.646955006180251
      ],
      [
        "▁else",
        -8.648405741299786
      ],
      [
        "▁bring",
        -8.650443862341248
      ],
      [
        "▁reason",
        -8.650535665171294
      ],
      [
        "▁writing",
        -8.650538735062776
      ],
      [
        "S",
        -8.650749390257912
      ],
      [
        "▁hear",
        -8.656785620062367
      ],
      [
        "▁simply",
        -8.665304933120444
      ],
      [
        "it",
        -8.666017191645008
      ],
      [
        "▁time,",
        -8.667582528250854
      ],
      [
        "▁likely",
        -8.671748329139454
      ],
      [
        "▁access",
        -8.672701102212146
      ],
      [
        "▁Now",
        -8.676901760243734
      ],
      [
        "▁stay",
        -8.677446220177622
      ],
      [
        "▁doesn't",
        -8.681397128530552
      ],
      [
        "▁face",
        -8.681577702916762
      ],
      [
        "▁special",
        -8.682147448099256
      ],
      [
        "▁here.",
        -8.683515174495128
      ],
      [
        "▁area",
        -8.686641548007634
      ],
      [
        "]",
        -8.687847979778724
      ],
      [
        "▁certain",
        -8.688140944180095
      ],
      [
        "▁hand",
        -8.689243737066073
      ],
      [
        "▁enjoy",
        -8.69132929044881
      ],
      [
        "▁God",
        -8.691736969905767
      ],
      [
        "▁short",
        -8.694107082170317
      ],
      [
        "▁current",
        -8.69467211660091
      ],
      [
        "▁Some",
        -8.696456865408445
      ],
      [
        "▁seem",
        -8.697364100185489
      ],
      [
        "▁yourself",
        -8.699031172536772
      ],
      [
        "?”",
        -8.706582354012603
      ],
      [
        "▁questions",
        -8.707071570344365
      ],
      [
        "▁forward",
        -8.70809230974348
      ],
      [
        "▁due",
        -8.709170948952053
      ],
      [
        "▁buy",
        -8.70994517373147
      ],
      [
        "▁C",
        -8.711454228950647
      ],
      [
        "▁article",
        -8.711495462578645
      ],
      [
        "▁child",
        -8.715387293130235
      ],
      [
        "able",
        -8.715419577031314
      ],
      [
        "en",
        -8.716407473827926
      ],
      [
        "▁An",
        -8.72009769707591
      ],
      [
        "▁email",
        -8.721663123976992
      ],
      [
        "▁quality",
        -8.725528532625429
      ],
      [
        "▁either",
        -8.725658473560092
      ],
      [
        "▁market",
        -8.726881682575344
      ],
      [
        "▁question",
        -8.727113866979744
      ],
      [
        "▁cost",
        -8.727607160016408
      ],
      [
        "▁--",
        -8.729157475788126
      ],
      [
        "▁five",
        -8.729872899572175
      ],
      [
        "▁add",
        -8.730363764695806
      ],
      [
        "▁it,",
        -8.731699986141322
      ],
      [
        "▁doesn’t",
        -8.731968272969427
      ],
      [
        "▁community",
        -8.734667787654866
      ],
      [
        "▁While",
        -8.738206444438994
      ],
      [
        "▁remember",
        -8.73824575569137
      ],
      [
        "▁human",
        -8.738347955784407
      ],
      [
        "▁saw",
        -8.740816990161429
      ],
      [
        "▁million",
        -8.742626630525772
      ],
      [
        "▁heard",
        -8.743131268499898
      ],
      [
        "▁research",
        -8.74361244760319
      ],
      [
        "▁amount",
        -8.74963579943563
      ],
      [
        "▁heart",
        -8.750707346508364
      ],
      [
        "▁future",
        -8.750710805955745
      ],
      [
        "▁single",
        -8.751461520506178
      ],
      [
        "▁type",
        -8.753464385184076
      ],
      [
        "▁living",
        -8.753876493549274
      ],
      [
        "▁include",
        -8.756646463029158
      ],
      [
        "▁worth",
        -8.757738967621702
      ],
      [
        "▁move",
        -8.758644664136535
      ],
      [
        "▁level",
        -8.75872708949052
      ],
      [
        "▁country",
        -8.761243936633468
      ],
      [
        "▁that's",
        -8.763111081312909
      ],
      [
        "▁write",
        -8.764204012668806
      ],
      [
        "▁wish",
        -8.7682928074528
      ],
      [
        "▁I'll",
        -8.768726113339673
      ],
      [
        "▁page",
        -8.76959638538602
      ],
      [
        "▁20",
        -8.770345606096189
      ],
      [
        "▁D",
        -8.770393768711703
      ],
      [
        "▁video",
        -8.775821525693951
      ],
      [
        "▁known",
        -8.775966460428254
      ],
      [
        "▁clear",
        -8.778415354341403
      ],
      [
        "▁project",
        -8.780040583053236
      ],
      [
        "▁Then",
        -8.780888627033873
      ],
      [
        "▁cannot",
        -8.780945449996235
      ],
      [
        "▁perfect",
        -8.781611443545149
      ],
      [
        "▁upon",
        -8.784235633769367
      ],
      [
        "▁meet",
        -8.78811500779106
      ],
      [
        "▁half",
        -8.790633460135554
      ],
      [
        "▁continue",
        -8.793699506901
      ],
      [
        "▁turn",
        -8.79710400996763
      ],
      [
        "▁thinking",
        -8.797365532866793
      ],
      [
        "▁line",
        -8.799092174022505
      ],
      [
        "▁simple",
        -8.801941456461096
      ],
      [
        "’d",
        -8.805524232104647
      ],
      [
        "▁rest",
        -8.805556434649143
      ],
      [
        "▁un",
        -8.808250018307037
      ],
      [
        "▁[",
        -8.809074774906556
      ],
      [
        "▁light",
        -8.809366738572246
      ],
      [
        "▁looked",
        -8.809604211805874
      ],
      [
        "▁kids",
        -8.809714818021748
      ],
      [
        "▁behind",
        -8.812107640781873
      ],
      [
        "▁program",
        -8.81794253465742
      ],
      [
        "▁today",
        -8.818203865925259
      ],
      [
        "▁beautiful",
        -8.823741532078563
      ],
      [
        "▁further",
        -8.824080033463435
      ],
      [
        "▁knew",
        -8.824806804806727
      ],
      [
        "▁deal",
        -8.825303595247975
      ],
      [
        "▁longer",
        -8.825451112994443
      ],
      [
        "▁report",
        -8.828721114995611
      ],
      [
        "▁that’s",
        -8.82941419147683
      ],
      [
        "▁content",
        -8.829885683110758
      ],
      [
        "▁event",
        -8.830661805188296
      ],
      [
        "▁members",
        -8.832939689525679
      ],
      [
        "▁interesting",
        -8.833551918370638
      ],
      [
        "▁me,",
        -8.834814605879066
      ],
      [
        "▁media",
        -8.83518818193379
      ],
      [
        "▁soon",
        -8.83532149906252
      ],
      [
        "▁needed",
        -8.837750001031866
      ],
      [
        "▁usually",
        -8.838259705153165
      ],
      [
        "▁control",
        -8.838978063934704
      ],
      [
        "▁maybe",
        -8.839216881425909
      ],
      [
        "▁30",
        -8.839576350901407
      ],
      [
        "▁7",
        -8.840247890526399
      ],
      [
        "▁ready",
        -8.844115268826267
      ],
      [
        "▁8",
        -8.849782487180596
      ],
      [
        "▁minutes",
        -8.850947965136422
      ],
      [
        "▁building",
        -8.853786621613766
      ],
      [
        "▁ways",
        -8.85450132014761
      ],
      [
        "▁myself",
        -8.855624686363756
      ],
      [
        "▁front",
        -8.858555602331712
      ],
      [
        "▁B",
        -8.859801691567558
      ],
      [
        "▁products",
        -8.863816166115653
      ],
      [
        "th",
        -8.867496700263752
      ],
      [
        "▁chance",
        -8.868101010636154
      ],
      [
        "▁American",
        -8.86957098199824
      ],
      [
        "▁wait",
        -8.870602482067067
      ],
      [
        "▁product",
        -8.871407617173274
      ],
      [
        "▁issues",
        -8.874909985776938
      ],
      [
        "▁true",
        -8.875931836939275
      ],
      [
        "▁issue",
        -8.877276418503039
      ],
      [
        "w",
        -8.87771167799607
      ],
      [
        "▁definitely",
        -8.878024917916843
      ],
      [
        "▁study",
        -8.87814944041452
      ],
      [
        "▁city",
        -8.881731949448064
      ],
      [
        "▁words",
        -8.882755752051509
      ],
      [
        "▁companies",
        -8.883064528033449
      ],
      [
        "▁Of",
        -8.884409643224451
      ],
      [
        "▁running",
        -8.885151288019511
      ],
      [
        "▁complete",
        -8.886840543835554
      ],
      [
        "▁common",
        -8.89008462509527
      ],
      [
        "▁Why",
        -8.891001133272322
      ],
      [
        "▁takes",
        -8.891675702744852
      ],
      [
        "▁felt",
        -8.893650652775584
      ],
      [
        "▁choose",
        -8.89395277572102
      ],
      [
        "▁design",
        -8.894001898735564
      ],
      [
        "▁talking",
        -8.89591122891515
      ],
      [
        "▁year.",
        -8.90047134107265
      ],
      [
        "▁major",
        -8.902177881528317
      ],
      [
        "!!",
        -8.902319905975363
      ],
      [
        "▁again.",
        -8.90323276955968
      ],
      [
        "▁friend",
        -8.903416865981724
      ],
      [
        "▁well.",
        -8.90398043076579
      ],
      [
        "▁later",
        -8.905203063385883
      ],
      [
        "▁view",
        -8.905939878484181
      ],
      [
        "▁risk",
        -8.907670640476882
      ],
      [
        "▁him.",
        -8.910402066935202
      ],
      [
        "▁By",
        -8.911332575210322
      ],
      [
        "▁opportunity",
        -8.912662634751742
      ],
      [
        "▁stuff",
        -8.915393519233376
      ],
      [
        "▁outside",
        -8.915903621516607
      ],
      [
        "▁value",
        -8.921911823562674
      ],
      [
        "▁financial",
        -8.92305271431941
      ],
      [
        "▁United",
        -8.923275774873694
      ],
      [
        "▁His",
        -8.926174827305086
      ],
      [
        "▁sense",
        -8.92822690358187
      ],
      [
        "▁main",
        -8.928435069475626
      ],
      [
        "▁day.",
        -8.932315787131733
      ],
      [
        "▁tried",
        -8.933235285630579
      ],
      [
        "▁weeks",
        -8.936916431824956
      ],
      [
        "▁12",
        -8.940440621441821
      ],
      [
        "▁word",
        -8.944361950879832
      ],
      [
        "▁consider",
        -8.944647616957369
      ],
      [
        "▁cause",
        -8.946263599648287
      ],
      [
        "▁key",
        -8.946422818375405
      ],
      [
        "▁saying",
        -8.946631503127033
      ],
      [
        "!\"",
        -8.946990346910946
      ],
      [
        "▁certainly",
        -8.947422281846565
      ],
      [
        "▁exactly",
        -8.948755407075135
      ],
      [
        "▁works",
        -8.948985213351554
      ],
      [
        "▁decided",
        -8.95214452579951
      ],
      [
        "—",
        -8.952232878391243
      ],
      [
        "▁goes",
        -8.952286911968292
      ],
      [
        "▁training",
        -8.955514896639786
      ],
      [
        "▁phone",
        -8.955730204519584
      ],
      [
        "▁development",
        -8.95580596546647
      ],
      [
        "▁turned",
        -8.957098489736051
      ],
      [
        "▁I'd",
        -8.958417154132352
      ],
      [
        "▁search",
        -8.960680500378706
      ],
      [
        "▁answer",
        -8.961165007495868
      ],
      [
        "▁medical",
        -8.963980272883264
      ],
      [
        "▁interest",
        -8.96419368482154
      ],
      [
        "▁specific",
        -8.967234043089492
      ],
      [
        "▁among",
        -8.967613642803503
      ],
      [
        "▁price",
        -8.96853896870034
      ],
      [
        "▁similar",
        -8.969634687772627
      ],
      [
        "▁month",
        -8.971715973867742
      ],
      [
        "▁lost",
        -8.971767936478702
      ],
      [
        "▁Even",
        -8.972076084677928
      ],
      [
        "▁difficult",
        -8.973259335882434
      ],
      [
        "▁age",
        -8.974573712729693
      ],
      [
        "▁white",
        -8.975056426558401
      ],
      [
        "▁space",
        -8.975610913017961
      ],
      [
        "▁follow",
        -8.975913203608433
      ],
      [
        "as",
        -8.976562355351513
      ],
      [
        "▁up.",
        -8.977273077079673
      ],
      [
        "▁feeling",
        -8.978790395161107
      ],
      [
        "▁professional",
        -8.979269040555772
      ],
      [
        "▁eyes",
        -8.979294129170702
      ],
      [
        "to",
        -8.981387008773074
      ],
      [
        "▁May",
        -8.981868359247636
      ],
      [
        "▁written",
        -8.983196096426704
      ],
      [
        "▁ago",
        -8.984140707342167
      ],
      [
        "▁build",
        -8.986304047134594
      ],
      [
        "▁receive",
        -8.98675876403017
      ],
      [
        "▁there.",
        -8.988714038686966
      ],
      [
        "▁range",
        -8.98968263192361
      ],
      [
        "▁required",
        -8.991054110536425
      ],
      [
        "’ve",
        -8.99194485315263
      ],
      [
        "▁Are",
        -8.995028707383645
      ],
      [
        "▁now.",
        -8.995113452677518
      ],
      [
        "▁favorite",
        -8.997299071380668
      ],
      [
        "▁credit",
        -8.998045772667535
      ],
      [
        "▁Be",
        -9.000892515774767
      ],
      [
        "▁Can",
        -9.000904978465075
      ],
      [
        "▁watch",
        -9.001275024296136
      ],
      [
        "▁law",
        -9.001343527609436
      ],
      [
        "▁provided",
        -9.003283249525465
      ],
      [
        "▁account",
        -9.004719050834435
      ],
      [
        "▁various",
        -9.007773492862546
      ],
      [
        "▁low",
        -9.009795065710868
      ],
      [
        "▁Or",
        -9.009796879860628
      ],
      [
        "▁music",
        -9.010590471775634
      ],
      [
        "▁Have",
        -9.010795831181088
      ],
      [
        "’ll",
        -9.012944398855385
      ],
      [
        "▁E",
        -9.014568635895504
      ],
      [
        "at",
        -9.014911606229886
      ],
      [
        "▁years.",
        -9.017501172176084
      ],
      [
        "▁energy",
        -9.01851423468228
      ],
      [
        "▁problems",
        -9.018738360791565
      ],
      [
        "▁news",
        -9.019246917141215
      ],
      [
        "▁interested",
        -9.019750824082616
      ],
      [
        "▁staff",
        -9.020054740823827
      ],
      [
        "▁too.",
        -9.020189485553669
      ],
      [
        "▁ensure",
        -9.02046043294731
      ],
      [
        "▁focus",
        -9.021044174920753
      ],
      [
        "▁completely",
        -9.023426733439686
      ],
      [
        "▁learning",
        -9.024884354147897
      ],
      [
        "▁send",
        -9.025141683066751
      ],
      [
        "▁gave",
        -9.025576433743483
      ],
      [
        "▁entire",
        -9.026015990294765
      ],
      [
        "▁Well,",
        -9.028412139935867
      ],
      [
        "▁allow",
        -9.029952611632801
      ],
      [
        "▁increase",
        -9.03245105656071
      ],
      [
        "▁step",
        -9.033258094176617
      ],
      [
        "▁Google",
        -9.03394963889156
      ],
      [
        "▁instead",
        -9.034397345960087
      ],
      [
        "▁P",
        -9.03650098548349
      ],
      [
        "▁extra",
        -9.03895070486011
      ],
      [
        "us",
        -9.040451877614464
      ],
      [
        "▁15",
        -9.04170430601754
      ],
      [
        "▁amazing",
        -9.044609123668213
      ],
      [
        "▁individual",
        -9.044913369723382
      ],
      [
        "▁More",
        -9.046209528973648
      ],
      [
        "▁spend",
        -9.046916723727541
      ],
      [
        "▁natural",
        -9.049221978459347
      ],
      [
        "2",
        -9.049806516876085
      ],
      [
        "▁giving",
        -9.050467770766673
      ],
      [
        "▁result",
        -9.055380980213311
      ],
      [
        "▁wrong",
        -9.056903958606473
      ],
      [
        "▁save",
        -9.057005511884032
      ],
      [
        "▁present",
        -9.058303004272698
      ],
      [
        "▁strong",
        -9.059336221093641
      ],
      [
        "▁moment",
        -9.05947844542672
      ],
      [
        "▁hold",
        -9.060085310312399
      ],
      [
        "▁worked",
        -9.061346888575997
      ],
      [
        "▁glad",
        -9.061732045363126
      ],
      [
        "▁recent",
        -9.061825034192047
      ],
      [
        "▁particular",
        -9.061912564459902
      ],
      [
        "▁agree",
        -9.064250933113717
      ],
      [
        "▁lead",
        -9.06437980449304
      ],
      [
        "▁playing",
        -9.064915276798056
      ],
      [
        "▁Is",
        -9.067306254025201
      ],
      [
        "▁wonderful",
        -9.067833990064322
      ],
      [
        "▁life.",
        -9.070322656306141
      ],
      [
        "▁black",
        -9.070472657783906
      ],
      [
        "▁18",
        -9.0715287094987
      ],
      [
        "▁general",
        -9.071774905017332
      ],
      [
        "le",
        -9.072726234956228
      ],
      [
        "▁private",
        -9.074332300749024
      ],
      [
        "▁industry",
        -9.074939225663364
      ],
      [
        "▁according",
        -9.075210259791536
      ],
      [
        "▁security",
        -9.075307943728852
      ],
      [
        "▁loved",
        -9.076508783640506
      ],
      [
        "▁cut",
        -9.076522833584729
      ],
      [
        "▁sort",
        -9.076848456162606
      ],
      [
        "▁*",
        -9.076966242109116
      ],
      [
        "▁walk",
        -9.077342046155714
      ],
      [
        "▁below",
        -9.078261659803324
      ],
      [
        "▁huge",
        -9.079830155037206
      ],
      [
        "▁I’ll",
        -9.080014570947046
      ],
      [
        "▁subject",
        -9.080085694405247
      ],
      [
        "▁thank",
        -9.080771448206871
      ],
      [
        "▁office",
        -9.081484042253152
      ],
      [
        "▁T",
        -9.082301010559977
      ],
      [
        "▁address",
        -9.083390482574035
      ],
      [
        "▁held",
        -9.083992784990084
      ],
      [
        "▁six",
        -9.087138602114006
      ],
      [
        "▁isn't",
        -9.087537746696572
      ],
      [
        "▁near",
        -9.08982316732654
      ],
      [
        "▁marketing",
        -9.090841679538489
      ],
      [
        "▁changes",
        -9.091039286444923
      ],
      [
        "▁US",
        -9.09234929107339
      ],
      [
        "▁From",
        -9.094454718430049
      ],
      [
        "▁Most",
        -9.09910188608178
      ],
      [
        "▁hit",
        -9.099455766052689
      ],
      [
        "▁return",
        -9.101060647066493
      ],
      [
        "▁party",
        -9.10112868691204
      ],
      [
        "▁thanks",
        -9.102230118053884
      ],
      [
        "▁gets",
        -9.102606265799228
      ],
      [
        "▁related",
        -9.104779017349907
      ],
      [
        "▁added",
        -9.105776992692645
      ],
      [
        "▁terms",
        -9.11094261380617
      ],
      [
        "▁isn’t",
        -9.112088430193458
      ],
      [
        "ar",
        -9.112132024173055
      ],
      [
        "▁air",
        -9.11296768042633
      ],
      [
        "v",
        -9.113767776188853
      ],
      [
        "▁woman",
        -9.115943988646908
      ],
      [
        "▁internet",
        -9.11688892947006
      ],
      [
        "man",
        -9.119147319244956
      ],
      [
        "▁:)",
        -9.123557961085561
      ],
      [
        "▁ideas",
        -9.12369587505303
      ],
      [
        "▁results",
        -9.124235271293273
      ],
      [
        "▁link",
        -9.124554099733626
      ],
      [
        "▁Let",
        -9.124603104661759
      ],
      [
        "▁Many",
        -9.126410390537764
      ],
      [
        "▁hair",
        -9.127451953607936
      ],
      [
        "▁test",
        -9.127941555904323
      ],
      [
        "▁potential",
        -9.128780891997895
      ],
      [
        "▁sound",
        -9.129400463492015
      ],
      [
        "▁improve",
        -9.129475241621577
      ],
      [
        "▁So,",
        -9.131903302591308
      ],
      [
        "▁management",
        -9.133677397287434
      ],
      [
        "▁ability",
        -9.134653982405005
      ],
      [
        "▁course,",
        -9.135816585649735
      ],
      [
        "▁finally",
        -9.136256921998868
      ],
      [
        "▁customer",
        -9.138996961422635
      ],
      [
        "▁them,",
        -9.14276078818479
      ],
      [
        "▁click",
        -9.143316638469294
      ],
      [
        "▁attention",
        -9.143683457808617
      ],
      [
        "▁“The",
        -9.144683888495479
      ],
      [
        "▁guess",
        -9.145284018618664
      ],
      [
        "▁third",
        -9.147336035263443
      ],
      [
        "▁date",
        -9.148536198445637
      ],
      [
        "▁size",
        -9.149091555451319
      ],
      [
        "▁late",
        -9.149582747519498
      ],
      [
        "▁points",
        -9.150372704763612
      ],
      [
        "▁morning",
        -9.150974413587793
      ],
      [
        "▁easily",
        -9.15261645000882
      ],
      [
        "▁higher",
        -9.15274854425726
      ],
      [
        "▁starting",
        -9.153718740782578
      ],
      [
        "▁total",
        -9.153798473995671
      ],
      [
        "▁paid",
        -9.154624175131618
      ],
      [
        "▁details",
        -9.154730735462454
      ],
      [
        "▁role",
        -9.155029641727332
      ],
      [
        "▁received",
        -9.15782287151967
      ],
      [
        "▁now,",
        -9.1582877392711
      ],
      [
        "▁sometimes",
        -9.162990859173377
      ],
      [
        "▁you’ll",
        -9.165414336083453
      ],
      [
        "▁customers",
        -9.166870786079564
      ],
      [
        "▁(and",
        -9.167315837067758
      ],
      [
        "▁unique",
        -9.170243888836428
      ],
      [
        "▁cover",
        -9.170254409754886
      ],
      [
        "▁however,",
        -9.172514799137726
      ],
      [
        "▁themselves",
        -9.174693265735666
      ],
      [
        "▁percent",
        -9.177044440723476
      ],
      [
        "▁shows",
        -9.177216349874692
      ],
      [
        "▁tax",
        -9.178789873422184
      ],
      [
        "▁World",
        -9.17907367513238
      ],
      [
        "▁final",
        -9.179628641896734
      ],
      [
        "▁piece",
        -9.180337004831511
      ],
      [
        "▁inside",
        -9.18134241919265
      ],
      [
        "▁areas",
        -9.181634573745976
      ],
      [
        "ic",
        -9.182096283046441
      ],
      [
        "▁property",
        -9.182537446590416
      ],
      [
        "▁class",
        -9.183751445308395
      ],
      [
        "▁sent",
        -9.187305659912717
      ],
      [
        "▁review",
        -9.187322523657983
      ],
      [
        "▁[...]",
        -9.187637235086966
      ],
      [
        "▁spent",
        -9.187742820671431
      ],
      [
        "▁offers",
        -9.188241874262683
      ],
      [
        "▁stand",
        -9.18893714220135
      ],
      [
        "▁knowledge",
        -9.18925756050508
      ],
      [
        "▁happen",
        -9.189906687618107
      ],
      [
        "▁parents",
        -9.190234315336975
      ],
      [
        "▁period",
        -9.190388268905256
      ],
      [
        "▁G",
        -9.192542928456458
      ],
      [
        "▁legal",
        -9.192821656699998
      ],
      [
        ".com",
        -9.193897546515014
      ],
      [
        "▁year,",
        -9.195648703690617
      ],
      [
        "▁O",
        -9.196883876320268
      ],
      [
        "▁non-",
        -9.19692691217999
      ],
      [
        "▁necessary",
        -9.197717304065348
      ],
      [
        "▁books",
        -9.199162157801425
      ],
      [
        "--",
        -9.199308426382794
      ],
      [
        "▁years,",
        -9.199332428902514
      ],
      [
        "▁quick",
        -9.201203794920762
      ],
      [
        "▁expect",
        -9.204168561664641
      ],
      [
        "▁eat",
        -9.206475347408466
      ],
      [
        "▁guys",
        -9.207763947510657
      ],
      [
        "▁technology",
        -9.207818155424127
      ],
      [
        "▁positive",
        -9.210957034734566
      ],
      [
        "▁original",
        -9.212801522512681
      ],
      [
        "▁M",
        -9.21341064828577
      ],
      [
        "▁quickly",
        -9.214706104328807
      ],
      [
        "▁card",
        -9.214801918965527
      ],
      [
        "ness",
        -9.214914620754701
      ],
      [
        "▁etc.",
        -9.215403781660646
      ],
      [
        "▁currently",
        -9.216566341407239
      ],
      [
        "▁student",
        -9.216880428310827
      ],
      [
        "▁work.",
        -9.217102535680691
      ],
      [
        "▁won't",
        -9.217243393666013
      ],
      [
        "▁drive",
        -9.22298795101148
      ],
      [
        "▁additional",
        -9.223510847481087
      ],
      [
        "▁guy",
        -9.223519160824585
      ],
      [
        "▁season",
        -9.224811535803216
      ],
      [
        "▁sign",
        -9.225572278830436
      ],
      [
        "▁history",
        -9.226569119383065
      ],
      [
        "▁#",
        -9.226949201827036
      ],
      [
        "▁computer",
        -9.227159075696672
      ],
      [
        "▁break",
        -9.227684216208889
      ],
      [
        "▁version",
        -9.22788140040457
      ],
      [
        "▁member",
        -9.228868238291124
      ],
      [
        "▁application",
        -9.229254229691087
      ],
      [
        "▁girl",
        -9.229945247637165
      ],
      [
        "▁out.",
        -9.23185437676157
      ],
      [
        "▁created",
        -9.232022361840608
      ],
      [
        "▁truly",
        -9.232309872522341
      ],
      [
        "▁weight",
        -9.233134277828338
      ],
      [
        "▁Once",
        -9.233173958647269
      ],
      [
        "▁recently",
        -9.234653903205198
      ],
      [
        "▁blood",
        -9.23547255493127
      ],
      [
        "▁finding",
        -9.236223114988409
      ],
      [
        "▁excellent",
        -9.239710280345934
      ],
      [
        "▁death",
        -9.240227810330135
      ],
      [
        "▁fall",
        -9.240612063750245
      ],
      [
        "▁brought",
        -9.240776553490655
      ],
      [
        "▁games",
        -9.241643395161411
      ],
      [
        "▁gone",
        -9.241669265803134
      ],
      [
        "▁9",
        -9.241835300030047
      ],
      [
        "▁2018",
        -9.242146689722242
      ],
      [
        "▁door",
        -9.24325724232737
      ],
      [
        "▁involved",
        -9.244709303111211
      ],
      [
        "▁wants",
        -9.245046825570704
      ],
      [
        "▁Mr.",
        -9.245576842910804
      ],
      [
        "▁designed",
        -9.246432130557064
      ],
      [
        "▁happened",
        -9.246901548797696
      ],
      [
        "▁treatment",
        -9.24811644415425
      ],
      [
        "▁Great",
        -9.248394849170165
      ],
      [
        "▁win",
        -9.248441195444562
      ],
      [
        "▁pick",
        -9.248466936552244
      ],
      [
        "▁lots",
        -9.250057688934477
      ],
      [
        "▁hands",
        -9.252226284416416
      ],
      [
        "▁throughout",
        -9.252344024448984
      ],
      [
        "▁meeting",
        -9.25481984768922
      ],
      [
        "▁rate",
        -9.255459355384843
      ],
      [
        "▁Good",
        -9.256105853447526
      ],
      [
        "▁us.",
        -9.257725594986482
      ],
      [
        "▁example",
        -9.258045764716385
      ],
      [
        "▁provides",
        -9.259374439088656
      ],
      [
        "▁via",
        -9.259590748106405
      ],
      [
        "▁seeing",
        -9.25971209115562
      ],
      [
        "▁policy",
        -9.260929179002304
      ],
      [
        "▁towards",
        -9.261378023502733
      ],
      [
        "▁police",
        -9.26399388953239
      ],
      [
        "A",
        -9.266087353594585
      ],
      [
        "▁ones",
        -9.266646749226991
      ],
      [
        "▁effective",
        -9.266833245921125
      ],
      [
        "▁travel",
        -9.269235668879286
      ],
      [
        "▁action",
        -9.27091914452835
      ],
      [
        "▁Maybe",
        -9.272036731385166
      ],
      [
        "▁hot",
        -9.27253881179293
      ],
      [
        "▁himself",
        -9.273232374841538
      ],
      [
        "▁sharing",
        -9.273465419375324
      ],
      [
        "▁serious",
        -9.274344300084548
      ],
      [
        "▁considered",
        -9.27497126725793
      ],
      [
        "▁de",
        -9.277466968150955
      ],
      [
        "▁features",
        -9.277707132392962
      ],
      [
        "▁F",
        -9.27772972193131
      ],
      [
        "▁art",
        -9.279531822366955
      ],
      [
        "▁mother",
        -9.280642664555305
      ],
      [
        "▁began",
        -9.283316730613496
      ],
      [
        "▁Because",
        -9.284227593318144
      ],
      [
        "▁K",
        -9.285255626884187
      ],
      [
        "▁won’t",
        -9.285568235427178
      ],
      [
        "▁example,",
        -9.285600206109418
      ],
      [
        "D",
        -9.287669049840751
      ],
      [
        "▁lives",
        -9.289938102135395
      ],
      [
        "▁•",
        -9.290899144383808
      ],
      [
        "C",
        -9.290987696424658
      ],
      [
        "▁hour",
        -9.291351969075127
      ],
      [
        "▁you’ve",
        -9.291586978338904
      ],
      [
        "▁U.S.",
        -9.292632701515599
      ],
      [
        "▁position",
        -9.294599840027253
      ],
      [
        "▁comment",
        -9.29463209151507
      ],
      [
        "▁paper",
        -9.295846451126074
      ],
      [
        "▁State",
        -9.296172017271916
      ],
      [
        "▁That’s",
        -9.296944110941741
      ],
      [
        "▁impact",
        -9.297674601925742
      ],
      [
        "▁benefits",
        -9.298906819087819
      ],
      [
        "▁there's",
        -9.300109657121514
      ],
      [
        "▁popular",
        -9.300377719193808
      ],
      [
        "▁series",
        -9.301014217428062
      ],
      [
        "▁Since",
        -9.30105115096745
      ],
      [
        "▁skills",
        -9.301256109327934
      ],
      [
        "▁trip",
        -9.301711694873797
      ],
      [
        "_",
        -9.30216217900299
      ],
      [
        "▁benefit",
        -9.302263442984636
      ],
      [
        "▁seemed",
        -9.302502166834095
      ],
      [
        "▁difference",
        -9.304115218425832
      ],
      [
        "▁@",
        -9.30459249813575
      ],
      [
        "▁reach",
        -9.305000272901024
      ],
      [
        "▁practice",
        -9.305733641831653
      ],
      [
        "▁oil",
        -9.305737272261187
      ],
      [
        "▁safe",
        -9.306171885145595
      ],
      [
        "▁day,",
        -9.306187265802173
      ],
      [
        "▁red",
        -9.306278530402963
      ],
      [
        "▁political",
        -9.307121617046368
      ],
      [
        "▁met",
        -9.309533558762062
      ],
      [
        "▁comments",
        -9.309554611672173
      ],
      [
        "▁education",
        -9.30990129929523
      ],
      [
        "▁world.",
        -9.31021883788225
      ],
      [
        "▁moving",
        -9.310288477542208
      ],
      [
        "▁recommend",
        -9.311801275945566
      ],
      [
        "▁national",
        -9.312786248456735
      ],
      [
        "▁summer",
        -9.313213964506618
      ],
      [
        "▁options",
        -9.313829298484897
      ],
      [
        "▁war",
        -9.313912318084935
      ],
      [
        "▁types",
        -9.31522851908271
      ],
      [
        "▁fit",
        -9.31745320415503
      ],
      [
        "▁wide",
        -9.318192121252626
      ],
      [
        "▁avoid",
        -9.318948974926734
      ],
      [
        "▁wasn't",
        -9.319174500281864
      ],
      [
        "▁figure",
        -9.320405520804897
      ],
      [
        "▁1.",
        -9.322538187144268
      ],
      [
        "▁picture",
        -9.323013706987176
      ],
      [
        "▁useful",
        -9.323823875242253
      ],
      [
        "▁learned",
        -9.325366960147926
      ],
      [
        "▁decision",
        -9.327070333405384
      ],
      [
        "▁understanding",
        -9.327545734280339
      ],
      [
        "▁physical",
        -9.32894536097229
      ],
      [
        "▁National",
        -9.330784639262738
      ],
      [
        "▁field",
        -9.33124319903435
      ],
      [
        "▁limited",
        -9.331261079465193
      ],
      [
        "▁President",
        -9.331569558844599
      ],
      [
        "▁gives",
        -9.333664287952159
      ],
      [
        "▁message",
        -9.333767538134627
      ],
      [
        "▁him,",
        -9.336193573294246
      ],
      [
        "▁sales",
        -9.337058657434973
      ],
      [
        "▁50",
        -9.337264407278225
      ],
      [
        "▁daily",
        -9.337722659954519
      ],
      [
        "▁speak",
        -9.33935428642167
      ],
      [
        "▁waiting",
        -9.34038312564795
      ],
      [
        "▁\"The",
        -9.340769139251261
      ],
      [
        "▁section",
        -9.340971922833784
      ],
      [
        "▁although",
        -9.341137846016537
      ],
      [
        "▁easier",
        -9.3421221343242
      ],
      [
        "▁R",
        -9.342274533004325
      ],
      [
        "▁That's",
        -9.342365369906751
      ],
      [
        "▁became",
        -9.342928201310126
      ],
      [
        "▁variety",
        -9.344178059173043
      ],
      [
        "▁whatever",
        -9.344350906643694
      ],
      [
        "▁situation",
        -9.34561448565459
      ],
      [
        "▁kept",
        -9.346066881435497
      ],
      [
        "▁advice",
        -9.346647553404615
      ],
      [
        "▁cool",
        -9.350513909856206
      ],
      [
        "▁activities",
        -9.351914930383028
      ],
      [
        "▁regular",
        -9.354763567875079
      ],
      [
        "▁planning",
        -9.355298091919016
      ],
      [
        "▁enter",
        -9.355590928223798
      ],
      [
        "▁wonder",
        -9.355654362938486
      ],
      [
        "▁software",
        -9.355711187078093
      ],
      [
        "▁way.",
        -9.356030141414024
      ],
      [
        "▁events",
        -9.356210707891904
      ],
      [
        "▁voice",
        -9.35640950394297
      ],
      [
        "▁People",
        -9.35700743524868
      ],
      [
        "▁there’s",
        -9.357845014758201
      ],
      [
        "▁includes",
        -9.358775459277188
      ],
      [
        "▁Christmas",
        -9.364016506585948
      ],
      [
        "▁100",
        -9.364072641820737
      ],
      [
        "▁source",
        -9.364375500030732
      ],
      [
        "▁latest",
        -9.366122488334451
      ],
      [
        "▁highly",
        -9.36625079412978
      ],
      [
        "▁sounds",
        -9.366330697364468
      ],
      [
        "▁code",
        -9.368767080102646
      ],
      [
        "▁develop",
        -9.370802769869222
      ],
      [
        "ity",
        -9.371286416004756
      ],
      [
        "▁choice",
        -9.373117583447687
      ],
      [
        "▁average",
        -9.374334609148036
      ],
      [
        "▁nearly",
        -9.375543533881599
      ],
      [
        "ter",
        -9.375881032939732
      ],
      [
        "▁THE",
        -9.378638158023392
      ],
      [
        "▁term",
        -9.379090208622745
      ],
      [
        "▁fire",
        -9.379233946746309
      ],
      [
        "▁apply",
        -9.379715469023626
      ],
      [
        "▁approach",
        -9.382953798865685
      ],
      [
        "▁(or",
        -9.38295463436975
      ],
      [
        "▁loss",
        -9.383311897414071
      ],
      [
        "▁perhaps",
        -9.385344745333164
      ],
      [
        "▁store",
        -9.386027740104396
      ],
      [
        "▁Re",
        -9.387297509417555
      ],
      [
        "▁you'll",
        -9.387605717802039
      ],
      [
        "3",
        -9.387630250784085
      ],
      [
        "▁require",
        -9.388250522738137
      ],
      [
        "▁previous",
        -9.388300828307884
      ],
      [
        "▁they’re",
        -9.38922096121983
      ],
      [
        "▁particularly",
        -9.389769643941174
      ],
      [
        "▁“We",
        -9.391643384593777
      ],
      [
        "▁absolutely",
        -9.392170376973526
      ],
      [
        "▁Facebook",
        -9.39291903226484
      ],
      [
        "▁Hi",
        -9.393678189464133
      ],
      [
        "▁providing",
        -9.394466636278931
      ],
      [
        "▁Who",
        -9.395469824489908
      ],
      [
        "▁appropriate",
        -9.395500720013267
      ],
      [
        "▁grow",
        -9.395673590406798
      ],
      [
        "▁international",
        -9.397242178734704
      ],
      [
        "▁evidence",
        -9.398192435986134
      ],
      [
        "▁option",
        -9.39835622272376
      ],
      [
        "▁note",
        -9.398756733003207
      ],
      [
        "▁items",
        -9.399443388182736
      ],
      [
        "▁town",
        -9.402385226140751
      ],
      [
        "▁Make",
        -9.402396270667598
      ],
      [
        "z",
        -9.403626333483336
      ],
      [
        "▁University",
        -9.403627103965029
      ],
      [
        "▁global",
        -9.404034412209711
      ],
      [
        "▁file",
        -9.40481881288191
      ],
      [
        "▁expected",
        -9.40497120206919
      ],
      [
        "▁significant",
        -9.406485488948716
      ],
      [
        "▁fast",
        -9.406883392877896
      ],
      [
        "ance",
        -9.407404038419003
      ],
      [
        "▁begin",
        -9.407463774071013
      ],
      [
        "▁user",
        -9.407602416202934
      ],
      [
        "▁eye",
        -9.407868009124854
      ],
      [
        "▁wasn’t",
        -9.408553785047548
      ],
      [
        "ive",
        -9.408611470427683
      ],
      [
        "▁record",
        -9.408830379099502
      ],
      [
        "▁Will",
        -9.409029729742791
      ],
      [
        "▁lower",
        -9.409754969058007
      ],
      [
        "▁Although",
        -9.411923734230742
      ],
      [
        "▁pain",
        -9.413275939369248
      ],
      [
        "▁users",
        -9.414060736804753
      ],
      [
        "▁performance",
        -9.415021583270391
      ],
      [
        "▁March",
        -9.415816865438195
      ],
      [
        "▁economic",
        -9.416483647046945
      ],
      [
        "▁2.",
        -9.417838578195408
      ],
      [
        "▁film",
        -9.418361773914816
      ],
      [
        "▁knows",
        -9.41849758102786
      ],
      [
        "and",
        -9.418963008049406
      ],
      [
        "▁John",
        -9.419617488855966
      ],
      [
        "▁photo",
        -9.42068170002879
      ],
      [
        "▁purchase",
        -9.422083169781935
      ],
      [
        "P",
        -9.422329563161021
      ],
      [
        "▁individuals",
        -9.423200039718045
      ],
      [
        "am",
        -9.423720959472508
      ],
      [
        "▁extremely",
        -9.424864636118258
      ],
      [
        "▁they're",
        -9.425106021765995
      ],
      [
        "B",
        -9.425250628718537
      ],
      [
        "▁growing",
        -9.425455779064926
      ],
      [
        "▁board",
        -9.42568802122275
      ],
      [
        "ation",
        -9.425940892897284
      ],
      [
        "▁York",
        -9.426597713375228
      ],
      [
        "▁unless",
        -9.426691946679606
      ],
      [
        "▁States",
        -9.42680808821267
      ],
      [
        "▁beginning",
        -9.427620819835107
      ],
      [
        "se",
        -9.427860056307164
      ],
      [
        "▁modern",
        -9.428461288029338
      ],
      [
        "▁helped",
        -9.429370897270399
      ],
      [
        "▁fully",
        -9.429987875086525
      ],
      [
        "▁relationship",
        -9.430046559994814
      ],
      [
        "▁goal",
        -9.430094180704623
      ],
      [
        "▁join",
        -9.430189421968251
      ],
      [
        "ry",
        -9.43110727624259
      ],
      [
        "▁again,",
        -9.434178952566832
      ],
      [
        "▁we’re",
        -9.43475581457049
      ],
      [
        "▁fine",
        -9.43500249923811
      ],
      [
        "▁brand",
        -9.438038675362431
      ],
      [
        "▁creating",
        -9.439564191994695
      ],
      [
        "▁December",
        -9.44186558244078
      ],
      [
        "▁June",
        -9.441920637757807
      ],
      [
        "▁directly",
        -9.442911380853158
      ],
      [
        "▁addition",
        -9.44318529357487
      ],
      [
        "▁success",
        -9.443390598488941
      ],
      [
        "▁Like",
        -9.444771388642739
      ],
      [
        "▁lack",
        -9.445358738748789
      ],
      [
        "!!!",
        -9.445406144783913
      ],
      [
        "▁sites",
        -9.446073259832868
      ],
      [
        "▁places",
        -9.448915956628753
      ],
      [
        "▁model",
        -9.449148742115927
      ],
      [
        "▁helps",
        -9.449216489257095
      ],
      [
        "▁11",
        -9.449299319197994
      ],
      [
        "▁road",
        -9.450374208852715
      ],
      [
        "▁allowed",
        -9.451586061063137
      ],
      [
        "▁patients",
        -9.452180476731359
      ],
      [
        "▁Go",
        -9.452587522461869
      ],
      [
        "▁built",
        -9.453019687706902
      ],
      [
        "▁Take",
        -9.453511890703028
      ],
      [
        "▁South",
        -9.454631139041716
      ],
      [
        "▁normal",
        -9.454745118115794
      ],
      [
        "▁countries",
        -9.454804649112615
      ],
      [
        "▁appreciate",
        -9.455165178859797
      ],
      [
        "▁enjoyed",
        -9.455401425335966
      ],
      [
        "▁aware",
        -9.45874858872236
      ],
      [
        "▁costs",
        -9.458973927202578
      ],
      [
        "▁regarding",
        -9.463357845247364
      ],
      [
        "▁tips",
        -9.466247823290791
      ],
      [
        "▁watching",
        -9.466528589855761
      ],
      [
        "▁Where",
        -9.467269338864721
      ],
      [
        "▁changed",
        -9.467810298765936
      ],
      [
        "▁North",
        -9.467914800792087
      ],
      [
        "▁deep",
        -9.469167635197065
      ],
      [
        "▁he's",
        -9.469338951109853
      ],
      [
        "▁effect",
        -9.469868525383434
      ],
      [
        "▁pass",
        -9.469894535486638
      ],
      [
        "▁track",
        -9.46998245481284
      ],
      [
        "▁baby",
        -9.47024966115538
      ],
      [
        "▁mentioned",
        -9.470504527487538
      ],
      [
        "▁moved",
        -9.470953417465545
      ],
      [
        "▁fact,",
        -9.471530615806472
      ],
      [
        "▁safety",
        -9.472027479906188
      ],
      [
        "▁college",
        -9.472605660545595
      ],
      [
        "less",
        -9.473150720112054
      ],
      [
        "▁act",
        -9.4739850525985
      ],
      [
        "▁poor",
        -9.474560878909617
      ],
      [
        "▁home.",
        -9.474885708172309
      ],
      [
        "▁Read",
        -9.47505980687692
      ],
      [
        "▁photos",
        -9.476492781795304
      ],
      [
        "▁here,",
        -9.477760015305083
      ],
      [
        "▁mobile",
        -9.478942520688463
      ],
      [
        "▁beyond",
        -9.479211188862296
      ],
      [
        "▁plans",
        -9.479948860888019
      ],
      [
        "1",
        -9.480229086477879
      ],
      [
        "▁sell",
        -9.482237955500295
      ],
      [
        "▁standard",
        -9.484260746755513
      ],
      [
        "▁green",
        -9.485175943650166
      ],
      [
        "▁April",
        -9.485784844699726
      ],
      [
        "▁Day",
        -9.486031825878774
      ],
      [
        "▁played",
        -9.486476308684296
      ],
      [
        "▁forget",
        -9.487422313835566
      ],
      [
        "▁decide",
        -9.488233882493411
      ],
      [
        "▁successful",
        -9.488336979697202
      ],
      [
        "ur",
        -9.488680202463083
      ],
      [
        "▁parts",
        -9.48952520152229
      ],
      [
        "▁wife",
        -9.48964990332956
      ],
      [
        "▁included",
        -9.49063122386649
      ],
      [
        "▁resources",
        -9.49110130398035
      ],
      [
        "▁son",
        -9.491645819386946
      ],
      [
        "▁Any",
        -9.494990096993991
      ],
      [
        "▁lose",
        -9.495396835315727
      ],
      [
        "▁growth",
        -9.498085846685605
      ],
      [
        "▁style",
        -9.498374790249319
      ],
      [
        "▁clean",
        -9.499564353693156
      ],
      [
        "▁hotel",
        -9.499727083918774
      ],
      [
        "▁First",
        -9.499987697584018
      ],
      [
        "▁City",
        -9.500392068768583
      ],
      [
        "▁sit",
        -9.500815551497581
      ],
      [
        "–",
        -9.50160316888839
      ],
      [
        "▁table",
        -9.502255211229105
      ],
      [
        "▁H",
        -9.504030216916057
      ],
      [
        "▁career",
        -9.50425044335939
      ],
      [
        "▁stories",
        -9.504374185936033
      ],
      [
        "▁touch",
        -9.50438805969228
      ],
      [
        "▁allows",
        -9.505687628403981
      ],
      [
        "▁multiple",
        -9.505900922147635
      ],
      [
        "▁excited",
        -9.507050842123425
      ],
      [
        "\".",
        -9.507997583983986
      ],
      [
        "▁say,",
        -9.509286858102005
      ],
      [
        "▁reasons",
        -9.509840676967109
      ],
      [
        "▁steps",
        -9.510902209211629
      ],
      [
        "▁know,",
        -9.511802576471995
      ],
      [
        "▁fear",
        -9.513819416638963
      ],
      [
        "▁father",
        -9.51478833530561
      ],
      [
        "▁middle",
        -9.516192767043538
      ],
      [
        "▁basic",
        -9.516596090522714
      ],
      [
        "▁L",
        -9.516809443763528
      ],
      [
        "est",
        -9.517788104218594
      ],
      [
        "▁claim",
        -9.518089603595111
      ],
      [
        "▁players",
        -9.519239454240973
      ],
      [
        "▁helping",
        -9.522354833010628
      ],
      [
        "▁July",
        -9.52283622102283
      ],
      [
        "▁posts",
        -9.522944363303084
      ],
      [
        "▁clients",
        -9.52361719955688
      ],
      [
        "▁itself",
        -9.524287300204872
      ],
      [
        "▁located",
        -9.524440543948351
      ],
      [
        "▁Get",
        -9.524685179670119
      ],
      [
        "▁(I",
        -9.525895433314943
      ],
      [
        "▁totally",
        -9.525982604892699
      ],
      [
        "▁conditions",
        -9.526288871908664
      ],
      [
        "▁published",
        -9.52643273131406
      ],
      [
        "▁feet",
        -9.526456125599427
      ],
      [
        "'ll",
        -9.527030948247901
      ],
      [
        "▁said:",
        -9.527107735715104
      ],
      [
        "▁2015",
        -9.528595751072661
      ],
      [
        "▁helpful",
        -9.52901072127077
      ],
      [
        "ting",
        -9.529246214884784
      ],
      [
        "▁image",
        -9.53027071409928
      ],
      [
        "▁land",
        -9.530287358155988
      ],
      [
        "▁realize",
        -9.530619840366874
      ],
      [
        "▁alone",
        -9.530742087299064
      ],
      [
        "▁info",
        -9.530820970973357
      ],
      [
        "ate",
        -9.531239729106456
      ],
      [
        "▁material",
        -9.531260031861926
      ],
      [
        "▁2017",
        -9.53138336671708
      ],
      [
        "E",
        -9.53180531342949
      ],
      [
        "▁Love",
        -9.531811806061958
      ],
      [
        "▁trust",
        -9.531915258424522
      ],
      [
        "▁Don't",
        -9.53235281227509
      ],
      [
        "▁today.",
        -9.53268697089057
      ],
      [
        "▁wouldn't",
        -9.533281138778682
      ],
      [
        "▁and/or",
        -9.533691850724763
      ],
      [
        "▁passed",
        -9.53387798530872
      ],
      [
        "▁response",
        -9.53418799050949
      ],
      [
        "▁Department",
        -9.53460859211383
      ],
      [
        "▁Don’t",
        -9.535568665183394
      ],
      [
        "▁24",
        -9.535629280162532
      ],
      [
        "▁site.",
        -9.536391852405682
      ],
      [
        "▁happens",
        -9.536474388595046
      ],
      [
        "▁projects",
        -9.537999134185906
      ],
      [
        "▁responsible",
        -9.538259473937178
      ],
      [
        "”.",
        -9.539540252183059
      ],
      [
        "▁shared",
        -9.540483033295276
      ],
      [
        "▁November",
        -9.54102850869223
      ],
      [
        "el",
        -9.543418190123104
      ],
      [
        "▁digital",
        -9.544239424195727
      ],
      [
        "▁fresh",
        -9.544365580696637
      ],
      [
        "▁notice",
        -9.544988719196997
      ],
      [
        "▁effort",
        -9.546396632190028
      ],
      [
        "▁plenty",
        -9.547997616344471
      ],
      [
        "▁healthy",
        -9.548330904303967
      ],
      [
        "▁haven't",
        -9.549057345376278
      ],
      [
        "▁Her",
        -9.549415937124493
      ],
      [
        "▁2016",
        -9.54975919181568
      ],
      [
        "▁way,",
        -9.550117532020067
      ],
      [
        "!”",
        -9.550413400584
      ],
      [
        "▁character",
        -9.551639923493514
      ],
      [
        "▁protect",
        -9.552242774133289
      ],
      [
        "▁nature",
        -9.55315937025788
      ],
      [
        "▁copy",
        -9.554684141365794
      ],
      [
        "▁skin",
        -9.557427375504489
      ],
      [
        "▁powerful",
        -9.558993907209402
      ],
      [
        "▁fight",
        -9.559531748947396
      ],
      [
        "▁appears",
        -9.559556563136177
      ],
      [
        "T",
        -9.560375271819495
      ],
      [
        "▁husband",
        -9.561161606961349
      ],
      [
        "▁immediately",
        -9.561203957270394
      ],
      [
        "▁clearly",
        -9.561780298566761
      ],
      [
        "▁military",
        -9.562095585949004
      ],
      [
        "▁sleep",
        -9.563231719159157
      ],
      [
        "▁color",
        -9.563740752525415
      ],
      [
        "▁respect",
        -9.564434753019345
      ],
      [
        "*",
        -9.564682420956164
      ],
      [
        "4",
        -9.564905058293991
      ],
      [
        "▁House",
        -9.565019965162133
      ],
      [
        "▁Also,",
        -9.565317036399954
      ],
      [
        "▁appear",
        -9.566016656091193
      ],
      [
        "▁offered",
        -9.56618868423867
      ],
      [
        "▁movie",
        -9.567101424022646
      ],
      [
        "▁ten",
        -9.567292682496028
      ],
      [
        "▁we're",
        -9.567761896336606
      ],
      [
        "▁wrote",
        -9.568755595501507
      ],
      [
        "▁box",
        -9.568975720837969
      ],
      [
        "G",
        -9.5692084719863
      ],
      [
        "▁except",
        -9.57003126866572
      ],
      [
        "▁\"You",
        -9.570218304247728
      ],
      [
        "▁rights",
        -9.573073652889926
      ],
      [
        "▁asking",
        -9.57400625314455
      ],
      [
        "ne",
        -9.574053663374347
      ],
      [
        "▁cold",
        -9.575193754596473
      ],
      [
        "ly,",
        -9.575585844484522
      ],
      [
        "▁meant",
        -9.576548825068285
      ],
      [
        "▁you've",
        -9.577088788119406
      ],
      [
        "▁posted",
        -9.57737893650987
      ],
      [
        "▁40",
        -9.577681754252335
      ],
      [
        "▁14",
        -9.57887838871725
      ],
      [
        "▁keeping",
        -9.579314330167794
      ],
      [
        "▁levels",
        -9.580049317519512
      ],
      [
        "▁charge",
        -9.580609887208489
      ],
      [
        "▁daughter",
        -9.580748198080888
      ],
      [
        "▁greater",
        -9.581478205643858
      ],
      [
        "▁groups",
        -9.582346143429852
      ],
      [
        "▁doubt",
        -9.58305396866911
      ],
      [
        "▁drop",
        -9.583702837683918
      ],
      [
        "▁tools",
        -9.584150818403291
      ],
      [
        "▁pictures",
        -9.584924162952579
      ],
      [
        "▁January",
        -9.585041009487743
      ],
      [
        "▁guide",
        -9.58548840152482
      ],
      [
        "▁dog",
        -9.586251502208155
      ],
      [
        "▁ahead",
        -9.586297728495076
      ],
      [
        "▁thoughts",
        -9.58871410159211
      ],
      [
        "▁driving",
        -9.58991833148163
      ],
      [
        "(",
        -9.592580482198205
      ],
      [
        "▁prior",
        -9.593372430829707
      ],
      [
        "ling",
        -9.595322128758486
      ],
      [
        "▁older",
        -9.595537170358076
      ],
      [
        "▁whose",
        -9.596980745345636
      ],
      [
        "▁explain",
        -9.599358580607625
      ],
      [
        "▁court",
        -9.600126986247863
      ],
      [
        "▁location",
        -9.600127841651775
      ],
      [
        "▁bottom",
        -9.600505514141794
      ],
      [
        "▁shown",
        -9.600868447305249
      ],
      [
        "ve",
        -9.601044748962538
      ],
      [
        "▁employees",
        -9.601254117426244
      ],
      [
        "N",
        -9.60190991973018
      ],
      [
        "▁fair",
        -9.602260105739367
      ],
      [
        "▁language",
        -9.603215069842264
      ],
      [
        "▁Oh",
        -9.603403206509928
      ],
      [
        "▁leading",
        -9.603803078041572
      ],
      [
        "▁it!",
        -9.60429873094871
      ],
      [
        "▁topic",
        -9.604364011334525
      ],
      [
        "▁October",
        -9.604588316888861
      ],
      [
        "▁lovely",
        -9.605590811422175
      ],
      [
        "▁Health",
        -9.605775086028913
      ],
      [
        "▁ground",
        -9.60659694514877
      ],
      [
        "▁release",
        -9.606698181534632
      ],
      [
        "▁discovered",
        -9.607183393979394
      ],
      [
        "▁13",
        -9.60735551504189
      ],
      [
        "▁25",
        -9.607876594216304
      ],
      [
        "▁couldn't",
        -9.608022619835154
      ],
      [
        "▁accept",
        -9.608743667771929
      ],
      [
        "▁bought",
        -9.610017169382175
      ],
      [
        "▁putting",
        -9.610200956196286
      ],
      [
        "▁direct",
        -9.611531440801468
      ],
      [
        "▁carry",
        -9.611634872595133
      ],
      [
        "▁purpose",
        -9.61363042598267
      ],
      [
        "▁experienced",
        -9.614318170500523
      ],
      [
        "K",
        -9.616254791228329
      ],
      [
        "▁bed",
        -9.616303559000116
      ],
      [
        "▁text",
        -9.616739831305733
      ],
      [
        "▁well,",
        -9.617294863206148
      ],
      [
        "▁miss",
        -9.6175095042179
      ],
      [
        "▁letter",
        -9.61838146621586
      ],
      [
        "▁production",
        -9.618898262406525
      ],
      [
        "▁payment",
        -9.619011636354067
      ],
      [
        "▁environment",
        -9.62055894196557
      ],
      [
        "▁cheap",
        -9.620578700302831
      ],
      [
        "▁therefore",
        -9.621150593749629
      ],
      [
        "▁dark",
        -9.621240803436791
      ],
      [
        "▁solution",
        -9.621426052429863
      ],
      [
        "no",
        -9.621921760088831
      ],
      [
        "▁English",
        -9.622150470987041
      ],
      [
        "▁wear",
        -9.622544394169346
      ],
      [
        "▁busy",
        -9.624676976362782
      ],
      [
        "▁Well",
        -9.626692863890472
      ],
      [
        "▁imagine",
        -9.62683433667395
      ],
      [
        "▁actual",
        -9.62789578068162
      ],
      [
        "▁round",
        -9.628744398889891
      ],
      [
        "🙂",
        -9.629897107081685
      ],
      [
        "Yes,",
        -9.630410183102182
      ],
      [
        "▁former",
        -9.630746339954777
      ],
      [
        "▁achieve",
        -9.631059122032523
      ],
      [
        "'d",
        -9.63263586254222
      ],
      [
        "▁sitting",
        -9.634605095961962
      ],
      [
        "▁remain",
        -9.634983830478095
      ],
      [
        "▁truth",
        -9.636355259441718
      ],
      [
        "▁16",
        -9.637119408272081
      ],
      [
        "W",
        -9.638049571791688
      ],
      [
        "▁week.",
        -9.639043234430021
      ],
      [
        "▁Every",
        -9.639141385082251
      ],
      [
        "▁shot",
        -9.639468547543476
      ],
      [
        "▁prevent",
        -9.639601624695048
      ],
      [
        "▁N",
        -9.639964505882404
      ],
      [
        "▁damage",
        -9.64093983050217
      ],
      [
        "▁force",
        -9.641681750552813
      ],
      [
        "▁TV",
        -9.641686762278564
      ],
      [
        "▁one.",
        -9.641700374873583
      ],
      [
        "▁followed",
        -9.641843001803608
      ],
      [
        "▁author",
        -9.642039486641355
      ],
      [
        "▁straight",
        -9.64252427456738
      ],
      [
        "▁cases",
        -9.64361282115019
      ],
      [
        "▁creative",
        -9.644398660860436
      ],
      [
        "▁however",
        -9.645657383710574
      ],
      [
        "▁2014",
        -9.647211846860193
      ],
      [
        "▁\"We",
        -9.647574440841954
      ],
      [
        "▁mention",
        -9.650072507101434
      ],
      [
        "▁3.",
        -9.650533759858611
      ],
      [
        "▁discuss",
        -9.652989957703376
      ],
      [
        "▁leaving",
        -9.653137371347928
      ],
      [
        "▁Internet",
        -9.654794892683814
      ],
      [
        "me",
        -9.655111633312394
      ],
      [
        "▁reduce",
        -9.655568635248233
      ],
      [
        "▁post.",
        -9.65567645035228
      ],
      [
        "V",
        -9.655949742103179
      ],
      [
        "▁eating",
        -9.656141790680605
      ],
      [
        "ment",
        -9.656830870948305
      ],
      [
        "▁people.",
        -9.658635752857476
      ],
      [
        "▁network",
        -9.658892163279095
      ],
      [
        "▁gift",
        -9.659072391750495
      ],
      [
        "▁girls",
        -9.659482262710064
      ],
      [
        "▁comfortable",
        -9.661123983139348
      ],
      [
        "▁manage",
        -9.66173208845245
      ],
      [
        "▁Trump",
        -9.662951336771654
      ],
      [
        "▁request",
        -9.663853066334527
      ],
      [
        "▁it?",
        -9.66480661245379
      ],
      [
        "▁programs",
        -9.664908659359357
      ],
      [
        "....",
        -9.665353549343681
      ],
      [
        "▁information.",
        -9.665656139701827
      ],
      [
        "▁Man",
        -9.666197468877954
      ],
      [
        "▁effects",
        -9.666499032150139
      ],
      [
        "▁generally",
        -9.66755882293873
      ],
      [
        "▁weather",
        -9.668339356905026
      ],
      [
        "▁systems",
        -9.668455861800872
      ],
      [
        "▁aren’t",
        -9.66937847698389
      ],
      [
        "ll",
        -9.670594379413687
      ],
      [
        "▁method",
        -9.674511778240785
      ],
      [
        "▁walking",
        -9.674577533405877
      ],
      [
        "▁exciting",
        -9.675477168426266
      ],
      [
        "out",
        -9.675663620411186
      ],
      [
        "▁finished",
        -9.676116328808334
      ],
      [
        "▁listen",
        -9.676531244187947
      ],
      [
        "▁income",
        -9.67657078384283
      ],
      [
        "-based",
        -9.678936242263894
      ],
      [
        "▁opportunities",
        -9.6809007591757
      ],
      [
        "▁whom",
        -9.682424913291268
      ],
      [
        "▁biggest",
        -9.683389394974112
      ],
      [
        "▁businesses",
        -9.683425660514377
      ],
      [
        "▁dead",
        -9.683546027925267
      ],
      [
        "▁developed",
        -9.685529874129616
      ],
      [
        "▁investment",
        -9.685567589204604
      ],
      [
        "go",
        -9.685874612019932
      ],
      [
        "F",
        -9.686091002680644
      ],
      [
        "▁super",
        -9.686638684574312
      ],
      [
        "▁earlier",
        -9.68674350508224
      ],
      [
        "▁maintain",
        -9.686887263865845
      ],
      [
        "▁he’s",
        -9.68696104574131
      ],
      [
        "▁ended",
        -9.687738231723536
      ],
      [
        "▁life,",
        -9.687786420287486
      ],
      [
        "▁According",
        -9.68788625544991
      ],
      [
        "▁update",
        -9.688271445146338
      ],
      [
        "▁released",
        -9.688351680076106
      ],
      [
        "▁serve",
        -9.689829819092811
      ],
      [
        "O",
        -9.692421502976057
      ],
      [
        "I’d",
        -9.692653472193022
      ],
      [
        "▁speed",
        -9.692660461615798
      ],
      [
        "ch",
        -9.693367673115425
      ],
      [
        "▁relevant",
        -9.693905707956002
      ],
      [
        "▁active",
        -9.695418184249798
      ],
      [
        "▁Which",
        -9.695806526545763
      ],
      [
        "▁UK",
        -9.696846485778124
      ],
      [
        "▁During",
        -9.698748630486872
      ],
      [
        "▁Life",
        -9.699718597348554
      ],
      [
        "▁Each",
        -9.699937517977459
      ],
      [
        "▁overall",
        -9.700731685375235
      ],
      [
        "ies",
        -9.700978364849487
      ],
      [
        "▁waste",
        -9.701011911750534
      ],
      [
        "▁rules",
        -9.701057535656037
      ],
      [
        "▁covered",
        -9.701229888384983
      ],
      [
        "▁fantastic",
        -9.702459452952745
      ],
      [
        "▁weekend",
        -9.702828745211377
      ],
      [
        "▁work,",
        -9.702964212692981
      ],
      [
        "▁app",
        -9.703375890131504
      ],
      [
        "▁supposed",
        -9.70359240622367
      ],
      [
        "▁supply",
        -9.704137362217317
      ],
      [
        "­",
        -9.704263962519507
      ],
      [
        "▁degree",
        -9.706049512939524
      ],
      [
        "H",
        -9.706208664001661
      ],
      [
        "▁prepared",
        -9.707496510123594
      ],
      [
        "▁welcome",
        -9.708587507279434
      ],
      [
        "!)",
        -9.709738474484809
      ],
      [
        "▁Did",
        -9.70997987202973
      ],
      [
        "▁sun",
        -9.710688552306483
      ],
      [
        "▁organization",
        -9.71171306070925
      ],
      [
        "▁warm",
        -9.71193177914072
      ],
      [
        "▁coffee",
        -9.712033423657026
      ],
      [
        "▁screen",
        -9.71216620822102
      ],
      [
        "▁seven",
        -9.71222986614775
      ],
      [
        "▁ago,",
        -9.712822751381635
      ],
      [
        "▁miles",
        -9.712873116825442
      ],
      [
        "▁Another",
        -9.713602312072663
      ],
      [
        "▁numbers",
        -9.714064590028316
      ],
      [
        "▁collection",
        -9.71439083141536
      ],
      [
        "▁West",
        -9.714787761010935
      ],
      [
        "▁challenge",
        -9.71535439214521
      ],
      [
        "▁led",
        -9.715695341662627
      ],
      [
        "▁slow",
        -9.716192052736513
      ],
      [
        "▁Yes",
        -9.716822798781706
      ],
      [
        "▁feature",
        -9.717594290387828
      ],
      [
        "▁activity",
        -9.717709146654602
      ],
      [
        "▁holiday",
        -9.718403605206511
      ],
      [
        "▁September",
        -9.718435980570396
      ],
      [
        "▁Keep",
        -9.718710433251537
      ],
      [
        "M",
        -9.72057746374667
      ],
      [
        "id",
        -9.721673637339906
      ],
      [
        "▁setting",
        -9.721948866120204
      ],
      [
        "▁trade",
        -9.722182454037242
      ],
      [
        "▁blue",
        -9.724694216953818
      ],
      [
        "age",
        -9.725335647543695
      ],
      [
        "▁willing",
        -9.725699894549457
      ],
      [
        "▁opened",
        -9.726166418317082
      ],
      [
        "▁treat",
        -9.726423238456174
      ],
      [
        "▁pages",
        -9.726821663301987
      ],
      [
        "▁advantage",
        -9.727269391587287
      ],
      [
        "▁pressure",
        -9.727787036759059
      ],
      [
        "▁spending",
        -9.729442549229658
      ],
      [
        "▁Those",
        -9.729577476337052
      ],
      [
        "▁statement",
        -9.72992837410686
      ],
      [
        "co",
        -9.731121980523053
      ],
      [
        "▁feels",
        -9.731900746746517
      ],
      [
        "▁fan",
        -9.732214627978802
      ],
      [
        "▁gain",
        -9.732416764363382
      ],
      [
        "L",
        -9.732581036897393
      ],
      [
        "▁billion",
        -9.732803582928524
      ],
      [
        "▁sweet",
        -9.733364585290728
      ],
      [
        "▁haven’t",
        -9.734006495526081
      ],
      [
        "s:",
        -9.734383889550099
      ],
      [
        "▁surprised",
        -9.734409179497767
      ],
      [
        "▁brain",
        -9.734420961209626
      ],
      [
        "▁traditional",
        -9.734433324175995
      ],
      [
        "▁drug",
        -9.736162936241199
      ],
      [
        "▁correct",
        -9.736274874805314
      ],
      [
        "▁kill",
        -9.73634683146729
      ],
      [
        "▁Click",
        -9.736351080946271
      ],
      [
        "il",
        -9.736989566408083
      ],
      [
        "▁bar",
        -9.737130447885589
      ],
      [
        "▁requirements",
        -9.737833360149132
      ],
      [
        "▁fill",
        -9.73815247049689
      ],
      [
        "▁Use",
        -9.738463528736322
      ],
      [
        "▁managed",
        -9.739106200519599
      ],
      [
        "▁worry",
        -9.739376903059455
      ],
      [
        "▁Over",
        -9.739556426793126
      ],
      [
        "▁Check",
        -9.739621718116137
      ],
      [
        "▁Me",
        -9.740596519573675
      ],
      [
        "▁See",
        -9.741431263164355
      ],
      [
        "▁increased",
        -9.741606618669651
      ],
      [
        "▁existing",
        -9.741627178407027
      ],
      [
        "5",
        -9.741737314311678
      ],
      [
        "▁discussion",
        -9.742768628056217
      ],
      [
        "▁client",
        -9.74393096965337
      ],
      [
        "▁reported",
        -9.74568362891073
      ],
      [
        "▁possibly",
        -9.746012018465208
      ],
      [
        "▁finish",
        -9.746240290239772
      ],
      [
        "▁spot",
        -9.74653618636317
      ],
      [
        "▁bank",
        -9.746855192716737
      ],
      [
        "▁sorry",
        -9.747688937958689
      ],
      [
        "▁heat",
        -9.748317885577087
      ],
      [
        "▁mental",
        -9.750209640679653
      ],
      [
        "▁doctor",
        -9.75142187184565
      ],
      [
        "▁complex",
        -9.751470927744533
      ],
      [
        "▁Now,",
        -9.751890540190555
      ],
      [
        "▁camera",
        -9.752104237877816
      ],
      [
        "▁equipment",
        -9.752419866311271
      ],
      [
        "▁stock",
        -9.752459605664718
      ],
      [
        "▁School",
        -9.753272251872723
      ],
      [
        "▁official",
        -9.753676841964856
      ],
      [
        "▁telling",
        -9.754610839279383
      ],
      [
        "▁families",
        -9.754874282368482
      ],
      [
        "▁17",
        -9.756121799055794
      ],
      [
        "▁buying",
        -9.756829978718748
      ],
      [
        "▁San",
        -9.75710327118521
      ],
      [
        "▁suggest",
        -9.757763322748787
      ],
      [
        "▁killed",
        -9.75817779364346
      ],
      [
        "▁catch",
        -9.758400116928053
      ],
      [
        "up",
        -9.758754542134014
      ],
      [
        "▁showing",
        -9.759825828851593
      ],
      [
        "▁visiting",
        -9.76140504251509
      ],
      [
        "▁European",
        -9.762430613269924
      ],
      [
        "▁teaching",
        -9.76484571504241
      ],
      [
        "▁Time",
        -9.765031996905616
      ],
      [
        "▁though,",
        -9.765908338400974
      ],
      [
        "▁Jesus",
        -9.765995060129445
      ],
      [
        "▁wedding",
        -9.768665125292763
      ],
      [
        "▁Before",
        -9.769469639067433
      ],
      [
        "▁patient",
        -9.770335181098593
      ],
      [
        "▁essential",
        -9.770408082106158
      ],
      [
        "▁attempt",
        -9.771255650422859
      ],
      [
        "▁pm",
        -9.772344813495838
      ],
      [
        "▁hearing",
        -9.772774587943434
      ],
      [
        "▁onto",
        -9.773533496794904
      ],
      [
        "▁Friday",
        -9.77488165060063
      ],
      [
        "▁becoming",
        -9.775298890482805
      ],
      [
        "▁August",
        -9.775784603389125
      ],
      [
        "▁otherwise",
        -9.776009937270153
      ],
      [
        "▁W",
        -9.77653733678536
      ],
      [
        "▁handle",
        -9.776711815017563
      ],
      [
        "▁links",
        -9.777064778446757
      ],
      [
        "▁caused",
        -9.77753527454512
      ],
      [
        "▁produce",
        -9.777681523628262
      ],
      [
        "'ve",
        -9.778534777546305
      ],
      [
        "ary",
        -9.778674859302999
      ],
      [
        "▁base",
        -9.778831184103248
      ],
      [
        "▁continued",
        -9.77968418336362
      ],
      [
        "▁mine",
        -9.780033169193532
      ],
      [
        "▁60",
        -9.780589481320277
      ],
      [
        "▁friendly",
        -9.780774590945954
      ],
      [
        "▁annual",
        -9.78084189664074
      ],
      [
        "▁us,",
        -9.781144160457373
      ],
      [
        "▁more.",
        -9.781219511696872
      ],
      [
        "▁America",
        -9.781990418146652
      ],
      [
        "▁wouldn’t",
        -9.782046316815112
      ],
      [
        "▁exercise",
        -9.784120011022074
      ],
      [
        "▁floor",
        -9.784459467555122
      ],
      [
        "▁majority",
        -9.784583105159934
      ],
      [
        "▁away.",
        -9.785586758758516
      ],
      [
        "▁Would",
        -9.78789059327223
      ],
      [
        "▁couldn’t",
        -9.78834963084936
      ],
      [
        "▁plus",
        -9.788441919248394
      ],
      [
        "▁died",
        -9.789115985944093
      ],
      [
        "▁place.",
        -9.789158692405387
      ],
      [
        "▁critical",
        -9.78924376868088
      ],
      [
        "▁proper",
        -9.790144424869116
      ],
      [
        "▁her.",
        -9.791006691514317
      ],
      [
        "▁title",
        -9.791065058326467
      ],
      [
        "▁commercial",
        -9.791156660208692
      ],
      [
        "▁efforts",
        -9.791185393249231
      ],
      [
        "▁February",
        -9.791474241180417
      ],
      [
        "▁science",
        -9.79152899074143
      ],
      [
        "▁toward",
        -9.791798584551437
      ],
      [
        "▁dream",
        -9.793797617477718
      ],
      [
        "▁stage",
        -9.794309466141339
      ],
      [
        "▁associated",
        -9.796382596434754
      ],
      [
        "▁adding",
        -9.796934976145295
      ],
      [
        "▁Looking",
        -9.797621720216693
      ],
      [
        "▁caught",
        -9.799065661852556
      ],
      [
        "▁Oh,",
        -9.800128224524455
      ],
      [
        "un",
        -9.800203897618477
      ],
      [
        "▁thousands",
        -9.801561413773504
      ],
      [
        "▁born",
        -9.802134352095994
      ],
      [
        "▁schools",
        -9.802394450963323
      ],
      [
        "▁download",
        -9.80242156487213
      ],
      [
        "▁won",
        -9.802689284928139
      ],
      [
        "▁good.",
        -9.803196077934281
      ],
      [
        "▁sold",
        -9.804601241343645
      ],
      [
        "▁4.",
        -9.80491490446635
      ],
      [
        "▁opening",
        -9.806363123201034
      ],
      [
        "▁sea",
        -9.806662748039376
      ],
      [
        "▁requires",
        -9.80720224809989
      ],
      [
        "▁song",
        -9.807422584169093
      ],
      [
        "▁campaign",
        -9.807862288729762
      ],
      [
        "▁fix",
        -9.808465394456821
      ],
      [
        "▁meaning",
        -9.808771736217562
      ],
      [
        ".)",
        -9.809197352491324
      ],
      [
        "▁White",
        -9.809984694299406
      ],
      [
        "▁website.",
        -9.810051081956367
      ],
      [
        "ish",
        -9.810356043630648
      ],
      [
        "▁heavy",
        -9.811027585490269
      ],
      [
        "▁remove",
        -9.812104863883151
      ],
      [
        "▁cash",
        -9.81261067363009
      ],
      [
        "▁week,",
        -9.812895651329416
      ],
      [
        "▁sat",
        -9.813978709030398
      ],
      [
        "▁noticed",
        -9.814081171002758
      ],
      [
        "▁mostly",
        -9.814833062208418
      ],
      [
        "mm",
        -9.815355084571927
      ],
      [
        "▁Very",
        -9.816166943057425
      ],
      [
        "▁Last",
        -9.816564554723872
      ],
      [
        "▁Today",
        -9.816809549538696
      ],
      [
        "▁up,",
        -9.81775938176517
      ],
      [
        "▁re-",
        -9.81979157618292
      ],
      [
        "▁minute",
        -9.820843110148255
      ],
      [
        "▁possible.",
        -9.8214134490065
      ],
      [
        "▁tend",
        -9.822043758730004
      ],
      [
        "▁culture",
        -9.822302075215656
      ],
      [
        "▁strategy",
        -9.822965106823398
      ],
      [
        "▁knowing",
        -9.823285239335629
      ],
      [
        "▁liked",
        -9.824025899719427
      ],
      [
        "▁Act",
        -9.824043647619693
      ],
      [
        "▁drink",
        -9.826478543736437
      ],
      [
        "▁standing",
        -9.82691984494898
      ],
      [
        "▁cancer",
        -9.827189736700644
      ],
      [
        "▁>",
        -9.82739588661018
      ],
      [
        "▁U",
        -9.827576294499178
      ],
      [
        "▁lived",
        -9.829845003489037
      ],
      [
        "▁gun",
        -9.830306482762197
      ],
      [
        "▁served",
        -9.83059095871388
      ],
      [
        "▁player",
        -9.830842936770964
      ],
      [
        "▁states",
        -9.831000277596782
      ],
      [
        "▁tool",
        -9.83102278581162
      ],
      [
        "▁offering",
        -9.831910021566992
      ],
      [
        "▁budget",
        -9.83287720236162
      ],
      [
        "▁days.",
        -9.83353094526003
      ],
      [
        "▁shop",
        -9.833675932551525
      ],
      [
        "▁determine",
        -9.83378819290715
      ],
      [
        "▁awesome",
        -9.83394488986395
      ],
      [
        "▁vehicle",
        -9.834895355328015
      ],
      [
        "▁trouble",
        -9.836386461768384
      ],
      [
        "▁International",
        -9.836583607907318
      ],
      [
        "▁paying",
        -9.836734987807986
      ],
      [
        "▁hate",
        -9.838614372164905
      ],
      [
        "▁press",
        -9.838866656736059
      ],
      [
        "▁Does",
        -9.839223080474708
      ],
      [
        "▁Also",
        -9.839821877623393
      ],
      [
        "▁band",
        -9.840133984361753
      ],
      [
        "▁raised",
        -9.840327280495583
      ],
      [
        "do",
        -9.840781708268336
      ],
      [
        "▁minimum",
        -9.840981027925203
      ],
      [
        "▁afraid",
        -9.8421018089565
      ],
      [
        "▁world,",
        -9.842142837452485
      ],
      [
        "▁traffic",
        -9.842599171237556
      ],
      [
        "▁studies",
        -9.84272435325985
      ],
      [
        "▁prefer",
        -9.843944837349007
      ],
      [
        "▁Only",
        -9.844339027033527
      ],
      [
        "▁aren't",
        -9.845485142870205
      ],
      [
        "▁images",
        -9.845923415249047
      ],
      [
        "▁vote",
        -9.846237246848014
      ],
      [
        "▁sale",
        -9.846693110715552
      ],
      [
        "▁responsibility",
        -9.84744667994363
      ],
      [
        "▁described",
        -9.847452268733246
      ],
      [
        "▁despite",
        -9.84782576716269
      ],
      [
        "ir",
        -9.848549156717077
      ],
      [
        "▁opinion",
        -9.849177833087484
      ],
      [
        "▁federal",
        -9.849369363466069
      ],
      [
        "▁sex",
        -9.850207861114534
      ],
      [
        "▁http://www.",
        -9.85028093378024
      ],
      [
        "▁Two",
        -9.850969252409548
      ],
      [
        "▁Home",
        -9.8511549759274
      ],
      [
        "▁there,",
        -9.852375345613858
      ],
      [
        "▁condition",
        -9.853072029853344
      ],
      [
        "▁debt",
        -9.853142679284081
      ],
      [
        "▁War",
        -9.853874659147476
      ],
      [
        "▁ago.",
        -9.853902969788528
      ],
      [
        "▁jobs",
        -9.854609840630955
      ],
      [
        "▁device",
        -9.855332464013824
      ],
      [
        "▁TO",
        -9.85534918051633
      ],
      [
        "▁analysis",
        -9.855381841547551
      ],
      [
        "▁boy",
        -9.855537995283594
      ],
      [
        "▁proud",
        -9.855641145249365
      ],
      [
        "▁Sunday",
        -9.855931295190633
      ],
      [
        "▁changing",
        -9.85675637744454
      ],
      [
        "▁balance",
        -9.858756280000058
      ],
      [
        "▁materials",
        -9.85901806072415
      ],
      [
        "li",
        -9.859317611133598
      ],
      [
        "%",
        -9.860141887010577
      ],
      [
        "▁stopped",
        -9.86118762492483
      ],
      [
        "▁gas",
        -9.862539488289514
      ],
      [
        "▁negative",
        -9.862679130476714
      ],
      [
        "ge",
        -9.86320342994405
      ],
      [
        "▁filled",
        -9.863403418241763
      ],
      [
        "▁J",
        -9.864513185152465
      ],
      [
        "▁dinner",
        -9.864722708533236
      ],
      [
        "▁foreign",
        -9.864915996803305
      ],
      [
        "▁separate",
        -9.865607234387108
      ],
      [
        "▁V",
        -9.868024075752626
      ],
      [
        "▁Florida",
        -9.868296053880545
      ],
      [
        "▁NOT",
        -9.868877896992167
      ],
      [
        "ul",
        -9.870725680338518
      ],
      [
        "▁reached",
        -9.871352319735703
      ],
      [
        "▁ideal",
        -9.87152848128856
      ],
      [
        "▁rates",
        -9.872170291098152
      ],
      [
        "▁prices",
        -9.873350352024655
      ],
      [
        "▁uses",
        -9.87341132865587
      ],
      [
        "▁selling",
        -9.873544040258253
      ],
      [
        "▁larger",
        -9.873796310066709
      ],
      [
        "▁progress",
        -9.874827112051495
      ],
      [
        "X",
        -9.875315443546626
      ],
      [
        "▁auto",
        -9.876061154665852
      ],
      [
        "▁seek",
        -9.876487573285317
      ],
      [
        "▁others.",
        -9.876525654294543
      ],
      [
        "he",
        -9.877917940290233
      ],
      [
        "▁searching",
        -9.878264471401597
      ],
      [
        "▁folks",
        -9.878396654289288
      ],
      [
        "ized",
        -9.878902274194935
      ],
      [
        "▁IT",
        -9.879728217828259
      ],
      [
        ">",
        -9.88190723541161
      ],
      [
        "8",
        -9.882938507486799
      ],
      [
        "▁print",
        -9.88296057821836
      ],
      [
        "▁compared",
        -9.883038819261117
      ],
      [
        "▁desire",
        -9.88347915474569
      ],
      [
        "▁target",
        -9.884640304208268
      ],
      [
        "▁ice",
        -9.88500986795932
      ],
      [
        "▁deliver",
        -9.885168069789128
      ],
      [
        "▁future.",
        -9.886134211131132
      ],
      [
        "▁listed",
        -9.886450565137103
      ],
      [
        "ted",
        -9.887269397790192
      ],
      [
        "▁capital",
        -9.887726821935308
      ],
      [
        "▁holding",
        -9.88793995937042
      ],
      [
        "▁walked",
        -9.888054506388395
      ],
      [
        "6",
        -9.888118338473966
      ],
      [
        "▁Dr.",
        -9.889108765192645
      ],
      [
        "▁interview",
        -9.889150071683309
      ],
      [
        "▁Best",
        -9.889256195511148
      ],
      [
        "▁center",
        -9.889528249374315
      ],
      [
        "▁partner",
        -9.890322732715353
      ],
      [
        "j",
        -9.89059893794543
      ],
      [
        "▁established",
        -9.89073238474333
      ],
      [
        "▁train",
        -9.891001057643278
      ],
      [
        "▁reports",
        -9.892057682851004
      ],
      [
        "▁hoping",
        -9.892108176195883
      ],
      [
        "Y",
        -9.89256502444081
      ],
      [
        "▁do.",
        -9.892632246860703
      ],
      [
        "▁calling",
        -9.89282504193184
      ],
      [
        "▁audience",
        -9.894666151981781
      ],
      [
        "▁basis",
        -9.895046482447905
      ],
      [
        "▁all.",
        -9.895453447445652
      ],
      [
        "▁Al",
        -9.895798206068319
      ],
      [
        "▁becomes",
        -9.896131181610594
      ],
      [
        "▁methods",
        -9.896844915125454
      ],
      [
        "▁goals",
        -9.897197148009205
      ],
      [
        "▁ride",
        -9.898292306268829
      ],
      [
        "▁London",
        -9.898894632661957
      ],
      [
        "▁technical",
        -9.899544409127046
      ],
      [
        "be",
        -9.89965893906221
      ],
      [
        "▁developing",
        -9.899878797442518
      ],
      [
        "▁climate",
        -9.900544797743203
      ],
      [
        "▁journey",
        -9.900881148490512
      ],
      [
        "▁completed",
        -9.901802236383462
      ],
      [
        "▁Business",
        -9.901853078766614
      ],
      [
        "▁machine",
        -9.902201365928672
      ],
      [
        "▁starts",
        -9.902602397688373
      ],
      [
        "▁characters",
        -9.902812398616685
      ],
      [
        "▁match",
        -9.903039406690898
      ],
      [
        "▁missing",
        -9.903479236278688
      ],
      [
        "▁population",
        -9.904254578774587
      ],
      [
        "▁church",
        -9.906258195577848
      ],
      [
        "▁solutions",
        -9.906321155551424
      ],
      [
        "▁La",
        -9.907034599664893
      ],
      [
        "▁kitchen",
        -9.907562559350342
      ],
      [
        "▁business.",
        -9.90768600000781
      ],
      [
        "▁views",
        -9.908072603209023
      ],
      [
        "9",
        -9.908076240017559
      ],
      [
        "▁agreement",
        -9.910069660999255
      ],
      [
        "▁fell",
        -9.910655794996057
      ],
      [
        "▁race",
        -9.9107587657508
      ],
      [
        "▁Saturday",
        -9.912287414031084
      ],
      [
        "▁Right",
        -9.912889905174765
      ],
      [
        "▁window",
        -9.91296164929236
      ],
      [
        "▁Lord",
        -9.913909025667357
      ],
      [
        "▁gonna",
        -9.914090547677091
      ],
      [
        "▁reasonable",
        -9.91410040418514
      ],
      [
        "▁communication",
        -9.914157034972849
      ],
      [
        "▁returned",
        -9.914305708447754
      ],
      [
        "if",
        -9.91551638118068
      ],
      [
        "▁articles",
        -9.9155817949631
      ],
      [
        "er,",
        -9.916261276103848
      ],
      [
        "▁evening",
        -9.917353707794703
      ],
      [
        "▁peace",
        -9.917551157167122
      ],
      [
        "▁perform",
        -9.917836622540147
      ],
      [
        "▁Their",
        -9.917921843417089
      ],
      [
        "▁connection",
        -9.918115375251027
      ],
      [
        "▁De",
        -9.91822624027678
      ],
      [
        "▁too,",
        -9.919538325118124
      ],
      [
        "▁ran",
        -9.919824930370805
      ],
      [
        "J",
        -9.920141765130378
      ],
      [
        "▁Other",
        -9.920154989215742
      ],
      [
        "▁workers",
        -9.921186463832
      ],
      [
        "▁diet",
        -9.921340963898977
      ],
      [
        "▁alternative",
        -9.922069875376133
      ],
      [
        "▁eventually",
        -9.92238467917364
      ],
      [
        "▁factors",
        -9.92326662766563
      ],
      [
        "▁hurt",
        -9.923427186859891
      ],
      [
        "▁select",
        -9.923830219281928
      ],
      [
        "▁yes,",
        -9.925428294938172
      ],
      [
        "▁street",
        -9.925640795041641
      ],
      [
        "▁google",
        -9.925729388355919
      ],
      [
        "▁Government",
        -9.926310275530142
      ],
      [
        "▁“You",
        -9.926522172793295
      ],
      [
        "the",
        -9.9269990645608
      ],
      [
        "▁back.",
        -9.927124580401017
      ],
      [
        "▁Look",
        -9.927710412994674
      ],
      [
        "▁largest",
        -9.927763234266557
      ],
      [
        "▁China",
        -9.927929192651266
      ],
      [
        "▁rise",
        -9.928299766710847
      ],
      [
        "▁pieces",
        -9.9291882561428
      ],
      [
        "▁smaller",
        -9.929688028827176
      ],
      [
        "▁self",
        -9.92977472246661
      ],
      [
        "▁thus",
        -9.930408502598429
      ],
      [
        "per",
        -9.930661599124408
      ],
      [
        "▁raise",
        -9.93093023606313
      ],
      [
        "▁eight",
        -9.93131378467941
      ],
      [
        "▁nor",
        -9.931578700850917
      ],
      [
        "▁driver",
        -9.931630414999653
      ],
      [
        "▁society",
        -9.931848690035153
      ],
      [
        "▁showed",
        -9.933249320326585
      ],
      [
        "▁placed",
        -9.933565574226535
      ],
      [
        "land",
        -9.93357068531684
      ],
      [
        "▁Social",
        -9.934058467674404
      ],
      [
        "▁wall",
        -9.934787860073502
      ],
      [
        "▁teach",
        -9.93504918933592
      ],
      [
        "▁Black",
        -9.935102278821601
      ],
      [
        "▁none",
        -9.935911869214594
      ],
      [
        "▁calls",
        -9.935936835527198
      ],
      [
        "▁draw",
        -9.936626487414891
      ],
      [
        "▁prepare",
        -9.936667973947085
      ],
      [
        "▁_",
        -9.937732950423898
      ],
      [
        "ally",
        -9.937819871290397
      ],
      [
        "▁primary",
        -9.938167620113493
      ],
      [
        "▁missed",
        -9.938470610782364
      ],
      [
        "▁hand,",
        -9.938592890813158
      ],
      [
        "▁There's",
        -9.939095323582343
      ],
      [
        "▁block",
        -9.939249659387716
      ],
      [
        "▁readers",
        -9.940330184046596
      ],
      [
        "▁expensive",
        -9.94054038530394
      ],
      [
        "▁(1)",
        -9.940705121434874
      ],
      [
        "▁\"What",
        -9.94112423742458
      ],
      [
        "▁lines",
        -9.941741161251375
      ],
      [
        "▁schedule",
        -9.94183054147577
      ],
      [
        "▁hell",
        -9.941993436467452
      ],
      [
        "▁conversation",
        -9.942207365539225
      ],
      [
        "▁happening",
        -9.942728341811872
      ],
      [
        "▁then,",
        -9.942768306841561
      ],
      [
        "▁King",
        -9.943570898392926
      ],
      [
        "▁teams",
        -9.94399887133953
      ],
      [
        "▁High",
        -9.944078250659953
      ],
      [
        "▁compare",
        -9.944633100264937
      ],
      [
        "▁claims",
        -9.944658094087774
      ],
      [
        "▁hospital",
        -9.944739605006841
      ],
      [
        "▁slightly",
        -9.946368547605488
      ],
      [
        "▁spread",
        -9.946708449190908
      ],
      [
        "▁winter",
        -9.946844057761759
      ],
      [
        "▁East",
        -9.946988813728602
      ],
      [
        "▁coverage",
        -9.948096315558903
      ],
      [
        "▁leaders",
        -9.948106570198162
      ],
      [
        "▁die",
        -9.948263064294567
      ],
      [
        "ful",
        -9.948383869586081
      ],
      [
        "▁wind",
        -9.949140694364145
      ],
      [
        "▁remains",
        -9.949633171241446
      ],
      [
        "▁parties",
        -9.949662913258507
      ],
      [
        "▁count",
        -9.95025715049361
      ],
      [
        "▁exchange",
        -9.950312211211385
      ],
      [
        "@",
        -9.951393516013962
      ],
      [
        "▁Apple",
        -9.95176180741095
      ],
      [
        "▁attack",
        -9.952603176171436
      ],
      [
        "▁familiar",
        -9.952674141872933
      ],
      [
        "▁pre",
        -9.953105186195533
      ],
      [
        "▁1,",
        -9.953738438814655
      ],
      [
        "▁foot",
        -9.954492621476119
      ],
      [
        "▁display",
        -9.955129502846162
      ],
      [
        "▁forced",
        -9.955293199429903
      ],
      [
        "▁mom",
        -9.955574459106444
      ],
      [
        "▁Paul",
        -9.956430352790232
      ],
      [
        "▁reality",
        -9.956455009884632
      ],
      [
        "▁tough",
        -9.95745907332697
      ],
      [
        "▁wondering",
        -9.957931218845495
      ],
      [
        "▁www.",
        -9.958649755699685
      ],
      [
        "▁posting",
        -9.9590543277435
      ],
      [
        "▁concerns",
        -9.959329250396218
      ],
      [
        "ol",
        -9.960407418147287
      ],
      [
        "▁path",
        -9.960589335822702
      ],
      [
        "line",
        -9.961567136393427
      ],
      [
        "▁worse",
        -9.96157768483879
      ],
      [
        "▁\"It",
        -9.961933600440828
      ],
      [
        "▁Monday",
        -9.962618361799116
      ],
      [
        "▁transfer",
        -9.962685278575591
      ],
      [
        "▁disease",
        -9.963285121971984
      ],
      [
        "▁Perhaps",
        -9.964087635443985
      ],
      [
        "▁emergency",
        -9.964206271157272
      ],
      [
        "▁considering",
        -9.964795938931228
      ],
      [
        "▁encourage",
        -9.965686391989752
      ],
      [
        "▁announced",
        -9.965715744359844
      ],
      [
        "▁though.",
        -9.96664795747427
      ],
      [
        "▁tour",
        -9.966832937595957
      ],
      [
        "▁checking",
        -9.96702801690932
      ],
      [
        "▁function",
        -9.96732102162043
      ],
      [
        "▁taste",
        -9.968436911185034
      ],
      [
        "▁teacher",
        -9.968473533033045
      ],
      [
        "▁pull",
        -9.968597167084681
      ],
      [
        "▁demand",
        -9.968685337440606
      ],
      [
        "▁broken",
        -9.968896639194288
      ],
      [
        ".com/",
        -9.969711284321228
      ],
      [
        "▁General",
        -9.970186476619613
      ],
      [
        "▁boys",
        -9.970380117026355
      ],
      [
        "▁sexual",
        -9.973085346475047
      ],
      [
        "▁rock",
        -9.97350774423797
      ],
      [
        "▁signs",
        -9.974478583807057
      ],
      [
        "▁focused",
        -9.975103830312024
      ],
      [
        "ce",
        -9.976019970427952
      ],
      [
        "▁experience.",
        -9.97616473623846
      ],
      [
        "▁obvious",
        -9.976257452545696
      ],
      [
        "'re",
        -9.97693479917642
      ],
      [
        "▁Service",
        -9.979225670302217
      ],
      [
        "▁parking",
        -9.980223531605237
      ],
      [
        "▁elements",
        -9.98041819526619
      ],
      [
        "▁bigger",
        -9.980461337999765
      ],
      [
        "▁concept",
        -9.98055697657248
      ],
      [
        "▁British",
        -9.982128546012639
      ],
      [
        "▁stick",
        -9.982792805065435
      ],
      [
        "▁estate",
        -9.983059657468226
      ],
      [
        "▁picked",
        -9.983836497835666
      ],
      [
        "im",
        -9.984895223831042
      ],
      [
        "▁“It",
        -9.985885462453982
      ],
      [
        "▁area.",
        -9.985973799146299
      ],
      [
        "▁system.",
        -9.986075970385922
      ],
      [
        "▁entirely",
        -9.987689825359801
      ],
      [
        "▁X",
        -9.988956181226152
      ],
      [
        "▁night.",
        -9.98921523761749
      ],
      [
        "▁obviously",
        -9.98955568698403
      ],
      [
        "▁challenges",
        -9.99023182479871
      ],
      [
        "▁president",
        -9.99045735453672
      ],
      [
        "▁park",
        -9.990663005442602
      ],
      [
        "▁together.",
        -9.99110925281732
      ],
      [
        "▁affect",
        -9.991380767918397
      ],
      [
        "▁cards",
        -9.991428793264353
      ],
      [
        "▁home,",
        -9.992091412081088
      ],
      [
        "▁process.",
        -9.992361075024899
      ],
      [
        "sh",
        -9.99336765724048
      ],
      [
        "▁closed",
        -9.993453378774651
      ],
      [
        "▁Office",
        -9.9942460370359
      ],
      [
        "▁self-",
        -9.99452005830467
      ],
      [
        "▁birth",
        -9.994628702127471
      ],
      [
        "▁worst",
        -9.99466163702862
      ],
      [
        "▁double",
        -9.994725964853115
      ],
      [
        "▁shopping",
        -9.99492354675272
      ],
      [
        "▁stood",
        -9.995532252454318
      ],
      [
        "▁people,",
        -9.995883387840891
      ],
      [
        "▁distance",
        -9.996648892607737
      ],
      [
        "▁closer",
        -9.996914287603907
      ],
      [
        "▁independent",
        -9.997176660454201
      ],
      [
        "▁page.",
        -9.997332334217987
      ],
      [
        "▁stress",
        -9.998044475111644
      ],
      [
        "▁firm",
        -9.99871347071884
      ],
      [
        "▁Americans",
        -9.999481337376526
      ],
      [
        "▁episode",
        -9.999578626854854
      ],
      [
        "▁thing.",
        -9.999604901960828
      ],
      [
        "▁corporate",
        -9.999729019007207
      ],
      [
        "▁identify",
        -9.999819379520229
      ],
      [
        "...\"",
        -10.000227180341014
      ],
      [
        "lo",
        -10.001915428607266
      ],
      [
        "▁smile",
        -10.002567378348322
      ],
      [
        "▁construction",
        -10.00262415456152
      ],
      [
        "▁fans",
        -10.002801289166218
      ],
      [
        "pe",
        -10.00284426040087
      ],
      [
        "▁Whether",
        -10.0040620956397
      ],
      [
        "▁turns",
        -10.004891971371698
      ],
      [
        "▁experiences",
        -10.005091331169979
      ],
      [
        "▁scene",
        -10.005956318854292
      ],
      [
        "▁teachers",
        -10.006603263785472
      ],
      [
        "▁agreed",
        -10.007640311472873
      ],
      [
        "▁net",
        -10.008292717984492
      ],
      [
        "▁valuable",
        -10.009193637760955
      ],
      [
        "▁things.",
        -10.009626822077461
      ],
      [
        "▁smart",
        -10.009905095933796
      ],
      [
        "▁down.",
        -10.009935107267879
      ],
      [
        "de",
        -10.01038488822099
      ],
      [
        "▁influence",
        -10.010689173276583
      ],
      [
        "▁rich",
        -10.010786323204462
      ],
      [
        "▁AND",
        -10.010877755463115
      ],
      [
        "▁Obama",
        -10.011230472451999
      ],
      [
        "▁importance",
        -10.012890888381186
      ],
      [
        "▁female",
        -10.012950965545915
      ],
      [
        "▁wearing",
        -10.013033214735703
      ],
      [
        "▁County",
        -10.013515644276664
      ],
      [
        "▁days,",
        -10.013568059092318
      ],
      [
        "▁committed",
        -10.014549461352809
      ],
      [
        "▁glass",
        -10.015175058766314
      ],
      [
        "▁ourselves",
        -10.015277209232934
      ],
      [
        "▁Red",
        -10.015762288429915
      ],
      [
        "▁item",
        -10.01587884222753
      ],
      [
        "▁visitors",
        -10.01610313914366
      ],
      [
        "▁today,",
        -10.016150609769145
      ],
      [
        "▁discover",
        -10.017313391338515
      ],
      [
        "▁conference",
        -10.0173298459728
      ],
      [
        "▁highest",
        -10.018927367653845
      ],
      [
        "▁bunch",
        -10.02078627965927
      ],
      [
        "▁owners",
        -10.020805402671161
      ],
      [
        "▁OF",
        -10.02082068724907
      ],
      [
        "▁secret",
        -10.022996612824986
      ],
      [
        "▁plant",
        -10.02330931943489
      ],
      [
        "▁Market",
        -10.023371204548546
      ],
      [
        "▁funding",
        -10.023586784041004
      ],
      [
        "R",
        -10.024094597955528
      ],
      [
        "7",
        -10.024368099111594
      ],
      [
        "▁mass",
        -10.02470279313735
      ],
      [
        "s)",
        -10.025617624863552
      ],
      [
        "+",
        -10.026099413662454
      ],
      [
        "▁continues",
        -10.026160777219161
      ],
      [
        "▁direction",
        -10.026280709211509
      ],
      [
        "▁married",
        -10.02642735939924
      ],
      [
        "▁2013",
        -10.026533912293674
      ],
      [
        "▁greatest",
        -10.027021855871983
      ],
      [
        "▁Free",
        -10.027989960419012
      ],
      [
        "▁feed",
        -10.028322967214105
      ],
      [
        "▁push",
        -10.028471596992206
      ],
      [
        "▁strange",
        -10.028840168275568
      ],
      [
        "men",
        -10.029160861393446
      ],
      [
        "▁Court",
        -10.029224044920948
      ],
      [
        "▁attend",
        -10.02952822796206
      ],
      [
        "▁obtain",
        -10.029855631671978
      ],
      [
        "▁Code",
        -10.030780985688915
      ],
      [
        "ent",
        -10.031959860049025
      ],
      [
        "▁expert",
        -10.03285074333542
      ],
      [
        "▁leader",
        -10.03305953063948
      ],
      [
        "▁classes",
        -10.033265136530375
      ],
      [
        "ated",
        -10.033644601195775
      ],
      [
        "▁right.",
        -10.034221314379131
      ],
      [
        "▁twice",
        -10.034264588409643
      ],
      [
        "▁YOU",
        -10.034320337328099
      ],
      [
        "▁contract",
        -10.034412419014785
      ],
      [
        "▁limit",
        -10.035606194205727
      ],
      [
        "▁loan",
        -10.035940051033243
      ],
      [
        "▁respond",
        -10.036783035936574
      ],
      [
        "▁gold",
        -10.037194696506221
      ],
      [
        "▁Center",
        -10.037435391954997
      ],
      [
        "▁sports",
        -10.037741701184665
      ],
      [
        "▁reference",
        -10.039193925651048
      ],
      [
        "▁promote",
        -10.039868170257247
      ],
      [
        "▁out,",
        -10.040528209637028
      ],
      [
        "▁protection",
        -10.040895697703444
      ],
      [
        "▁policies",
        -10.040949125260477
      ],
      [
        "▁(the",
        -10.041399676053018
      ],
      [
        "▁combination",
        -10.041454709580059
      ],
      [
        "▁tree",
        -10.043656659401556
      ],
      [
        "▁somewhere",
        -10.044354056137276
      ],
      [
        "▁document",
        -10.046034948241244
      ],
      [
        "▁task",
        -10.046197303862836
      ],
      [
        "▁answers",
        -10.046838250533161
      ],
      [
        "▁Big",
        -10.046861155889905
      ],
      [
        "▁button",
        -10.04691357547642
      ],
      [
        "▁initial",
        -10.047599671447834
      ],
      [
        "▁right?",
        -10.048878649370307
      ],
      [
        "▁Sometimes",
        -10.049288055305684
      ],
      [
        "▁dry",
        -10.049341348857649
      ],
      [
        "▁impossible",
        -10.049527188684774
      ],
      [
        "▁cell",
        -10.050441572775021
      ],
      [
        "▁throw",
        -10.050637865237894
      ],
      [
        "▁personally",
        -10.051849404403477
      ],
      [
        "▁case,",
        -10.052059948503608
      ],
      [
        "▁host",
        -10.05211233404192
      ],
      [
        "▁fish",
        -10.052324693335148
      ],
      [
        "▁realized",
        -10.052667439994625
      ],
      [
        "▁parent",
        -10.054459539443016
      ],
      [
        "▁fat",
        -10.05461155540096
      ],
      [
        "▁aid",
        -10.054649234481124
      ],
      [
        "▁failed",
        -10.055139480041692
      ],
      [
        "▁soft",
        -10.05513966147851
      ],
      [
        "▁increasing",
        -10.05554673129847
      ],
      [
        "▁animals",
        -10.056049133229505
      ],
      [
        "▁tea",
        -10.056109616722836
      ],
      [
        "▁(which",
        -10.056219648141852
      ],
      [
        "▁forms",
        -10.056427068595104
      ],
      [
        "▁Tuesday",
        -10.056475120565961
      ],
      [
        "▁depending",
        -10.056922107129012
      ],
      [
        "▁lucky",
        -10.05697687787711
      ],
      [
        "▁problem.",
        -10.057069891732931
      ],
      [
        "▁pleasure",
        -10.057685753223671
      ],
      [
        "▁(2)",
        -10.057904897855028
      ],
      [
        "▁selection",
        -10.057967451827608
      ],
      [
        "▁secure",
        -10.058370675841278
      ],
      [
        "▁adult",
        -10.058516238164021
      ],
      [
        "▁storage",
        -10.059129324247426
      ],
      [
        "▁Both",
        -10.059501900728858
      ],
      [
        "▁economy",
        -10.05964403578
      ],
      [
        "▁Having",
        -10.060592176918949
      ],
      [
        "▁famous",
        -10.06066834759362
      ],
      [
        "▁Its",
        -10.061616668881488
      ],
      [
        "▁listening",
        -10.061620490042788
      ],
      [
        "▁signed",
        -10.06252717068032
      ],
      [
        "▁carried",
        -10.062879021478714
      ],
      [
        "▁21",
        -10.06320538775664
      ],
      [
        "▁bill",
        -10.063773888827956
      ],
      [
        "10",
        -10.063808100794358
      ],
      [
        "▁club",
        -10.065348184043687
      ],
      [
        "▁stated",
        -10.06551431959199
      ],
      [
        "▁assist",
        -10.066018953515929
      ],
      [
        "▁Europe",
        -10.066264388097899
      ],
      [
        "▁standards",
        -10.066916681861564
      ],
      [
        "▁owner",
        -10.067649370265153
      ],
      [
        "▁crazy",
        -10.067785872779794
      ],
      [
        "▁speaking",
        -10.068208007200273
      ],
      [
        "▁anywhere",
        -10.068618171458528
      ],
      [
        "▁numerous",
        -10.068701271977488
      ],
      [
        "▁http://",
        -10.069689227168363
      ],
      [
        "▁then.",
        -10.069787334233183
      ],
      [
        "▁dealing",
        -10.06984488871283
      ],
      [
        "▁(b)",
        -10.07131780719256
      ],
      [
        "▁Board",
        -10.07164064108025
      ],
      [
        "▁fellow",
        -10.07252372103159
      ],
      [
        "▁assistance",
        -10.072609788900834
      ],
      [
        "▁solid",
        -10.072979418390318
      ],
      [
        "▁comfort",
        -10.07350122061122
      ],
      [
        "▁environmental",
        -10.073617971337992
      ],
      [
        "▁long-term",
        -10.07363144989515
      ],
      [
        "▁status",
        -10.073898259458684
      ],
      [
        "▁Park",
        -10.074956112942413
      ],
      [
        "▁herself",
        -10.07498945084721
      ],
      [
        "▁Council",
        -10.075014325493406
      ],
      [
        "▁leads",
        -10.075950417757378
      ],
      [
        "▁information,",
        -10.07645062363465
      ],
      [
        "▁Hope",
        -10.076687978820672
      ],
      [
        "▁department",
        -10.076695016301352
      ],
      [
        "▁Continue",
        -10.077419819465561
      ],
      [
        "▁kinds",
        -10.077565343912738
      ],
      [
        "ING",
        -10.077949021555114
      ],
      [
        "▁actions",
        -10.07869503192632
      ],
      [
        "▁length",
        -10.078770582074194
      ],
      [
        "▁specifically",
        -10.079714178552049
      ],
      [
        "▁No,",
        -10.080032643264136
      ],
      [
        "▁theme",
        -10.080349671413675
      ],
      [
        "▁examples",
        -10.080792254314918
      ],
      [
        "▁experts",
        -10.08094567836858
      ],
      [
        "▁football",
        -10.082508344152412
      ],
      [
        "▁ball",
        -10.084177453811122
      ],
      [
        "▁$1",
        -10.084190036333462
      ],
      [
        "▁concerned",
        -10.084473006860472
      ],
      [
        "▁testing",
        -10.084920431846344
      ],
      [
        "▁laws",
        -10.08504874571112
      ],
      [
        "▁cast",
        -10.085646583495247
      ],
      [
        "▁suddenly",
        -10.085820543970176
      ],
      [
        "ous",
        -10.086280244406943
      ],
      [
        "▁presence",
        -10.08629843653057
      ],
      [
        "→",
        -10.086374778709146
      ],
      [
        "▁named",
        -10.086999421114516
      ],
      [
        "▁dollars",
        -10.087247644753178
      ],
      [
        "\",",
        -10.087306758972542
      ],
      [
        "▁publish",
        -10.087624557687434
      ],
      [
        "we",
        -10.087773407192607
      ],
      [
        "▁presented",
        -10.08897790609501
      ],
      [
        "▁beach",
        -10.089073920175592
      ],
      [
        "0",
        -10.089577912016445
      ],
      [
        "▁hundreds",
        -10.089816417228235
      ],
      [
        "ca",
        -10.08984740664356
      ],
      [
        "▁measures",
        -10.090764667176083
      ],
      [
        "▁money.",
        -10.090899500003129
      ],
      [
        "▁Next",
        -10.091432458576335
      ],
      [
        "▁emotional",
        -10.091748024109398
      ],
      [
        "▁Happy",
        -10.091991497644283
      ],
      [
        "▁background",
        -10.092301583037607
      ],
      [
        "▁detailed",
        -10.092438283770155
      ],
      [
        "▁corner",
        -10.09265030314705
      ],
      [
        "▁videos",
        -10.092700655143474
      ],
      [
        "s”",
        -10.093536944393566
      ],
      [
        "▁explore",
        -10.094014038675393
      ],
      [
        "▁Green",
        -10.094154118357498
      ],
      [
        "▁nation",
        -10.09445902878229
      ],
      [
        "▁we’ll",
        -10.094738658805053
      ],
      [
        "▁family.",
        -10.09479430598817
      ],
      [
        "um",
        -10.094854095915258
      ],
      [
        "▁dangerous",
        -10.094931794653434
      ],
      [
        "▁game.",
        -10.095678367754086
      ],
      [
        "▁assessment",
        -10.096013340217944
      ],
      [
        "▁blog.",
        -10.096150292274093
      ],
      [
        "▁watched",
        -10.097183604081625
      ],
      [
        "▁approximately",
        -10.097364268194454
      ],
      [
        "▁mouth",
        -10.098036896142979
      ],
      [
        "▁brother",
        -10.098047102860027
      ],
      [
        "▁star",
        -10.098601716737008
      ],
      [
        "▁funds",
        -10.099895230432633
      ],
      [
        "▁bag",
        -10.100087469501808
      ],
      [
        "▁David",
        -10.100178137916998
      ],
      [
        "▁guests",
        -10.100245234921845
      ],
      [
        "▁flat",
        -10.100476494102889
      ],
      [
        "▁dance",
        -10.101211191496683
      ],
      [
        "▁submit",
        -10.101257509375191
      ],
      [
        "▁job.",
        -10.10175203652782
      ],
      [
        "▁registration",
        -10.101879505806153
      ],
      [
        "▁fixed",
        -10.102087600875343
      ],
      [
        "▁bus",
        -10.102461303172486
      ],
      [
        "▁memory",
        -10.102697274040544
      ],
      [
        "▁bringing",
        -10.102722640493207
      ],
      [
        "▁turning",
        -10.102751665121728
      ],
      [
        "▁Company",
        -10.102888564981855
      ],
      [
        "▁intended",
        -10.103840378395859
      ],
      [
        "▁before.",
        -10.103972868105949
      ],
      [
        "▁perfectly",
        -10.105346256993112
      ],
      [
        "▁feedback",
        -10.105661170820706
      ],
      [
        "▁assume",
        -10.105714756883454
      ],
      [
        "▁snow",
        -10.105719267171963
      ],
      [
        "▁better.",
        -10.107322066571191
      ],
      [
        "▁country.",
        -10.107339972017872
      ],
      [
        "▁fee",
        -10.107653084071654
      ],
      [
        "▁reviews",
        -10.107668679168047
      ],
      [
        "▁Services",
        -10.10783135719796
      ],
      [
        "▁pair",
        -10.108327888414049
      ],
      [
        "▁off.",
        -10.10898309480453
      ],
      [
        "▁earth",
        -10.10934139874852
      ],
      [
        "▁luck",
        -10.110243916662299
      ],
      [
        "▁organizations",
        -10.110317863616032
      ],
      [
        "▁mix",
        -10.111213961767092
      ],
      [
        "▁faith",
        -10.111920519216223
      ],
      [
        "▁arrived",
        -10.11270176002989
      ],
      [
        "▁funny",
        -10.113868658506007
      ],
      [
        "▁5.",
        -10.114118344849427
      ],
      [
        "▁sad",
        -10.114265707380753
      ],
      [
        "▁operating",
        -10.114514090698417
      ],
      [
        "▁Chinese",
        -10.11454132419524
      ],
      [
        "s’",
        -10.11528135112216
      ],
      [
        "▁planned",
        -10.11562653586978
      ],
      [
        "▁below.",
        -10.11674661069873
      ],
      [
        "▁practical",
        -10.11675714817315
      ],
      [
        "▁100%",
        -10.116800891025981
      ],
      [
        "▁constantly",
        -10.118093528878603
      ],
      [
        "▁you!",
        -10.118120255209726
      ],
      [
        "▁Web",
        -10.11839044013134
      ],
      [
        "▁participate",
        -10.120479627951774
      ],
      [
        "▁treated",
        -10.120486869122226
      ],
      [
        "▁Up",
        -10.120756266592721
      ],
      [
        "▁affected",
        -10.120937071551857
      ],
      [
        "▁PM",
        -10.121190587501456
      ],
      [
        "▁Michael",
        -10.1217385560458
      ],
      [
        "▁\"A",
        -10.121939802466363
      ],
      [
        "▁French",
        -10.122152812233645
      ],
      [
        "▁done.",
        -10.122240251701966
      ],
      [
        "▁unable",
        -10.122270141191727
      ],
      [
        "▁pet",
        -10.122312460411504
      ],
      [
        "▁College",
        -10.12232930696588
      ],
      [
        "▁Bill",
        -10.122347666239683
      ],
      [
        "▁dress",
        -10.12266069161397
      ],
      [
        "▁pre-",
        -10.123607459108925
      ],
      [
        "▁religious",
        -10.124600721682933
      ],
      [
        "▁About",
        -10.125481988113146
      ],
      [
        "▁Tom",
        -10.125683222850645
      ],
      [
        "20",
        -10.12578848445041
      ],
      [
        "▁Mike",
        -10.125891581255289
      ],
      [
        "▁connected",
        -10.127009554545761
      ],
      [
        "▁pool",
        -10.127218803759167
      ],
      [
        "▁beat",
        -10.127484121397778
      ],
      [
        "▁honor",
        -10.128616067166277
      ],
      [
        "▁names",
        -10.129168491810422
      ],
      [
        "▁Co",
        -10.129535892774447
      ],
      [
        "▁California",
        -10.130904962388747
      ],
      [
        "▁manner",
        -10.131745705318714
      ],
      [
        "▁strength",
        -10.131847624363875
      ],
      [
        "▁approved",
        -10.131857972123704
      ],
      [
        "▁cars",
        -10.132709301997496
      ],
      [
        "▁dis",
        -10.132951883991046
      ],
      [
        "ize",
        -10.13307707296618
      ],
      [
        "▁surprise",
        -10.133288429659675
      ],
      [
        "▁sector",
        -10.134262705990746
      ],
      [
        "▁anti-",
        -10.13450428672011
      ],
      [
        "▁platform",
        -10.134833087287495
      ],
      [
        "▁know.",
        -10.135084558038827
      ],
      [
        "all",
        -10.135401689434213
      ],
      [
        "▁she's",
        -10.135564051504709
      ],
      [
        "▁dedicated",
        -10.136257269829347
      ],
      [
        "▁recommended",
        -10.136872984729898
      ],
      [
        "one",
        -10.136986601381484
      ],
      [
        "▁produced",
        -10.13782466801187
      ],
      [
        "▁leaves",
        -10.138042973612787
      ],
      [
        "▁pleased",
        -10.138071530039563
      ],
      [
        "▁central",
        -10.138397993840734
      ],
      [
        "▁runs",
        -10.138822547805724
      ],
      [
        "er.",
        -10.138859710475362
      ],
      [
        "▁fairly",
        -10.139255216330612
      ],
      [
        "▁we'll",
        -10.140336527446348
      ],
      [
        "▁Law",
        -10.140354142529947
      ],
      [
        "▁agency",
        -10.14063513983405
      ],
      [
        "▁stuck",
        -10.141350571686736
      ],
      [
        "▁Pro",
        -10.141623275680697
      ],
      [
        "▁commitment",
        -10.141720643868384
      ],
      [
        "▁lunch",
        -10.1417441697994
      ],
      [
        "ization",
        -10.142038475115744
      ],
      [
        "▁mission",
        -10.142231584631805
      ],
      [
        "ke",
        -10.143316979021087
      ],
      [
        "▁criminal",
        -10.143554267536702
      ],
      [
        "▁generation",
        -10.143611573865968
      ],
      [
        "▁younger",
        -10.143727771247217
      ],
      [
        "ED",
        -10.14408866642653
      ],
      [
        "▁symptoms",
        -10.144175660056437
      ],
      [
        "▁seriously",
        -10.14453027409514
      ],
      [
        "▁night,",
        -10.144651681903156
      ],
      [
        "▁employee",
        -10.145118948325226
      ],
      [
        "▁concern",
        -10.146847565786363
      ],
      [
        "▁determined",
        -10.147160020636143
      ],
      [
        "▁updated",
        -10.147538685889408
      ],
      [
        "▁e-mail",
        -10.147778652188176
      ],
      [
        "▁score",
        -10.149536093182181
      ],
      [
        "▁birthday",
        -10.14970078262734
      ],
      [
        "▁internal",
        -10.150181450860968
      ],
      [
        "▁gotten",
        -10.150738218770403
      ],
      [
        "▁basically",
        -10.150953821686144
      ],
      [
        "▁educational",
        -10.15146572274491
      ],
      [
        "▁Find",
        -10.152632928021937
      ],
      [
        "▁tells",
        -10.153013324729596
      ],
      [
        "▁guest",
        -10.153335503175565
      ],
      [
        "▁director",
        -10.153398904261374
      ],
      [
        "▁sub",
        -10.153867946999945
      ],
      [
        "▁hundred",
        -10.154055046299678
      ],
      [
        "▁suppose",
        -10.154321530100422
      ],
      [
        "▁decisions",
        -10.15470910595637
      ],
      [
        "-to-",
        -10.155200773142976
      ],
      [
        "▁causes",
        -10.155290483282254
      ],
      [
        "▁accord",
        -10.155433261275821
      ],
      [
        "▁brings",
        -10.155664118043628
      ],
      [
        "▁Remember",
        -10.155688343167261
      ],
      [
        "▁b",
        -10.155846139412436
      ],
      [
        "▁confidence",
        -10.15593760142705
      ],
      [
        "▁notes",
        -10.156637249666083
      ],
      [
        "▁persons",
        -10.15668452260422
      ],
      [
        "▁relationships",
        -10.15694423372335
      ],
      [
        "▁contains",
        -10.156965984688881
      ],
      [
        "▁No.",
        -10.158109940824659
      ],
      [
        "▁Simply",
        -10.15823742536151
      ],
      [
        "▁massive",
        -10.158727617653884
      ],
      [
        "-up",
        -10.159491920639763
      ],
      [
        "▁applications",
        -10.159558225296
      ],
      [
        "▁spoke",
        -10.159755914435724
      ],
      [
        "▁master",
        -10.159781181139108
      ],
      [
        "▁sister",
        -10.160369201410946
      ],
      [
        "▁talked",
        -10.1610381814206
      ],
      [
        "▁entry",
        -10.161247890258728
      ],
      [
        "▁survey",
        -10.161466645424998
      ],
      [
        "▁what's",
        -10.162015842910147
      ],
      [
        "▁St.",
        -10.162541098149326
      ],
      [
        "▁bloggers",
        -10.163478025391798
      ],
      [
        "▁advance",
        -10.163633402975075
      ],
      [
        "▁animal",
        -10.164116574266757
      ],
      [
        "▁rooms",
        -10.164762008985004
      ],
      [
        "▁says.",
        -10.166242644285663
      ],
      [
        "▁what’s",
        -10.166316284433004
      ],
      [
        "▁residents",
        -10.166347142493182
      ],
      [
        "▁rule",
        -10.166870687744495
      ],
      [
        "▁recipe",
        -10.167253704640778
      ],
      [
        "▁till",
        -10.167819459635268
      ],
      [
        "▁format",
        -10.167965574147477
      ],
      [
        "▁appeared",
        -10.168049562765349
      ],
      [
        "▁prove",
        -10.168394661986827
      ],
      [
        "▁unto",
        -10.168890432597575
      ],
      [
        "▁(a)",
        -10.169088552356158
      ],
      [
        "ph",
        -10.169167810188327
      ],
      [
        "▁movement",
        -10.169236019080738
      ],
      [
        "▁room.",
        -10.169549389463995
      ],
      [
        "▁dad",
        -10.17032330175461
      ],
      [
        "▁connect",
        -10.171603903017983
      ],
      [
        "▁Hey",
        -10.172099529080963
      ],
      [
        "▁mind.",
        -10.172568780261072
      ],
      [
        "▁lady",
        -10.173113086534233
      ],
      [
        "▁Yet",
        -10.173180429672804
      ],
      [
        "▁session",
        -10.173181940362902
      ],
      [
        "▁Christ",
        -10.173500640950834
      ],
      [
        "▁kid",
        -10.173547860327153
      ],
      [
        "▁But,",
        -10.174043028821202
      ],
      [
        "▁package",
        -10.174199220328813
      ],
      [
        "s?",
        -10.175799075209042
      ],
      [
        "▁cross",
        -10.175948766996758
      ],
      [
        "▁words,",
        -10.1768111911338
      ],
      [
        "▁bookmarked",
        -10.176927228616401
      ],
      [
        "▁quiet",
        -10.178511109007268
      ],
      [
        "▁Mo",
        -10.179532296421435
      ],
      [
        "▁taught",
        -10.179765127539348
      ],
      [
        "▁competition",
        -10.180781543986205
      ],
      [
        "▁efficient",
        -10.180971291408534
      ],
      [
        "▁capacity",
        -10.18162766657506
      ],
      [
        "▁ship",
        -10.182511409310699
      ],
      [
        "▁pulled",
        -10.183520095920255
      ],
      [
        "ak",
        -10.183949117728403
      ],
      [
        "▁serving",
        -10.184127119220186
      ],
      [
        "▁solve",
        -10.18452115477689
      ],
      [
        "▁allowing",
        -10.18463252300629
      ],
      [
        "▁(in",
        -10.184792466934454
      ],
      [
        "▁collect",
        -10.185968086881
      ],
      [
        "▁<",
        -10.186169778727383
      ],
      [
        "ier",
        -10.18617499205408
      ],
      [
        "▁region",
        -10.186710569846174
      ],
      [
        "▁structure",
        -10.188354903941025
      ],
      [
        "ley",
        -10.188480489407459
      ],
      [
        "U",
        -10.188570974235791
      ],
      [
        "▁feelings",
        -10.188944540641778
      ],
      [
        "▁shape",
        -10.189973896100867
      ],
      [
        "▁typically",
        -10.190474867325236
      ],
      [
        "▁Part",
        -10.190667166137633
      ],
      [
        "▁procedures",
        -10.191002999053854
      ],
      [
        "led",
        -10.191235130161258
      ],
      [
        "▁site,",
        -10.192325774641718
      ],
      [
        "▁rare",
        -10.1933708564981
      ],
      [
        "▁flow",
        -10.193628834308363
      ],
      [
        "▁yesterday",
        -10.193781732653107
      ],
      [
        "▁we've",
        -10.193915634286299
      ],
      [
        "▁advertising",
        -10.194492449578453
      ],
      [
        "▁manager",
        -10.194581071235772
      ],
      [
        "▁19",
        -10.194727608394196
      ],
      [
        "▁battle",
        -10.194737472220726
      ],
      [
        "▁aspects",
        -10.195594348981656
      ],
      [
        "▁spring",
        -10.196578463863847
      ],
      [
        "▁register",
        -10.196645166631878
      ],
      [
        "▁judge",
        -10.196893625668498
      ],
      [
        "▁academic",
        -10.197350430076868
      ],
      [
        "▁tired",
        -10.19750587838566
      ],
      [
        "▁Should",
        -10.197638317919376
      ],
      [
        "▁later,",
        -10.197700667439301
      ],
      [
        "▁nine",
        -10.19833631900418
      ],
      [
        "▁presentation",
        -10.19839972764608
      ],
      [
        "▁cleaning",
        -10.19859472718812
      ],
      [
        "▁leadership",
        -10.19881806033666
      ],
      [
        "▁measure",
        -10.199214268393693
      ],
      [
        "▁surface",
        -10.199214789873146
      ],
      [
        "▁Research",
        -10.19951633535024
      ],
      [
        "▁informed",
        -10.199520102871348
      ],
      [
        "▁square",
        -10.203666518053023
      ],
      [
        "▁losing",
        -10.204006287013652
      ],
      [
        "▁story.",
        -10.20403304160163
      ],
      [
        "▁removed",
        -10.204542920801327
      ],
      [
        "▁equal",
        -10.204683303792827
      ],
      [
        "▁indeed",
        -10.20543409062935
      ],
      [
        "▁core",
        -10.205735163898975
      ],
      [
        "time",
        -10.2065214055637
      ],
      [
        "▁concerning",
        -10.20692216429973
      ],
      [
        "▁months.",
        -10.207325536863305
      ],
      [
        "▁delivery",
        -10.208028649899
      ],
      [
        "▁websites",
        -10.208117129713898
      ],
      [
        "▁radio",
        -10.208985234216607
      ],
      [
        "by",
        -10.209320698448273
      ],
      [
        "▁Come",
        -10.209585866399845
      ],
      [
        "▁cent",
        -10.209710057720162
      ],
      [
        "▁Car",
        -10.209883303093667
      ],
      [
        "ig",
        -10.210037399722845
      ],
      [
        "▁adults",
        -10.2105795720488
      ],
      [
        "ut",
        -10.21112240245653
      ],
      [
        "▁officials",
        -10.211172435056811
      ],
      [
        "▁Out",
        -10.211511379515759
      ],
      [
        "▁soon.",
        -10.211561795391617
      ],
      [
        "▁You’re",
        -10.211798629905235
      ],
      [
        "▁plants",
        -10.21236113547088
      ],
      [
        "▁values",
        -10.212396112124477
      ],
      [
        "▁male",
        -10.212829457247409
      ],
      [
        "▁cat",
        -10.21369078353961
      ],
      [
        "▁suggested",
        -10.213820694728366
      ],
      [
        "▁replace",
        -10.213878827962505
      ],
      [
        "▁fees",
        -10.215577944348345
      ],
      [
        "▁shut",
        -10.21565311968359
      ],
      [
        "▁“It’s",
        -10.215970725770424
      ],
      [
        "▁vacation",
        -10.215984274584535
      ],
      [
        "▁seeking",
        -10.2160282033152
      ],
      [
        "▁proof",
        -10.216086476203829
      ],
      [
        "▁describe",
        -10.216096033193445
      ],
      [
        "▁applied",
        -10.216304216738887
      ],
      [
        "▁sick",
        -10.216569249911501
      ],
      [
        "▁edge",
        -10.216970974629426
      ],
      [
        "▁tomorrow",
        -10.216989935183943
      ],
      [
        "▁pro",
        -10.217352103959461
      ],
      [
        "▁maximum",
        -10.217435381200698
      ],
      [
        "▁chocolate",
        -10.218562690524069
      ],
      [
        "▁Group",
        -10.218707952987197
      ],
      [
        "▁times.",
        -10.218993166594014
      ],
      [
        "▁failure",
        -10.21984395069086
      ],
      [
        "▁bright",
        -10.220283651021905
      ],
      [
        "▁mark",
        -10.220613365169083
      ],
      [
        "▁previously",
        -10.221561228926863
      ],
      [
        "▁afford",
        -10.221803580600028
      ],
      [
        "▁Information",
        -10.222055331183839
      ],
      [
        "▁inspired",
        -10.222497107109126
      ],
      [
        "▁dating",
        -10.22281866149023
      ],
      [
        "▁communities",
        -10.223136800829637
      ],
      [
        "▁accepted",
        -10.223176493655245
      ],
      [
        "00",
        -10.2232031884811
      ],
      [
        "▁properly",
        -10.223660472079064
      ],
      [
        "▁keeps",
        -10.224528059530485
      ],
      [
        "▁techniques",
        -10.224789624830688
      ],
      [
        "▁vision",
        -10.224929082756148
      ],
      [
        "▁spirit",
        -10.22558641645139
      ],
      [
        "▁cup",
        -10.22703248454812
      ],
      [
        "▁mean,",
        -10.22725603148247
      ],
      [
        "▁passion",
        -10.2276780637974
      ],
      [
        "▁advanced",
        -10.22775833898693
      ],
      [
        "▁wine",
        -10.227818359054039
      ],
      [
        "▁suit",
        -10.228215581268783
      ],
      [
        "▁bear",
        -10.228333432047602
      ],
      [
        "▁apparently",
        -10.229170264308284
      ],
      [
        "▁You're",
        -10.229541887177263
      ],
      [
        "▁garden",
        -10.22954204343132
      ],
      [
        "▁non",
        -10.229949205313304
      ],
      [
        "▁service.",
        -10.230074394683204
      ],
      [
        "▁facilities",
        -10.230323541939033
      ],
      [
        "▁temperature",
        -10.23062156543144
      ],
      [
        "▁engage",
        -10.23079104795151
      ],
      [
        "▁2010",
        -10.231232762444613
      ],
      [
        "▁loves",
        -10.231269061780512
      ],
      [
        "▁200",
        -10.231328508450066
      ],
      [
        "ly.",
        -10.231446604963017
      ],
      [
        "s!",
        -10.232514371636706
      ],
      [
        "▁unit",
        -10.232520593455398
      ],
      [
        "▁Education",
        -10.232626168067855
      ],
      [
        "▁linked",
        -10.23267074795946
      ],
      [
        "▁p.m.",
        -10.233473569171087
      ],
      [
        "op",
        -10.233563516008136
      ],
      [
        "▁Year",
        -10.233988798550932
      ],
      [
        "▁fighting",
        -10.234874313287113
      ],
      [
        "ver",
        -10.234913829498787
      ],
      [
        "▁promise",
        -10.234938497462146
      ],
      [
        "▁Un",
        -10.235488247773738
      ],
      [
        "▁beauty",
        -10.236082970008544
      ],
      [
        "▁defined",
        -10.236455331809854
      ],
      [
        "▁chosen",
        -10.237339732354211
      ],
      [
        "our",
        -10.237870505517245
      ],
      [
        "ha",
        -10.238663582602477
      ],
      [
        "▁incredible",
        -10.238824867638096
      ],
      [
        "▁shoot",
        -10.239148984969866
      ],
      [
        "▁lay",
        -10.239874734111398
      ],
      [
        "▁topics",
        -10.24087457266121
      ],
      [
        "▁moments",
        -10.241001896364342
      ],
      [
        "▁engine",
        -10.241405188115632
      ],
      [
        "▁interests",
        -10.242052449547158
      ],
      [
        "▁chicken",
        -10.24205939518911
      ],
      [
        "▁Security",
        -10.24222627564627
      ],
      [
        "▁Mark",
        -10.24237738752956
      ],
      [
        "▁Christian",
        -10.242784806897284
      ],
      [
        "▁sources",
        -10.243219648677572
      ],
      [
        "▁profile",
        -10.24323786353877
      ],
      [
        "▁counter",
        -10.243903328632102
      ],
      [
        "▁restaurant",
        -10.244253617987203
      ],
      [
        "▁jump",
        -10.244283095448573
      ],
      [
        "▁detail",
        -10.244690009682614
      ],
      [
        "▁proposed",
        -10.245203810324949
      ],
      [
        "▁Yeah,",
        -10.245950802198795
      ],
      [
        "▁relatively",
        -10.245990945756521
      ],
      [
        "▁sugar",
        -10.245997185804361
      ],
      [
        "▁dropped",
        -10.24612346375147
      ],
      [
        "▁marriage",
        -10.246286292591078
      ],
      [
        "▁documents",
        -10.246757622035904
      ],
      [
        "▁worried",
        -10.24723437878854
      ],
      [
        "▁license",
        -10.247832376522165
      ],
      [
        "▁St",
        -10.248919280607746
      ],
      [
        "▁bookmarks",
        -10.249507878158738
      ],
      [
        "▁sets",
        -10.249623005722906
      ],
      [
        "▁ticket",
        -10.249702182349566
      ],
      [
        "▁Windows",
        -10.249983421698667
      ],
      [
        "▁earn",
        -10.25029633171047
      ],
      [
        "▁Post",
        -10.250895185408652
      ],
      [
        "▁devices",
        -10.251049900863359
      ],
      [
        "▁quote",
        -10.251519569029815
      ],
      [
        "▁classic",
        -10.2526788190129
      ],
      [
        "▁afternoon",
        -10.253251753069716
      ],
      [
        "▁roll",
        -10.253263493203796
      ],
      [
        "▁honest",
        -10.253359828376201
      ],
      [
        "▁factor",
        -10.253604177170544
      ],
      [
        "▁services.",
        -10.254187064458595
      ],
      [
        "▁grade",
        -10.254346978073494
      ],
      [
        "mp",
        -10.25468371272743
      ],
      [
        "▁colors",
        -10.255105246184671
      ],
      [
        "▁recognize",
        -10.255219768435666
      ],
      [
        "▁station",
        -10.255364183157418
      ],
      [
        "30",
        -10.255423547713669
      ],
      [
        "▁James",
        -10.255517742876751
      ],
      [
        "▁usual",
        -10.255609934162932
      ],
      [
        "▁suffering",
        -10.25576461328203
      ],
      [
        "▁custom",
        -10.256680306982021
      ],
      [
        "▁university",
        -10.256694256768602
      ],
      [
        "ial",
        -10.256701149937305
      ],
      [
        "▁everybody",
        -10.256774345409635
      ],
      [
        "▁Everyone",
        -10.25783520187323
      ],
      [
        "▁winning",
        -10.259014751492234
      ],
      [
        "▁exact",
        -10.259503978072717
      ],
      [
        "▁shooting",
        -10.259640449046051
      ],
      [
        "▁defense",
        -10.259985619724276
      ],
      [
        "▁scientific",
        -10.260088951015458
      ],
      [
        "▁point.",
        -10.26034326388948
      ],
      [
        "▁arms",
        -10.260882040651067
      ],
      [
        "▁Thursday",
        -10.261895126714359
      ],
      [
        "▁Call",
        -10.262293078339054
      ],
      [
        "▁comprehensive",
        -10.262474997674158
      ],
      [
        "▁Being",
        -10.262728197645316
      ],
      [
        "▁effectively",
        -10.263452130222399
      ],
      [
        "▁strategies",
        -10.263692388066296
      ],
      [
        "▁fund",
        -10.26396170158289
      ],
      [
        "▁surely",
        -10.264029906323758
      ],
      [
        "▁ex",
        -10.264145385749067
      ],
      [
        "my",
        -10.265218211128358
      ],
      [
        "▁Public",
        -10.26674378393442
      ],
      [
        "▁neither",
        -10.267213368727301
      ],
      [
        "▁Data",
        -10.267453489990098
      ],
      [
        "▁Q",
        -10.267666136389561
      ],
      [
        "▁room,",
        -10.26773807854147
      ],
      [
        "▁entered",
        -10.268027662041392
      ],
      [
        "▁album",
        -10.268970025153106
      ],
      [
        "▁Back",
        -10.269053237293754
      ],
      [
        "▁Add",
        -10.269619361416844
      ],
      [
        "▁enjoying",
        -10.26966121592569
      ],
      [
        "▁explained",
        -10.269964752977351
      ],
      [
        "▁flight",
        -10.270010422553778
      ],
      [
        "▁meal",
        -10.270058904562315
      ],
      [
        "▁brief",
        -10.27024768449189
      ],
      [
        "▁2008",
        -10.270502174480452
      ],
      [
        "▁consumer",
        -10.270513665810604
      ],
      [
        "▁2012",
        -10.270623491659654
      ],
      [
        "▁practices",
        -10.270911578899034
      ],
      [
        "▁fuel",
        -10.27133653781209
      ],
      [
        "▁medium",
        -10.271963790570716
      ],
      [
        "▁terrible",
        -10.271970618040285
      ],
      [
        "▁grown",
        -10.272239476287481
      ],
      [
        "▁vast",
        -10.272675294140644
      ],
      [
        "▁metal",
        -10.274725748676264
      ],
      [
        "▁facts",
        -10.274835712276555
      ],
      [
        "▁point,",
        -10.27501264947734
      ],
      [
        "▁administration",
        -10.275028141373399
      ],
      [
        "▁freedom",
        -10.275447754758758
      ],
      [
        "▁repair",
        -10.276211015676143
      ],
      [
        "▁Star",
        -10.276857261378527
      ],
      [
        "▁thread",
        -10.276948527535165
      ],
      [
        "▁exist",
        -10.277217180403932
      ],
      [
        "▁stupid",
        -10.278225596577503
      ],
      [
        "▁con",
        -10.278981235177248
      ],
      [
        "▁blogs",
        -10.279919003611376
      ],
      [
        "▁drivers",
        -10.280370349476463
      ],
      [
        "▁senior",
        -10.281408789912703
      ],
      [
        "▁90",
        -10.281565141035614
      ],
      [
        "▁careful",
        -10.28216231975517
      ],
      [
        "▁delivered",
        -10.282284600778283
      ],
      [
        "▁Such",
        -10.282853000591317
      ],
      [
        "▁somewhat",
        -10.283092712617428
      ],
      [
        "▁depends",
        -10.283580317916101
      ],
      [
        "for",
        -10.283789751914814
      ],
      [
        "▁grew",
        -10.283974028618776
      ],
      [
        "▁saved",
        -10.28439362719805
      ],
      [
        "▁wild",
        -10.284411548952109
      ],
      [
        "▁rent",
        -10.284422306008803
      ],
      [
        "▁supporting",
        -10.284454015324807
      ],
      [
        "▁children.",
        -10.285323009381715
      ],
      [
        "▁carefully",
        -10.28540373555282
      ],
      [
        "▁severe",
        -10.285722347821766
      ],
      [
        "▁1st",
        -10.286241943108374
      ],
      [
        "▁processing",
        -10.286545501128455
      ],
      [
        "▁ordered",
        -10.286598706586304
      ],
      [
        "▁magic",
        -10.287287851417915
      ],
      [
        "▁favourite",
        -10.287981131673504
      ],
      [
        "▁files",
        -10.287992519041898
      ],
      [
        "▁celebrate",
        -10.288078482800291
      ],
      [
        "▁Open",
        -10.28859195348209
      ],
      [
        "▁friends.",
        -10.289192642504212
      ],
      [
        "▁Try",
        -10.289761620706827
      ],
      [
        "▁solar",
        -10.29117854479681
      ],
      [
        "ner",
        -10.29161780587841
      ],
      [
        "▁abuse",
        -10.292171212689938
      ],
      [
        "▁description",
        -10.292347333144644
      ],
      [
        "▁behavior",
        -10.293826064436157
      ],
      [
        "▁cultural",
        -10.294209307747993
      ],
      [
        "▁German",
        -10.294487706230681
      ],
      [
        "▁“What",
        -10.294853739794707
      ],
      [
        "▁homes",
        -10.295278087168263
      ],
      [
        "▁command",
        -10.295345993197106
      ],
      [
        "▁Never",
        -10.296164389714555
      ],
      [
        "▁regularly",
        -10.296220717472409
      ],
      [
        "▁Though",
        -10.296638659240445
      ],
      [
        "▁employment",
        -10.297357329614542
      ],
      [
        "▁automatically",
        -10.297902804072834
      ],
      [
        "▁object",
        -10.298215086160504
      ],
      [
        "▁Twitter",
        -10.299099841797602
      ],
      [
        "▁models",
        -10.299172820987444
      ],
      [
        "▁else.",
        -10.299934788427489
      ],
      [
        "▁professionals",
        -10.300166945117205
      ],
      [
        "▁joined",
        -10.301638774241482
      ],
      [
        "▁minutes.",
        -10.30223815954655
      ],
      [
        "▁receiving",
        -10.302239267752846
      ],
      [
        "▁says,",
        -10.302299188165055
      ],
      [
        "▁youth",
        -10.302305000922747
      ],
      [
        "▁accurate",
        -10.302459568443801
      ],
      [
        "▁house.",
        -10.303299261161662
      ],
      [
        "▁trees",
        -10.30331361264433
      ],
      [
        "▁soul",
        -10.303392340607797
      ],
      [
        "▁believed",
        -10.303881221170215
      ],
      [
        "▁conduct",
        -10.304858477841842
      ],
      [
        "▁We’re",
        -10.304938711977773
      ],
      [
        "The",
        -10.305160332726231
      ],
      [
        "▁let’s",
        -10.305951377644515
      ],
      [
        "▁paint",
        -10.306030835140824
      ],
      [
        "▁slowly",
        -10.306093099406706
      ],
      [
        "▁tiny",
        -10.306922580265539
      ],
      [
        "▁literally",
        -10.307288181428323
      ],
      [
        "ex",
        -10.307799008736643
      ],
      [
        "▁curious",
        -10.308022544549306
      ],
      [
        "▁rid",
        -10.308421164268237
      ],
      [
        "▁selected",
        -10.309054363110267
      ],
      [
        "▁mail",
        -10.309135299097136
      ],
      [
        "▁millions",
        -10.309377894310881
      ],
      [
        "▁chat",
        -10.311042529491642
      ],
      [
        "▁monthly",
        -10.311237629640413
      ],
      [
        "▁Los",
        -10.312434243395149
      ],
      [
        "ER",
        -10.312831140259437
      ],
      [
        "▁chief",
        -10.313220241077293
      ],
      [
        "▁2011",
        -10.313323793937293
      ],
      [
        "▁injury",
        -10.31353825008268
      ],
      [
        "▁6.",
        -10.314346272735246
      ],
      [
        "▁Association",
        -10.314608021782563
      ],
      [
        "▁express",
        -10.314776217578459
      ],
      [
        "▁outdoor",
        -10.315823741038606
      ],
      [
        "▁songs",
        -10.316315937500562
      ],
      [
        "▁admit",
        -10.316471919106487
      ],
      [
        "izing",
        -10.316864230676462
      ],
      [
        "▁election",
        -10.31692302070077
      ],
      [
        "▁contain",
        -10.317473517699526
      ],
      [
        "▁Air",
        -10.317702275502707
      ],
      [
        "▁Women",
        -10.318047494367816
      ],
      [
        "▁Peter",
        -10.318378131869284
      ],
      [
        "▁Work",
        -10.318405417193947
      ],
      [
        "▁writer",
        -10.319574063892283
      ],
      [
        "▁gender",
        -10.319615507666565
      ],
      [
        "”,",
        -10.320427091505621
      ],
      [
        "▁He's",
        -10.320515142300655
      ],
      [
        "▁boat",
        -10.32095024647817
      ],
      [
        "▁man,",
        -10.321028345227347
      ],
      [
        "▁shit",
        -10.321535980575145
      ],
      [
        "▁Was",
        -10.32185463783
      ],
      [
        "▁dear",
        -10.32247848584323
      ],
      [
        "▁purchased",
        -10.322491872613634
      ],
      [
        "▁Hello",
        -10.322590363136564
      ],
      [
        "▁frequently",
        -10.32259268282116
      ],
      [
        "▁\"If",
        -10.32343039603418
      ],
      [
        "▁meat",
        -10.323896308443643
      ],
      [
        "▁Canada",
        -10.323973513357355
      ],
      [
        "ating",
        -10.324026331299876
      ],
      [
        "▁cute",
        -10.324372543717622
      ],
      [
        "▁Learn",
        -10.324380604794424
      ],
      [
        "▁Ma",
        -10.324471294081402
      ],
      [
        "▁empty",
        -10.325185718675705
      ],
      [
        "▁23",
        -10.325185902338633
      ],
      [
        "▁records",
        -10.325543930446484
      ],
      [
        "tic",
        -10.325570608992928
      ],
      [
        "▁somebody",
        -10.326484803546753
      ],
      [
        "s/",
        -10.326691318136085
      ],
      [
        "▁revenue",
        -10.327377742888189
      ],
      [
        "▁install",
        -10.327610832526421
      ],
      [
        "▁pointed",
        -10.3277446313186
      ],
      [
        "▁wanting",
        -10.327904776741704
      ],
      [
        "▁right,",
        -10.328071696493136
      ],
      [
        "▁hang",
        -10.328146126429836
      ],
      [
        "▁committee",
        -10.328260263466102
      ],
      [
        "let",
        -10.328388468820878
      ],
      [
        "▁sending",
        -10.32852611983915
      ],
      [
        "▁consumers",
        -10.328689457014278
      ],
      [
        "▁passing",
        -10.328715315926841
      ],
      [
        "▁harder",
        -10.328751780749112
      ],
      [
        "▁impressed",
        -10.328753876590014
      ],
      [
        "ho",
        -10.32886086898976
      ],
      [
        "back",
        -10.328902488874562
      ],
      [
        "▁wood",
        -10.328959515514072
      ],
      [
        "▁bottle",
        -10.329000056093797
      ],
      [
        "▁industrial",
        -10.329063681567208
      ],
      [
        "▁telephone",
        -10.329658890853644
      ],
      [
        "▁grateful",
        -10.32971252853806
      ],
      [
        "▁you?",
        -10.329820049688436
      ],
      [
        "▁rain",
        -10.330116578022945
      ],
      [
        "▁Management",
        -10.330388859807371
      ],
      [
        "▁Street",
        -10.330646646997629
      ],
      [
        "▁horse",
        -10.330842248358707
      ],
      [
        "▁evil",
        -10.331608875402322
      ],
      [
        "):",
        -10.3322614805994
      ],
      [
        "▁affordable",
        -10.332366809648306
      ],
      [
        "▁45",
        -10.332670056514537
      ],
      [
        "▁immediate",
        -10.332686433282117
      ],
      [
        "▁matters",
        -10.332847133506922
      ],
      [
        "▁seat",
        -10.333027663106982
      ],
      [
        "▁season.",
        -10.333099459518628
      ],
      [
        "▁civil",
        -10.333626253565729
      ],
      [
        "▁accident",
        -10.333820039170902
      ],
      [
        "▁menu",
        -10.333967243340837
      ],
      [
        "▁necessarily",
        -10.33472181947016
      ],
      [
        "...I",
        -10.335223746040015
      ],
      [
        "▁guarantee",
        -10.335408608171132
      ],
      [
        "Q",
        -10.335821203446738
      ],
      [
        "▁tickets",
        -10.336027346998481
      ],
      [
        "▁provider",
        -10.337236601687495
      ],
      [
        "▁great.",
        -10.33745871930114
      ],
      [
        "▁competitive",
        -10.33746082502358
      ],
      [
        "▁scale",
        -10.337493861649218
      ],
      [
        "▁south",
        -10.337649625628423
      ],
      [
        "▁awareness",
        -10.337843130776807
      ],
      [
        "▁privacy",
        -10.337875339459684
      ],
      [
        "▁drugs",
        -10.338405341798975
      ],
      [
        "▁suggestions",
        -10.338555536615036
      ],
      [
        "▁normally",
        -10.338995942934456
      ],
      [
        "▁forces",
        -10.339355511685778
      ],
      [
        "▁needs.",
        -10.33946958130984
      ],
      [
        "▁yet.",
        -10.339727432003034
      ],
      [
        "11",
        -10.340009298532049
      ],
      [
        "▁fitness",
        -10.340352613998352
      ],
      [
        "▁authority",
        -10.340654898109495
      ],
      [
        "▁plastic",
        -10.340994086988127
      ],
      [
        "▁sides",
        -10.341293728252325
      ],
      [
        "▁combined",
        -10.341342000958434
      ],
      [
        "▁month.",
        -10.342213248041695
      ],
      [
        "espite",
        -10.342309936437639
      ],
      [
        "▁0",
        -10.342907665380503
      ],
      [
        "▁Police",
        -10.343250567959943
      ],
      [
        "▁vary",
        -10.343696895230153
      ],
      [
        "▁head.",
        -10.343733902667342
      ],
      [
        "▁capable",
        -10.343752670400834
      ],
      [
        "▁pure",
        -10.34377272515166
      ],
      [
        "▁letting",
        -10.344364950823174
      ],
      [
        "▁crime",
        -10.344463366666249
      ],
      [
        "▁“A",
        -10.344506179443087
      ],
      [
        "▁friends,",
        -10.345560748624699
      ],
      [
        "▁cities",
        -10.347387446376242
      ],
      [
        "▁Long",
        -10.347702127687427
      ],
      [
        "▁Wednesday",
        -10.34817045913509
      ],
      [
        "▁alcohol",
        -10.348183490615526
      ],
      [
        "...and",
        -10.348903988559837
      ],
      [
        "▁hopefully",
        -10.34911531625523
      ],
      [
        "▁apartment",
        -10.349246005560738
      ],
      [
        "▁forth",
        -10.34973365463118
      ],
      [
        "▁reduced",
        -10.34985936002729
      ],
      [
        "▁incredibly",
        -10.350077205484663
      ],
      [
        "▁purposes",
        -10.35070530499352
      ],
      [
        "▁choices",
        -10.35089453100538
      ],
      [
        "▁Book",
        -10.351023052850485
      ],
      [
        "▁issued",
        -10.351339198047537
      ],
      [
        "▁nobody",
        -10.351853955547146
      ],
      [
        "▁breakfast",
        -10.352033309306663
      ],
      [
        "▁struggle",
        -10.352453754350368
      ],
      [
        "▁Art",
        -10.35310416574146
      ],
      [
        "▁Church",
        -10.353345486565185
      ],
      [
        "n't",
        -10.353555522032892
      ],
      [
        "con",
        -10.353609312065867
      ],
      [
        "way",
        -10.353681761936707
      ],
      [
        "▁facing",
        -10.353808068593384
      ],
      [
        "▁\"It's",
        -10.354525068234892
      ],
      [
        "▁confident",
        -10.354587687470339
      ],
      [
        "▁pop",
        -10.354633677529652
      ],
      [
        "▁possibility",
        -10.355248579437976
      ],
      [
        "▁weird",
        -10.355290416424886
      ],
      [
        "▁consist",
        -10.35608188415926
      ],
      [
        "▁faster",
        -10.357036418579389
      ],
      [
        "▁Development",
        -10.35715976518961
      ],
      [
        "ists",
        -10.35729203052594
      ],
      [
        "▁pack",
        -10.357649574522759
      ],
      [
        "▁fruit",
        -10.357884202748394
      ],
      [
        "▁drinking",
        -10.358219652162003
      ],
      [
        "s'",
        -10.358252525749986
      ],
      [
        "▁Mary",
        -10.358459795371022
      ],
      [
        "▁Central",
        -10.358786123278033
      ],
      [
        "▁discussed",
        -10.359141112715973
      ],
      [
        "▁calm",
        -10.360108331188247
      ],
      [
        "▁22",
        -10.36028826061105
      ],
      [
        "▁skill",
        -10.36113893207855
      ],
      [
        "▁closely",
        -10.361230637435668
      ],
      [
        "▁referred",
        -10.361780115242631
      ],
      [
        "▁introduced",
        -10.362528224695424
      ],
      [
        "▁registered",
        -10.363266443916341
      ],
      [
        "▁down,",
        -10.364419481063546
      ],
      [
        "▁argument",
        -10.364545638862522
      ],
      [
        "▁28",
        -10.364607092064066
      ],
      [
        "▁Could",
        -10.364631318844108
      ],
      [
        "▁dogs",
        -10.364931413001282
      ],
      [
        "▁agent",
        -10.365682067351006
      ],
      [
        "▁available.",
        -10.36571975318267
      ],
      [
        "▁suitable",
        -10.365858378969673
      ],
      [
        "-day",
        -10.366079208759801
      ],
      [
        "▁cook",
        -10.366154747894821
      ],
      [
        "▁regardless",
        -10.367366004353775
      ],
      [
        "▁business,",
        -10.367529746884287
      ],
      [
        "▁electronic",
        -10.367727122927654
      ],
      [
        "▁remaining",
        -10.367969914553075
      ],
      [
        "▁chapter",
        -10.368086160450202
      ],
      [
        "▁recovery",
        -10.368143604766365
      ],
      [
        "▁trial",
        -10.368244008785041
      ],
      [
        "▁enable",
        -10.36832532991832
      ],
      [
        "▁illegal",
        -10.368680225647703
      ],
      [
        "▁quarter",
        -10.368721022908762
      ],
      [
        "▁(A",
        -10.368787078412218
      ],
      [
        "▁valid",
        -10.36921857771532
      ],
      [
        "▁cream",
        -10.369567440998459
      ],
      [
        "▁officers",
        -10.369750915138958
      ],
      [
        "▁century",
        -10.369945560642343
      ],
      [
        "▁false",
        -10.37094498608904
      ],
      [
        "▁Things",
        -10.371358532937041
      ],
      [
        "▁wrong.",
        -10.371509416487282
      ],
      [
        "▁server",
        -10.371763745130096
      ],
      [
        "▁hire",
        -10.371953705141532
      ],
      [
        "▁lessons",
        -10.373313917421147
      ],
      [
        "▁IN",
        -10.373998359627382
      ],
      [
        "▁artist",
        -10.374072008358759
      ],
      [
        "▁farm",
        -10.374287303970085
      ],
      [
        "▁load",
        -10.375117624344615
      ],
      [
        "▁facility",
        -10.37527237012431
      ],
      [
        "▁George",
        -10.375950799771253
      ],
      [
        "▁supported",
        -10.37673750763519
      ],
      [
        "▁launch",
        -10.377531317005621
      ],
      [
        "▁joy",
        -10.377615622963066
      ],
      [
        "▁Earth",
        -10.377710448130863
      ],
      [
        "▁Unfortunately,",
        -10.378273744042573
      ],
      [
        "field",
        -10.379127060965994
      ],
      [
        "▁improved",
        -10.380354206136232
      ],
      [
        "▁bike",
        -10.38049744158099
      ],
      [
        "▁“This",
        -10.380588968502938
      ],
      [
        "▁extent",
        -10.381520141498276
      ],
      [
        "▁fly",
        -10.382519570491096
      ],
      [
        "▁operation",
        -10.383289823426416
      ],
      [
        "ard",
        -10.383692475619705
      ],
      [
        "▁Congress",
        -10.384995806062904
      ],
      [
        "▁IS",
        -10.38515379258105
      ],
      [
        "▁Mr",
        -10.385583385199237
      ],
      [
        "-free",
        -10.38566815706536
      ],
      [
        "▁blame",
        -10.38567936869256
      ],
      [
        "▁Club",
        -10.3858031333715
      ],
      [
        "▁participants",
        -10.386937052850115
      ],
      [
        "▁accessible",
        -10.38696349920976
      ],
      [
        "▁escape",
        -10.38701580783912
      ],
      [
        "▁suffer",
        -10.387103522835147
      ],
      [
        "▁performed",
        -10.387587932509792
      ],
      [
        "▁Show",
        -10.387740094083938
      ],
      [
        "▁falling",
        -10.388313949025589
      ],
      [
        "▁Under",
        -10.388541134327312
      ],
      [
        "▁lights",
        -10.388578757894507
      ],
      [
        "▁switch",
        -10.388820238180365
      ],
      [
        "▁charges",
        -10.388969476263235
      ],
      [
        "der",
        -10.389200382882063
      ],
      [
        "▁aim",
        -10.38923929902781
      ],
      [
        "▁plays",
        -10.389275249742358
      ],
      [
        "▁community.",
        -10.389370656735053
      ],
      [
        "▁movies",
        -10.389566503688709
      ],
      [
        "▁Mac",
        -10.389603678755682
      ],
      [
        "▁EU",
        -10.389879557224852
      ],
      [
        "▁processes",
        -10.390720163364588
      ],
      [
        "▁expertise",
        -10.39072737936057
      ],
      [
        "es,",
        -10.390885850937504
      ],
      [
        ".....",
        -10.390966506012816
      ],
      [
        "▁“I’m",
        -10.391221720137171
      ],
      [
        "▁fashion",
        -10.391337227479939
      ],
      [
        "ler",
        -10.391709794477599
      ],
      [
        "▁violence",
        -10.39258336232445
      ],
      [
        "▁co",
        -10.392589975752076
      ],
      [
        "▁Commission",
        -10.392879307963252
      ],
      [
        "▁heads",
        -10.392905359986818
      ],
      [
        "▁chose",
        -10.392951889806831
      ],
      [
        "▁Let's",
        -10.393808670185045
      ],
      [
        "▁centre",
        -10.394145340750725
      ],
      [
        "▁engaged",
        -10.394951836640264
      ],
      [
        "red",
        -10.3949729907219
      ],
      [
        "▁charged",
        -10.395105025444488
      ],
      [
        "▁decent",
        -10.395475029558561
      ],
      [
        "▁system,",
        -10.395654103539188
      ],
      [
        "▁help.",
        -10.395786077540377
      ],
      [
        "▁Water",
        -10.396172411650245
      ],
      [
        "▁nuclear",
        -10.396680077397493
      ],
      [
        "▁teeth",
        -10.397687220007567
      ],
      [
        "▁domain",
        -10.397903404507147
      ],
      [
        "▁fail",
        -10.397908106170402
      ],
      [
        "▁thousand",
        -10.39848280712068
      ],
      [
        "▁loving",
        -10.398977526520667
      ],
      [
        "les",
        -10.399495834368162
      ],
      [
        "▁understood",
        -10.399522459815174
      ],
      [
        "▁tight",
        -10.400879990798536
      ],
      [
        "▁ends",
        -10.401590573013458
      ],
      [
        "▁updates",
        -10.401946934285899
      ],
      [
        "▁anybody",
        -10.402225359605783
      ],
      [
        "▁book,",
        -10.402395981405421
      ],
      [
        "ble",
        -10.402620747152568
      ],
      [
        "▁hidden",
        -10.402875753020247
      ],
      [
        "▁family,",
        -10.402993170130586
      ],
      [
        "▁\"I'm",
        -10.403299211352293
      ],
      [
        "▁resource",
        -10.403807132490384
      ],
      [
        "▁housing",
        -10.40444786936946
      ],
      [
        "▁Plan",
        -10.404536276662874
      ],
      [
        "▁aspect",
        -10.404630099324258
      ],
      [
        "▁occur",
        -10.405183141760414
      ],
      [
        "▁children,",
        -10.405303312721127
      ],
      [
        "▁broke",
        -10.405477006783014
      ],
      [
        "▁times,",
        -10.405927325722601
      ],
      [
        "▁acting",
        -10.406124485445357
      ],
      [
        "▁writers",
        -10.406300049990639
      ],
      [
        "▁accounts",
        -10.406369051894812
      ],
      [
        "▁wake",
        -10.406408202396742
      ],
      [
        "▁clothes",
        -10.40692183052284
      ],
      [
        "▁eligible",
        -10.407125082750031
      ],
      [
        "▁industry.",
        -10.407982693546334
[...]
