{
  "version": "1.0",
  "truncation": null,
  "padding": null,
  "added_tokens": [
    {
      "id": 0,
      "content": "[UNK]",
      "single_word": false,
      "lstrip": false,
      "rstrip": false,
      "normalized": false,
      "special": true
    },
    {
      "id": 1,
      "content": "[CLS]",
      "single_word": false,
      "lstrip": false,
      "rstrip": false,
      "normalized": false,
      "special": true
    },
    {
      "id": 2,
      "content": "[SEP]",
      "single_word": false,
      "lstrip": false,
      "rstrip": false,
      "normalized": false,
      "special": true
    },
    {
      "id": 3,
      "content": "[PAD]",
      "single_word": false,
      "lstrip": false,
      "rstrip": false,
      "normalized": false,
      "special": true
    },
    {
      "id": 4,
      "content": "[MASK]",
      "single_word": false,
      "lstrip": false,
      "rstrip": false,
      "normalized": false,
      "special": true
    }
  ],
  "normalizer": {
    "type": "Sequence",
    "normalizers": [
      {
        "type": "Nmt"
      },
      {
        "type": "NFKC"
      },
      {
        "type": "Replace",
        "pattern": {
          "Regex": " {2,}"
        },
        "content": " "
      }
    ]
  },
  "pre_tokenizer": {
    "type": "Metaspace",
    "replacement": "▁",
    "prepend_scheme": "always",
    "split": true
  },
  "post_processor": null,
  "decoder": {
    "type": "Metaspace",
    "replacement": "▁",
    "prepend_scheme": "always",
    "split": true
  },
  "model": {
    "type": "Unigram",
    "unk_id": null,
    "vocab": [
      [
        "[UNK]",
        0.0
      ],
      [
        "[CLS]",
        0.0
      ],
      [
        "[SEP]",
        0.0
      ],
      [
        "[PAD]",
        0.0
      ],
      [
        "[MASK]",
        0.0
      ],
      [
        "▁",
        -2.6696008793537978
      ],
      [
        ",",
        -3.6058623362285243
      ],
      [
        ".",
        -4.237042052216253
      ],
      [
        "▁және",
        -4.75885035833392
      ],
      [
        "»",
        -5.043359001497937
      ],
      [
        "▁-",
        -5.354007230658693
      ],
      [
        "▁мен",
        -5.355544622922759
      ],
      [
        "▁–",
        -5.363950071681495
      ],
      [
        ":",
        -5.486594583478878
      ],
      [
        "н",
        -5.571269203524908
      ],
      [
        "ның",
        -5.640365681609479
      ],
      [
        "мен",
        -5.683449811959228
      ],
      [
        "-",
        -5.690727349527602
      ],
      [
        "ға",
        -5.6989876010236
      ],
      [
        "▁Қазақстан",
        -5.759814468147855
      ],
      [
        "▁бойынша",
        -5.841942093190472
      ],
      [
        ")",
        -5.843108076165128
      ],
      [
        "▁үшін",
        -5.88990323198705
      ],
      [
        "▁туралы",
        -5.949982289605318
      ],
      [
        "▁«",
        -5.979823708638673
      ],
      [
        "▁деп",
        -6.055449152655294
      ],
      [
        "да",
        -6.139652036988988
      ],
      [
        "ды",
        -6.18947583994095
      ],
      [
        "ы",
        -6.2259963448737
      ],
      [
        "ге",
        -6.244639827432426
      ],
      [
        "▁(",
        -6.246897451019329
      ],
      [
        "▁да",
        -6.328305579654902
      ],
      [
        "▁бір",
        -6.349617540367051
      ],
      [
        "дың",
        -6.37051783224638
      ],
      [
        "▁—",
        -6.389208065833001
      ],
      [
        "нің",
        -6.412020021585278
      ],
      [
        "▁Бұл",
        -6.4613290331076225
      ],
      [
        "▁мемлекеттік",
        -6.492422550155048
      ],
      [
        "\"",
        -6.505741015637842
      ],
      [
        "▁жұмыс",
        -6.525100495860562
      ],
      [
        "▁де",
        -6.535698075955759
      ],
      [
        ";",
        -6.538061252975886
      ],
      [
        "ді",
        -6.557402056649726
      ],
      [
        "а",
        -6.578421476163264
      ],
      [
        "▁болып",
        -6.595482066433977
      ],
      [
        "і",
        -6.602985261307113
      ],
      [
        "лық",
        -6.614946579073848
      ],
      [
        "тың",
        -6.637690242712946
      ],
      [
        "▁жылы",
        -6.649233942248458
      ],
      [
        "қа",
        -6.6750061403598675
      ],
      [
        "▁бұл",
        -6.684538046417336
      ],
      [
        "▁білім",
        -6.694857357280334
      ],
      [
        "дан",
        -6.740538469966383
      ],
      [
        "дің",
        -6.744040613269874
      ],
      [
        "▁деген",
        -6.756190499608367
      ],
      [
        "▁жаңа",
        -6.760597151897272
      ],
      [
        "▁өз",
        -6.763509812933782
      ],
      [
        "де",
        -6.7692341996264425
      ],
      [
        "ын",
        -6.775942050804101
      ],
      [
        "м",
        -6.800359291216315
      ],
      [
        "▁арналған",
        -6.818749935146206
      ],
      [
        "▁1",
        -6.8394443387865085
      ],
      [
        "▁оның",
        -6.856337779446248
      ],
      [
        "...",
        -6.871609813206138
      ],
      [
        "▁бар",
        -6.871938491167533
      ],
      [
        "▁осы",
        -6.8759811878881845
      ],
      [
        "▁адам",
        -6.899611684901204
      ],
      [
        "ты",
        -6.929795123063862
      ],
      [
        "▁арқылы",
        -6.934848718383799
      ],
      [
        "▁беру",
        -6.936391028053073
      ],
      [
        "ке",
        -6.937167037238373
      ],
      [
        "на",
        -6.949238099147863
      ],
      [
        "▁жыл",
        -6.975368883028342
      ],
      [
        "к",
        -6.979241303105967
      ],
      [
        "дағы",
        -6.98534429539634
      ],
      [
        "тің",
        -6.990185436060081
      ],
      [
        "п",
        -7.025669552205711
      ],
      [
        "▁_",
        -7.026628472603708
      ],
      [
        "▁болады.",
        -7.037877567377723
      ],
      [
        "▁дейін",
        -7.051234987729206
      ],
      [
        "▁күні",
        -7.051483293413515
      ],
      [
        "у",
        -7.059982142291551
      ],
      [
        "▁қызмет",
        -7.069791725441755
      ],
      [
        "▁ол",
        -7.0741797029987925
      ],
      [
        "▁Республикасының",
        -7.084328517269073
      ],
      [
        "▁немесе",
        -7.0872320564531215
      ],
      [
        "?",
        -7.099634059997943
      ],
      [
        "!",
        -7.099804364021331
      ],
      [
        "▁2",
        -7.113231245162259
      ],
      [
        "▁әлеуметтік",
        -7.12624370627573
      ],
      [
        "нан",
        -7.131450387727904
      ],
      [
        "▁жылғы",
        -7.143336845026358
      ],
      [
        "▁қазақ",
        -7.1597010864739765
      ],
      [
        "▁екі",
        -7.164716637224844
      ],
      [
        "ына",
        -7.1771789584590024
      ],
      [
        "▁алу",
        -7.177590569528181
      ],
      [
        "р",
        -7.191414834113726
      ],
      [
        "▁ҚР",
        -7.1931080724334375
      ],
      [
        "▁3",
        -7.194382101122258
      ],
      [
        "▁\"",
        -7.199583584555663
      ],
      [
        "▁жылдың",
        -7.205643949380601
      ],
      [
        "▁оқу",
        -7.213940752729583
      ],
      [
        "ін",
        -7.217000872651585
      ],
      [
        "пен",
        -7.2341497978602085
      ],
      [
        "▁басқа",
        -7.241135798123555
      ],
      [
        "▁ең",
        -7.254390339808047
      ],
      [
        "ң",
        -7.256498082504681
      ],
      [
        "▁Ол",
        -7.263140112439954
      ],
      [
        "т",
        -7.275008260279442
      ],
      [
        "с",
        -7.280816687344821
      ],
      [
        "▁барлық",
        -7.282171910981695
      ],
      [
        "ғы",
        -7.297088968265369
      ],
      [
        "▁Осы",
        -7.298138992047683
      ],
      [
        "та",
        -7.303163146713285
      ],
      [
        "▁ғана",
        -7.307181407901421
      ],
      [
        "ті",
        -7.3167890735061665
      ],
      [
        "▁пен",
        -7.3215216476789795
      ],
      [
        "ны",
        -7.325666497891529
      ],
      [
        "▁Ал",
        -7.329791018876838
      ],
      [
        "▁Республикасы",
        -7.341460185520459
      ],
      [
        "ден",
        -7.341828201696419
      ],
      [
        "▁5",
        -7.345117497654918
      ],
      [
        "▁Қазақ",
        -7.347963138671858
      ],
      [
        "»,",
        -7.349986823761588
      ],
      [
        "▁жүзеге",
        -7.368421844565729
      ],
      [
        "▁болған",
        -7.371592845620288
      ],
      [
        "▁ішінде",
        -7.378503065588651
      ],
      [
        "▁жеке",
        -7.380106148314232
      ],
      [
        "▁бас",
        -7.385756559424056
      ],
      [
        "лар",
        -7.38594424267259
      ],
      [
        "не",
        -7.392250321148383
      ],
      [
        "▁4",
        -7.3982917278240805
      ],
      [
        "▁көп",
        -7.409657644258889
      ],
      [
        "▁мың",
        -7.417356807804641
      ],
      [
        "▁бар.",
        -7.432827680361944
      ],
      [
        "▁Алматы",
        -7.438028258393148
      ],
      [
        "▁кейін",
        -7.443340374255104
      ],
      [
        "­",
        -7.446362903930343
      ],
      [
        "▁облысы",
        -7.44987339734633
      ],
      [
        "▁жоғары",
        -7.457822015651068
      ],
      [
        "е",
        -7.469372968349743
      ],
      [
        "▁жатқан",
        -7.470766286451184
      ],
      [
        "▁байланысты",
        -7.476070146694209
      ],
      [
        "сы",
        -7.488947262821609
      ],
      [
        "▁Мемлекеттік",
        -7.4929647671600925
      ],
      [
        "▁2018",
        -7.4940612931096755
      ],
      [
        "▁жалпы",
        -7.497033774962137
      ],
      [
        "▁өткен",
        -7.515769895082176
      ],
      [
        "▁басшысы",
        -7.516137598299959
      ],
      [
        "▁болды.",
        -7.530443421201857
      ],
      [
        "”",
        -7.545439874303256
      ],
      [
        "▁не",
        -7.547590369224736
      ],
      [
        "▁қарсы",
        -7.551341587101039
      ],
      [
        "▁10",
        -7.563973158635099
      ],
      [
        "▁орта",
        -7.568554962341842
      ],
      [
        "▁ақпарат",
        -7.570526597060628
      ],
      [
        "▁атындағы",
        -7.573950517627917
      ],
      [
        "▁негізгі",
        -7.574627058666904
      ],
      [
        "қ",
        -7.578107544630669
      ],
      [
        "▁қамтамасыз",
        -7.57820915647604
      ],
      [
        "▁жер",
        -7.581050685280939
      ],
      [
        "▁сол",
        -7.583645137057518
      ],
      [
        "▁қол",
        -7.583685434299905
      ],
      [
        "▁қатысты",
        -7.593375984524059
      ],
      [
        "▁оны",
        -7.602553016795492
      ],
      [
        "▁ұлттық",
        -7.607854959861509
      ],
      [
        "▁жаңалықтар",
        -7.609153424502013
      ],
      [
        "▁жол",
        -7.611506298431912
      ],
      [
        "нен",
        -7.61250710413923
      ],
      [
        "▁жақсы",
        -7.612650643421228
      ],
      [
        "▁/",
        -7.613821809400866
      ],
      [
        "▁Астана",
        -7.618353398311131
      ],
      [
        "тар",
        -7.623032226706538
      ],
      [
        "▁2017",
        -7.627009081288259
      ],
      [
        "▁сәйкес",
        -7.62904665156862
      ],
      [
        "▁олардың",
        -7.631844450186289
      ],
      [
        "л",
        -7.6367374337817555
      ],
      [
        "▁келген",
        -7.642426002324219
      ],
      [
        "▁атты",
        -7.645957243578618
      ],
      [
        "▁жөніндегі",
        -7.6462924456791495
      ],
      [
        "▁керек.",
        -7.648098958123482
      ],
      [
        "▁20",
        -7.653351342999649
      ],
      [
        "▁халықаралық",
        -7.6561579967263516
      ],
      [
        "▁облыстық",
        -7.661875876513415
      ],
      [
        "▁қалай",
        -7.663491002699056
      ],
      [
        "▁үй",
        -7.675162282177073
      ],
      [
        "▁ретінде",
        -7.678286408626761
      ],
      [
        "іне",
        -7.682320297262066
      ],
      [
        "▁6",
        -7.686934874203651
      ],
      [
        "▁“",
        -7.690164942827153
      ],
      [
        "тан",
        -7.696004102542265
      ],
      [
        "▁отыр.",
        -7.7049031846029745
      ],
      [
        "/",
        -7.713022832364576
      ],
      [
        "▁бет",
        -7.71394441897843
      ],
      [
        "тер",
        -7.7141283228776185
      ],
      [
        "▁өтті.",
        -7.717905358982769
      ],
      [
        "й",
        -7.721364390248581
      ],
      [
        "▁теңге",
        -7.721420120428526
      ],
      [
        "▁іске",
        -7.7240408462112224
      ],
      [
        "▁күн",
        -7.726759513050565
      ],
      [
        "▁рет",
        -7.728699980471729
      ],
      [
        "▁бастап",
        -7.729373702400352
      ],
      [
        "▁No",
        -7.730543791868481
      ],
      [
        "▁ал",
        -7.734100358180326
      ],
      [
        "▁қандай",
        -7.735504553665043
      ],
      [
        "▁әрі",
        -7.7379068970502
      ],
      [
        "▁емес",
        -7.748413716348237
      ],
      [
        "▁арасында",
        -7.750118362949328
      ],
      [
        "дегі",
        -7.752355421929819
      ],
      [
        "те",
        -7.75482223519208
      ],
      [
        "▁үлкен",
        -7.758289087529526
      ],
      [
        "▁әр",
        -7.759082648945968
      ],
      [
        "▁соңғы",
        -7.760719479593819
      ],
      [
        "▁8",
        -7.761381351173787
      ],
      [
        "и",
        -7.767244094998846
      ],
      [
        "▁ел",
        -7.770242528969854
      ],
      [
        "▁жас",
        -7.771844935643223
      ],
      [
        "▁өте",
        -7.771950529904615
      ],
      [
        "▁деді",
        -7.774695394030541
      ],
      [
        "▁7",
        -7.778249117385219
      ],
      [
        "▁түрде",
        -7.780567279572956
      ],
      [
        "▁көрсету",
        -7.7880881950006025
      ],
      [
        "▁хабарлайды",
        -7.791293392387425
      ],
      [
        "▁облысының",
        -7.793527788771502
      ],
      [
        "▁ғылыми",
        -7.796174271809651
      ],
      [
        "▁барысында",
        -7.807304853195163
      ],
      [
        "▁кезде",
        -7.808842188244441
      ],
      [
        "▁бала",
        -7.809311652442792
      ],
      [
        "ының",
        -7.811521705318324
      ],
      [
        "▁Оның",
        -7.811766210480947
      ],
      [
        "▁кезінде",
        -7.814970673690269
      ],
      [
        "▁түрлі",
        -7.816068278729686
      ],
      [
        "▁Қазақстанның",
        -7.81642512463376
      ],
      [
        "лік",
        -7.819994606440533
      ],
      [
        "▁алып",
        -7.822052835910027
      ],
      [
        "інің",
        -7.82602414940547
      ],
      [
        "▁қорғау",
        -7.826695076978757
      ],
      [
        "▁өмір",
        -7.827265300964456
      ],
      [
        "▁еңбек",
        -7.83437300515441
      ],
      [
        "▁А",
        -7.836064666890861
      ],
      [
        "лы",
        -7.837985179533419
      ],
      [
        "▁Ұлттық",
        -7.838745413836145
      ],
      [
        "дар",
        -7.842581794839596
      ],
      [
        "▁біздің",
        -7.847187717667618
      ],
      [
        "▁бірінші",
        -7.847469137732945
      ],
      [
        "▁сатып",
        -7.848280665255318
      ],
      [
        "▁үш",
        -7.851871470344012
      ],
      [
        "▁қаласы",
        -7.856494215658749
      ],
      [
        "▁Жаңа",
        -7.872523272614986
      ],
      [
        "▁жауап",
        -7.872690901594993
      ],
      [
        "▁1.",
        -7.880079889965158
      ],
      [
        "▁сөз",
        -7.883091433535249
      ],
      [
        "▁ауданы",
        -7.883256065954885
      ],
      [
        "▁болуы",
        -7.8835786989309575
      ],
      [
        "▁алған",
        -7.883895456562904
      ],
      [
        "▁тек",
        -7.886215924402309
      ],
      [
        "▁сақтау",
        -7.886389592785754
      ],
      [
        "▁қайта",
        -7.888788097517846
      ],
      [
        "д",
        -7.900416541745281
      ],
      [
        "▁су",
        -7.901718161384574
      ],
      [
        "▁алады.",
        -7.902495358324201
      ],
      [
        "▁қала",
        -7.902545604820556
      ],
      [
        "▁дамыту",
        -7.9043603201956625
      ],
      [
        "▁Сонымен",
        -7.904917627277447
      ],
      [
        "▁С",
        -7.906415807573275
      ],
      [
        "ында",
        -7.910330374918258
      ],
      [
        "▁атап",
        -7.926656610219606
      ],
      [
        "▁емес,",
        -7.926665076000173
      ],
      [
        "▁дейді",
        -7.93301940248446
      ],
      [
        "▁ету",
        -7.933948615704722
      ],
      [
        "о",
        -7.938293334185268
      ],
      [
        "▁арнайы",
        -7.944025557901201
      ],
      [
        "▁саны",
        -7.9460191267185305
      ],
      [
        "▁мектеп",
        -7.946204986705245
      ],
      [
        "▁аясында",
        -7.9468565208477475
      ],
      [
        "▁біз",
        -7.947590987452001
      ],
      [
        "i",
        -7.953414823208332
      ],
      [
        "▁тілі",
        -7.955006018484063
      ],
      [
        "▁бірі",
        -7.966290194144605
      ],
      [
        "▁15",
        -7.966456191841491
      ],
      [
        "тық",
        -7.969868292907089
      ],
      [
        "▁отырып,",
        -7.970942776320566
      ],
      [
        "ша",
        -7.971209777770422
      ],
      [
        "ма",
        -7.971385874756802
      ],
      [
        "тік",
        -7.972928513434223
      ],
      [
        "▁әкімі",
        -7.9759190498875405
      ],
      [
        "лер",
        -7.9898136549900425
      ],
      [
        "▁9",
        -7.99314085897848
      ],
      [
        "▁спорт",
        -7.993793930245502
      ],
      [
        "▁ресми",
        -7.9948555158032075
      ],
      [
        "▁жоқ",
        -8.000521026216903
      ],
      [
        "▁қаласының",
        -8.002192835806026
      ],
      [
        "ов",
        -8.004152038893638
      ],
      [
        "▁балалар",
        -8.012152897336781
      ],
      [
        "▁аудандық",
        -8.012229987408272
      ],
      [
        "▁еді.",
        -8.014877486055884
      ],
      [
        "▁екенін",
        -8.015210310052836
      ],
      [
        "▁болса,",
        -8.015834361239722
      ],
      [
        "▁келеді.",
        -8.01711278957104
      ],
      [
        "▁жоқ.",
        -8.018951078872536
      ],
      [
        "▁орын",
        -8.020129714166039
      ],
      [
        "▁сынып",
        -8.020572488498285
      ],
      [
        "▁Мемлекет",
        -8.027452540200711
      ],
      [
        "гі",
        -8.028298844269996
      ],
      [
        "▁уақытта",
        -8.031039855483321
      ],
      [
        "▁керек",
        -8.031446315301045
      ],
      [
        ".kz",
        -8.031990159478335
      ],
      [
        "▁сондай-ақ",
        -8.03240428536491
      ],
      [
        "▁сабақ",
        -8.035268246881593
      ],
      [
        "▁2.",
        -8.03616092560958
      ],
      [
        "▁экономикалық",
        -8.038052784107121
      ],
      [
        "▁өзінің",
        -8.038346571601794
      ],
      [
        "дер",
        -8.039953222754825
      ],
      [
        "▁2016",
        -8.044449824081903
      ],
      [
        "▁12",
        -8.04591473389773
      ],
      [
        "▁бірге",
        -8.04761669978995
      ],
      [
        "з",
        -8.054772789433798
      ],
      [
        ").",
        -8.054846164334194
      ],
      [
        "▁табылады.",
        -8.055686435235035
      ],
      [
        "▁Біз",
        -8.056249255351224
      ],
      [
        "▁Басты",
        -8.060275823676525
      ],
      [
        "▁Нұрсұлтан",
        -8.063347836887607
      ],
      [
        "▁екен.",
        -8.063739326067214
      ],
      [
        "▁тегін",
        -8.069532242136342
      ],
      [
        "▁жатыр.",
        -8.07042123263098
      ],
      [
        "сын",
        -8.072588597896694
      ],
      [
        "▁басты",
        -8.074436408201521
      ],
      [
        "▁25",
        -8.076065294562023
      ],
      [
        "▁даму",
        -8.077444281757069
      ],
      [
        "▁пайда",
        -8.082065352931119
      ],
      [
        "▁Мен",
        -8.085374763716356
      ],
      [
        "▁қатар",
        -8.085434428499193
      ],
      [
        "▁басқару",
        -8.08796407099867
      ],
      [
        "▁Сабақтың",
        -8.088820295670455
      ],
      [
        "▁асыру",
        -8.088856300780288
      ],
      [
        "▁қызметі",
        -8.08974623019089
      ],
      [
        "ған",
        -8.090466558746764
      ],
      [
        "▁қоғамдық",
        -8.091568780190993
      ],
      [
        "▁тұрғын",
        -8.096848624315452
      ],
      [
        "сыз",
        -8.099006717767873
      ],
      [
        "▁...",
        -8.09933796676192
      ],
      [
        "▁жылға",
        -8.099654858929517
      ],
      [
        "▁мүмкіндік",
        -8.100440013400698
      ],
      [
        "▁бірнеше",
        -8.101416446237819
      ],
      [
        "▁қарай",
        -8.104453208030208
      ],
      [
        "▁өзі",
        -8.105290483444243
      ],
      [
        "▁екінші",
        -8.10759325314786
      ],
      [
        "▁бұрын",
        -8.11025323770802
      ],
      [
        "шы",
        -8.118782209264275
      ],
      [
        "▁тағы",
        -8.12007784188715
      ],
      [
        "▁бүгінгі",
        -8.12011320195746
      ],
      [
        "▁дұрыс",
        -8.12087463891251
      ],
      [
        "▁30",
        -8.121690912030507
      ],
      [
        "▁құқық",
        -8.124480743745666
      ],
      [
        "▁болатын.",
        -8.129367006431458
      ],
      [
        "▁Бір",
        -8.129408368059856
      ],
      [
        "▁қаласында",
        -8.129992766871514
      ],
      [
        "▁алғашқы",
        -8.133495141891379
      ],
      [
        "▁астам",
        -8.14108114514098
      ],
      [
        "▁арасындағы",
        -8.143816725387216
      ],
      [
        "▁Білім",
        -8.144210787130437
      ],
      [
        "▁маңызды",
        -8.151586114956363
      ],
      [
        "▁алуға",
        -8.152990013058199
      ],
      [
        "▁бағдарламасы",
        -8.153290565571787
      ],
      [
        "▁олар",
        -8.153397433693232
      ],
      [
        "▁18",
        -8.156446351490494
      ],
      [
        "▁оған",
        -8.156459011508664
      ],
      [
        "▁белгілі",
        -8.15738850664328
      ],
      [
        "▁жергілікті",
        -8.15801279500371
      ],
      [
        "▁11",
        -8.158986106417345
      ],
      [
        "▁қаржы",
        -8.162182588474561
      ],
      [
        "▁ерекше",
        -8.16280389606288
      ],
      [
        "▁қазіргі",
        -8.164807636263186
      ],
      [
        "ш",
        -8.164926247282297
      ],
      [
        "▁нақты",
        -8.167455472933392
      ],
      [
        "▁К",
        -8.168002158380604
      ],
      [
        "▁баспасөз",
        -8.168447714095413
      ],
      [
        "▁сағат",
        -8.171284980769261
      ],
      [
        "s",
        -8.177658524318064
      ],
      [
        "▁2015",
        -8.180172637566724
      ],
      [
        "▁сайты",
        -8.181406634451124
      ],
      [
        "дық",
        -8.183866209084448
      ],
      [
        "▁Бас",
        -8.183940355410844
      ],
      [
        "▁толық",
        -8.19036426291181
      ],
      [
        "▁ақпараттық",
        -8.194859357578865
      ],
      [
        "▁Қазақстанда",
        -8.196738038066611
      ],
      [
        "▁береді.",
        -8.198373509594944
      ],
      [
        "▁ауыл",
        -8.198374409909027
      ],
      [
        "▁Ж",
        -8.200884838038741
      ],
      [
        "▁Назарбаев",
        -8.20536381606249
      ],
      [
        "▁уақыт",
        -8.207431892642227
      ],
      [
        "▁көмек",
        -8.223498055627509
      ],
      [
        "▁Президенті",
        -8.225326614789216
      ],
      [
        "▁Сол",
        -8.226347041493336
      ],
      [
        "лардың",
        -8.228288605762215
      ],
      [
        "тен",
        -8.228535287849086
      ],
      [
        "▁әскери",
        -8.22872941049726
      ],
      [
        "▁бойы",
        -8.229200886624444
      ],
      [
        "▁адамның",
        -8.22931267998843
      ],
      [
        "▁Олар",
        -8.232774183114115
      ],
      [
        "▁орынбасары",
        -8.240619097308082
      ],
      [
        "▁мақсатында",
        -8.24160393582424
      ],
      [
        "▁іс",
        -8.241740170129606
      ],
      [
        "▁АҚ",
        -8.24294686489246
      ],
      [
        "▁ие",
        -8.243968180343328
      ],
      [
        "▁ашық",
        -8.248997025680278
      ],
      [
        "▁ішкі",
        -8.24907854760644
      ],
      [
        "▁мүмкін",
        -8.249296931260812
      ],
      [
        "▁жағдайда",
        -8.251026580142318
      ],
      [
        "▁жасау",
        -8.25142651739715
      ],
      [
        "▁дейінгі",
        -8.253247341466729
      ],
      [
        "▁жылдан",
        -8.257120333754655
      ],
      [
        "▁Егер",
        -8.257134010027794
      ],
      [
        "▁байланыс",
        -8.269441249727153
      ],
      [
        "▁алынған",
        -8.270848916943732
      ],
      [
        "▁қажет",
        -8.271204911740126
      ],
      [
        "▁келе",
        -8.27244227454513
      ],
      [
        "▁қолдау",
        -8.274052835761035
      ],
      [
        "я",
        -8.275094767466545
      ],
      [
        "нда",
        -8.278443003259566
      ],
      [
        "▁Халықаралық",
        -8.281249518809258
      ],
      [
        "▁16",
        -8.281424002327231
      ],
      [
        "▁Бірақ",
        -8.283824044157374
      ],
      [
        "▁облысында",
        -8.284602048451184
      ],
      [
        "▁мемлекет",
        -8.285356755875558
      ],
      [
        "▁өзге",
        -8.286758232132026
      ],
      [
        "▁облыс",
        -8.287835979389893
      ],
      [
        "▁отырған",
        -8.289064899375147
      ],
      [
        "▁болса",
        -8.290111628741851
      ],
      [
        "▁ала",
        -8.290147461762153
      ],
      [
        "▁халық",
        -8.291725566195028
      ],
      [
        "▁3.",
        -8.294182836313835
      ],
      [
        "▁Ресей",
        -8.29521161174036
      ],
      [
        "▁соң",
        -8.303099785644445
      ],
      [
        "б",
        -8.303907855686125
      ],
      [
        "▁ғылым",
        -8.304018960967689
      ],
      [
        "▁жағдай",
        -8.305377343174278
      ],
      [
        "▁емес.",
        -8.307469998730564
      ],
      [
        "▁жерде",
        -8.312032236097973
      ],
      [
        "▁ауылдық",
        -8.313099777103588
      ],
      [
        "▁14",
        -8.313973884671721
      ],
      [
        "▁мүмкін.",
        -8.314963924410637
      ],
      [
        "▁болады",
        -8.322346502022334
      ],
      [
        "▁бақылау",
        -8.323405836917352
      ],
      [
        "▁болды",
        -8.325390501477269
      ],
      [
        "▁шаруашылығы",
        -8.32793521580539
      ],
      [
        "▁туған",
        -8.330348056066494
      ],
      [
        "ші",
        -8.333269331753211
      ],
      [
        "▁республикалық",
        -8.333405992545934
      ],
      [
        "ым",
        -8.333543121399737
      ],
      [
        "),",
        -8.334367573521503
      ],
      [
        "▁медициналық",
        -8.336173199835564
      ],
      [
        "▁қалалық",
        -8.343330327859244
      ],
      [
        "ды.",
        -8.345411748244185
      ],
      [
        "г",
        -8.351879739584689
      ],
      [
        "▁одан",
        -8.352068617133572
      ],
      [
        "▁әкімінің",
        -8.353466676685496
      ],
      [
        "▁Сондықтан",
        -8.35507768591468
      ],
      [
        "▁өнер",
        -8.35678206920457
      ],
      [
        "са",
        -8.359034375010015
      ],
      [
        "▁Елбасы",
        -8.359042120698781
      ],
      [
        "▁Қазіргі",
        -8.360130878072757
      ],
      [
        "▁жоспары",
        -8.362470633794647
      ],
      [
        "ндағы",
        -8.364972058721378
      ],
      [
        "▁сайын",
        -8.366015101300574
      ],
      [
        "▁сияқты",
        -8.371849757789061
      ],
      [
        "▁саласындағы",
        -8.372301465020122
      ],
      [
        "лары",
        -8.372760103536407
      ],
      [
        "бай",
        -8.373964530914995
      ],
      [
        "▁сот",
        -8.374544882079881
      ],
      [
        "▁жүрген",
        -8.374661885978057
      ],
      [
        "▁бері",
        -8.379482817112958
      ],
      [
        "▁Атырау",
        -8.380441104741262
      ],
      [
        "▁тұрған",
        -8.384149763571834
      ],
      [
        "▁17",
        -8.384808183150447
      ],
      [
        "▁қалған",
        -8.386133648142426
      ],
      [
        "▁қабылдау",
        -8.389274148770856
      ],
      [
        "▁жайлы",
        -8.391331607934603
      ],
      [
        "▁қатар,",
        -8.393031939873083
      ],
      [
        "▁орталығы",
        -8.396953904817707
      ],
      [
        "ла",
        -8.39799570745345
      ],
      [
        "▁есеп",
        -8.39865725648224
      ],
      [
        "▁Барлық",
        -8.399802728097765
      ],
      [
        "▁24",
        -8.399885483274577
      ],
      [
        "▁қажет.",
        -8.4018829031223
      ],
      [
        "▁айтып",
        -8.403038607414807
      ],
      [
        "▁жұмыстары",
        -8.404233454346452
      ],
      [
        "▁жүргізу",
        -8.404349847781685
      ],
      [
        "▁топ",
        -8.40640731283992
      ],
      [
        "▁мақсаты",
        -8.409131364457496
      ],
      [
        "інде",
        -8.412046541117604
      ],
      [
        "▁рухани",
        -8.413268677990338
      ],
      [
        "▁100",
        -8.414721624862004
      ],
      [
        "▁істер",
        -8.416839947942943
      ],
      [
        "бек",
        -8.4199050552597
      ],
      [
        "▁Бүгін",
        -8.421017700838057
      ],
      [
        "▁оқыту",
        -8.42261033403422
      ],
      [
        "▁пайдалану",
        -8.424209088172265
      ],
      [
        "▁жастар",
        -8.426623845045782
      ],
      [
        "▁кеңес",
        -8.427868014831326
      ],
      [
        "▁сілтеме",
        -8.429721507925024
      ],
      [
        "▁басқармасы",
        -8.432236028529474
      ],
      [
        "▁мәселелері",
        -8.434382503388145
      ],
      [
        "▁13",
        -8.43718277550225
      ],
      [
        "▁ай",
        -8.438905372212215
      ],
      [
        "сіз",
        -8.440095192602719
      ],
      [
        "▁қазақстандық",
        -8.443437861349238
      ],
      [
        "С",
        -8.444367859127354
      ],
      [
        "сі",
        -8.447506353076996
      ],
      [
        "▁енгізу",
        -8.448586495341203
      ],
      [
        "▁Павлодар",
        -8.449768971364648
      ],
      [
        "▁адамдар",
        -8.45117104340148
      ],
      [
        "▁ақ",
        -8.4517990527061
      ],
      [
        "▁өткізу",
        -8.45294221263006
      ],
      [
        "ка",
        -8.454676346866059
      ],
      [
        "▁өзара",
        -8.458397543763457
      ],
      [
        "ларды",
        -8.45969173763157
      ],
      [
        "дай",
        -8.46163207949807
      ],
      [
        "▁Оңтүстік",
        -8.462665513722465
      ],
      [
        "▁бірақ",
        -8.465198721345029
      ],
      [
        "▁туралы»",
        -8.46621771935849
      ],
      [
        "▁Жалпы",
        -8.46752513860139
      ],
      [
        "▁ауданының",
        -8.468203995980094
      ],
      [
        "▁Б",
        -8.468236645155466
      ],
      [
        "▁таңда",
        -8.469490713504939
      ],
      [
        "▁тиімді",
        -8.4695066659241
      ],
      [
        "▁заң",
        -8.47018043044751
      ],
      [
        "▁салық",
        -8.470872595347567
      ],
      [
        "▁үздік",
        -8.474360107710417
      ],
      [
        "▁елдің",
        -8.474604532936974
      ],
      [
        "▁Т",
        -8.475431665720023
      ],
      [
        "▁қыз",
        -8.476877623838067
      ],
      [
        "▁ана",
        -8.477851692304547
      ],
      [
        "▁Ақтөбе",
        -8.47810715099903
      ],
      [
        "ер",
        -8.47903789019724
      ],
      [
        "▁оларды",
        -8.479601281176095
      ],
      [
        "▁өтті",
        -8.47985444755004
      ],
      [
        "▁Біздің",
        -8.480912662368546
      ],
      [
        "▁тұрақты",
        -8.481408028004683
      ],
      [
        "баев",
        -8.482038901949577
      ],
      [
        "▁қара",
        -8.482842526576086
      ],
      [
        "▁«Қазақстан",
        -8.483153567860812
      ],
      [
        "▁міндетті",
        -8.483294024945137
      ],
      [
        "▁ақша",
        -8.483329061693805
      ],
      [
        "▁көптеген",
        -8.484418121254462
      ],
      [
        "▁айтуынша,",
        -8.48455900524205
      ],
      [
        "ан",
        -8.486898008660678
      ],
      [
        "▁аз",
        -8.488688931630474
      ],
      [
        "▁жастағы",
        -8.489787340863263
      ],
      [
        "▁көлік",
        -8.489800507666555
      ],
      [
        "▁Қарағанды",
        -8.489954731644733
      ],
      [
        "ж",
        -8.490850252501867
      ],
      [
        "ұлы",
        -8.491684014644623
      ],
      [
        "▁жүйесі",
        -8.49223940549643
      ],
      [
        "▁заңды",
        -8.497003013397673
      ],
      [
        "▁да,",
        -8.498493902843268
      ],
      [
        "▁орай",
        -8.500780391101937
      ],
      [
        "▁аудан",
        -8.501517220666138
      ],
      [
        "▁көз",
        -8.502318115704925
      ],
      [
        "▁бес",
        -8.504496738026042
      ],
      [
        "▁орны",
        -8.504595893647153
      ],
      [
        "▁құқықтық",
        -8.510667053834336
      ],
      [
        "▁беретін",
        -8.510900148381005
      ],
      [
        "ра",
        -8.512744954996645
      ],
      [
        "▁19",
        -8.514728499892282
      ],
      [
        "▁әкімшілік",
        -8.515179640111322
      ],
      [
        "▁тарихы",
        -8.516162008885317
      ],
      [
        "▁алдын",
        -8.521290826127252
      ],
      [
        "▁ірі",
        -8.522962131846272
      ],
      [
        "▁тіл",
        -8.523838828785085
      ],
      [
        "▁қосымша",
        -8.524405498633921
      ],
      [
        "Қ",
        -8.524840600030679
      ],
      [
        "▁әрбір",
        -8.5253152029062
      ],
      [
        "▁негізінде",
        -8.526278635557908
      ],
      [
        "▁берген",
        -8.52880761247543
      ],
      [
        "▁онда",
        -8.531403387818761
      ],
      [
        "▁сауда",
        -8.533564515127756
      ],
      [
        "▁орналасқан",
        -8.534261063491634
      ],
      [
        "▁Қызылорда",
        -8.534920491906167
      ],
      [
        "ып",
        -8.53684207812566
      ],
      [
        "▁жылдары",
        -8.538695387934608
      ],
      [
        "▁зерттеу",
        -8.541445683296645
      ],
      [
        "▁осындай",
        -8.541909531061638
      ],
      [
        "▁тыс",
        -8.542788543940306
      ],
      [
        "▁ойын",
        -8.543643685454892
      ],
      [
        "▁шағын",
        -8.543780318387638
      ],
      [
        "ру",
        -8.54455714686766
      ],
      [
        "▁айтты.",
        -8.54510725303814
      ],
      [
        "лі",
        -8.546601656806699
      ],
      [
        "▁тиіс.",
        -8.548660684333015
      ],
      [
        "▁енді",
        -8.548836383190833
      ],
      [
        "▁тарихи",
        -8.549826499954534
      ],
      [
        "▁алды.",
        -8.550385225131974
      ],
      [
        "▁Жаңалықтар",
        -8.550447148174463
      ],
      [
        "▁жөнінде",
        -8.552004199364735
      ],
      [
        "▁әлем",
        -8.553134571369757
      ],
      [
        "▁менің",
        -8.553594390368897
      ],
      [
        "▁қоғам",
        -8.554280679087388
      ],
      [
        "ні",
        -8.555676058090715
      ],
      [
        "ымыз",
        -8.555860302688231
      ],
      [
        "▁Шығыс",
        -8.556241714171346
      ],
      [
        "▁болатын",
        -8.557301095608965
      ],
      [
        "▁АҚШ",
        -8.55942583717988
      ],
      [
        "ту",
        -8.561511866243109
      ],
      [
        "ген",
        -8.561562349878201
      ],
      [
        "▁миллион",
        -8.567050209119497
      ],
      [
        "▁болған.",
        -8.570181960059621
      ],
      [
        "▁әсер",
        -8.571982691401791
      ],
      [
        "▁жасалған",
        -8.575972092668088
      ],
      [
        "▁2014",
        -8.576277751652135
      ],
      [
        "▁берді.",
        -8.577152685905242
      ],
      [
        "▁аса",
        -8.57875827650712
      ],
      [
        "▁бөлімінің",
        -8.582539333194056
      ],
      [
        "▁кеткен",
        -8.582949652702517
      ],
      [
        "▁болу",
        -8.58399548919268
      ],
      [
        "дік",
        -8.585425683041823
      ],
      [
        "▁Олардың",
        -8.586401491360604
      ],
      [
        "▁қажетті",
        -8.586723209189326
      ],
      [
        "▁қай",
        -8.590298888187291
      ],
      [
        "▁Астанада",
        -8.590675324455749
      ],
      [
        "▁талап",
        -8.5907300983988
      ],
      [
        "▁көрсетілетін",
        -8.592554525906051
      ],
      [
        "▁сай",
        -8.593058291763239
      ],
      [
        "▁көңіл",
        -8.597264820241122
      ],
      [
        "▁келесі",
        -8.60170180980938
      ],
      [
        "▁шыққан",
        -8.602702683307111
      ],
      [
        "▁ма?",
        -8.60416748794582
      ],
      [
        "▁яғни",
        -8.605425198618626
      ],
      [
        "▁0",
        -8.606322299535442
      ],
      [
        "▁құрылыс",
        -8.609778869617475
      ],
      [
        "▁қатысты.",
        -8.612267806507077
      ],
      [
        "▁Қазір",
        -8.613683951750437
      ],
      [
        "ова",
        -8.615768966720482
      ],
      [
        "ынан",
        -8.616306096032186
      ],
      [
        "▁М",
        -8.61636600290202
      ],
      [
        "мыз",
        -8.616705433724686
      ],
      [
        "тегі",
        -8.618140833969846
      ],
      [
        "тағы",
        -8.6186360400329
      ],
      [
        "М",
        -8.61918935136918
      ],
      [
        "▁қызметтер",
        -8.619979422766466
      ],
      [
        "▁қазір",
        -8.620003011544856
      ],
      [
        "▁Негізгі",
        -8.620089250446746
      ],
      [
        "▁шығару",
        -8.621013689557092
      ],
      [
        "▁орталық",
        -8.621145595852724
      ],
      [
        "▁техникалық",
        -8.622729498780256
      ],
      [
        "ар",
        -8.624140098082158
      ],
      [
        "▁бағалау",
        -8.624668012633137
      ],
      [
        "▁ұйымдастыру",
        -8.624841627399768
      ],
      [
        "▁жан",
        -8.627602799516698
      ],
      [
        "▁еліміздің",
        -8.631619190054408
      ],
      [
        "▁бөлімі",
        -8.632424924928161
      ],
      [
        "▁басқармасының",
        -8.634208260036683
      ],
      [
        "сының",
        -8.634604671050557
      ],
      [
        "ен",
        -8.634746357752569
      ],
      [
        "▁саяси",
        -8.635307642033123
      ],
      [
        "▁құру",
        -8.635361515029464
      ],
      [
        "▁министрлігі",
        -8.63673002143172
      ],
      [
        "▁талдау",
        -8.638644043057838
      ],
      [
        "▁өзгерістер",
        -8.640337881736645
      ],
      [
        "▁кез",
        -8.641827611126882
      ],
      [
        "▁жоба",
        -8.64249960534627
      ],
      [
        "▁келіп",
        -8.643832822037886
      ],
      [
        "▁қызметін",
        -8.644370420603426
      ],
      [
        "ше",
        -8.64840942100724
      ],
      [
        "_",
        -8.648440259307968
      ],
      [
        "▁алдында",
        -8.650435435594991
      ],
      [
        "▁А.",
        -8.650629423098522
      ],
      [
        "▁жемқорлыққа",
        -8.651084259141992
      ],
      [
        "▁22",
        -8.658524703786895
      ],
      [
        "▁ән",
        -8.66036234203915
      ],
      [
        "▁бағдарлама",
        -8.660378213178223
      ],
      [
        "▁млн",
        -8.660992571915413
      ],
      [
        "▁денсаулық",
        -8.661137833470864
      ],
      [
        "тардың",
        -8.662319489924187
      ],
      [
        "▁төрағасы",
        -8.662498414022325
      ],
      [
        "▁айында",
        -8.663927832771751
      ],
      [
        "▁берілген",
        -8.664320399719628
      ],
      [
        "▁4.",
        -8.665718368808918
      ],
      [
        "▁әкімдігінің",
        -8.666996075648548
      ],
      [
        "▁әлі",
        -8.668509497159096
      ],
      [
        "▁аталған",
        -8.668532078609816
      ],
      [
        "▁Жамбыл",
        -8.669820068918861
      ],
      [
        "▁О",
        -8.671923645257882
      ],
      [
        "▁жуық",
        -8.6724803330236
      ],
      [
        "▁сыбайлас",
        -8.672909977554308
      ],
      [
        "▁порталы",
        -8.675309716097242
      ],
      [
        "▁аралығында",
        -8.675781571798383
      ],
      [
        "▁Сондай-ақ,",
        -8.677017097961745
      ],
      [
        "▁ж.",
        -8.678402366488697
      ],
      [
        "▁Абай",
        -8.6807976906499
      ],
      [
        "▁сонымен",
        -8.684247022349467
      ],
      [
        "▁кәсіби",
        -8.6853138785101
      ],
      [
        "▁барлығы",
        -8.685409035221445
      ],
      [
        "▁экономика",
        -8.686087484010137
      ],
      [
        "▁21",
        -8.686125218179585
      ],
      [
        "▁жұмыстар",
        -8.6866861235665
      ],
      [
        "▁2013",
        -8.689682479919776
      ],
      [
        "▁салу",
        -8.689876782244134
      ],
      [
        "▁т.б.",
        -8.690220949883877
      ],
      [
        "▁директоры",
        -8.691618480876809
      ],
      [
        "▁23",
        -8.692433700955064
      ],
      [
        "▁Ақмола",
        -8.692826763844685
      ],
      [
        "ме",
        -8.692916376724149
      ],
      [
        "▁ауыр",
        -8.695353225725908
      ],
      [
        "▁жаңалықтары",
        -8.696351335979077
      ],
      [
        "▁Шымкент",
        -8.696781718544315
      ],
      [
        "▁•",
        -8.69681624973692
      ],
      [
        "▁алып,",
        -8.69894175007462
      ],
      [
        "▁бүгін",
        -8.703174560798658
      ],
      [
        "▁әйел",
        -8.705310256557581
      ],
      [
        "▁көлемі",
        -8.706598430176015
      ],
      [
        "▁қолдану",
        -8.710050828376213
      ],
      [
        "▁мәдениет",
        -8.710841552473724
      ],
      [
        "▁бос",
        -8.711505301501013
      ],
      [
        "▁тәрбие",
        -8.713480013933095
      ],
      [
        "Н",
        -8.713662457366286
      ],
      [
        "▁жолы",
        -8.722200370101456
      ],
      [
        "▁табыс",
        -8.722459142068073
      ],
      [
        "▁бола",
        -8.726493689828118
      ],
      [
        "▁етеді.",
        -8.727994583339628
      ],
      [
        "▁қызметкерлері",
        -8.728132584826941
      ],
      [
        "▁халықтың",
        -8.72866367560453
      ],
      [
        "▁Өз",
        -8.729296172305347
      ],
      [
        "▁тілін",
        -8.731162508327966
      ],
      [
        "▁сала",
        -8.732287196935868
      ],
      [
        "▁маңызы",
        -8.738596472340411
      ],
      [
        "▁отбасы",
        -8.73963173329924
      ],
      [
        "А",
        -8.743335110497181
      ],
      [
        "▁күніне",
        -8.743542780639329
      ],
      [
        "▁Енді",
        -8.745594311985492
      ],
      [
        "▁банк",
        -8.745609807071009
      ],
      [
        "▁50",
        -8.746181399209252
      ],
      [
        "▁алатын",
        -8.746656543718519
      ],
      [
        "дардың",
        -8.746972811054665
      ],
      [
        "лау",
        -8.750486887536962
      ],
      [
        "▁орыс",
        -8.750550325511293
      ],
      [
        "▁Айта",
        -8.750644149740166
      ],
      [
        "▁жұмыспен",
        -8.750842921167003
      ],
      [
        "▁Қостанай",
        -8.751623289387737
      ],
      [
        "▁Орталық",
        -8.754063278018513
      ],
      [
        "▁мал",
        -8.758204042383793
      ],
      [
        "”,",
        -8.758626042011512
      ],
      [
        "▁арттыру",
        -8.76083799472653
      ],
      [
        "▁құрамына",
        -8.76147902785591
      ],
      [
        "▁жылдық",
        -8.761687734793409
      ],
      [
        "▁қорытындысы",
        -8.761791819379003
      ],
      [
        "▁Соңғы",
        -8.763541988353836
      ],
      [
        "▁әдебиеті",
        -8.763938268323775
      ],
      [
        "▁тиісті",
        -8.765051607369006
      ],
      [
        "нде",
        -8.765277858927021
      ],
      [
        "▁шығармашылық",
        -8.767445767589503
      ],
      [
        "К",
        -8.767489814408624
      ],
      [
        "▁отырып",
        -8.768231048494961
      ],
      [
        "▁ер",
        -8.770065965333899
      ],
      [
        "▁белсенді",
        -8.773336213628745
      ],
      [
        "▁жасаған",
        -8.773777626267595
      ],
      [
        "Р",
        -8.773823930502989
      ],
      [
        "тары",
        -8.776042685095511
      ],
      [
        "▁Азия",
        -8.779901254755664
      ],
      [
        "▁тілінде",
        -8.779921281952767
      ],
      [
        "▁бизнес",
        -8.781331690280595
      ],
      [
        "▁пікір",
        -8.783004756421894
      ],
      [
        "ь",
        -8.7835957363273
      ],
      [
        "х",
        -8.785484233538474
      ],
      [
        "▁сабақтар",
        -8.786452767860077
      ],
      [
        "▁түскен",
        -8.789183967906641
      ],
      [
        "▁желтоқсан",
        -8.790871895345708
      ],
      [
        "▁қамту",
        -8.791118389042307
      ],
      [
        "2",
        -8.795309163421527
      ],
      [
        "▁мәселе",
        -8.795917819453976
      ],
      [
        "тай",
        -8.79753349866424
      ],
      [
        "▁өкілдері",
        -8.799598646280357
      ],
      [
        "e",
        -8.801140732951325
      ],
      [
        "▁28",
        -8.804072941582115
      ],
      [
        "▁ой",
        -8.805396289344193
      ],
      [
        "▁жобасы",
        -8.808168013652882
      ],
      [
        "▁бетінен",
        -8.808426587040902
      ],
      [
        "(",
        -8.808795783080416
      ],
      [
        "ия",
        -8.811777040252563
      ],
      [
        "▁ұлы",
        -8.813387100329145
      ],
      [
        "▁Қытай",
        -8.814841450070027
      ],
      [
        "ле",
        -8.81514927262959
      ],
      [
        "▁кейбір",
        -8.815994866697368
      ],
      [
        "дей",
        -8.819043046466025
      ],
      [
        "▁сыртқы",
        -8.819306992523975
      ],
      [
        "▁құрылысы",
        -8.820833169361897
      ],
      [
        "тарды",
        -8.821423079903907
      ],
      [
        "▁Stan.kz",
        -8.822066535092024
      ],
      [
        "▁қатты",
        -8.822468791109667
      ],
      [
        "▁жұмысы",
        -8.823083795383903
      ],
      [
        "▁#",
        -8.823240657510791
      ],
      [
        "▁жолдары",
        -8.823241381063866
      ],
      [
        "▁төрт",
        -8.824884511616126
      ],
      [
        "▁министрі",
        -8.825172939977374
      ],
      [
        "сына",
        -8.826185526165348
      ],
      [
        "▁Сіз",
        -8.828023492179618
      ],
      [
        "І",
        -8.828556683827493
      ],
      [
        "м.",
        -8.828607473520245
      ],
      [
        "▁қызметінің",
        -8.82971262306149
      ],
      [
        "Т",
        -8.830676709981452
      ],
      [
        "▁Ортаққорда",
        -8.832565190844395
      ],
      [
        "▁тіркеу",
        -8.834324133574853
      ],
      [
        "ал",
        -8.834639806875593
      ],
      [
        "▁Түркістан",
        -8.834659336128958
      ],
      [
        "іміз",
        -8.834843770238603
      ],
      [
        "▁ата",
        -8.83490453221405
      ],
      [
        "▁ететін",
        -8.837575277729602
      ],
      [
        "▁Президент",
        -8.839853813672423
      ],
      [
        "▁халқының",
        -8.839859093321158
      ],
      [
        "▁тікелей",
        -8.842491859181031
      ],
      [
        "ль",
        -8.842660307537454
      ],
      [
        "▁Қазақстандағы",
        -8.84302469896464
      ],
      [
        "▁мұғалімі",
        -8.84342533773711
      ],
      [
        "▁электрондық",
        -8.84498032238908
      ],
      [
        "▁де,",
        -8.84803486966743
      ],
      [
        "▁қызметті",
        -8.850683811810761
      ],
      [
        "ім",
        -8.85171422259059
      ],
      [
        "▁Алматыда",
        -8.851992634639952
      ],
      [
        "▁ауа",
        -8.853067767093929
      ],
      [
        "▁өтеді.",
        -8.854259930185467
      ],
      [
        "▁мәселелер",
        -8.854757341019255
      ],
      [
        "▁сіз",
        -8.854852008730296
      ],
      [
        "▁құжаттар",
        -8.855266954730737
      ],
      [
        "▁түрі",
        -8.855481610116826
      ],
      [
        "▁орналасқан.",
        -8.856722807417302
      ],
      [
        "▁өңдеу",
        -8.857027323805621
      ],
      [
        "▁тұратын",
        -8.859931339376672
      ],
      [
        "▁кең",
        -8.860741009269862
      ],
      [
        "▁29",
        -8.861021376517161
      ],
      [
        "▁газеті",
        -8.8625198442783
      ],
      [
        "▁Бүгінгі",
        -8.862573695485551
      ],
      [
        "▁Маңғыстау",
        -8.863670463243151
      ],
      [
        "▁тұр.",
        -8.864442882158631
      ],
      [
        "▁түрлері",
        -8.865243155814122
      ],
      [
        "▁дене",
        -8.8655823279793
      ],
      [
        "▁шаралар",
        -8.867066136137371
      ],
      [
        "▁Жұмыс",
        -8.868239785952195
      ],
      [
        "▁қаза",
        -8.868881128842514
      ],
      [
        "ай",
        -8.868941116068836
      ],
      [
        "▁мәдени",
        -8.869468412459772
      ],
      [
        "▁Әр",
        -8.869915307161634
      ],
      [
        "▁жатыр",
        -8.872268789121048
      ],
      [
        "▁педагогикалық",
        -8.872475002720574
      ],
      [
        "▁Алайда",
        -8.874540776904379
      ],
      [
        "▁жақын",
        -8.874837004557277
      ],
      [
        "▁бірқатар",
        -8.875936819619696
      ],
      [
        "▁1)",
        -8.876254192593754
      ],
      [
        "▁қана",
        -8.876393660752903
      ],
      [
        "▁қылмыстық",
        -8.87716651698408
      ],
      [
        "▁2)",
        -8.877968771356018
      ],
      [
        "▁М.",
        -8.878287259575323
      ],
      [
        "▁кетейік",
        -8.880767520082697
      ],
      [
        "▁басшысының",
        -8.882605152555934
      ],
      [
        "1",
        -8.883136166394891
      ],
      [
        "▁мамыр",
        -8.883741217872906
      ],
      [
        "▁Батыс",
        -8.883779507061632
      ],
      [
        "▁С.",
        -8.88596960733322
      ],
      [
        "▁мұндай",
        -8.886465798977325
      ],
      [
        "▁орындау",
        -8.886864615864006
      ],
      [
        "тын",
        -8.886917126441919
      ],
      [
        "▁A",
        -8.887292580328872
      ],
      [
        "ю",
        -8.888565213931646
      ],
      [
        "▁26",
        -8.889724206035336
      ],
      [
        "▁дайындық",
        -8.892498285474097
      ],
      [
        "▁тобы",
        -8.893838673485309
      ],
      [
        "▁Еңбек",
        -8.895590578768765
      ],
      [
        "▁әлемдегі",
        -8.896188109820589
      ],
      [
        "▁27",
        -8.897498612167604
      ],
      [
        "▁жоспар",
        -8.899534215851315
      ],
      [
        "▁тарту",
        -8.899666154426939
      ],
      [
        "ат",
        -8.899857910480854
      ],
      [
        "▁президенті",
        -8.900192814309445
      ],
      [
        "▁адамдардың",
        -8.902121123201399
      ],
      [
        "▁«https://kk.",
        -8.902301341146224
      ],
      [
        "▁төмен",
        -8.903332186184787
      ],
      [
        "▁Ұлы",
        -8.903404261820144
      ],
      [
        "▁үшінші",
        -8.904092558529571
      ],
      [
        "▁шаруашылық",
        -8.905178376719004
      ],
      [
        "▁басым",
        -8.905737028158512
      ],
      [
        "▁бекіту",
        -8.906120045559664
      ],
      [
        "▁тұрады.",
        -8.908194659270386
      ],
      [
        "▁бәрі",
        -8.908457616930505
      ],
      [
        "▁тексеру",
        -8.909008725629205
      ],
      [
        "су",
        -8.909064990203465
      ],
      [
        "▁болады?",
        -8.909354741264714
      ],
      [
        "▁шешім",
        -8.909370784499576
      ],
      [
        "▁табиғи",
        -8.90946019692888
      ],
      [
        "▁қазан",
        -8.909569498523995
      ],
      [
        "ба",
        -8.910312902856036
      ],
      [
        "▁қаласындағы",
        -8.911550179210717
      ],
      [
        "▁бұған",
        -8.911773878595426
      ],
      [
        "wikipedia.org/w",
        -8.911783686867796
      ],
      [
        "▁Солтүстік",
        -8.912255717256421
      ],
      [
        "▁Ал,",
        -8.912766750075523
      ],
      [
        "▁Басқа",
        -8.913233518220444
      ],
      [
        "▁саласында",
        -8.913240735898363
      ],
      [
        "ларын",
        -8.913583358376712
      ],
      [
        "▁бүкіл",
        -8.91432734112265
      ],
      [
        "▁би",
        -8.914856898923752
      ],
      [
        "▁адамды",
        -8.915995819754173
      ],
      [
        "▁он",
        -8.91742511000016
      ],
      [
        "▁діни",
        -8.918998463175921
      ],
      [
        "▁оқушы",
        -8.919046672383578
      ],
      [
        "ре",
        -8.919810459590394
      ],
      [
        "се",
        -8.920342765053416
      ],
      [
        "▁сұрақ",
        -8.922315091308871
      ],
      [
        "▁өтетін",
        -8.922813942973988
      ],
      [
        "3",
        -8.923293803064052
      ],
      [
        "ді.",
        -8.923902435247562
      ],
      [
        "▁рұқсат",
        -8.926202451884961
      ],
      [
        "▁сұрақтар",
        -8.929044663180877
      ],
      [
        "▁Жер",
        -8.932827354002722
      ],
      [
        "сін",
        -8.9339726993102
      ],
      [
        "ф",
        -8.934016790707108
      ],
      [
        "▁күндері",
        -8.934161803704074
      ],
      [
        "сында",
        -8.934376845717356
      ],
      [
        "▁бағдарламалар",
        -8.93451903104495
      ],
      [
        "▁Президентінің",
        -8.934548696524768
      ],
      [
        "▁жұмыстарын",
        -8.93463226412829
      ],
      [
        "▁ұзақ",
        -8.935916083932327
      ],
      [
        "▁онлайн",
        -8.93861816617925
      ],
      [
        "то",
        -8.94241484284409
      ],
      [
        "▁келді.",
        -8.942671573800272
      ],
      [
        "▁халқы",
        -8.945905857046021
      ],
      [
        "▁Ең",
        -8.946052852981648
      ],
      [
        "▁құқығы",
        -8.946304122849083
      ],
      [
        "▁наурыз",
        -8.94838890932374
      ],
      [
        "▁несие",
        -8.948471328270516
      ],
      [
        "▁орталығының",
        -8.950554360616694
      ],
      [
        "▁етіп",
        -8.950600393918087
      ],
      [
        "▁сөздер",
        -8.95129552844243
      ],
      [
        "▁министрлігінің",
        -8.952441993371583
      ],
      [
        "▁ағылшын",
        -8.953271839498202
      ],
      [
        "▁баға",
        -8.953381074462383
      ],
      [
        "Осыған",
        -8.954051658857512
      ],
      [
        "атын",
        -8.955228679068817
      ],
      [
        "▁аумағы",
        -8.955864065775025
      ],
      [
        "▁Құрметті",
        -8.956160044745447
      ],
      [
        "▁Ана",
        -8.961279661767975
      ],
      [
        "▁айта",
        -8.961434561443188
      ],
      [
        "▁S",
        -8.961676611248578
      ],
      [
        "ман",
        -8.96316325659678
      ],
      [
        "▁зор",
        -8.965552663145676
      ],
      [
        "дары",
        -8.96683043946163
      ],
      [
        "▁--",
        -8.967441905287902
      ],
      [
        "▁атқарушы",
        -8.967688957487372
      ],
      [
        "▁тақырыбы:",
        -8.968250077936723
      ],
      [
        "\",",
        -8.968528109378514
      ],
      [
        "▁Адам",
        -8.968544260843942
      ],
      [
        "▁баланың",
        -8.968545446623647
      ],
      [
        "▁қарасты",
        -8.97042927441954
      ],
      [
        "тері",
        -8.971444691533929
      ],
      [
        "▁видео",
        -8.971580504607623
      ],
      [
        "▁П",
        -8.9724531210638
      ],
      [
        "▁мәселесі",
        -8.972603300909277
      ],
      [
        "▁Тәрбие",
        -8.97281162718275
      ],
      [
        "ли",
        -8.97496871432655
      ],
      [
        "▁елді",
        -8.975697554159531
      ],
      [
        "▁оқушылардың",
        -8.97584141759539
      ],
      [
        "▁әлемдік",
        -8.976397734063125
      ],
      [
        "4",
        -8.97748984895321
      ],
      [
        "▁қоры",
        -8.977840556227147
      ],
      [
        "▁соның",
        -8.981035056066696
      ],
      [
        "▁Мектеп",
        -8.982903088307985
      ],
      [
        "▁азаматтық",
        -8.983249364266522
      ],
      [
        "▁мына",
        -8.98333348598061
      ],
      [
        "▁бағытталған",
        -8.983963908814973
      ],
      [
        "▁Ауыл",
        -8.984117098775652
      ],
      [
        "міз",
        -8.984138769841733
      ],
      [
        "хан",
        -8.98426314894436
      ],
      [
        "▁Д",
        -8.985063458965275
      ],
      [
        "тердің",
        -8.98557329199426
      ],
      [
        "▁млн.",
        -8.985593051295119
      ],
      [
        "▁ЖШС",
        -8.986446812935547
      ],
      [
        "▁жүйесін",
        -8.986796093597526
      ],
      [
        "▁40",
        -8.987433766918649
      ],
      [
        "▁млрд",
        -8.988087797296064
      ],
      [
        "▁жиі",
        -8.988101775794778
      ],
      [
        "▁бар,",
        -8.988411010283347
      ],
      [
        "▁бөлігі",
        -8.99024493201193
      ],
      [
        "▁қауіпсіздік",
        -8.991818487676927
      ],
      [
        "▁алды",
        -8.992985738003323
      ],
      [
        "▁саясат",
        -8.993087570940347
      ],
      [
        "t",
        -8.993688126547326
      ],
      [
        "▁жазу",
        -8.993703442544982
      ],
      [
        "▁полиция",
        -8.995450178231227
      ],
      [
        "ри",
        -8.996116305962055
      ],
      [
        "▁5.",
        -8.997246218457825
      ],
      [
        "▁жұмысын",
        -8.99747925089439
      ],
      [
        "ти",
        -8.997705174788088
      ],
      [
        "ин",
        -8.99827169096768
      ],
      [
        "▁оң",
        -9.00057003377062
      ],
      [
        "▁Назарбаевтың",
        -9.000581640989347
      ],
      [
        "▁с",
        -9.00064054179662
      ],
      [
        "▁Оған",
        -9.001417162415335
      ],
      [
        "ды,",
        -9.002361355869649
      ],
      [
        "▁пайдалануға",
        -9.004994458287062
      ],
      [
        "▁жедел",
        -9.00543962350256
      ],
      [
        "▁өзіне",
        -9.00639279983837
      ],
      [
        "▁облысы,",
        -9.007457473809271
      ],
      [
        "▁Бала",
        -9.00765006213007
      ],
      [
        "▁дейді.",
        -9.007912245404796
      ],
      [
        "▁Республикалық",
        -9.00819733846793
      ],
      [
        "лері",
        -9.009411091713497
      ],
      [
        "▁000",
        -9.009645086893798
      ],
      [
        "▁дүниеге",
        -9.010190314004674
      ],
      [
        "▁тез",
        -9.012012582015153
      ],
      [
        "▁адамға",
        -9.014778012151979
      ],
      [
        "▁Тәуелсіздік",
        -9.016040422026709
      ],
      [
        "–",
        -9.017465283860748
      ],
      [
        "▁Сайт",
        -9.01763147765858
      ],
      [
        "▁ауданы,",
        -9.018560821848395
      ],
      [
        "Б",
        -9.018814997537337
      ],
      [
        "▁университеті",
        -9.018953716179
      ],
      [
        "▁тиіс",
        -9.021295849118385
      ],
      [
        "▁қалыптастыру",
        -9.02133806421191
      ],
      [
        "▁Менің",
        -9.021537932054033
      ],
      [
        "терді",
        -9.023695775121778
      ],
      [
        "-ақ",
        -9.02418414964596
      ],
      [
        "▁жай",
        -9.024736269940515
      ],
      [
        "▁жерге",
        -9.024753566233295
      ],
      [
        "ор",
        -9.025185445475152
      ],
      [
        "▁анықтау",
        -9.02600463563577
      ],
      [
        "ә",
        -9.02632482075846
      ],
      [
        "▁зейнетақы",
        -9.026601482355648
      ],
      [
        "▁кітап",
        -9.026662326275703
      ],
      [
        "▁жасап",
        -9.030004296035179
      ],
      [
        "▁Ел",
        -9.030247638287946
      ],
      [
        "▁кездесу",
        -9.031277214110471
      ],
      [
        "лердің",
        -9.03166298652
      ],
      [
        "▁маусым",
        -9.033756247525142
      ],
      [
        "▁электр",
        -9.033945964836295
      ],
      [
        "▁31",
        -9.033978974016776
      ],
      [
        "▁жарық",
        -9.034185089729935
      ],
      [
        "▁Үй",
        -9.034357843449763
      ],
      [
        "ди",
        -9.035030834734833
      ],
      [
        "▁қаласы,",
        -9.035541555829193
      ],
      [
        "У",
        -9.035547061211908
      ],
      [
        "▁тұр",
        -9.036306108939735
      ],
      [
        "▁коммуналдық",
        -9.036422218831644
      ],
      [
        "▁ақпан",
        -9.036673173770318
      ],
      [
        "▁Жеке",
        -9.037736050418395
      ],
      [
        "▁оқушылар",
        -9.038782205139318
      ],
      [
        "▁жұмысқа",
        -9.040225161169008
      ],
      [
        "інен",
        -9.040245981585091
      ],
      [
        "▁мемлекеттiк",
        -9.04114925020224
      ],
      [
        "▁кім",
        -9.041409016059387
      ],
      [
        "▁Ақ",
        -9.044676987723685
      ],
      [
        "▁келетін",
        -9.04491456685214
      ],
      [
        "▁жағынан",
        -9.04637104824887
      ],
      [
        "▁болып,",
        -9.046403242497902
      ],
      [
        "▁оқиға",
        -9.046803285882397
      ],
      [
        "▁шын",
        -9.047131799776725
      ],
      [
        "▁Екі",
        -9.047630973144932
      ],
      [
        "▁тұлға",
        -9.047972277754036
      ],
      [
        "▁ауданында",
        -9.048003289256776
      ],
      [
        "ұ",
        -9.048259598037557
      ],
      [
        "▁Тек",
        -9.048429319553861
      ],
      [
        "▁дайын",
        -9.049046441706718
      ],
      [
        "па",
        -9.049233575692885
      ],
      [
        "тау",
        -9.050378392178711
      ],
      [
        "▁И",
        -9.050587522538939
      ],
      [
        "▁Денсаулық",
        -9.05125588113924
      ],
      [
        "▁өтіп",
        -9.051507193888966
      ],
      [
        "▁танымал",
        -9.05360308669692
      ],
      [
        "▁бұрынғы",
        -9.05361599564998
      ],
      [
        "▁назар",
        -9.056784939763121
      ],
      [
        "Ы",
        -9.059282136118371
      ],
      [
        "▁мүмкіндігі",
        -9.059579841219481
      ],
      [
        "▁жобалар",
        -9.060235682286873
      ],
      [
        "▁алғаш",
        -9.060384594956997
      ],
      [
        "▁пәні",
        -9.0631976306481
      ],
      [
        "▁келісім",
        -9.063778355822041
      ],
      [
        "▁балаларға",
        -9.064945208548457
      ],
      [
        "▁күрес",
        -9.066266662127937
      ],
      [
        "▁Ш",
        -9.06805257193902
      ],
      [
        "▁тіпті",
        -9.069394076813312
      ],
      [
        "▁көрсетілген",
        -9.069667518379848
      ],
      [
        "▁нәтижесінде",
        -9.06967412974836
      ],
      [
        "▁артық",
        -9.070547128464657
      ],
      [
        "▁ғой.",
        -9.071324589207041
      ],
      [
        "▁күнге",
        -9.07179261460903
      ],
      [
        "▁тең",
        -9.074334203721335
      ],
      [
        "▁маған",
        -9.074483917291609
      ],
      [
        "▁Қ",
        -9.074588723499375
      ],
      [
        "▁мұнай",
        -9.074739027008633
      ],
      [
        "▁білу",
        -9.074820406719864
      ],
      [
        "мын.",
        -9.075290403929971
      ],
      [
        "▁Наурыз",
        -9.076785650874285
      ],
      [
        "▁жағдайы",
        -9.07750430950151
      ],
      [
        "▁мерзімді",
        -9.078394956157457
      ],
      [
        "▁қатысу",
        -9.07854277544663
      ],
      [
        "ой",
        -9.080264667247159
      ],
      [
        "▁сапасын",
        -9.080336792472135
      ],
      [
        "▁ісі",
        -9.080488559111906
      ],
      [
        "▁Қара",
        -9.080883640635466
      ],
      [
        "▁БАҚ",
        -9.08103743734274
      ],
      [
        "Д",
        -9.081617506276501
      ],
      [
        "▁Балалар",
        -9.081691018717326
      ],
      [
        "▁ұстаздар",
        -9.082122172506098
      ],
      [
        "5",
        -9.084148224843094
      ],
      [
        "▁ортақ",
        -9.084635537266745
      ],
      [
        "▁тарапынан",
        -9.085851941527533
      ],
      [
        "▁қараша",
        -9.086424813815208
      ],
      [
        "▁бағасы",
        -9.087340219683501
      ],
      [
        "қан",
        -9.088850985098798
      ],
      [
        "▁іс-қимыл",
        -9.088997978650108
      ],
      [
        "аралық",
        -9.089008207553846
      ],
      [
        "▁азамат",
        -9.092518346250024
      ],
      [
        "▁алдағы",
        -9.09267848817269
      ],
      [
        "a",
        -9.092788928673075
      ],
      [
        "▁тест",
        -9.094681537921455
      ],
      [
        "▁шетелдік",
        -9.09605936900648
      ],
      [
        "▁оларға",
        -9.096568463602306
      ],
      [
        "▁еткен",
        -9.096706361060066
      ],
      [
        "▁қою",
        -9.0974219682474
      ],
      [
        "▁б.",
        -9.09833685625937
      ],
      [
        "▁қыркүйек",
        -9.098387867471853
      ],
      [
        "▁алтын",
        -9.098934473277264
      ],
      [
        "▁2012",
        -9.099077263908702
      ],
      [
        "▁қызметіне",
        -9.099273759166504
      ],
      [
        "▁қанша",
        -9.100315448045112
      ],
      [
        "▁Мәдениет",
        -9.101957953987895
      ],
      [
        "ымды",
        -9.103209840236584
      ],
      [
        "▁шешу",
        -9.10326324691674
      ],
      [
        "▁құны",
        -9.10414543046458
      ],
      [
        "▁қолға",
        -9.10450174834835
      ],
      [
        "ық",
        -9.105090481063499
      ],
      [
        "▁күрделі",
        -9.105884210753874
      ],
      [
        "▁округі",
        -9.105946648163172
      ],
      [
        "▁әйелдер",
        -9.106187624722061
      ],
      [
        "▁кейінгі",
        -9.106556538069924
      ],
      [
        "ымен",
        -9.106655784946039
      ],
      [
        "▁халыққа",
        -9.107018352740248
      ],
      [
        "▁сен",
        -9.108438576287693
      ],
      [
        "▁та",
        -9.108730607730827
      ],
      [
        "▁өнім",
        -9.108872670451353
      ],
      [
        "ей",
        -9.109055273757768
      ],
      [
        "▁ақпаратты",
        -9.109649358022239
      ],
      [
        "▁қоса",
        -9.110504733611053
      ],
      [
        "▁І",
        -9.111369310285568
      ],
      [
        "іп",
        -9.111465650497472
      ],
      [
        "▁мәлімет",
        -9.111914998453091
      ],
      [
        "▁жылдарға",
        -9.112596463706758
      ],
      [
        "▁ММ",
        -9.113435535810098
      ],
      [
        "▁Әлеуметтік",
        -9.11455079146901
      ],
      [
        "▁Оны",
        -9.115291302476333
      ],
      [
        "▁дамуына",
        -9.11561380204067
      ],
      [
        "▁таза",
        -9.116316263594378
      ],
      [
        "▁жасқа",
        -9.116717051293513
      ],
      [
        "▁Сондай-ақ",
        -9.117882000840783
      ],
      [
        "▁Келесі",
        -9.118490071813628
      ],
      [
        "▁әртүрлі",
        -9.120788281605627
      ],
      [
        "▁балалардың",
        -9.121271818344399
      ],
      [
        "y",
        -9.122187846853828
      ],
      [
        "▁бөлім",
        -9.122533980208988
      ],
      [
        "▁ықпал",
        -9.12293995794029
      ],
      [
        "▁У",
        -9.123589532023523
      ],
      [
        "лу",
        -9.123599377551546
      ],
      [
        "▁Жас",
        -9.124880041258596
      ],
      [
        "жан",
        -9.126565014344823
      ],
      [
        "ет",
        -9.126700182768218
      ],
      [
        "-экономикалық",
        -9.126875977166522
      ],
      [
        "▁ынтымақтастық",
        -9.12712372625538
      ],
      [
        "▁хат",
        -9.12719163450327
      ],
      [
        "ың",
        -9.127462243550124
      ],
      [
        "▁порно",
        -9.128503041308651
      ],
      [
        "ев",
        -9.129747675998498
      ],
      [
        "▁орнына",
        -9.132827853242887
      ],
      [
        "▁егер",
        -9.133025137555201
      ],
      [
        "▁Ай",
        -9.13494461887066
      ],
      [
        "▁тамыз",
        -9.135482896494771
      ],
      [
        "▁газ",
        -9.135954292836495
      ],
      [
        "▁қиын",
        -9.136594795238082
      ],
      [
        "▁шара",
        -9.136599983962272
      ],
      [
        "▁Сабақ",
        -9.13676322612628
      ],
      [
        "Л",
        -9.138984545617161
      ],
      [
        "▁электронды",
        -9.138996950480426
      ],
      [
        "▁Б.",
        -9.139059872262713
      ],
      [
        "▁Қайрат",
        -9.13970504158235
      ],
      [
        "▁дегеніміз",
        -9.139796117712532
      ],
      [
        "▁Отан",
        -9.139835917741642
      ],
      [
        "▁өту",
        -9.141585395556596
      ],
      [
        "▁істеу",
        -9.1421573383189
      ],
      [
        "▁жүріп",
        -9.142786461910898
      ],
      [
        "▁терең",
        -9.143793579454144
      ],
      [
        "▁сәуір",
        -9.143953204173883
      ],
      [
        "▁қосу",
        -9.14411327830393
      ],
      [
        "▁жазылған",
        -9.145873474187368
      ],
      [
        "▁Жоба",
        -9.146633900499971
      ],
      [
        "▁Жыл",
        -9.146930215994793
      ],
      [
        "▁әрекет",
        -9.147236810008799
      ],
      [
        "▁істері",
        -9.148830088486882
      ],
      [
        "▁жағдайлар",
        -9.150484479234468
      ],
      [
        "он",
        -9.150595722021185
      ],
      [
        "]",
        -9.151615983283433
      ],
      [
        "▁биыл",
        -9.152345838389259
      ],
      [
        "▁аумағында",
        -9.153254886714464
      ],
      [
        "в",
        -9.153340011099203
      ],
      [
        "▁жасауға",
        -9.155546831620427
      ],
      [
        "▁мәліметтер",
        -9.15649727104227
      ],
      [
        "▁тарих",
        -9.156769005688279
      ],
      [
        "▁пайызға",
        -9.156792453251233
      ],
      [
        "▁түсті",
        -9.157633022407246
      ],
      [
        "▁сайт",
        -9.15847454127728
      ],
      [
        "▁ат",
        -9.158899582914009
      ],
      [
        "▁етті.",
        -9.158972023620366
      ],
      [
        "c",
        -9.15921743546534
      ],
      [
        "▁Мысалы,",
        -9.16022301151994
      ],
      [
        "▁белгіленген",
        -9.160373891731414
      ],
      [
        "шылар",
        -9.160416023829391
      ],
      [
        "▁3)",
        -9.161669295621143
      ],
      [
        "▁жылда",
        -9.16223847010587
      ],
      [
        "▁жатады.",
        -9.163309715696101
      ],
      [
        "▁өзін",
        -9.16500631149855
      ],
      [
        "▁технологиялар",
        -9.16504598410362
      ],
      [
        "▁Халық",
        -9.16663788172723
      ],
      [
        "▁өтініш",
        -9.167873310520104
      ],
      [
        "▁демалыс",
        -9.168385673978392
      ],
      [
        "▁ашу",
        -9.168703080603182
      ],
      [
        "▁беріледі.",
        -9.168806569925518
      ],
      [
        "▁Мұндай",
        -9.169411831763789
      ],
      [
        "▁қаңтар",
        -9.169562059753982
      ],
      [
        "▁медиа",
        -9.169997131653584
      ],
      [
        "▁іс-шаралар",
        -9.17055937966289
      ],
      [
        "▁бастады.",
        -9.170702635572011
      ],
      [
        "▁жөндеу",
        -9.1717193091879
      ],
      [
        "▁деңгейде",
        -9.172777071102082
      ],
      [
        "▁еске",
        -9.17283074619374
      ],
      [
        "▁кетті.",
        -9.176467464784178
      ],
      [
        "ыңыз",
        -9.17791379878706
      ],
      [
        "ындағы",
        -9.17863258888945
      ],
      [
        "▁Олимпиада",
        -9.17933915696346
      ],
      [
        "▁әкімдігі",
        -9.180527068734182
      ],
      [
        "▁аға",
        -9.181269462842671
      ],
      [
        "▁тақырыбында",
        -9.181812633255607
      ],
      [
        "ы,",
        -9.181814567959137
      ],
      [
        "ларға",
        -9.183067724219262
      ],
      [
        "▁сайлау",
        -9.18488391171348
      ],
      [
        "▁Кеңес",
        -9.185381939327232
      ],
      [
        "▁шықты.",
        -9.18664031161342
      ],
      [
        "▁әңгіме",
        -9.186993680722898
      ],
      [
        "▁көрген",
        -9.187261588826615
      ],
      [
        "▁теңгеге",
        -9.189809187571417
      ],
      [
        "▁Қала",
        -9.1904953752197
      ],
      [
        "▁комитетінің",
        -9.190502595915053
      ],
      [
        "!»",
        -9.190731239287658
      ],
      [
        "▁болады,",
        -9.192964702768013
      ],
      [
        "▁тонна",
        -9.195534117002087
      ],
      [
        "▁Қазақстандық",
        -9.195707345851321
      ],
      [
        "▁шеңберінде",
        -9.196093230342711
      ],
      [
        "10",
        -9.196288438331262
      ],
      [
        "▁кеңесінің",
        -9.196708446632545
      ],
      [
        "▁екен",
        -9.197129699773178
      ],
      [
        "▁дамуы",
        -9.198489837244681
      ],
      [
        "▁шілде",
        -9.198723958639036
      ],
      [
        "▁дамытуға",
        -9.199358204359166
      ],
      [
        "▁берді",
        -9.200720649186955
      ],
      [
        "▁жеті",
        -9.201058327355764
      ],
      [
        "▁телефон",
        -9.20216594613337
      ],
      [
        "▁бюджет",
        -9.202943657644152
      ],
      [
        "ө",
        -9.203560454495324
      ],
      [
        "Бұдан",
        -9.203944424690121
      ],
      [
        "▁дәл",
        -9.205150881219463
      ],
      [
        "▁2011",
        -9.205329189465928
      ],
      [
        "▁тәртібі",
        -9.206588219653106
      ],
      [
        "▁бізге",
        -9.207366363802016
      ],
      [
        "▁В",
        -9.207778814900363
      ],
      [
        "▁сақтандыру",
        -9.208278265118459
      ],
      [
        "▁тұрғындары",
        -9.20848569725163
      ],
      [
        "▁неге",
        -9.208529753627989
      ],
      [
        "би",
        -9.208971400502492
      ],
      [
        "▁Франция",
        -9.209170791669532
      ],
      [
        "▁беруге",
        -9.209988993666396
      ],
      [
        "▁соңында",
        -9.210013866887435
      ],
      [
        "▁2010",
        -9.210186935825925
      ],
      [
        "▁ас",
        -9.213120132159002
      ],
      [
        "қызы",
        -9.213539599416286
      ],
      [
        "▁кәсіпкерлік",
        -9.213975467789066
      ],
      [
        "▁қойған",
        -9.215532277106217
      ],
      [
        "▁шынықтыру",
        -9.215769180229623
      ],
      [
        "▁себебі",
        -9.216022682840263
      ],
      [
        "▁мемлекеттің",
        -9.217371808523362
      ],
      [
        "▁аты",
        -9.217729057462718
      ],
      [
        "▁қан",
        -9.217849015836777
      ],
      [
        "▁жүктеу",
        -9.21836514319321
      ],
      [
        "▁бірдей",
        -9.21963620023282
      ],
      [
        "▁Арнайы",
        -9.22014600661922
      ],
      [
        "▁Сен",
        -9.220579443447056
      ],
      [
        "▁халқына",
        -9.220838599354025
      ],
      [
        "▁ұлт",
        -9.220972649005109
      ],
      [
        "▁дайындау",
        -9.22325575943455
      ],
      [
        "▁ба?",
        -9.224600866233564
      ],
      [
        "▁сапалы",
        -9.224714812215012
      ],
      [
        "▁Су",
        -9.224751438770717
      ],
      [
        "▁Қазақша",
        -9.224888288488
      ],
      [
        "▁©",
        -9.225666985883969
      ],
      [
        "▁қадам",
        -9.22578886765866
      ],
      [
        "▁реттеу",
        -9.22609809869925
      ],
      [
        "▁арқасында",
        -9.226130218741517
      ],
      [
        "▁жетілдіру",
        -9.226184868971217
      ],
      [
        "▁университетінің",
        -9.226737810116685
      ],
      [
        "▁Аталған",
        -9.226809031967685
      ],
      [
        "▁бекітілген",
        -9.22707746341776
      ],
      [
        "▁не?",
        -9.227296731965701
      ],
      [
        "▁Е",
        -9.227698965046756
      ],
      [
        "гер",
        -9.227741503130353
      ],
      [
        "▁пайдалы",
        -9.229103902167504
      ],
      [
        "▁Оқу",
        -9.230669629697225
      ],
      [
        "▁Алғашқы",
        -9.230801807082736
      ],
      [
        "▁Қоғамдық",
        -9.231289032103223
      ],
      [
        "ты.",
        -9.231291631150421
      ],
      [
        "▁өрт",
        -9.231298265603279
      ],
      [
        "▁мақала",
        -9.231416873260965
      ],
      [
        "▁мақсаты:",
        -9.232121448027177
      ],
      [
        "▁айтқан",
        -9.23298939565709
      ],
      [
        "▁есе",
        -9.2331085538161
      ],
      [
        "▁өткізілді.",
        -9.23452396813882
      ],
      [
        "▁қысқа",
        -9.235223880162025
      ],
      [
        "▁Алла",
        -9.23556857736239
      ],
      [
        "▁экологиялық",
        -9.235751102403711
      ],
      [
        "індегі",
        -9.236975354217147
      ],
      [
        "▁тұлғалар",
        -9.237295947315372
      ],
      [
        "▁60",
        -9.241081895037901
      ],
      [
        "▁Еуропа",
        -9.241436848888743
      ],
      [
        ");",
        -9.241933908074795
      ],
      [
        "▁алмай",
        -9.241980622873402
      ],
      [
        "▁жеткізу",
        -9.242396761740531
      ],
      [
        "▁бой",
        -9.243198752632097
      ],
      [
        "кі",
        -9.243251883782266
      ],
      [
        "▁құжат",
        -9.243914960598422
      ],
      [
        "[...]",
        -9.244294374232908
      ],
      [
        "▁сан",
        -9.244593844157087
      ],
      [
        "▁қарау",
        -9.244769950045578
      ],
      [
        "▁басып",
        -9.246105045345585
      ],
      [
        "тарын",
        -9.246139974473294
      ],
      [
        "ңыз",
        -9.246359205346735
      ],
      [
        "▁жемқорлық",
        -9.246614830889083
      ],
      [
        "▁Бірінші",
        -9.246753632373842
      ],
      [
        "▁мынадай",
        -9.248088600377468
      ],
      [
        "▁керек,",
        -9.248795251289668
      ],
      [
        "▁алады",
        -9.24971602060992
      ],
      [
        "▁Өткен",
        -9.25020977371893
      ],
      [
        "▁комитеті",
        -9.250237319933367
      ],
      [
        "си",
        -9.251236597220874
      ],
      [
        "▁жауапты",
        -9.251572556436116
      ],
      [
        "▁жылдар",
        -9.252429479520117
      ],
      [
        "k",
        -9.253427043365466
      ],
      [
        "талмыш",
        -9.25403546522172
      ],
      [
        "▁қаржылық",
        -9.25444545355446
      ],
      [
        "▁деңгейін",
        -9.254465619614143
      ],
      [
        "▁жеңіл",
        -9.25633547372423
      ],
      [
        "▁айтады.",
        -9.256406663296254
      ],
      [
        "▁кем",
        -9.256511797713085
      ],
      [
        "▁Үкімет",
        -9.256574251091024
      ],
      [
        "п,",
        -9.259286747993464
      ],
      [
        "▁Не",
        -9.259661589680597
      ],
      [
        "▁Жоғары",
        -9.262216448698684
      ],
      [
        "▁мерзімі",
        -9.26358786741271
      ],
      [
        "дi",
        -9.263755842775534
      ],
      [
        "▁жаңғыру",
        -9.264222798513721
      ],
      [
        "▁и",
        -9.265299947995665
      ],
      [
        "▁Н.",
        -9.265547090888436
      ],
      [
        "▁отырысы",
        -9.266076128733523
      ],
      [
        "▁дүние",
        -9.266202091967951
      ],
      [
        "▁шығып",
        -9.266840765840747
      ],
      [
        "▁жылдығына",
        -9.26726832247949
      ],
      [
        "/index.",
        -9.267730569742788
      ],
      [
        "▁70",
        -9.268421845993005
      ],
      [
        "▁Бұған",
        -9.268859853686335
      ],
      [
        "са,",
        -9.268881935643954
      ],
      [
        "▁таңдау",
        -9.269508047915867
      ],
      [
        "мыз.",
        -9.26992175453425
      ],
      [
        "▁жету",
        -9.270205429359175
      ],
      [
        "бен",
        -9.270416418183332
      ],
      [
        "▁оқып",
        -9.270810687567964
      ],
      [
        "ст",
        -9.270882680102927
      ],
      [
        "▁жүйе",
        -9.271004725832062
      ],
      [
        "▁қазақтың",
        -9.271065535736932
      ],
      [
        "қайтыс",
        -9.271116497951581
      ],
      [
        "▁ҚазАқпарат",
        -9.272826237140851
      ],
      [
        "▁сурет",
        -9.273172886568297
      ],
      [
        "▁ойлау",
        -9.274484434978051
      ],
      [
        "▁күш",
        -9.27454618464014
      ],
      [
        "ғ",
        -9.274768058772128
      ],
      [
        "▁жігіт",
        -9.2752507617577
      ],
      [
        "▁жүйесінің",
        -9.276528721655783
      ],
      [
        "▁көшесі",
        -9.278700619709195
      ],
      [
        "▁санаты",
        -9.278964618109782
      ],
      [
        "▁батыр",
        -9.28032628147124
      ],
      [
        "▁мектебі",
        -9.28050908765599
      ],
      [
        "▁Ішкі",
        -9.28218756817827
      ],
      [
        "▁өзін-өзі",
        -9.28347352272801
      ],
      [
        "▁Ислам",
        -9.283675033964622
      ],
      [
        "▁көрсетеді.",
        -9.284476368947837
      ],
      [
        "▁қызықты",
        -9.28469197922011
      ],
      [
        "▁өлең",
        -9.28547409738961
      ],
      [
        "дердің",
        -9.286920275433861
      ],
      [
        "▁ма",
        -9.287368976626073
      ],
      [
        "П",
        -9.290502774744283
      ],
      [
        "▁қарым-қатынас",
        -9.291326425220234
      ],
      [
        "лап",
        -9.291825413546487
      ],
      [
        "▁мүшесі",
        -9.292419823435715
      ],
      [
        "▁бере",
        -9.292887462393711
      ],
      [
        "▁мүлік",
        -9.293002885811177
      ],
      [
        "▁тәжірибе",
        -9.293007409756285
      ],
      [
        "▁жарияланған",
        -9.29317649232414
      ],
      [
        "▁мыңнан",
        -9.29352131395737
      ],
      [
        "▁қар",
        -9.29400631582594
      ],
      [
        "▁«Қазақ",
        -9.294090736817122
      ],
      [
        "▁Биыл",
        -9.294143199268092
      ],
      [
        "▁қалды.",
        -9.294411690034558
      ],
      [
        "▁бара",
        -9.294426490173286
      ],
      [
        "ая",
        -9.29497104522845
      ],
      [
        "▁мәні",
        -9.295213275214143
      ],
      [
        "▁хатшысы",
        -9.295652807543902
      ],
      [
        "▁деңгейі",
        -9.29604096040011
      ],
      [
        "ол",
        -9.296112066736079
      ],
      [
        "▁университет",
        -9.29655310105608
      ],
      [
        "▁өзіндік",
        -9.29669484921726
      ],
      [
        "▁медицина",
        -9.297950208242261
      ],
      [
        "▁қор",
        -9.298468025407328
      ],
      [
        "▁маман",
        -9.298995488051848
      ],
      [
        "▁жоқ,",
        -9.299742234954799
      ],
      [
        "▁атауы",
        -9.299885461682102
      ],
      [
        "▁отыр",
        -9.300745378676732
      ],
      [
        "▁департаменті",
        -9.300930942884422
      ],
      [
        "▁No1",
        -9.301428780157401
      ],
      [
        "▁қарапайым",
        -9.301556540691717
      ],
      [
        "лан",
        -9.30184704527264
      ],
      [
        "▁//",
        -9.301908374639648
      ],
      [
        "▁көшесі,",
        -9.301983486493308
      ],
      [
        "▁бар:",
        -9.30211050950296
      ],
      [
        "▁секілді",
        -9.30244302885829
      ],
      [
        "▁Х",
        -9.302480938795451
      ],
      [
        "▁метр",
        -9.303784733736347
      ],
      [
        "▁дауыс",
        -9.303826806557101
      ],
      [
        "▁тыйым",
        -9.304841786742845
      ],
      [
        "▁мұғалім",
        -9.30547935780638
      ],
      [
        "іңіз",
        -9.305736557004833
      ],
      [
        "▁қарап",
        -9.307738388732005
      ],
      [
        "▁өзекті",
        -9.308022221439996
      ],
      [
        "▁тергеу",
        -9.308182923857668
      ],
      [
        "баева",
        -9.309713943323372
      ],
      [
        "▁Ер",
        -9.310118028561455
      ],
      [
        "▁қоршаған",
        -9.310133775400143
      ],
      [
        "▁Қ.",
        -9.310478151479028
      ],
      [
        "▁комиссия",
        -9.312740230801008
      ],
      [
        "▁доллар",
        -9.313019638035279
      ],
      [
        "▁бөлу",
        -9.313340187828006
      ],
      [
        "▁Әлем",
        -9.314061569419538
      ],
      [
        "▁қорытынды",
        -9.314343595090659
      ],
      [
        "▁ақын",
        -9.317334146814153
      ],
      [
        "лығы",
        -9.318153349927076
      ],
      [
        "ни",
        -9.318235138857915
      ],
      [
        "▁жанындағы",
        -9.31859160007134
      ],
      [
        "▁мақалалар",
        -9.319262681686531
      ],
      [
        "▁еркін",
        -9.320825264510987
      ],
      [
        "▁келіп,",
        -9.320984538284431
      ],
      [
        "▁Облыс",
        -9.321042554901204
      ],
      [
        "ің",
        -9.321210716974708
      ],
      [
        "▁Р",
        -9.321829381512092
      ],
      [
        "-19",
        -9.322129280746314
      ],
      [
        "▁тапсырма",
        -9.322202060312815
      ],
      [
        "▁C",
        -9.324708646318038
      ],
      [
        "га",
        -9.324778956481577
      ],
      [
        "▁алдымен",
        -9.324980485737544
      ],
      [
        "▁6.",
        -9.325310540173989
      ],
      [
        "▁сапасы",
        -9.325579461281606
      ],
      [
        "▁дін",
        -9.325646705012307
      ],
      [
        "▁сәйкес,",
        -9.325807896241734
      ],
      [
        "▁саласы",
        -9.325958359684527
      ],
      [
        "▁«С",
        -9.32609184546057
      ],
      [
        "▁жаза",
        -9.326424712961265
      ],
      [
        "▁уақыты",
        -9.326797192308328
      ],
      [
        "▁·",
        -9.32709555634234
      ],
      [
        "▁балаға",
        -9.328067555919006
      ],
      [
        "▁саясаты",
        -9.32851839299411
      ],
      [
        "▁жан-жақты",
        -9.328545272219277
      ],
      [
        "▁Ашық",
        -9.330086472125931
      ],
      [
        "▁құрайды.",
        -9.330615363738591
      ],
      [
        "дығы",
        -9.330918662992556
      ],
      [
        "▁Семей",
        -9.331397429273029
      ],
      [
        "▁мол",
        -9.332132099078256
      ],
      [
        "▁айту",
        -9.332438389427093
      ],
      [
        "▁қазақша",
        -9.33261118970022
      ],
      [
        "▁маманы",
        -9.333279583985437
      ],
      [
        "▁берілді.",
        -9.335433454972133
      ],
      [
        "▁мектебінің",
        -9.336859108927943
      ],
      [
        "▁N",
        -9.337507386927804
      ],
      [
        "6",
        -9.337540015592925
      ],
      [
        "▁келеді",
        -9.337966284492389
      ],
      [
        "▁интернет",
        -9.338800173436292
      ],
      [
        "▁материалдар",
        -9.33912402176178
      ],
      [
        "ек",
        -9.339565764338182
      ],
      [
        "▁Бүгінде",
        -9.340512936216749
      ],
      [
        "n",
        -9.341181491333613
      ],
      [
        "▁қыздар",
        -9.343680148458738
      ],
      [
        "▁Еуразия",
        -9.344940098238332
      ],
      [
        "м,",
        -9.345227171320165
      ],
      [
        "▁хан",
        -9.345491050305986
      ],
      [
        "▁(видео)",
        -9.345952890026322
      ],
      [
        "ем",
        -9.346581806941014
      ],
      [
        "er",
        -9.34707720489589
      ],
      [
        "▁қойды",
        -9.34851091778757
      ],
      [
        "імді",
        -9.349541720719968
      ],
      [
        "▁ж",
        -9.349692106950688
      ],
      [
        "▁Елбасының",
        -9.350477947845105
      ],
      [
        "▁әдебиет",
        -9.350551930196868
      ],
      [
        "ақ",
        -9.350708890542016
      ],
      [
        "▁конкурс",
        -9.350739007736413
      ],
      [
        "▁өтеді",
        -9.3518663931686
      ],
      [
        "▁«А",
        -9.351971555199473
      ],
      [
        "▁минут",
        -9.352372115346201
      ],
      [
        "▁хабарлады.",
        -9.352663023313129
      ],
      [
        "▁дәстүрлі",
        -9.353646083636782
      ],
      [
        "▁Ә",
        -9.354026302900316
      ],
      [
        "▁жазған",
        -9.355052483999206
      ],
      [
        "▁в",
        -9.3551212493226
      ],
      [
        "▁ет",
        -9.355890318182029
      ],
      [
        "ір",
        -9.356318013741536
      ],
      [
        "p",
        -9.356453231893584
      ],
      [
        "▁бастауыш",
        -9.356766229099005
      ],
      [
        "З",
        -9.358303036134558
      ],
      [
        "▁тақырыбы",
        -9.358699360487218
      ],
      [
        "▁Бірақ,",
        -9.35871743830615
      ],
      [
        "▁футбол",
        -9.359656433435623
      ],
      [
        "▁ауылы",
        -9.361256688394484
      ],
      [
        "▁Қаржы",
        -9.361261521940474
      ],
      [
        "▁құрамы",
        -9.361968010992614
      ],
      [
        "лерді",
        -9.362030280159953
      ],
      [
        "ады.",
        -9.362075720378199
      ],
      [
        "▁шығу",
        -9.36270538481943
      ],
      [
        "И",
        -9.363620382285447
      ],
      [
        "▁бағдарламасын",
        -9.363680885784593
      ],
      [
        "▁заманауи",
        -9.364255674184935
      ],
      [
        "▁*",
        -9.365282818135757
      ],
      [
        "терін",
        -9.365461670742551
      ],
      [
        "▁бастаған",
        -9.366237128081352
      ],
      [
        "▁мектепке",
        -9.366361483601228
      ],
      [
        "▁«Нұр",
        -9.367766957694823
      ],
      [
        "▁жасар",
        -9.36938303087037
      ],
      [
        "▁нәтижесі",
        -9.369427814741945
      ],
      [
        "ел",
        -9.369850711671312
      ],
      [
        "▁көзі",
        -9.370866684233317
      ],
      [
        "7",
        -9.371181886986388
      ],
      [
        "▁салдарынан",
        -9.371458462545128
      ],
      [
        "▁алғыс",
        -9.372183831439305
      ],
      [
        "▁санаты:",
        -9.373842693450058
      ],
      [
        "▁департаментінің",
        -9.374163954082027
      ],
      [
        "ларының",
        -9.375092904032067
      ],
      [
        "▁Э",
        -9.375385656042802
      ],
      [
        "▁оңай",
        -9.375512394218866
      ],
      [
        "▁әдістемелік",
        -9.376302763223318
      ],
      [
        "▁хабарлады",
        -9.377201099585953
      ],
      [
        "▁баланы",
        -9.37783244659281
      ],
      [
        "▁құрылымы",
        -9.378195232263476
      ],
      [
        "▁тізімі",
        -9.378912146771746
      ],
      [
        "▁төлеу",
        -9.379582777003716
      ],
      [
        "▁құжаттарды",
        -9.380399018789216
      ],
      [
        "▁топқа",
        -9.380621395371692
      ],
      [
        "▁қатысуымен",
        -9.381313819968968
      ],
      [
        "▁кетті",
        -9.38280635958747
      ],
      [
        "▁Оқушылардың",
        -9.38334074882126
      ],
      [
        "етін",
        -9.383616859152863
      ],
      [
        "▁мүшелері",
        -9.384990530564448
      ],
      [
        "Е",
        -9.385367568339086
      ],
      [
        "▁уақытша",
        -9.38544100526969
      ],
      [
        "▁елімізде",
        -9.385661413139108
      ],
      [
        "▁қаражат",
        -9.386595067387521
      ],
      [
        "▁пәтер",
        -9.3884647718338
      ],
      [
        "ыр",
        -9.38849646070072
      ],
      [
        "▁фото",
        -9.38867162270491
      ],
      [
        "дарды",
        -9.389382956257535
      ],
      [
        "▁үлес",
        -9.389998560430858
      ],
      [
        "▁жел",
        -9.390416242929705
      ],
      [
        "▁өкілі",
        -9.390460803423046
      ],
      [
        "▁Сіздің",
        -9.3905390615941
      ],
      [
        "▁орташа",
        -9.390550608021883
      ],
      [
        "▁құттықтау",
        -9.390550755077868
      ],
      [
        "▁Өмір",
        -9.390976787181144
      ],
      [
        "▁мақсат",
        -9.391061939552547
      ],
      [
        "▁жүктеп",
        -9.392441945158488
      ],
      [
        "▁компаниясы",
        -9.39245749760866
      ],
      [
        "▁әнші",
        -9.392494053337012
      ],
      [
        "▁округінің",
        -9.392835449196987
      ],
      [
        "Пайдалы",
        -9.393741917255467
      ],
      [
        "ки",
        -9.393883753584337
      ],
      [
        "▁кезең",
        -9.394926155948216
      ],
      [
        "al",
        -9.395373618684191
      ],
      [
        "▁Орта",
        -9.395735221427948
      ],
      [
        "▁көріп",
        -9.39587626400714
      ],
      [
        "▁есепке",
        -9.397075683727614
      ],
      [
        "▁органдардың",
        -9.398178493617227
      ],
      [
        "▁түсінік",
        -9.398486730189969
      ],
      [
        "▁Нұр",
        -9.398778744641135
      ],
      [
        "«",
        -9.399047065232974
      ],
      [
        "▁туризм",
        -9.399606155560521
      ],
      [
        "▁құқықтары",
        -9.400263648296443
      ],
      [
        "▁орындары",
        -9.401436748922965
      ],
      [
        "▁категория",
        -9.401493936788484
      ],
      [
        "l",
        -9.40210137472043
      ],
      [
        "▁Тіл",
        -9.402191593936104
      ],
      [
        "ып,",
        -9.402616294347476
      ],
      [
        "▁кісі",
        -9.403801198125052
      ],
      [
        "▁танымдық",
        -9.404338281278353
      ],
      [
        "-ның",
        -9.404996531497252
      ],
      [
        "▁баласы",
        -9.405496701935055
      ],
      [
        "▁Онда",
        -9.406009829317867
      ],
      [
        "▁Аудан",
        -9.407815912833009
      ],
      [
        "▁сүт",
        -9.410864704871985
      ],
      [
        "▁оқушылары",
        -9.410949644342432
      ],
      [
        "лай",
        -9.410986637117256
      ],
      [
        "Г",
        -9.411758659183533
      ],
      [
        "▁жоғарғы",
        -9.41256416384185
      ],
      [
        "▁қатысқан",
        -9.412895898360496
      ],
      [
        "беков",
        -9.413120697682569
      ],
      [
        "▁Ғылыми",
        -9.414448358843185
      ],
      [
        "▁барып",
        -9.414470792760852
      ],
      [
        "енеді.",
        -9.414553286593248
      ],
      [
        "▁үстіне",
        -9.415399031461781
      ],
      [
        "▁балаларды",
        -9.415431422422646
      ],
      [
        "▁Көп",
        -9.415937002570407
      ],
      [
        "▁азаматтар",
        -9.416081117027373
      ],
      [
        "▁латын",
        -9.416613642618053
      ],
      [
        "▁басында",
        -9.416830188046795
      ],
      [
        "▁қатынастар",
        -9.417112252400663
      ],
      [
        "▁Бай",
        -9.419784835674502
      ],
      [
        "▁Екінші",
        -9.4206308703484
      ],
      [
        "▁Осылайша",
        -9.420740885158445
      ],
      [
        "дарын",
        -9.421901248090807
      ],
      [
        "қы",
        -9.422148568299907
      ],
      [
        "▁мамандар",
        -9.423237637086407
      ],
      [
        "▁Өйткені",
        -9.423892258809094
      ],
      [
        "▁Жан",
        -9.424381566654901
      ],
      [
        "▁те",
        -9.42443552612742
      ],
      [
        "▁Содан",
        -9.42483248614074
      ],
      [
        "▁білдірді.",
        -9.426319707725408
      ],
      [
        "▁млрд.",
        -9.426422077143563
      ],
      [
        "▁үнемі",
        -9.4266151347775
      ],
      [
        "▁жүз",
        -9.426717186825805
      ],
      [
        "▁салтанатты",
        -9.4268317529043
      ],
      [
        "▁тұрғыны",
        -9.427399877095027
      ],
      [
        "▁филиалы",
        -9.42760804668105
      ],
      [
        "▁заман",
        -9.428614250690737
      ],
      [
        "▁бен",
        -9.429156553857887
      ],
      [
        "▁жобасын",
        -9.429507135752846
      ],
      [
        "▁болмайды.",
        -9.429854455311112
      ],
      [
        "▁тура",
        -9.430617583537325
      ],
      [
        "да.",
        -9.430909072416657
      ],
      [
        "▁бе?",
        -9.43142843287994
      ],
      [
        "кен",
        -9.431466422773898
      ],
      [
        "уы",
        -9.431501652103911
      ],
      [
        "▁Оқушылар",
        -9.431725294933418
      ],
      [
        "▁студенттер",
        -9.43189299379337
      ],
      [
        "▁деректер",
        -9.432811522637039
      ],
      [
        "▁басынан",
        -9.433089974358708
      ],
      [
        "май",
        -9.433113411545044
      ],
      [
        "▁жайында",
        -9.433130372957889
      ],
      [
        "▁органдары",
        -9.433337920674077
      ],
      [
        "▁өндіріс",
        -9.433700008794197
      ],
      [
        "▁Уикипедия",
        -9.433918802301132
      ],
      [
        "▁өндірістік",
        -9.433965429860606
      ],
      [
        "▁киім",
        -9.434160522132757
      ],
      [
        "▁түсті.",
        -9.434173420753316
      ],
      [
        "▁км2",
        -9.43424359445584
      ],
      [
        "▁сөзі",
        -9.436476116254418
      ],
      [
        "▁тұлғалардың",
        -9.436611882531839
      ],
      [
        "▁керемет",
        -9.437107728293405
      ],
      [
        "▁ретте",
        -9.438238996076098
      ],
      [
        "▁шектеулі",
        -9.438346349135024
      ],
      [
        "▁қолдана",
        -9.44024576457572
      ],
      [
        "▁алға",
        -9.440640589456478
      ],
      [
        "▁Ұстаз",
        -9.44076610706314
      ],
      [
        "▁салынған",
        -9.440766984589644
      ],
      [
        "▁мықты",
        -9.441385188420831
      ],
      [
        "▁мекемесі",
        -9.442429213895096
      ],
      [
        "▁отандық",
        -9.442546608445369
      ],
      [
        "▁компания",
        -9.442954847310723
      ],
      [
        "▁Н",
        -9.443714432255856
      ],
      [
        "▁білуге",
        -9.444309835965058
      ],
      [
        "лен",
        -9.444534691305195
      ],
      [
        "▁етуге",
        -9.44481942486729
      ],
      [
        "▁агенттігі",
        -9.446755887020608
      ],
      [
        "▁мереке",
        -9.446923167394154
      ],
      [
        "▁нәтижелері",
        -9.447160305711671
      ],
      [
        "▁ұстаз",
        -9.449574362125249
      ],
      [
        "▁жалғыз",
        -9.450914344987567
      ],
      [
        "▁бағдарламасының",
        -9.45166951565862
      ],
      [
        "тап",
        -9.452187958975468
      ],
      [
        "▁Сонда",
        -9.452707561702741
      ],
      [
        "▁инновациялық",
        -9.453420318576388
      ],
      [
        "▁тапсырмалар",
        -9.455218766111354
      ],
      [
        "алды",
        -9.455475785516978
      ],
      [
        "▁шет",
        -9.455562118606458
      ],
      [
        "▁айтып,",
        -9.457730070131236
      ],
      [
        "▁тану",
        -9.457798834748228
      ],
      [
        "▁билік",
        -9.457935981656387
      ],
      [
        "▁коммуна",
        -9.458376528437597
      ],
      [
        "▁құрылған",
        -9.459070556193039
      ],
      [
        "▁бай",
        -9.459103047144197
      ],
      [
        "▁I",
        -9.459281834173977
      ],
      [
        "▁айының",
        -9.459549089046247
      ],
      [
        "▁өздерінің",
        -9.460204725563674
      ],
      [
        "▁үкімет",
        -9.46041150512814
      ],
      [
        "лігі",
        -9.46050308775181
      ],
      [
        "▁Күн",
        -9.46053450477404
      ],
      [
        "▁ауыз",
        -9.460717235452467
      ],
      [
        "▁мектептің",
        -9.4607590006407
      ],
      [
        "▁тіркелген",
        -9.460807779213487
      ],
      [
        "▁ме?",
        -9.461467445654295
      ],
      [
        "▁органдарының",
        -9.462684146765742
      ],
      [
        "▁алты",
        -9.462728812346313
      ],
      [
        "▁оқуға",
        -9.463056262828864
      ],
      [
        "▁инвестициялық",
        -9.463122904887076
      ],
      [
        "▁болашақ",
        -9.46356675740784
      ],
      [
        "▁теңгені",
        -9.464502812635596
      ],
      [
        "▁жүк",
        -9.464859612164199
      ],
      [
        "▁Г",
        -9.465120739157886
      ],
      [
        "▁ағымдағы",
        -9.465336119841307
      ],
      [
        "▁қалпына",
        -9.465339817905381
      ],
      [
        "▁азаматтардың",
        -9.465441663869518
      ],
      [
        "▁екендігін",
        -9.466388106295472
      ],
      [
        "▁болар",
        -9.466389561965519
      ],
      [
        "▁есебінен",
        -9.467154668329503
      ],
      [
        "▁негізі",
        -9.467580736812028
      ],
      [
        "▁зардап",
        -9.467803631034274
      ],
      [
        "▁мамандығы",
        -9.467858052699999
      ],
      [
        "ц",
        -9.468159193788026
      ],
      [
        "▁Тақырыбы:",
        -9.468326445985333
      ],
      [
        "▁тақырып",
        -9.468640386790478
      ],
      [
        "▁жеткен",
        -9.468807694583528
      ],
      [
        "▁орган",
        -9.47042146080275
      ],
      [
        "▁сондықтан",
        -9.470622980387693
      ],
      [
        "▁Әділет",
        -9.470702432300156
      ],
      [
        "▁Үлкен",
        -9.470732550662254
      ],
      [
        "▁Заң",
        -9.471432918386
      ],
      [
        "▁қарағанда",
        -9.472366708359178
      ],
      [
        "▁2050",
        -9.472823232042323
      ],
      [
        "▁қоғамның",
        -9.47406611901691
      ],
      [
        "▁Са",
        -9.474385362509583
      ],
      [
        "▁сенім",
        -9.474394445625691
      ],
      [
        "▁болашағы",
        -9.47459100655082
      ],
      [
        "да,",
        -9.475396817405356
      ],
      [
        "леу",
        -9.476168924747178
      ],
      [
        "▁жаңғыру»",
        -9.47668375622904
      ],
      [
        "▁өндіру",
        -9.477205548803845
      ],
      [
        "▁заттар",
        -9.478191433745138
      ],
      [
        "▁қатысушылар",
        -9.479026593712184
      ],
      [
        "ро",
        -9.479142661070277
      ],
      [
        "o",
        -9.479183077360524
      ],
      [
        "▁алған.",
        -9.479880098698548
      ],
      [
        "▁жылына",
        -9.481131425140518
      ],
      [
        "бе",
        -9.48133703038896
      ],
      [
        "▁ұйым",
        -9.481366233826384
      ],
      [
        "ит",
        -9.481647365137238
      ],
      [
        "▁чемпионы",
        -9.48228740698302
      ],
      [
        "▁Алып",
        -9.482527947713947
      ],
      [
        "g",
        -9.482791599235199
      ],
      [
        "(бұдан",
        -9.482793116292573
      ],
      [
        "▁Мәселен,",
        -9.483236636680836
      ],
      [
        "▁былай",
        -9.484679311506364
      ],
      [
        "▁мән",
        -9.485033792622318
      ],
      [
        "▁Соның",
        -9.48532491997359
      ],
      [
        "▁материалдық",
        -9.485424595834544
      ],
      [
        "▁келген.",
        -9.485509774014815
      ],
      [
        "дері",
        -9.485953498497278
      ],
      [
        "▁тас",
        -9.486564213174216
      ],
      [
        "▁Облыстық",
        -9.487173690579269
      ],
      [
        "▁тауар",
        -9.48763250898234
      ],
      [
        "▁анықтама",
        -9.487921139491942
      ],
      [
        "ік",
        -9.487961178558333
      ],
      [
        "▁хабар",
        -9.488688626944008
      ],
      [
        "▁сіздің",
        -9.488834634774573
      ],
      [
        "-де",
        -9.489083012263517
      ],
      [
        "▁кіші",
        -9.490513962718538
      ],
      [
        "▁ешкім",
        -9.490970602663195
      ],
      [
        "▁орынды",
        -9.491342565385924
      ],
      [
        "▁курс",
        -9.491350568289045
      ],
      [
        "I",
        -9.491671704379831
      ],
      [
        "▁Алайда,",
        -9.491707947574183
      ],
      [
        "▁HD",
        -9.492973208881128
      ],
      [
        "▁аяқ",
        -9.492973907516909
      ],
      [
        "▁көлемінде",
        -9.493163893464754
      ],
      [
        "▁азаматы",
        -9.493283932073702
      ],
      [
        "▁жылу",
        -9.493320064537485
      ],
      [
        "▁иесі",
        -9.49410784600395
      ],
      [
        "▁бейне",
        -9.494289251114402
      ],
      [
        "▁үлесі",
        -9.496018204037115
      ],
      [
        "▁Экономикалық",
        -9.496178540914265
      ],
      [
        "▁шамасында.",
        -9.496526268868292
      ],
      [
        "▁еш",
        -9.496845788919693
      ],
      [
        "▁өткізді.",
        -9.497128923188423
      ],
      [
        "▁сапары",
        -9.497727242457188
      ],
      [
        "▁хабарлайды.",
        -9.497732158110399
      ],
      [
        "▁тілшісі.",
        -9.49795560713071
      ],
      [
        "імен",
        -9.498019198445064
      ],
      [
        "Ә",
        -9.498022016772362
      ],
      [
        "ч",
        -9.49959732127301
      ],
      [
        "▁білімдерін",
        -9.499711258419673
      ],
      [
        "▁ойындар",
        -9.499952774343573
      ],
      [
        "▁мекемелер",
        -9.500269794952994
      ],
      [
        "▁күннен",
        -9.500291159499838
      ],
      [
        "▁бірден",
        -9.500522036770713
      ],
      [
        "▁ортаны",
        -9.501278170840056
      ],
      [
        "▁түрінде",
        -9.501334197447662
      ],
      [
        "Ш",
        -9.501570199089855
      ],
      [
        "э",
        -9.502090292682476
      ],
      [
        "▁қос",
        -9.502460124892831
      ],
      [
        "D",
        -9.504430167554982
      ],
      [
        "▁Мәскеу",
        -9.50455328148172
      ],
      [
        "▁темір",
        -9.504716169839963
      ],
      [
        "▁жоспарлау",
        -9.50518763339661
      ],
      [
        "лас",
        -9.505860487052729
      ],
      [
        "-техникалық",
        -9.506349266366659
      ],
      [
        "▁беріп",
        -9.506365521246416
      ],
      [
        "▁Отан»",
        -9.506710617604956
      ],
      [
        "▁соғыс",
        -9.507114736615186
      ],
      [
        "▁қолайлы",
        -9.507646256857196
      ],
      [
        "иялық",
        -9.508313945722586
      ],
      [
        "▁арман",
        -9.508381775790784
      ],
      [
        "▁F",
        -9.508774531073271
      ],
      [
        "▁бойынша:",
        -9.508799340050693
      ],
      [
        "▁200",
        -9.508831743362316
      ],
      [
        "▁көк",
        -9.508943026861711
      ],
      [
        "▁Рухани",
        -9.510136909653905
      ],
      [
        "▁мазмұны",
        -9.510247363559197
      ],
      [
        "▁ешқандай",
        -9.5110179664081
      ],
      [
        "▁өмірі",
        -9.512032306454905
      ],
      [
        "30",
        -9.512308233670845
      ],
      [
        "▁Кері",
        -9.512414894987582
      ],
      [
        "▁Бастауыш",
        -9.512910852381328
      ],
      [
        "▁шынайы",
        -9.513323049536151
      ],
      [
        "▁орында",
        -9.513373777463638
      ],
      [
        "▁аймағына",
        -9.513649660381995
      ],
      [
        "20",
        -9.51400759257828
      ],
      [
        "▁басшылары",
        -9.514379304364876
      ],
      [
        "▁істейтін",
        -9.514925050898789
      ],
      [
        "дығын",
        -9.516879270791328
      ],
      [
        "▁жөн",
        -9.517147221334447
      ],
      [
        "▁әуе",
        -9.517415823893403
      ],
      [
        "▁ғасырдың",
        -9.5179921380462
      ],
      [
        "iнiң",
        -9.518028207060272
      ],
      [
        "ыс",
        -9.518694167214045
      ],
      [
        "▁салып",
        -9.51941474289993
      ],
      [
        "▁шамамен",
        -9.520187256468656
      ],
      [
        "уға",
        -9.52090411124448
      ],
      [
        "▁сізге",
        -9.520946287835907
      ],
      [
        "▁органдар",
        -9.52099299021493
      ],
      [
        "▁халықты",
        -9.521303356594967
      ],
      [
        "▁кезекті",
        -9.521781494254391
      ],
      [
        "▁мені",
        -9.52273533102029
      ],
      [
        "▁Себебі",
        -9.523342701942756
      ],
      [
        "▁кез-келген",
        -9.523680094058287
      ],
      [
        "▁көру",
        -9.524010091927126
      ],
      [
        "▁Одан",
        -9.524224135050279
      ],
      [
        "дау",
        -9.524882015006515
      ],
      [
        "▁«Астана",
        -9.52534456581845
      ],
      [
        "▁кезеңде",
        -9.525353145048753
      ],
      [
        "▁Казахстан",
        -9.525902632387952
      ],
      [
        "▁әдемі",
        -9.52626080178021
      ],
      [
        "f",
        -9.52634697617815
      ],
      [
        "▁кино",
        -9.527129898000759
      ],
      [
        "▁технология",
        -9.527271869821055
      ],
      [
        "▁тұңғыш",
        -9.528328534949456
      ],
      [
        "▁кәсіпкерлер",
        -9.528381651241114
      ],
      [
        "▁шолу",
        -9.5284070455133
      ],
      [
        "x",
        -9.52885017149588
      ],
      [
        "▁80",
        -9.528979570300649
      ],
      [
        "▁беріп,",
        -9.529221668868406
      ],
      [
        "▁көлігі",
        -9.530147888223645
      ],
      [
        "ымызды",
        -9.530206763580987
      ],
      [
        "▁P",
        -9.530521137246499
      ],
      [
        "▁[",
        -9.530934169094607
      ],
      [
        "▁жері",
        -9.531171509337753
      ],
      [
        "им",
        -9.531260556630325
      ],
      [
        "▁ұсыныс",
        -9.531362497759089
      ],
      [
        "▁35",
        -9.531885159722233
      ],
      [
        "ап",
        -9.532203911689326
      ],
      [
        "▁айтқанда,",
        -9.532210488318732
      ],
      [
        "▁сөзін",
        -9.532799204131916
      ],
      [
        "Ж",
        -9.532903781470687
      ],
      [
        "▁салыстырғанда",
        -9.53417299672929
      ],
      [
        "▁жолын",
        -9.534664730085481
      ],
      [
        "▁Ж.",
        -9.535291118880652
      ],
      [
        "▁шақырым",
        -9.5355597143455
      ],
      [
        "▁дамытудың",
        -9.536111607188428
      ],
      [
        "▁тап",
        -9.53686327533444
      ],
      [
        "8",
        -9.536960434415935
      ],
      [
        "▁кері",
        -9.537944987230095
      ],
      [
        "▁түсіндіру",
        -9.538946975416826
      ],
      [
        "▁жою",
        -9.53998361484223
      ],
      [
        "▁екені",
        -9.540290849711354
      ],
      [
        "▁семинар",
        -9.540756039261568
      ],
      [
        "▁Тараз",
        -9.540854360951663
      ],
      [
        "▁меншік",
        -9.541121135239738
      ],
      [
        "▁кеңесі",
        -9.541566791605916
      ],
      [
        "▁табиғат",
        -9.541819471566923
      ],
      [
        "▁қойылған",
        -9.54229798321164
      ],
      [
        "▁миллиард",
        -9.54358698751693
      ],
      [
        "▁кеңестер",
        -9.544381008922306
      ],
      [
        "▁команда",
        -9.545106849603098
      ],
      [
        "▁болуға",
        -9.545251538280265
      ],
      [
        "▁түрлерін",
        -9.546180099731345
      ],
      [
        "▁«К",
        -9.546688673835053
      ],
      [
        "S",
        -9.547332351323924
      ],
      [
        "ДА",
        -9.547485842228237
      ],
      [
        "▁мәселелерді",
        -9.54821758175855
      ],
      [
        "-1",
        -9.548744227406885
      ],
      [
        "▁кестесі",
        -9.548761917684956
      ],
      [
        "▁500",
        -9.549315207475916
      ],
      [
        "▁қымбат",
        -9.549355856154396
      ],
      [
        "▁асыруға",
        -9.549652062752418
      ],
      [
        "▁шаралары",
        -9.549928212609466
      ],
      [
        "▁жазып",
        -9.550009905493628
      ],
      [
        "▁ауылында",
        -9.550693481707153
      ],
      [
        "▁айырбастау",
        -9.550819877799258
      ],
      [
        "▁автомобиль",
        -9.551215358477258
      ],
      [
        "▁жататын",
        -9.55121539721877
      ],
      [
        "▁студенттері",
        -9.55233313147981
      ],
      [
        "▁ұйымдар",
        -9.55306655262283
      ],
      [
        "▁әке",
        -9.553338143786094
      ],
      [
        "тас",
        -9.554249659475085
      ],
      [
        "▁картасы",
        -9.555385971713978
      ],
      [
        "▁береді",
        -9.555528474572604
      ],
      [
        "▁Головкин",
        -9.555708591307503
      ],
      [
        "▁тұрғыдан",
        -9.556304318340663
      ],
      [
        "▁тамаша",
        -9.556675471213024
      ],
      [
        "бір",
        -9.557493308747338
      ],
      [
        "▁көрсетті.",
        -9.55909131503038
      ],
      [
        "▁Жол",
        -9.559244136118668
      ],
      [
        "▁«Т",
        -9.55998842528454
      ],
      [
        "▁жетекшісі",
        -9.560434715831416
      ],
      [
        "▁той",
        -9.560457083834931
      ],
      [
        "▁атынан",
        -9.560687136080258
      ],
      [
        "▁Парламент",
        -9.561686258657208
      ],
      [
        "▁жасап.",
        -9.561697772604582
      ],
      [
        "01",
        -9.562596778298175
      ],
      [
        "▁Ойын",
        -9.563179422080683
      ],
      [
        "▁спорттық",
        -9.56323093812845
      ],
      [
        "▁қазақстандықтар",
        -9.563897981191403
      ],
      [
        "▁кей",
        -9.565040989590546
      ],
      [
        "▁жүр",
        -9.565215720425822
      ],
      [
        "▁кезеңі",
        -9.565726651098316
      ],
      [
        "ЛЫҚ",
        -9.566260140951451
      ],
      [
        "▁техника",
        -9.56639976147196
      ],
      [
        "▁қ.",
        -9.566477119671116
      ],
      [
        "▁іздеу",
        -9.566732138609446
      ],
      [
        "тану",
        -9.567396804434217
      ],
      [
        "▁жеткізді.",
        -9.56749801631804
      ],
      [
        "▁пайызы",
        -9.568004877069654
      ],
      [
        "▁T",
        -9.570356528197578
      ],
      [
        "▁Кездесу",
        -9.57043064915236
      ],
      [
        "ос",
        -9.570809806133763
      ],
      [
        "▁бағыты",
        -9.570834467009828
      ],
      [
        "▁үйдің",
        -9.5709609061823
      ],
      [
        "▁ортаға",
        -9.571500855206953
      ],
      [
        "▁биік",
        -9.57330185424349
      ],
      [
        "▁анасы",
        -9.573830033559226
      ],
      [
        "▁орналастыру",
        -9.574629350342398
      ],
      [
        "▁Орал",
        -9.57462976643522
      ],
      [
        "▁жолаушылар",
        -9.57468476671611
      ],
      [
        "▁жиын",
        -9.574903102990476
      ],
      [
        "▁әлемнің",
        -9.575790756606562
      ],
      [
        "мақ",
        -9.577149495807555
      ],
      [
        "▁бірі.",
        -9.577846366208455
      ],
      [
        "пар",
        -9.577876703865275
      ],
      [
        "▁орталығында",
        -9.578203784095322
      ],
      [
        "▁тобының",
        -9.578243213741747
      ],
      [
        "▁бағыт",
        -9.578530219776901
      ],
      [
        "▁жарыс",
        -9.579601891146378
      ],
      [
        "▁қой",
        -9.579945758378532
      ],
      [
        "О",
        -9.580671985466854
      ],
      [
        "▁қабылданған",
        -9.58094870697596
      ],
      [
        "▁тілді",
        -9.581552030701484
      ],
      [
        "▁«М",
        -9.581570421220764
      ],
      [
        "ко",
        -9.581813245598042
      ],
      [
        "▁4)",
        -9.582293975839029
      ],
      [
        "ау",
        -9.58251806133742
      ],
      [
        "12",
        -9.583591070552979
      ],
      [
        "▁үстел",
        -9.584709187010159
      ],
      [
        "▁Жастар",
        -9.584751972591473
      ],
      [
        "▁прокуратурасы",
        -9.584807297472015
      ],
      [
        "мыздың",
        -9.584922419200364
      ],
      [
        "▁пайыз",
        -9.585391828165527
      ],
      [
        "▁жазады",
        -9.58548467818871
      ],
      [
        "▁адал",
        -9.585587129361564
      ],
      [
        "▁әсіресе",
        -9.585899514652434
      ],
      [
        "▁кеңінен",
        -9.587351615814265
      ],
      [
        "▁айтты",
        -9.587426938626617
      ],
      [
        "▁қандай?",
        -9.589301481017156
      ],
      [
        "▁емдеу",
        -9.59025053071629
      ],
      [
        "▁шығар",
        -9.590342303248994
      ],
      [
        "▁балық",
        -9.590733980509725
      ],
      [
        "▁B",
        -9.591014598421937
      ],
      [
        "▁біраз",
        -9.591138895450921
      ],
      [
        "▁болғаны",
        -9.591641877022873
      ],
      [
        "▁дамыған",
        -9.592116157656342
      ],
      [
        "▁көрсететін",
        -9.592568963028338
      ],
      [
        "▁айтылған",
        -9.592667759242566
      ],
      [
        "▁тауып",
        -9.593627897098312
      ],
      [
        "▁Яғни",
        -9.59370280734239
      ],
      [
        "L",
        -9.59391141066368
      ],
      [
        "тарға",
        -9.594847699532542
      ],
      [
        "ас",
        -9.595618699281355
      ],
      [
        "▁білімді",
        -9.595832517559135
      ],
      [
        "тек",
        -9.59625814715761
      ],
      [
        "▁көркем",
        -9.596467819046527
      ],
      [
        "үй",
        -9.59653580408122
      ],
      [
        "▁Мақсаты:",
        -9.59663157098522
      ],
      [
        "▁келтіру",
        -9.598670010743584
      ],
      [
        "▁конференция",
        -9.598818908046173
      ],
      [
        "▁Жоғарғы",
        -9.599077416555408
      ],
      [
        "-құқықтық",
        -9.59952900968058
      ],
      [
        "▁Сыртқы",
        -9.599634628416823
      ],
      [
        "▁D",
        -9.599952893740927
      ],
      [
        "▁қаланың",
        -9.599991108149077
      ],
      [
        "▁бюджеттік",
        -9.600205739966984
      ],
      [
        "▁қызметтерді",
        -9.60036747802858
      ],
      [
        "▁сіздерге",
        -9.600367781477985
      ],
      [
        "▁Ұлт",
        -9.601627148254337
      ],
      [
        "▁жүрек",
        -9.602100312113361
      ],
      [
        "▁берілетін",
        -9.60220886926785
      ],
      [
        "▁құралдары",
        -9.602276190356848
      ],
      [
        "▁құрметті",
        -9.602436656441304
      ],
      [
        "▁оқушысы",
        -9.602447839096513
      ],
      [
        "▁Германия",
        -9.602978123296966
      ],
      [
        "▁қаржыландыру",
        -9.60315894021593
      ],
      [
        "▁Мұнда",
        -9.603623223761218
      ],
      [
        "▁болсын",
        -9.603672573285799
      ],
      [
        "▁басын",
        -9.603858721031944
      ],
      [
        "▁сағаты",
        -9.60426043586473
      ],
      [
        "▁ІІ",
        -9.604523737901786
      ],
      [
        "▁пәнінен",
        -9.604680476664699
      ],
      [
        "▁мерекелік",
        -9.605010426344581
      ],
      [
        "▁заңсыз",
        -9.607292737679812
      ],
      [
        "за",
        -9.607311436566928
      ],
      [
        "▁табу",
        -9.60806971545799
      ],
      [
        "▁кездесті",
        -9.60965359062027
      ],
      [
        "кер",
        -9.610090408366037
      ],
      [
        "ик",
        -9.610406836248213
      ],
      [
        "іл",
        -9.61098352388493
      ],
      [
        "▁пошта",
        -9.612629889641239
      ],
      [
        "▁кету",
        -9.612739779606265
      ],
      [
        "▁төлем",
        -9.61310690779694
      ],
      [
        "▁көмегімен",
        -9.613144603398094
      ],
      [
        "▁Жеңіс",
        -9.613835831299752
      ],
      [
        "ү",
        -9.614138889318271
      ],
      [
        "▁шаршы",
        -9.614487133058013
      ],
      [
        "мын",
        -9.615327412464861
      ],
      [
        "▁нормативтік",
        -9.616029825238082
      ],
      [
        "▁соң,",
        -9.616592135943883
      ],
      [
        "▁отырысында",
        -9.617251751501447
      ],
      [
        "ми",
        -9.61754406142375
      ],
      [
        "▁тәуелсіз",
        -9.617660011592452
      ],
      [
        "▁&",
        -9.617909299352897
      ],
      [
        "▁Өзбекстан",
        -9.6182704880117
      ],
      [
        "▁биылғы",
        -9.618399895653365
      ],
      [
        "▁қызметі.",
        -9.61849980601081
      ],
      [
        "▁кешенді",
        -9.619064760471833
      ],
      [
        "▁жалға",
        -9.620664011622015
      ],
      [
        "бер",
        -9.621109183385965
      ],
      [
        "▁жасайды.",
        -9.621238731741434
      ],
      [
        "▁Ғылым",
        -9.62174205355483
      ],
      [
        "▁тән",
        -9.621753883651646
      ],
      [
        "▁әзірлеу",
        -9.622253470986546
      ],
      [
        "▁шықты",
        -9.62301739200623
      ],
      [
        "▁7.",
        -9.623120974468526
      ],
      [
        "▁нәрсе",
        -9.62328415161638
      ],
      [
        "▁бағыттары",
        -9.624348364473189
      ],
      [
        "▁әкімшілігі",
        -9.624492939095916
      ],
      [
        "▁жәрдем",
        -9.624750024040186
      ],
      [
        "▁стратегиялық",
        -9.625041743064397
      ],
      [
        "▁үйде",
        -9.625398439381021
      ],
      [
        "▁Т.",
        -9.62565183754063
      ],
      [
        "▁Ақпараттық",
        -9.626953075134796
      ],
      [
        "▁көрмесі",
        -9.62742233329844
      ],
      [
        "▁бағытта",
        -9.627894975842388
      ],
      [
        "▁ол.",
        -9.62797314905763
      ],
      [
        "ж.",
        -9.628326759082835
      ],
      [
        "▁еді",
        -9.628641406528514
      ],
      [
        "▁мәлімдеді.",
        -9.629180219545201
      ],
      [
        "▁жария",
        -9.629694328000168
      ],
      [
        "▁бағалы",
        -9.629886826935099
      ],
      [
        "▁орынға",
        -9.629990931283523
      ],
      [
        "▁бірлескен",
        -9.630415272554615
      ],
      [
        "▁Ф",
        -9.630530773489756
      ],
      [
        "▁қосқан",
        -9.630780121105431
      ],
      [
        "▁толықтырулар",
        -9.630875164119324
      ],
      [
        "▁болсын!",
        -9.63102031776558
      ],
      [
        "▁Видео",
        -9.631295533284078
      ],
      [
        "▁Құқық",
        -9.631661918954478
      ],
      [
        "▁кафедрасы",
        -9.631992395589526
      ],
      [
        "▁кезегінде",
        -9.6322107169754
      ],
      [
        "▁тіліндегі",
        -9.632430343245254
      ],
      [
        "▁90",
        -9.632525025402707
      ],
      [
        "▁жерінде",
        -9.633411289795074
      ],
      [
        "▁зат",
        -9.633575374655283
      ],
      [
        "шылық",
        -9.633914333361759
      ],
      [
        "0",
        -9.634146853094427
      ],
      [
        "▁қатысуға",
        -9.634544898686663
      ],
      [
        "▁таба",
        -9.635460898146713
      ],
      [
        "ва",
        -9.63547871157936
      ],
      [
        "▁материалдарды",
        -9.636185607675056
      ],
      [
        "▁табылады",
        -9.637095443601508
      ],
      [
        "▁күй",
        -9.638729416316435
      ],
      [
        "▁Ата",
        -9.638875978042318
      ],
      [
        "▁Сыбайлас",
        -9.639390608388952
      ],
      [
        "▁орнын",
        -9.641474987498706
      ],
      [
        "▁жетті.",
        -9.642171837040152
      ],
      [
        "▁елге",
        -9.642324050637123
      ],
      [
        "▁жете",
        -9.643048635123057
      ],
      [
        "ДЫ",
        -9.64369459689965
      ],
      [
        "▁бірыңғай",
        -9.643852832364779
      ],
      [
        "▁барынша",
        -9.644682889458382
      ],
      [
        "▁ғалымдар",
        -9.645293880947765
      ],
      [
        "▁Ө",
        -9.646040629621076
      ],
      [
        "▁кезекте",
        -9.646387280476167
      ],
      [
        "▁жүр.",
        -9.646436566448068
      ],
      [
        "▁өңірлік",
        -9.64660337649158
      ],
      [
        "▁асырылады.",
        -9.647770173489182
      ],
      [
        "iн",
        -9.648233342045007
      ],
      [
        "В",
        -9.648237033323726
      ],
      [
        "▁Еске",
        -9.648335649801542
      ],
      [
        "ель",
        -9.65061626733794
      ],
      [
        "▁қызметкері",
        -9.651127849825551
      ],
      [
        "▁Тұңғыш",
        -9.651447253213604
      ],
      [
        "▁2020",
        -9.651555828978129
      ],
      [
        "▁желі",
        -9.651827542762543
      ],
      [
        "▁көрінеді.",
        -9.651969925636084
      ],
      [
        "▁>",
        -9.65203615218904
      ],
      [
        "▁бастау",
        -9.652133599711783
      ],
      [
        "ҒА",
        -9.65232499995016
      ],
      [
        "▁дөңгелек",
        -9.65253333775852
      ],
      [
        "▁отырады.",
        -9.653073595958329
      ],
      [
        "▁жинағы",
        -9.653823158591045
      ],
      [
        "▁басқарма",
        -9.655095936261612
      ],
      [
        "▁кеш",
        -9.655291997311608
      ],
      [
        "▁зерттеулер",
        -9.656572054578763
      ],
      [
        "▁Түркия",
        -9.656658293990109
      ],
      [
        "25",
        -9.656971265243492
      ],
      [
        "▁Нұрлан",
        -9.65761568769327
      ],
      [
        "▁жаңғырту",
        -9.657726987914625
      ],
      [
        "▁2009",
        -9.658282986827736
      ],
      [
        "▁бөлімі»",
        -9.658343115412068
      ],
      [
        "▁«Менің",
        -9.658608220823947
      ],
      [
        "▁құрады.",
        -9.658648711728025
      ],
      [
        "19",
        -9.658794296969067
      ],
      [
        "▁табылатын",
        -9.659709627210814
      ],
      [
        "▁мерекесі",
        -9.660516538451205
      ],
      [
        "но",
        -9.661407782020675
      ],
      [
        "▁деді.",
        -9.6618075491405
      ],
      [
        "▁қайда",
        -9.661946503354729
      ],
      [
        "▁алмайды.",
        -9.6624523159325
      ],
      [
        "▁көрсеткіш",
        -9.663102694714048
      ],
      [
        "▁Республикасында",
        -9.663115277012027
      ],
      [
        "▁Тағы",
        -9.663352567428845
      ],
      [
        "▁мөлшері",
        -9.664315460575672
      ],
      [
        "▁жасап,",
        -9.664800995381572
      ],
      [
        "ланған",
        -9.665095155395722
      ],
      [
        "▁сотқа",
        -9.665157908403076
      ],
      [
        "▁студент",
        -9.665321380491118
      ],
      [
        "▁құрамасы",
        -9.665496154372953
      ],
      [
        "Ф",
        -9.666077928423508
      ],
      [
        "▁Қазақстанға",
        -9.666130669511933
      ],
      [
        "▁сана",
        -9.666788037652566
      ],
      [
        "▁қорғаныс",
        -9.667227006627563
      ],
      [
        "▁жинақ",
        -9.668042096121532
      ],
      [
        "▁M",
        -9.668097014303024
      ],
      [
        "▁сенімді",
        -9.668146416503319
      ],
      [
        "▁жақ",
        -9.668382462355183
      ],
      [
        "▁Үш",
        -9.668754981714986
      ],
      [
        "▁басталды.",
        -9.668883275741145
      ],
      [
        "ыл",
        -9.668973565660991
      ],
      [
        "▁істеп",
        -9.669078036153058
      ],
      [
        "▁жетекші",
        -9.669111207364303
      ],
      [
        "ылған",
        -9.669407526375625
      ],
      [
        "▁Ресми",
        -9.669465421588878
      ],
      [
        "пе",
        -9.669707326429268
      ],
      [
        "▁жатқанын",
        -9.670125356060966
      ],
      [
        "▁бүгінде",
        -9.670127600178484
      ],
      [
        "▁себеп",
        -9.670473169381971
      ],
      [
        "▁күнде",
        -9.671187800434758
      ],
      [
        "тарының",
        -9.671280401255967
      ],
      [
        "▁қарсаңында",
        -9.672146673159125
      ],
      [
        "▁45",
        -9.673566377213607
      ],
      [
        "▁айт",
        -9.673968681993301
      ],
      [
        "дігі",
        -9.67447332572596
      ],
      [
        "▁есте",
        -9.674699109337617
      ],
      [
        "▁көрме",
        -9.674740335123545
      ],
      [
        "▁департаментінде",
        -9.675335820234483
      ],
      [
        "▁ыстық",
        -9.675704391046988
      ],
      [
        "▁тұрып",
        -9.676328359569453
      ],
      [
        "▁бәрін",
        -9.676373122420102
      ],
      [
        "▁Осындай",
        -9.676455782804183
      ],
      [
        "▁Спорт",
        -9.676582734823423
      ],
      [
        "▁тәрбиелеу.",
        -9.67668928773109
      ],
      [
        "▁командасы",
        -9.676941903772956
      ],
      [
        "▁бақыт",
        -9.677805201513507
      ],
      [
        "▁профессор",
        -9.67785034015266
      ],
      [
        "▁теңгеден",
        -9.678105305719654
      ],
      [
        "▁президент",
        -9.6791240534239
      ],
      [
        "▁үлгі",
        -9.67918808821825
      ],
      [
        "▁ұйымы",
        -9.680044503335042
      ],
      [
        "▁Қараша",
        -9.680243015466104
      ],
      [
        "▁кәсіптік",
        -9.680431855242475
      ],
      [
        "▁кеткен.",
        -9.681379664403952
      ],
      [
        "мо",
        -9.681641050199003
      ],
      [
        "▁G",
        -9.68204005843485
      ],
      [
        "▁керек?",
        -9.68226093648627
      ],
      [
        "▁қадағалау",
        -9.682466116346351
      ],
      [
        "▁«Біз",
        -9.68256422857312
      ],
      [
        "▁апта",
        -9.6827835096202
      ],
      [
        "▁бірлесіп",
        -9.682965693922322
      ],
      [
        "▁қайырымдылық",
        -9.683694182596335
      ],
      [
        "▁пәнінің",
        -9.683700454195677
      ],
      [
        "▁ұсыныстар",
        -9.683710248799258
      ],
      [
        "▁психологиялық",
        -9.683712024566148
      ],
      [
        "▁Ұ",
        -9.684407759485747
      ],
      [
        "▁адамдарға",
        -9.684521884979999
      ],
      [
        "▁«Жас",
        -9.684706193407752
      ],
      [
        "▁өзінде",
        -9.684719415991076
      ],
      [
        "00-ден",
        -9.684851369765902
      ],
      [
        "▁қатарына",
        -9.684945013231179
      ],
      [
        "▁өздері",
        -9.68500867753871
      ],
      [
        "▁деңгейдегі",
        -9.685106788301269
      ],
      [
        "▁жүйелі",
        -9.685761921141385
      ],
      [
        "▁энергия",
        -9.686146245461751
      ],
      [
        "▁нұсқа",
        -9.686940502984331
      ],
      [
        "▁банктер",
        -9.687396408711042
      ],
      [
        "▁шығып,",
        -9.687534213890052
      ],
      [
        "▁білімі",
        -9.687561871225643
      ],
      [
        "і,",
        -9.687591773238633
      ],
      [
        "ло",
        -9.687975539602615
      ],
      [
        "▁қағаз",
        -9.688296511868542
      ],
      [
        "▁сөйлеу",
        -9.688563566490792
      ],
      [
        "▁Қоғам",
        -9.688684644276211
      ],
      [
        "▁ауқымды",
        -9.689786013692691
      ],
      [
        "НЫҢ",
        -9.690999041715092
      ],
      [
        "▁бесплатно",
        -9.691155767649487
      ],
      [
        "▁Е.",
        -9.691494480864161
      ],
      [
        "▁көрсетуге",
        -9.6918067299705
      ],
      [
        "лес",
        -9.692190944726491
      ],
      [
        "▁кіру",
        -9.693976582217484
      ],
      [
        "▁(1",
        -9.694167424461373
      ],
      [
        "▁300",
        -9.694277965887213
      ],
      [
        "ха",
        -9.694438523460107
      ],
      [
        "▁(«",
        -9.694991623421895
      ],
      [
        "▁ғылымдарының",
        -9.695234673109372
      ],
      [
        "▁тәрбиелеу",
        -9.695315728498752
      ],
      [
        "мамандандырылған",
        -9.69545019688885
      ],
      [
        "▁жасады.",
        -9.695873265255724
      ],
      [
        "▁белгілері",
        -9.696522332077336
      ],
      [
        "▁алыс",
        -9.696579820903569
      ],
      [
        "▁ұсыну",
        -9.69707645899017
      ],
      [
        "▁күші",
        -9.697957345799804
      ],
      [
        "▁жеңіп",
        -9.698131409027466
      ],
      [
        "▁құрамында",
        -9.698545976126287
      ],
      [
        "m",
        -9.69855990807809
      ],
      [
        "▁саналады.",
        -9.698796921004536
      ],
      [
        "▁Сот",
        -9.699104214281839
      ],
      [
        "▁өнері",
        -9.69943566870922
      ],
      [
        "▁ба",
        -9.69983170946546
      ],
      [
        "▁орнату",
        -9.699899567054379
      ],
      [
        "▁Ма",
        -9.700215553248166
      ],
      [
        "▁қызы",
        -9.700291588039043
      ],
      [
        "мін.",
        -9.701007419759552
      ],
      [
        "▁шығады.",
        -9.70154771574661
      ],
      [
        "▁тәрбиесі",
        -9.70185815085867
      ],
      [
        "▁Әрине,",
        -9.702095291840745
      ],
      [
        "▁қойылатын",
        -9.7022376550782
      ],
      [
        "лығын",
        -9.702363735046244
      ],
      [
        "▁бюджеттен",
        -9.70241057108213
      ],
      [
        "15",
        -9.702551323315461
      ],
      [
        "▁тұрғындарының",
        -9.703063711514375
      ],
      [
        "▁тілде",
        -9.704169650340187
      ],
      [
        "міз.",
        -9.704282527336492
      ],
      [
        "▁баспана",
        -9.704760337231388
      ],
      [
        "r",
        -9.704797634272026
      ],
      [
        "▁бұқаралық",
        -9.705140605567863
      ],
      [
        "▁өнімдері",
        -9.705835526048492
      ],
      [
        "овтың",
        -9.705863102359768
      ],
      [
        "▁жолдарын",
        -9.706436680478781
      ],
      [
        "▁жеңіске",
        -9.707050789651056
      ],
      [
        "аз",
        -9.707353968035793
      ],
      [
        "▁қауіпті",
        -9.707629225810223
      ],
      [
        "▁бәсекеге",
        -9.708258392508501
      ],
      [
        "▁Пікір",
        -9.708399774956657
      ],
      [
        "▁айқын",
        -9.708410124267576
      ],
      [
        "▁жақсарту",
        -9.70862544746159
      ],
      [
        "▁үйі",
        -9.709227270010505
      ],
      [
        "▁әдісі",
        -9.709361899275056
      ],
      [
        "-ға",
        -9.70985426582982
      ],
      [
        "▁асыл",
        -9.71016924889274
      ],
      [
        "▁32",
        -9.710277036038885
      ],
      [
        "▁басы",
        -9.710399579801233
      ],
      [
        "▁қабілетін",
        -9.71093075388874
      ],
      [
        "қ.",
        -9.711604926140943
      ],
      [
        "▁тығыз",
        -9.71168061237498
      ],
      [
        "▁«Мен",
        -9.713439540977845
      ],
      [
        "▁Ә.",
        -9.713926258789467
      ],
      [
        "▁ұйымдардың",
        -9.714260353091372
      ],
      [
        "▁дамыту.",
        -9.714575238007676
      ],
      [
        "▁көшу",
        -9.714784620261698
      ],
      [
        "▁ұпай",
        -9.71530593610393
      ],
      [
        "▁жаман",
        -9.715547367105614
      ],
      [
        "дігін",
        -9.716244729953242
      ],
      [
        "▁түн",
        -9.716750925414708
      ],
      [
        "▁бастығы",
        -9.71763096851257
      ],
      [
        "▁лауазымды",
        -9.718931602305934
      ],
      [
        "▁ерте",
        -9.719105230127225
      ],
      [
        "w",
        -9.719196432283825
      ],
      [
        "імізді",
        -9.719292309655735
      ],
      [
        "ы»",
        -9.71951664867971
      ],
      [
        "▁орындар",
        -9.719777585831974
      ],
      [
        "▁валюта",
        -9.719870384162594
      ],
      [
        "▁Ахмет",
        -9.720102238959356
      ],
      [
        "ара",
        -9.720975334342993
      ],
      [
        "▁мектепте",
        -9.7212571986509
      ],
      [
        "▁бөлек",
        -9.721392092063539
      ],
      [
        "▁соңына",
        -9.721465449171529
      ],
      [
        "▁қасиетті",
        -9.721838844371938
      ],
      [
        "лаған",
        -9.722438462385668
      ],
      [
        "▁көрініс",
        -9.72259041854481
      ],
      [
        "▁дамуының",
        -9.72287513465442
      ],
      [
        "▁кәсіпорын",
        -9.724864852305299
      ],
      [
        "▁форумы",
        -9.724982893398833
      ],
      [
        "▁прокуратура",
        -9.725400116133661
      ],
      [
        "▁түседі.",
        -9.72560006263716
      ],
      [
        "▁жұмысты",
        -9.726586522995817
      ],
      [
        "▁сондай",
        -9.726647254882355
      ],
      [
        "▁спортшы",
        -9.72687909242338
      ],
      [
        "▁беруді",
        -9.72704488556851
      ],
      [
        "en",
        -9.72727581578185
      ],
      [
        "уі",
        -9.727359156827296
      ],
      [
        "▁Экономика",
        -9.728243540905938
      ],
      [
        "▁қонақ",
        -9.728968017988429
      ],
      [
        "▁қатысып,",
        -9.729618523901536
      ],
      [
        "▁тәжірибесі",
        -9.73101172564488
      ],
      [
        "▁даярлау",
        -9.731269914195046
      ],
      [
        "▁өйткені",
        -9.73172076411512
      ],
      [
        "▁қалды",
        -9.732666942262565
      ],
      [
        "▁төменгі",
        -9.733058484027953
      ],
      [
        "до",
        -9.7331595696635
      ],
      [
        "▁дана",
        -9.733411380255074
      ],
      [
        "▁сату",
        -9.733989139240977
      ],
      [
        "▁ерекшеліктері",
        -9.734109743020207
      ],
      [
        "▁Дене",
        -9.734623286237731
      ],
      [
        "▁пайдалана",
        -9.734877612625265
      ],
      [
        "▁Әрбір",
        -9.735755363725183
      ],
      [
        "▁Серік",
        -9.73652506979601
      ],
      [
        "ing",
        -9.736567203938158
      ],
      [
        "▁З",
        -9.73717072774493
      ],
      [
        "▁еңбегі",
        -9.73719345082457
      ],
      [
        "▁мамандары",
        -9.7375362002057
      ],
      [
        "▁(фото)",
        -9.737659542306872
      ],
      [
        "▁талқылау",
        -9.738452167342114
      ],
      [
        "дарға",
        -9.738542927945328
      ],
      [
        "▁шетел",
        -9.738667529007316
      ],
      [
        "▁инвестиция",
        -9.738844445198684
      ],
      [
        "ең",
        -9.739624523921485
      ],
      [
        "▁түсіп",
        -9.739645066236717
      ],
      [
        "▁боксшы",
        -9.740989039525713
      ],
      [
        "▁Ресейдің",
        -9.741040435060366
      ],
      [
        "▁Алматы,",
        -9.741064906014962
      ],
      [
        "▁ауру",
        -9.741261661272173
      ],
      [
        "ду",
        -9.741356801995106
      ],
      [
        "▁теңіз",
        -9.741485083586781
      ],
      [
        "▁Азаматтық",
        -9.741925363957819
      ],
      [
        "терге",
        -9.741955892119936
      ],
      [
        "▁Шара",
        -9.743198913793577
      ],
      [
        "▁кешені",
        -9.743311446361844
      ],
      [
        "▁математика",
        -9.743328485589434
      ],
      [
        "▁сұрақтары",
        -9.74351947531336
      ],
      [
        "се,",
        -9.743722616722719
      ],
      [
        "▁жөн.",
        -9.74381129061781
      ],
      [
        "▁әдістері",
        -9.744885089616261
      ],
      [
        "▁сау",
        -9.745017217738386
      ],
      [
        "▁V",
        -9.745038179285375
      ],
      [
        "▁коды",
        -9.745198938146732
      ],
      [
        "▁жерден",
        -9.74582799938872
      ],
      [
        "gi",
        -9.74593824446248
      ],
      [
        "▁жасай",
        -9.745965564781368
      ],
      [
        "▁Бар",
        -9.746069470729513
      ],
      [
        "▁болды,",
        -9.746832818383007
      ],
      [
        "▁мәселені",
        -9.747153719726292
      ],
      [
        "▁байланысты.",
        -9.747245184162088
      ],
      [
        "тал",
        -9.747461352070921
      ],
      [
        "▁арнап",
        -9.747871508290594
      ],
      [
        "▁кітапхана",
        -9.747895074169264
      ],
      [
        "▁қылмыс",
        -9.74801805627603
      ],
      [
        "тi",
        -9.748178944525623
      ],
      [
        "▁ұрпақ",
        -9.748973484743079
      ],
      [
        "▁Жергілікті",
        -9.749075728305609
      ],
      [
        "▁уәкілетті",
        -9.749247390596512
      ],
      [
        "▁тау",
        -9.74926890677563
      ],
      [
        "▁құралы",
        -9.749439384678286
      ],
      [
        "▁қолдануға",
        -9.74976295840325
      ],
      [
        "d",
        -9.75010234045406
      ],
      [
        "▁алдына",
        -9.750600539851991
      ],
      [
        "шық",
        -9.75068128675176
      ],
      [
        "100",
        -9.750811380924361
      ],
      [
        "▁бағамдары",
        -9.750855618640575
      ],
      [
        "го",
        -9.751306640489684
      ],
      [
        "▁неше",
        -9.751769848511158
      ],
      [
        "▁қойды.",
        -9.75181554462661
      ],
      [
        "▁мүше",
        -9.751955415123518
      ],
      [
        "▁қосылған",
        -9.752782868578159
      ],
      [
        "▁жүргізуші",
        -9.752832116735192
      ],
      [
        "▁болғанын",
        -9.75291662193655
      ],
      [
        "▁тамақ",
        -9.753052935599744
      ],
      [
        "▁өзгерту",
        -9.753156933017136
      ],
      [
        "▁жинау",
        -9.753325634412466
      ],
      [
        "▁2008",
        -9.753402796829654
      ],
      [
        "▁(19",
        -9.753462387636466
      ],
      [
        "▁қызыл",
        -9.753483297590297
      ],
      [
        "▁Электронды",
        -9.75429897935753
      ],
      [
        "▁Өскемен",
        -9.754384985558254
      ],
      [
        "▁мәселелерін",
        -9.754626583087921
      ],
      [
        "▁себепті",
        -9.754811343996664
      ],
      [
        "ларына",
        -9.754841113674146
      ],
      [
        "▁тәуелсіздік",
        -9.755573009638455
      ],
      [
        "▁ата-ана",
        -9.755609690185345
      ],
      [
        "▁Жолдауы",
        -9.755752134111201
      ],
      [
        "▁34",
        -9.75642822302841
      ],
      [
        "▁сынды",
        -9.75648017219401
      ],
      [
        "▁Ар",
        -9.756574164614596
      ],
      [
        "▁қызметке",
        -9.757288597169607
      ],
      [
        "▁райы",
        -9.757365279491358
      ],
      [
        "▁келді",
        -9.757780249920048
      ],
      [
        "стан",
        -9.758016673678409
      ],
      [
        "▁арна",
        -9.75845694030885
      ],
      [
        "▁кәсіпкер",
        -9.758697839788146
      ],
      [
        "▁қуат",
        -9.759309161184483
      ],
      [
        "▁ашылды",
        -9.760216991307855
      ],
      [
        "ск",
        -9.760770299162544
      ],
      [
        "▁күнделікті",
        -9.761233853701775
      ],
      [
        "▁қабілеттерін",
        -9.763207877173453
      ],
      [
        "▁көтеру",
        -9.763215169474574
      ],
      [
        "▁бар?",
        -9.763670237743831
      ],
      [
        "▁жасөспірімдер",
        -9.765203809806556
      ],
      [
        "18",
        -9.765341746140338
      ],
      [
        "▁жерлерде",
        -9.765390906139041
      ],
      [
        "▁партия",
        -9.766218063608994
      ],
      [
        "▁тұрғындар",
        -9.766299428609454
      ],
      [
        "▁коммерциялық",
        -9.766644009470351
      ],
      [
        "▁таңы",
        -9.766783198146221
      ],
      [
        "▁автобус",
        -9.767412976127872
      ],
      [
        "▁Ба",
        -9.767841397942663
      ],
      [
        "07",
        -9.767878723880905
      ],
      [
        "▁байқау",
        -9.768079053449927
      ],
      [
        "▁есім",
        -9.76825953543364
      ],
      [
        "▁көп.",
        -9.768342973907405
      ],
      [
        "▁салған",
        -9.768555955543695
      ],
      [
        "бар",
        -9.768748511569894
      ],
      [
        "▁тапқан",
        -9.769005098117606
      ],
      [
        "▁берудің",
        -9.769677262943187
      ],
      [
        "▁Банк",
        -9.76988864884698
      ],
      [
        "▁Үкіметінің",
        -9.771249361941715
      ],
      [
        "▁Міне,",
        -9.771278446265152
      ],
      [
        "▁қауіпсіздігі",
        -9.771434747745484
      ],
      [
        "▁делінген",
        -9.771669028143638
      ],
      [
        "▁сүру",
        -9.771688007592074
      ],
      [
        "дерді",
        -9.771791768764032
      ],
      [
        "▁Себебі,",
        -9.771805230366223
      ],
      [
        "▁музыка",
        -9.771919821883152
      ],
      [
        "Яғни,",
        -9.772024404056754
      ],
      [
        "▁азық-түлік",
        -9.77251304221152
      ],
      [
        "▁жаттығу",
        -9.772535949290658
      ],
      [
        "z",
        -9.77263196588161
      ],
      [
        "мін",
        -9.772879018220905
      ],
      [
        "re",
        -9.773041146527905
      ],
      [
        "▁құрмет",
        -9.773127436912208
      ],
      [
        "▁ескі",
        -9.77342491494786
      ],
      [
        "тін",
        -9.773670105268465
      ],
      [
        "▁Елімізде",
        -9.773836153897035
      ],
      [
        "▁Қосымша",
        -9.773906599709122
      ],
      [
        "▁ананың",
        -9.773936583474926
      ],
      [
        "сен",
        -9.774691942667825
      ],
      [
        "▁әдеби",
        -9.774932821883151
      ],
      [
        "▁орталығы»",
        -9.77525661725444
      ],
      [
        "▁министрінің",
        -9.775528206958803
      ],
      [
        "▁қорғалған",
        -9.776998222228979
      ],
      [
        "▁қола",
        -9.777628737313377
      ],
      [
        "▁ұйымдастыруымен",
        -9.77908155121036
      ],
      [
        "еді.",
        -9.77933572205089
      ],
      [
        "▁айыппұл",
        -9.779727499403887
      ],
      [
        "▁түркі",
        -9.78003698487463
      ],
      [
        "▁елі",
        -9.78013102892804
      ],
      [
        "▁тұлғаның",
        -9.780174367789742
      ],
      [
        "▁2007",
        -9.780714587437648
      ],
      [
        "▁дәрігер",
        -9.781072902418476
      ],
      [
        "▁партиясы",
        -9.781275521098028
      ],
      [
        "▁шарт",
        -9.781728800697218
      ],
      [
        "▁жазба",
        -9.7837086811248
      ],
      [
        "▁«Б",
        -9.784322820055056
      ],
      [
        "V",
        -9.784795560745327
      ],
      [
        "▁бойында",
        -9.7849514873832
      ],
      [
        "▁мәлім",
        -9.785244950509703
      ],
      [
        "▁туристік",
        -9.786025338372474
      ],
      [
        "▁пән",
        -9.786443232417561
      ],
      [
        "▁беру.",
        -9.78665764568563
      ],
      [
        "▁институты",
        -9.786680206005352
      ],
      [
        "▁қарыз",
        -9.786877565500586
      ],
      [
        "▁ме",
        -9.787056255966654
      ],
      [
        "▁по",
        -9.78721656376817
      ],
      [
        "▁Cтратегия",
        -9.787494561051055
      ],
      [
        "▁жаппай",
        -9.78756081630217
      ],
      [
        "▁ойлап",
        -9.78798033267536
      ],
      [
        "▁Скачать",
        -9.788674026840377
      ],
      [
        "▁ақыл",
        -9.788698599797497
      ],
      [
        "▁қалып",
        -9.788787657876036
      ],
      [
        "M",
        -9.788892901578468
      ],
      [
        "▁мәдениеті",
        -9.789034142542336
      ],
      [
        "▁шығарма",
        -9.789391571024135
      ],
      [
        "▁Ақтау",
        -9.789521506426892
      ],
      [
        "▁шағым",
        -9.790234663935486
      ],
      [
        "▁өсіп",
        -9.790467267933378
      ],
      [
        "▁қатаң",
        -9.790543562429697
      ],
      [
        "▁елде",
        -9.790799981211952
      ],
      [
        "▁есептеу",
        -9.790828719299409
      ],
      [
        "деу",
        -9.791226732612136
      ],
      [
        "▁мекеме",
        -9.791347519957998
      ],
      [
        "▁күміс",
        -9.791838130650742
      ],
      [
        "▁округ",
        -9.792353343987656
      ],
      [
        "қызметкерлерінің",
        -9.792692286317266
      ],
      [
        "бі",
        -9.792832378347015
      ],
      [
        "▁сәулет",
        -9.793137737524614
      ],
      [
        "▁дербес",
        -9.793399922752904
      ],
      [
        "Алдағы",
        -9.793506218563223
      ],
      [
        "▁негізін",
        -9.793941726187398
      ],
      [
        "▁Қа",
        -9.794853023764183
      ],
      [
        "05",
        -9.794927046825125
      ],
      [
        "▁жолында",
        -9.795099997159731
      ],
      [
        "▁технологиялық",
        -9.795309935995931
      ],
      [
        "▁Бос",
        -9.796014635977365
      ],
      [
        "сақ",
        -9.796432429616843
      ],
      [
        "бақ",
        -9.796620575854782
      ],
      [
        "▁акционерлік",
        -9.796653462672731
      ],
      [
        "▁8.",
        -9.797072005173483
      ],
      [
        "▁сомасы",
        -9.79734732358973
      ],
      [
        "ци",
        -9.797570476425214
      ],
      [
        "▁осылай",
        -9.797670805649542
      ],
      [
        "лар,",
        -9.798059104661409
      ],
      [
        "▁Бауыржан",
        -9.798187522337772
      ],
      [
        "▁қабілетті",
        -9.798712247249103
      ],
      [
        "▁аласыз.",
        -9.798739780002558
      ],
      [
        "50",
        -9.798757145204085
      ],
      [
        "▁тілінен",
        -9.799003891694118
      ],
      [
        "▁махаббат",
        -9.79906803040511
      ],
      [
        "▁жұмысына",
        -9.79925581307474
      ],
      [
        "▁нәтиже",
        -9.799330057421834
      ],
      [
        "11",
        -9.799929280965287
      ],
      [
        "▁құпия",
        -9.800258952891753
      ],
      [
        "▁жарнама",
        -9.8004840790555
      ],
      [
        "▁Орыс",
        -9.801309216297515
      ],
      [
        "▁жағдайын",
        -9.801997395780479
      ],
      [
        "▁K",
        -9.80227519625913
      ],
      [
        "▁Ақпарат",
        -9.802283911695035
      ],
      [
        "ңіз",
        -9.802877158578422
      ],
      [
        "▁БҰҰ",
        -9.80322340603742
      ],
      [
        "▁үйінде",
        -9.803524904849606
      ],
      [
        "▁көзделген",
        -9.80368669132403
      ],
      [
        "▁коммуникациялар",
        -9.804219579465434
      ],
      [
        "▁күтіп",
        -9.80431563309406
      ],
      [
        "шілік",
        -9.804596713907841
      ],
      [
        "▁мыңға",
        -9.805317799968108
      ],
      [
        "▁Өйткені,",
        -9.805831658014007
      ],
      [
        "▁Баспасөз",
        -9.806020901181343
      ],
      [
        "▁технологияларды",
        -9.806298378170137
      ],
      [
        "▁Қандай",
        -9.806366679455234
      ],
      [
        "▁жастардың",
        -9.806619738627127
      ],
      [
        "▁мұрағат",
        -9.807001655007461
      ],
      [
        "▁табысты",
        -9.80749271157865
      ],
      [
        "▁ішіндегі",
        -9.807529567703085
      ],
      [
        "▁адамдарды",
        -9.808067028776321
      ],
      [
        "▁жүргізіледі.",
        -9.808295082893206
      ],
      [
        "▁гүл",
        -9.809522021793939
      ],
      [
        "▁төтенше",
        -9.8103965254627
      ],
      [
        "▁қолданылатын",
        -9.81042985264251
      ],
      [
        "▁жүру",
        -9.810660713282783
      ],
      [
        "▁Иран",
        -9.811051867469345
      ],
      [
        "▁Тарих",
        -9.811134281753006
      ],
      [
        "▁түс",
        -9.81119962762001
      ],
      [
        "тор",
        -9.811625172496917
      ],
      [
        "▁үйге",
        -9.812454735627476
      ],
      [
        "▁меңгерушісі",
        -9.812635268156328
      ],
      [
        "▁шабуыл",
        -9.8132831817084
      ],
      [
        "▁Төтенше",
        -9.813380865777926
      ],
      [
        "▁қыркүйекте",
        -9.81356618429464
      ],
      [
        "▁саяхат",
        -9.813898390010225
      ],
      [
        "▁айлық",
        -9.814709863380276
      ],
      [
        "инг",
        -9.815150553315956
      ],
      [
        "▁дамыту,",
        -9.815324486562796
      ],
      [
        "▁компаниясының",
        -9.816127477434943
      ],
      [
        "▁жұмыстарды",
        -9.816252344920402
      ],
      [
        "▁+",
        -9.817647250314346
      ],
      [
        "9",
        -9.818022304150514
      ],
      [
        "40",
        -9.818133308131943
      ],
      [
        "▁ұстап",
        -9.818250208548793
      ],
      [
        "▁аймақ",
        -9.81845734308219
      ],
      [
        "▁келі",
        -9.81855226173705
      ],
      [
        "▁қызметтің",
        -9.818875868753526
      ],
      [
        "▁а)",
        -9.818964114076051
      ],
      [
        "▁сараптама",
        -9.819105160716116
      ],
      [
        "▁кіреді.",
        -9.819165260456781
      ],
      [
        "▁аппараты",
        -9.81917351663241
      ],
      [
        "▁сәтті",
        -9.819699785952743
      ],
      [
        "▁сілтемелер",
        -9.820178674912047
      ],
      [
        "▁Әйел",
        -9.820965322194402
      ],
      [
        "▁алдыңғы",
        -9.82128151986246
      ],
      [
        "▁тарату",
        -9.821378175083673
      ],
      [
        "▁болмаған",
        -9.821514401936655
      ],
      [
        "▁мекен",
        -9.821535326958905
      ],
      [
        "ндегі",
        -9.821731791002382
      ],
      [
        "▁ғарыш",
        -9.821736053224402
      ],
      [
        "▁таң",
        -9.82183967476018
      ],
      [
        "▁қызметкерлер",
        -9.821918131999556
      ],
      [
        "во",
        -9.822169724420407
      ],
      [
        "ar",
        -9.822260260552934
      ],
      [
        "▁Салық",
        -9.822829520188499
      ],
      [
        "▁жүргізіліп",
        -9.822873512328021
      ],
      [
        "лерін",
        -9.823631462534872
      ],
      [
        "in",
        -9.82480656279337
      ],
      [
        "14",
        -9.825221609731614
      ],
      [
        "T",
        -9.82538484281729
      ],
      [
        "▁негіздері",
        -9.825633711663574
      ],
      [
        "изм",
        -9.826551129737048
      ],
      [
        "▁Жақсы",
        -9.826583511110908
      ],
      [
        "▁ғой",
        -9.826775580916971
      ],
      [
        "▁На",
        -9.827402741000597
      ],
      [
        "▁қашан",
        -9.827557212713122
      ],
      [
        "▁байқауы",
        -9.82764267147069
      ],
      [
        "-ке",
        -9.827861808473916
      ],
      [
        "▁Шымкентте",
        -9.828644231938416
      ],
      [
        "▁педагог",
        -9.828736570043091
      ],
      [
        "▁жыр",
        -9.828946065314867
      ],
      [
        "▁суға",
        -9.829339411559545
      ],
      [
        "▁анық",
        -9.82966324931634
      ],
      [
        "▁технологиясы",
        -9.830037825392516
      ],
      [
        "▁ем",
        -9.830093365101904
      ],
      [
        "▁тапсырыс",
        -9.830211546090162
      ],
      [
        "▁содан",
        -9.83026594929954
      ],
      [
        "▁түсу",
        -9.83171472537297
      ],
      [
        "ов,",
        -9.832696443109189
      ],
      [
        "▁мұсылман",
        -9.833578466114512
      ],
      [
        "▁бақ",
        -9.833974745527154
      ],
      [
        "▁жүретін",
        -9.83445183740286
      ],
      [
        "▁істейді.",
        -9.834892533778653
      ],
      [
        "▁ескере",
        -9.835218487945895
      ],
      [
        "▁міндет",
        -9.835450659411876
      ],
      [
        "▁Ерлан",
        -9.835574424315567
      ],
      [
        "▁нығайту",
        -9.835589683404098
      ],
      [
        "▁алдындағы",
        -9.835792717970069
      ],
      [
        "▁енгізілген",
        -9.836542954108618
      ],
      [
        "ков",
        -9.836763654582764
      ],
      [
        "at",
        -9.83710303671003
      ],
      [
        "▁Д.",
        -9.837701594459606
      ],
      [
        "▁беруші",
        -9.838310990990792
      ],
      [
        "▁NUR.KZ",
        -9.838394904177932
      ],
      [
        "▁шаруа",
        -9.838575521128973
      ],
      [
        "▁«Рухани",
        -9.838704682530889
      ],
      [
        "24",
        -9.838832509326277
      ],
      [
        "іс",
        -9.840004055829443
      ],
      [
        "▁көрсете",
        -9.840244994632062
      ],
      [
        "▁Қылмыстық",
        -9.840261614170984
      ],
      [
        "▁жалақы",
        -9.840693405775713
      ],
      [
        "▁No2",
        -9.841052878083008
      ],
      [
        "▁ұйымының",
        -9.841779378740979
      ],
      [
        "▁Туған",
        -9.843117640933315
      ],
      [
        "▁тарихын",
        -9.843223260146845
      ],
      [
        "▁материал",
        -9.84324382168322
      ],
      [
        "▁солай",
        -9.843320995418468
      ],
      [
        "13",
        -9.843503556597984
      ],
      [
        "▁\"Қазақстан",
        -9.843697121947134
      ],
      [
        "▁өнімдерін",
        -9.843703986419365
      ],
      [
        "▁«Ж",
        -9.844524087080135
      ],
      [
        "→",
        -9.84496377744065
      ],
      [
        "▁Нұртас",
        -9.845409773274381
      ],
      [
        "▁дала",
        -9.845423045930122
      ],
      [
        "▁салмағы",
        -9.845878363776908
      ],
      [
        "ыш",
        -9.846846558850029
      ],
      [
        "▁Және",
        -9.847066203132576
      ],
      [
        "мды",
        -9.847153417512196
      ],
      [
        "▁Осыдан",
        -9.84742186754138
      ],
      [
        "▁театр",
        -9.848148080441685
      ],
      [
        "▁аймақтық",
        -9.848576241888145
      ],
      [
        "Х",
        -9.848598025990663
      ],
      [
        "▁теориялық",
        -9.849630879139523
      ],
      [
        "▁аппараты»",
        -9.85004335566823
      ],
      [
        "▁төрағасының",
        -9.850279103449747
      ],
      [
        "▁Би",
        -9.850979556703521
      ],
      [
        "▁үйлестіру",
        -9.851124283160331
      ],
      [
        "▁сұрау",
        -9.85118373261638
      ],
      [
        "Атап",
        -9.851501360221913
      ],
      [
        "▁кішкентай",
        -9.852042879774157
      ],
      [
        "▁қару",
        -9.852253279069416
      ],
      [
        "▁Бағдарлама",
        -9.852447908436751
      ],
      [
        "▁2000",
        -9.852658786559918
      ],
      [
        "▁санын",
        -9.852696429567096
      ],
      [
        "▁орындарының",
        -9.852891052404447
      ],
      [
        "▁міндеті",
        -9.852898725694544
      ],
      [
        "▁толы",
        -9.853041239251056
      ],
      [
        "▁барып,",
        -9.853435259434107
      ],
      [
        "▁ғасыр",
        -9.853698047195916
      ],
      [
        "▁шығыс",
        -9.854072573837716
      ],
      [
        "ӘНЕ",
        -9.854636585689274
      ],
      [
        "▁жекпе-жек",
        -9.854676619096495
      ],
      [
        "▁аппаратының",
        -9.855306037809674
      ],
      [
        "▁айтуға",
        -9.855512534401974
      ],
      [
        "▁міндеттері",
        -9.855665980682959
      ],
      [
        "▁жасайтын",
        -9.856185127923112
      ],
      [
        "▁«Алтын",
        -9.85649176709218
      ],
      [
        "▁жүректен",
        -9.85656599350797
      ],
      [
        "P",
        -9.857135368763185
      ],
      [
        "▁Қыз",
        -9.857999280865368
      ],
      [
        "▁асыратын",
        -9.858110617103705
      ],
      [
        "▁кетіп",
        -9.858239026924508
      ],
      [
        "▁33",
        -9.858687875863552
      ],
      [
        "▁қоғамы",
        -9.858720793899082
      ],
      [
        "іп,",
        -9.858851350490323
      ],
      [
        "▁Қанат",
        -9.85938973203174
      ],
      [
        "сер",
        -9.859630552530902
      ],
      [
        "ез",
        -9.859801119407628
      ],
      [
        "A",
        -9.860173275773162
      ],
      [
        "▁ұзындығы",
        -9.860261503017867
      ],
      [
        "▁ар",
        -9.860424782131352
      ],
      [
        "▁жалған",
        -9.860698936219226
      ],
      [
        "▁белгілі.",
        -9.861048851021856
      ],
      [
        "▁бағдарламасына",
        -9.861112309991327
      ],
      [
        "▁өмірге",
        -9.86130131520783
      ],
      [
        "▁бел",
        -9.861984689265554
      ],
      [
        "▁36",
        -9.862084697764905
      ],
      [
        "▁бір-біріне",
        -9.862597464089554
      ],
      [
        "▁есебі",
        -9.86262700135786
      ],
      [
        "▁Құрылыс",
        -9.862715852279258
      ],
      [
        "▁елдердің",
        -9.862986172331725
      ],
      [
        "терінің",
        -9.863438388800457
      ],
      [
        "▁құрал",
        -9.863878092266397
      ],
      [
        "▁бақытты",
        -9.864282774081204
      ],
      [
        "от",
        -9.864497458536281
      ],
      [
        "▁республика",
        -9.86464908192536
      ],
      [
        "▁тапсырмасын",
        -9.864673605543043
      ],
      [
        "▁кезеңінде",
        -9.864825763551934
      ],
      [
        "шілер",
        -9.865260664668963
      ],
      [
        "▁мұнда",
        -9.865851280954443
      ],
      [
        "▁бокс",
        -9.86591743213723
      ],
      [
        "G",
        -9.866383009920593
      ],
      [
        "▁жара",
        -9.866701904842987
      ],
      [
        "▁факультеті",
        -9.866818779010265
      ],
      [
        "▁көрсеткен",
        -9.866938609149436
      ],
      [
        "ғыш",
        -9.867756128905008
      ],
      [
        "▁тұра",
        -9.867838390779308
      ],
      [
        ".com",
        -9.867873785211174
      ],
      [
        "▁ұсынған",
        -9.867881928042653
      ],
      [
        "▁тілек",
        -9.868260144031344
      ],
      [
        "ул",
        -9.86839884815253
      ],
      [
        "▁Астананың",
        -9.868936469025108
      ],
      [
        "▁айтарлықтай",
        -9.869249016018756
      ],
      [
        "▁со",
        -9.870235031298108
      ],
      [
        "▁2006",
        -9.870349501877925
      ],
      [
        "▁кеше",
        -9.870384435251118
      ],
      [
        "▁алмасу",
        -9.870403036911002
      ],
      [
        "▁желтоқсандағы",
        -9.871019240418615
      ],
      [
        "▁жағдайларда",
        -9.871332369496598
      ],
      [
        "▁Оқиға",
        -9.871500799267302
      ],
      [
        "▁отырмыз.",
        -9.872041257443655
      ],
      [
        "▁география",
        -9.872791872262965
      ],
      [
        "▁құқықтар",
        -9.873765386612762
      ],
      [
        "бас",
        -9.873783506181482
      ],
      [
        "▁дыбыс",
        -9.875083090451685
      ],
      [
        "▁тірі",
        -9.875146866451033
      ],
      [
        "▁жарты",
        -9.875351987301183
      ],
      [
        "▁ІІД",
        -9.875720843112116
      ],
      [
        "-2",
        -9.87613343838444
      ],
      [
        "▁Қай",
        -9.876404978882249
      ],
      [
        "▁ерекшелігі",
        -9.876405893631125
      ],
      [
        "▁қатынас",
        -9.876975087559044
      ],
      [
        "▁қоғамдық-саяси",
        -9.877497044977833
      ],
      [
        "оз",
        -9.878325784220788
      ],
      [
        "▁жасы",
        -9.879344346315072
      ],
      [
        "▁білетін",
        -9.879541496843975
      ],
      [
        "K",
        -9.879703393020478
      ],
      [
        "маған",
        -9.879712647999316
      ],
      [
        "гу",
        -9.879810958444182
      ],
      [
        "▁болатынын",
        -9.880473394261315
      ],
      [
        "▁тұру",
        -9.881341624216205
      ],
      [
        "▁тіршілік",
        -9.88149646160847
      ],
      [
        "▁желтоқсанда",
        -9.881594909389811
      ],
      [
        "▁басталды",
        -9.881707176746058
      ],
      [
        "▁әдебиеттер",
        -9.88185094010872
      ],
      [
        "▁от",
        -9.88205961964079
      ],
      [
        "▁аталатын",
        -9.882519882329852
      ],
      [
        "▁өнеркәсіп",
        -9.883330372423035
      ],
      [
        "▁Мұхтар",
        -9.883804757226528
      ],
      [
        "▁тапты",
        -9.88460766334299
      ],
      [
        "▁қазына",
        -9.88461501615774
      ],
      [
        "06",
        -9.884751301260549
      ],
      [
        "▁фильм",
        -9.884885648215901
      ],
      [
        "▁кен",
        -9.885243872734094
      ],
      [
        "▁Конкурс",
        -9.885794661177565
      ],
      [
        "▁уақытқа",
        -9.885861133043235
      ],
      [
        "▁саласының",
        -9.885973310233359
      ],
      [
        "ed",
        -9.88610618714375
      ],
      [
        "▁әкесі",
        -9.886388279061851
      ],
      [
        "▁білікті",
        -9.88678815600322
      ],
      [
        "▁ҚАЗАҚСТАН",
        -9.886876409449961
      ],
      [
        "▁саған",
        -9.887619528305185
      ],
      [
        "▁Бақытжан",
        -9.888343681000435
      ],
      [
        "▁аман",
        -9.888447118320338
      ],
      [
        "▁ғалым",
        -9.888450769521892
      ],
      [
        "▁етіп,",
        -9.888693636852064
      ],
      [
        "▁тілінің",
        -9.889019893493721
      ],
      [
        "▁арада",
        -9.889143679782293
      ],
      [
        "▁Отбасы",
        -9.889423412026352
      ],
      [
        "▁жұмыстың",
        -9.889450252251294
      ],
      [
        "▁жұмысының",
        -9.889513419363272
      ],
      [
        "▁www.",
        -9.889892795439144
      ],
      [
        "ғын",
        -9.890841596135067
      ],
      [
        "ис",
        -9.89098256652673
      ],
      [
        "▁дарынды",
        -9.89102362749033
      ],
      [
        "▁E",
        -9.8935143032718
      ],
      [
        "▁ашылды.",
        -9.893632061666178
      ],
      [
        "▁сыйақы",
        -9.89406932530019
      ],
      [
        "▁іріктеу",
        -9.89411388668486
      ],
      [
        "▁ата-аналар",
        -9.894117905429791
      ],
      [
        "▁ұйымдастырылған",
        -9.894147002569559
      ],
      [
        "▁ұстау",
        -9.894286074890601
      ],
      [
        "▁сөздер:",
        -9.894691931810819
      ],
      [
        "мин",
        -9.89469983052049
      ],
      [
        "▁жағдайында",
        -9.894987032943414
      ],
      [
        "ология",
        -9.895177906348788
      ],
      [
        "▁акциясы",
        -9.895539009188587
      ],
      [
        "▁өңір",
        -9.895953152439297
      ],
      [
        "▁Зерттеу",
        -9.896620629144316
      ],
      [
        "▁Басқарма",
        -9.896736743013545
      ],
      [
        "▁есептер",
        -9.896928553798242
      ],
      [
        "▁көрсетіп",
        -9.897263415275436
      ],
      [
        "▁қауіп",
        -9.897425720769835
      ],
      [
        "▁облысындағы",
        -9.897434130811831
      ],
      [
        "ус",
        -9.897482953209133
      ],
      [
        "▁Қазақтың",
        -9.897590975745924
      ],
      [
        "▁мазмұнын",
        -9.898380860422566
      ],
      [
        "▁сын",
        -9.898682713241875
      ],
      [
        "▁Жа",
        -9.899982162975542
      ],
      [
        "▁ескерту",
        -9.901321874266635
      ],
      [
        "▁қызық",
        -9.901966325675978
      ],
      [
        "ок",
        -9.901974920073695
      ],
      [
        "▁жобаларды",
        -9.902481743722424
      ],
      [
        "▁тиімділігін",
        -9.902880827542926
      ],
      [
        "▁қатысушы",
        -9.90345153531596
      ],
      [
        "▁мекемесінің",
        -9.903521576408213
      ],
      [
        "пақ",
        -9.90358897116075
      ],
      [
        "▁«Астана»",
        -9.903985245046062
      ],
      [
        "▁Алаш",
        -9.904466271595819
      ],
      [
        "СЫ",
        -9.904540244805794
      ],
      [
        "▁«Ақ",
        -9.904603698125504
      ],
      [
        "▁Астанаға",
        -9.904932665421033
      ],
      [
        "▁(фр",
        -9.904945914327511
      ],
      [
        "▁Алдыңғы",
        -9.905399684501223
      ],
      [
        "тты",
        -9.905411633516652
      ],
      [
        "▁сөздік",
        -9.906086651425586
      ],
      [
        "дiң",
        -9.906322726769513
      ],
      [
        "▁құс",
        -9.907337565763306
      ],
      [
        "▁ұқсас",
        -9.907375818240194
      ],
      [
        "▁Интернет",
        -9.907401258897863
      ],
      [
        "▁мамандық",
        -9.907731513726873
      ],
      [
        "▁оқушыларға",
        -9.909419170520607
      ],
      [
        "▁Қырғызстан",
        -9.909730847969293
      ],
      [
        "▁негізделген",
        -9.910239433849465
      ],
      [
        "▁олимпиада",
        -9.911275356696994
      ],
      [
        "▁шығарып",
        -9.911403487335242
      ],
      [
        "▁барған",
        -9.911483842906403
      ],
      [
        "▁нысан",
        -9.912078550506283
      ],
      [
        "▁ағаш",
        -9.91242503794044
      ],
      [
        "▁түрі:",
        -9.912721623866137
      ],
      [
        "▁нұсқасы",
        -9.912819402539405
      ],
      [
        "к.",
        -9.912909499895573
      ],
      [
        "▁Алланың",
        -9.91300627492049
      ],
      [
        "▁қаралды",
        -9.913145969611143
      ],
      [
        "▁медаль",
        -9.913438828268877
      ],
      [
        "▁рас",
        -9.913947705935875
      ],
      [
        "▁Ағылшын",
        -9.914270880784272
      ],
      [
        "▁мәслихатының",
        -9.914563984643078
      ],
      [
        "▁Алғыс",
        -9.914903275670351
      ],
      [
        "▁мониторинг",
        -9.914966762534082
      ],
      [
        "▁Корея",
        -9.915065595835955
      ],
      [
        "із",
        -9.915085968016411
      ],
      [
        "▁Тәуелсіздігі",
        -9.915721531357587
      ],
      [
        "▁Естеріңіз",
        -9.916207854589457
      ],
      [
        "▁ақпараттар",
        -9.916977990866549
      ],
      [
        "▁осыған",
        -9.917699847933964
      ],
      [
        "▁артып",
        -9.917872352249738
      ],
      [
        "▁талаптар",
        -9.917893325938737
      ],
      [
        "▁ұялы",
        -9.918712654496534
      ],
      [
        "▁Тұрғын",
        -9.918875927068179
      ],
      [
        "08",
        -9.918966978066656
      ],
      [
        "▁Дегенмен,",
        -9.91964211531554
      ],
      [
        "тқан",
        -9.919706766742475
      ],
      [
        "▁болмаса",
        -9.920326230876235
      ],
      [
        "▁жар",
        -9.921250607247725
      ],
      [
        "▁қоңырау",
        -9.921426470986525
      ],
      [
        "▁ашып",
        -9.9215263898498
      ],
      [
        "▁басталған",
        -9.921632997837039
      ],
      [
        "леп",
        -9.922338868758644
      ],
      [
        "▁басталады.",
        -9.922556475630719
      ],
      [
        "▁авторы",
        -9.922710515241539
      ],
      [
        "▁тағайындалды",
        -9.922869232041588
      ],
      [
        "сың",
        -9.923595121121286
      ],
      [
        "▁қорының",
        -9.924461025494029
      ],
      [
        "▁Авторлық",
        -9.924626418514194
      ],
      [
        "▁автокөлік",
        -9.924911671476718
      ],
      [
        "▁жаңарту",
        -9.925585227990414
      ],
      [
        "▁бөлінген",
        -9.925736304875105
      ],
      [
        "пи",
        -9.925783474494787
      ],
      [
        "▁қате",
        -9.926166299646116
      ],
      [
        "▁Республика",
        -9.926378055844172
      ],
      [
        "▁қалады.",
        -9.927163667318638
      ],
      [
        "мет",
        -9.927540216276972
      ],
      [
        "▁т.б.)",
        -9.927667614928112
      ],
      [
        "▁Электрондық",
        -9.92770968021329
      ],
      [
        "▁кафедрасының",
        -9.927963670186042
      ],
      [
        "лігін",
        -9.928105241519262
      ],
      [
        "▁ойыны",
        -9.928305566924852
      ],
      [
        "▁әдіс",
        -9.92913325668353
      ],
      [
        "▁жол»",
        -9.929165193432151
      ],
      [
        "лет",
        -9.929200872548648
      ],
      [
        "лады.",
        -9.92944887353925
      ],
      [
        "ий",
        -9.930273335818821
      ],
      [
        "▁болсақ,",
        -9.930620015427953
      ],
      [
        "▁дағдыларын",
        -9.93067487272764
      ],
      [
        "▁Қызыл",
        -9.9306969106094
      ],
      [
        "▁сұхбат",
        -9.931526812536653
      ],
      [
        "▁құрайтын",
        -9.931889654649378
      ],
      [
        "▁жылдам",
        -9.93214852354738
      ],
      [
        "▁салып,",
        -9.932865220529614
      ],
      [
        "▁мәселесін",
        -9.932964806631874
      ],
      [
        "▁елдер",
        -9.93352631079554
      ],
      [
        "▁2005",
        -9.933619143672146
      ],
      [
        "▁жау",
        -9.933898767145173
      ],
      [
        "шылардың",
        -9.933956995330693
      ],
      [
        "▁Көкшетау",
        -9.934704041761442
      ],
      [
        "b",
        -9.934831629039248
      ],
      [
        "h",
        -9.93497483588548
      ],
      [
        "▁ми",
        -9.93507677899205
      ],
      [
        "▁музыкалық",
        -9.935084617988583
      ],
      [
        "▁құтты",
        -9.935580591993656
      ],
      [
        "▁шыға",
        -9.93572253015543
      ],
      [
        "ымыздың",
        -9.935817769681433
      ],
      [
        "гi",
        -9.93597475798984
      ],
      [
        "▁көтеріп",
        -9.93602784589673
      ],
      [
        "▁білген",
        -9.936459859858694
      ],
      [
        "ur",
        -9.936723651619456
      ],
      [
        "▁қарастыру",
        -9.937527119895545
      ],
      [
        "or",
        -9.937634075155692
      ],
      [
        "%-ға",
        -9.937760937025567
      ],
      [
        "▁қалыптасқан",
        -9.938299055746475
      ],
      [
        "▁химиялық",
        -9.938338396247971
      ],
      [
        "▁табылған",
        -9.938766905933281
      ],
      [
        "▁физика",
        -9.938883039103631
      ],
      [
        "u",
        -9.939073799882706
      ],
      [
        "▁Тегін",
        -9.940312241231087
      ],
      [
        "▁тұрғысынан",
        -9.940513899106238
      ],
      [
        "▁салмақ",
        -9.940525460021753
      ],
      [
        "▁білімін",
        -9.94060016935832
      ],
      [
        "▁елінің",
        -9.940711967396993
      ],
      [
        "▁жануарлар",
        -9.941203000767871
      ],
      [
        "рек",
        -9.941367511597129
      ],
      [
        "▁класс",
        -9.941602063213908
      ],
      [
        "▁машина",
        -9.942664811778638
      ],
      [
        "▁жарақат",
        -9.942673495359212
      ],
      [
        "▁газет",
        -9.942682556853164
      ],
      [
        "▁қ.,",
        -9.942717178434744
      ],
      [
        "▁қолданысқа",
        -9.943039816178462
      ],
      [
        "▁тәртіп",
        -9.94424873560095
      ],
      [
        "▁б",
        -9.944422456980583
      ],
      [
        "▁іскерлік",
        -9.944918457728896
      ],
      [
        "теп",
        -9.94507022260818
      ],
      [
        "▁сөйлем",
        -9.945502461639741
      ],
      [
        "▁аяқталған",
        -9.945881523229385
      ],
      [
        "▁ШҚО",
        -9.946337568213252
      ],
      [
        "▁2019",
        -9.946462978723375
      ],
      [
        "▁сыр",
        -9.94672801951279
      ],
      [
        "▁қызығушылығын",
        -9.946778151644875
      ],
      [
        "ве",
        -9.947140306865576
      ],
      [
        "▁ресейлік",
        -9.94794655058779
      ],
      [
        "▁2001",
        -9.948539227212752
      ],
      [
        "▁құқығын",
        -9.948664675245693
      ],
      [
        "▁сабаққа",
        -9.949048316893727
      ],
      [
        "ги",
        -9.9498636968064
      ],
      [
        "іңізді",
        -9.95003127618433
      ],
      [
        "▁хабарлама",
        -9.950370348118875
      ],
      [
        "Ұ",
        -9.950422544114335
      ],
      [
        "▁ОҚО",
        -9.951004071399218
      ],
      [
        "▁тиесілі",
        -9.951126287349762
      ],
      [
        "▁па",
        -9.95141082388097
      ],
      [
        "▁о",
        -9.951872866700198
      ],
      [
        "▁қолданылады.",
        -9.952183656949606
      ],
      [
        "▁ислам",
        -9.952830790483713
      ],
      [
        "тон",
        -9.95300113308762
      ],
      [
        "▁бағдар:",
        -9.953100312900096
      ],
      [
        "▁атқаратын",
        -9.953248498409282
      ],
      [
        "▁сайтына",
        -9.953464460238271
      ],
      [
        "▁Ақтөбеде",
        -9.953686812232409
      ],
      [
        "▁институтының",
        -9.953819762946253
      ],
      [
        "▁құрайды",
        -9.954107240510867
      ],
      [
        "ын,",
        -9.95417623344974
      ],
      [
        "ран",
        -9.954911162977256
      ],
      [
        "▁балабақша",
        -9.955160198403838
      ],
      [
        "▁ауданындағы",
        -9.955272296528175
      ],
      [
        "▁ете",
        -9.95566776175834
      ],
      [
        "дерге",
        -9.955725621969798
      ],
      [
        "▁Баян",
        -9.955976896768444
      ],
      [
        "▁орай,",
        -9.956503736901636
      ],
      [
        "▁нағыз",
        -9.956519742411217
      ],
      [
        "▁органның",
        -9.956935961233944
      ],
      [
        "▁өтіп,",
        -9.957821538408151
      ],
      [
        "▁бөліп",
        -9.95786826238928
      ],
      [
        "ңды",
        -9.958439854662714
      ],
      [
        "▁есеге",
        -9.95873593484988
      ],
      [
        "▁оқып,",
        -9.959821474173795
      ],
      [
        "▁төртінші",
        -9.960102459045377
      ],
      [
        "▁Биылғы",
        -9.960234834470373
      ],
      [
        "▁Медициналық",
        -9.960446516656596
      ],
      [
        "▁Италия",
        -9.960511093648702
      ],
      [
        "▁сұрақтарға",
        -9.960666738174188
      ],
      [
        "▁__",
        -9.960668975579221
      ],
      [
        "▁ұйымдастырылды.",
        -9.96096011990392
      ],
      [
        "▁кепілдік",
        -9.961148933103848
      ],
      [
        "02",
        -9.961636498636732
      ],
      [
        "сіне",
        -9.961873973368814
      ],
      [
        "▁All",
        -9.96224757802063
      ],
      [
        "▁өзгеріс",
        -9.963271452235553
      ],
      [
        "▁http://www.",
        -9.96366758893025
      ],
      [
        "!!!",
        -9.963676156284844
      ],
      [
        "▁бөлек,",
        -9.964141809710389
      ],
      [
        "an",
        -9.96416383883447
      ],
      [
        "▁5)",
        -9.964312798099847
      ],
      [
        "▁тауарлар",
        -9.964642327869836
      ],
      [
        "▁Жалпы,",
        -9.964971126888024
      ],
      [
        "▁жыл.",
        -9.965419541023072
      ],
      [
        "▁«Нұрлы",
        -9.966175908260233
      ],
      [
        "гүл",
        -9.966491681338152
      ],
      [
        "▁Хабар",
        -9.966846397070373
      ],
      [
        "▁сөзді",
        -9.96704725716721
      ],
      [
        "C",
        -9.967279931532552
      ],
      [
        "▁өсуі",
        -9.967741990893067
      ],
      [
        "▁іздеп",
        -9.968026073189424
      ],
      [
        "F",
        -9.968061738890185
      ],
      [
        "▁рөлі",
        -9.96818391755459
      ],
      [
        "▁керектігін",
        -9.968358994528554
      ],
      [
        "▁маусымда",
        -9.969026896651636
      ],
      [
        "▁туралы\"",
        -9.969145315482283
      ],
      [
        "▁сақтап",
        -9.969621350201521
      ],
      [
        "ыз",
        -9.96979897112422
      ],
      [
        "▁алуы",
        -9.969897943590798
      ],
      [
        "▁аудару",
        -9.970083446094492
      ],
      [
        "▁бірлігі",
        -9.970110994942992
      ],
      [
        "▁сақтауға",
        -9.970686243849567
      ],
      [
        "жар",
        -9.970739679219832
      ],
      [
        "▁мәтін",
        -9.970771188075586
      ],
      [
        "▁асып",
        -9.970860080326698
      ],
      [
        "▁жүйесіне",
        -9.97098426836397
      ],
      [
        "▁іс-шара",
        -9.971262604482686
      ],
      [
        "▁алма",
        -9.971276280900415
      ],
      [
        "▁150",
        -9.971312156674303
      ],
      [
        "▁жоспарын",
        -9.971403879999022
      ],
      [
        "▁Мал",
        -9.97173933034816
      ],
      [
        "▁елдері",
        -9.972226260373963
      ],
      [
        "▁ауруханаға",
        -9.97241555426856
      ],
      [
        "▁жазды",
        -9.97265526295022
      ],
      [
        "▁W",
        -9.973201583701254
      ],
      [
        "▁бұдан",
        -9.973203808303893
      ],
      [
        "▁оқы",
        -9.973347001658514
      ],
      [
        "▁талаптарына",
        -9.97338146522354
      ],
      [
        "▁атқару",
        -9.97355877637583
      ],
      [
        "▁азаматтарды",
        -9.974294344489092
      ],
      [
        "▁негізінен",
        -9.974328340566927
      ],
      [
        "▁Абылай",
        -9.974576953866967
      ],
      [
        "▁аумақтық",
        -9.97477201103705
      ],
      [
        "бекова",
        -9.974925618787516
      ],
      [
        "▁қатарында",
        -9.975043737735891
      ],
      [
        "дерін",
        -9.975376866689109
      ],
      [
        "▁сал",
        -9.975387619488172
      ],
      [
        "▁басына",
        -9.975421476057607
      ],
      [
        "ур",
        -9.975523001648014
      ],
      [
        "▁депутаты",
        -9.975647309522637
      ],
      [
        "▁май",
        -9.97570943990517
      ],
      [
        "▁сандық",
        -9.975821148928702
      ],
      [
        "▁ғылыми-зерттеу",
        -9.97638489631807
      ],
      [
        "ры",
        -9.976491557153697
      ],
      [
        "▁жоспарлары",
        -9.976698117693818
      ],
      [
        "▁сонда",
        -9.977832434521877
      ],
      [
        "▁жүргізілген",
        -9.978173655463952
      ],
      [
        "-қа",
        -9.9785029557784
      ],
      [
        "▁аудит",
        -9.978788558713298
      ],
      [
        "▁(немесе)",
        -9.978871843713263
      ],
      [
        "▁алуды",
        -9.979297321199784
      ],
      [
        "00",
        -9.979889502931126
      ],
      [
        "▁етті",
        -9.980031355203312
      ],
      [
        "▁сандар",
        -9.980658361797452
      ],
      [
        "▁бойына",
        -9.98159409542912
      ],
      [
        "▁әнін",
        -9.981627154005409
      ],
      [
        "▁көмір",
        -9.981802682568183
      ],
      [
        "ил",
        -9.98194697747686
      ],
      [
        "теу",
        -9.982305102009335
      ],
      [
        "▁аталады.",
        -9.982335555648342
      ],
      [
        "▁оқыған",
        -9.982363491644193
      ],
      [
        "▁барысы",
        -9.98260891893852
      ],
      [
        "▁бөлігінде",
        -9.983312528619095
      ],
      [
        "▁облыстың",
        -9.983475366384857
      ],
      [
        "лей",
        -9.983660202544408
      ],
      [
        "▁күшті",
        -9.98448253054053
      ],
      [
        "▁тағайындау",
        -9.984679646579785
      ],
      [
        "▁азайту",
        -9.984749393439586
      ],
      [
        "▁Денис",
        -9.985094412414227
      ],
      [
        "-ші",
        -9.985502284721276
      ],
      [
        "тыр",
        -9.98553689472675
      ],
      [
        "▁қаласына",
        -9.985663899966465
      ],
      [
        "▁жүзінде",
        -9.985728198591925
      ],
      [
        "▁Сөз",
        -9.985871853526476
      ],
      [
        "ский",
        -9.98665953475809
      ],
      [
        "▁дәрігерлер",
        -9.98667944267796
      ],
      [
        "лек",
        -9.98709479819701
      ],
      [
        "ви",
        -9.987743367501139
      ],
      [
        "ті.",
        -9.987940170358693
      ],
      [
        "▁колледж",
        -9.988085839699057
      ],
      [
        "▁Г.",
        -9.988633820934947
      ],
      [
        "ымызға",
        -9.988704593735925
      ],
      [
        "▁ойындары",
        -9.988757698706845
      ],
      [
        "▁қатысы",
        -9.989205016929764
      ],
      [
        "▁сөздерді",
        -9.989232193891812
      ],
      [
        "▁біліктілігін",
        -9.989462970515845
      ],
      [
        "-да",
        -9.989695422304521
      ],
      [
        "майды.",
        -9.989745392520177
      ],
      [
        "▁белгісі",
        -9.989750233316332
      ],
      [
        "▁концерт",
        -9.989835783625953
      ],
      [
        "де.",
        -9.990257333666463
      ],
      [
        "лин",
        -9.99060234767111
      ],
      [
        "▁Қоршаған",
        -9.990843824616361
      ],
      [
        "▁арттыруға",
        -9.991396750906407
      ],
      [
        "▁1-",
        -9.991415114782667
      ],
      [
        "▁талай",
        -9.992337093998419
      ],
      [
        "еу",
        -9.992814554419365
      ],
      [
        "сай",
        -9.993027695351914
      ],
      [
        "▁ядролық",
        -9.993071073256381
      ],
      [
        "▁секс",
        -9.993082345217847
      ],
      [
        "жай",
        -9.993451141067684
      ],
      [
        "▁жаз",
        -9.993857692212167
      ],
      [
        "▁Өнер",
        -9.994330365293834
      ],
      [
        "▁жасыл",
        -9.994363540291314
      ],
      [
        "▁Ұстаздарға",
        -9.994393576606052
      ],
      [
        "жа",
        -9.994554781137584
      ],
      [
        "цифрлық",
        -9.995079372774907
      ],
      [
        "▁ұл",
        -9.996327661303766
      ],
      [
        "▁теориясы",
        -9.996388887774902
      ],
      [
        "▁насихаттау",
        -9.996400065552859
      ],
      [
        "▁толықтай",
        -9.996519733251677
      ],
      [
        "▁жартылай",
        -9.996692822101238
      ],
      [
        "іміздің",
        -9.996878670945442
      ],
      [
        "▁астанасы",
        -9.996925315739297
      ],
      [
        "▁Дін",
        -9.997415323601684
      ],
      [
        "▁көше",
        -9.997621988369492
      ],
      [
        "▁оқытудың",
        -9.997750704590588
      ],
      [
        "▁жауаптар",
        -9.998008631273576
      ],
      [
        "▁бірлесе",
        -9.998769467272636
      ],
      [
        "▁түрін",
        -9.99901298828038
      ],
      [
        "▁сондай-ақ,",
        -9.999331199976435
      ],
      [
        "▁болуына",
        -9.999488931969136
      ],
      [
        "▁кәсіпорындар",
        -9.999558380587235
      ],
      [
        "ика",
        -9.999582697397013
      ],
      [
        "лікті",
        -10.000308050340342
      ],
      [
        "▁ТУРАЛЫ",
        -10.0003142352912
      ],
      [
        "▁компаниялар",
        -10.000367233163916
      ],
      [
        "▁есімді",
        -10.000799204648597
      ],
      [
        "▁Қор",
        -10.00093774455307
      ],
      [
        "000",
        -10.000990816950345
      ],
      [
        "▁кедергі",
        -10.001304509009726
      ],
      [
        "▁айда",
        -10.001417607137721
      ],
      [
        "▁аралас",
        -10.00214577975428
      ],
      [
        "▁үйіне",
        -10.002274939438877
      ],
      [
        "▁барша",
        -10.002331528479106
      ],
      [
        "▁кг",
        -10.002540476104926
      ],
      [
        "▁жауапкершілік",
        -10.002556841554918
      ],
      [
        "▁оқ",
        -10.002683510473812
      ],
      [
        "▁кездеседі.",
        -10.003323200296798
      ],
      [
        "фи",
        -10.003416286680277
      ],
      [
        "мер",
        -10.003738058563219
      ],
      [
        "▁негіз",
        -10.003803296136859
      ],
      [
        "▁тур",
        -10.003821508769963
      ],
      [
        "ұр",
        -10.003860001374091
      ],
      [
        "ана",
        -10.003940503505474
      ],
      [
        "▁асты",
        -10.004286512752659
      ],
      [
        "on",
        -10.004349739117776
      ],
      [
        "лерге",
        -10.004443117067002
      ],
      [
        "▁елдерінің",
        -10.004492543353702
      ],
      [
        "▁кездегі",
        -10.004571551873877
      ],
      [
        "▁бөлінеді.",
        -10.004791735223959
      ],
      [
        "▁оқулық",
[...]
