{
  "version": "1.0",
  "truncation": null,
  "padding": null,
  "added_tokens": [
    {
      "id": 0,
      "content": "[UNK]",
      "single_word": false,
      "lstrip": false,
      "rstrip": false,
      "normalized": false,
      "special": true
    },
    {
      "id": 1,
      "content": "[CLS]",
      "single_word": false,
      "lstrip": false,
      "rstrip": false,
      "normalized": false,
      "special": true
    },
    {
      "id": 2,
      "content": "[SEP]",
      "single_word": false,
      "lstrip": false,
      "rstrip": false,
      "normalized": false,
      "special": true
    },
    {
      "id": 3,
      "content": "[PAD]",
      "single_word": false,
      "lstrip": false,
      "rstrip": false,
      "normalized": false,
      "special": true
    },
    {
      "id": 4,
      "content": "[MASK]",
      "single_word": false,
      "lstrip": false,
      "rstrip": false,
      "normalized": false,
      "special": true
    }
  ],
  "normalizer": {
    "type": "Sequence",
    "normalizers": [
      {
        "type": "Nmt"
      },
      {
        "type": "NFKC"
      },
      {
        "type": "Replace",
        "pattern": {
          "Regex": " {2,}"
        },
        "content": " "
      }
    ]
  },
  "pre_tokenizer": {
    "type": "Metaspace",
    "replacement": "▁",
    "prepend_scheme": "always",
    "split": true
  },
  "post_processor": null,
  "decoder": {
    "type": "Metaspace",
    "replacement": "▁",
    "prepend_scheme": "always",
    "split": true
  },
  "model": {
    "type": "Unigram",
    "unk_id": 0,
    "vocab": [
      [
        "[UNK]",
        0.0
      ],
      [
        "[CLS]",
        0.0
      ],
      [
        "[SEP]",
        0.0
      ],
      [
        "[PAD]",
        0.0
      ],
      [
        "[MASK]",
        0.0
      ],
      [
        "▁",
        -2.5085705281813784
      ],
      [
        ",",
        -4.000974850552753
      ],
      [
        "의",
        -4.244629044085622
      ],
      [
        "을",
        -4.5358879069949545
      ],
      [
        "에",
        -4.7226878545084485
      ],
      [
        "이",
        -4.767396447060012
      ],
      [
        "를",
        -4.898181614271843
      ],
      [
        "는",
        -4.902791452286406
      ],
      [
        "가",
        -4.958497388569812
      ],
      [
        "은",
        -5.173443101540842
      ],
      [
        "▁수",
        -5.317546280233067
      ],
      [
        "도",
        -5.336052082869578
      ],
      [
        ")",
        -5.366097795414573
      ],
      [
        ".",
        -5.488724510458951
      ],
      [
        "(",
        -5.591661829275001
      ],
      [
        "과",
        -5.592392613695186
      ],
      [
        "로",
        -5.602115568286504
      ],
      [
        "에서",
        -5.736530419356642
      ],
      [
        "한",
        -5.77401406266736
      ],
      [
        "와",
        -5.8778631232628555
      ],
      [
        "으로",
        -5.965281023371823
      ],
      [
        "지",
        -5.9904852289021875
      ],
      [
        "고",
        -6.033246164126394
      ],
      [
        "인",
        -6.041245588999587
      ],
      [
        "▁이",
        -6.066146943804416
      ],
      [
        "▁있는",
        -6.082152804138882
      ],
      [
        "...",
        -6.119163113726593
      ],
      [
        "▁‘",
        -6.134671002334091
      ],
      [
        "▁-",
        -6.168415688571786
      ],
      [
        "▁그",
        -6.2158649988886605
      ],
      [
        "▁및",
        -6.244165628381529
      ],
      [
        "]",
        -6.262463012374273
      ],
      [
        "▁있다.",
        -6.31156168023063
      ],
      [
        "하는",
        -6.314935546438335
      ],
      [
        "기",
        -6.317130643110138
      ],
      [
        "▁'",
        -6.329649291047872
      ],
      [
        "▁[",
        -6.345750433052368
      ],
      [
        "▁있습니다.",
        -6.350858497728591
      ],
      [
        "할",
        -6.380985267485544
      ],
      [
        "만",
        -6.4696228813835575
      ],
      [
        "서",
        -6.476615431704822
      ],
      [
        "하고",
        -6.47905061336469
      ],
      [
        "'",
        -6.48905923334819
      ],
      [
        "▁한",
        -6.493283982028048
      ],
      [
        "/",
        -6.557095533488626
      ],
      [
        "▁:",
        -6.575782053031432
      ],
      [
        "해",
        -6.60291431387601
      ],
      [
        "시",
        -6.6679606754150615
      ],
      [
        "▁“",
        -6.677397413815385
      ],
      [
        "▁등",
        -6.690781585762442
      ],
      [
        "▁(",
        -6.691209460338721
      ],
      [
        "게",
        -6.69500697317371
      ],
      [
        "’",
        -6.708805930096437
      ],
      [
        ":",
        -6.709488006740623
      ],
      [
        "나",
        -6.713195405294227
      ],
      [
        "-",
        -6.724104461966649
      ],
      [
        "된",
        -6.753427157271156
      ],
      [
        "▁\"",
        -6.784951844948784
      ],
      [
        "다.",
        -6.785679738898045
      ],
      [
        "자",
        -6.788469924542447
      ],
      [
        "▁더",
        -6.801914613876459
      ],
      [
        "▁대한",
        -6.811206750721915
      ],
      [
        "▁...",
        -6.855254912089151
      ],
      [
        "·",
        -6.878221778561093
      ],
      [
        "수",
        -6.879005232170529
      ],
      [
        "입니다.",
        -6.917294503117073
      ],
      [
        "!",
        -6.939116213336263
      ],
      [
        "▁1",
        -6.959478637478666
      ],
      [
        "..",
        -6.969076394964443
      ],
      [
        "▁전",
        -6.979120093396098
      ],
      [
        "▁#",
        -6.984835065369159
      ],
      [
        "적",
        -7.028891421185271
      ],
      [
        "▁_",
        -7.041150255286132
      ],
      [
        "어",
        -7.049018560825928
      ],
      [
        "▁할",
        -7.058401655891075
      ],
      [
        "사",
        -7.0758114231941445
      ],
      [
        "까지",
        -7.077494816299382
      ],
      [
        "다",
        -7.0879686112348
      ],
      [
        "▁것",
        -7.08876925377192
      ],
      [
        "스",
        -7.095474452363604
      ],
      [
        "일",
        -7.101934752066898
      ],
      [
        "하게",
        -7.105192879700001
      ],
      [
        "\"",
        -7.105208623415706
      ],
      [
        "진",
        -7.1071820195416215
      ],
      [
        "▁중",
        -7.1131111395926485
      ],
      [
        "했다.",
        -7.127231924409497
      ],
      [
        "▁경우",
        -7.129818927923399
      ],
      [
        "▁내",
        -7.1529461715099405
      ],
      [
        "▁2",
        -7.159835228214044
      ],
      [
        "▁다른",
        -7.172835766077098
      ],
      [
        "이다.",
        -7.185791861979952
      ],
      [
        "성",
        -7.189389781832851
      ],
      [
        "대",
        -7.1997196562594965
      ],
      [
        "라",
        -7.200510488419853
      ],
      [
        "▁함께",
        -7.211443500255019
      ],
      [
        "▁때",
        -7.212889101666029
      ],
      [
        "▁것이",
        -7.226127162005977
      ],
      [
        "▁잘",
        -7.226403787506586
      ],
      [
        "하여",
        -7.239356555574529
      ],
      [
        "면",
        -7.242864782101327
      ],
      [
        "▁하는",
        -7.2437366167992945
      ],
      [
        "”",
        -7.260600587605065
      ],
      [
        "▁3",
        -7.268644870302804
      ],
      [
        "▁위해",
        -7.270744567555866
      ],
      [
        "▁안",
        -7.2853360660557165
      ],
      [
        "야",
        -7.311220933991908
      ],
      [
        "▁모든",
        -7.3120843618316655
      ],
      [
        "▁가장",
        -7.314932808083675
      ],
      [
        "들이",
        -7.315298842100594
      ],
      [
        "화",
        -7.31997035876727
      ],
      [
        "리",
        -7.321144139659388
      ],
      [
        "▁후",
        -7.327456361418264
      ],
      [
        "▁그리고",
        -7.337417061628493
      ],
      [
        "전",
        -7.354842004315971
      ],
      [
        "▁많은",
        -7.3802395081242125
      ],
      [
        "주",
        -7.387453064168589
      ],
      [
        "하지",
        -7.391709545811199
      ],
      [
        "~",
        -7.398181306050052
      ],
      [
        "▁같은",
        -7.39864934413753
      ],
      [
        "s",
        -7.401129146033107
      ],
      [
        "장",
        -7.401437948525222
      ],
      [
        "▁좋은",
        -7.403134405563749
      ],
      [
        "▁통해",
        -7.405789353221902
      ],
      [
        "에게",
        -7.41520677207909
      ],
      [
        "에는",
        -7.415400796131481
      ],
      [
        "상",
        -7.428449459884419
      ],
      [
        "용",
        -7.431379435196595
      ],
      [
        "?",
        -7.434720234218634
      ],
      [
        "▁것이다.",
        -7.445337369526584
      ],
      [
        "▁H",
        -7.452104476974748
      ],
      [
        "▁정보",
        -7.460288177686429
      ],
      [
        "부",
        -7.474317218061797
      ],
      [
        "▁위한",
        -7.476217357126346
      ],
      [
        "▁한국",
        -7.4771255212686025
      ],
      [
        "▁다",
        -7.478548332027918
      ],
      [
        "▁한다.",
        -7.479174805274889
      ],
      [
        "▁N",
        -7.480907014666887
      ],
      [
        "▁두",
        -7.483353398406678
      ],
      [
        "▁큰",
        -7.483631140152392
      ],
      [
        "비",
        -7.501555284780055
      ],
      [
        "원",
        -7.508758133885218
      ],
      [
        "하기",
        -7.5107380193473645
      ],
      [
        "▁것을",
        -7.514263014435372
      ],
      [
        "▁것은",
        -7.514521915518342
      ],
      [
        "부터",
        -7.519583884788469
      ],
      [
        "합니다.",
        -7.528829055455274
      ],
      [
        "▁없는",
        -7.529834214032254
      ],
      [
        "미",
        -7.549180040140634
      ],
      [
        "적인",
        -7.553517118299737
      ],
      [
        "▁따라",
        -7.555125396894825
      ],
      [
        "아",
        -7.571925938978886
      ],
      [
        "▁또는",
        -7.576525177548941
      ],
      [
        "한다.",
        -7.578730808779799
      ],
      [
        "동",
        -7.580933875027869
      ],
      [
        "▁시",
        -7.591309882014933
      ],
      [
        "이나",
        -7.595163883466194
      ],
      [
        "구",
        -7.595534084714027
      ],
      [
        "선",
        -7.596407660186637
      ],
      [
        "▁많이",
        -7.599098772856031
      ],
      [
        "▁제",
        -7.602127716351504
      ],
      [
        "▁때문에",
        -7.619395170595686
      ],
      [
        "▁우리",
        -7.620448521560526
      ],
      [
        "▁4",
        -7.622077265061407
      ],
      [
        "소",
        -7.624608896125038
      ],
      [
        "하",
        -7.628145253976962
      ],
      [
        "▁서비스",
        -7.639061028276368
      ],
      [
        "신",
        -7.643164471877478
      ],
      [
        "제",
        -7.647903906395953
      ],
      [
        "식",
        -7.66111908114695
      ],
      [
        "▁또",
        -7.662646602280727
      ],
      [
        "세",
        -7.664993102252824
      ],
      [
        "히",
        -7.675247997147103
      ],
      [
        "들",
        -7.677461480992857
      ],
      [
        "▁대해",
        -7.6815148293712685
      ],
      [
        "정",
        -7.685663695433378
      ],
      [
        "▁합니다.",
        -7.687755946503115
      ],
      [
        "조",
        -7.691645786027033
      ],
      [
        "▁호텔",
        -7.694209034781007
      ],
      [
        "보",
        -7.700971376913568
      ],
      [
        "▁어떤",
        -7.720616382447236
      ],
      [
        ">",
        -7.7282245274844925
      ],
      [
        "▁다시",
        -7.728265540923831
      ],
      [
        "▁›",
        -7.729289258322938
      ],
      [
        "▁본",
        -7.730825264418883
      ],
      [
        "▁글",
        -7.7339181809024655
      ],
      [
        "형",
        -7.736566883057323
      ],
      [
        "중",
        -7.743050083141316
      ],
      [
        "▁것으로",
        -7.761506529485398
      ],
      [
        "▁<",
        -7.766656645351512
      ],
      [
        "니",
        -7.7702158762344595
      ],
      [
        "명",
        -7.772109862592858
      ],
      [
        "▁/",
        -7.772179171826183
      ],
      [
        "▁5",
        -7.773857723428055
      ],
      [
        "▁이런",
        -7.779397651332044
      ],
      [
        "2",
        -7.7794719235104495
      ],
      [
        "▁일",
        -7.7842323210483375
      ],
      [
        "▁지난",
        -7.7846783796903605
      ],
      [
        "에서는",
        -7.792919609507042
      ],
      [
        "▁모두",
        -7.800097885772811
      ],
      [
        "마",
        -7.800249115650757
      ],
      [
        "드",
        -7.803335182258612
      ],
      [
        "▁말",
        -7.8044539366884464
      ],
      [
        "▁하지만",
        -7.804474061299182
      ],
      [
        "치",
        -7.807608611424131
      ],
      [
        "산",
        -7.810764279761958
      ],
      [
        "1",
        -7.815011467088686
      ],
      [
        "▁하고",
        -7.816543505004452
      ],
      [
        "▁주",
        -7.817697468922072
      ],
      [
        "우",
        -7.83438298425305
      ],
      [
        "들을",
        -7.834679262516536
      ],
      [
        "들은",
        -7.834802597235779
      ],
      [
        "▁다양한",
        -7.8430389634871265
      ],
      [
        "당",
        -7.846136101212426
      ],
      [
        "▁>",
        -7.847131217035086
      ],
      [
        "년",
        -7.8480254752208225
      ],
      [
        "되는",
        -7.859617970608605
      ],
      [
        "▁1.",
        -7.863037505507181
      ],
      [
        "▁될",
        -7.87063972050762
      ],
      [
        "라고",
        -7.875960599111172
      ],
      [
        "해야",
        -7.876890427659198
      ],
      [
        "실",
        -7.8779228516495685
      ],
      [
        "거",
        -7.886202833607495
      ],
      [
        "보다",
        -7.893494410586735
      ],
      [
        "▁이상",
        -7.8950490054942595
      ],
      [
        "호",
        -7.89801954785548
      ],
      [
        "던",
        -7.898309521230766
      ],
      [
        "차",
        -7.9005901275332135
      ],
      [
        "트",
        -7.902084136896782
      ],
      [
        "오",
        -7.902468485277552
      ],
      [
        "하며",
        -7.907080528888905
      ],
      [
        "▁오",
        -7.911268930843585
      ],
      [
        "▁아",
        -7.927936474941035
      ],
      [
        "라는",
        -7.9297348404343335
      ],
      [
        "▁사용",
        -7.930762667090928
      ],
      [
        "▁미국",
        -7.933123630471018
      ],
      [
        "며",
        -7.936826835545265
      ],
      [
        "▁대",
        -7.938749313316478
      ],
      [
        "▁또한",
        -7.944911883996713
      ],
      [
        "분",
        -7.947248510995493
      ],
      [
        "▁나는",
        -7.959366556408892
      ],
      [
        "해서",
        -7.965956684476039
      ],
      [
        "▁바로",
        -7.971002118552724
      ],
      [
        "단",
        -7.9836840023433915
      ],
      [
        "▁너무",
        -7.992322264488362
      ],
      [
        "▁해",
        -7.99328562160753
      ],
      [
        "될",
        -7.994768928918104
      ],
      [
        "하면",
        -7.995213548482255
      ],
      [
        "▁새로운",
        -7.998885032150826
      ],
      [
        "▁어떻게",
        -7.998963833684135
      ],
      [
        "▁볼",
        -8.005883566239696
      ],
      [
        "3",
        -8.006742452065891
      ],
      [
        "▁아니라",
        -8.008384556678566
      ],
      [
        "▁관련",
        -8.010272299069555
      ],
      [
        "처럼",
        -8.012922984666172
      ],
      [
        "▁현재",
        -8.01525411193424
      ],
      [
        "재",
        -8.016275983673484
      ],
      [
        "되어",
        -8.016399842825736
      ],
      [
        "▁비",
        -8.016949894952617
      ],
      [
        "▁원",
        -8.018042568386155
      ],
      [
        "▁그러나",
        -8.028757676397033
      ],
      [
        "▁있을",
        -8.031040056950303
      ],
      [
        "_",
        -8.033282761221036
      ],
      [
        "▁내가",
        -8.043971772319482
      ],
      [
        "▁미",
        -8.050796719191975
      ],
      [
        "▁사",
        -8.054021073176674
      ],
      [
        "▁그런",
        -8.054921300112651
      ],
      [
        "▁정",
        -8.057132439924011
      ],
      [
        "유",
        -8.059213007478956
      ],
      [
        "▁6",
        -8.062969393494189
      ],
      [
        "▁게임",
        -8.063841831211148
      ],
      [
        "영",
        -8.063910672101379
      ],
      [
        "▁서울",
        -8.064228825847055
      ],
      [
        "적으로",
        -8.06438176644633
      ],
      [
        "여",
        -8.065851447070887
      ],
      [
        "▁정말",
        -8.079578397089234
      ],
      [
        "모",
        -8.084229252648516
      ],
      [
        "▁등을",
        -8.085132847879905
      ],
      [
        "▁김",
        -8.08675974509329
      ],
      [
        "건",
        -8.087000502731637
      ],
      [
        "권",
        -8.08724303753852
      ],
      [
        "▁보기",
        -8.09037746565003
      ],
      [
        "▁이용",
        -8.092785494605847
      ],
      [
        "관",
        -8.096488417819042
      ],
      [
        "안",
        -8.098468001628817
      ],
      [
        "▁저",
        -8.107662570206601
      ],
      [
        "▁않는",
        -8.116302831814217
      ],
      [
        "▁하",
        -8.116923356377857
      ],
      [
        "▁A",
        -8.11943728575552
      ],
      [
        "간",
        -8.123441959121244
      ],
      [
        "경",
        -8.125962945999769
      ],
      [
        "▁신",
        -8.128733235338894
      ],
      [
        "문",
        -8.129104141165582
      ],
      [
        "▁것입니다.",
        -8.12912526854302
      ],
      [
        "타",
        -8.131986227925253
      ],
      [
        "),",
        -8.134901858858953
      ],
      [
        "들의",
        -8.145117517728302
      ],
      [
        "▁최근",
        -8.146082311439777
      ],
      [
        "▁해당",
        -8.147112351273913
      ],
      [
        "▁다음",
        -8.148410699752612
      ],
      [
        "▁세계",
        -8.161877091857326
      ],
      [
        "▁이번",
        -8.162114601793995
      ],
      [
        "▁교육",
        -8.16221586839921
      ],
      [
        "민",
        -8.16715881919147
      ],
      [
        "요",
        -8.169895476603875
      ],
      [
        "▁10",
        -8.17081096178408
      ],
      [
        "질",
        -8.175398883390796
      ],
      [
        "무",
        -8.17619978322684
      ],
      [
        "▁동안",
        -8.17801177561923
      ],
      [
        "점",
        -8.180240529753505
      ],
      [
        "방",
        -8.180429071434855
      ],
      [
        "▁유",
        -8.183843893385927
      ],
      [
        "▁없이",
        -8.184485504473534
      ],
      [
        "▁약",
        -8.186729883990745
      ],
      [
        "내",
        -8.189019727087015
      ],
      [
        "▁좀",
        -8.189096513347307
      ],
      [
        "회",
        -8.189838216387635
      ],
      [
        "란",
        -8.19521385564862
      ],
      [
        "국",
        -8.195937413565659
      ],
      [
        "위",
        -8.196388022674812
      ],
      [
        "▁인터넷",
        -8.197817645708964
      ],
      [
        "▁보고",
        -8.198381758920664
      ],
      [
        "▁이렇게",
        -8.204475356404291
      ],
      [
        "▁the",
        -8.207452275381174
      ],
      [
        "파",
        -8.20968939347317
      ],
      [
        "계",
        -8.210143265691093
      ],
      [
        "법",
        -8.211472440870272
      ],
      [
        "▁C",
        -8.211673986970943
      ],
      [
        "▁지금",
        -8.21183113860984
      ],
      [
        "연",
        -8.219231535179484
      ],
      [
        "▁S",
        -8.225148749499839
      ],
      [
        "▁일본",
        -8.225373584334509
      ],
      [
        "석",
        -8.22544809637738
      ],
      [
        "▁그래서",
        -8.226966115572878
      ],
      [
        "▁첫",
        -8.22786051947264
      ],
      [
        "▁못",
        -8.23075965489966
      ],
      [
        "▁각",
        -8.234438380466605
      ],
      [
        "▁세",
        -8.235452873875769
      ],
      [
        "▁가지고",
        -8.237123258742132
      ],
      [
        "▁위",
        -8.237200419491758
      ],
      [
        "▁이야기",
        -8.241847568206772
      ],
      [
        "▁8",
        -8.242577048718628
      ],
      [
        "▁직접",
        -8.243597826254861
      ],
      [
        "▁날",
        -8.244116645818075
      ],
      [
        "▁시간",
        -8.246829874873319
      ],
      [
        "강",
        -8.24734243751291
      ],
      [
        "물",
        -8.256664225633145
      ],
      [
        "▁7",
        -8.261389029290955
      ],
      [
        "4",
        -8.264157587286745
      ],
      [
        "▁자료",
        -8.26512678037182
      ],
      [
        "▁했다.",
        -8.266308006038562
      ],
      [
        "5",
        -8.266770037920923
      ],
      [
        "이라는",
        -8.267574771447917
      ],
      [
        "▁알",
        -8.268929562345896
      ],
      [
        "종",
        -8.279362743842542
      ],
      [
        "즈",
        -8.282810561881021
      ],
      [
        "▁자신의",
        -8.283752216484128
      ],
      [
        "▁특히",
        -8.28377151726587
      ],
      [
        "카",
        -8.291828607537786
      ],
      [
        "▁이후",
        -8.292088140734814
      ],
      [
        "▁있었다.",
        -8.294843832611715
      ],
      [
        "e",
        -8.295257703184902
      ],
      [
        "▁영화",
        -8.297384679152994
      ],
      [
        "▁나",
        -8.297780394678906
      ],
      [
        "▁되는",
        -8.301021620125693
      ],
      [
        "▁있어",
        -8.303689265140887
      ],
      [
        "노",
        -8.304649352878451
      ],
      [
        "더",
        -8.305127473426591
      ],
      [
        "▁운영",
        -8.305800704054933
      ],
      [
        "▁여러",
        -8.307644196518433
      ],
      [
        "▁우리는",
        -8.30933745907029
      ],
      [
        "디",
        -8.31288494423922
      ],
      [
        "▁지원",
        -8.313766321377587
      ],
      [
        "o",
        -8.313887080470977
      ],
      [
        "▁정도",
        -8.315394641335928
      ],
      [
        "▁총",
        -8.315551980997133
      ],
      [
        "▁관한",
        -8.316469081348465
      ],
      [
        "▁2.",
        -8.317634590965458
      ],
      [
        "학",
        -8.31810760821628
      ],
      [
        "▁지역",
        -8.321009434001805
      ],
      [
        "개",
        -8.322135037065252
      ],
      [
        "이라고",
        -8.322938193280613
      ],
      [
        "▁중국",
        -8.323826596537389
      ],
      [
        "▁같이",
        -8.324358301118233
      ],
      [
        "금",
        -8.328048124899919
      ],
      [
        "▁추가",
        -8.329061096369479
      ],
      [
        "군",
        -8.337132829681448
      ],
      [
        "▁가지",
        -8.33751011866933
      ],
      [
        "▁않은",
        -8.338450268852613
      ],
      [
        "두",
        -8.341186849004727
      ],
      [
        "▁사회",
        -8.343676482669585
      ],
      [
        "▁박",
        -8.34370865261887
      ],
      [
        "▁줄",
        -8.345542601328818
      ],
      [
        "면서",
        -8.347525017150057
      ],
      [
        "▁않고",
        -8.347693315082772
      ],
      [
        "▁분석",
        -8.34826469786296
      ],
      [
        "▁사람이",
        -8.348450718965237
      ],
      [
        "▁제가",
        -8.348625020814454
      ],
      [
        "▁바",
        -8.350325378972785
      ],
      [
        "양",
        -8.352326639138498
      ],
      [
        "러",
        -8.36004526672517
      ],
      [
        "▁시작",
        -8.360875369594993
      ],
      [
        "생",
        -8.361719508170424
      ],
      [
        "▁없다.",
        -8.36587771133148
      ],
      [
        "▁제공",
        -8.368723691847531
      ],
      [
        "▁된다.",
        -8.370681083004307
      ],
      [
        "길",
        -8.375315670475704
      ],
      [
        "레",
        -8.376410094114535
      ],
      [
        "하고,",
        -8.378915864684993
      ],
      [
        "다고",
        -8.38208233893844
      ],
      [
        "▁하나",
        -8.382322392737018
      ],
      [
        "▁건",
        -8.383325851256501
      ],
      [
        "▁사람",
        -8.384330721648661
      ],
      [
        "▁국내",
        -8.384787104227971
      ],
      [
        "▁여행",
        -8.386487658032848
      ],
      [
        "역",
        -8.387180279829687
      ],
      [
        "데",
        -8.388236981839508
      ],
      [
        "▁조",
        -8.388403470958904
      ],
      [
        "▁생각",
        -8.38848626957805
      ],
      [
        "▁자",
        -8.38955129627524
      ],
      [
        "▁없습니다.",
        -8.39157930635286
      ],
      [
        "되고",
        -8.395685702199614
      ],
      [
        "▁확인",
        -8.397311490381004
      ],
      [
        "▁댓글",
        -8.397720666997856
      ],
      [
        "▁몇",
        -8.399349922623703
      ],
      [
        "▁바랍니다.",
        -8.402798318303713
      ],
      [
        "▁내용",
        -8.403544155158423
      ],
      [
        "하면서",
        -8.404284241474196
      ],
      [
        "발",
        -8.407492120234199
      ],
      [
        "▁3.",
        -8.409043999134333
      ],
      [
        "▁*",
        -8.409537758501292
      ],
      [
        "프",
        -8.409905491855278
      ],
      [
        "▁B",
        -8.410517124461265
      ],
      [
        "▁장",
        -8.412635914821397
      ],
      [
        "바",
        -8.414675206435692
      ],
      [
        "▁말했다.",
        -8.415775275195559
      ],
      [
        "▁거",
        -8.416524047827904
      ],
      [
        "▁있다는",
        -8.418266447456643
      ],
      [
        "그",
        -8.421896108544388
      ],
      [
        "d",
        -8.422364959733653
      ],
      [
        "[",
        -8.422600523392392
      ],
      [
        "체",
        -8.423319838399381
      ],
      [
        "▁기타",
        -8.42353506172357
      ],
      [
        "▁등의",
        -8.424752976523965
      ],
      [
        "별",
        -8.425615465804329
      ],
      [
        "공",
        -8.42569316458376
      ],
      [
        "판",
        -8.425708910313196
      ],
      [
        "▁매우",
        -8.42590209250307
      ],
      [
        "▁왜",
        -8.427677200793807
      ],
      [
        "론",
        -8.42770346099016
      ],
      [
        "m",
        -8.428057634883213
      ],
      [
        "현",
        -8.429652045558491
      ],
      [
        "▁사실",
        -8.429675565891616
      ],
      [
        "박",
        -8.432291958823134
      ],
      [
        "▁상품",
        -8.433227306823603
      ],
      [
        "▁9",
        -8.433288192482488
      ],
      [
        "▁꼭",
        -8.433795070291342
      ],
      [
        "티",
        -8.434276017059993
      ],
      [
        "엔",
        -8.440279877108738
      ],
      [
        "▁번",
        -8.441633293671247
      ],
      [
        "▁그는",
        -8.444078380365617
      ],
      [
        "고,",
        -8.446721400832779
      ],
      [
        "감",
        -8.447851864438645
      ],
      [
        "▁무료",
        -8.449374027729096
      ],
      [
        "▁차",
        -8.45032418698384
      ],
      [
        "▁자기",
        -8.450609155585605
      ],
      [
        "▁▲",
        -8.4519852584161
      ],
      [
        "▁구",
        -8.452028742192248
      ],
      [
        "네",
        -8.454758294353905
      ],
      [
        "▁부",
        -8.455129866353833
      ],
      [
        "급",
        -8.456074427917132
      ],
      [
        "▁필요한",
        -8.456855800733665
      ],
      [
        "▁강",
        -8.457092357640915
      ],
      [
        "▁기술",
        -8.457761119156007
      ],
      [
        "초",
        -8.457866015640276
      ],
      [
        "반",
        -8.460868533661417
      ],
      [
        "▁이러한",
        -8.461940504791782
      ],
      [
        "후",
        -8.462021216594504
      ],
      [
        "집",
        -8.463316041035679
      ],
      [
        "▁개발",
        -8.464045911461278
      ],
      [
        "▁진행",
        -8.464066483637717
      ],
      [
        "▁사진",
        -8.465038549285042
      ],
      [
        "르",
        -8.465465132436488
      ],
      [
        "▁됩니다.",
        -8.46597081657139
      ],
      [
        "준",
        -8.466871150961179
      ],
      [
        "▁선",
        -8.4674586047539
      ],
      [
        "▁전체",
        -8.468602033700392
      ],
      [
        "했던",
        -8.469496059932768
      ],
      [
        "▁분",
        -8.470871895519663
      ],
      [
        "▁여성",
        -8.47130853650137
      ],
      [
        "포",
        -8.471647009090049
      ],
      [
        "▁보면",
        -8.474623035195677
      ],
      [
        "▁연구",
        -8.475286782682772
      ],
      [
        "▁계속",
        -8.476468033725114
      ],
      [
        "했습니다.",
        -8.479099521657192
      ],
      [
        "심",
        -8.479599269234809
      ],
      [
        "다는",
        -8.480286912700578
      ],
      [
        "청",
        -8.482302470400633
      ],
      [
        "피",
        -8.484759605896146
      ],
      [
        "▁선택",
        -8.48477564503029
      ],
      [
        "운",
        -8.485697228370121
      ],
      [
        "▁무",
        -8.485955768903336
      ],
      [
        "등",
        -8.486298156425077
      ],
      [
        "승",
        -8.486980759496323
      ],
      [
        "배",
        -8.488876942014477
      ],
      [
        ")의",
        -8.490607388976661
      ],
      [
        "습니다.",
        -8.492621124265357
      ],
      [
        "▁보",
        -8.492757827510223
      ],
      [
        "▁있도록",
        -8.493213933522032
      ],
      [
        "▁이제",
        -8.4960293948601
      ],
      [
        "▁않습니다.",
        -8.497414064924211
      ],
      [
        "▁뒤",
        -8.500005172002393
      ],
      [
        "▁데",
        -8.502477224627274
      ],
      [
        "▁양",
        -8.514116350096572
      ],
      [
        "천",
        -8.515439173781223
      ],
      [
        "에도",
        -8.51587380088839
      ],
      [
        "▁수도",
        -8.51590817211722
      ],
      [
        "교",
        -8.515926124912253
      ],
      [
        "▁기업",
        -8.517045271381281
      ],
      [
        "린",
        -8.5177695375345
      ],
      [
        "▁검색",
        -8.521032187601977
      ],
      [
        "▁우리가",
        -8.5225130989892
      ],
      [
        "▁관리",
        -8.525100368926276
      ],
      [
        "▁새",
        -8.526253400530782
      ],
      [
        "▁그렇게",
        -8.527563514289065
      ],
      [
        "코",
        -8.529560860949358
      ],
      [
        "교육",
        -8.529882086951242
      ],
      [
        "▁문제",
        -8.530361178526562
      ],
      [
        "▁저는",
        -8.533364324226621
      ],
      [
        "▁불",
        -8.533525648177768
      ],
      [
        "남",
        -8.534106040648673
      ],
      [
        "증",
        -8.53459787550831
      ],
      [
        "6",
        -8.535731506476818
      ],
      [
        "▁밝혔다.",
        -8.537875596586334
      ],
      [
        "▁(0)",
        -8.540226467568896
      ],
      [
        "▁추천",
        -8.544981697067204
      ],
      [
        "크",
        -8.545451772270214
      ],
      [
        "7",
        -8.545737064125762
      ],
      [
        "되지",
        -8.546220729143746
      ],
      [
        "▁그런데",
        -8.5462907995118
      ],
      [
        "병",
        -8.547469402934212
      ],
      [
        "행",
        -8.548422916347171
      ],
      [
        "▁반",
        -8.54848338487713
      ],
      [
        "요.",
        -8.549660633661007
      ],
      [
        "▁경제",
        -8.550619347415946
      ],
      [
        "▁이미",
        -8.55303191935356
      ],
      [
        "▁피",
        -8.556466214249621
      ],
      [
        "▁공",
        -8.561690479152343
      ],
      [
        "▁문",
        -8.561742406532707
      ],
      [
        "t",
        -8.56407915667159
      ],
      [
        "임",
        -8.564499437005981
      ],
      [
        "▁오늘",
        -8.566373140025089
      ],
      [
        "온",
        -8.569045941830884
      ],
      [
        "g",
        -8.572772588361524
      ],
      [
        "▁어느",
        -8.573738883495388
      ],
      [
        "▁+",
        -8.575707024422556
      ],
      [
        "▁물론",
        -8.578988907078958
      ],
      [
        "태",
        -8.583297529771357
      ],
      [
        "터",
        -8.58458125581452
      ],
      [
        "▁기자",
        -8.584798320695674
      ],
      [
        "#",
        -8.585747347013083
      ],
      [
        "▁달",
        -8.586007328087735
      ],
      [
        "키",
        -8.588084305881605
      ],
      [
        "▁모",
        -8.588544121752156
      ],
      [
        "▁명",
        -8.589398554937917
      ],
      [
        "▁사람들이",
        -8.589705912156443
      ],
      [
        "▁성",
        -8.591951193847706
      ],
      [
        "▁제품",
        -8.59272445043037
      ],
      [
        "희",
        -8.592972602824421
      ],
      [
        "▁아니",
        -8.597030332433867
      ],
      [
        "▁사업",
        -8.597111255195108
      ],
      [
        "▁만들어",
        -8.597978520085787
      ],
      [
        "▁역시",
        -8.598213315030026
      ],
      [
        "▁최대",
        -8.598935256728103
      ],
      [
        "▁아닌",
        -8.600785145955815
      ],
      [
        "▁방법",
        -8.603494372272849
      ],
      [
        "▁물",
        -8.604232763437864
      ],
      [
        "루",
        -8.605015678554404
      ],
      [
        "▁삭제",
        -8.605718910793184
      ],
      [
        "▁참",
        -8.607779942296045
      ],
      [
        "토",
        -8.610548434498853
      ],
      [
        "▁소",
        -8.615134315450678
      ],
      [
        "▁속",
        -8.61557336512438
      ],
      [
        "▁사이트",
        -8.615915672330349
      ],
      [
        "백",
        -8.61726482454268
      ],
      [
        "▁알고",
        -8.617370900127984
      ],
      [
        "n",
        -8.617877495004606
      ],
      [
        "랑",
        -8.621562117070116
      ],
      [
        "y",
        -8.626522057735494
      ],
      [
        "▁대표",
        -8.630542850312414
      ],
      [
        "▁높은",
        -8.630637537727345
      ],
      [
        "▁중요한",
        -8.63191777981292
      ],
      [
        "▁작은",
        -8.632244464173796
      ],
      [
        "▁재",
        -8.633944230405723
      ],
      [
        ").",
        -8.634108731308524
      ],
      [
        "▁먼저",
        -8.634419917619683
      ],
      [
        "▁더욱",
        -8.636264109803362
      ],
      [
        "통",
        -8.637967737177028
      ],
      [
        "관리",
        -8.638741442962488
      ],
      [
        "려",
        -8.639095654143196
      ],
      [
        "▁&",
        -8.639597168887176
      ],
      [
        "된다.",
        -8.64070740831096
      ],
      [
        "본",
        -8.641446247601873
      ],
      [
        "▁개",
        -8.64169447109608
      ],
      [
        "▁단",
        -8.642643657219098
      ],
      [
        "▁리",
        -8.642865146868173
      ],
      [
        "▁발견",
        -8.643420592110607
      ],
      [
        "▁있다고",
        -8.643795378172541
      ],
      [
        "▁온",
        -8.644894361255501
      ],
      [
        "▁연",
        -8.646193137566069
      ],
      [
        "8",
        -8.647515205878587
      ],
      [
        "지는",
        -8.651227767363133
      ],
      [
        "▁마",
        -8.653877894981566
      ],
      [
        "▁것도",
        -8.654010385548615
      ],
      [
        "c",
        -8.654127226133626
      ],
      [
        "▁19",
        -8.654868866004172
      ],
      [
        "▁프로그램",
        -8.656903557911292
      ],
      [
        "지만",
        -8.657500217268671
      ],
      [
        "▁결과",
        -8.657603156953428
      ],
      [
        "됩니다.",
        -8.657857163270645
      ],
      [
        "▁외",
        -8.658261013939967
      ],
      [
        "▁처음",
        -8.661765058466518
      ],
      [
        "▁회원",
        -8.664178999300766
      ],
      [
        "▁들어",
        -8.665220710714355
      ],
      [
        "▁of",
        -8.66601792229065
      ],
      [
        "9",
        -8.667402447191364
      ],
      [
        "▁국가",
        -8.668981345464292
      ],
      [
        "편",
        -8.669435923089008
      ],
      [
        "정보",
        -8.669555165628655
      ],
      [
        "▁그냥",
        -8.67123305095459
      ],
      [
        "하였다.",
        -8.671358189480426
      ],
      [
        "저",
        -8.672809328360525
      ],
      [
        "▁노",
        -8.674197614809422
      ],
      [
        "▁12",
        -8.674500058491503
      ],
      [
        "▁가족",
        -8.681199485789943
      ],
      [
        "▁18",
        -8.681586530936489
      ],
      [
        "이었다.",
        -8.682136440087138
      ],
      [
        "▁고객",
        -8.682862619261655
      ],
      [
        "▁난",
        -8.686460007506124
      ],
      [
        "이라",
        -8.687802474329768
      ],
      [
        "▁초",
        -8.688778287151914
      ],
      [
        "▁예약",
        -8.689942102137724
      ],
      [
        "였다.",
        -8.69020284138919
      ],
      [
        "류",
        -8.690240598929126
      ],
      [
        "창",
        -8.691861703351162
      ],
      [
        "직",
        -8.695977541013146
      ],
      [
        "▁간",
        -8.698205117625152
      ],
      [
        "▁있으며,",
        -8.698910590038746
      ],
      [
        "+",
        -8.699863392703577
      ],
      [
        "▁방",
        -8.699869083220964
      ],
      [
        "철",
        -8.700060600755041
      ],
      [
        "▁산",
        -8.700115986619362
      ],
      [
        "음",
        -8.702450677775492
      ],
      [
        "번",
        -8.702573487363399
      ],
      [
        "▁이를",
        -8.702584763954526
      ],
      [
        "▁개인",
        -8.702668927791034
      ],
      [
        "▁일이",
        -8.70497640411998
      ],
      [
        "살",
        -8.70970279746363
      ],
      [
        "말",
        -8.71075318941686
      ],
      [
        "▁열",
        -8.71110717696817
      ],
      [
        "님",
        -8.711244475486506
      ],
      [
        "▁하루",
        -8.711870610899595
      ],
      [
        "▁국제",
        -8.712054829562398
      ],
      [
        "▁아주",
        -8.714138714300784
      ],
      [
        "▁등이",
        -8.714386543138998
      ],
      [
        "▁광고",
        -8.715199113364235
      ],
      [
        "▁모바일",
        -8.715588101467613
      ],
      [
        "▁F",
        -8.716609673439798
      ],
      [
        "열",
        -8.716676163956446
      ],
      [
        "▁E",
        -8.716877922018677
      ],
      [
        "ing",
        -8.717282210469255
      ],
      [
        "▁때문이다.",
        -8.717322298349963
      ],
      [
        "▁있어서",
        -8.717792008253967
      ],
      [
        "▁환경",
        -8.718588400118616
      ],
      [
        "▁안내",
        -8.71931852990772
      ],
      [
        "▁생활",
        -8.720261251030841
      ],
      [
        "▁이어",
        -8.720344696994305
      ],
      [
        "▁뉴스",
        -8.722810919255226
      ],
      [
        "▁회사",
        -8.72428173344451
      ],
      [
        "거나",
        -8.72433578014929
      ],
      [
        "▁여자",
        -8.725104347277206
      ],
      [
        "매",
        -8.727960717863585
      ],
      [
        "^^",
        -8.729103471279677
      ],
      [
        "▁가능",
        -8.72937945059152
      ],
      [
        "▁경기",
        -8.731774937227833
      ],
      [
        "복",
        -8.733901124527863
      ],
      [
        "▁11",
        -8.735340336299501
      ],
      [
        "▁결정",
        -8.73542328230726
      ],
      [
        "절",
        -8.735713957262497
      ],
      [
        "▁당시",
        -8.735897610913717
      ],
      [
        "▁평균",
        -8.737018785611866
      ],
      [
        "▁입",
        -8.738507751940904
      ],
      [
        "S",
        -8.740339838259494
      ],
      [
        "▁변경",
        -8.742026947944769
      ],
      [
        "▁20",
        -8.745603436694532
      ],
      [
        "력",
        -8.745954623040443
      ],
      [
        "▁거의",
        -8.74871091988723
      ],
      [
        "▁오후",
        -8.749489758335397
      ],
      [
        "▁되어",
        -8.750909289866911
      ],
      [
        "▁발",
        -8.755504843564248
      ],
      [
        "!!",
        -8.758777764222685
      ],
      [
        "▁공개",
        -8.763074622688423
      ],
      [
        "▁일을",
        -8.763390780410806
      ],
      [
        "▁M",
        -8.7637544137671
      ],
      [
        "▁살",
        -8.766873167992223
      ],
      [
        "▁게시물",
        -8.768036168220158
      ],
      [
        "▁기록",
        -8.76861282781578
      ],
      [
        "▁즉",
        -8.769112049960682
      ],
      [
        "▁아이",
        -8.770775747136396
      ],
      [
        "하거나",
        -8.772203355004716
      ],
      [
        "▁걸",
        -8.774957570046542
      ],
      [
        "▁대통령",
        -8.775051624476873
      ],
      [
        "달",
        -8.775417577104452
      ],
      [
        "▁문의",
        -8.776926479457046
      ],
      [
        "▁조금",
        -8.777674454167489
      ],
      [
        "함",
        -8.778550269060801
      ],
      [
        "p",
        -8.779402604160081
      ],
      [
        "▁상",
        -8.779796136120066
      ],
      [
        "▁시장",
        -8.780670500203414
      ],
      [
        "▁일반",
        -8.781084234133548
      ],
      [
        ")를",
        -8.782155412814394
      ],
      [
        "작",
        -8.782269031022208
      ],
      [
        "▁책",
        -8.783699596936927
      ],
      [
        "▁쉽게",
        -8.788758517557998
      ],
      [
        "▁G",
        -8.790652505680946
      ],
      [
        "업",
        -8.791191866309035
      ],
      [
        "락",
        -8.794738692755871
      ],
      [
        "시간",
        -8.794809388900962
      ],
      [
        "▁개인정보",
        -8.797134070683715
      ],
      [
        "▁설치",
        -8.797871399361131
      ],
      [
        "er",
        -8.79876431840039
      ],
      [
        "▁하지",
        -8.79881660732328
      ],
      [
        "▁있으며",
        -8.798998830220732
      ],
      [
        "▁학교",
        -8.800989134474715
      ],
      [
        "▁–",
        -8.801437473606025
      ],
      [
        "광",
        -8.802873591738404
      ],
      [
        "▁팀",
        -8.80440160291594
      ],
      [
        "▁스포츠",
        -8.805584735029093
      ],
      [
        "▁따른",
        -8.806592507576866
      ],
      [
        "▁남",
        -8.808408421634873
      ],
      [
        "a",
        -8.80928239072978
      ],
      [
        "예",
        -8.812937237250662
      ],
      [
        "▁P",
        -8.813547781476219
      ],
      [
        "림",
        -8.814696965048372
      ],
      [
        "▁동",
        -8.815378619251119
      ],
      [
        "래",
        -8.816369630648676
      ],
      [
        "▁문화",
        -8.816515289800522
      ],
      [
        "&",
        -8.817245910440452
      ],
      [
        "▁참여",
        -8.818061422992235
      ],
      [
        "b",
        -8.81814949062155
      ],
      [
        "▁온라인",
        -8.818162830319242
      ],
      [
        "약",
        -8.820731894319945
      ],
      [
        "▁이벤트",
        -8.821217274462088
      ],
      [
        "▁한번",
        -8.822243995290393
      ],
      [
        "불",
        -8.82390820772833
      ],
      [
        "▁K",
        -8.82433376189319
      ],
      [
        "▁15",
        -8.82444100593553
      ],
      [
        "하며,",
        -8.82502804041005
      ],
      [
        "▁기본",
        -8.825287058352552
      ],
      [
        "순",
        -8.826470473616627
      ],
      [
        "0",
        -8.82833359489716
      ],
      [
        "▁신고",
        -8.828355286709138
      ],
      [
        "▁최",
        -8.829512229339745
      ],
      [
        "▁있고",
        -8.82971866117255
      ],
      [
        "i",
        -8.83147177663177
      ],
      [
        "었다.",
        -8.833103343805082
      ],
      [
        "▁구매",
        -8.83347061863141
      ],
      [
        "▁활동",
        -8.836650416764007
      ],
      [
        "사업",
        -8.837990339903412
      ],
      [
        ")을",
        -8.839051810693045
      ],
      [
        "▁평가",
        -8.841504317582285
      ],
      [
        "▁구성",
        -8.842095464712024
      ],
      [
        "▁발표",
        -8.842149236994246
      ],
      [
        "난",
        -8.842866267927693
      ],
      [
        "▁북한",
        -8.843336780600488
      ],
      [
        "▁받은",
        -8.844556849244157
      ],
      [
        "▁모델",
        -8.844631474666187
      ],
      [
        "게임",
        -8.845354328468309
      ],
      [
        "평",
        -8.850994991374176
      ],
      [
        "▁등록",
        -8.851836937209784
      ],
      [
        "각",
        -8.85250034188871
      ],
      [
        "▁서로",
        -8.852654264897804
      ],
      [
        "▁크게",
        -8.85290797939135
      ],
      [
        "▁의해",
        -8.854326308069162
      ],
      [
        "팀",
        -8.854440927090879
      ],
      [
        "▁예",
        -8.854570191069097
      ],
      [
        "▁필요",
        -8.854966278986076
      ],
      [
        "▁하면",
        -8.857407123552754
      ],
      [
        "▁전에",
        -8.857667006248143
      ],
      [
        "▁판매",
        -8.857728800772707
      ],
      [
        "주의",
        -8.857736291294664
      ],
      [
        "▁해외",
        -8.862019351894272
      ],
      [
        "▁정치",
        -8.865032339513782
      ],
      [
        "▁기능",
        -8.866306338057154
      ],
      [
        "▁가격",
        -8.868427787440044
      ],
      [
        "▁우",
        -8.86857988483022
      ],
      [
        "▁최고",
        -8.868791705698463
      ],
      [
        "근",
        -8.870025775745667
      ],
      [
        "▁올해",
        -8.870283785637955
      ],
      [
        "▁일부",
        -8.871500901996836
      ],
      [
        "있는",
        -8.87150179897564
      ],
      [
        "봉",
        -8.871675915650487
      ],
      [
        "▁T",
        -8.871680580996117
      ],
      [
        "북",
        -8.875828444001915
      ],
      [
        "▁데이터",
        -8.877183652700854
      ],
      [
        "▁남자",
        -8.877551629555406
      ],
      [
        "▁주변",
        -8.87759620778324
      ],
      [
        "▁오는",
        -8.877614749629398
      ],
      [
        "기도",
        -8.877878186807191
      ],
      [
        "▁가능한",
        -8.878240009048543
      ],
      [
        "▁디자인",
        -8.878242070170508
      ],
      [
        "X",
        -8.878795078238547
      ],
      [
        "페이지",
        -8.87908390459813
      ],
      [
        "▁신청",
        -8.879625260902131
      ],
      [
        "▁정책",
        -8.881262164129014
      ],
      [
        "▁a",
        -8.881592951838691
      ],
      [
        "이란",
        -8.884142374671153
      ],
      [
        "A",
        -8.884963699731129
      ],
      [
        "▁배",
        -8.88627085469437
      ],
      [
        "▁주요",
        -8.886417164651569
      ],
      [
        "는데",
        -8.88648465911701
      ],
      [
        "▁않을",
        -8.887534054833415
      ],
      [
        ")는",
        -8.888107032118945
      ],
      [
        "▁생산",
        -8.889009540386233
      ],
      [
        ";",
        -8.889046904303347
      ],
      [
        "▁시스템",
        -8.88972807115924
      ],
      [
        "▁올",
        -8.889985000740868
      ],
      [
        "져",
        -8.892473392106199
      ],
      [
        "▁사랑",
        -8.892789704925686
      ],
      [
        "▁시설",
        -8.893365433354198
      ],
      [
        "글",
        -8.893376727268786
      ],
      [
        "문화",
        -8.895138253976931
      ],
      [
        "표",
        -8.895919036663464
      ],
      [
        "▁갈",
        -8.897855303356806
      ],
      [
        "이며",
        -8.898344477180174
      ],
      [
        "▁있게",
        -8.899081822287744
      ],
      [
        "▁방송",
        -8.899592260176924
      ],
      [
        "목",
        -8.902901002414051
      ],
      [
        "ed",
        -8.903059771953297
      ],
      [
        "▁도시",
        -8.905182833670903
      ],
      [
        "▁아직",
        -8.906362438653666
      ],
      [
        "▁발전",
        -8.906542763143692
      ],
      [
        "든",
        -8.906569067320008
      ],
      [
        "설",
        -8.908385599156786
      ],
      [
        ")에",
        -8.909574289838385
      ],
      [
        "▁해야",
        -8.911252914790206
      ],
      [
        "▁준비",
        -8.911618384718537
      ],
      [
        "▁삼",
        -8.912333720326014
      ],
      [
        "▁4.",
        -8.912468521526188
      ],
      [
        "▁전문",
        -8.91474270862518
      ],
      [
        "in",
        -8.914860991715251
      ],
      [
        "▁브랜드",
        -8.916938166926556
      ],
      [
        "▁당",
        -8.918229175694934
      ],
      [
        "▁D",
        -8.918785582556326
      ],
      [
        "▁문서",
        -8.920819440936924
      ],
      [
        "▁타",
        -8.921419755597437
      ],
      [
        "▁네",
        -8.922391548317162
      ],
      [
        "▁제대로",
        -8.922926364795018
      ],
      [
        "▁결국",
        -8.923367505721739
      ],
      [
        "때",
        -8.925476004881343
      ],
      [
        "▁이동",
        -8.925529565271365
      ],
      [
        "▁역사",
        -8.926549505298233
      ],
      [
        "버",
        -8.926606618178669
      ],
      [
        "대로",
        -8.926709052286558
      ],
      [
        "▁대학",
        -8.926917828670923
      ],
      [
        "▁(주)",
        -8.927173283496625
      ],
      [
        "▁파",
        -8.927553254819912
      ],
      [
        "▁대하여",
        -8.927922471294012
      ],
      [
        "씨",
        -8.929090391894379
      ],
      [
        "▁적용",
        -8.929911616229655
      ],
      [
        "▁성장",
        -8.93055400704998
      ],
      [
        "▁정부",
        -8.93279400646462
      ],
      [
        "▁손",
        -8.933825047243218
      ],
      [
        "▁따라서",
        -8.934146193225196
      ],
      [
        "색",
        -8.9353209014001
      ],
      [
        "▁사용할",
        -8.935364550736457
      ],
      [
        "▁가운데",
        -8.937444654538908
      ],
      [
        "▁조사",
        -8.938670673336155
      ],
      [
        "카지노",
        -8.940035136054576
      ],
      [
        "▁경우에는",
        -8.940131969102412
      ],
      [
        "▁그의",
        -8.940319212657094
      ],
      [
        "B",
        -8.940919609718586
      ],
      [
        "▁^^",
        -8.940961756677845
      ],
      [
        "환",
        -8.942815163654037
      ],
      [
        "▁이유",
        -8.943565791937157
      ],
      [
        "▁집",
        -8.943971157949697
      ],
      [
        "산업",
        -8.944674088707497
      ],
      [
        "▁되지",
        -8.944962608973405
      ],
      [
        "▁문제가",
        -8.945383738300244
      ],
      [
        "▁가진",
        -8.945387373315153
      ],
      [
        "N",
        -8.946948986834617
      ],
      [
        ")은",
        -8.94831677494942
      ],
      [
        "줄",
        -8.949634267581478
      ],
      [
        "▁투자",
        -8.949701854915222
      ],
      [
        "속",
        -8.949898043507744
      ],
      [
        "지역",
        -8.950323656089719
      ],
      [
        "▁말을",
        -8.950437193055297
      ],
      [
        "▁아래",
        -8.952442098640507
      ],
      [
        "▁홈페이지",
        -8.952482294868808
      ],
      [
        "▁얼마나",
        -8.953298426113108
      ],
      [
        "하실",
        -8.955002158822442
      ],
      [
        "▁방문",
        -8.956209333193756
      ],
      [
        "덕",
        -8.957105287032
      ],
      [
        "al",
        -8.958254050534759
      ],
      [
        "▁같다.",
        -8.96010570213373
      ],
      [
        "▁W",
        -8.963421292482577
      ],
      [
        "r",
        -8.963960064775716
      ],
      [
        "=",
        -8.965826424555459
      ],
      [
        "것",
        -8.96686556267312
      ],
      [
        "」",
        -8.966974400675447
      ],
      [
        "W",
        -8.97026533812867
      ],
      [
        "▁개선",
        -8.97140002881773
      ],
      [
        "▁매",
        -8.972570684740454
      ],
      [
        "C",
        -8.973094280190423
      ],
      [
        "▁기사",
        -8.973299594591662
      ],
      [
        "▁실제",
        -8.974864731479446
      ],
      [
        "▁컴퓨터",
        -8.976469316060015
      ],
      [
        "▁도움이",
        -8.976996798580057
      ],
      [
        "▁번째",
        -8.977244252765768
      ],
      [
        "▁언제나",
        -8.977648329849934
      ],
      [
        "▁여",
        -8.978662692255044
      ],
      [
        "릴",
        -8.980875762897087
      ],
      [
        "▁사람은",
        -8.981314137245668
      ],
      [
        "외",
        -8.982632637311813
      ],
      [
        "▁개최",
        -8.98322315852936
      ],
      [
        "▁같습니다.",
        -8.98512907610358
      ],
      [
        "G",
        -8.985259075389813
      ],
      [
        "▁13",
        -8.986849172063113
      ],
      [
        "입",
        -8.989597645404373
      ],
      [
        "사이트",
        -8.990227782872509
      ],
      [
        "▁보는",
        -8.990550069325398
      ],
      [
        "곡",
        -8.991120113884893
      ],
      [
        "▁있기",
        -8.993216475466832
      ],
      [
        "10",
        -8.994450568792839
      ],
      [
        "▁전국",
        -8.99455255229542
      ],
      [
        "기를",
        -8.996275804756978
      ],
      [
        "▁2018",
        -8.996310612842915
      ],
      [
        "▁있고,",
        -8.997191284017894
      ],
      [
        "▁건강",
        -8.997317513784129
      ],
      [
        "▁교회",
        -8.9979929731367
      ],
      [
        "출",
        -8.998107914409712
      ],
      [
        "뉴스",
        -8.998609229752386
      ],
      [
        "▁시즌",
        -8.99872076538114
      ],
      [
        "▁(1)",
        -9.00003270655311
      ],
      [
        "▁운동",
        -9.003687877853288
      ],
      [
        "%",
        -9.003920793012426
      ],
      [
        "▁마지막",
        -9.005176525729848
      ],
      [
        "링",
        -9.006596221016988
      ],
      [
        "▁저작권침해",
        -9.006839059633744
      ],
      [
        "▁음악",
        -9.008108835041696
      ],
      [
        "지도",
        -9.008790696600226
      ],
      [
        "▁보호",
        -9.00978328455457
      ],
      [
        "▁찾아",
        -9.010781508345875
      ],
      [
        "▁시간이",
        -9.011187965311453
      ],
      [
        "▁백",
        -9.011582587954962
      ],
      [
        "▁받고",
        -9.012420356028972
      ],
      [
        "▁감사합니다",
        -9.014849580988866
      ],
      [
        "▁소개",
        -9.014894827354754
      ],
      [
        "▁행사",
        -9.015176433451238
      ],
      [
        "▁위하여",
        -9.016123697967286
      ],
      [
        "▁길",
        -9.016511940677542
      ],
      [
        "▁변화",
        -9.017244871887062
      ],
      [
        "’을",
        -9.017944517013202
      ],
      [
        "▁영상",
        -9.018541332802522
      ],
      [
        "▁자동차",
        -9.018647308840732
      ],
      [
        "▁17",
        -9.01880792682556
      ],
      [
        "도록",
        -9.018858436944221
      ],
      [
        "▁싶은",
        -9.019332107700052
      ],
      [
        "츠",
        -9.020059392829154
      ],
      [
        "▁I",
        -9.020095542289116
      ],
      [
        "▁앞으로",
        -9.021258165169384
      ],
      [
        "▁정보를",
        -9.023336273214213
      ],
      [
        "▁공유",
        -9.023541912720582
      ],
      [
        "▁혹은",
        -9.023617649581706
      ],
      [
        "M",
        -9.02419172518427
      ],
      [
        "망",
        -9.025857646141429
      ],
      [
        "l",
        -9.027084237627491
      ],
      [
        "▁나의",
        -9.027827419695615
      ],
      [
        "됐다.",
        -9.028132417505052
      ],
      [
        "k",
        -9.028728078841933
      ],
      [
        "▁교수",
        -9.02934442906642
      ],
      [
        "▁코",
        -9.029569010039378
      ],
      [
        "▁눈",
        -9.031090400518355
      ],
      [
        "K",
        -9.031495957408673
      ],
      [
        "▁정의",
        -9.032067413453474
      ],
      [
        "하다.",
        -9.032347543961166
      ],
      [
        "▁대한민국",
        -9.032820029898321
      ],
      [
        "▁항상",
        -9.033170437695059
      ],
      [
        "기업",
        -9.033944646267182
      ],
      [
        "T",
        -9.034200515119984
      ],
      [
        "▁카",
        -9.034768342550766
      ],
      [
        "방법",
        -9.037499037368377
      ],
      [
        "▁서비스를",
        -9.038482390196469
      ],
      [
        "▁여기",
        -9.039444697200597
      ],
      [
        "▁기존",
        -9.039700795114925
      ],
      [
        "▁호",
        -9.040629836194032
      ],
      [
        "▁비교",
        -9.040700149553821
      ],
      [
        "▁조직",
        -9.041496595844198
      ],
      [
        "들과",
        -9.04195746776572
      ],
      [
        "▁만든",
        -9.042189369377592
      ],
      [
        "▁처리",
        -9.042776813010994
      ],
      [
        "다가",
        -9.044360044797912
      ],
      [
        "▁16",
        -9.044378329430138
      ],
      [
        ")가",
        -9.04439378428107
      ],
      [
        "▁강화",
        -9.047674531143308
      ],
      [
        "날",
        -9.048759392545632
      ],
      [
        "들에게",
        -9.04952420965906
      ],
      [
        "▁출시",
        -9.050118757864734
      ],
      [
        ")이",
        -9.050574508777313
      ],
      [
        "▁부산",
        -9.05200626677259
      ],
      [
        "▁작품",
        -9.05245856724429
      ],
      [
        "V",
        -9.052700977828165
      ],
      [
        "▁가입",
        -9.053953890858981
      ],
      [
        "메",
        -9.054808242414396
      ],
      [
        "▁가슴",
        -9.054963781453885
      ],
      [
        "x",
        -9.055699191246752
      ],
      [
        "경제",
        -9.056920394485957
      ],
      [
        "층",
        -9.058893075841482
      ],
      [
        "▁대상",
        -9.062639361476359
      ],
      [
        "▁이해",
        -9.063371284154753
      ],
      [
        "h",
        -9.064446772190209
      ],
      [
        "왕",
        -9.06605007583307
      ],
      [
        "▁보다",
        -9.067640623249495
      ],
      [
        "E",
        -9.068661083200888
      ],
      [
        "▁3월",
        -9.068674206449867
      ],
      [
        "▁편",
        -9.068731901509537
      ],
      [
        "▁배우",
        -9.072652457886061
      ],
      [
        "^~^",
        -9.073426837091144
      ],
      [
        "▁마케팅",
        -9.073435569426255
      ],
      [
        "량",
        -9.07400584084989
      ],
      [
        "▁증가",
        -9.076430523639205
      ],
      [
        "령",
        -9.076957724043108
      ],
      [
        "▁인간",
        -9.077078806422897
      ],
      [
        "▁의미",
        -9.077758830619223
      ],
      [
        "▁곳",
        -9.077934338859029
      ],
      [
        "돼",
        -9.078125603059863
      ],
      [
        "▁영",
        -9.078191252720725
      ],
      [
        "▁우리의",
        -9.07882547417466
      ],
      [
        "▁목",
        -9.07943168358868
      ],
      [
        "너",
        -9.080373159509488
      ],
      [
        "향",
        -9.081384944799876
      ],
      [
        "에서도",
        -9.083572844524248
      ],
      [
        "▁블로그",
        -9.084081023805668
      ],
      [
        "센터",
        -9.084568713317704
      ],
      [
        "▁이는",
        -9.085697621727721
      ],
      [
        "▁제작",
        -9.087440102470893
      ],
      [
        "▁되",
        -9.088423031000112
      ],
      [
        "▁주소",
        -9.088855893077437
      ],
      [
        "▁시간을",
        -9.08891001264286
      ],
      [
        "▁설명",
        -9.089643580052208
      ],
      [
        "D",
        -9.090062177870694
      ],
      [
        "▁가는",
        -9.0913096338981
      ],
      [
        "▁위치",
        -9.091780745899063
      ],
      [
        "▁받을",
        -9.092217256438225
      ],
      [
        "▁사고",
        -9.092565783273146
      ],
      [
        "▁결제",
        -9.094098677296113
      ],
      [
        "▁재생",
        -9.094905115072486
      ],
      [
        "▁심",
        -9.095449586042768
      ],
      [
        "대학교",
        -9.096832323426796
      ],
      [
        "퍼",
        -9.097141037516755
      ],
      [
        "없이",
        -9.099629658267293
      ],
      [
        "▁잘보고",
        -9.100189859783642
      ],
      [
        "▁in",
        -9.100203318403778
      ],
      [
        "▁발생",
        -9.100324891048269
      ],
      [
        "▁받아",
        -9.100927391097123
      ],
      [
        "▁분쟁",
        -9.102005676804856
      ],
      [
        "▁이에",
        -9.10346704049772
      ],
      [
        "』",
        -9.104177177102017
      ],
      [
        "▁「",
        -9.105959339053342
      ],
      [
        "▁to",
        -9.10654673600618
      ],
      [
        "▁영어",
        -9.106911707762873
      ],
      [
        "▁아니다.",
        -9.107008745522343
      ],
      [
        "▁▶",
        -9.107621053596521
      ],
      [
        "▁자신이",
        -9.107859740450555
      ],
      [
        "▁기간",
        -9.10844292819913
      ],
      [
        "담",
        -9.109010471788904
      ],
      [
        "▁14",
        -9.109329499192697
      ],
      [
        "했다고",
        -9.110520199995
      ],
      [
        "결",
        -9.110843251306441
      ],
      [
        "월",
        -9.112697668697763
      ],
      [
        "김",
        -9.112928112635991
      ],
      [
        "▁사례",
        -9.113220694981099
      ],
      [
        "▁열린",
        -9.113527825002967
      ],
      [
        "▁이전",
        -9.113830465079769
      ],
      [
        "▁생각이",
        -9.113881792715075
      ],
      [
        "▁이름",
        -9.114156110005545
      ],
      [
        "투",
        -9.114434727031444
      ],
      [
        "▁만큼",
        -9.114594576922805
      ],
      [
        "▁성공",
        -9.115200599620607
      ],
      [
        "애",
        -9.115440549859368
      ],
      [
        "▁중에",
        -9.115930282709716
      ],
      [
        "▁■",
        -9.11701219500577
      ],
      [
        "▁자주",
        -9.117255696070842
      ],
      [
        "탈",
        -9.117586163345653
      ],
      [
        "요소",
        -9.11812114560567
      ],
      [
        "자가",
        -9.119270650585797
      ],
      [
        "▁설정",
        -9.119401156399114
      ],
      [
        "▁산업",
        -9.12102187322408
      ],
      [
        "이며,",
        -9.121317260760463
      ],
      [
        "▁경",
        -9.121414385830327
      ],
      [
        "▁공식",
        -9.122076933059152
      ],
      [
        "▁TV",
        -9.12281653875745
      ],
      [
        "▁12월",
        -9.123159010132298
      ],
      [
        "암",
        -9.124362991088748
      ],
      [
        "▁사건",
        -9.124916880837878
      ],
      [
        "지원",
        -9.125863405216101
      ],
      [
        "▁점",
        -9.126732441305712
      ],
      [
        "로부터",
        -9.12883756487533
      ],
      [
        "탄",
        -9.129302206055069
      ],
      [
        "ᆞ",
        -9.129649785604341
      ],
      [
        "▁갖고",
        -9.130250479598583
      ],
      [
        "긴",
        -9.13047862148575
      ],
      [
        "하신",
        -9.130673880665205
      ],
      [
        "▁마음을",
        -9.131110191912065
      ],
      [
        "▁선수",
        -9.131425347481233
      ],
      [
        "▁6월",
        -9.131558458099876
      ],
      [
        "▁뭐",
        -9.132733536907221
      ],
      [
        "▁1일",
        -9.133128882446954
      ],
      [
        "▁관계",
        -9.133875860279568
      ],
      [
        "▁각각",
        -9.134241691385796
      ],
      [
        "▁등에",
        -9.13470810081725
      ],
      [
        "▁있지",
        -9.137152063871657
      ],
      [
        "▁이야기를",
        -9.137740881675617
      ],
      [
        "▁되었다.",
        -9.138449771218994
      ],
      [
        "▁추진",
        -9.139529593393561
      ],
      [
        "▁전략",
        -9.139704307323518
      ],
      [
        "▁=",
        -9.140894223929765
      ],
      [
        "막",
        -9.142697925013575
      ],
      [
        "▁안전",
        -9.143175816038143
      ],
      [
        "▁내용을",
        -9.143461054172914
      ],
      [
        "▁기대",
        -9.145023613642046
      ],
      [
        "▁최고의",
        -9.145292411577113
      ],
      [
        "f",
        -9.145487054390397
      ],
      [
        "▁4월",
        -9.145923055968307
      ],
      [
        "▁마음",
        -9.146045787478972
      ],
      [
        "▁듯",
        -9.146930660509145
      ],
      [
        "▁작성",
        -9.147598925362391
      ],
      [
        "▁유지",
        -9.148270511484728
      ],
      [
        "▁위해서",
        -9.148286363303411
      ],
      [
        "▁입력",
        -9.148915724022247
      ],
      [
        "▁만드는",
        -9.150230719008007
      ],
      [
        "로서",
        -9.150529908443747
      ],
      [
        "▁프로젝트",
        -9.150828464604865
      ],
      [
        "▁1)",
        -9.15148176929591
      ],
      [
        "▁학생",
        -9.152648996053614
      ],
      [
        "▁정도로",
        -9.152808337180126
      ],
      [
        "책",
        -9.153227364103005
      ],
      [
        "▁있",
        -9.153531281900799
      ],
      [
        "u",
        -9.154059437895254
      ],
      [
        "▁이미지",
        -9.154095279070468
      ],
      [
        "▁포",
        -9.154905200467613
      ],
      [
        "스트",
        -9.155694850254946
      ],
      [
        "립",
        -9.156356205839419
      ],
      [
        "격",
        -9.157350339568998
      ],
      [
        "까",
        -9.157617467181819
      ],
      [
        "▁○",
        -9.157651614680905
      ],
      [
        "▁진짜",
        -9.157839162279064
      ],
      [
        "되었다.",
        -9.158012146459013
      ],
      [
        "▁객실",
        -9.15810644076899
      ],
      [
        "▁모습을",
        -9.1581918200654
      ],
      [
        "▁따르면",
        -9.158638416517235
      ],
      [
        "▁하나님의",
        -9.159120700871387
      ],
      [
        "채",
        -9.15914545259205
      ],
      [
        "시장",
        -9.160148775021785
      ],
      [
        "▁카드",
        -9.160599357942072
      ],
      [
        "분석",
        -9.160892225888514
      ],
      [
        "▁주는",
        -9.161338747158405
      ],
      [
        "하도록",
        -9.161874071438714
      ],
      [
        "한다고",
        -9.161924637475925
      ],
      [
        "’를",
        -9.162421633942827
      ],
      [
        "▁5월",
        -9.162691587619973
      ],
      [
        "▁주문",
        -9.163060177295739
      ],
      [
        "▁미래",
        -9.16474414714725
      ],
      [
        "추",
        -9.164819099464504
      ],
      [
        "▁(2)",
        -9.165269720394384
      ],
      [
        "▁원하는",
        -9.165426477377558
      ],
      [
        "▁대부분",
        -9.165579324513196
      ],
      [
        "▁해서",
        -9.166820567230324
      ],
      [
        "갈",
        -9.167033737889396
      ],
      [
        "항",
        -9.168368307250766
      ],
      [
        "▁선정",
        -9.168500252261708
      ],
      [
        "▁경험",
        -9.168846446296364
      ],
      [
        "▁몸",
        -9.169445126640024
      ],
      [
        "▁감사",
        -9.170100081180449
      ],
      [
        "라면",
        -9.170102910607447
      ],
      [
        "▁않는다.",
        -9.170160677929312
      ],
      [
        "▁1위",
        -9.17023347540824
      ],
      [
        "서비스",
        -9.171712325924712
      ],
      [
        "or",
        -9.171723316507524
      ],
      [
        "▁지난해",
        -9.171961727067966
      ],
      [
        "▁그대로",
        -9.172270875423404
      ],
      [
        "▁앞",
        -9.173282834048075
      ],
      [
        ".com",
        -9.173796773820676
      ],
      [
        "송",
        -9.173950591207575
      ],
      [
        "▁동영상",
        -9.175589051160614
      ],
      [
        "▁환자",
        -9.176521898286321
      ],
      [
        "▁학교정보",
        -9.177331447474536
      ],
      [
        "브",
        -9.178210085559263
      ],
      [
        "▁아들",
        -9.178530026783339
      ],
      [
        "▁계획",
        -9.179557215450869
      ],
      [
        "런",
        -9.179716840462849
      ],
      [
        "▁채",
        -9.179948112563672
      ],
      [
        "▁곧",
        -9.179970691420326
      ],
      [
        "볼",
        -9.180747471062414
      ],
      [
        "걸",
        -9.181539654964627
      ],
      [
        "변",
        -9.182268293132449
      ],
      [
        "독",
        -9.183887417821182
      ],
      [
        "시설",
        -9.184100743120663
      ],
      [
        "▁스스로",
        -9.18435609996258
      ],
      [
        "▁않았다.",
        -9.184466819864774
      ],
      [
        "▁활용",
        -9.184728800154748
      ],
      [
        "규",
        -9.18504970695624
      ],
      [
        "찬",
        -9.185646833678486
      ],
      [
        "한다는",
        -9.186831618767453
      ],
      [
        "처",
        -9.187665454050874
      ],
      [
        "▁들",
        -9.187678876352095
      ],
      [
        "▁해도",
        -9.189878196570838
      ],
      [
        "▁c",
        -9.190152592573284
      ],
      [
        "▁있다",
        -9.190937823825568
      ],
      [
        "▁말씀",
        -9.191376475383823
      ],
      [
        "▁자료들",
        -9.191772949847204
      ],
      [
        "▁작업",
        -9.19531559417694
      ],
      [
        "▁있는데",
        -9.196560681842573
      ],
      [
        "▁우선",
        -9.196955846825917
      ],
      [
        "▁감사합니다.",
        -9.197001621406862
      ],
      [
        "인데",
        -9.197454289382804
      ],
      [
        "▁좋아",
        -9.197988671643046
      ],
      [
        "숙",
        -9.198036329987753
      ],
      [
        "▁만들",
        -9.198108668579923
      ],
      [
        "▁R",
        -9.198278528104172
      ],
      [
        "▁이상의",
        -9.198488550844655
      ],
      [
        "▁말이",
        -9.199738006657643
      ],
      [
        "경기",
        -9.199753987885245
      ],
      [
        "사회",
        -9.199839934265878
      ],
      [
        "워",
        -9.199919534105288
      ],
      [
        "만원",
        -9.200116603317117
      ],
      [
        "P",
        -9.201828808074602
      ],
      [
        "》",
        -9.203053160421602
      ],
      [
        "▁상태",
        -9.20313976755651
      ],
      [
        "▁일정",
        -9.204088148777423
      ],
      [
        "▁제공됩니다.",
        -9.204414123114066
      ],
      [
        "▁파일",
        -9.205953223582444
      ],
      [
        "마다",
        -9.206882929803953
      ],
      [
        "▁국민",
        -9.207331241879292
      ],
      [
        "▁못한",
        -9.208419741668575
      ],
      [
        "▁반드시",
        -9.209059774144702
      ],
      [
        "en",
        -9.20909732108574
      ],
      [
        "▁무슨",
        -9.209453414447696
      ],
      [
        "울",
        -9.2098511090143
      ],
      [
        "▁사람들은",
        -9.210610327935365
      ],
      [
        "▁임",
        -9.210637652794592
      ],
      [
        "▁확대",
        -9.210806805337635
      ],
      [
        "▁현대",
        -9.211585816845425
      ],
      [
        "▁돈",
        -9.212869231869405
      ],
      [
        "▁변",
        -9.212953309810825
      ],
      [
        "▁홈",
        -9.21389141336644
      ],
      [
        "▁사용하는",
        -9.214567464202808
      ],
      [
        "다면",
        -9.21508106223775
      ],
      [
        "기술",
        -9.21553633628762
      ],
      [
        "인지",
        -9.215923213381721
      ],
      [
        "▁인기",
        -9.216140054991719
      ],
      [
        "▁표현",
        -9.216537862443662
      ],
      [
        "▁고객센터",
        -9.217115239645125
      ],
      [
        "R",
        -9.217539581327342
      ],
      [
        "▁캐릭터",
        -9.217715311190968
      ],
      [
        "▁아름다운",
        -9.217879301289436
      ],
      [
        "▁오전",
        -9.218587458451417
      ],
      [
        "▁실제로",
        -9.219863385736986
      ],
      [
        "▁스타일",
        -9.21989304351725
      ],
      [
        "▁되고",
        -9.220840477709409
      ],
      [
        "▁역",
        -9.221457648249288
      ],
      [
        "▁『",
        -9.222440353623146
      ],
      [
        "▁청",
        -9.222645662823265
      ],
      [
        "▁월",
        -9.223022764596276
      ],
      [
        "친",
        -9.223884101391773
      ],
      [
        "▁사람들",
        -9.224404552284248
      ],
      [
        "▁독일",
        -9.224491483023106
      ],
      [
        "▁0",
        -9.225157760256703
      ],
      [
        "L",
        -9.225981631111786
      ],
      [
        "▁법",
        -9.227839627125395
      ],
      [
        "▁7월",
        -9.228987099400122
      ],
      [
        "품",
        -9.229478931335379
      ],
      [
        "▁요구",
        -9.230079628448564
      ],
      [
        "하는데",
        -9.231796796692638
      ],
      [
        "▁요즘",
        -9.23224050120924
      ],
      [
        "입니다",
        -9.232370254822424
      ],
      [
        "▁가능합니다.",
        -9.232640630933256
      ],
      [
        "보다는",
        -9.233654696446624
      ],
      [
        "▁즉시",
        -9.235116160620269
      ],
      [
        "▁기준",
        -9.235744215366786
      ],
      [
        "▁영향을",
        -9.23652594946103
      ],
      [
        "▁자연",
        -9.236626462433023
      ],
      [
        "성을",
        -9.236800480148691
      ],
      [
        "▁늘",
        -9.239257034579431
      ],
      [
        "▁V",
        -9.239834369145822
      ],
      [
        "▁10월",
        -9.240555263368815
      ],
      [
        "▁부분",
        -9.24074834116026
      ],
      [
        "풍",
        -9.240998319747963
      ],
      [
        "▁실시",
        -9.24100802795731
      ],
      [
        "▁우리나라",
        -9.2411949635758
      ],
      [
        "▁치료",
        -9.2417738845263
      ],
      [
        "학교",
        -9.241854721879516
      ],
      [
        "▁되면",
        -9.242174639151061
      ],
      [
        "▁2018년",
        -9.243899602373952
      ],
      [
        "▁그림",
        -9.245773973652867
      ],
      [
        "▁다운로드",
        -9.246826228986667
      ],
      [
        "▁영국",
        -9.247122228831412
      ],
      [
        "▁받는",
        -9.24750073232812
      ],
      [
        "었",
        -9.247877737982604
      ],
      [
        "▁키",
        -9.248247750910096
      ],
      [
        "▁오픈",
        -9.248886382789205
      ],
      [
        "삼",
        -9.250824422600475
      ],
      [
        "▁8월",
        -9.251081015081056
      ],
      [
        "▁기억",
        -9.25218362412822
      ],
      [
        "▁공동",
        -9.253019418037066
      ],
      [
        "▁생각을",
        -9.253915964900656
      ],
      [
        "▁고민",
        -9.256535023697971
      ],
      [
        "▁통",
        -9.25656436826728
      ],
      [
        "정책",
        -9.257388804499838
      ],
      [
        "▁안에",
        -9.258696771968708
      ],
      [
        "▁아침",
        -9.259933075693398
      ],
      [
        "언",
        -9.260314487043392
      ],
      [
        "▁뿐",
        -9.260353698489391
      ],
      [
        "▁대해서",
        -9.260742382854257
      ],
      [
        "▁그래도",
        -9.261577868646967
      ],
      [
        "▁업무",
        -9.261689270134179
      ],
      [
        "스타",
        -9.261743159087967
      ],
      [
        "여행",
        -9.261923556023808
      ],
      [
        "골",
        -9.262279029348353
      ],
      [
        "▁업데이트",
        -9.26245289431154
      ],
      [
        "▁귀",
        -9.262868244204506
      ],
      [
        "▁동시에",
        -9.263202964015289
      ],
      [
        "▁연결",
        -9.264533483038248
      ],
      [
        "▁앱",
        -9.265166932233395
      ],
      [
        "▁밤",
        -9.265317450856049
      ],
      [
        "보험",
        -9.267176073043496
      ],
      [
        "옥",
        -9.267190671931717
      ],
      [
        "▁아시아",
        -9.267415667124457
      ],
      [
        "v",
        -9.267624358919155
      ],
      [
        "▁PC",
        -9.268019471232755
      ],
      [
        "▁북",
        -9.268973061591868
      ],
      [
        "▁이날",
        -9.26951213540349
      ],
      [
        "▁저도",
        -9.270377434755666
      ],
      [
        "▁제한",
        -9.272135421550432
      ],
      [
        "▁그룹",
        -9.27323223221179
      ],
      [
        "▁글을",
        -9.275839297169478
      ],
      [
        "료",
        -9.276042119305295
      ],
      [
        "el",
        -9.27778125435029
      ],
      [
        "다음과",
        -9.277808969445326
      ],
      [
        "죠.",
        -9.27871073691377
      ],
      [
        "▁보내",
        -9.278795910818257
      ],
      [
        "▁학습",
        -9.279089797621893
      ],
      [
        "▁윤",
        -9.279347616137386
      ],
      [
        "▁9월",
        -9.279822785149335
      ],
      [
        "▁대신",
        -9.280818807858806
      ],
      [
        "▁장애인",
        -9.280956585236838
      ],
      [
        "▁계약",
        -9.28213495699457
      ],
      [
        "네요.",
        -9.282485275114913
      ],
      [
        "re",
        -9.282742315064077
      ],
      [
        "▁너",
        -9.282860454061975
      ],
      [
        "▁구글",
        -9.283107372413525
      ],
      [
        "▁11월",
        -9.283396753761531
      ],
      [
        "▁인해",
        -9.283832132808962
      ],
      [
        "▁그것은",
        -9.284934819832431
      ],
      [
        "▁명예훼손",
        -9.287109983655967
      ],
      [
        "▁청소년",
        -9.28762689486171
      ],
      [
        "▁위치한",
        -9.288112992170113
      ],
      [
        "▁스마트폰",
        -9.288200300241721
      ],
      [
        "으면",
        -9.28826346228898
      ],
      [
        "@",
        -9.288380172686637
      ],
      [
        "▁1월",
        -9.28877743302749
      ],
      [
        "▁5.",
        -9.288979740929873
      ],
      [
        "▁수정",
        -9.28955590741159
      ],
      [
        "▁할인",
        -9.29024300636424
      ],
      [
        "▁핵심",
        -9.290790601870818
      ],
      [
        "▁풀",
        -9.29099202372009
      ],
      [
        "대학",
        -9.29179253892233
      ],
      [
        "▁송",
        -9.291853963558047
      ],
      [
        "하다",
        -9.292766406564676
      ],
      [
        "on",
        -9.292779502815781
      ],
      [
        "되",
        -9.293360548546866
      ],
      [
        "액",
        -9.293373894375833
      ],
      [
        "▁개념",
        -9.294649155356083
      ],
      [
        "▁각종",
        -9.29557770035855
      ],
      [
        "▁2)",
        -9.296162353658378
      ],
      [
        "▁사용자",
        -9.296421251742428
      ],
      [
        "▁상담",
        -9.296694113512562
      ],
      [
        "윤",
        -9.29675611427053
      ],
      [
        "▁전혀",
        -9.297063407784613
      ],
      [
        "악",
        -9.297671914722567
      ],
      [
        "▁허",
        -9.298164045112813
      ],
      [
        "▁어려운",
        -9.298562923036759
      ],
      [
        "▁X",
        -9.298754115591024
      ],
      [
        "▁리뷰",
        -9.29992006975305
      ],
      [
        "w",
        -9.30009614432423
      ],
      [
        "▁일단",
        -9.301724768118678
      ],
      [
        "훈",
        -9.302776310626776
      ],
      [
        "▁통한",
        -9.30282265587497
      ],
      [
        "▁공격",
        -9.302908695847059
      ],
      [
        "▁머리",
        -9.303445234538511
      ],
      [
        "▁보니",
        -9.303610977409086
      ],
      [
        "▁겁니다.",
        -9.303928861700925
      ],
      [
        "빈",
        -9.304485345576103
      ],
      [
        "▁있습니다",
        -9.304565241196357
      ],
      [
        "▁가정",
        -9.305144666448648
      ],
      [
        "▁아파트",
        -9.305377308380265
      ],
      [
        "H",
        -9.305815571434204
      ],
      [
        "▁·",
        -9.306354026660234
      ],
      [
        "▁엄마",
        -9.307574543592212
      ],
      [
        "▁구조",
        -9.308214793354995
      ],
      [
        "▁노력",
        -9.3090583640133
      ],
      [
        "▁여기서",
        -9.3103095270523
      ],
      [
        "▁공부",
        -9.31106110593313
      ],
      [
        "▁친구",
        -9.311707962667517
      ],
      [
        "▁시험",
        -9.312038649529857
      ],
      [
        "▁2017년",
        -9.31233408462817
      ],
      [
        "▁때는",
        -9.313417588837389
      ],
      [
        "자의",
        -9.313774917960032
      ],
      [
        "려고",
        -9.314454659159498
      ],
      [
        "▁나를",
        -9.314840761011792
      ],
      [
        "▁글로벌",
        -9.314871362046027
      ],
      [
        "▁있지만",
        -9.3157742264636
      ],
      [
        "▁질문",
        -9.31585104338404
      ],
      [
        "▁※",
        -9.316729423516513
      ],
      [
        "▁콘텐츠",
        -9.317574723462098
      ],
      [
        "▁행복",
        -9.319045136089944
      ],
      [
        "▁무단",
        -9.320621284527526
      ],
      [
        "▁에너지",
        -9.321167720497618
      ],
      [
        "▁과정",
        -9.321219175189242
      ],
      [
        "▁체험",
        -9.321760278991746
      ],
      [
        "패",
        -9.322429631631021
      ],
      [
        "▁답변",
        -9.324892562946603
      ],
      [
        "▁감독",
        -9.325181939316709
      ],
      [
        "▁없을",
        -9.325306600917596
      ],
      [
        "▁도입",
        -9.325497726001757
      ],
      [
        "이고",
        -9.32572206505787
      ],
      [
        "▁태그",
        -9.325857721189191
      ],
      [
        "▁금",
        -9.327102230076814
      ],
      [
        "it",
        -9.327682894638848
      ],
      [
        "▁황",
        -9.327728594162036
      ],
      [
        "극",
        -9.327909288905186
      ],
      [
        "▁사는",
        -9.328066569124786
      ],
      [
        "▁주시기",
        -9.328888799408197
      ],
      [
        "▁집중",
        -9.331073425581053
      ],
      [
        "▁요",
        -9.33270093900381
      ],
      [
        "범",
        -9.332766365134635
      ],
      [
        "▁젊은",
        -9.334482048029741
      ],
      [
        "▁별",
        -9.33481515439577
      ],
      [
        "‘",
        -9.335106028153763
      ],
      [
        "▁동의",
        -9.33517407902363
      ],
      [
        "주소",
        -9.335254286700154
      ],
      [
        "▁시리즈",
        -9.336996510900192
      ],
      [
        "▁목록",
        -9.337612238928234
      ],
      [
        "▁존재",
        -9.338356174820412
      ],
      [
        "▁경영",
        -9.338776746951833
      ],
      [
        "▁도착",
        -9.339824213219973
      ],
      [
        "O",
        -9.340885103336904
      ],
      [
        "▁정리",
        -9.34351128011322
      ],
      [
        "▁분야",
        -9.34390236715127
      ],
      [
        "▁and",
        -9.344157693902346
      ],
      [
        "▁현장",
        -9.34442732529853
      ],
      [
        "록",
        -9.345371096097576
      ],
      [
        "▁순",
        -9.345901137661889
      ],
      [
        "▁힘",
        -9.346212298764879
      ],
      [
        "▁속에서",
        -9.346490662912487
      ],
      [
        "자는",
        -9.347261118544301
      ],
      [
        "▁표시",
        -9.34733562222717
      ],
      [
        "▁로그인",
        -9.348181699797557
      ],
      [
        "축",
        -9.348421439733647
      ],
      [
        "▁해결",
        -9.348558861962804
      ],
      [
        "▁커피",
        -9.349764003654752
      ],
      [
        "▁전달",
        -9.352968979556943
      ],
      [
        "▁얘기",
        -9.353079152783307
      ],
      [
        "▁세상",
        -9.35320395479966
      ],
      [
        "▁기자]",
        -9.353769554972985
      ],
      [
        "Y",
        -9.354793485322539
      ],
      [
        "▁사이",
        -9.356080018193191
      ],
      [
        "▁감",
        -9.356097801201248
      ],
      [
        "▁팔",
        -9.356114495741487
      ],
      [
        "▁어린이",
        -9.35637233902117
      ],
      [
        "▁애",
        -9.357227062644734
      ],
      [
        "▁결혼",
        -9.360092550346423
      ],
      [
        "▁웹",
        -9.360864352795508
      ],
      [
        "▁25",
        -9.360877125572706
      ],
      [
        "~~",
        -9.361025456464374
      ],
      [
        "▁천",
        -9.363103817736302
      ],
      [
        "▁한다는",
        -9.363186540269496
      ],
      [
        "▁있던",
        -9.363483450066365
      ],
      [
        "하던",
        -9.364114502559627
      ],
      [
        "▁나라",
        -9.365184552845452
      ],
      [
        "▁아무",
        -9.366126768339553
      ],
      [
        "▁연속",
        -9.366200178251557
      ],
      [
        "▁100",
        -9.366866034784794
      ],
      [
        "▁이용해",
        -9.367002835141975
      ],
      [
        "▁맛",
        -9.367275674420313
      ],
      [
        "▁사람을",
        -9.368054269381252
      ],
      [
        "▁자리",
        -9.368680268132351
      ],
      [
        "카드",
        -9.36870203006619
      ],
      [
        "으",
        -9.36871525196854
      ],
      [
        "▁공급",
        -9.369021094451185
      ],
      [
        "▁촬영",
        -9.369355953802076
      ],
      [
        "▁속에",
        -9.36952035980992
      ],
      [
        "▁밖에",
        -9.369703487819008
      ],
      [
        "▁문제를",
        -9.36985364891444
      ],
      [
        "▁매일",
        -9.370219741059856
      ],
      [
        "새",
        -9.370284566152375
      ],
      [
        "▁특정",
        -9.371523703817669
      ],
      [
        "▁만들기",
        -9.37236693365698
      ],
      [
        "▁소리",
        -9.37288845490902
      ],
      [
        "▁병",
        -9.373111945789464
      ],
      [
        "▁기초",
        -9.3734943149268
      ],
      [
        "▁페이지",
        -9.374129644675826
      ],
      [
        "▁인식",
        -9.375562098465412
      ],
      [
        "▁30",
        -9.375766249145324
      ],
      [
        "▁보이는",
        -9.37612613401662
      ],
      [
        "개발",
        -9.377218329125588
      ],
      [
        "▁쓰",
        -9.377745903248389
      ],
      [
        "▁구축",
        -9.378241533283148
      ],
      [
        "▁L",
        -9.37864323830205
      ],
      [
        "사진",
        -9.379017629784745
      ],
      [
        "족",
        -9.379953733827339
      ],
      [
        "▁치",
        -9.3799569253029
      ],
      [
        "했고,",
        -9.380510121196671
      ],
      [
        "▁오히려",
        -9.381636477654125
      ],
      [
        "▁역할을",
        -9.38239954759549
      ],
      [
        "▁맞는",
        -9.38307859380818
      ],
      [
        "병원",
        -9.383243018088002
      ],
      [
        "▁전쟁",
        -9.383332722815693
      ],
      [
        "▁강의",
        -9.38413559650893
      ],
      [
        "▁상품명",
        -9.384302349837121
      ],
      [
        "습",
        -9.384594074626978
      ],
      [
        "운동",
        -9.384795911347098
      ],
      [
        "▁음식",
        -9.384901844519725
      ],
      [
        "▁상황",
        -9.385016119898687
      ],
      [
        "▁공연",
        -9.386153281751348
      ],
      [
        "▁광",
        -9.386604741642529
      ],
      [
        "▁두고",
        -9.386650646579037
      ],
      [
        "▁전화",
        -9.38721971412373
      ],
      [
        "▁J",
        -9.387288848052652
      ],
      [
        "▁저작권",
        -9.38754484192971
      ],
      [
        "생활",
        -9.38775325082744
      ],
      [
        "▁언어",
        -9.389007639006309
      ],
      [
        "염",
        -9.389356475849281
      ],
      [
        "환경",
        -9.390566162292583
      ],
      [
        "교회",
        -9.390910724264044
      ],
      [
        "커",
        -9.39150366493035
      ],
      [
        "▁점을",
        -9.391621996801913
      ],
      [
        "▁전자",
        -9.392539530147403
      ],
      [
        "▁꽃",
        -9.393726909655358
      ],
      [
        "▁나온",
        -9.394560700488999
      ],
      [
        "▁했던",
        -9.396132739778364
      ],
      [
        "▁포함",
        -9.396222215865361
      ],
      [
        "▁대상으로",
        -9.396309488470152
      ],
      [
        "▁오래",
        -9.397264698125188
      ],
      [
        "▁시행",
        -9.398374904668854
      ],
      [
        "I",
        -9.399387711441635
      ],
      [
        "▁소재",
        -9.399747282166842
      ],
      [
        "▁왕",
        -9.399834815935515
      ],
      [
        "▁국",
        -9.399919381585711
      ],
      [
        "▁선물",
        -9.399936708154812
      ],
      [
        "합니다",
        -9.4008716309861
      ],
      [
        "▁채용",
        -9.4010954480048
      ],
      [
        "▁중심으로",
        -9.401096149838901
      ],
      [
        "▁암",
        -9.402622631196326
      ],
      [
        "U",
        -9.402941138208405
      ],
      [
        "듯",
        -9.403181771761812
      ],
      [
        "▁프랑스",
        -9.403507377878245
      ],
      [
        "▁저희",
        -9.40362001885977
      ],
      [
        "알",
        -9.403981980739136
      ],
      [
        "▁디지털",
        -9.404680314973778
      ],
      [
        "필",
        -9.405186856589058
      ],
      [
        "▁인사",
        -9.406394339908456
      ],
      [
        "▁1년",
        -9.407337494209354
      ],
      [
        "테",
        -9.408106130021753
      ],
      [
        "주는",
        -9.40833073770221
      ],
      [
        "▁특별",
        -9.40854948476403
      ],
      [
        "▁수업",
        -9.408633101393466
      ],
      [
        "*",
        -9.408694952221715
      ],
      [
        "돌",
        -9.408789493691879
      ],
      [
        "신문",
        -9.409174206866483
      ],
      [
        "▁측정",
        -9.409334842837858
      ],
      [
        "▁드라마",
        -9.410152538396206
      ],
      [
        "▁없었다.",
        -9.410255697218838
      ],
      [
        "▁유럽",
        -9.410312526008102
      ],
      [
        "▁섹스",
        -9.411040757607665
      ],
      [
        "▁비즈니스",
        -9.411260635144824
      ],
      [
        "▁도전",
        -9.412412947483626
      ],
      [
        "▁자유",
        -9.412977667389294
      ],
      [
        "만큼",
        -9.413419000113105
      ],
      [
        "하지만",
        -9.414230699092755
      ],
      [
        "▁예상",
        -9.414611647339616
      ],
      [
        "▁삼성",
        -9.414814863836249
      ],
      [
        "▁얼굴",
        -9.415044347078823
      ],
      [
        "▁직업",
        -9.415821746232691
      ],
      [
        "▁토",
        -9.41597372659658
      ],
      [
        "le",
        -9.416696680241646
      ],
      [
        "▁대비",
        -9.416828795200132
      ],
      [
        "며,",
        -9.416957262921448
      ],
      [
        "▁필요가",
        -9.41706162412822
      ],
      [
        "F",
        -9.417753146474316
      ],
      [
        "▁△",
        -9.41900851748072
      ],
      [
        "홍",
        -9.420844125007015
      ],
      [
        "▁식사",
        -9.421009238725496
      ],
      [
        "▁실험",
        -9.421224077512075
      ],
      [
        "▁만나",
        -9.421337520553887
      ],
      [
        "▁모집",
        -9.421435099566011
      ],
      [
        "'에",
        -9.421636716569292
      ],
      [
        "경영",
        -9.421794760084047
      ],
      [
        "▁돌",
        -9.423495869506727
      ],
      [
        "▁직원",
        -9.42393359268835
      ],
      [
        "▁지정",
        -9.42442773429787
      ],
      [
        "▁의사",
        -9.425407679220502
      ],
      [
        "추천",
        -9.425591459974196
      ],
      [
        "상품",
        -9.426260031966493
      ],
      [
        "합",
        -9.42823275883148
      ],
      [
        "문제",
        -9.431507974180743
      ],
      [
        "▁출발",
        -9.432550152740777
      ],
      [
        "▁인도",
        -9.43285135412004
      ],
      [
        "▁50",
        -9.433581453472517
      ],
      [
        "션",
        -9.43414727810779
      ],
      [
        "▁만에",
        -9.435554725501865
      ],
      [
        "▁경쟁",
        -9.435875126110997
      ],
      [
        "et",
        -9.436984349543796
      ],
      [
        "율",
        -9.437082935466515
      ],
      [
        "▁제공하는",
        -9.437127103882176
      ],
      [
        "위원회",
        -9.437337799760583
      ],
      [
        "술",
        -9.437892827965861
      ],
      [
        "▁얼마",
        -9.438308018665506
      ],
      [
        "▁지방",
        -9.43927740799154
      ],
      [
        "활동",
        -9.439981547652351
      ],
      [
        "곤",
        -9.440697569703747
      ],
      [
        "▁2월",
        -9.441229536636424
      ],
      [
        "▁내용은",
        -9.441593679409412
      ],
      [
        "▁공간",
        -9.441647716871268
      ],
      [
        "녀",
        -9.441904426783104
      ],
      [
        "▁::",
        -9.442379051095472
      ],
      [
        "▁실행",
        -9.442425918238955
      ],
      [
        "▁열심히",
        -9.442598624084772
      ],
      [
        "▁삶을",
        -9.442629784532343
      ],
      [
        "▁빠른",
        -9.442979149272155
      ],
      [
        "▁자체",
        -9.443506320331757
      ],
      [
        "▁관련된",
        -9.444038955337534
      ],
      [
        "되었습니다.",
        -9.444161164372549
      ],
      [
        "▁24",
        -9.44443660009166
      ],
      [
        "J",
        -9.445069844821354
      ],
      [
        "▁이유는",
        -9.447441641332992
      ],
      [
        "▁책을",
        -9.447961382539681
      ],
      [
        "기관",
        -9.448192620556807
      ],
      [
        "▁특별한",
        -9.449628594533774
      ],
      [
        "▁인천",
        -9.451995645747623
      ],
      [
        "▁O",
        -9.452108313592824
      ],
      [
        "▁경우,",
        -9.452618130907268
      ],
      [
        "머",
        -9.452972645926412
      ],
      [
        "▁《",
        -9.453429091252843
      ],
      [
        "▁행정",
        -9.45530995368949
      ],
      [
        "▁교",
        -9.456938482763036
      ],
      [
        "▁빨리",
        -9.456996869177248
      ],
      [
        "....",
        -9.457515142547376
      ],
      [
        "▁보인다.",
        -9.458127527078135
      ],
      [
        "같은",
        -9.460030252073711
      ],
      [
        "▁과거",
        -9.460190221796157
      ],
      [
        "거리",
        -9.460288782964048
      ],
      [
        "▁먹고",
        -9.460945957572328
      ],
      [
        "▁시대",
        -9.460953634828346
      ],
      [
        ")와",
        -9.46096308700572
      ],
      [
        "▁없어",
        -9.461185786665233
      ],
      [
        "▁성인",
        -9.461333271429288
      ],
      [
        "한국",
        -9.461768879258099
      ],
      [
        "지만,",
        -9.461776578632065
      ],
      [
        "▁부담",
        -9.462283887618186
      ],
      [
        "손",
        -9.462770652187565
      ],
      [
        "▁여전히",
        -9.463556341964527
      ],
      [
        "▁요청",
        -9.463696739771814
      ],
      [
        "그룹",
        -9.46465839910392
      ],
      [
        "▁섹스,",
        -9.465266986374168
      ],
      [
        "케",
        -9.46563087321191
      ],
      [
        "쿠",
        -9.465733004382262
      ],
      [
        "▁있었습니다.",
        -9.465803994419995
      ],
      [
        "기간",
        -9.465906951022555
      ],
      [
        "들도",
        -9.466412513317003
      ],
      [
        "▁현",
        -9.466679923394484
      ],
      [
        "▁전기",
        -9.466786825188795
      ],
      [
        "▁법적",
        -9.466855036864109
      ],
      [
        "▁고양이",
        -9.466855408270554
      ],
      [
        "▁2016년",
        -9.467052269537628
      ],
      [
        "올",
        -9.46712615796439
      ],
      [
        "▁카메라",
        -9.467165976893607
      ],
      [
        "▁위에",
        -9.468355731912812
      ],
      [
        "▁수상",
        -9.468776317692562
      ],
      [
        "▁군",
        -9.46962615826233
      ],
      [
        "▁마련",
        -9.470014965245245
      ],
      [
        "▁번역",
        -9.470835265049875
      ],
      [
        "업체",
        -9.47101223003748
      ],
      [
        "▁하나의",
        -9.471152066536728
      ],
      [
        "▁적",
        -9.473418750206182
      ],
      [
        "▁달리",
        -9.47375495606201
      ],
      [
        "▁있다면",
        -9.47402351679144
      ],
      [
        "▁지지",
        -9.474514067943856
      ],
      [
        "▁딸",
        -9.474562364767591
      ],
      [
        "▁기계",
        -9.474935102285253
      ],
      [
        "황",
        -9.475019172627816
      ],
      [
        "▁조선",
        -9.475151395786904
      ],
      [
        "▁확인할",
        -9.47529100783385
      ],
      [
        "▁기반",
        -9.47662732618085
      ],
      [
        "▁어머니",
        -9.47778298275916
      ],
      [
        "’에",
        -9.478013890200675
      ],
      [
        "▁여름",
        -9.479156163112565
      ],
      [
        "했을",
        -9.479300910115484
      ],
      [
        "▁특징",
        -9.479317473651772
      ],
      [
        "▁하였다.",
        -9.479993149388907
      ],
      [
        "되면",
        -9.480079055513201
      ],
      [
        "▁취소",
        -9.480499227260383
      ],
      [
        "’의",
        -9.480915613389335
      ],
      [
        "at",
        -9.480952128821247
      ],
      [
        "▁없",
        -9.480998343790212
      ],
      [
        "▁보장",
        -9.481658611293495
      ],
      [
        "▁통합",
        -9.482241726553976
      ],
      [
        "▁참가",
        -9.485266806513739
      ],
      [
        "▁그때",
        -9.486108723571371
      ],
      [
        "▁자세한",
        -9.486156503802867
      ],
      [
        "▁내부",
        -9.486627508476108
      ],
      [
        "▁못하고",
        -9.486791589599761
      ],
      [
        "▁이하",
        -9.487727249270979
      ],
      [
        "▁홍보",
        -9.487731352742657
      ],
      [
        "▁남성",
        -9.488766630257162
      ],
      [
        "기가",
        -9.490238613452961
      ],
      [
        "▁질",
        -9.491207527641947
      ],
      [
        "▁있어야",
        -9.491700403520635
      ],
      [
        "▁관심을",
        -9.491782070556008
      ],
      [
        "▁과학",
        -9.491784711545371
      ],
      [
        "움",
        -9.492765682483494
      ],
      [
        "여성",
        -9.49278209390998
      ],
      [
        "▁제주",
        -9.492810856856599
      ],
      [
        "▁당신의",
        -9.49300732339275
      ],
      [
        "▁프로",
        -9.494200853252892
      ],
      [
        "▁위해서는",
        -9.494241417865812
      ],
      [
        "▁하나님",
        -9.49430096550105
      ],
      [
        "▁목적",
        -9.494323408029512
      ],
      [
        "▁전문가",
        -9.494781106995925
      ],
      [
        "▁차량",
        -9.495780259403883
      ],
      [
        "▁이메일",
        -9.49623240109466
      ],
      [
        "씩",
        -9.496476105127694
      ],
      [
        "▁전망",
        -9.497822155328961
      ],
      [
        "혜",
        -9.498044187807142
      ],
      [
        "j",
        -9.498173973132483
      ],
      [
        "▁업체",
        -9.498943504729237
      ],
      [
        "▁예정",
        -9.499914000532716
      ],
      [
        "연구",
        -9.500216033029321
      ],
      [
        ")과",
        -9.500623822326663
      ],
      [
        "▁미리",
        -9.501172415138363
      ],
      [
        "▁봄",
        -9.501301952939464
      ],
      [
        "12",
        -9.501303823826374
      ],
      [
        "베",
        -9.501542654733285
      ],
      [
        "▁나오는",
        -9.502218287622338
      ],
      [
        "▁제목",
        -9.502227513886634
      ],
      [
        "▁있으면",
        -9.502409561439595
      ],
      [
        "▁지급",
        -9.502445823496242
      ],
      [
        "▁아버지",
        -9.502730847968298
      ],
      [
        "▁설계",
        -9.502731524257587
      ],
      [
        "▁주장",
        -9.50278163180581
      ],
      [
        "▁부모",
        -9.502801983657191
      ],
      [
        "▁홍",
        -9.503246547357262
      ],
      [
        "협회",
        -9.503273683444526
      ],
      [
        "▁구매한",
        -9.503832557832368
      ],
      [
        "▁확보",
        -9.503891159250394
      ],
      [
        "▁제안",
        -9.504019893728529
      ],
      [
        "▁통해서",
        -9.505302377983073
      ],
      [
        "▁있는지",
        -9.505450760740022
      ],
      [
        "하기도",
        -9.505802338748454
      ],
      [
        "싱",
        -9.50681713613925
      ],
      [
        "▁외부",
        -9.507007872975247
      ],
      [
        "▁실",
        -9.508396139717421
      ],
      [
        "서울",
        -9.509734802921447
      ],
      [
        "▁완료",
        -9.509948728346814
      ],
      [
        "페",
        -9.510185036462982
      ],
      [
        "ar",
        -9.510389038169183
      ],
      [
        "▁그것을",
        -9.51121223118352
      ],
      [
        "▁취업",
        -9.512068151474626
      ],
      [
        "▁종",
        -9.512122973285173
      ],
      [
        "▁선거",
        -9.513540043814467
      ],
      [
        "▁판단",
        -9.514315618884044
      ],
      [
        "▁기획",
        -9.516336742422528
      ],
      [
        "▁기회",
        -9.517554026000573
      ],
      [
        "▁나와",
        -9.518205819067841
      ],
      [
        "단체",
        -9.518250040006539
      ],
      [
        "억",
        -9.518615751261486
      ],
      [
        "▁딱",
        -9.51961899696665
      ],
      [
        "▁요리",
        -9.519773590569248
      ],
      [
        "▁기도",
        -9.519880015068114
      ],
      [
        "▁지도",
        -9.521488547337182
      ],
      [
        "▁눈에",
        -9.521750990175459
      ],
      [
        "과정",
        -9.52250868747631
      ],
      [
        "▁순간",
        -9.522941002187855
      ],
      [
        "▁논의",
        -9.52400896455606
      ],
      [
        "쳐",
        -9.525028174734814
      ],
      [
        "▁사회적",
        -9.525629137147654
      ],
      [
        "▁기능을",
        -9.525905035646737
      ],
      [
        "시키는",
        -9.526689308100888
      ],
      [
        "▁for",
        -9.52771137816637
      ],
      [
        "40",
        -9.528194604294189
      ],
      [
        "▁대화",
        -9.528371522580827
      ],
      [
        "으로부터",
        -9.528629939361593
      ],
      [
        "례",
        -9.528760965043503
      ],
      [
        "th",
        -9.52885045524488
      ],
      [
        "촌",
        -9.52885691812494
      ],
      [
        "▁목표",
        -9.529548667336108
      ],
      [
        "▁단체",
        -9.530323103239155
      ],
      [
        "▁네트워크",
        -9.530635646352666
      ],
      [
        "▁저녁",
        -9.53100056484367
      ],
      [
        "▁The",
        -9.53105658250554
      ],
      [
        "▁동물",
        -9.531936192710457
      ],
      [
        "총",
        -9.53219567482116
      ],
      [
        "▁구입",
        -9.53249969722837
      ],
      [
        "▁채널",
        -9.53307556380301
      ],
      [
        "방송",
        -9.534524158921897
      ],
      [
        "▁충분히",
        -9.534573420965582
      ],
      [
        "“",
        -9.536804028902852
      ],
      [
        "▁건물",
        -9.537224986080416
      ],
      [
        "▁디",
        -9.538098358752505
      ],
      [
        "z",
        -9.53829212102057
      ],
      [
        "is",
        -9.538534066985385
      ],
      [
        "회사",
        -9.538726043135842
      ],
      [
        "▁예술",
        -9.539719827654636
      ],
      [
        "▁참고",
        -9.540123638212787
      ],
      [
        "▁적이",
        -9.540303053492153
      ],
      [
        "▁그들은",
        -9.541230749979322
      ],
      [
        "▁IT",
        -9.541651884627107
      ],
      [
        "▁보통",
        -9.542560127327679
      ],
      [
        "▁못하는",
        -9.542706047637424
      ],
      [
        "▁중심",
        -9.54407914035524
      ],
      [
        "▁만약",
        -9.544621856651899
      ],
      [
        "▁노래",
        -9.54526244041826
      ],
      [
        "11",
        -9.546106268751622
      ],
      [
        "▁피부",
        -9.546618459084105
      ],
      [
        "Q",
        -9.547157282698652
      ],
      [
        "▁앞에",
        -9.547345342167237
      ],
      [
        "▁앞서",
        -9.547346826327015
      ],
      [
        "▁알게",
        -9.548651836449645
      ],
      [
        "▁행동",
        -9.54981347548679
      ],
      [
        "▁마치",
        -9.550093098645597
      ],
      [
        "▁의해서",
        -9.550516998107579
      ],
      [
        "▁수입",
        -9.550949276138619
      ],
      [
        "▁않",
        -9.551311067826155
      ],
      [
        "▁걱정",
        -9.551312595528334
      ],
      [
        "▁되었습니다.",
        -9.551641171272465
      ],
      [
        "▁희망",
        -9.55261161420734
      ],
      [
        "▁종합",
        -9.553334294124596
      ],
      [
        "▁사실을",
        -9.553448374820057
      ],
      [
        "처리",
        -9.553662013960267
      ],
      [
        "▁돈을",
        -9.553838917879508
      ],
      [
        "▁검사",
        -9.553839699253594
      ],
      [
        "조사",
        -9.554271644175532
      ],
      [
        "▁네이버",
        -9.554667656635305
      ],
      [
        "▁건설",
        -9.55587485184286
      ],
      [
        "'을",
        -9.556730184842438
      ],
      [
        "▁혼자",
        -9.557756925777799
      ],
      [
        ")에서",
        -9.558142163776239
      ],
      [
        "▁좋아하는",
        -9.558782697919646
      ],
      [
        "▁지적",
        -9.558965778214317
      ],
      [
        "지를",
        -9.560138751845521
      ],
      [
        "견",
        -9.56130281139388
      ],
      [
        "▁둘",
        -9.561475390302371
      ],
      [
        "▁담",
        -9.562116984593956
      ],
      [
        "'를",
        -9.562170129860608
      ],
      [
        "지고",
        -9.562222722663467
      ],
      [
        "▁6.",
        -9.562497419399573
      ],
      [
        "▁의한",
        -9.563397194184965
      ],
      [
        "▁배송",
        -9.564543463079328
      ],
      [
        "하여야",
        -9.564670064911402
      ],
      [
        "자를",
        -9.564754000011245
      ],
      [
        "▁그가",
        -9.565470836083882
      ],
      [
        "▁수행",
        -9.566314284882267
      ],
      [
        "기에",
        -9.566751476687976
      ],
      [
        "▁크기",
        -9.566787390646276
      ],
      [
        "’,",
        -9.567003803299002
      ],
      [
        "팅",
        -9.567365284904135
      ],
      [
        "▁주제",
        -9.567413966501201
      ],
      [
        "▁공공",
        -9.568572450423735
      ],
      [
        "▁비해",
        -9.569313962513826
      ],
      [
        "▁성과",
        -9.569758056765496
      ],
      [
        "학과",
        -9.569761056954242
      ],
      [
        "▁것에",
        -9.570206000091432
      ],
      [
        "함을",
        -9.570232229180345
      ],
      [
        "▁여기에",
        -9.570371565705848
      ],
      [
        "이자",
        -9.570459475285649
      ],
      [
        "▁어린",
        -9.572260874423296
      ],
      [
        "▁편집",
        -9.572526787246968
      ],
      [
        "▁벌",
        -9.572555807434421
      ],
      [
        "▁창업",
        -9.57290053379947
      ],
      [
        "▁추",
        -9.57363835262494
      ],
      [
        "▁길이",
        -9.573666061130494
      ],
      [
        "▁대구",
        -9.574995614478148
      ],
      [
        "▁제출",
        -9.576931035278033
      ],
      [
        "▁한편",
        -9.577913480346751
      ],
      [
        "▁미디어",
        -9.57880145277375
      ],
      [
        "▁잘못",
        -9.579380066143496
      ],
      [
        "▁있었던",
        -9.58017695490278
      ],
      [
        "께",
        -9.58032183585523
      ],
      [
        "▁2015년",
        -9.580464978466669
      ],
      [
        "20",
        -9.580494988049196
      ],
      [
        "▁전환",
        -9.581016494664116
      ],
      [
        "▁민",
        -9.581195158428446
      ],
      [
        "▁지금까지",
        -9.582002615652716
      ],
      [
        "▁전통",
        -9.584204717889229
      ],
      [
        "▁이름을",
        -9.584291973303717
      ],
      [
        "▁끝",
        -9.584474030170469
      ],
      [
        "▁때,",
        -9.584814011150653
      ],
      [
        "▁등으로",
        -9.584890064134754
      ],
      [
        "▁블랙",
        -9.584966441283438
      ],
      [
        "▁서울시",
        -9.585117162337813
      ],
      [
        "으로서",
        -9.585591006348091
      ],
      [
        "▁수집",
        -9.58675402453274
      ],
      [
        "▁7일",
        -9.586765424833246
      ],
      [
        "▁러시아",
        -9.587382765805927
      ],
      [
        "몰",
        -9.587430565364752
      ],
      [
        "▁2년",
        -9.587575031178853
      ],
      [
        "▁문제는",
        -9.588605974041815
      ],
      [
        "▁아이디",
        -9.588809303898122
      ],
      [
        "하시는",
        -9.58889222614815
      ],
      [
        "▁막",
        -9.589101782444255
      ],
      [
        "맨",
        -9.589153303055388
      ],
      [
        "▁HOME",
        -9.589195596398154
      ],
      [
        "▁조성",
        -9.589250792296042
      ],
      [
        "▁쓴",
        -9.590222527311656
      ],
      [
        "밀",
        -9.590263940488722
      ],
      [
        "▁한국의",
        -9.590441044210202
      ],
      [
        "▁후에",
        -9.590788489278264
      ],
      [
        "▁감소",
        -9.590801290408795
      ],
      [
        "▁듣고",
        -9.591016551829036
      ],
      [
        "익",
        -9.592611359388535
      ],
      [
        "▁것처럼",
        -9.594155962916087
      ],
      [
        "▁길을",
        -9.59420363585015
      ],
      [
        "제품",
        -9.596913644101212
      ],
      [
        "▁마을",
        -9.597225295867027
      ],
      [
        "니다.",
        -9.597262176484552
      ],
      [
        "▁가치",
        -9.597969396325105
      ],
      [
        "▁제일",
        -9.598909145488225
      ],
      [
        "▁이용자",
        -9.599453600382361
      ],
      [
        "▁당신이",
        -9.600864950565633
      ],
      [
        "▁주로",
        -9.60131763736224
      ],
      [
        "▁이내",
        -9.601323103370854
      ],
      [
        "▁불법",
        -9.601436285150474
      ],
      [
        "▁배경",
        -9.60146629377434
      ],
      [
        "▁훨씬",
        -9.602093283566681
      ],
      [
        "▁●",
        -9.602265801516964
      ],
      [
        "▁아닙니다.",
        -9.602318006657553
      ],
      [
        "▁누",
        -9.602575034427575
      ],
      [
        "▁것과",
        -9.602820777462398
      ],
      [
        "▁고려",
        -9.603564127259842
      ],
      [
        "▁없다는",
        -9.604220221840578
      ],
      [
        "▁40",
        -9.604501981485619
      ],
      [
        "▁대회",
        -9.604632358790923
      ],
      [
        "▁않으면",
        -9.605218417302718
      ],
      [
        "▁거래",
        -9.605791027181132
      ],
      [
        "라도",
        -9.606269080451128
      ],
      [
        "▁모습",
        -9.606693409525619
      ],
      [
        "▁반대",
        -9.606729247509165
      ],
      [
        "▁규정",
        -9.607297756693272
      ],
      [
        "시켜",
        -9.607579209945676
      ],
      [
        "▁불법적",
        -9.608296257107039
      ],
      [
        "▁후기",
        -9.608552177134243
      ],
      [
        "▁국회",
        -9.609153395940734
      ],
      [
        "▁사전",
        -9.610020840494688
      ],
      [
        "▁법률",
        -9.610197224828006
      ],
      [
        "▁드리겠습니다.",
        -9.610394716188505
      ],
      [
        "아이",
        -9.610950856232973
      ],
      [
        "없는",
        -9.61104121374056
      ],
      [
        "▁단지",
        -9.611185945740665
      ],
      [
        "▁낮",
        -9.611221664305042
      ],
      [
        "검색",
        -9.612055346061155
      ],
      [
        "▁1개",
        -9.612204541604404
      ],
      [
        "Z",
        -9.612379316635085
      ],
      [
        "▁바다",
        -9.61260185872744
      ],
      [
        "대회",
        -9.612740008996356
      ],
      [
        "30",
        -9.613308893632166
      ],
      [
        "▁소설",
        -9.613510196599972
      ],
      [
        "▁알아",
        -9.614333197804356
      ],
      [
        "’는",
        -9.61514377532018
      ],
      [
        "TV",
        -9.615230944827566
      ],
      [
        "▁트럼프",
        -9.615326029342214
      ],
      [
        "▁최종",
        -9.616920743777513
      ],
      [
        "▁뜻",
        -9.617637435133705
      ],
      [
        "▁등은",
        -9.617898524049814
      ],
      [
        "mm",
        -9.618117684581932
      ],
      [
        "▁힘을",
        -9.618214514487748
      ],
      [
        "관계",
        -9.619050777882139
      ],
      [
        "▁살고",
        -9.619320984078541
      ],
      [
        "\\",
        -9.619403221680601
      ],
      [
        "전략",
        -9.619476688475363
      ],
      [
        "▁않아",
        -9.619823340211378
      ],
      [
        "▁저장",
        -9.619843398620311
      ],
      [
        "행정",
        -9.620256789466879
      ],
      [
        "▁하드",
        -9.621288667201352
      ],
      [
        "균",
        -9.622432632893418
      ],
      [
        "▁거리",
        -9.623932401849274
      ],
      [
        "▁한글",
        -9.624001947134301
      ],
      [
        "▁레",
        -9.624568566222294
      ],
      [
        "▁협력",
        -9.625425832407046
      ],
      [
        "▁진출",
        -9.625897144885563
      ],
      [
        "▁신규",
        -9.626065603064394
      ],
      [
        "▁것이라고",
        -9.62663691709931
      ],
      [
        "공사",
        -9.62671144225661
      ],
      [
        "함으로써",
        -9.62679360440601
      ],
      [
        "▁청년",
        -9.627163372572713
      ],
      [
        "▁직",
        -9.62737155122571
      ],
      [
        "▁원래",
        -9.627976754756688
      ],
      [
        "▁유형",
        -9.628628990611494
      ],
      [
        "▁술",
        -9.628733612680566
      ],
      [
        "(S",
        -9.62877928198095
      ],
      [
        "▁마음이",
        -9.62951889544168
      ],
      [
        "▁최초",
        -9.630876361722725
      ],
      [
        "▁생",
        -9.632122038677483
      ],
      [
        "▁준",
        -9.6332060469896
      ],
      [
        "▁버전",
        -9.634672467052567
      ],
      [
        "▁겨울",
        -9.635158519364136
      ],
      [
        "▁온도",
        -9.635615133917646
      ],
      [
        "’라는",
        -9.635633195525346
      ],
      [
        "▁21",
        -9.636741911449546
      ],
      [
        "▁접수",
        -9.636795008069242
      ],
      [
        "▁후보",
        -9.636896789478625
      ],
      [
        "▁★",
        -9.637040077035554
      ],
      [
        "렌",
        -9.637284055090621
      ],
      [
        "하고자",
        -9.637830692954768
      ],
      [
        "▁아는",
        -9.638707671772913
      ],
      [
        "(주)",
        -9.63903865102328
      ],
      [
        "▁센터",
        -9.639293142384496
      ],
      [
        "었습니다.",
        -9.639774591559815
      ],
      [
        "▁책임",
        -9.640000038070413
      ],
      [
        "▁쓰는",
        -9.640165545442521
      ],
      [
        "es",
        -9.640357582951594
      ],
      [
        "▁인정",
        -9.640706635769998
      ],
      [
        "▁아니면",
        -9.64099205477876
      ],
      [
        "▁메",
        -9.641246748467463
      ],
      [
        "▁경기도",
        -9.641834438878337
      ],
      [
        "▁아기",
        -9.642636821451802
      ],
      [
        "▁시민",
        -9.643225602154377
      ],
      [
        "냐",
        -9.643798278413742
      ],
      [
        "an",
        -9.643804456913747
      ],
      [
        "▁연락",
        -9.643875135592985
      ],
      [
        "▁했습니다.",
        -9.644468866862049
      ],
      [
        "제도",
        -9.645050217976165
      ],
      [
        "▁스마트",
        -9.645617121031204
      ],
      [
        "칠",
        -9.64578716725331
      ],
      [
        "▁도움을",
        -9.645969404229504
      ],
      [
        "▁단계",
        -9.646390405736906
      ],
      [
        "▁병원",
        -9.647161436443126
      ],
      [
        "15",
        -9.647747464711664
      ],
      [
        "▁하는데",
        -9.648043058026474
      ],
      [
        "▁지구",
        -9.64810474216684
      ],
      [
        "쪽",
        -9.64866543133303
      ],
      [
        "▁대해서는",
        -9.64879357448033
      ],
      [
        "▁형태",
        -9.6488092926458
      ],
      [
        "▁중앙",
        -9.649960011668181
      ],
      [
        "▁있어요.",
        -9.65004927949767
      ],
      [
        "▁멋진",
        -9.65021663329457
      ],
      [
        "▁결과를",
        -9.650722274390233
      ],
      [
        "▁예고",
        -9.651061391307078
      ],
      [
        "▁있으니",
        -9.651768252200084
      ],
      [
        "▁부족",
        -9.65229674343449
      ],
      [
        "★",
        -9.652445614622298
      ],
      [
        "▁날짜",
        -9.653354841165214
      ],
      [
        "▁스타",
        -9.654179230110758
      ],
      [
        "▁플랫폼",
        -9.654444081659282
      ],
      [
        "▁활성화",
        -9.655826975525983
      ],
      [
        "▁울",
        -9.65600642363937
      ],
      [
        "▁미국의",
        -9.656606763702786
      ],
      [
        "기는",
        -9.657551982927597
      ],
      [
        "대상",
        -9.657863791491152
      ],
      [
        "해주시면",
        -9.658091267681922
      ],
      [
        "어요.",
        -9.658232589627335
      ],
      [
        "▁문재인",
        -9.658258484233478
      ],
      [
        "▁써",
        -9.658815026043861
      ],
      [
        "▁서버",
        -9.658886667975558
      ],
      [
        "시스템",
        -9.65921921729933
      ],
      [
        "겨",
        -9.65922510042882
      ],
      [
        "▁갑니다",
        -9.659450685052327
      ],
      [
        "se",
        -9.66013474181604
      ],
      [
        "▁찾기",
        -9.660172593424967
      ],
      [
        "▁부동산",
        -9.660212055081324
      ],
      [
        "▁인증",
        -9.660286788207223
      ],
      [
        "▁관광",
        -9.661085556987867
      ],
      [
        "▁피해",
        -9.66217512533813
      ],
      [
        "성이",
        -9.662649749462291
      ],
      [
        "▁나무",
        -9.663311209194385
      ],
      [
        "장을",
        -9.663696611519393
      ],
      [
        "▁쓸",
        -9.664013370630789
      ],
      [
        "▁소비",
        -9.664092835694007
      ],
      [
        "▁창",
        -9.664131130044705
      ],
      [
        "▁읽고",
        -9.665040795649011
      ],
      [
        "▁종교",
        -9.666051449701559
      ],
      [
        "▁필수",
        -9.666170652201721
      ],
      [
        "슨",
        -9.667242919211137
      ],
      [
        "▁나서",
        -9.667246691225552
      ],
      [
        "▁자신을",
        -9.6673916218375
      ],
      [
        "▁그동안",
        -9.667955095094804
      ],
      [
        "▁섬",
        -9.668214535153325
      ],
      [
        "▁통하여",
        -9.668646672561927
      ],
      [
        "▁친",
        -9.669459114561967
      ],
      [
        "▁금융",
        -9.669719199501703
      ],
      [
        "▁축구",
        -9.669849297306339
      ],
      [
        "▁말하는",
        -9.669863404244115
      ],
      [
        "▁말고",
        -9.670051385925689
      ],
      [
        "▁메뉴",
        -9.670833286645909
      ],
      [
        "곳",
        -9.670837730244894
      ],
      [
        "▁다만",
        -9.671011248852427
      ],
      [
        "충",
        -9.671327943940213
      ],
      [
        "▁것.",
        -9.671996846207456
      ],
      [
        "영화",
        -9.672724710334363
      ],
      [
        "▁혁신",
        -9.673022645946535
      ],
      [
        "▁하면서",
        -9.673024529879395
      ],
      [
        "▁예를",
        -9.673651578733654
      ],
      [
        "▁언론",
        -9.674037626629627
      ],
      [
        "▁먹을",
        -9.67419684471432
      ],
      [
        "▁정신",
        -9.674238031240556
      ],
      [
        "▁예정이다.",
        -9.67476698116679
      ],
      [
        "(이하",
        -9.674998501974148
      ],
      [
        "다”고",
        -9.675187218647768
      ],
      [
        "▁시기",
        -9.675405680875066
      ],
      [
        "▁편의",
        -9.675745366141296
      ],
      [
        "▁긴",
        -9.67577044067033
      ],
      [
        "▁기관",
        -9.676184919170591
      ],
      [
        "▁신경",
        -9.67661777360464
      ],
      [
        "▁전재",
        -9.676669752498864
      ],
      [
        "18",
        -9.676959174269252
      ],
      [
        "▁악",
        -9.677514582248683
      ],
      [
        "▁보안",
        -9.677997250808035
      ],
      [
        "▁관심이",
        -9.678062373719499
      ],
      [
        "▁22",
        -9.678477565790502
      ],
      [
        "`",
        -9.678679528898828
      ],
      [
        "▁타고",
        -9.679055229446337
      ],
      [
        "▁건축",
        -9.679062308634151
      ],
      [
        "▁성경",
        -9.679750280659404
      ],
      [
        "▁과제",
        -9.679763722978233
      ],
      [
        "▁실패",
        -9.679784749097688
      ],
      [
        "이다",
        -9.680930722098255
      ],
      [
        "ro",
        -9.682961649893556
      ],
      [
        "▁가을",
        -9.683095113306088
      ],
      [
        "▁소녀",
        -9.683120613067542
      ],
      [
        "▁거리에",
        -9.683366361157127
      ],
      [
        "하나",
        -9.683530232077961
      ],
      [
        "▁연기",
        -9.683658145542454
      ],
      [
        "으며",
        -9.683932172126205
      ],
      [
        "▁새로",
        -9.684509365519997
      ],
      [
        "▁광주",
        -9.68500330922259
      ],
      [
        "▁기념",
        -9.685037529349628
      ],
      [
        "▁이것은",
        -9.685231034614363
      ],
      [
        "▁본인",
        -9.685433137640679
      ],
      [
        "▁비판",
        -9.685483964303227
      ],
      [
        "ly",
        -9.685815247972084
      ],
      [
        "▁수많은",
        -9.686117187351211
      ],
      [
        "▁행",
        -9.687054720244404
      ],
      [
        "▁지식",
        -9.687687902968511
      ],
      [
        "▁생성",
        -9.688093045883075
      ],
      [
        "▁2017",
        -9.688240113943209
      ],
      [
        "치료",
        -9.688412169526055
      ],
      [
        "▁포인트",
        -9.688638993004034
      ],
      [
        "블",
        -9.688745582026241
      ],
      [
        "자료",
        -9.688857067782411
      ],
      [
        "클",
        -9.688938176349753
      ],
      [
        "세계",
        -9.690342428610368
      ],
      [
        "▁판",
        -9.690697597286286
      ],
      [
        "▁불구하고",
        -9.690724165172629
      ],
      [
        "이지만",
        -9.690985689318302
      ],
      [
        "시는",
        -9.691252497828325
      ],
      [
        "co",
        -9.691814503248793
      ],
      [
        "▁소비자",
        -9.692950777240661
      ],
      [
        "벌",
        -9.693307272933456
      ],
      [
        "▁그것이",
        -9.693490177176873
      ],
      [
        "그들의",
        -9.69446407204562
      ],
      [
        "이면",
        -9.694753697162856
      ],
      [
        "▁조정",
        -9.695830963638812
      ],
      [
        "코리아",
        -9.69633672760941
      ],
      [
        "▁가서",
        -9.696600775034437
      ],
      [
        "정도",
        -9.698820766190732
      ],
      [
        "▁처리해",
        -9.698877964918776
      ],
      [
        "▁마음에",
        -9.69906513571005
      ],
      [
        "▁누가",
        -9.699447448795722
      ],
      [
        "▁대응",
        -9.700044544084168
      ],
      [
        "명의",
        -9.70022498827443
      ],
      [
        "되기",
        -9.700410790444707
      ],
      [
        "▁절대",
        -9.702327118132594
      ],
      [
        "▁제재",
        -9.70408633325939
      ],
      [
        "▁회장",
        -9.704192915443343
      ],
      [
        "▁힘들",
        -9.704691876987876
      ],
      [
        "▁정상",
        -9.704725850794436
      ],
      [
        "▁찾는",
        -9.70493434992087
      ],
      [
        "계획",
        -9.70541374153435
      ],
      [
        "▁그리",
        -9.705729922091145
      ],
      [
        "▁많다.",
        -9.706011673130758
      ],
      [
        "▁수가",
        -9.706957731942436
      ],
      [
        "▁효과",
        -9.70738210591543
      ],
      [
        "▁상대",
        -9.707507314242537
      ],
      [
        "▁땅",
        -9.707528793028189
      ],
      [
        "▁외국인",
        -9.70777515488031
      ],
      [
        "▁보도",
        -9.708984772722339
      ],
      [
        "▁완전",
        -9.709574906461278
      ],
      [
        "▁즐길",
        -9.709817942355087
      ],
      [
        "상담",
        -9.710259144163954
      ],
      [
        "정부",
        -9.711116329720468
      ],
      [
        "▁씨",
        -9.711908686351764
      ],
      [
        "효",
        -9.71197911824434
      ],
      [
        "▁인생",
        -9.713128636544322
      ],
      [
        "방법을",
        -9.713370295586678
      ],
      [
        "▁드립니다.",
        -9.713512679729963
      ],
      [
        "▁확장",
        -9.713632258108262
      ],
      [
        "네요",
        -9.713932060544572
      ],
      [
        "▁복",
        -9.713958420880578
      ],
      [
        "님의",
        -9.713972026431245
      ],
      [
        "안전",
        -9.714151301228515
      ],
      [
        "보고",
        -9.71466242805429
      ],
      [
        "▁시도",
        -9.714857373362982
      ],
      [
        "▁권",
        -9.715445210494948
      ],
      [
        "▁금지",
        -9.715498497695219
      ],
      [
        "▁최신",
        -9.716228533045738
      ],
      [
        "▁표",
        -9.71624322808255
      ],
      [
        "▁없고",
        -9.716297237466206
      ],
      [
        "▁보험",
        -9.716663698621286
      ],
      [
        "▁맞",
        -9.71726805735439
      ],
      [
        "▁가까운",
        -9.717553307316107
      ],
      [
        "▁빠르게",
        -9.719252292770227
      ],
      [
        "낸",
        -9.719443001577183
      ],
      [
        "▁달러",
        -9.720032002515566
      ],
      [
        "▁예산",
        -9.7202206487426
      ],
      [
        "▁약속",
        -9.720333683716632
      ],
      [
        "▁않다.",
        -9.720693500978882
      ],
      [
        "▁일본의",
        -9.720943374901584
      ],
      [
        "▁여러분",
        -9.721074608351419
      ],
      [
        "▁레스토랑",
        -9.721860735288502
      ],
      [
        "스포츠",
        -9.721892488387752
      ],
      [
        "▁소프트웨어",
        -9.722331467688122
      ],
      [
        "▁아동",
        -9.72255777816005
      ],
      [
        "▁삶의",
        -9.723567547575637
      ],
      [
        "가족",
        -9.723735788083642
      ],
      [
        "▁현지",
        -9.723800308413018
      ],
      [
        "▁사이에",
        -9.724152808791715
      ],
      [
        "▁코어",
        -9.72494442494012
      ],
      [
        "▁아이템",
        -9.724952275631715
      ],
      [
        "▁접속",
        -9.72502272253393
      ],
      [
        "자에게",
        -9.72586040701024
      ],
      [
        "▁종류",
        -9.725957074436721
      ],
      [
        "▁먹는",
        -9.726099772092008
      ],
      [
        "▁숙박",
        -9.726509684272735
      ],
      [
        "해도",
        -9.726600513365426
      ],
      [
        "▁수밖에",
        -9.726664513501444
      ],
      [
        "▁생각해",
        -9.726825231106616
      ],
      [
        "는데,",
        -9.727203722650849
      ],
      [
        "월드",
        -9.727291414074548
      ],
      [
        "▁화",
        -9.727755032633944
      ],
      [
        "▁향상",
        -9.727994025297452
      ],
      [
        "이상",
        -9.72800631376169
      ],
      [
        "▁생각합니다.",
        -9.728408722701298
      ],
      [
        "▁있는데,",
        -9.728427076995324
      ],
      [
        "대전",
        -9.728797640762965
      ],
      [
        "▁통일",
        -9.729028695544415
      ],
      [
        "▁완전히",
        -9.729755898134524
      ],
      [
        "▁플레이",
        -9.729786615921785
      ],
      [
        "▁월드컵",
        -9.730292586978527
      ],
      [
        "▁해석",
        -9.730301119622851
      ],
      [
        "▁대전",
        -9.73043136254594
      ],
      [
        "▁23",
        -9.731425472465158
      ],
      [
        "▁레포트",
        -9.731645285339948
      ],
      [
        "60",
        -9.731894020565738
      ],
      [
        "▁선생님",
        -9.732109793625549
      ],
      [
        "슬",
        -9.735087598839833
      ],
      [
        "팔",
        -9.735271171670057
      ],
      [
        "먹",
        -9.736059073559883
      ],
      [
        "▁2개",
        -9.73615236861194
      ],
      [
        "▁빈",
        -9.736193578431347
      ],
      [
        "▁들고",
        -9.736229342523952
      ],
      [
        "▁인한",
        -9.736342281742125
      ],
      [
        "▁넘어",
        -9.736692449460165
      ],
      [
        "존",
        -9.736962007692872
      ],
      [
        "헌",
        -9.737515091552549
      ],
      [
        "24",
        -9.737867338434398
      ],
      [
        "▁완성",
        -9.738100444788278
      ],
      [
        "귀",
        -9.739383817582752
      ],
      [
        "관련",
        -9.739843383991069
      ],
      [
        "▁또한,",
        -9.740045832201325
      ],
      [
        "▁10년",
        -9.74095694947641
      ],
      [
        "▁꿈",
        -9.741618738996237
      ],
      [
        "▁◆",
        -9.741629805329723
      ],
      [
        "▁담아",
        -9.742234579348395
      ],
      [
        "▁사망",
        -9.742414492259595
      ],
      [
        "▁하기",
        -9.742472576717615
      ],
      [
        "▁곳이",
        -9.743227934019416
      ],
      [
        "▁품질",
        -9.74367615437723
      ],
      [
        "▁구분",
        -9.743903178142864
      ],
      [
        "택",
        -9.7456191944125
      ],
      [
        "▁점점",
        -9.74577052063756
      ],
      [
        "▁•",
        -9.74664319193644
      ],
      [
        "▁폭",
        -9.747403329461509
      ],
      [
        "▁그럼",
        -9.747457941790607
      ],
      [
        "▁과연",
        -9.747556199993884
      ],
      [
        "’이",
        -9.748267678960893
      ],
      [
        "▁인물",
        -9.748411104400354
      ],
      [
        "▁바람",
        -9.748428422771115
      ],
      [
        "▁노동",
        -9.749015416082624
      ],
      [
        "▁마무리",
        -9.749245517230094
      ],
      [
        "▁극",
        -9.749293341882883
      ],
      [
        "▁예수",
        -9.749349664227498
      ],
      [
        "▁카페",
        -9.750233143770476
      ],
      [
        "▁한다고",
        -9.75059080136615
      ],
      [
        "▁방향",
        -9.751187016078026
      ],
      [
        "착",
        -9.753060055422095
      ],
      [
        "(?)",
        -9.753753541600037
      ],
      [
        "▁인간의",
        -9.753871126368171
      ],
      [
        "▁맞아",
        -9.75390229502153
      ],
      [
        "▁주세요.",
        -9.755093192952518
      ],
      [
        "▁사항",
        -9.755401668706176
      ],
      [
        "들에",
        -9.75555035480264
      ],
      [
        "이기도",
        -9.755696456441068
      ],
      [
        "명을",
        -9.755762483768851
      ],
      [
        "시킬",
        -9.755947491734357
      ],
      [
        "▁당신은",
        -9.756088229766258
      ],
      [
        "했다는",
        -9.756321785279145
      ],
      [
        "사항",
        -9.756490324843819
      ],
      [
        "▁분위기",
        -9.757728408074623
      ],
      [
        "시험",
        -9.757738216671463
      ],
      [
        "▁같아요.",
        -9.758457168455738
      ],
      [
        "▁등장",
        -9.759186860525796
      ],
      [
        "▁제시",
        -9.75930758224963
      ],
      [
        "▁(3)",
        -9.759307899967077
      ],
      [
        "▁사상",
        -9.759375787481812
      ],
      [
        "▁장소",
        -9.759691530998378
      ],
      [
        "▁3년",
        -9.759954761784305
      ],
      [
        "국가",
        -9.760295567550568
      ],
      [
        "▁가능성이",
        -9.760318741103184
      ],
      [
        "▁우주",
        -9.760351820779427
      ],
      [
        "▁누구나",
        -9.760372309675763
      ],
      [
        "▁생각하는",
        -9.760662755727592
      ],
      [
        "광고",
        -9.760727203641764
      ],
      [
        "▁현실",
        -9.760881362271885
      ],
      [
        "▁색상",
        -9.76089194178315
      ],
      [
        "▁접",
        -9.76182157958862
      ],
      [
        "기사",
        -9.762090985624557
      ],
      [
        "▁분류",
        -9.7621728114414
      ],
      [
        "▁클릭",
        -9.762187984997315
      ],
      [
        "▁욕설",
        -9.764338471988701
      ],
      [
        "▁→",
        -9.765195854456024
      ],
      [
        "▁지금은",
        -9.765982454032596
      ],
      [
        "▁웹사이트",
        -9.766508790736086
      ],
      [
        "▁계산",
        -9.766835622934284
      ],
      [
        "▁옷",
        -9.76693001883956
      ],
      [
        "▁링크",
        -9.767472857114932
      ],
      [
        "19",
        -9.767859871623267
      ],
      [
        "▁뿐만",
        -9.768197150575011
      ],
      [
        "▁2차",
        -9.76858111330652
      ],
      [
        "완",
        -9.768587756986207
      ],
      [
        "▁작가",
        -9.76881296047397
      ],
      [
        "▁예방",
        -9.769231641673924
      ],
      [
        "▁따",
        -9.76988281417227
      ],
      [
        "한다",
        -9.769998845178083
      ],
      [
        "▁의료",
        -9.770048358378551
      ],
      [
        "▁느낌",
        -9.77082389720874
      ],
      [
        "▁컬러",
        -9.77264917476559
      ],
      [
        "뿐만",
        -9.77287611064408
      ],
      [
        "▁만족",
        -9.7729633975568
      ],
      [
        "명이",
        -9.774080105238857
      ],
      [
        "쯤",
        -9.77446183242174
      ],
      [
        "▁접근",
        -9.774866480578105
      ],
      [
        "하였습니다.",
        -9.77606588941931
      ],
      [
        "▁지나",
        -9.776127428286006
      ],
      [
        "별로",
        -9.776933811803383
      ],
      [
        "▁떠나",
        -9.777291893355414
      ],
      [
        "▁규모",
        -9.777811376013226
      ],
      [
        "me",
        -9.77885840809272
      ],
      [
        "킹",
        -9.779028613780893
      ],
      [
        "▁개의",
        -9.77923892512157
      ],
      [
        "▁어떠한",
        -9.779319501920284
      ],
      [
        "평가",
        -9.779400269517605
      ],
      [
        "▁사진을",
        -9.779644672530623
      ],
      [
        "사랑",
        -9.77965357701235
      ],
      [
        "▁일상",
        -9.779668880472407
      ],
      [
        "▁보여",
        -9.779818816420175
      ],
      [
        "▁전시",
        -9.780363662292316
      ],
      [
        "이기",
        -9.7811348618979
      ],
      [
        "나무",
        -9.782267544382108
      ],
      [
        "▁좋다.",
        -9.782729460777448
      ],
      [
        "▁요소",
        -9.7835138605303
      ],
      [
        "▁자녀",
        -9.783686810085104
      ],
      [
        "▁책임을",
        -9.784171950404586
      ],
      [
        "▁반응",
        -9.785238933013726
      ],
      [
        "▁앞에서",
        -9.78548269049043
      ],
      [
        "us",
        -9.786727655005826
      ],
      [
        "턴",
        -9.787405157248223
      ],
      [
        "▁I.",
        -9.787562316776766
      ],
      [
        "▁알려",
        -9.787690066978634
      ],
      [
        "▁능력",
        -9.787876051127185
      ],
      [
        "▁굉장히",
        -9.78796930937964
      ],
      [
        "▁남편",
        -9.789370081883714
      ],
      [
        "▁달성",
        -9.78954202800458
      ],
      [
        "▁서핑",
        -9.789951180236494
      ],
      [
        "▁언제",
        -9.790647307112863
      ],
      [
        "▁ᄒᄒ",
        -9.790886401594545
      ],
      [
        "침",
        -9.79179779377419
      ],
      [
        "▁먹",
        -9.791874357162982
      ],
      [
        "▁개정",
        -9.791920763688196
      ],
      [
        "문을",
        -9.792837041499387
      ],
      [
        "▁선발",
        -9.79334924176557
      ],
      [
        "▁정보는",
        -9.793538203556956
      ],
      [
        "▁좋습니다.",
        -9.793578330460669
      ],
      [
        "과학",
        -9.79423917792018
      ],
      [
        "▁쓰고",
        -9.794322705995594
      ],
      [
        "▁나이",
        -9.794794415479057
      ],
      [
        "▁설",
        -9.794798779826841
      ],
      [
        "25",
        -9.795010462953206
      ],
      [
        "▁경우는",
        -9.795452085213812
      ],
      [
        "▁입장",
        -9.795481922779553
      ],
      [
        "춘",
        -9.795714417897077
      ],
      [
        "▁답",
        -9.796120396016072
      ],
      [
        "▁갑자기",
        -9.796351624507952
      ],
      [
        "▁관심",
        -9.79635866922948
      ],
      [
        "▁강한",
        -9.796512905193108
      ],
      [
        "기획",
        -9.796674028553596
      ],
      [
        ")로",
        -9.796855851161236
      ],
      [
        "▁나눠",
        -9.796909851465117
      ],
      [
        "있",
        -9.79703785239877
      ],
      [
        "▁따로",
        -9.797084100408973
      ],
      [
        "▁비슷한",
        -9.798252659228197
      ],
      [
        "▁집에",
        -9.798258104230538
      ],
      [
        "름",
        -9.798916692070756
      ],
      [
        "▁상승",
        -9.798978614880706
      ],
      [
        "▁3)",
        -9.799341077914455
      ],
      [
        "am",
        -9.799395048042806
      ],
      [
        "▁행위",
        -9.799745929183583
      ],
      [
        "요?",
        -9.79991654857956
      ],
      [
        "▁사람들의",
        -9.800210402100289
      ],
      [
        "소리",
        -9.800322011159881
      ],
      [
        "보기",
        -9.800614262650537
      ],
      [
        "되며,",
        -9.801081880396232
      ],
      [
        "압",
        -9.801662213571026
      ],
      [
        "▁근무",
        -9.801853007489148
      ],
      [
        "▁과정에서",
        -9.802011511151584
      ],
      [
        "째",
        -9.80217889873113
      ],
      [
        "▁성격",
        -9.802250198617084
      ],
      [
        "습니다",
        -9.802302758550804
      ],
      [
        "▁관",
        -9.803460245816295
      ],
      [
        "하려고",
        -9.803616133671975
      ],
      [
        "니까",
        -9.803913147489578
      ],
      [
        "17",
        -9.804456425158225
      ],
      [
        "▁반면",
        -9.804828233539013
      ],
      [
        ")으로",
        -9.805064048558826
      ],
      [
        "▁느낌이",
        -9.80518189787923
      ],
      [
        "▁우려",
        -9.80578743452056
      ],
      [
        "▁수준",
        -9.806132094332018
      ],
      [
        "!!!",
        -9.80657439947705
      ],
      [
        "▁방식",
        -9.807392216069207
      ],
      [
        "▁거쳐",
        -9.807404714689305
      ],
      [
        "▁주택",
        -9.807527369517201
      ],
      [
        "][",
        -9.807694731355731
      ],
      [
        "했는데",
        -9.807996872698482
      ],
      [
        "▁2014년",
        -9.808966715117062
      ],
      [
        "▁발달",
        -9.809050792782864
      ],
      [
        "▁코스",
        -9.80937697857798
      ],
      [
        "출장안마",
        -9.809401455447329
      ],
      [
        "▁존",
        -9.809741584433418
      ],
      [
        "▁그게",
        -9.809796038614206
      ],
      [
        "▁인터뷰",
        -9.810473018567068
      ],
      [
        "▁주고",
        -9.811457090852496
      ],
      [
        "넷",
        -9.811473841115111
      ],
      [
        "▁조건",
        -9.811657462048522
      ],
      [
        "▁세트",
        -9.811676773381087
      ],
      [
        "▁차이",
        -9.811898266797023
      ],
      [
        "▁영업",
        -9.812260988876098
      ],
      [
        "수집된",
        -9.812971489469646
      ],
      [
        "농",
        -9.81339152736372
      ],
      [
        "▁비용",
        -9.814000773505988
      ],
      [
        "▁모르는",
        -9.814359270505289
      ],
      [
        "▁3일",
        -9.815289882720919
      ],
      [
        "16",
        -9.8154014710468
      ],
      [
        "▁제품을",
        -9.815676207313704
      ],
      [
        "▁형성",
        -9.815734102395155
      ],
      [
        "▁곳에",
        -9.815755972296202
      ],
      [
        "▁사회복지",
        -9.815918028419677
      ],
      [
        "▁마사지",
        -9.81612268060486
      ],
      [
        "▁전부",
        -9.816561522061239
      ],
      [
        "id",
        -9.816575745979037
      ],
      [
        "▁아내",
        -9.816685224010373
      ],
      [
        "▁은행",
        -9.816688616931874
      ],
      [
        "▁15일",
        -9.816770928991254
      ],
      [
        "▁어디",
        -9.81754642265993
      ],
      [
        "▁활동을",
        -9.817905388097032
      ],
      [
        "▁더불어",
        -9.818516182674745
      ],
      [
        "▁코드",
        -9.819571995544894
      ],
      [
        "▁됐다.",
        -9.819686042355395
      ],
      [
        "과정을",
        -9.820046796389056
      ],
      [
        "▁의원",
        -9.820418002836508
      ],
      [
        "▁`",
        -9.820604897497027
      ],
      [
        "▁그럴",
        -9.820680623671358
      ],
      [
        "▁차이가",
        -9.820757203649386
      ],
      [
        "▁시각",
        -9.820854522105499
      ],
      [
        "▁자동",
        -9.820984270397297
      ],
      [
        "▁등)",
        -9.821553171080541
      ],
      [
        "▁말한다.",
        -9.82265820587693
      ],
      [
        "룸",
        -9.822766078166406
      ],
      [
        "▁세상을",
        -9.823531179018296
      ],
      [
        "기능",
        -9.824100261511422
      ],
      [
        "▁중인",
        -9.824646873529069
      ],
      [
        "▁상기",
        -9.824981863717532
      ],
      [
        "▁설립",
        -9.825632517870648
      ],
      [
        "인데,",
        -9.82707213893638
      ],
      [
        "▁아니라,",
        -9.827690345717851
      ],
      [
        "▁비밀",
        -9.828756200942486
      ],
      [
        "▁메일",
        -9.829039221393039
      ],
      [
        "▁통신",
        -9.829474952711257
      ],
      [
        "나라",
        -9.82959355030177
      ],
      [
        "▁70",
        -9.82987750919092
      ],
      [
        "쉬",
        -9.83217942247612
      ],
      [
        "▁진리",
        -9.832364736560113
      ],
      [
        "▁ago",
        -9.832833263083396
      ],
      [
        "”라고",
        -9.832881894870122
      ],
      [
        "ur",
        -9.833245264200063
      ],
      [
        "▁집에서",
        -9.833265211734439
      ],
      [
        "▁사이즈",
        -9.834086590373415
      ],
      [
        "▁철",
        -9.834396895668625
      ],
      [
        "il",
        -9.834431399827679
      ],
      [
        "리스",
        -9.835280297147747
      ],
      [
        "▁밀",
        -9.835672870011297
      ],
      [
        "▁상황에서",
        -9.836013072956195
      ],
      [
        "우리",
        -9.836342138692476
      ],
      [
        "른",
        -9.836455792905625
      ],
      [
        "▁일은",
        -9.836640254891499
      ],
      [
        "▁이번에",
        -9.836896258487723
      ],
      [
        "▁복지",
        -9.836947846297035
      ],
      [
        "▁베",
        -9.837201325664168
      ],
      [
        "▁카테고리의",
        -9.837408556580804
      ],
      [
        "▁수술",
        -9.837461777049398
      ],
      [
        "수가",
        -9.837687142537206
      ],
      [
        "누",
        -9.837774398047035
      ],
      [
        "▁태",
        -9.837906586473256
      ],
      [
        "ri",
        -9.838280044181317
      ],
      [
        ")’",
        -9.8383215386697
      ],
      [
        "정치",
        -9.838616793381902
      ],
      [
        "혈",
        -9.838822181951054
      ],
      [
        "▁아이들",
        -9.839213495846217
      ],
      [
        "▁검토",
        -9.84097259225284
      ],
      [
        "▁중에서",
        -9.841203607259583
      ],
      [
        "▁27",
        -9.842091871857619
      ],
      [
        "▁관리자",
        -9.842211933992932
      ],
      [
        "ic",
        -9.842320619357263
      ],
      [
        "▁자전거",
        -9.842625969742963
      ],
      [
        "하기로",
        -9.843239799112158
      ],
      [
        "▁실천",
        -9.843267362061809
      ],
      [
        "▁승리",
        -9.843323799179833
      ],
      [
        "▁투어",
        -9.844182880261036
      ],
      [
        "o~",
        -9.844310132989918
      ],
      [
        "▁나도",
        -9.844498635379654
      ],
      [
        "▁대형",
        -9.844824011201709
      ],
      [
        "▁사랑을",
        -9.844830747590567
      ],
      [
        "▁잠시",
        -9.845041510659357
      ],
      [
        "▁핵",
        -9.84536907233542
      ],
      [
        "▁유명",
        -9.845535716305093
      ],
      [
        "돈",
        -9.846204784514512
      ],
      [
        "▁만들고",
        -9.846334098852175
      ],
      [
        "▁찾을",
        -9.846351077258305
      ],
      [
        "복지",
        -9.846732386098475
      ],
      [
        "▁배포",
        -9.846996464234678
      ],
      [
        "▁경험을",
        -9.847205044760363
      ],
      [
        "’은",
        -9.847251468509286
      ],
      [
        "시대",
        -9.847613292183508
      ],
      [
        "▁합의",
        -9.847918983062733
      ],
      [
        "사람의",
        -9.848100383999853
      ],
      [
        "▁특성",
        -9.849465380526242
      ],
      [
        "▁점이",
        -9.849753803640787
      ],
      [
        "▁행복한",
        -9.850218497342716
      ],
      [
        "▁루",
        -9.850630831934371
      ],
      [
        "같이",
        -9.8515864403279
      ],
      [
        "▁잔",
        -9.851684235258276
      ],
      [
        "으며,",
        -9.851871563085734
      ],
      [
        "▁16일",
        -9.852614456637111
      ],
      [
        "은행",
        -9.853008698986478
      ],
      [
        "▁이와",
        -9.853447695403787
      ],
      [
        "▁버",
        -9.853479450294405
      ],
      [
        "내용의",
        -9.853547688180598
      ],
      [
        "꽃",
        -9.853858066766529
      ],
      [
        "겠습니다.",
        -9.854596979122476
      ],
      [
        "혀",
        -9.854884971179885
      ],
      [
        "▁가슴,",
        -9.854903907320626
      ],
      [
        "가격",
        -9.855035789279277
      ],
      [
        "안내",
        -9.855786259968255
      ],
      [
        "흥",
        -9.855868044930094
      ],
      [
        "▁깊은",
        -9.855883308586314
      ],
      [
        "점을",
        -9.855924148097003
      ],
      [
        "▁회복",
        -9.856409651855147
      ],
      [
        "▁시절",
        -9.856670890491612
      ],
      [
        "▁반복",
        -9.856713288338547
      ],
      [
        "엘",
        -9.85677239635623
      ],
      [
        "▁있지만,",
        -9.857450414319025
      ],
      [
        "▁문제점",
        -9.857557757375025
      ],
      [
        "▁그리스도",
        -9.858199714924947
      ],
      [
        "▁논문",
        -9.858268198058092
      ],
      [
        "적이고",
        -9.859563462636896
      ],
      [
        "▁LG",
        -9.859627751658955
      ],
      [
        "▁뇌",
        -9.85973305634603
      ],
      [
        "▁화면",
        -9.859848014858255
      ],
      [
        "▁이용할",
        -9.860311053641215
      ],
      [
        "▁공지",
        -9.861024910351396
      ],
      [
        "▁바탕으로",
        -9.861077328395087
      ],
      [
        "▁해당하는",
        -9.861107718360621
      ],
      [
        "▁싶어",
        -9.86159978406453
      ],
      [
        "▁살아",
        -9.861759663261488
      ],
      [
        "▁낮은",
        -9.862122289181613
      ],
      [
        "▁분들이",
        -9.862213449010094
      ],
      [
        "▁마련되어",
        -9.862660203365536
      ],
      [
        "력을",
        -9.86320700316228
      ],
      [
        "08",
        -9.86337731409712
      ],
      [
        "졌다.",
        -9.863877462469853
      ],
      [
        "홀",
        -9.86390460597665
      ],
      [
        "취",
        -9.864362279302444
      ],
      [
        "▁만난",
        -9.864366598177764
      ],
      [
        "▁공항",
        -9.864610216583086
      ],
      [
        "디자인",
        -9.86491511253856
      ],
      [
        "▁로마",
        -9.864981411573664
      ],
      [
        "▁망",
        -9.865237939627615
      ],
      [
        "▁아마",
        -9.865591559097023
      ],
      [
        "▁안에서",
        -9.866361864128987
      ],
      [
        "문의",
        -9.867215697765118
      ],
      [
        "▁할머니",
        -9.867834289724243
      ],
      [
        "플",
        -9.867841476436489
      ],
      [
        "▁이론",
        -9.868226649727081
      ],
      [
        "▁들어가",
        -9.868736290016837
      ],
      [
        "군요.",
        -9.868848970043437
      ],
      [
        "▁함",
        -9.869011351580342
      ],
      [
        "▁3회",
        -9.869355292662796
      ],
      [
        "투자",
        -9.869428555098775
      ],
      [
        "▁내려",
        -9.86980833583193
      ],
      [
        "▁애플",
        -9.869908532751431
      ],
      [
        "▁SNS",
        -9.870205211237796
      ],
      [
        "▁높",
        -9.870637924709467
      ],
      [
        "▁위험",
        -9.871373784560136
      ],
      [
        "▁짧은",
        -9.872147449879767
      ],
      [
        "▁성적",
        -9.873426844192476
      ],
      [
        "13",
        -9.87390755866377
      ],
      [
        "▁넘",
        -9.874457840651507
      ],
      [
        "▁처음으로",
        -9.8746872003153
      ],
      [
        "▁지속",
        -9.87517681533517
      ],
      [
        "▁궁금한",
        -9.875194931258513
      ],
      [
        "▁소식",
        -9.875624660521753
      ],
      [
        "이라면",
        -9.876164548481801
      ],
      [
        "】",
        -9.876165705661979
      ],
      [
        "▁현황",
        -9.877170147505014
      ],
      [
        "▁4페이지",
        -9.877171361372946
      ],
      [
        "결과",
        -9.877383441597875
      ],
      [
        "구조",
        -9.877447412901502
      ],
      [
        "▁즐거운",
        -9.879336745200963
      ],
      [
        "▁출신",
        -9.879349887563693
      ],
      [
        "ent",
        -9.879370254763526
      ],
      [
        "▁5일",
        -9.879823392432495
      ],
      [
        "li",
        -9.87989253420638
      ],
      [
        "21",
        -9.88011770956863
      ],
      [
        "라.",
        -9.880309027973322
      ],
      [
        "▁부분이",
        -9.880356581017955
      ],
      [
        "▁좋",
        -9.880400127510896
      ],
      [
        "하려면",
        -9.881287077446942
      ],
      [
        "하려는",
        -9.881302575504009
      ],
      [
        "으니",
        -9.881516794986476
      ],
      [
        "▁얻을",
        -9.881694669038666
      ],
      [
        "해질",
        -9.881816778996768
      ],
      [
        "to",
        -9.88187372973615
      ],
      [
        "▁느낄",
        -9.881875264310235
      ],
      [
        "▁재료",
        -9.882706004961385
      ],
      [
        "ia",
        -9.882958026456492
      ],
      [
        "▁테스트",
        -9.883799713560563
      ],
      [
        "▁향",
        -9.884451305763816
      ],
      [
        "▁집단",
        -9.884512548546525
      ],
      [
        "▁기회를",
        -9.884823231830886
      ],
      [
        "▁언급",
        -9.885307362433107
      ],
      [
        "거래",
        -9.886286723820373
      ],
      [
        "▁같",
        -9.886763356961843
      ],
      [
        "▁책임은",
        -9.887295920797396
      ],
      [
        "▁무엇을",
        -9.887296705997155
      ],
      [
        "▁뉴욕",
        -9.88733013265768
      ],
      [
        "▁개월",
        -9.887932999666983
      ],
      [
        "밖에",
        -9.88809958961095
      ],
      [
        "이라도",
        -9.888198847574845
      ],
      [
        "▁관계자는",
        -9.888236611714483
      ],
      [
        "▁1차",
        -9.88827815278725
      ],
      [
        "▁Re",
        -9.889140495469498
      ],
      [
        "▁패",
        -9.890060815839577
      ],
      [
        "▁거부",
        -9.890602103319669
      ],
      [
        "▁무료로",
        -9.890624554789513
      ],
      [
        "주셔서",
        -9.890777705278397
      ],
      [
        "것이",
        -9.890868929299579
      ],
      [
        "▁면접",
        -9.8920009253299
      ],
      [
        "▁by",
        -9.892266986535233
      ],
      [
        "▁목적으로",
        -9.892527882168427
      ],
      [
        "▁프로그램을",
        -9.892838316224282
      ],
      [
        "▁문학",
        -9.89323187264052
      ],
      [
        "▁3페이지",
        -9.894109131877672
      ],
      [
        "▁내용이",
        -9.894451395177995
      ],
      [
        "▁곳에서",
        -9.895284129057078
      ],
      [
        "▁대통령이",
        -9.89550322532315
      ],
      [
        "▁반영",
        -9.895802231669148
      ],
      [
        "▁명의",
        -9.896064689586183
      ],
      [
        "▁투",
        -9.89608566728972
      ],
      [
        "▁퍼",
        -9.896354256331305
      ],
      [
        "▁와서",
        -9.896384332078751
      ],
      [
        "폐",
        -9.896469796656618
      ],
      [
        "▁대부분의",
        -9.896487991104436
      ],
      [
        "쇼",
        -9.896635739577466
      ],
      [
        "▁버스",
        -9.896758019396126
      ],
      [
        "임을",
        -9.896865224737937
      ],
      [
        "q",
        -9.89823472540834
      ],
      [
        "관광",
        -9.898434281912166
      ],
      [
        "얼",
        -9.898538746833067
      ],
      [
        "2018",
        -9.898674455261872
      ],
      [
        "▁훈련",
        -9.899026983167925
      ],
      [
        "▁모습이",
        -9.89923663094945
      ],
      [
        "▁탈",
        -9.899598318044337
      ],
      [
        "▁규제",
        -9.899635942708674
      ],
      [
        "했",
        -9.899762432032848
      ],
      [
        "▁10일",
        -9.900119467652186
      ],
      [
        "▁목사",
        -9.900382631239644
      ],
      [
        "벽",
        -9.900556692379698
      ],
      [
        "de",
        -9.900846168943978
      ],
      [
        "▁힘든",
        -9.900882621674732
      ],
      [
        "▁실시간",
        -9.900977946039895
      ],
      [
        "▁그러면",
        -9.901077215645664
      ],
      [
        "장은",
        -9.90150397888033
      ],
      [
        "▁받았다.",
        -9.901556723408858
      ],
      [
        "연구소",
        -9.901616146032104
      ],
      [
        "▁독",
        -9.90169652664678
      ],
      [
        "▁is",
        -9.901840734142535
      ],
      [
        "▁전공",
        -9.901865277172593
      ],
      [
        "▁아이폰",
        -9.901904972650401
      ],
      [
        "전문",
        -9.902106953339306
      ],
      [
        "▁향후",
        -9.902278950493418
      ],
      [
        "▁새롭게",
        -9.902740002815447
      ],
      [
        "▁이들",
        -9.903094700435165
      ],
      [
        "한테",
        -9.903280740431612
      ],
      [
        "(P",
        -9.903476972973467
      ],
      [
        "▁유명한",
        -9.90400561132688
      ],
      [
        "더니",
        -9.904061148165283
      ],
      [
        "참",
        -9.90569474342602
      ],
      [
        "▁고급",
        -9.9059972295669
      ],
      [
        "▁출연",
        -9.906004129112226
      ],
      [
        "▁13일",
        -9.906518355064051
      ],
      [
        "사를",
        -9.90653838233471
      ],
      [
        "호텔",
        -9.90659076764622
      ],
      [
        "▁제2",
        -9.907094064698292
      ],
      [
        "▁소속",
        -9.90769771195559
      ],
      [
        "판매",
        -9.908376153473725
      ],
      [
        "▁어제",
        -9.908982943811953
      ],
      [
        "▁낙",
        -9.909535456910461
      ],
      [
        "▁앨범",
        -9.910313404281307
      ],
      [
        "▁찾으려",
        -9.910450028235754
      ],
      [
        "▁청와대",
        -9.911284139771894
      ],
      [
        "▁의견",
        -9.911526793126418
      ],
      [
        "▁한반도",
        -9.911909611891119
      ],
      [
        "협",
        -9.911972893937264
      ],
      [
        "▁30일",
        -9.91203417302837
      ],
      [
        "▁불편",
        -9.912414117491284
      ],
      [
        "혼",
        -9.91286318511201
      ],
      [
        "콘",
        -9.913497298396916
      ],
      [
        "ang",
        -9.914167574004612
      ],
      [
        "간의",
        -9.916223766228747
      ],
      [
        "▁때문입니다.",
        -9.916274872408913
      ],
      [
        "▁결",
        -9.916397059496425
      ],
      [
        "최",
        -9.916603714889971
      ],
      [
        "▁꽤",
        -9.917126272070107
      ],
      [
        "▁장애",
        -9.917127054952282
      ],
      [
        "▁도박",
        -9.91734447032496
      ],
      [
        "▁누구",
        -9.917953248195866
      ],
      [
        "▁뜨거운",
        -9.918028853989465
      ],
      [
        "동안",
        -9.918444477923726
      ],
      [
        "었던",
        -9.918627550871815
      ],
      [
        "ad",
        -9.91925477962994
      ],
      [
        "▁많",
        -9.919454266103383
      ],
      [
        "픽",
        -9.919613467730318
      ],
      [
        "▁약간",
        -9.919651897537644
      ],
      [
        "▁20일",
        -9.919712098698529
      ],
      [
        "기준",
        -9.919855798681963
      ],
      [
        "▁야구",
        -9.920322094653358
      ],
      [
        "▁철학",
        -9.920849158030364
      ],
      [
        "ation",
        -9.920891906451526
      ],
      [
        "▁2일",
        -9.921139232570603
      ],
      [
        "▁권리",
        -9.921352440490875
      ],
      [
        "육",
        -9.921829179506911
      ],
      [
        "에선",
        -9.922417272414341
      ],
      [
        "허",
        -9.922593099193936
      ],
      [
        "▁17일",
        -9.922779839103768
      ],
      [
        "▁경력",
        -9.922819445760911
      ],
      [
        "사람",
        -9.923249418183662
      ],
      [
        "▁말이다.",
        -9.923436289303844
      ],
      [
        "욱",
        -9.923889402906461
      ],
      [
        "▁페이스북",
        -9.924045313060116
      ],
      [
        "▁100%",
        -9.924062475822433
      ],
      [
        "▁아빠",
        -9.924338091596987
      ],
      [
        "갑",
        -9.924746243012951
      ],
      [
        "▁놓고",
        -9.92500451459455
      ],
      [
        "’가",
        -9.925128728550913
      ],
      [
        "▁이것이",
        -9.92523453200348
      ],
      [
        "하시면",
        -9.925254237901846
      ],
      [
        "▁고용",
        -9.925549874017772
      ],
      [
        "▁받지",
        -9.925627807396852
      ],
      [
        "▁요약",
        -9.92627872133973
      ],
      [
        "▁빛",
        -9.926357424309217
      ],
      [
        "▁숨",
        -9.926969996610334
      ],
      [
        "버스",
        -9.92744371580039
      ],
      [
        "▁없다고",
        -9.927985125907199
      ],
      [
        "▁우승",
        -9.928010383653769
      ],
      [
        "하니",
        -9.928053995404438
      ],
      [
        "▁상황이",
        -9.928355506861115
      ],
      [
        "▁매년",
        -9.928671087237422
      ],
      [
        "▁가득",
        -9.928916154212535
      ],
      [
        "어서",
        -9.929958351124329
      ],
      [
        "신청",
        -9.930127791367418
      ],
      [
        "▁제조",
        -9.93105878545424
      ],
      [
        "▁수출",
        -9.931438320062682
      ],
      [
        "▁중단",
        -9.931961606997925
      ],
      [
        "음악",
        -9.932481299310457
      ],
      [
        "▁경찰",
        -9.932997903674082
      ],
      [
        "▁역할",
        -9.933629023149864
      ],
      [
        "앤",
        -9.93364456023194
      ],
      [
        "▁숙소",
        -9.934251492359056
      ],
      [
        "▁14일",
        -9.934666201876972
      ],
      [
        "▁뉴",
        -9.934700158358801
      ],
      [
        "▁약관",
        -9.934771523693387
      ],
      [
        "▁좋을",
        -9.934799018268688
      ],
      [
        "▁오랜",
        -9.935122212198667
      ],
      [
        "▁부인",
        -9.935555439675419
      ],
      [
        "▁절",
        -9.935747540271208
      ],
      [
        "성과",
        -9.936075528113218
      ],
      [
        "ra",
        -9.936189247725558
      ],
      [
        "객",
        -9.93631980674596
      ],
      [
        "만이",
        -9.937268384104069
      ],
      [
        "▁12일",
        -9.93813641219087
      ],
      [
        "행사",
        -9.93836425952351
      ],
      [
        "▁태양",
        -9.938759291913051
      ],
      [
        "00",
        -9.939417258244474
      ],
      [
        "조선",
        -9.939499889472978
      ],
      [
        "▁그들이",
        -9.939843102027496
      ],
      [
        "국제",
        -9.940458933670413
      ],
      [
        "▁on",
        -9.940648039881124
      ],
      [
        "▁별도",
        -9.941338846601337
      ],
      [
        "▁아무리",
        -9.94143189268809
      ],
      [
        "▁음",
        -9.941526336637212
      ],
      [
        "건강",
        -9.941893168785473
      ],
      [
        "▁별로",
        -9.942233447689917
      ],
      [
        "▁생명",
        -9.942437653878951
      ],
      [
        "▁이용하여",
        -9.942478825247628
      ],
      [
        "▁소통",
        -9.942538254148868
      ],
      [
        "▁3개",
        -9.942647513608371
      ],
      [
        "▁남북",
        -9.94267449384167
      ],
      [
        "했다",
        -9.942939080549277
      ],
      [
        "률",
        -9.943531089212183
      ],
      [
        "▁단어",
        -9.943742560672375
      ],
      [
        "▁보상",
        -9.944021362503554
      ],
      [
        "들어",
        -9.94456198393118
      ],
      [
        "▁의견을",
        -9.944703492023503
      ],
      [
        "하자",
        -9.945035975654383
      ],
      [
        "▁5페이지",
        -9.94539897604033
      ],
      [
        "라인",
        -9.94541916279628
      ],
      [
        "▁근데",
        -9.945538117469518
      ],
      [
        "▁U",
        -9.945741036779598
      ],
      [
        "▁허용",
        -9.94595051909672
      ],
      [
        "▁잡아",
        -9.946139399850907
      ],
      [
        "▁사정",
        -9.946408243180386
      ],
      [
        "▁졸업",
        -9.946640358339499
      ],
      [
        "▁기준으로",
        -9.946684997312385
      ],
      [
        "▁전했다.",
        -9.94746485252585
      ],
      [
        "이고,",
        -9.947497966919663
      ],
      [
        "'s",
        -9.947729941449737
      ],
      [
        "▁유통",
        -9.947959120154625
      ],
      [
        "'의",
        -9.948025485133968
      ],
      [
        "자,",
        -9.948352576333955
      ],
      [
        "탕",
        -9.949200245568981
      ],
      [
        "▁때까지",
        -9.949476992002978
      ],
      [
        "▁패션",
        -9.949477958735425
      ],
      [
        "잡",
        -9.949933386723256
      ],
      [
        "▁싶다.",
        -9.95031245181248
      ],
      [
        "밥",
        -9.951367488718827
      ],
      [
        "▁미니",
        -9.951624508676023
      ],
      [
        "지요.",
        -9.95169934029397
      ],
      [
        "▁@",
        -9.952144434644232
      ],
      [
        "▁나중에",
        -9.952149292237525
      ],
      [
        "▁보이지",
        -9.952435318176438
      ],
      [
        "▁원인",
        -9.952818808026727
      ],
      [
        "▁하이",
        -9.953265711920864
      ],
      [
        "▁숫자",
        -9.953321321160772
      ],
      [
        "▁신문",
        -9.95343728346062
      ],
      [
        "▁담당",
        -9.953519883697695
      ],
      [
        "▁대체",
        -9.953691088189107
      ],
      [
        "랜드",
        -9.953767764893367
      ],
      [
        "<",
        -9.95398845141274
      ],
      [
        "▁표준",
        -9.954492360548759
      ],
      [
        "▁구현",
        -9.954543284183986
      ],
      [
        "▁그린",
        -9.954630432252156
      ],
      [
        "▁60",
        -9.954813503852055
      ],
      [
        "▁감정",
        -9.95499713673129
      ],
      [
        "▁이게",
        -9.95524522340229
      ],
      [
        "▁파악",
        -9.955686900873067
      ],
      [
        "다니",
        -9.95635548981651
      ],
      [
        "▁한국인",
        -9.956880361061588
      ],
      [
        "▁응원",
        -9.957693233920054
      ],
      [
        "▁올라",
        -9.958135046016423
      ],
      [
        "▁형식",
        -9.95817996136211
      ],
      [
        "▁기독교",
        -9.958927638107092
      ],
      [
        "▁보고서",
        -9.95907157027639
      ],
      [
        "▁남아",
        -9.959220379798468
      ],
      [
        "▁제거",
        -9.959411957945576
      ],
      [
        "▁문장",
        -9.959610950076321
      ],
      [
        "▁방법으로",
        -9.959687469668681
      ],
      [
        "▁보관",
        -9.959920841561189
      ],
      [
        "ul",
        -9.960000598334423
      ],
      [
        "▁캐나다",
        -9.960030630082768
      ],
      [
        "▁하지만,",
        -9.960374218064569
      ],
      [
        "▁밥",
        -9.960490118015521
      ],
      [
        "▁연애",
        -9.96051857007522
      ],
      [
        "둔",
        -9.960555865664872
      ],
      [
        "▁따뜻한",
        -9.960980159952747
      ],
      [
        "▁컨텐츠",
        -9.961332972091995
      ],
      [
        "▁탄생",
        -9.961750394318162
      ],
      [
        "검사",
        -9.961776192916137
      ],
      [
        "▁아직도",
        -9.961991102826186
      ],
      [
        "▁뒤에",
        -9.962771120638266
      ],
      [
        "▁Copyright",
        -9.962792523991903
      ],
      [
        "▁데이터를",
        -9.963070019473136
      ],
      [
        "▁사람들에게",
        -9.96318825304067
      ],
      [
        "리아",
        -9.96396451727093
      ],
      [
        "했고",
        -9.964056785496721
      ],
      [
        "▁스토리",
        -9.964744684705378
      ],
      [
        "▁신뢰",
        -9.964833082931737
      ],
      [
        "슈",
        -9.96488997826641
      ],
      [
        "▁교환",
        -9.964973161667185
      ],
      [
        "▁매력",
        -9.965071688311019
      ],
      [
        "▁인상",
        -9.965325051874999
      ],
      [
        "▁기분",
        -9.966646765053625
      ],
      [
        "▁KT",
        -9.966666464008473
      ],
      [
        "엄",
        -9.967031134987453
      ],
      [
        "▁식품",
        -9.96721924518773
      ],
      [
        "(B",
        -9.967425203587204
      ],
      [
        "장이",
        -9.96821186237256
      ],
      [
        "ol",
        -9.968542889518371
      ],
      [
        "부산",
        -9.968579077680777
      ],
      [
        "▁체결",
        -9.96929625121814
      ],
      [
        "틀",
        -9.969854204863154
      ],
      [
        "▁사람에게",
        -9.970058911741976
      ],
      [
        "▁토론",
        -9.970121825274308
      ],
      [
        "▁대출",
        -9.970284968431866
      ],
      [
        "▁노인",
        -9.971818112805767
      ],
      [
        "▁휴대폰",
        -9.971978284969973
      ],
      [
        "(A",
        -9.9720418582257
      ],
      [
        "보유",
        -9.97217715811067
      ],
      [
        "▁방식으로",
        -9.972413309189223
      ],
      [
        "되면서",
        -9.972677855337544
      ],
      [
        "였던",
        -9.972975354542845
      ],
      [
        "▁덕분에",
        -9.972984785745247
      ],
      [
        "▁취",
        -9.973499721235466
      ],
      [
        "샤",
        -9.973616521000647
      ],
      [
        "다\"고",
        -9.97406298940867
      ],
      [
        "뿐",
        -9.974150946843793
      ],
      [
        "▁예측",
        -9.974439614286291
      ],
      [
        "▁커",
        -9.974558602795472
      ],
      [
        "▁하겠습니다.",
        -9.974917211180227
      ],
      [
        "▁5년",
        -9.97502600428969
      ],
      [
        "▁그녀의",
        -9.975084291643636
      ],
      [
        "▁아니고",
        -9.975884081175055
      ],
      [
        "부터는",
        -9.975904259804873
      ],
      [
        "ta",
        -9.976004522019222
      ],
      [
        "▁초기",
        -9.976420142714549
      ],
      [
        "▁블루",
        -9.976521891763927
      ],
      [
        "했지만",
        -9.976545140129062
      ],
      [
        "프로",
        -9.976987894154838
      ],
      [
        "▁전력",
        -9.976995523072276
      ],
      [
        "▁몸을",
        -9.977065223719638
      ],
      [
        "▁참석",
        -9.97710769642985
      ],
      [
        "▁전용",
        -9.977148652665313
      ],
      [
        "▁있었",
        -9.977498818763387
      ],
      [
        "▁정부의",
        -9.977610257724017
      ],
      [
        "죠",
        -9.978032657376364
      ],
      [
        "▁제기",
        -9.97805090937506
      ],
      [
        "▁논란",
        -9.978912587882828
      ],
      [
        "▁주민",
        -9.979359241794192
      ],
      [
        "▁적은",
        -9.979838828098192
      ],
      [
        "▁제도",
        -9.980429341413483
      ],
      [
        "세트",
        -9.980485816716335
      ],
      [
        "▁뭔가",
        -9.9805192347044
      ],
      [
        "▁최소",
        -9.980973147429435
      ],
      [
        "▁소셜그래프",
        -9.981331131403163
      ],
      [
        "▁자체가",
        -9.981390943880573
      ],
      [
        "▁커뮤니티",
        -9.981481413606078
      ],
      [
        "사가",
        -9.981602721913582
      ],
      [
        "▁우수",
        -9.981628784782034
      ],
      [
        "▁범죄",
        -9.981672018976385
      ],
      [
        "▁항목",
        -9.982044529729635
      ],
      [
        "▁제공합니다.",
        -9.982149196901858
      ],
      [
        "▁포함한",
        -9.982298763580982
      ],
      [
        "▁야외",
        -9.983129229283321
      ],
      [
        "도시",
        -9.983603003573716
      ],
      [
        "▁2013년",
        -9.983620460928265
      ],
      [
        "▁교통",
        -9.984020138426205
      ],
      [
        "▁장비",
        -9.984204690062427
      ],
      [
        "14",
        -9.984779664464462
      ],
      [
        "힌",
        -9.985009501193161
      ],
      [
        "▁크",
        -9.985387650907004
      ],
      [
        "▁죄",
        -9.985524329805546
      ],
      [
        "개의",
        -9.985527167902447
      ],
      [
        "▁업로드",
        -9.98553424681798
      ],
      [
        "▁이제는",
        -9.985592019467918
      ],
      [
        "▁없다",
        -9.98571973138403
      ],
      [
        "▁민족",
        -9.987158458809084
      ],
      [
        "04",
        -9.987458701991269
      ],
      [
        "▁교사",
        -9.987924052665218
      ],
      [
        "「",
        -9.988438815764434
      ],
      [
        "비용",
        -9.989034471841784
      ],
      [
        "-1",
        -9.989214212106525
      ],
      [
        "▁통과",
        -9.989324353245902
      ],
      [
        ".”",
        -9.989393958626795
      ],
      [
        "▁주차",
        -9.990452423954565
      ],
      [
        "▁체크",
        -9.990969185482403
      ],
      [
        "▁질병",
        -9.991112264217069
      ],
      [
        "▁봅니다.",
        -9.991275517416785
      ],
      [
        "▁28",
        -9.99159207519801
      ],
      [
        "▁부부",
        -9.992390052931846
      ],
      [
        "▁오늘은",
        -9.992995816194016
      ],
      [
        "있다.",
        -9.993035250072596
      ],
      [
        "▁노출",
        -9.993127569835062
      ],
      [
        "계약",
        -9.993268810532857
      ],
      [
        "▁농",
        -9.993323799309115
      ],
      [
        "▁쉽지",
        -9.993608226015986
      ],
      [
        "▁절차",
        -9.993812133938189
      ],
      [
        "▁조치",
        -9.994239303546284
      ],
      [
        "▁장기",
        -9.994772564575307
      ],
      [
        "람",
        -9.995236589254814
      ],
      [
        "▁11일",
        -9.995372298503707
      ],
      [
        "▁주의",
        -9.995550884170164
      ],
      [
        "출장샵",
        -9.99570370330569
      ],
      [
        "출장만남",
        -9.99570461475004
      ],
      [
        "리는",
        -9.996049483197258
      ],
      [
        "랜",
        -9.996322206058835
      ],
      [
        "▁골프",
        -9.997151581387264
      ],
      [
        "▁In",
        -9.997207929747407
      ],
      [
        "▁시작했다.",
        -9.997286140533781
      ],
      [
        "칭",
        -9.997390663876274
      ],
      [
        "▁쉬운",
        -9.99849649634199
      ],
      [
        "▁부탁",
        -9.998561260956235
      ],
      [
        "la",
        -9.998666221006978
      ],
      [
        "한다면",
        -9.99916202700284
      ],
      [
        "▁19일",
        -9.999422314289223
      ],
      [
        "▁29",
        -9.999522809716904
      ],
      [
        "▁중요",
        -9.9995480921152
      ],
      [
        "▁유리",
        -9.999771291633866
      ],
      [
        "▁잠",
        -10.000060557561978
      ],
      [
        "가?",
        -10.000150012074261
      ],
      [
        "▁시작한",
        -10.001699678032448
      ],
      [
        "에게는",
        -10.002093910258303
      ],
      [
        "▁SK",
        -10.002441416882688
      ],
      [
        "응",
        -10.002691858209594
      ],
      [
        "▁이때",
        -10.002692329635813
      ],
      [
        "▁동일",
        -10.002791235436037
      ],
      [
        "▁우리에게",
        -10.003154553190729
      ],
      [
        "▁잡",
        -10.00331037549408
      ],
      [
        "하세요.",
        -10.003907194401684
      ],
      [
        "▁혹시",
        -10.004174163774547
      ],
      [
        "웨이",
        -10.004655072553376
      ],
      [
        "’로",
        -10.004670141520645
      ],
      [
        "찰",
        -10.004782139646245
      ],
      [
        "▁3D",
        -10.00510530517249
      ],
      [
        "보호",
        -10.005456777548513
      ],
      [
        "▁Q",
        -10.005580299008642
      ],
      [
        "(C",
        -10.006313938043348
      ],
      [
        "▁나가",
        -10.006381125178123
      ],
      [
        "권을",
        -10.007187996218885
      ],
      [
        "결제",
        -10.007330182499953
      ],
      [
        "▁일반적으로",
        -10.007770007880733
      ],
      [
        "▁팬",
        -10.008278815240686
      ],
      [
        "▁나에게",
        -10.008874770555977
      ],
      [
        "▁Y",
        -10.009056178480874
      ],
      [
        "▁계시",
        -10.009452024929123
      ],
      [
        "▁옵션",
        -10.00994284885888
      ],
      [
        "상의",
        -10.010092135413188
      ],
      [
        "섭",
        -10.011019479406732
      ],
      [
        "▁평화",
        -10.01118722909196
      ],
      [
        "▁7.",
        -10.011487891493525
      ],
      [
        "조직",
        -10.011645075244697
      ],
      [
        "▁2012년",
        -10.01187349620152
      ],
      [
        "빛",
        -10.011890656383674
      ],
      [
        "▁구매자",
        -10.012081744578207
      ],
      [
        "s)",
        -10.012877093892767
      ],
      [
        "였습니다.",
        -10.013813964825346
      ],
      [
        "▁깊이",
        -10.013852381955134
      ],
      [
        "안마",
        -10.014336563866692
      ],
      [
        "전에",
        -10.015255009531227
      ],
      [
        "▁가고",
        -10.015388327176776
      ],
      [
        "▁이건",
        -10.015464192633734
      ],
      [
        "궁",
        -10.016717632278226
      ],
      [
        "▁불러",
        -10.016794629356042
      ],
      [
        "▁사용하여",
        -10.017218634873316
      ],
      [
        "▁독립",
        -10.017511750802466
      ],
      [
        "운영",
        -10.018584392550444
      ],
      [
        "미디어",
        -10.018685274843147
      ],
      [
        "▁때마다",
        -10.018920259369391
      ],
      [
        "▁모두가",
        -10.019608263798592
      ],
      [
        "▁저렴한",
        -10.019647027246432
      ],
      [
        "▁올려",
        -10.019766942755647
      ],
      [
        "▁축제",
        -10.019832229057513
      ],
      [
        "▁그저",
        -10.020250757429132
      ],
      [
        "주택",
        -10.020644227348349
      ],
      [
        "▁대표적인",
        -10.020885115300228
      ],
      [
        "▁연장",
        -10.02129645527108
      ],
      [
        "▁ᆞ",
        -10.021479342039894
      ],
      [
        "예술",
        -10.02271958620586
      ],
      [
        "잔",
        -10.023062710110693
      ],
      [
        "▁도로",
        -10.023425197492696
      ],
      [
        "▁보수",
        -10.023631611958798
      ],
      [
        "되어야",
        -10.023912273343708
      ],
      [
        "▁힘이",
        -10.02417912578013
      ],
      [
        "프로그램",
        -10.02438125986319
      ],
      [
        "▁무선",
        -10.024618847613072
      ],
      [
        "▁봉",
        -10.025421593220665
      ],
      [
        "▁떠",
        -10.025702482827713
      ],
      [
        "▁부문",
        -10.025747621713473
      ],
      [
        "▁모여",
        -10.02594369990739
      ],
      [
        "았다.",
        -10.025953308797916
      ],
      [
        "’이라는",
        -10.026187983940828
      ],
      [
        "▁걸쳐",
        -10.02633061893838
      ],
      [
        "'는",
        -10.026369505145091
      ],
      [
        "▁이스라엘",
        -10.02644532666763
      ],
      [
        "잘",
        -10.026514179896125
      ],
      [
        "▁삶",
        -10.026724407012065
      ],
      [
        "▁사랑하는",
        -10.026861097608753
      ],
      [
        "▁나올",
        -10.027131677983169
      ],
      [
        "▁회사는",
        -10.027596092519492
      ],
      [
        "▁수사",
        -10.027714582943545
      ],
      [
        "▁진단",
        -10.027751233366136
      ],
      [
        "세대",
        -10.027850918860487
      ],
      [
        "징",
        -10.02820660625423
      ],
      [
        "▁공기",
        -10.028330767464375
      ],
      [
        "▁이탈리아",
        -10.029493330106924
      ],
      [
        "폭",
        -10.029660490894283
      ],
      [
        "분야",
        -10.0301159998886
      ],
      [
        "▁대중",
        -10.030190485357995
      ],
      [
        "상을",
        -10.030771067758025
      ],
      [
        "▁왔",
        -10.03103337183197
      ],
      [
        "모델",
        -10.03121459888979
      ],
      [
        "▁그렇지",
        -10.031387007297006
      ],
      [
        "▁영향",
        -10.03143762204562
      ],
      [
        "탑",
        -10.031499121622971
      ],
      [
        "▁바이",
        -10.031736542457761
      ],
      [
        "연구원",
        -10.031787094589326
      ],
      [
        "폰",
        -10.032294921778675
      ],
      [
        "▁세상에",
        -10.032321387933223
      ],
      [
        "▁헤",
        -10.033115615357907
      ],
      [
        "▁중간",
        -10.033282680716798
      ],
      [
        "장애",
        -10.033445394851888
      ],
      [
        "▁예수님",
        -10.033568153060521
      ],
      [
        "▁맨",
        -10.033703585184309
      ],
      [
        "금융",
        -10.03379430061565
      ],
      [
        "출장마사지",
        -10.034849355418011
      ],
      [
        "하다고",
        -10.035398599895071
      ],
      [
        "▁공무원",
        -10.036194140219651
      ],
      [
        "',",
        -10.03624825169413
      ],
      [
        "▁해피캠퍼스",
        -10.036314366871828
      ],
      [
        "▁조합",
        -10.036489645212317
      ],
      [
        "▁이슈",
        -10.03701426159276
      ],
      [
        "▁출력",
        -10.037754129858078
      ],
      [
        "▁연출",
        -10.037765321525377
      ],
      [
        "▁30분",
        -10.037859076071591
      ],
      [
        "▁요금",
        -10.038282493668717
      ],
      [
        "십",
        -10.038284416732662
      ],
      [
        "맛",
        -10.03832645498947
      ],
      [
        "▁차례",
        -10.038572550135378
      ],
      [
        "▁1회",
        -10.038831735162084
      ],
      [
        "빌",
        -10.038954363768713
      ],
      [
        "▁필",
        -10.039072894632028
      ],
      [
        "▁위로",
        -10.039352943905218
      ],
      [
        "▁이들은",
        -10.039488552832806
      ],
      [
        "▁해당되는",
        -10.039605142975468
      ],
      [
        "▁기술을",
        -10.040549326042859
      ],
      [
        "일본",
        -10.04118911282735
      ],
      [
        "▁파트너",
        -10.041605246112084
      ],
      [
        "▁시간에",
        -10.041860086609814
      ],
      [
        "▁정원",
        -10.042321793577859
      ],
      [
        "전주",
        -10.042523869985802
      ],
      [
        "▁공장",
        -10.042843534064481
      ],
      [
        "▁창조",
        -10.042910138520773
      ],
      [
        "화를",
        -10.042951121802043
      ],
      [
        "▁의심",
        -10.043250848754878
      ],
      [
        "▁충북",
        -10.043704413006962
      ],
      [
        "▁이유로",
        -10.043840766555624
      ],
      [
        "자리를",
        -10.043843675561252
      ],
      [
        "▁8일",
        -10.044082313129476
      ],
      [
        "IN",
        -10.044205399995086
      ],
      [
        "▁자신",
        -10.044383375891613
      ],
      [
        "▁외국",
        -10.045441522144513
      ],
      [
        "▁주말",
        -10.045959319860318
      ],
      [
        "식품",
        -10.045984905282028
      ],
      [
        "자로",
        -10.046314714462607
      ],
      [
        "회의",
        -10.046360571864863
      ],
      [
        "▁수원",
        -10.046456815458857
      ],
      [
        "데이",
        -10.046539884216514
      ],
      [
        "▁작업을",
        -10.046616321004718
      ],
      [
        "♥",
        -10.046617378829026
      ],
      [
        "마케팅",
        -10.047119154818805
      ],
      [
        "▁무엇이",
        -10.04735057770267
      ],
      [
        "▁독자",
        -10.047578594832142
      ],
      [
        "하라",
        -10.04762990841905
      ],
      [
        "▁18일",
        -10.048294202484925
      ],
      [
        "▁제1",
        -10.048345482095511
      ],
      [
        "핑",
        -10.048572129487445
      ],
      [
        "▁사업을",
        -10.048738520327895
      ],
      [
        "▁분명",
        -10.048789689855369
      ],
      [
        "▁후원",
        -10.048801930849265
      ],
      [
        "▁사람들을",
        -10.049463983705188
      ],
      [
        "▁다운받",
        -10.049478645938763
      ],
      [
        "▁넣어",
        -10.049757621899154
      ],
      [
        "▁강력한",
        -10.049863148270763
      ],
      [
        "→",
        -10.049898403791463
      ],
      [
        "관계를",
        -10.049952305267208
      ],
      [
        "▁이유가",
        -10.050127854082362
      ],
      [
        "▁공감",
        -10.050513620193678
      ],
      [
        "자동차",
        -10.050915428315939
      ],
      [
        "▁9일",
        -10.051642318583276
      ],
      [
        "▁합",
        -10.051811741831362
      ],
      [
        "▁특",
        -10.0518453004657
      ],
      [
        "▁전투",
        -10.05213074652975
      ],
      [
        "▁위반",
        -10.052626986060595
      ],
      [
        "만을",
        -10.0530125786233
      ],
      [
        "▁설명했다.",
        -10.053260111716796
      ],
      [
        "▁의미를",
        -10.053351388625142
      ],
      [
        "스러운",
        -10.05340095943107
      ],
      [
        "▁가까이",
        -10.053843669588097
      ],
      [
        "▁내년",
        -10.053890651136532
      ],
      [
        "▁베트남",
        -10.054022296523325
      ],
      [
        "가지",
        -10.054439076911745
      ],
      [
        "▁맞춰",
        -10.054634088647017
      ],
      [
        "▁가구",
        -10.054703704210244
      ],
      [
        "중국",
        -10.054733239590664
      ],
      [
        "▁환",
        -10.055353901728488
      ],
      [
        "토토",
        -10.055802419438042
      ],
      [
        "▁한계",
        -10.05606094709195
      ],
      [
        "핵",
        -10.056066904429649
      ],
      [
        "이론",
        -10.05614252095018
      ],
      [
        "▁방안",
        -10.056807826981235
      ],
      [
        "▁페",
        -10.05695934308271
      ],
      [
        "▁훌륭한",
        -10.057346567837403
      ],
      [
        "na",
        -10.057525373849193
      ],
      [
        "기로",
        -10.058155087043993
      ],
      [
        "▁눈을",
        -10.058549086039289
      ],
      [
        "닝",
        -10.058550772984098
      ],
      [
        "짐",
        -10.058632118437693
      ],
      [
        "▁생각하고",
        -10.058664996997717
      ],
      [
        "▁부정",
        -10.059342680298993
      ],
      [
        "▁한달",
        -10.060074844219155
      ],
      [
        "재단",
        -10.060647575618066
      ],
      [
        "▁무기",
        -10.060789272990428
      ],
      [
        "▁인구",
        -10.061196875059707
      ],
      [
        "▁만남",
        -10.061235113034869
      ],
      [
        "번호",
        -10.062264598044852
      ],
      [
        "▁카지노",
        -10.062601717298854
      ],
      [
        "학회",
        -10.063088079127725
      ],
      [
        "▁신앙",
        -10.063121158309912
      ],
      [
        "▁24시간",
        -10.064096340052721
      ],
      [
        "상당히",
        -10.064603286518722
      ],
      [
        "▁범위",
        -10.064888623132159
      ],
      [
        "되며",
        -10.065040887025088
      ],
      [
        "▁위기",
        -10.065323493063394
      ],
      [
        "제주",
        -10.065327106713923
      ],
      [
        "▁성능",
        -10.065651979636137
      ],
      [
        "▁손을",
        -10.066227881457518
      ],
      [
        "▁대통령은",
        -10.066365896599418
      ],
      [
        "▁티",
        -10.066577812882898
      ],
      [
        "건설",
        -10.067290833826368
      ],
      [
        "▁않게",
        -10.06826635258871
      ],
      [
        "오피",
        -10.068313212754827
      ],
      [
        "려면",
        -10.068382526742582
      ],
      [
        "맥",
        -10.068479394759972
      ],
      [
        "▁평",
        -10.068661853336398
      ],
      [
        "경주",
        -10.06898251383554
      ],
      [
        "▁직장",
        -10.069140524572486
      ],
      [
        "측",
        -10.06928795769597
      ],
      [
        "31",
        -10.069474900841112
      ],
      [
        "만한",
        -10.06951443128288
      ],
      [
        "▁향해",
        -10.069748136620365
      ],
      [
        "▁매장",
        -10.069792504296991
      ],
      [
        "▁계",
        -10.069850238643776
      ],
      [
        "▁변화를",
        -10.070061273349516
      ],
      [
        "련",
        -10.070869367162757
      ],
      [
        "통신",
        -10.070975140609555
      ],
      [
        "▁내에",
        -10.071011231020346
      ],
      [
        "문학",
        -10.071914697112783
      ],
      [
        "▁이용한",
        -10.07200667875585
      ],
      [
        "▁회",
        -10.072349188206175
      ],
      [
        "마을",
        -10.07262707225166
      ],
      [
        "▁내에서",
        -10.07364485232453
      ],
      [
        "▁작년",
        -10.074042917683936
      ],
      [
        "능력",
        -10.074153068343502
      ],
      [
        "씨가",
        -10.074158297888017
      ],
      [
        "리그",
        -10.07419865072319
      ],
      [
        "▁게시판",
        -10.074471489998519
      ],
      [
        "▁나오",
        -10.07447859193639
      ],
      [
        "▁다리",
        -10.075031005932146
      ],
      [
        "▁싶습니다.",
        -10.075367960765364
      ],
      [
        "▁하늘",
        -10.075976056762222
      ],
      [
        "씨는",
        -10.076062488012596
      ],
      [
        "▁풍",
        -10.076125983065532
      ],
      [
        "검",
        -10.07649043979438
      ],
      [
        "▁200",
        -10.076492310999111
      ],
      [
        "이니",
        -10.076602116019943
      ],
      [
        "이었습니다.",
        -10.076838278646711
      ],
      [
        "▁80",
        -10.076979943146208
      ],
      [
        "겠",
        -10.077196701365665
      ],
      [
        "다!",
        -10.077666086935832
      ],
      [
        "▁통계",
        -10.077686645956174
      ],
      [
        "조차",
        -10.077969216829167
      ],
      [
        "▁여행을",
        -10.07863321102652
      ],
      [
        "축제",
        -10.079153289353584
      ],
      [
        "웅",
        -10.079192068208032
      ],
      [
        "레이",
        -10.079299991284747
      ],
      [
        "▁상상",
        -10.079315521457513
      ],
      [
        "▁로봇",
        -10.079604719161306
      ],
      [
        "▁내일",
        -10.079667489331273
      ],
      [
        "혁",
        -10.080553980787528
      ],
      [
        "사는",
        -10.080641921398067
      ],
      [
        "인천",
        -10.081932280746221
      ],
      [
        "▁롯데",
        -10.082474072111474
      ],
      [
        "낼",
        -10.082580873887597
      ],
      [
        "▁발생한",
        -10.083353750823633
      ],
      [
        "발전",
        -10.083837993358424
      ],
      [
        "스타그램",
        -10.084128132134092
      ],
      [
        "▁게시",
        -10.084307325611501
      ],
      [
        "▁골",
        -10.085134057294404
      ],
      [
        "▁돌아가",
        -10.08598108837219
      ],
      [
        "▁말할",
        -10.086148308790044
      ],
      [
        "사고",
        -10.08627952202439
      ],
      [
        "▁정부가",
        -10.086402252782715
      ],
      [
        "▁2011년",
        -10.086753852705872
      ],
      [
        "결코",
        -10.086814546237871
      ],
      [
        "▁전원",
        -10.086815290888186
      ],
      [
        "▁4일",
        -10.087655868994649
      ],
      [
        "▁나머지",
        -10.087961756864786
      ],
      [
        "선수",
        -10.088029362299421
      ],
      [
        "▁곡",
        -10.08816028867269
      ],
      [
        "▁용어",
        -10.088436764347296
      ],
      [
        "▁강남",
        -10.088965595501426
      ],
      [
        "▁신체",
        -10.089601285521423
      ],
      [
        "사의",
        -10.089607721694687
      ],
      [
        "▁회의",
        -10.089756852013096
      ],
      [
        "▁심지어",
        -10.089827747647924
      ],
      [
        "하시기",
        -10.09073097823747
      ],
      [
        "PC",
        -10.090849879262784
      ],
      [
        "▁6페이지",
        -10.090859476709193
      ],
      [
        "▁기회가",
        -10.091149260345084
      ],
      [
        "▁이거",
        -10.091566750390449
      ],
      [
        "▁©",
        -10.091836633542483
      ],
      [
        "▁그리스",
        -10.092081629076098
      ],
      [
        "탁",
        -10.092367209914698
      ],
      [
        "▁많아",
        -10.092634189510713
      ],
      [
        "솔",
        -10.09272345185865
      ],
      [
        "딩",
        -10.092786625187529
      ],
      [
        "▁세대",
        -10.093085067616126
      ],
      [
        "▁기업의",
        -10.093213648778143
      ],
      [
        "개혁",
        -10.093279039710563
      ],
      [
        "▁라인",
        -10.093352708791738
      ],
      [
        "▁것인지",
        -10.093976314663422
      ],
      [
        "▁자료에",
        -10.094107186062416
      ],
      [
        "te",
        -10.094265885294142
      ],
      [
        "▁안드로이드",
        -10.095503881731531
      ],
      [
        "▁프리",
        -10.095621814242936
      ],
      [
        "▁속도",
        -10.095869030911471
      ],
      [
        "▁쇼핑",
        -10.096053284709953
      ],
      [
        "▁확정",
        -10.096194575768763
      ],
      [
        "시티",
        -10.096594871103232
      ],
      [
        "▁남은",
        -10.096679672575089
      ],
      [
        "▁비밀번호",
        -10.096813332609901
      ],
      [
        "▁고통",
        -10.097040003661133
      ],
      [
        "ry",
        -10.097108702504448
      ],
      [
        "▁4개",
        -10.097268034262207
      ],
      [
        "im",
        -10.097666991583669
      ],
      [
        "시즌",
        -10.09795879468934
      ],
      [
        "가능",
        -10.098050921594378
      ],
      [
        "▁제어",
        -10.098302324638084
      ],
      [
        "였",
        -10.098420405178652
      ],
      [
        "▁순위",
        -10.098532883225037
      ],
      [
        "서는",
        -10.099290936436397
      ],
      [
        "톤",
        -10.099450847483167
      ],
      [
        "▁정확한",
        -10.100273045154378
      ],
      [
        "▁세금",
        -10.1005784923332
      ],
      [
        "▁열어",
        -10.100861345534966
      ],
      [
        "▁교체",
        -10.101306152704044
      ],
      [
        "▁보지",
        -10.10135803776534
      ],
      [
        "▁있음",
        -10.101686298801651
      ],
      [
        "이야기",
[...]
