{
  "version": "1.0",
  "truncation": null,
  "padding": null,
  "added_tokens": [
    {
      "id": 0,
      "content": "[UNK]",
      "single_word": false,
      "lstrip": false,
      "rstrip": false,
      "normalized": false,
      "special": true
    },
    {
      "id": 1,
      "content": "[CLS]",
      "single_word": false,
      "lstrip": false,
      "rstrip": false,
      "normalized": false,
      "special": true
    },
    {
      "id": 2,
      "content": "[SEP]",
      "single_word": false,
      "lstrip": false,
      "rstrip": false,
      "normalized": false,
      "special": true
    },
    {
      "id": 3,
      "content": "[PAD]",
      "single_word": false,
      "lstrip": false,
      "rstrip": false,
      "normalized": false,
      "special": true
    },
    {
      "id": 4,
      "content": "[MASK]",
      "single_word": false,
      "lstrip": false,
      "rstrip": false,
      "normalized": false,
      "special": true
    }
  ],
  "normalizer": {
    "type": "Sequence",
    "normalizers": [
      {
        "type": "Nmt"
      },
      {
        "type": "NFKC"
      },
      {
        "type": "Replace",
        "pattern": {
          "Regex": " {2,}"
        },
        "content": " "
      }
    ]
  },
  "pre_tokenizer": {
    "type": "Metaspace",
    "replacement": "▁",
    "prepend_scheme": "always",
    "split": true
  },
  "post_processor": null,
  "decoder": {
    "type": "Metaspace",
    "replacement": "▁",
    "prepend_scheme": "always",
    "split": true
  },
  "model": {
    "type": "Unigram",
    "unk_id": null,
    "vocab": [
      [
        "[UNK]",
        0.0
      ],
      [
        "[CLS]",
        0.0
      ],
      [
        "[SEP]",
        0.0
      ],
      [
        "[PAD]",
        0.0
      ],
      [
        "[MASK]",
        0.0
      ],
      [
        "▁",
        -2.755764848819263
      ],
      [
        "の",
        -4.410397958819056
      ],
      [
        "。",
        -4.436238172590473
      ],
      [
        "が",
        -4.672697680938716
      ],
      [
        "を",
        -4.716880790590226
      ],
      [
        "、",
        -4.845007401856591
      ],
      [
        "に",
        -4.853600477125967
      ],
      [
        "は",
        -4.975033953671865
      ],
      [
        "と",
        -5.243914534529499
      ],
      [
        "も",
        -5.257770976223686
      ],
      [
        "で",
        -5.431908714450767
      ],
      [
        "から",
        -5.590847280051562
      ],
      [
        "です。",
        -5.794091293714352
      ],
      [
        "な",
        -5.819423022307335
      ],
      [
        "い",
        -5.871680039279032
      ],
      [
        ")",
        -5.924713577473536
      ],
      [
        "や",
        -6.002542738825423
      ],
      [
        "・",
        -6.030914673087068
      ],
      [
        "し",
        -6.040767885919001
      ],
      [
        "は、",
        -6.059491752268414
      ],
      [
        "」",
        -6.061343907158992
      ],
      [
        "する",
        -6.071422169512369
      ],
      [
        "「",
        -6.124681780403418
      ],
      [
        "(",
        -6.223152306951412
      ],
      [
        "た",
        -6.265694398436685
      ],
      [
        "く",
        -6.337483116204027
      ],
      [
        "という",
        -6.443930446025144
      ],
      [
        "した",
        -6.502192337623898
      ],
      [
        "して",
        -6.541422605836752
      ],
      [
        "ました。",
        -6.541597140204793
      ],
      [
        "り",
        -6.5424566045396215
      ],
      [
        "...",
        -6.602025252383218
      ],
      [
        "が、",
        -6.625774413007604
      ],
      [
        "て",
        -6.644837776558466
      ],
      [
        "お",
        -6.654829483165399
      ],
      [
        "る",
        -6.6692793211818575
      ],
      [
        "ます。",
        -6.726484806791108
      ],
      [
        "人",
        -6.735644918560613
      ],
      [
        "には",
        -6.752383081976776
      ],
      [
        "か",
        -6.758289015774201
      ],
      [
        ".",
        -6.762169397487395
      ],
      [
        "——",
        -6.8004114489319285
      ],
      [
        "として",
        -6.81024919117832
      ],
      [
        "ら",
        -6.830551701495697
      ],
      [
        "その",
        -6.851176351264501
      ],
      [
        "った",
        -6.934619194729593
      ],
      [
        "?",
        -6.9355878505457005
      ],
      [
        "さ",
        -6.974726826564481
      ],
      [
        "など",
        -6.997003001508245
      ],
      [
        "この",
        -7.000380553062783
      ],
      [
        "み",
        -7.0156275717583245
      ],
      [
        "▁「",
        -7.017338762159543
      ],
      [
        "1",
        -7.023141397752414
      ],
      [
        "者",
        -7.026733278500515
      ],
      [
        "について",
        -7.03137642953285
      ],
      [
        "と思います。",
        -7.052992651834762
      ],
      [
        "ない",
        -7.064203121206146
      ],
      [
        "こ",
        -7.070022016349439
      ],
      [
        "す",
        -7.07279119562733
      ],
      [
        "!",
        -7.075919828286338
      ],
      [
        "的に",
        -7.082900758725202
      ],
      [
        "日",
        -7.180905192227628
      ],
      [
        "でも",
        -7.205391887479728
      ],
      [
        "5",
        -7.264882064881468
      ],
      [
        "こと",
        -7.274203413428953
      ],
      [
        "^",
        -7.274446438644219
      ],
      [
        "2",
        -7.279531011236648
      ],
      [
        "あ",
        -7.282284171083791
      ],
      [
        "4",
        -7.285082058080136
      ],
      [
        "う",
        -7.2906725858255115
      ],
      [
        "時",
        -7.297678657325139
      ],
      [
        "だけ",
        -7.297710297695329
      ],
      [
        "し、",
        -7.300418379379941
      ],
      [
        "ン",
        -7.304667958036756
      ],
      [
        "って",
        -7.311223833974472
      ],
      [
        "より",
        -7.31264248156477
      ],
      [
        "上",
        -7.319710548383146
      ],
      [
        "き",
        -7.319720821063637
      ],
      [
        "で、",
        -7.327215989920992
      ],
      [
        "ある",
        -7.349840855611496
      ],
      [
        "『",
        -7.3519842608496315
      ],
      [
        "ちょっと",
        -7.3540162004892595
      ],
      [
        "ま",
        -7.368939214628262
      ],
      [
        "そう",
        -7.377579985815464
      ],
      [
        "年",
        -7.39953721398929
      ],
      [
        "であり、",
        -7.402478402623517
      ],
      [
        "的な",
        -7.405380891922625
      ],
      [
        "でしょう。",
        -7.440264187780506
      ],
      [
        "実",
        -7.44462538330211
      ],
      [
        "した。",
        -7.465123304030925
      ],
      [
        "ル",
        -7.470116112721447
      ],
      [
        "っ",
        -7.485159511038868
      ],
      [
        "され",
        -7.487972565162199
      ],
      [
        "味",
        -7.489617788825466
      ],
      [
        "まで",
        -7.495875899265215
      ],
      [
        "それ",
        -7.502591257711337
      ],
      [
        "ア",
        -7.508150099910019
      ],
      [
        "でしょうか?",
        -7.510731116593182
      ],
      [
        "された",
        -7.523014092315009
      ],
      [
        "▁(",
        -7.525139658230675
      ],
      [
        "A",
        -7.52521066418708
      ],
      [
        "論",
        -7.525611362522312
      ],
      [
        "野",
        -7.527863776443813
      ],
      [
        "▁この",
        -7.535739632628255
      ],
      [
        "手",
        -7.537643612676694
      ],
      [
        "的",
        -7.5384546799286385
      ],
      [
        "一",
        -7.540659199313001
      ],
      [
        "れ",
        -7.540953354897802
      ],
      [
        "む",
        -7.541736245008941
      ],
      [
        "中",
        -7.543684755668844
      ],
      [
        "、「",
        -7.551916140554281
      ],
      [
        "大",
        -7.552006340034472
      ],
      [
        "か?",
        -7.553696899116736
      ],
      [
        "ので、",
        -7.569680274570617
      ],
      [
        "生",
        -7.570327812948157
      ],
      [
        "んだ",
        -7.573811560420836
      ],
      [
        "せ",
        -7.574859183232368
      ],
      [
        "ご",
        -7.575428626420802
      ],
      [
        "います。",
        -7.57948674277066
      ],
      [
        "時間",
        -7.582233893009963
      ],
      [
        "何",
        -7.587656145819848
      ],
      [
        "地",
        -7.596097031276448
      ],
      [
        "数",
        -7.597420446520471
      ],
      [
        "来",
        -7.603322115464833
      ],
      [
        "考え",
        -7.624510901868774
      ],
      [
        "でした。",
        -7.626868044508905
      ],
      [
        "名",
        -7.637304484653956
      ],
      [
        "である",
        -7.639984179271803
      ],
      [
        "イ",
        -7.654653189711116
      ],
      [
        "世界",
        -7.65978295074779
      ],
      [
        "気",
        -7.662824652102048
      ],
      [
        "本",
        -7.666820060274248
      ],
      [
        "だった",
        -7.669826682941665
      ],
      [
        "ス",
        -7.673958059602825
      ],
      [
        "、その",
        -7.674998588327517
      ],
      [
        "事",
        -7.675383749964109
      ],
      [
        "いた",
        -7.678117707477455
      ],
      [
        "していた",
        -7.681142827420555
      ],
      [
        "だ",
        -7.681511544444876
      ],
      [
        "合",
        -7.690280971662498
      ],
      [
        "キ",
        -7.692144355533764
      ],
      [
        "カ",
        -7.702175450368593
      ],
      [
        "度",
        -7.704672865966855
      ],
      [
        "では",
        -7.710219419043889
      ],
      [
        "れば",
        -7.711052658054783
      ],
      [
        "だと",
        -7.713931252678619
      ],
      [
        "会",
        -7.714633058004754
      ],
      [
        "す。",
        -7.7161423165640315
      ],
      [
        "学",
        -7.722094015648896
      ],
      [
        "”",
        -7.722928746239676
      ],
      [
        "ジ",
        -7.726337474360252
      ],
      [
        "ク",
        -7.729973153151357
      ],
      [
        "」と",
        -7.732231273174806
      ],
      [
        "なら",
        -7.733057234451104
      ],
      [
        "は「",
        -7.733125896793392
      ],
      [
        "D",
        -7.736305434290619
      ],
      [
        "C",
        -7.736479693369823
      ],
      [
        "っている",
        -7.738985493186076
      ],
      [
        "リ",
        -7.74098011007527
      ],
      [
        "ている。",
        -7.741249406959401
      ],
      [
        "ている",
        -7.744555787865404
      ],
      [
        "高",
        -7.744960467355183
      ],
      [
        "前",
        -7.747903734465413
      ],
      [
        "ため",
        -7.751221548705974
      ],
      [
        "等",
        -7.7518979513897
      ],
      [
        "る。",
        -7.754904207951089
      ],
      [
        "フ",
        -7.756246402902444
      ],
      [
        "ラ",
        -7.756728671075127
      ],
      [
        "ること",
        -7.758194438806152
      ],
      [
        "とか",
        -7.760124495313138
      ],
      [
        "に、",
        -7.760866046975861
      ],
      [
        "と、",
        -7.761597761813153
      ],
      [
        "人間",
        -7.7632250557774265
      ],
      [
        "用",
        -7.763574729424736
      ],
      [
        "ため、",
        -7.764166053252955
      ],
      [
        "によって",
        -7.7778465785737945
      ],
      [
        "親",
        -7.784406198515245
      ],
      [
        "なく",
        -7.79042962458087
      ],
      [
        "日本",
        -7.79684445510769
      ],
      [
        "よりも",
        -7.804728491163095
      ],
      [
        "ように",
        -7.815023469760511
      ],
      [
        "自",
        -7.818655779087601
      ],
      [
        "力",
        -7.822274576353784
      ],
      [
        "7",
        -7.832121904953132
      ],
      [
        "へ",
        -7.837384308857322
      ],
      [
        "だ。",
        -7.842299317015174
      ],
      [
        "作",
        -7.84427055017634
      ],
      [
        "通",
        -7.845088683274556
      ],
      [
        "I",
        -7.846852417114263
      ],
      [
        "出",
        -7.850294700837759
      ],
      [
        "ない。",
        -7.851191317339504
      ],
      [
        "分",
        -7.854852544403073
      ],
      [
        "好き",
        -7.855208739255555
      ],
      [
        "形",
        -7.85675918130814
      ],
      [
        "[",
        -7.858603645166643
      ],
      [
        "しか",
        -7.859962230410845
      ],
      [
        "賞",
        -7.861559158044556
      ],
      [
        "d",
        -7.861723050933605
      ],
      [
        "官",
        -7.861723050933609
      ],
      [
        "閲覧",
        -7.861723050972331
      ],
      [
        "内閣",
        -7.86172305121233
      ],
      [
        "心",
        -7.862025566285691
      ],
      [
        "ゲーム",
        -7.862220330584358
      ],
      [
        "後",
        -7.863127086651067
      ],
      [
        "なのか",
        -7.869546603639339
      ],
      [
        "も、",
        -7.87203875419215
      ],
      [
        "問題",
        -7.872980989930657
      ],
      [
        "にも",
        -7.885727429281106
      ],
      [
        "日本政府",
        -7.8910065697894085
      ],
      [
        "シリーズ",
        -7.891711339897271
      ],
      [
        "思い",
        -7.8957809438613475
      ],
      [
        "社会",
        -7.896898008499175
      ],
      [
        "のです。",
        -7.900186709348633
      ],
      [
        "を見",
        -7.902673656389365
      ],
      [
        "とは",
        -7.908347458754578
      ],
      [
        "ず、",
        -7.90842428851616
      ],
      [
        "め",
        -7.908984194791369
      ],
      [
        "行",
        -7.91908389107195
      ],
      [
        "S",
        -7.924431444190695
      ],
      [
        "かった",
        -7.924553299849306
      ],
      [
        "ほど",
        -7.925088058076403
      ],
      [
        "った。",
        -7.92511646839916
      ],
      [
        "無",
        -7.925227902779129
      ],
      [
        "物",
        -7.925857157828032
      ],
      [
        "ウ",
        -7.9322498267741395
      ],
      [
        "々",
        -7.935343132037598
      ],
      [
        "また",
        -7.938920967541393
      ],
      [
        "もの",
        -7.945900364990389
      ],
      [
        "ん",
        -7.94961012356544
      ],
      [
        "しい",
        -7.954309130487053
      ],
      [
        "話",
        -7.955707411905339
      ],
      [
        "どう",
        -7.95743594379809
      ],
      [
        "いい",
        -7.958079016603372
      ],
      [
        "」という",
        -7.965411423349903
      ],
      [
        "には、",
        -7.968541200371254
      ],
      [
        "作品",
        -7.979781869098271
      ],
      [
        "書",
        -7.981458986326901
      ],
      [
        "ち",
        -7.982046319888853
      ],
      [
        "▁また、",
        -7.982523156842943
      ],
      [
        "リー",
        -7.984683357679381
      ],
      [
        "反",
        -7.985546629630642
      ],
      [
        "つ",
        -7.990462435341545
      ],
      [
        "」が",
        -7.9920153587419875
      ],
      [
        "ット",
        -7.992874662980088
      ],
      [
        "田",
        -7.996451694768746
      ],
      [
        "ド",
        -7.999481184523872
      ],
      [
        "月",
        -8.001124344109282
      ],
      [
        "すること",
        -8.001174603534547
      ],
      [
        "よう",
        -8.001582054639067
      ],
      [
        "事実",
        -8.002343299174838
      ],
      [
        "マ",
        -8.002561812290436
      ],
      [
        "a",
        -8.003292453853959
      ],
      [
        "ナ",
        -8.00385454993344
      ],
      [
        "自分の",
        -8.003855129232715
      ],
      [
        "i",
        -8.00410662289416
      ],
      [
        "法",
        -8.004212243746949
      ],
      [
        "白",
        -8.004323005154578
      ],
      [
        "着",
        -8.004544813283065
      ],
      [
        "T",
        -8.004580193830671
      ],
      [
        "〜",
        -8.004580193830694
      ],
      [
        "かも?",
        -8.004760754376756
      ],
      [
        "だと思います。",
        -8.006667997072961
      ],
      [
        "ト",
        -8.007254651601523
      ],
      [
        "もう",
        -8.00810453702138
      ],
      [
        "型",
        -8.00928393792455
      ],
      [
        "食",
        -8.013780418727563
      ],
      [
        "体",
        -8.030000491679584
      ],
      [
        "▁“",
        -8.030809666424316
      ],
      [
        "りません。",
        -8.035299577832717
      ],
      [
        "感じ",
        -8.036109259776278
      ],
      [
        "テレビ",
        -8.037218647500547
      ],
      [
        "ので",
        -8.045704130647081
      ],
      [
        "た。",
        -8.050366084050543
      ],
      [
        "だったの",
        -8.05116555851614
      ],
      [
        "かもしれない。",
        -8.052300712810844
      ],
      [
        "かもしれません",
        -8.056161410173644
      ],
      [
        "重",
        -8.056523261911241
      ],
      [
        "対応",
        -8.058615124032153
      ],
      [
        "口",
        -8.058763696457758
      ],
      [
        "との",
        -8.060526639772707
      ],
      [
        "なかった。",
        -8.060825552584282
      ],
      [
        "ではない",
        -8.063829773062345
      ],
      [
        "点",
        -8.07019317757313
      ],
      [
        "情報",
        -8.07684942800455
      ],
      [
        "サ",
        -8.080744691379293
      ],
      [
        "している。",
        -8.081512859215595
      ],
      [
        "、また",
        -8.081577459982723
      ],
      [
        "最近",
        -8.08255678298636
      ],
      [
        "をしている",
        -8.08280970860823
      ],
      [
        "パ",
        -8.085226136297184
      ],
      [
        "ッ",
        -8.085704665554996
      ],
      [
        "する。",
        -8.087684784537094
      ],
      [
        "している",
        -8.090318598980005
      ],
      [
        "のだ。",
        -8.097234103570202
      ],
      [
        "日本の",
        -8.09786050140076
      ],
      [
        "内",
        -8.102935067027442
      ],
      [
        "て、",
        -8.10364271693393
      ],
      [
        "仕事",
        -8.106843750844172
      ],
      [
        "よ",
        -8.110105356563533
      ],
      [
        "ていた",
        -8.113807859393606
      ],
      [
        "り、",
        -8.115479245423312
      ],
      [
        "しています。",
        -8.118957355004454
      ],
      [
        "......",
        -8.126986581796812
      ],
      [
        "ません。",
        -8.131382876724794
      ],
      [
        "子供",
        -8.131607782456584
      ],
      [
        "桂が",
        -8.133271182896632
      ],
      [
        "3",
        -8.1355349830198
      ],
      [
        "▁その",
        -8.135855023794685
      ],
      [
        "続け",
        -8.138034735687576
      ],
      [
        "だった。",
        -8.139281568097095
      ],
      [
        "経",
        -8.14153544490171
      ],
      [
        "ング",
        -8.147384104652456
      ],
      [
        "なので、",
        -8.147421247461129
      ],
      [
        "るの",
        -8.14780039301045
      ],
      [
        "信",
        -8.148889980206214
      ],
      [
        "二",
        -8.154086442936523
      ],
      [
        "全",
        -8.155004381425773
      ],
      [
        "外",
        -8.156082460024178
      ],
      [
        "原発",
        -8.157386982416911
      ],
      [
        "査定",
        -8.158507865170845
      ],
      [
        "少し",
        -8.158569468199957
      ],
      [
        "さんが",
        -8.159127640310704
      ],
      [
        "サイト",
        -8.1596953613419
      ],
      [
        "命",
        -8.160464757355207
      ],
      [
        "室",
        -8.163439743852138
      ],
      [
        "難",
        -8.1640772813025
      ],
      [
        "知",
        -8.165522430131158
      ],
      [
        "バイオハザード",
        -8.167438996406455
      ],
      [
        "び",
        -8.167529180830273
      ],
      [
        "ボ",
        -8.168060522628604
      ],
      [
        "ニ",
        -8.169317206605168
      ],
      [
        "ざ",
        -8.170732066440696
      ],
      [
        "解",
        -8.170764802563442
      ],
      [
        "公",
        -8.171106554214939
      ],
      [
        "保",
        -8.17124686005071
      ],
      [
        "計",
        -8.171246860497265
      ],
      [
        "暴",
        -8.171246860497327
      ],
      [
        "\"",
        -8.171246860497353
      ],
      [
        "G",
        -8.171246860497359
      ],
      [
        "▁レジデント",
        -8.171246863339913
      ],
      [
        "屋敷",
        -8.171901866867376
      ],
      [
        "そうです。",
        -8.172032955030378
      ],
      [
        "強く",
        -8.172381411482593
      ],
      [
        "▁とはいえ、",
        -8.173166145824055
      ],
      [
        "において",
        -8.17475720228337
      ],
      [
        "良い",
        -8.174948243172322
      ],
      [
        "販売",
        -8.177119653868923
      ],
      [
        "ね。",
        -8.179612726272643
      ],
      [
        "ような",
        -8.17969253566449
      ],
      [
        "され、",
        -8.183134062643221
      ],
      [
        "立ち",
        -8.183557411599626
      ],
      [
        "美味しい",
        -8.186677159777945
      ],
      [
        "はず",
        -8.18699934001256
      ],
      [
        "得",
        -8.188706215173205
      ],
      [
        "があります。",
        -8.189130409236542
      ],
      [
        "くらい",
        -8.189493425403612
      ],
      [
        "主",
        -8.190376090926089
      ],
      [
        "使い",
        -8.191875765530668
      ],
      [
        "げ",
        -8.192433536135054
      ],
      [
        "ロ",
        -8.196042222496706
      ],
      [
        "なので",
        -8.19656708644381
      ],
      [
        "▁まあ、",
        -8.198876045029193
      ],
      [
        "だろう",
        -8.200731600621785
      ],
      [
        "のですが...",
        -8.202469599104166
      ],
      [
        "表",
        -8.208618901831333
      ],
      [
        "▁まず",
        -8.2090241865309
      ],
      [
        "ています。",
        -8.209265090809048
      ],
      [
        "なければ",
        -8.213041612698646
      ],
      [
        "別",
        -8.213784455125383
      ],
      [
        "そ",
        -8.214358772615867
      ],
      [
        "体験",
        -8.214912850018209
      ],
      [
        "業",
        -8.215226921439454
      ],
      [
        "私",
        -8.216599577158094
      ],
      [
        "皆さん",
        -8.217105683164569
      ],
      [
        "である。",
        -8.221257093314659
      ],
      [
        "10",
        -8.222637435138955
      ],
      [
        "エヴリン",
        -8.222922705040594
      ],
      [
        "け",
        -8.2302885108601
      ],
      [
        "ど",
        -8.233701814510058
      ],
      [
        "どんな",
        -8.234116563461948
      ],
      [
        "か。",
        -8.237698200217602
      ],
      [
        "次",
        -8.238294197325011
      ],
      [
        "発",
        -8.239063617535976
      ],
      [
        "それを",
        -8.24149253552325
      ],
      [
        "ー",
        -8.242844138163697
      ],
      [
        "」の",
        -8.243469358540024
      ],
      [
        "なかった",
        -8.24368315858774
      ],
      [
        "裏",
        -8.243818798365188
      ],
      [
        "できる",
        -8.245093761428988
      ],
      [
        "が「",
        -8.2465644461065
      ],
      [
        "こそ",
        -8.250289798989776
      ],
      [
        "、この",
        -8.254745165006097
      ],
      [
        "であろう。",
        -8.25478467740995
      ],
      [
        "あまり",
        -8.255692919758479
      ],
      [
        "の味",
        -8.2592421292346
      ],
      [
        "所",
        -8.26078785125094
      ],
      [
        "何か",
        -8.261014150463648
      ],
      [
        "ると",
        -8.262137628815548
      ],
      [
        "当",
        -8.275450954083206
      ],
      [
        "による",
        -8.289241178141353
      ],
      [
        "れており、",
        -8.294474007203412
      ],
      [
        "今",
        -8.295314383710053
      ],
      [
        "ば",
        -8.295762694544024
      ],
      [
        "そこに",
        -8.298482794548402
      ],
      [
        "5年",
        -8.301731879093545
      ],
      [
        "e",
        -8.301741238469345
      ],
      [
        "ところ",
        -8.302754683400025
      ],
      [
        "E",
        -8.303728607377582
      ],
      [
        "れば、",
        -8.30513547145845
      ],
      [
        "』",
        -8.309763418034875
      ],
      [
        "インターネット",
        -8.309985356663933
      ],
      [
        "長",
        -8.3102916947761
      ],
      [
        "ホ",
        -8.311094542334978
      ],
      [
        "ほとんど",
        -8.314343860096344
      ],
      [
        "っていた",
        -8.315171006893827
      ],
      [
        "方",
        -8.31584458380322
      ],
      [
        "必要",
        -8.319050915813047
      ],
      [
        "ター",
        -8.321513896485506
      ],
      [
        "自分",
        -8.323313464541304
      ],
      [
        "者の",
        -8.32556491036417
      ],
      [
        "かどうか",
        -8.325702977306424
      ],
      [
        "よ。",
        -8.328085855819142
      ],
      [
        "ペ",
        -8.32922040905147
      ],
      [
        "コ",
        -8.333333169145025
      ],
      [
        "われ",
        -8.336600718042872
      ],
      [
        "デ",
        -8.33937144050685
      ],
      [
        "加",
        -8.341241428286335
      ],
      [
        "回",
        -8.341329976844232
      ],
      [
        "メディア",
        -8.34391443801757
      ],
      [
        "本当に",
        -8.346875632289255
      ],
      [
        "。今",
        -8.34865693625244
      ],
      [
        "場",
        -8.348884699151823
      ],
      [
        "けれどね",
        -8.350253916416216
      ],
      [
        "鳥の巣",
        -8.350614022260284
      ],
      [
        "結",
        -8.351639030031917
      ],
      [
        "メ",
        -8.352113758434065
      ],
      [
        "立",
        -8.354793819616459
      ],
      [
        "動",
        -8.355385875146947
      ],
      [
        "曲",
        -8.356838478622251
      ],
      [
        "優",
        -8.356966692962166
      ],
      [
        "乗",
        -8.359451584303665
      ],
      [
        "部",
        -8.361928018062429
      ],
      [
        "してい",
        -8.36223074125095
      ],
      [
        "現",
        -8.362598982779005
      ],
      [
        "ベイカー一家",
        -8.362780508916119
      ],
      [
        "雨",
        -8.36290618607381
      ],
      [
        "存在",
        -8.367201695417313
      ],
      [
        "広",
        -8.368019727665724
      ],
      [
        "関",
        -8.368590709217086
      ],
      [
        "c",
        -8.369066646974629
      ],
      [
        "モ",
        -8.369526975034846
      ],
      [
        "国民",
        -8.37024496963663
      ],
      [
        "▁今",
        -8.37044492454466
      ],
      [
        "局",
        -8.37046541872768
      ],
      [
        "程",
        -8.370510014256363
      ],
      [
        "声",
        -8.370612436886873
      ],
      [
        "ハ",
        -8.370696397066489
      ],
      [
        "m",
        -8.370807019811227
      ],
      [
        "限",
        -8.370963048650871
      ],
      [
        "極",
        -8.370963088856785
      ],
      [
        "戦",
        -8.371065534623474
      ],
      [
        "平",
        -8.371117242572993
      ],
      [
        "員",
        -8.371135946893016
      ],
      [
        "廃",
        -8.37114109366463
      ],
      [
        "半",
        -8.371144520160415
      ],
      [
        ":",
        -8.371198686124828
      ],
      [
        "O",
        -8.371235020987172
      ],
      [
        "B",
        -8.371245117938628
      ],
      [
        "歩",
        -8.371246814977507
      ],
      [
        "車",
        -8.371246822144222
      ],
      [
        "御",
        -8.37124686045742
      ],
      [
        "装",
        -8.371246860457502
      ],
      [
        "制",
        -8.371246860493923
      ],
      [
        "院",
        -8.371246860497344
      ],
      [
        "-",
        -8.371246860497365
      ],
      [
        "健康",
        -8.371246860583675
      ],
      [
        "マスコミ",
        -8.371246919281443
      ],
      [
        "創造",
        -8.371263567337069
      ],
      [
        "カード",
        -8.371804855903427
      ],
      [
        "共",
        -8.372060589491207
      ],
      [
        "いたします。",
        -8.37212581993618
      ],
      [
        "ミア",
        -8.37217448396256
      ],
      [
        "エ",
        -8.373678107698355
      ],
      [
        "明らかに",
        -8.375447543667837
      ],
      [
        "ばかり",
        -8.375931933912007
      ],
      [
        "ベイカー邸",
        -8.378249973215016
      ],
      [
        "▁b",
        -8.38084770386779
      ],
      [
        "いつの間にか",
        -8.38201830435462
      ],
      [
        "ギ",
        -8.382788894734816
      ],
      [
        "後は",
        -8.388890441121433
      ],
      [
        "語",
        -8.390447793741425
      ],
      [
        "生活",
        -8.39143589366705
      ],
      [
        "だろう。",
        -8.391864875217262
      ],
      [
        "ッド",
        -8.399647290277638
      ],
      [
        "向け",
        -8.400580209670718
      ],
      [
        "真",
        -8.401359046359767
      ],
      [
        "させる",
        -8.401792373729789
      ],
      [
        "高い",
        -8.40383712551314
      ],
      [
        "つか",
        -8.405466485366832
      ],
      [
        "男",
        -8.406069860659263
      ],
      [
        "安心して",
        -8.406271533332708
      ],
      [
        "調",
        -8.406715824544932
      ],
      [
        "される",
        -8.410901179050182
      ],
      [
        "そんな",
        -8.418610233737759
      ],
      [
        "夜",
        -8.419343648369486
      ],
      [
        "有",
        -8.420204451724626
      ],
      [
        "だって",
        -8.420812482379382
      ],
      [
        "様",
        -8.422170145696896
      ],
      [
        "きました。",
        -8.423780005369554
      ],
      [
        "残",
        -8.424363920647451
      ],
      [
        "おり、",
        -8.425031897693716
      ],
      [
        "しまう",
        -8.42507231153174
      ],
      [
        "言葉",
        -8.425614419411954
      ],
      [
        "目に",
        -8.426529934523376
      ],
      [
        "事務所",
        -8.433110243523217
      ],
      [
        "できない",
        -8.434078889921581
      ],
      [
        "かけて",
        -8.434187144560381
      ],
      [
        "です",
        -8.436366327584551
      ],
      [
        "ずっと",
        -8.436714003082017
      ],
      [
        "プロ",
        -8.43833846037959
      ],
      [
        "られ",
        -8.43849791310736
      ],
      [
        "減",
        -8.439068047594088
      ],
      [
        "タ",
        -8.441989753737658
      ],
      [
        "桂",
        -8.442170722372927
      ],
      [
        "会社",
        -8.444551991336617
      ],
      [
        "始め",
        -8.445755435021416
      ],
      [
        "の関係",
        -8.445841198585835
      ],
      [
        "のは",
        -8.4481575179002
      ],
      [
        "ことだ。",
        -8.448404128739968
      ],
      [
        "取",
        -8.449267924426499
      ],
      [
        "もある。",
        -8.452329421659256
      ],
      [
        "こんな",
        -8.454204075607114
      ],
      [
        "日本人",
        -8.455649361777423
      ],
      [
        "▁そして",
        -8.460950988185816
      ],
      [
        "たら",
        -8.462892359238749
      ],
      [
        "、このような",
        -8.46493532080615
      ],
      [
        "」(",
        -8.468678499559147
      ],
      [
        "開発",
        -8.46869533182047
      ],
      [
        "というのは、",
        -8.46901737541194
      ],
      [
        "になる",
        -8.47005712728608
      ],
      [
        "ジャック",
        -8.473259241169547
      ],
      [
        "だけが",
        -8.474755111331532
      ],
      [
        "読み",
        -8.47551972927436
      ],
      [
        "されました。",
        -8.475573499581387
      ],
      [
        "に対して",
        -8.476164814682964
      ],
      [
        "、これは",
        -8.47681469236412
      ],
      [
        "る、",
        -8.476927287377789
      ],
      [
        "持",
        -8.4812567581074
      ],
      [
        "頭",
        -8.485763929440648
      ],
      [
        "してもらう",
        -8.488128265550229
      ],
      [
        "になって",
        -8.489665004907067
      ],
      [
        "目",
        -8.489947412654756
      ],
      [
        "らず、",
        -8.492683502583075
      ],
      [
        "ください",
        -8.493171715001216
      ],
      [
        "設定",
        -8.493622284021175
      ],
      [
        "感",
        -8.494834979699005
      ],
      [
        "いて",
        -8.496774720512091
      ],
      [
        "分か",
        -8.497145411861315
      ],
      [
        "存在する",
        -8.4975289563552
      ],
      [
        "危険",
        -8.499270215133434
      ],
      [
        "ながら、",
        -8.50372822328395
      ],
      [
        "g",
        -8.507797215210623
      ],
      [
        "すれば、",
        -8.509598440351446
      ],
      [
        "不",
        -8.512094331156346
      ],
      [
        "ながら",
        -8.512189399401121
      ],
      [
        "また、",
        -8.514009641332786
      ],
      [
        "性",
        -8.514055740340183
      ],
      [
        "20",
        -8.515057798592018
      ],
      [
        "シ",
        -8.516671469018469
      ],
      [
        "ブ",
        -8.51956336596142
      ],
      [
        "ネット",
        -8.521002774160262
      ],
      [
        "のように",
        -8.521317543257528
      ],
      [
        "などの",
        -8.522390344736475
      ],
      [
        "部分",
        -8.524379791759067
      ],
      [
        "国",
        -8.525938879732012
      ],
      [
        "されている",
        -8.527218578896385
      ],
      [
        "然と",
        -8.527813837121856
      ],
      [
        "と同様に",
        -8.530116764942964
      ],
      [
        "状態",
        -8.531061367376486
      ],
      [
        "のある",
        -8.531742545228944
      ],
      [
        "矛盾",
        -8.538462605283067
      ],
      [
        "などが",
        -8.539329537027115
      ],
      [
        "されて",
        -8.539751875654165
      ],
      [
        "商品",
        -8.540375047671386
      ],
      [
        "▁そして、",
        -8.541824673407978
      ],
      [
        "『バイオハザード",
        -8.543073855442346
      ],
      [
        "対",
        -8.545964460428577
      ],
      [
        "これを",
        -8.54627852586373
      ],
      [
        "非常に",
        -8.5492584965079
      ],
      [
        "を見る",
        -8.549275414917787
      ],
      [
        "彼女",
        -8.551038090539652
      ],
      [
        "結果",
        -8.551055146009164
      ],
      [
        "の「",
        -8.551735474269439
      ],
      [
        "きた",
        -8.552157716338563
      ],
      [
        "イン",
        -8.553146413173131
      ],
      [
        "ポ",
        -8.553444744157549
      ],
      [
        "ート",
        -8.553815132550843
      ],
      [
        "読",
        -8.55484342781262
      ],
      [
        "付",
        -8.559297776842513
      ],
      [
        "、私が",
        -8.560505724461851
      ],
      [
        "8",
        -8.561150924467805
      ],
      [
        "始めた",
        -8.562473235092309
      ],
      [
        "表現",
        -8.565481175918901
      ],
      [
        "がある",
        -8.565832075850007
      ],
      [
        "行動",
        -8.569623077951668
      ],
      [
        "ということ",
        -8.571022691686785
      ],
      [
        "政府",
        -8.571385450390434
      ],
      [
        "量",
        -8.572663754041146
      ],
      [
        "ようで",
        -8.58192602658202
      ],
      [
        "初めて",
        -8.586582583174973
      ],
      [
        "決",
        -8.588441403766938
      ],
      [
        "予定",
        -8.588893477975828
      ],
      [
        "好",
        -8.589066114699833
      ],
      [
        "わ",
        -8.593871607676009
      ],
      [
        "さん",
        -8.594080000161924
      ],
      [
        "正",
        -8.594502130450339
      ],
      [
        "でき",
        -8.594789160914754
      ],
      [
        "状況",
        -8.595163662622443
      ],
      [
        "一度",
        -8.595764190736181
      ],
      [
        "小",
        -8.599652264758724
      ],
      [
        "相手",
        -8.599846919688014
      ],
      [
        "機",
        -8.600842622903988
      ],
      [
        "母",
        -8.601874532209
      ],
      [
        "再",
        -8.601989203728976
      ],
      [
        "ましたが、",
        -8.602958028777469
      ],
      [
        "買取",
        -8.603099697212878
      ],
      [
        "面",
        -8.603105964244467
      ],
      [
        "オ",
        -8.605071138213768
      ],
      [
        "演",
        -8.606331118608257
      ],
      [
        "各",
        -8.606493594270177
      ],
      [
        "突",
        -8.607499571478415
      ],
      [
        "すべき",
        -8.608841685868857
      ],
      [
        "分からない",
        -8.608992015414374
      ],
      [
        "嘘",
        -8.610663767663874
      ],
      [
        "連",
        -8.610713628848593
      ],
      [
        "生まれ",
        -8.611927877681333
      ],
      [
        "空",
        -8.612148518542758
      ],
      [
        "形で",
        -8.612328568264287
      ],
      [
        "]。",
        -8.61247141985591
      ],
      [
        "服",
        -8.613177791636804
      ],
      [
        "VR",
        -8.613227352099406
      ],
      [
        "子",
        -8.613506060139073
      ],
      [
        "彼の",
        -8.613531494635602
      ],
      [
        "それが",
        -8.61357066116273
      ],
      [
        "義",
        -8.614098110350813
      ],
      [
        "が多い",
        -8.61588182137853
      ],
      [
        "アル",
        -8.61613361359033
      ],
      [
        "さえ",
        -8.616581286253785
      ],
      [
        "怒り",
        -8.617070344823588
      ],
      [
        "もはや",
        -8.617710158891022
      ],
      [
        "ことが",
        -8.618006730052862
      ],
      [
        "被害",
        -8.618007213175833
      ],
      [
        "安",
        -8.618451209168432
      ],
      [
        "引",
        -8.618865222296165
      ],
      [
        "することで",
        -8.61926443066799
      ],
      [
        "相",
        -8.620063240417618
      ],
      [
        "産",
        -8.620128786287259
      ],
      [
        "ガ",
        -8.620199138149438
      ],
      [
        "N",
        -8.620342267012715
      ],
      [
        "途",
        -8.620395070866305
      ],
      [
        "h",
        -8.620399172674853
      ],
      [
        "V",
        -8.620536898802943
      ],
      [
        "土",
        -8.620662179573863
      ],
      [
        "R",
        -8.6207975522264
      ],
      [
        "活動",
        -8.620804813987561
      ],
      [
        "▁イービル",
        -8.620824274378254
      ],
      [
        "復",
        -8.620931688270687
      ],
      [
        "紙",
        -8.62095968668988
      ],
      [
        "推",
        -8.62109920191314
      ],
      [
        "京",
        -8.621105426196012
      ],
      [
        "達",
        -8.62112071972524
      ],
      [
        "弾",
        -8.621126944108092
      ],
      [
        "亡",
        -8.621149870612777
      ],
      [
        "持ち",
        -8.62120392056629
      ],
      [
        "客",
        -8.6212421364811
      ],
      [
        "版",
        -8.621244574641853
      ],
      [
        "K",
        -8.62124684470854
      ],
      [
        "号",
        -8.62124685989862
      ],
      [
        "負",
        -8.621246860457415
      ],
      [
        "春",
        -8.621246860457436
      ],
      [
        "敵",
        -8.62124686045744
      ],
      [
        "寒",
        -8.621246860457472
      ],
      [
        "熱",
        -8.621246860457513
      ],
      [
        "にノミネート",
        -8.62124686045757
      ],
      [
        "~",
        -8.621246860457585
      ],
      [
        "ベイカー家",
        -8.621246860464078
      ],
      [
        "台",
        -8.621246860497179
      ],
      [
        "憲",
        -8.621246860497239
      ],
      [
        "青",
        -8.621246860497305
      ],
      [
        "山",
        -8.621246860497312
      ],
      [
        "争",
        -8.621246860497328
      ],
      [
        "営",
        -8.621246860497328
      ],
      [
        "北",
        -8.621246860497337
      ],
      [
        "】",
        -8.621246860497342
      ],
      [
        "ゴ",
        -8.621246860497353
      ],
      [
        "J",
        -8.621246860497353
      ],
      [
        "疑",
        -8.621246860497356
      ],
      [
        "収",
        -8.62124686049736
      ],
      [
        "f",
        -8.621246860497369
      ],
      [
        "洗浄",
        -8.621246860497369
      ],
      [
        "検索",
        -8.621246860569114
      ],
      [
        "施設",
        -8.621246860588194
      ],
      [
        "指摘",
        -8.621246860732596
      ],
      [
        "操作",
        -8.621246861229482
      ],
      [
        "忘れ",
        -8.621246861803359
      ],
      [
        "記憶",
        -8.621246861969178
      ],
      [
        "参加者",
        -8.621247237150131
      ],
      [
        "主人公",
        -8.621247326536176
      ],
      [
        "『4』",
        -8.62124796542571
      ],
      [
        "大事な",
        -8.62125133017185
      ],
      [
        "研究",
        -8.621252253856051
      ],
      [
        "トニーさんは",
        -8.62125597136847
      ],
      [
        "ビュー",
        -8.621258896518006
      ],
      [
        "家族",
        -8.621271662581496
      ],
      [
        "ステージ",
        -8.621276787345039
      ],
      [
        "十分",
        -8.621294272584132
      ],
      [
        "完成",
        -8.621308544602623
      ],
      [
        "深刻",
        -8.621321886416508
      ],
      [
        "サロン",
        -8.621367808294002
      ],
      [
        "突然",
        -8.62137849861545
      ],
      [
        "注意",
        -8.62143300379373
      ],
      [
        "困難",
        -8.621443910951294
      ],
      [
        "知識",
        -8.621454698158812
      ],
      [
        "ニュース",
        -8.621506120348073
      ],
      [
        "安全",
        -8.621558697515336
      ],
      [
        "映画『",
        -8.621562558413334
      ],
      [
        "全国",
        -8.621563352310497
      ],
      [
        "いろんな",
        -8.621609251557661
      ],
      [
        "E3",
        -8.621619537849892
      ],
      [
        "集会",
        -8.62163119810423
      ],
      [
        "行って",
        -8.62171617334382
      ],
      [
        "料理",
        -8.621792974575463
      ],
      [
        "』『",
        -8.62224754058728
      ],
      [
        "会見",
        -8.622259621453297
      ],
      [
        "言えば",
        -8.622429035353186
      ],
      [
        "発表した。",
        -8.622468278464998
      ],
      [
        "不安",
        -8.622550494865052
      ],
      [
        "アナ",
        -8.6225894616487
      ],
      [
        "一方",
        -8.623253662986524
      ],
      [
        "権",
        -8.623502842141411
      ],
      [
        "見",
        -8.62358844500084
      ],
      [
        "先生",
        -8.6238985935264
      ],
      [
        "長く",
        -8.624042691138332
      ],
      [
        "に関して",
        -8.624417912981787
      ],
      [
        "そのまま",
        -8.624796490119119
      ],
      [
        "間",
        -8.625574405966729
      ],
      [
        "これで",
        -8.626154558884526
      ],
      [
        "経験",
        -8.626850007714879
      ],
      [
        "よりも、",
        -8.62747438610726
      ],
      [
        "を出す",
        -8.62975198300512
      ],
      [
        "になった",
        -8.630422990294672
      ],
      [
        "ピ",
        -8.631875343867081
      ],
      [
        "先に",
        -8.633604644176481
      ],
      [
        "なお",
        -8.633925341966837
      ],
      [
        "しない",
        -8.635361845737417
      ],
      [
        "ただ",
        -8.635690916662652
      ],
      [
        "べき",
        -8.637610625928367
      ],
      [
        "2017年1月25日",
        -8.637862851716005
      ],
      [
        "ております。",
        -8.63927729555431
      ],
      [
        "ミー",
        -8.639435544235676
      ],
      [
        "条件",
        -8.640274900187384
      ],
      [
        "の報道",
        -8.64213623536602
      ],
      [
        "になり",
        -8.642421552731495
      ],
      [
        "アイテムが",
        -8.643707780009487
      ],
      [
        "全ての",
        -8.644683154928247
      ],
      [
        "14",
        -8.64621055180162
      ],
      [
        "祈り",
        -8.649425314646422
      ],
      [
        "以上の",
        -8.651622095208197
      ],
      [
        "1つ",
        -8.652862486875078
      ],
      [
        "大学",
        -8.653926340129148
      ],
      [
        "際には",
        -8.657960190169527
      ],
      [
        "姿",
        -8.658700896696844
      ],
      [
        "に行く",
        -8.660199126942839
      ],
      [
        "私の",
        -8.661483426379817
      ],
      [
        "に出",
        -8.662383286067048
      ],
      [
        "」を",
        -8.66372245193088
      ],
      [
        "なんて",
        -8.664023790835675
      ],
      [
        "ってい",
        -8.664155538472007
      ],
      [
        "としては",
        -8.667488199064149
      ],
      [
        "携帯",
        -8.671049195705377
      ],
      [
        "さない",
        -8.673249787523913
      ],
      [
        "先",
        -8.6756613367006
      ],
      [
        "奴",
        -8.678173813828266
      ],
      [
        "代",
        -8.679381433795221
      ],
      [
        "以上",
        -8.679836164324454
      ],
      [
        "楽しみ",
        -8.68238485730187
      ],
      [
        "ネットで",
        -8.683121080903424
      ],
      [
        "にな",
        -8.683881460611063
      ],
      [
        "」で",
        -8.684995960426722
      ],
      [
        "することができ",
        -8.685030634243331
      ],
      [
        "むしろ",
        -8.685239717875165
      ],
      [
        "下",
        -8.685725298554686
      ],
      [
        "目を",
        -8.68640837861978
      ],
      [
        "▁もし",
        -8.68642391779853
      ],
      [
        "ることを",
        -8.686870065736883
      ],
      [
        "報",
        -8.68752147498806
      ],
      [
        "があり、",
        -8.69188886435108
      ],
      [
        "スタ",
        -8.694606843078073
      ],
      [
        "細",
        -8.694735248820297
      ],
      [
        "の中",
        -8.6964163496854
      ],
      [
        "結構",
        -8.696980639249412
      ],
      [
        "食べ",
        -8.69833171337535
      ],
      [
        "ず",
        -8.700755078250573
      ],
      [
        "書き",
        -8.701789706305302
      ],
      [
        "プレイ",
        -8.702390934247934
      ],
      [
        "同",
        -8.704747301041113
      ],
      [
        "にして",
        -8.705273916725538
      ],
      [
        "ましょう。",
        -8.705368465759378
      ],
      [
        "しかし、",
        -8.705751497649594
      ],
      [
        "200",
        -8.707738103975041
      ],
      [
        "、こんな",
        -8.708316560907921
      ],
      [
        "簡単に",
        -8.708964709507072
      ],
      [
        "なら、",
        -8.709122601874252
      ],
      [
        "多くの",
        -8.710322911053312
      ],
      [
        "▁e",
        -8.717314276046087
      ],
      [
        "これは",
        -8.717769129044694
      ],
      [
        "んでい",
        -8.719289606782954
      ],
      [
        "所に",
        -8.719532444971334
      ],
      [
        "多く",
        -8.72154428636939
      ],
      [
        "、自分の",
        -8.723199869885683
      ],
      [
        "過",
        -8.725249105370269
      ],
      [
        "自体",
        -8.7263688905423
      ],
      [
        "か、",
        -8.729243649447241
      ],
      [
        "額",
        -8.730897287582478
      ],
      [
        "休",
        -8.73136584569528
      ],
      [
        "新",
        -8.732663096030231
      ],
      [
        "える",
        -8.732806480836159
      ],
      [
        "遠",
        -8.733301901732856
      ],
      [
        "というのは",
        -8.73437852450409
      ],
      [
        "って、",
        -8.73537848196576
      ],
      [
        "っと",
        -8.73596183885443
      ],
      [
        "しなければならない",
        -8.736702977949117
      ],
      [
        "一つ",
        -8.737453792210017
      ],
      [
        "だが、",
        -8.737916287588304
      ],
      [
        "替え",
        -8.739081672606135
      ],
      [
        "すぎ",
        -8.739527018632337
      ],
      [
        "てしまった。",
        -8.74185159556578
      ],
      [
        "の間",
        -8.742006235136877
      ],
      [
        "訪れ",
        -8.74473276722519
      ],
      [
        "は、かなり",
        -8.745107477110047
      ],
      [
        "みたい",
        -8.745408537491365
      ],
      [
        "育",
        -8.748749074918901
      ],
      [
        "y",
        -8.748877789382398
      ],
      [
        "、いま",
        -8.750829243387548
      ],
      [
        "入",
        -8.753345219185205
      ],
      [
        "インを",
        -8.754544210101727
      ],
      [
        "ります。",
        -8.755221893692706
      ],
      [
        "のではない",
        -8.756039908233785
      ],
      [
        "たい",
        -8.75708237457345
      ],
      [
        "したら",
        -8.758176019806784
      ],
      [
        "無料",
        -8.758230347639547
      ],
      [
        "ならば、",
        -8.764673303991732
      ],
      [
        "東京",
        -8.764752685930976
      ],
      [
        "評価",
        -8.766588052855427
      ],
      [
        "たり、",
        -8.767832453960512
      ],
      [
        "と同じ",
        -8.768407736506067
      ],
      [
        "民",
        -8.769228489888443
      ],
      [
        "、あ",
        -8.771967824567014
      ],
      [
        "▁これ",
        -8.77491907472363
      ],
      [
        "新たな",
        -8.777591324865925
      ],
      [
        "訳",
        -8.77917174464089
      ],
      [
        "』の",
        -8.780810176933066
      ],
      [
        "脱出",
        -8.781800155663982
      ],
      [
        "たり",
        -8.782454131187293
      ],
      [
        "を守る",
        -8.78282646818689
      ],
      [
        "まず",
        -8.783774141132726
      ],
      [
        "しかも",
        -8.784210896025073
      ],
      [
        "のような",
        -8.784762305386451
      ],
      [
        "後も",
        -8.785843611849929
      ],
      [
        "の時点で",
        -8.786277958718893
      ],
      [
        "ていく",
        -8.788120868232964
      ],
      [
        "わけ",
        -8.78825834267274
      ],
      [
        "楽",
        -8.78963271436754
      ],
      [
        "っているのは",
        -8.792469686138642
      ],
      [
        "ール",
        -8.793972505837338
      ],
      [
        "として、",
        -8.7942268879644
      ],
      [
        "く、",
        -8.795116031598225
      ],
      [
        "21",
        -8.795830712035851
      ],
      [
        "ときに",
        -8.796305536303215
      ],
      [
        "良",
        -8.79741477410131
      ],
      [
        "に入",
        -8.798170435255127
      ],
      [
        "意",
        -8.798185632233274
      ],
      [
        ")の",
        -8.798802198739974
      ],
      [
        "るよう",
        -8.799041328382751
      ],
      [
        "、他の",
        -8.799398896241385
      ],
      [
        "量が",
        -8.799973292226943
      ],
      [
        "決定",
        -8.800250760280644
      ],
      [
        "観",
        -8.800943980924853
      ],
      [
        "報告",
        -8.800979001889683
      ],
      [
        "るように",
        -8.801668009059778
      ],
      [
        "共同体",
        -8.80256975458328
      ],
      [
        "ではない。",
        -8.802920012500977
      ],
      [
        "つの",
        -8.805598202416393
      ],
      [
        "観た",
        -8.806947468227627
      ],
      [
        "にある",
        -8.808276557955255
      ],
      [
        "エアコン",
        -8.808712842252206
      ],
      [
        "されていた",
        -8.809124808232426
      ],
      [
        "ではないか",
        -8.80926688874228
      ],
      [
        "ることは",
        -8.812560384493562
      ],
      [
        "子供は",
        -8.813383728065764
      ],
      [
        "しかし",
        -8.821131876377573
      ],
      [
        "それは",
        -8.822132982361813
      ],
      [
        "9",
        -8.822481075300544
      ],
      [
        "るのです。",
        -8.82818862473172
      ],
      [
        "ことは、",
        -8.829349187064075
      ],
      [
        "、これまでの",
        -8.83120709651554
      ],
      [
        "ことを",
        -8.831356069636106
      ],
      [
        "他",
        -8.834092751906807
      ],
      [
        "、抹茶",
        -8.834970144781764
      ],
      [
        "状態が",
        -8.837887205661179
      ],
      [
        "一部",
        -8.839366028309684
      ],
      [
        "商品が",
        -8.840711404523372
      ],
      [
        "位置",
        -8.842243975863838
      ],
      [
        "よく",
        -8.842717697838411
      ],
      [
        "スマホ",
        -8.843550624957484
      ],
      [
        "隠",
        -8.843830997818237
      ],
      [
        "チ",
        -8.844496433441964
      ],
      [
        "出来ません",
        -8.846640790582711
      ],
      [
        "であれば、",
        -8.847956580801092
      ],
      [
        "までも",
        -8.84941741816924
      ],
      [
        "っている。",
        -8.851842723324053
      ],
      [
        "ってきた",
        -8.855339400075193
      ],
      [
        "バイ",
        -8.856597749252362
      ],
      [
        "悪い",
        -8.858660149883757
      ],
      [
        "目の",
        -8.858811932056389
      ],
      [
        "彼ら",
        -8.859539904927521
      ],
      [
        "ンプ",
        -8.862067987797928
      ],
      [
        "かもしれない",
        -8.862851453174235
      ],
      [
        "ファ",
        -8.865712645257458
      ],
      [
        "選",
        -8.866166425128178
      ],
      [
        "ならば",
        -8.866351716708834
      ],
      [
        "し続け",
        -8.866560396862871
      ],
      [
        "を受け",
        -8.870745551942377
      ],
      [
        "興",
        -8.871299159410045
      ],
      [
        "人が",
        -8.872393592135923
      ],
      [
        "顔を",
        -8.878018817094176
      ],
      [
        "作者",
        -8.878655542117624
      ],
      [
        "までに",
        -8.87894143192295
      ],
      [
        "恐怖",
        -8.879617278995386
      ],
      [
        "内容",
        -8.880304222795633
      ],
      [
        "描写",
        -8.880429835477095
      ],
      [
        "ーム",
        -8.880965409750292
      ],
      [
        "労働",
        -8.883495186277875
      ],
      [
        "なん",
        -8.884374505862908
      ],
      [
        "原",
        -8.884377227253424
      ],
      [
        "国内",
        -8.885587037319112
      ],
      [
        "いる",
        -8.88919457555378
      ],
      [
        "“",
        -8.890087750286519
      ],
      [
        "1年",
        -8.893025565645031
      ],
      [
        "ついて",
        -8.893962737162523
      ],
      [
        "すれば",
        -8.894266461009277
      ],
      [
        "ント",
        -8.896487064458741
      ],
      [
        "さらに",
        -8.896571158264566
      ],
      [
        "危険な",
        -8.897604658049943
      ],
      [
        "端",
        -8.900391738391527
      ],
      [
        "振り",
        -8.9008426357038
      ],
      [
        "断",
        -8.902241563757988
      ],
      [
        "。人の",
        -8.90291090123858
      ],
      [
        "とする",
        -8.903190710145646
      ],
      [
        "た上",
        -8.90356936316871
      ],
      [
        "方が",
        -8.903712790506795
      ],
      [
        "工",
        -8.904508508101404
      ],
      [
        "なことを",
        -8.907879727071137
      ],
      [
        "期",
        -8.90827355167908
      ],
      [
        "誰が",
        -8.910541515605182
      ],
      [
        "ね",
        -8.910652752011552
      ],
      [
        "られる",
        -8.912624378693694
      ],
      [
        "ろうと",
        -8.915944697971218
      ],
      [
        "流",
        -8.917932731902447
      ],
      [
        "主催",
        -8.91895069727002
      ],
      [
        "いく",
        -8.919022416903578
      ],
      [
        "すが、",
        -8.919852362485859
      ],
      [
        "前に",
        -8.921432497675891
      ],
      [
        "てはならない",
        -8.92328550778329
      ],
      [
        "おうち",
        -8.92410309827784
      ],
      [
        "アイテム",
        -8.924135068114705
      ],
      [
        "エヴリンの",
        -8.924533529554783
      ],
      [
        "ミ",
        -8.924877620961542
      ],
      [
        "意味",
        -8.925994237385805
      ],
      [
        "ってしまった",
        -8.926628800295376
      ],
      [
        "帰",
        -8.92670342524065
      ],
      [
        "言っている",
        -8.927726801123615
      ],
      [
        "ケ",
        -8.928370134187238
      ],
      [
        "完全",
        -8.92858537900189
      ],
      [
        "抗議",
        -8.930466430205389
      ],
      [
        "少な",
        -8.93195850893256
      ],
      [
        "発表",
        -8.932620818197128
      ],
      [
        "の状況",
        -8.933648696571588
      ],
      [
        "区",
        -8.935487517735861
      ],
      [
        "身",
        -8.935784717825749
      ],
      [
        "様々な",
        -8.93756592079094
      ],
      [
        "在",
        -8.937585838678924
      ],
      [
        "店",
        -8.937627672572704
      ],
      [
        "鍵",
        -8.938435808458912
      ],
      [
        "運",
        -8.938627213269921
      ],
      [
        "(と",
        -8.939205467404877
      ],
      [
        "たのだった。",
        -8.939586251107672
      ],
      [
        "注",
        -8.941227030685365
      ],
      [
        "想",
        -8.94242211579582
      ],
      [
        "たちに",
        -8.94245205237337
      ],
      [
        "チョコレート",
        -8.942898125027309
      ],
      [
        "向",
        -8.94308444732123
      ],
      [
        "せられ",
        -8.943502804250441
      ],
      [
        "システム",
        -8.944072141315113
      ],
      [
        "お願い",
        -8.94431949484171
      ],
      [
        "ホテル",
        -8.944365104757306
      ],
      [
        "満ち",
        -8.944508580257049
      ],
      [
        "然",
        -8.944980191825536
      ],
      [
        "買う",
        -8.945138162570464
      ],
      [
        "化し",
        -8.9467808936057
      ],
      [
        "館",
        -8.947971370597275
      ],
      [
        "ひと",
        -8.948511540549662
      ],
      [
        "あります。",
        -8.948621435254704
      ],
      [
        "以",
        -8.948795454949078
      ],
      [
        "いた。",
        -8.949436166478606
      ],
      [
        "ものは",
        -8.949553965924949
      ],
      [
        "指",
        -8.949771858709502
      ],
      [
        "東",
        -8.950114084169833
      ],
      [
        "害",
        -8.950184873156747
      ],
      [
        "最も",
        -8.95050614518969
      ],
      [
        "絵",
        -8.95078611711053
      ],
      [
        "変",
        -8.951023810226795
      ],
      [
        "のない",
        -8.951178641110332
      ],
      [
        "消え",
        -8.951210553254622
      ],
      [
        "面白",
        -8.951500337198526
      ],
      [
        "ライ",
        -8.952214350885253
      ],
      [
        "に生きてい",
        -8.95227772459887
      ],
      [
        "個",
        -8.95234475867237
      ],
      [
        "東電",
        -8.952373897837786
      ],
      [
        "t",
        -8.952704355279756
      ],
      [
        "役",
        -8.952766743955083
      ],
      [
        "o",
        -8.952787097775847
      ],
      [
        "風",
        -8.953269730648588
      ],
      [
        "活",
        -8.953273362500333
      ],
      [
        "破",
        -8.9533702555231
      ],
      [
        "代表",
        -8.953398344379146
      ],
      [
        "M",
        -8.953620012954467
      ],
      [
        "電",
        -8.95365183213874
      ],
      [
        "配",
        -8.95369027428486
      ],
      [
        "ダ",
        -8.95375014140478
      ],
      [
        "文",
        -8.95375876787178
      ],
      [
        "折",
        -8.953785768753235
      ],
      [
        "超",
        -8.953798217069874
      ],
      [
        "近",
        -8.953853374868556
      ],
      [
        "世",
        -8.953980366980009
      ],
      [
        "完",
        -8.95405710766989
      ],
      [
        "識",
        -8.954059310832964
      ],
      [
        "益",
        -8.954094575854931
      ],
      [
        "昼",
        -8.95415131818979
      ],
      [
        "造",
        -8.954173250723004
      ],
      [
        "式",
        -8.954188938635642
      ],
      [
        "放",
        -8.954189884873767
      ],
      [
        "呼",
        -8.95419754407485
      ],
      [
        "発見",
        -8.954219996842237
      ],
      [
        "壊",
        -8.954330844353986
      ],
      [
        "射",
        -8.954363560586128
      ],
      [
        "可",
        -8.954368895169301
      ],
      [
        "整",
        -8.954407557508674
      ],
      [
        "教",
        -8.954429505928182
      ],
      [
        "存",
        -8.954431560546478
      ],
      [
        "女",
        -8.954441104302711
      ],
      [
        "軽",
        -8.954442260704724
      ],
      [
        "被",
        -8.95444877472014
      ],
      [
        "刻",
        -8.954475805957276
      ],
      [
        "遅",
        -8.954482180641524
      ],
      [
        "神",
        -8.954484516383319
      ],
      [
        "自民党",
        -8.954524345146732
      ],
      [
        "治",
        -8.954560354066894
      ],
      [
        "l",
        -8.954571068204748
      ],
      [
        "字",
        -8.954580074446927
      ],
      [
        "k",
        -8.954580172560387
      ],
      [
        "頼",
        -8.954580175832318
      ],
      [
        "ヴ",
        -8.954580192580298
      ],
      [
        "木",
        -8.95458019280173
      ],
      [
        "s",
        -8.954580193233763
      ],
      [
        "類",
        -8.954580193233838
      ],
      [
        "非",
        -8.954580193415453
      ],
      [
        "順",
        -8.954580193630292
      ],
      [
        "PlayStation",
        -8.954580193790743
      ],
      [
        "往",
        -8.954580193790752
      ],
      [
        "俺",
        -8.954580193790752
      ],
      [
        "房",
        -8.954580193790761
      ],
      [
        "舌",
        -8.954580193790763
      ],
      [
        "右",
        -8.954580193790763
      ],
      [
        "(*^_^*)",
        -8.954580193790763
      ],
      [
        "距離",
        -8.954580193790763
      ],
      [
        "辛",
        -8.954580193790768
      ],
      [
        "小麦粉",
        -8.954580193790775
      ],
      [
        "冗談",
        -8.954580193790775
      ],
      [
        "弱",
        -8.95458019379078
      ],
      [
        "躍",
        -8.954580193790797
      ],
      [
        "豪",
        -8.95458019379083
      ],
      [
        "魔",
        -8.954580193790864
      ],
      [
        "除",
        -8.954580193790898
      ],
      [
        "伴",
        -8.95458019379091
      ],
      [
        "錠",
        -8.954580193790921
      ],
      [
        "黒",
        -8.954580193790978
      ],
      [
        "梅田望夫氏",
        -8.954580193791234
      ],
      [
        "生物兵器",
        -8.954580193791358
      ],
      [
        "ごめんなさい",
        -8.95458019379142
      ],
      [
        "を支える",
        -8.95458019379385
      ],
      [
        "L",
        -8.95458019379458
      ],
      [
        "統制が",
        -8.954580193796707
      ],
      [
        "首",
        -8.954580193817701
      ],
      [
        "/",
        -8.954580193821403
      ],
      [
        "左",
        -8.954580193827944
      ],
      [
        "飾",
        -8.954580193830516
      ],
      [
        "系",
        -8.954580193830521
      ],
      [
        "村",
        -8.954580193830555
      ],
      [
        "沢",
        -8.954580193830623
      ],
      [
        "項",
        -8.954580193830646
      ],
      [
        "株式会社東京電力と",
        -8.954580193830646
      ],
      [
        "太",
        -8.954580193830656
      ],
      [
        "病",
        -8.954580193830656
      ],
      [
        "w",
        -8.954580193830656
      ],
      [
        "ユ",
        -8.954580193830656
      ],
      [
        "傘",
        -8.954580193830662
      ],
      [
        "夕",
        -8.954580193830662
      ],
      [
        "打",
        -8.954580193830669
      ],
      [
        "天",
        -8.954580193830669
      ],
      [
        "冥福を",
        -8.954580193830674
      ],
      [
        "傷",
        -8.95458019383068
      ],
      [
        "俊",
        -8.95458019383068
      ],
      [
        "p",
        -8.95458019383068
      ],
      [
        "症",
        -8.95458019383068
      ],
      [
        "F",
        -8.95458019383068
      ],
      [
        "――",
        -8.95458019383068
      ],
      [
        "末",
        -8.954580193830685
      ],
      [
        "眠",
        -8.954580193830685
      ],
      [
        "齢",
        -8.954580193830685
      ],
      [
        "滅",
        -8.95458019383069
      ],
      [
        "享",
        -8.9545801938307
      ],
      [
        "石",
        -8.9545801938307
      ],
      [
        ",",
        -8.9545801938307
      ],
      [
        "習",
        -8.9545801938307
      ],
      [
        "腰",
        -8.9545801938307
      ],
      [
        "隔",
        -8.9545801938307
      ],
      [
        "▁ファミ通.com",
        -8.9545801938307
      ],
      [
        "政策",
        -8.954580193839625
      ],
      [
        "交換",
        -8.954580193879995
      ],
      [
        "周囲",
        -8.954580193892909
      ],
      [
        "材料",
        -8.954580193934978
      ],
      [
        "大きく変わる",
        -8.954580194019774
      ],
      [
        "夫婦",
        -8.954580194034765
      ],
      [
        "餃子",
        -8.954580194282798
      ],
      [
        "古瀬空調",
        -8.954580194437014
      ],
      [
        "挙げ",
        -8.954580194581544
      ],
      [
        "一人称視点",
        -8.954580195104693
      ],
      [
        "第2",
        -8.954580195665658
      ],
      [
        "圧力",
        -8.954580196415199
      ],
      [
        "被験体",
        -8.954580205873906
      ],
      [
        "ビデオ",
        -8.954580207377113
      ],
      [
        "のワークショップを開催しました",
        -8.954580212235369
      ],
      [
        "リースバック",
        -8.954580216705114
      ],
      [
        "印象",
        -8.954580217979725
      ],
      [
        "トイレ",
        -8.954580244814585
      ],
      [
        "不思議",
        -8.954580265624145
      ],
      [
        "プレイヤー",
        -8.954580340193091
      ],
      [
        "カプコン",
        -8.954580390544102
      ],
      [
        "もあったが、",
        -8.954580458492483
      ],
      [
        "耐え",
        -8.954580520045486
      ],
      [
        "ミルク",
        -8.954580588474293
      ],
      [
        "「暫定基準値」",
        -8.954580626543464
      ],
      [
        "コメント",
        -8.95458063910323
      ],
      [
        "独特の",
        -8.954580935122872
      ],
      [
        "と思われる",
        -8.954581170675002
      ],
      [
        "集団",
        -8.95458231170949
      ],
      [
        "何度か",
        -8.954583856906128
      ],
      [
        "かつて",
        -8.954586616115256
      ],
      [
        "お客様",
        -8.954586767203349
      ],
      [
        "たくさん",
        -8.954587292001426
      ],
      [
        "はるかに",
        -8.954588089777648
      ],
      [
        "内外の",
        -8.95458811053962
      ],
      [
        "受け入れ",
        -8.9545886511062
      ],
      [
        "裁判",
        -8.9545916816427
      ],
      [
        "▁加えて、",
        -8.954592781200807
      ],
      [
        "まったく",
        -8.954593880939493
      ],
      [
        "を持った",
        -8.95459496866817
      ],
      [
        "多少",
        -8.954596830614097
      ],
      [
        "の話題",
        -8.954598187789136
      ],
      [
        "価格",
        -8.954598917178826
      ],
      [
        "段階",
        -8.95460160374776
      ],
      [
        "価値",
        -8.954602021044302
      ],
      [
        "少なくとも",
        -8.954604887705267
      ],
      [
        "注目して",
        -8.954606100935134
      ],
      [
        "グループ",
        -8.954609214689652
      ],
      [
        "組み合わせ",
        -8.954610701829461
      ],
      [
        "民主党",
        -8.954614882046542
      ],
      [
        "日本国外版",
        -8.954616067983487
      ],
      [
        "同じ報道機関",
        -8.954616170670477
      ],
      [
        "(?)",
        -8.954620416146556
      ],
      [
        "らしいのですが...",
        -8.954622698828299
      ],
      [
        "小学生",
        -8.954626051624029
      ],
      [
        "nt",
        -8.954630398145824
      ],
      [
        "キャ",
        -8.954630836830887
      ],
      [
        "原子力",
        -8.954630914587035
      ],
      [
        "仕様",
        -8.954631511486461
      ],
      [
        "子ども",
        -8.95463455867036
      ],
      [
        "タイプ",
        -8.954634947085411
      ],
      [
        "映像",
        -8.954638266690015
      ],
      [
        "ないといけない",
        -8.95464212378079
      ],
      [
        "2回目",
        -8.954648118753244
      ],
      [
        "サービス",
        -8.954649066127933
      ],
      [
        "本作で",
        -8.95464916114555
      ],
      [
        "はどうしても",
        -8.954652552679176
      ],
      [
        "じて",
        -8.954654352492188
      ],
      [
        "2010年",
        -8.954656630992337
      ],
      [
        "メリット",
        -8.954670726740085
      ],
      [
        "落ち着",
        -8.95467120191426
      ],
      [
        "大いに",
        -8.954675005062906
      ],
      [
        "精神",
        -8.954675880284075
      ],
      [
        "アップ",
        -8.95468039387305
      ],
      [
        "を通じて",
        -8.954682025912431
      ],
      [
        "エリア",
        -8.954682626609799
      ],
      [
        "およそ",
        -8.954686663414865
      ],
      [
        "死亡",
        -8.954715168812907
      ],
      [
        "教え",
        -8.954730904132742
      ],
      [
        "ar",
        -8.95473514086904
      ],
      [
        "り込んで",
        -8.95475370001232
      ],
      [
        "だけでなく、",
        -8.954756261922542
      ],
      [
        "て、どれだけの",
        -8.954757240603323
      ],
      [
        "不可",
        -8.95476658562884
      ],
      [
        "からの脱出",
        -8.954775426262874
      ],
      [
        "スカー",
        -8.95477884944492
      ],
      [
        "農業",
        -8.954781909840616
      ],
      [
        "国際",
        -8.954806688217115
      ],
      [
        "意識",
        -8.954812065194952
      ],
      [
        "世代",
        -8.954844235802188
      ],
      [
        "誰もが",
        -8.954862633960348
      ],
      [
        "に対する",
        -8.954868555378773
      ],
      [
        "行っております。",
        -8.954891552814097
      ],
      [
        "だからこそ",
        -8.954909301182603
      ],
      [
        "勝手",
        -8.954917383384775
      ],
      [
        "止め",
        -8.954917423222106
      ],
      [
        "RE",
        -8.954940744579268
      ],
      [
        "相当",
        -8.954952566735841
      ],
      [
        "ツイ",
        -8.954956995439336
      ],
      [
        "造形",
        -8.954957477124033
      ],
      [
        "形式",
        -8.954971600296837
      ],
      [
        "野党",
        -8.95498407467969
      ],
      [
        "に関する",
        -8.954998048683363
      ],
      [
        "ロード",
        -8.954999422036277
      ],
      [
        "となると、",
        -8.95501443028697
      ],
      [
        "心配",
        -8.955038834054022
      ],
      [
        "極限",
        -8.955086761132945
      ],
      [
        "方向",
        -8.955093615101138
      ],
      [
        "身体",
        -8.955122863343203
      ],
      [
        "に近い",
        -8.955123137050055
      ],
      [
        "切れ",
        -8.95513663239506
      ],
      [
        "なしに",
        -8.955159950582672
      ],
      [
        "従事",
        -8.955263790297103
      ],
      [
        "まだまし",
        -8.955292127851688
      ],
      [
        "成り立",
        -8.955296514941534
      ],
      [
        "PS4",
        -8.955358261855345
      ],
      [
        "地下",
        -8.955362873106335
      ],
      [
        "小さい",
        -8.955383676508134
      ],
      [
        "しやすい",
        -8.95540273597483
      ],
      [
        "カデ",
        -8.955467759989357
      ],
      [
        "合わせ",
        -8.955486489478155
      ],
      [
        "速度",
        -8.955498475202837
      ],
      [
        "両方",
        -8.95550723752823
      ],
      [
        "ハリ",
        -8.955562653981723
      ],
      [
        "違う",
        -8.955580974606914
      ],
      [
        "モー",
        -8.955614713751894
      ],
      [
        "こっち",
        -8.95563457035105
      ],
      [
        "受賞",
        -8.955681616248299
      ],
      [
        "このブログ",
        -8.95570126697841
      ],
      [
        "あそこまで",
        -8.955706988372814
      ],
      [
        "されてきた",
        -8.955756739878094
      ],
      [
        "コース",
        -8.95580152684113
      ],
      [
        "スコ",
        -8.95591198411411
      ],
      [
        "に行か",
        -8.956012634506276
      ],
      [
        "報道する",
        -8.956182427380837
      ],
      [
        "きつい",
        -8.956224121351745
      ],
      [
        "代表質問",
        -8.956224242852134
      ],
      [
        "なんか",
        -8.956345247634008
      ],
      [
        "わせる",
        -8.956425661740225
      ],
      [
        "取り",
        -8.956444774049581
      ],
      [
        "PS",
        -8.956478103019824
      ],
      [
        "んで",
        -8.95648984895926
      ],
      [
        "のようなもの",
        -8.956512859125187
      ],
      [
        "マン",
        -8.956600982269379
      ],
      [
        "9年に",
        -8.956649285206352
      ],
      [
        "『バイオハザード7』",
        -8.956711665726834
      ],
      [
        "早い",
        -8.956765113688608
      ],
      [
        "すべての",
        -8.957488449642833
      ],
      [
        "言葉を",
        -8.957543357081558
      ],
      [
        "スパ",
        -8.957867332376471
      ],
      [
        "が多かった",
        -8.957895462798946
      ],
      [
        "の終わりに",
        -8.957948980913837
      ],
      [
        "ロンドン",
        -8.958144004663284
      ],
      [
        "の環境",
        -8.958269385786153
      ],
      [
        "述の",
        -8.958796503181281
      ],
      [
        "ウン",
        -8.958839347306943
      ],
      [
        "3年前に",
        -8.95896300908032
      ],
      [
        "ぶり",
        -8.95898846569466
      ],
      [
        "、19",
        -8.959171721757953
      ],
      [
        "されています。",
        -8.959361696568651
      ],
      [
        "新しい",
        -8.95978786007922
      ],
      [
        "、拠点",
        -8.959860746625628
      ],
      [
        "僕も",
        -8.960012351347725
      ],
      [
        "5歳",
        -8.960098648612234
      ],
      [
        "▁私の場合、",
        -8.960776847653559
      ],
      [
        "(笑)",
        -8.960912489342194
      ],
      [
        "」というもの",
        -8.961174746188393
      ],
      [
        "は、この",
        -8.961320646557274
      ],
      [
        "の方が、",
        -8.961502516979946
      ],
      [
        "再会",
        -8.96320060745731
      ],
      [
        "上で",
        -8.963510457949187
      ],
      [
        "と言われ",
        -8.96392813677361
      ],
      [
        "直",
        -8.964326785553217
      ],
      [
        "6年",
        -8.965111542852409
      ],
      [
        "ないので、",
        -8.965171227810528
      ],
      [
        "しなければ",
        -8.965217859550954
      ],
      [
        "▁日本人は",
        -8.966399794004293
      ],
      [
        "簡単な",
        -8.96702000180409
      ],
      [
        "氏が",
        -8.967425176309273
      ],
      [
        "たときに",
        -8.967945810176074
      ],
      [
        "全体",
        -8.969134784550661
      ],
      [
        "るもの",
        -8.969237537698305
      ],
      [
        "かけられ",
        -8.969328927667297
      ],
      [
        "事態",
        -8.970199433078434
      ],
      [
        "なくなった",
        -8.971360397960618
      ],
      [
        "増",
        -8.97213039508909
      ],
      [
        "を得",
        -8.973238914647373
      ],
      [
        "出演",
        -8.97560320290528
      ],
      [
        "思う",
        -8.976117773014042
      ],
      [
        "理人",
        -8.977665639308816
      ],
      [
        "銀時を",
        -8.978318429253465
      ],
      [
        "内を",
        -8.978417846198221
      ],
      [
        "ではありません",
        -8.978993402035638
      ],
      [
        "』を",
        -8.979087296270414
      ],
      [
        "▁こういう",
        -8.979523064718066
      ],
      [
        "どこに",
        -8.979895123932941
      ],
      [
        "職",
        -8.981139649769496
      ],
      [
        "よろし",
        -8.981227340927719
      ],
      [
        "作に",
        -8.981535623469345
      ],
      [
        "は、こ",
        -8.981683504778706
      ],
      [
        "査定の",
        -8.982430646548774
      ],
      [
        "んだけど、",
        -8.98305157480492
      ],
      [
        "すぎる",
        -8.9831430402542
      ],
      [
        "きっと",
        -8.98392583578894
      ],
      [
        "デモ",
        -8.98489147205353
      ],
      [
        "大きな",
        -8.985055624081378
      ],
      [
        "ですからね",
        -8.986258643213137
      ],
      [
        "ディ",
        -8.986391443409675
      ],
      [
        "だが",
        -8.988090557316372
      ],
      [
        "▁産経新聞",
        -8.988309339770558
      ],
      [
        "ものがある。",
        -8.98906494716282
      ],
      [
        "以降",
        -8.989116762435204
      ],
      [
        "時間が",
        -8.989259706197794
      ],
      [
        "行為",
        -8.990945746875905
      ],
      [
        "わけではなく",
        -8.991224652725819
      ],
      [
        "ショ",
        -8.993224825351152
      ],
      [
        "▁19",
        -8.993446013349574
      ],
      [
        "バ",
        -8.993806767023667
      ],
      [
        "地域の",
        -8.99424249069671
      ],
      [
        "すごい",
        -8.994419431827575
      ],
      [
        "ありません",
        -8.996481009120119
      ],
      [
        "までの",
        -8.997120285454786
      ],
      [
        "されていない",
        -8.997154637125917
      ],
      [
        "の変化",
        -8.997310735680145
      ],
      [
        "の告知",
        -8.997609273221007
      ],
      [
        "▁特に",
        -8.997763667848565
      ],
      [
        "さな",
        -8.997834403632446
      ],
      [
        "0円",
        -8.998523902286616
      ],
      [
        "らない。",
        -8.998531325678986
      ],
      [
        "に来て",
        -8.999081159110405
      ],
      [
        "国の",
        -8.99912651303084
      ],
      [
        "理解でき",
        -8.999368127027656
      ],
      [
        "側の",
        -8.999568920254214
      ],
      [
        "▁本館",
        -8.999593224148253
      ],
      [
        "道を",
        -9.002508614129756
      ],
      [
        "▁そんな",
        -9.002897239950629
      ],
      [
        "金額が",
        -9.003673262421085
      ],
      [
        "してくれる",
        -9.003984764367003
      ],
      [
        "、直接",
        -9.005981938114937
      ],
      [
        "8日",
        -9.006247059002101
      ],
      [
        "の作業",
        -9.006698373973139
      ],
      [
        "まさに",
        -9.006866000471652
      ],
      [
        "術",
        -9.007016840128045
      ],
      [
        "6",
        -9.007298740529375
      ],
      [
        "▁普通",
        -9.00742152757444
      ],
      [
        "していない",
        -9.007826160184273
      ],
      [
        "しばらく",
        -9.008338344859498
      ],
      [
        "完全に",
        -9.009488657312945
      ],
      [
        "がある。",
        -9.0105400165895
      ],
      [
        "場合",
        -9.011165809830217
      ],
      [
        "失",
        -9.01188085206194
      ],
      [
        "時代",
        -9.01237450292915
      ],
      [
        "ないこと",
        -9.01281724858842
      ],
      [
        "と思います",
        -9.013489159574197
      ],
      [
        "るのは",
        -9.013979755700886
      ],
      [
        "クレ",
        -9.015050765718057
      ],
      [
        "をした",
        -9.015093483327842
      ],
      [
        "至",
        -9.017093992586652
      ],
      [
        "すぐに",
        -9.017192945122067
      ],
      [
        "他にも",
        -9.017231812915265
      ],
      [
        "LINE",
        -9.01753750295053
      ],
      [
        "飲み物",
        -9.017760917540933
      ],
      [
        "てみ",
        -9.018137600715612
      ],
      [
        "るまで、",
        -9.01871171305533
      ],
      [
        "てきた",
        -9.019460788485496
      ],
      [
        "されてい",
        -9.020249166791107
      ],
      [
        "行動を",
        -9.021666929091015
      ],
      [
        "暑く",
        -9.021729872173228
      ],
      [
        "していて、",
        -9.022691386873325
      ],
      [
        "などに",
        -9.02322492269354
      ],
      [
        "▁しかし",
        -9.023708640475189
      ],
      [
        "所属",
        -9.025312845392698
      ],
      [
        "なる",
        -9.027709487939793
      ],
      [
        "するという",
        -9.027928628956236
      ],
      [
        "▁それは",
        -9.030185393723572
      ],
      [
        "ということで",
        -9.031099711588794
      ],
      [
        "視して",
        -9.031370397086068
      ],
      [
        "海外",
        -9.033161625862753
      ],
      [
        "ドバ",
        -9.034080481091491
      ],
      [
        "してもら",
        -9.035587002193775
      ],
      [
        "たち",
        -9.036012753124645
      ],
      [
        "と判",
        -9.03657555441254
      ],
      [
        "▁今回",
        -9.038571799843767
      ],
      [
        "かな?",
        -9.038862183954041
      ],
      [
        "起こ",
        -9.041791414447715
      ],
      [
        "理由",
        -9.042112332923775
      ],
      [
        "だから、",
        -9.044027444105328
      ],
      [
        "興味",
        -9.045333261659618
      ],
      [
        "方法",
        -9.046540158985184
      ],
      [
        "てい",
        -9.04857456238498
      ],
      [
        "通常",
        -9.048815492021413
      ],
      [
        "した後",
        -9.048862893481576
      ],
      [
        "を感じ",
        -9.051017696015382
      ],
      [
        "通常の",
        -9.051149843346689
      ],
      [
        "ッパ",
        -9.053213140197643
      ],
      [
        "わざわざ",
        -9.053428972037851
      ],
      [
        "中国",
        -9.053581214801618
      ],
      [
        "特",
        -9.053971184929278
      ],
      [
        "ー・カーティス",
        -9.0552854873399
      ],
      [
        "方は",
        -9.055620089862154
      ],
      [
        "おそらく",
        -9.0572431267631
      ],
      [
        "ら、",
        -9.057550059798489
      ],
      [
        "過ぎ",
        -9.057572813981343
      ],
      [
        "パー",
        -9.058058262099923
      ],
      [
        "時間に",
        -9.059253022737828
      ],
      [
        "というか",
        -9.060267768498393
      ],
      [
        "であり",
        -9.060303358279166
      ],
      [
        "201",
        -9.06069077171975
      ],
      [
        "によって、",
        -9.062050034603955
      ],
      [
        "答え",
        -9.063509205304857
      ],
      [
        "今年",
        -9.063791824232725
      ],
      [
        "助け",
        -9.065019662420221
      ],
      [
        "出来",
        -9.06800178270792
      ],
      [
        "頃",
        -9.068131251349188
      ],
      [
        "作成",
        -9.071432906544526
      ],
      [
        "その後",
        -9.071831695937929
      ],
      [
        "以前",
        -9.072981409554501
      ],
      [
        "々に",
        -9.073260190419125
      ],
      [
        "調子が",
        -9.074077322423536
      ],
      [
        "ですが...",
        -9.07513274062045
      ],
      [
        "[1",
        -9.075717612252985
      ],
      [
        "確認",
        -9.076054058748444
      ],
      [
        "フォ",
        -9.077594741896293
      ],
      [
        "あの",
        -9.079361007862627
      ],
      [
        "ないで",
        -9.07986965881176
      ],
      [
        "が何",
        -9.079971492545644
      ],
      [
        "▁当",
        -9.080310182740446
      ],
      [
        "でしょう",
        -9.080798590202514
      ],
      [
        "▁201",
        -9.083251887740445
      ],
      [
        "しなくても",
        -9.08349553649525
      ],
      [
        "の言葉",
        -9.084200226121581
      ],
      [
        "購入し",
        -9.085654118340916
      ],
      [
        "却",
        -9.086430934348224
      ],
      [
        "するため、",
        -9.086480374825962
      ],
      [
        "てみて",
        -9.087006042147753
      ],
      [
        "美味しく",
        -9.088395528443602
      ],
      [
        "ワ",
        -9.089055768903394
      ],
      [
        "スター",
        -9.09059685371029
      ],
      [
        "と思う",
        -9.09237008070097
      ],
      [
        "チャ",
        -9.092494043299801
      ],
      [
        "作り",
        -9.092640637025593
      ],
      [
        "断を",
        -9.093802650003953
      ],
      [
        "、自らの",
        -9.09580753745111
      ],
      [
        "りました。",
        -9.09611519988234
      ],
      [
        "ブレ",
        -9.097289666650127
      ],
      [
        "良く",
        -9.097489936399121
      ],
      [
        "走って",
        -9.0983904773232
      ],
      [
        "報道しない",
        -9.098511279627436
      ],
      [
        "エン",
        -9.098973022260912
      ],
      [
        "一人",
        -9.099485400213606
      ],
      [
        "もっと",
        -9.099613529263586
      ],
      [
        "、とっても",
        -9.099837157638593
      ],
      [
        "、それ",
        -9.10027190522742
      ],
      [
        "、母",
        -9.100835105558746
      ],
      [
        "▁E",
        -9.1008670360894
      ],
      [
        "ってくれ",
        -9.106886313105358
      ],
      [
        "仕方ない",
        -9.107747593448423
      ],
      [
        "あるもの",
        -9.108079409870037
      ],
      [
        "であ",
        -9.10819277224267
      ],
      [
        "状の",
        -9.108457744400667
      ],
      [
        "ってくるの",
        -9.110956165138942
      ],
      [
        "グ",
        -9.11106303636836
      ],
      [
        "にあ",
        -9.111123673258522
      ],
      [
        "世界と",
        -9.111523366477838
      ],
      [
        "もしかしたら",
        -9.111574476874859
      ],
      [
        "の消費",
        -9.112061491531996
      ],
      [
        "私は",
        -9.112066764479495
      ],
      [
        "以降の",
        -9.113076643880593
      ],
      [
        "ビール",
        -9.11411483624028
      ],
      [
        "しっかり",
        -9.114540565499706
      ],
      [
        "本編",
        -9.116333010852598
      ],
      [
        "積",
        -9.118308812088248
      ],
      [
        "を与え",
        -9.118494201772567
      ],
      [
        "られており",
        -9.119361473504455
      ],
      [
        "視",
        -9.120912337480302
      ],
      [
        "かった。",
        -9.123142407547043
      ],
      [
        "家",
        -9.123452150885859
      ],
      [
        "は未",
        -9.123772802451757
      ],
      [
        "ということです。",
        -9.123899072564548
      ],
      [
        "これから",
        -9.12422933920306
      ],
      [
        "ではありませんか",
        -9.125259173031438
      ],
      [
        "走",
        -9.126711629585493
      ],
      [
        "はっきり",
        -9.128938410599314
      ],
      [
        "なのだ。",
        -9.129831667690388
      ],
      [
        "」に",
        -9.13151753712394
      ],
      [
        "ったり",
        -9.132009048656382
      ],
      [
        "謎の",
        -9.133548134324935
      ],
      [
        "深",
        -9.134836333919653
      ],
      [
        "好きな人",
        -9.135864604784434
      ],
      [
        "しょう。",
        -9.136639937889209
      ],
      [
        "クリア",
        -9.13744767829974
      ],
      [
        "て欲しい",
        -9.139678909484852
      ],
      [
        "はある",
        -9.140160965185178
      ],
      [
        "、そんな",
        -9.14082055181675
      ],
      [
        "したこと",
        -9.14108649648228
      ],
      [
        "く。",
        -9.141202064965292
      ],
      [
        "同じ",
        -9.14277410903278
      ],
      [
        "!」",
        -9.148843037395537
      ],
      [
        "イス",
        -9.149021856192524
      ],
      [
        "美",
        -9.149205137373286
      ],
      [
        "手に入",
        -9.14927684180836
      ],
      [
        "同様に",
        -9.149744079000765
      ],
      [
        "のうちに",
        -9.150733275558396
      ],
      [
        "つけ",
        -9.154900281644135
      ],
      [
        "になり、",
        -9.155286914628242
      ],
      [
        "、再",
        -9.15637809008751
      ],
      [
        "てください",
        -9.15646522031279
      ],
      [
        "00",
        -9.156505712349125
      ],
      [
        "さを",
        -9.156651634795901
      ],
      [
        "になっている",
        -9.157014468222297
      ],
      [
        "危",
        -9.161237496014987
      ],
      [
        "させ",
        -9.162020236726665
      ],
      [
        "人生",
        -9.163504294749071
      ],
      [
        "5日",
        -9.163542471963668
      ],
      [
        "を行い",
        -9.164458736371431
      ],
      [
        "になっ",
        -9.164955021628687
      ],
      [
        "困",
        -9.166147740900238
      ],
      [
        "みたいです",
        -9.167590940307447
      ],
      [
        "たら、",
        -9.168597468432244
      ],
      [
        "くな",
        -9.169587623127766
      ],
      [
        "▁カ",
        -9.1703789561011
      ],
      [
        "娘で",
        -9.1709037119364
      ],
      [
        "見て",
        -9.17178187722882
      ],
      [
        "しております。",
        -9.172447132861071
      ],
      [
        "しま",
        -9.173853861729434
      ],
      [
        "オー",
        -9.174303889521031
      ],
      [
        "られている",
        -9.17480736888254
      ],
      [
        "めて",
        -9.175024459028368
      ],
      [
        "つまり",
        -9.175322525343466
      ],
      [
        "果物",
        -9.17595166411357
      ],
      [
        "のなかで",
        -9.175987550675108
      ],
      [
        "困る",
        -9.176042290750297
      ],
      [
        "、皆さんに",
        -9.176701689676303
      ],
      [
        "どれ",
        -9.177280233923627
      ],
      [
        "場所",
        -9.1811756855162
      ],
      [
        "したり",
        -9.181637043143727
      ],
      [
        "らなかった",
        -9.182322715214498
      ],
      [
        "まま",
        -9.18299006968436
      ],
      [
        "してみ",
        -9.183835599467441
      ],
      [
        "▁潟上市",
        -9.184250550362929
      ],
      [
        "美味し",
        -9.18669290829363
      ],
      [
        "ここで",
        -9.187873814718671
      ],
      [
        "のだが",
        -9.188353939630478
      ],
      [
        "▁東京電力・福島第1原発事故",
        -9.189112359270236
      ],
      [
        "だけで",
        -9.190590709383716
      ],
      [
        ")。",
        -9.191504603302338
      ],
      [
        "感じた",
        -9.192537378034233
      ],
      [
        "かけ",
        -9.193086631635483
      ],
      [
        "私が",
        -9.193448953916183
      ],
      [
        "に行き",
        -9.194696152916027
      ],
      [
        "ました!",
        -9.194786396796855
      ],
      [
        "こともある",
        -9.1948021966641
      ],
      [
        "改",
        -9.195045011173267
      ],
      [
        "日)",
        -9.196799998930146
      ],
      [
        "手に入れ",
        -9.198792076307864
      ],
      [
        "レベル",
        -9.19939623854812
      ],
      [
        "、あまり",
        -9.200288281319402
      ],
      [
        "カス",
        -9.200986531828216
      ],
      [
        "覚え",
        -9.20224855671216
      ],
      [
        "▁ご",
        -9.203175575133937
      ],
      [
        "から、",
        -9.20339581411269
      ],
      [
        "を抱え",
        -9.205727422279661
      ],
      [
        "そういう",
        -9.207077626881262
      ],
      [
        "下の",
        -9.207680457230525
      ],
      [
        "については",
        -9.208722046323533
      ],
      [
        "ではなく",
        -9.209367427667825
      ],
      [
        "れてしまう",
        -9.211925803859566
      ],
      [
        "を——",
        -9.211930788623825
      ],
      [
        "何とか",
        -9.212728023078036
      ],
      [
        "▁そう",
        -9.21280788227994
      ],
      [
        "いいの",
        -9.213962167832618
      ],
      [
        "謎",
        -9.216559432526116
      ],
      [
        "影響",
        -9.21690671817329
      ],
      [
        "ったりと",
        -9.217441550739178
      ],
      [
        "ブログ",
        -9.217818944594745
      ],
      [
        "やか",
        -9.220131487784931
      ],
      [
        "▁東京電力・福島第1原発事故によ",
        -9.22210873155627
      ],
      [
        "聞い",
        -9.223462806237546
      ],
      [
        "水",
        -9.2244350733852
      ],
      [
        "全く",
        -9.22565306679849
      ],
      [
        "最",
        -9.225766857220135
      ],
      [
        "こいつ",
        -9.227782765316952
      ],
      [
        "ですから、",
        -9.228053465965825
      ],
      [
        "たくないので",
        -9.229078736961535
      ],
      [
        "テ",
        -9.229124604933073
      ],
      [
        "のよう",
        -9.229233348450048
      ],
      [
        "髪",
        -9.229873934415659
      ],
      [
        "時の",
        -9.231892195106012
      ],
      [
        "特に、",
        -9.232876786727472
      ],
      [
        "本編と",
        -9.235572354727962
      ],
      [
        "になっていた",
        -9.237042994984424
      ],
      [
        "ックの",
        -9.239393932739787
      ],
      [
        "を食べ",
        -9.239487021599318
      ],
      [
        "ですが、",
        -9.243040448469563
      ],
      [
        "や、",
        -9.24327872190334
      ],
      [
        "ものが",
        -9.246755070079722
      ],
      [
        "30",
        -9.247794311478799
      ],
      [
        "構",
        -9.249394565915807
      ],
      [
        "のま",
        -9.252619779948292
      ],
      [
        "するのは",
        -9.256261804642419
      ],
      [
        "るのは、",
        -9.256704962376483
      ],
      [
        "であろう",
        -9.258841410618697
      ],
      [
        "ご相談",
        -9.259189871820542
      ],
      [
        "ース",
        -9.263321834075665
      ],
      [
        "からの",
        -9.264638197742917
      ],
      [
        "色々な",
        -9.264660358458674
      ],
      [
        "戻",
        -9.267661038153523
      ],
      [
        "の会社",
        -9.26783265754073
      ],
      [
        "いま",
        -9.268514586157975
      ],
      [
        "とは、",
        -9.270560447088188
      ],
      [
        "理解",
        -9.270647008716121
      ],
      [
        "を大",
        -9.272781948494806
      ],
      [
        "の方",
        -9.274152605946576
      ],
      [
        "銀時",
        -9.27480331465485
      ],
      [
        "示し",
        -9.275029396493466
      ],
      [
        "のプレイ",
        -9.275131536871854
      ],
      [
        "▁実際",
        -9.275447449105584
      ],
      [
        "くて、",
        -9.275903568055336
      ],
      [
        "たような",
        -9.277045851155089
      ],
      [
        "周辺",
        -9.277458937308518
      ],
      [
        "もし",
        -9.278905767578438
      ],
      [
        "なの",
        -9.279391780870192
      ],
      [
        "、かなり",
        -9.279484652930693
      ],
      [
        "決め",
        -9.281311944378668
      ],
      [
        "ところで",
        -9.281460175062897
      ],
      [
        "してみては",
        -9.282220491712991
      ],
      [
        "のが",
        -9.282538245177436
      ],
      [
        "する声",
        -9.283371851245196
      ],
      [
        "を入れ",
        -9.285123010441685
      ],
      [
        "能",
        -9.285624984222297
      ],
      [
        "をお",
        -9.285811899755206
      ],
      [
        "るような",
        -9.289225209746748
      ],
      [
        "んな",
        -9.289716191060812
      ],
      [
        "▁4",
        -9.290208925543237
      ],
      [
        "うち",
        -9.291349223168575
      ],
      [
        "が示",
        -9.292963305132293
      ],
      [
        "助",
        -9.296528178801156
      ],
      [
        "かなり",
        -9.300961507135495
      ],
      [
        "感染",
        -9.301085071649199
      ],
      [
        "で、この",
        -9.301569950557017
      ],
      [
        "中国の",
        -9.302926967242097
      ],
      [
        "3年",
        -9.304389017031367
      ],
      [
        "スト",
        -9.30568943283189
      ],
      [
        "違い",
        -9.306744913826243
      ],
      [
        "▁また",
        -9.306921676476824
      ],
      [
        "ーク",
        -9.307223191465841
      ],
      [
        "、第1次産業",
        -9.30735662769553
      ],
      [
        "なければならない",
        -9.308697077463172
      ],
      [
        "開",
        -9.308975004849575
      ],
      [
        "思います。",
        -9.309923493233176
      ],
      [
        "うかな",
        -9.310715224438955
      ],
      [
        "ってしま",
        -9.310863547690758
      ],
      [
        "生き",
        -9.31164430542661
      ],
      [
        "、むしろ",
        -9.31372874314811
      ],
      [
        "育っ",
        -9.314436972007027
      ],
      [
        "▁オ",
        -9.314621782462694
      ],
      [
        "まとめ",
        -9.315768897388452
      ],
      [
        "状態で",
        -9.31645683169082
      ],
      [
        "める",
        -9.317680895106983
      ],
      [
        "フリ",
        -9.320058398586383
      ],
      [
        "リスト",
        -9.320782988358983
      ],
      [
        "▁それが",
        -9.322511034118486
      ],
      [
        "元",
        -9.32545954165344
      ],
      [
        "があれば",
        -9.326505950581648
      ],
      [
        "が多く",
        -9.326857492756671
      ],
      [
        "最後",
        -9.327024144284644
      ],
      [
        "まま、",
        -9.327290576540634
      ],
      [
        "します",
        -9.328742452995117
      ],
      [
        "楽し",
        -9.329344991395441
      ],
      [
        "ていました。",
        -9.32983736020805
      ],
      [
        "イル",
        -9.329968568296856
      ],
      [
        "リリース",
        -9.330258197231785
      ],
      [
        "に流",
        -9.331378569691152
      ],
      [
        "普通",
        -9.332527299740564
      ],
      [
        "知っ",
        -9.333558508044542
      ],
      [
        "んだろう",
        -9.334004317240879
      ],
      [
        "れていた。",
        -9.334360932234837
      ],
      [
        "紹介",
        -9.334851692174025
      ],
      [
        "そして",
        -9.334939385271493
      ],
      [
        "を思",
        -9.335040781856273
      ],
      [
        "後、",
        -9.335229467978483
      ],
      [
        "年に",
        -9.33620966209062
      ],
      [
        "が持ってい",
        -9.33784957907563
      ],
      [
        "為",
        -9.33864292016165
      ],
      [
        "ティ",
        -9.339512996402675
      ],
      [
        "態",
        -9.342282525966436
      ],
      [
        "報道し",
        -9.34587716476401
      ],
      [
        "今の",
        -9.346560640225722
      ],
      [
        "ード",
        -9.347076292059441
      ],
      [
        "合う",
        -9.347570844296953
      ],
      [
        "でも、",
        -9.348037604922274
      ],
      [
        "子供に",
        -9.348414803963383
      ],
      [
        "だから",
        -9.348663269500074
      ],
      [
        "可能性",
        -9.348748828515198
      ],
      [
        "、それが",
        -9.350069985002058
      ],
      [
        "アニメ",
        -9.352323488230642
      ],
      [
        "切",
        -9.352733570193626
      ],
      [
        "触れ",
        -9.35377711665195
      ],
      [
        "よね",
        -9.354120760259105
      ],
      [
        "あり、",
        -9.354926242741934
      ],
      [
        "ものの、",
        -9.35646413490467
      ],
      [
        "自ら",
        -9.358133169818686
      ],
      [
        "、子供",
        -9.358246854123202
      ],
      [
        "の飲み物",
        -9.359770078833698
      ],
      [
        "抱",
        -9.360358423801829
      ],
      [
        "ワークショップ",
        -9.360624300451615
      ],
      [
        "政治",
        -9.36162495142863
      ],
      [
        "コン",
        -9.363018129214984
      ],
      [
        "甘",
        -9.36376352466964
      ],
      [
        "はない",
        -9.36421556793817
      ],
      [
        "昔",
        -9.364248964944384
      ],
      [
        "と考え",
        -9.364681358685566
      ],
      [
        "ネット上",
        -9.36485079825692
      ],
      [
        "なくなってしま",
        -9.367254525412108
      ],
      [
        "ることで",
        -9.368522401510816
      ],
      [
        "ているが、",
        -9.36863818047306
      ],
      [
        "見ている人",
        -9.370470296291113
      ],
      [
        "という形で",
        -9.370695344045147
      ],
      [
        "」「",
        -9.370864257774773
      ],
      [
        "道",
        -9.371480823433103
      ],
      [
        "を感じた",
        -9.37216365957479
      ],
      [
        "当然",
        -9.372565524322315
      ],
      [
        "こう",
        -9.373137231432294
      ],
      [
        "すでに",
        -9.37452853924853
      ],
      [
        "ていること",
        -9.377530311194624
      ],
      [
        "れるような",
        -9.378026524838061
      ],
      [
        "付け",
        -9.378768408139157
      ],
      [
        "の上",
        -9.378852184961534
      ],
      [
        "▁バ",
        -9.379573780773372
      ],
      [
        "進",
        -9.380177569168518
      ],
      [
        "【",
        -9.380214644376778
      ],
      [
        "実際に",
        -9.380377816173324
      ],
      [
        "「これ",
        -9.380806476089314
      ],
      [
        "、ということで",
        -9.381137733463792
      ],
      [
        "確かに",
        -9.381264979293512
      ],
      [
        "行きます",
        -9.382075801226502
      ],
      [
        "時に",
        -9.38242299282918
      ],
      [
        "と同様",
        -9.384408543908341
      ],
      [
        "するの",
        -9.38611402896217
      ],
      [
        "、中高年の",
        -9.387395344697522
      ],
      [
        "本館",
        -9.388290567667653
      ],
      [
        "クト",
        -9.38964382274604
      ],
      [
        "を「",
        -9.392109895301434
      ],
      [
        "ことながら、",
        -9.39214002489961
      ],
      [
        "間違っ",
        -9.392306542624667
      ],
      [
        "日本の政治",
        -9.393185959591964
      ],
      [
        "成",
        -9.394237076334889
      ],
      [
        "呼び",
        -9.3942987131988
      ],
      [
        "らし",
        -9.394307757441888
      ],
      [
        "脱",
        -9.394759654349421
      ],
      [
        "記事",
        -9.394836994312456
      ],
      [
        "められ",
        -9.394839828528148
      ],
      [
        "くなった",
        -9.395270106873468
      ],
      [
        "産経新聞",
        -9.395577930900497
      ],
      [
        "とな",
        -9.397795285305971
      ],
      [
        "ないだろう",
        -9.397832252908483
      ],
      [
        "と思う。",
        -9.398942802553297
      ],
      [
        "なお、",
        -9.399318912778773
      ],
      [
        "てくれる",
        -9.399713855593589
      ],
      [
        "場を",
        -9.401960472504928
      ],
      [
        "りながら",
        -9.402632473291943
      ],
      [
        "4年",
        -9.40291061091383
      ],
      [
        "色",
        -9.403419054392756
      ],
      [
        "km/h",
        -9.404590516649804
      ],
      [
        "我々は",
        -9.405553937580303
      ],
      [
        "早めに",
        -9.406217352016975
      ],
      [
        "変わってい",
        -9.408496897933071
      ],
      [
        "思い出",
        -9.409026494350874
      ],
      [
        "で入",
        -9.409410290212238
      ],
      [
        "ことに",
        -9.410053676414226
      ],
      [
        "由",
        -9.410728511630136
      ],
      [
        "明",
        -9.410787085411764
      ],
      [
        "第1次産業",
        -9.413687778906915
      ],
      [
        "理",
        -9.413974709294697
      ],
      [
        "今日",
        -9.414689192759724
      ],
      [
        "が出来",
        -9.416433730368063
      ],
      [
        "まだ",
        -9.416464100682019
      ],
      [
        "我々",
        -9.416535365535061
      ],
      [
        "。その",
        -9.416612094849675
      ],
      [
        "ったのか",
        -9.416705738166149
      ],
      [
        "重要",
        -9.416902026296793
      ],
      [
        "送",
        -9.419775730568176
      ],
      [
        "続",
        -9.421248552618504
      ],
      [
        "氏",
        -9.421605633150277
      ],
      [
        "記",
        -9.4222426433308
      ],
      [
        "人たちが",
        -9.422387769824235
      ],
      [
        "質問",
        -9.422832356409314
      ],
      [
        "がない",
        -9.423009003067879
      ],
      [
        "こちらの",
        -9.423249692805378
      ],
      [
        "相談",
        -9.423576707060821
      ],
      [
        "とのこと",
        -9.424152609749758
      ],
      [
        "言わ",
        -9.425173425285465
      ],
      [
        "最高",
        -9.425741334245448
      ],
      [
        "なのです。",
        -9.427025676951477
      ],
      [
        "す!",
        -9.42711341413845
      ],
      [
        "といった",
        -9.428625612649597
      ],
      [
        "]",
        -9.428847406341307
      ],
      [
        "ものを",
        -9.429762038283808
      ],
      [
        "低",
        -9.429886171833196
      ],
      [
        "ゾイ",
        -9.430137367257517
      ],
      [
        "ツ",
        -9.43025951827677
      ],
      [
        "足",
        -9.430640623567033
      ],
      [
        "間に",
        -9.430888935232385
      ],
      [
        "強",
        -9.430927614018934
      ],
      [
        "金",
        -9.431357654292322
      ],
      [
        "夜の",
        -9.432417175234123
      ],
      [
        "芸術",
        -9.433222830845812
      ],
      [
        "隊",
        -9.433546334343509
      ],
      [
        "P",
        -9.433678352361994
      ],
      [
        "茶",
        -9.434363829061219
      ],
      [
        "ム",
        -9.434396924776351
      ],
      [
        "感じている",
        -9.43470341971352
      ],
      [
        "校",
        -9.434817952088576
      ],
      [
        "場合は、",
        -9.434970504152929
      ],
      [
        "ことができる",
        -9.435013488468341
      ],
      [
        "汚染",
        -9.435287733345653
      ],
      [
        "のかもしれません",
        -9.435404692065468
      ],
      [
        "海",
        -9.435832239612493
      ],
      [
        "大丈夫",
        -9.436150876956386
      ],
      [
        "ようとするが、",
        -9.436207059755288
      ],
      [
        "のか。",
        -9.436254091663697
      ],
      [
        "苦",
        -9.436516704590113
      ],
      [
        "ふ",
        -9.436631751772088
      ],
      [
        "メン",
        -9.436817116644132
      ],
      [
        "事件",
        -9.436860200446228
      ],
      [
        "電話",
        -9.437354022922003
      ],
      [
        "ぜ",
        -9.437529346827763
      ],
      [
        "ことも",
        -9.43756379869014
      ],
      [
        "鈴木",
        -9.437944747883511
      ],
      [
        "度で",
        -9.4380919136623
      ],
      [
        "環境",
        -9.438343245781706
      ],
      [
        "2017年",
        -9.438685020876477
      ],
      [
        "、チャンネル桜",
        -9.439076212095822
      ],
      [
        "撃",
        -9.439549450839483
      ],
      [
        "つけられ",
        -9.439560866637443
      ],
      [
        "てもらえ",
        -9.439604738124046
      ],
      [
        "まるで",
        -9.439650117535772
      ],
      [
        "言え",
        -9.439880502143273
      ],
      [
        "ション",
        -9.440075558422752
      ],
      [
        "割",
        -9.44015702656626
      ],
      [
        "源",
        -9.440251873200276
      ],
      [
        "事が",
        -9.440785050911716
      ],
      [
        "きちんと",
        -9.440928584894557
      ],
      [
        "どういう",
        -9.44128347848744
      ],
      [
        "利",
        -9.44133764745052
      ],
      [
        "容",
        -9.44148874475875
      ],
      [
        "従",
        -9.441577427520373
      ],
      [
        "映画",
        -9.441610590100934
      ],
      [
        "登",
        -9.441771824085224
      ],
      [
        "効果",
        -9.441829659290462
      ],
      [
        "程度",
        -9.441874735248808
      ],
      [
        "はどう",
        -9.441888337322593
      ],
      [
        "士",
        -9.441925565247727
      ],
      [
        "ラン",
        -9.441946410033745
      ],
      [
        "弁護士",
        -9.44195481572811
      ],
      [
        "単",
        -9.441974364113719
      ],
      [
        "中国政府",
        -9.44204237570715
      ],
      [
        "登場",
        -9.442429693017939
      ],
      [
        "んでいる",
        -9.442821912676955
      ],
      [
        "幅",
        -9.443604808282826
      ],
      [
        "プ",
        -9.443854866525477
      ],
      [
        "歌",
        -9.443862388740024
      ],
      [
        "する事",
        -9.444143031322318
      ],
      [
        "出来事",
        -9.44414316726737
      ],
      [
        "写真",
        -9.4443091477763
      ],
      [
        "入って",
        -9.444404828738895
      ],
      [
        "様子",
        -9.444456411012629
      ],
      [
        "ほしい",
        -9.444686534064939
      ],
      [
        "ません",
        -9.444798757389846
      ],
      [
        "、そして",
        -9.444944146142795
      ],
      [
        "気持ち",
        -9.44496058258732
      ],
      [
        "死",
        -9.445134399019238
      ],
      [
        "はまだ",
        -9.445183542105935
      ],
      [
        "資源",
        -9.44558162157454
      ],
      [
        "の責任",
        -9.445603191149937
      ],
      [
        "逆に",
        -9.44568448402168
      ],
      [
        "僕",
        -9.445770962207316
      ],
      [
        "もしくは",
        -9.445830692043453
      ],
      [
        "の場合は",
        -9.446238018245548
      ],
      [
        "守",
        -9.446257703982095
      ],
      [
        "値段",
        -9.446428059966959
      ],
      [
        "設",
        -9.446617287456396
      ],
      [
        "屋",
        -9.446694068723936
      ],
      [
        "ぁ",
        -9.446893009346224
      ],
      [
        "、最後",
        -9.447083953323736
      ],
      [
        "娘",
        -9.447184404069255
      ],
      [
        "ぶ",
        -9.447386011527577
      ],
      [
        "ひ",
        -9.447601630470949
      ],
      [
        "幸",
        -9.447617307082343
      ],
      [
        "気付",
        -9.44786475965786
      ],
      [
        "早",
        -9.448135694241751
      ],
      [
        "費用",
        -9.448194038976077
      ],
      [
        "第1",
        -9.448219261743505
      ],
      [
        "拠点",
        -9.448620746882417
      ],
      [
        "告",
        -9.448650455739104
      ],
      [
        "襲",
        -9.4488676726675
      ],
      [
        "を追",
        -9.448917270088893
      ],
      [
        "タイトル",
        -9.448945803081717
      ],
      [
        "クリーム",
        -9.449520327616685
      ],
      [
        "痛",
        -9.449811182360655
      ],
      [
        "多数",
        -9.450105490062166
      ],
      [
        "置",
        -9.450227105883162
      ],
      [
        "ていて、",
        -9.450252619768838
      ],
      [
        "最初",
        -9.45051437032108
      ],
      [
        "確",
        -9.450540439486078
      ],
      [
        "嫌",
        -9.450588580404954
      ],
      [
        "十",
        -9.450750708112224
      ],
      [
        "つき",
        -9.450986159663294
      ],
      [
        "行われた",
        -9.45119127661761
      ],
      [
        "共に",
        -9.451210222581585
      ],
      [
        "放射能",
        -9.45129916277742
      ],
      [
        "ぐ",
        -9.451350315732887
      ],
      [
        "銃器",
        -9.451531058705632
      ],
      [
        "、私たちは",
        -9.451639797962581
      ],
      [
        "ない、",
        -9.451717549826922
      ],
      [
        "るからです。",
        -9.451751848385076
      ],
      [
        "怒",
        -9.451758100999061
      ],
      [
        "返済",
        -9.451767642159973
      ],
      [
        "拠",
        -9.451915501039487
      ],
      [
        "重大な",
        -9.451941490148002
      ],
      [
        "売",
        -9.45206950238539
      ],
      [
        "初",
        -9.452224565899254
      ],
      [
        "がうまく",
        -9.452618572312
      ],
      [
        "サー",
        -9.452802759551222
      ],
      [
        "てしまう。",
        -9.452877188556236
      ],
      [
        "情",
        -9.453059792446798
      ],
      [
        "議",
        -9.453061614275764
      ],
      [
        "要",
        -9.45306863017507
      ],
      [
        "られません",
        -9.453151118391194
      ],
      [
        "るほど",
        -9.453201990168719
      ],
      [
        "受",
        -9.453209253870943
      ],
      [
        "市",
        -9.453359589814204
      ],
      [
        "感覚",
        -9.453441086530008
      ],
      [
        "ベ",
        -9.453449406173519
      ],
      [
        "わせ",
        -9.453488362721973
      ],
      [
        "ザ",
        -9.453586940283467
      ],
      [
        "2017年1月2",
        -9.453629567246562
      ],
      [
        "基",
        -9.453679516811988
      ],
      [
        "止",
        -9.453680261397762
      ],
      [
        "の集",
        -9.453704003789177
      ],
      [
        "イラ",
        -9.45372343696068
      ],
      [
        "ネ",
        -9.453744160608812
      ],
      [
        "であることは",
        -9.453751111646632
      ],
      [
        "予",
        -9.453766847559187
      ],
      [
        "認",
        -9.453804260142295
      ],
      [
        "解決",
        -9.45383576329819
      ],
      [
        "域",
        -9.453921695829191
      ],
      [
        "画",
        -9.453931811941917
      ],
      [
        "央",
        -9.453964394653125
      ],
      [
        "難易度",
        -9.453999392214287
      ],
      [
        "展",
        -9.454011334045669
      ],
      [
        "っぽい",
        -9.454012187540462
      ],
      [
        "勝",
        -9.454029796379817
      ],
      [
        "我",
        -9.454057028938625
      ],
      [
        "に関しては",
        -9.454063859448702
      ],
      [
        "らぬ",
        -9.454079802712616
      ],
      [
        "説",
        -9.454107506837698
      ],
      [
        "和",
        -9.454199382764429
      ],
      [
        "念",
        -9.454212424387439
      ],
      [
        "しつづけ",
        -9.454221822847726
      ],
      [
        "ニュー",
        -9.454236963674726
      ],
      [
        "農",
        -9.454250873595855
      ],
      [
        "独",
        -9.454283065517595
      ],
      [
        "像",
        -9.45431013562318
      ],
      [
        "構え",
        -9.45432726271219
      ],
      [
        "激",
        -9.45435056700882
      ],
      [
        "易",
        -9.454351100160157
      ],
      [
        "接",
        -9.454353301127904
      ],
      [
        "位",
        -9.454365300528895
      ],
      [
        "格",
        -9.454365892695037
      ],
      [
        "絶",
        -9.454376395949936
      ],
      [
        "準",
        -9.454377646487943
      ],
      [
        "映",
        -9.454388192189112
      ],
      [
        "薬",
        -9.454395890413647
      ],
      [
        "章",
        -9.45440839787796
      ],
      [
        "精",
        -9.454423955400744
      ],
      [
        "線",
        -9.454437675687917
      ],
      [
        "値",
        -9.454439531465118
      ],
      [
        "段",
        -9.45444091940665
      ],
      [
        "も可能",
        -9.454449742327444
      ],
      [
        "、全て",
        -9.454461623423214
      ],
      [
        "坂",
        -9.45447595978635
      ],
      [
        "査",
        -9.454480078734997
      ],
      [
        "ゲ",
        -9.454480119967432
      ],
      [
        "備",
        -9.454482693325694
      ],
      [
        "素",
        -9.45449275955678
      ],
      [
        "都",
        -9.454497118410796
      ],
      [
        "便",
        -9.454505778500662
      ],
      [
        "こういった",
        -9.454518334490016
      ],
      [
        "幼",
        -9.454520183315822
      ],
      [
        "馴染",
        -9.454521153328196
      ],
      [
        "条",
        -9.454537719464986
      ],
      [
        "必ず",
        -9.454540681852848
      ],
      [
        "宅",
        -9.454541791109408
      ],
      [
        "乳",
        -9.45454186944058
      ],
      [
        "繋が",
        -9.45454278495366
      ],
      [
        "効",
        -9.454543546049953
      ],
      [
        "H",
        -9.454545661322223
      ],
      [
        "転",
        -9.45455913490284
      ],
      [
        "願",
        -9.45456468466628
      ],
      [
        "業務用エアコン",
        -9.454567862618505
      ],
      [
        "録",
        -9.454571403406103
      ],
      [
        "慮",
        -9.454573721270696
      ],
      [
        "虚構",
        -9.454573783868748
      ],
      [
        "衆",
        -9.454575179274928
      ],
      [
        "妻",
        -9.45457680332301
      ],
      [
        "参",
        -9.4545776964839
      ],
      [
        "づけ",
        -9.454577750478716
      ],
      [
        "Y",
        -9.45457777833456
      ],
      [
        "夫",
        -9.454577852613742
      ],
      [
        "ぞ",
        -9.454579765580686
      ],
      [
        "福島",
        -9.454579852145415
      ],
      [
        "委",
        -9.454580024849589
      ],
      [
        "華",
        -9.45458008528667
      ],
      [
        "》",
        -9.45458018771679
      ],
      [
        "健",
        -9.454580193462467
      ],
      [
        "弁",
        -9.454580193790742
      ],
      [
        "▁4Gamer",
        -9.454580193790743
      ],
      [
        "管",
        -9.45458019379075
      ],
      [
        "撒",
        -9.45458019379075
      ],
      [
        "南",
        -9.45458019379075
      ],
      [
        "倒",
        -9.45458019379075
      ],
      [
        "紅",
        -9.45458019379075
      ],
      [
        "悩",
        -9.45458019379075
      ],
      [
        "“BackChannel”の",
        -9.45458019379075
      ],
      [
        "親に内緒でスマホ",
        -9.45458019379075
      ],
      [
        "▁尖閣",
        -9.45458019379075
      ],
      [
        "杏仁",
        -9.45458019379075
      ],
      [
        "倍",
        -9.45458019379076
      ],
      [
        "列",
        -9.45458019379076
      ],
      [
        "処",
        -9.45458019379076
      ],
      [
        "星",
        -9.45458019379076
      ],
      [
        "園",
        -9.45458019379076
      ],
      [
        "滞",
        -9.45458019379076
      ],
      [
        "路",
        -9.45458019379076
      ],
      [
        "欠",
        -9.45458019379076
      ],
      [
        "約",
        -9.45458019379076
      ],
      [
        "酷",
        -9.45458019379076
      ],
      [
        "露",
        -9.45458019379076
      ],
      [
        "衝",
        -9.45458019379076
      ],
      [
        "艶",
        -9.45458019379076
      ],
      [
        "抵",
        -9.45458019379076
      ],
      [
        "、私たち人間自身を信頼する",
        -9.45458019379076
      ],
      [
        "商業ジャーナリズム",
        -9.45458019379076
      ],
      [
        "に拉致された",
        -9.45458019379076
      ],
      [
        "『銀の匙』",
        -9.45458019379076
      ],
      [
        "袋",
        -9.454580193790768
      ],
      [
        "球",
        -9.454580193790779
      ],
      [
        "悲",
        -9.454580193790779
      ],
      [
        "閉",
        -9.454580193790779
      ],
      [
        "三",
        -9.454580193790779
      ],
      [
        "急",
        -9.454580193790779
      ],
      [
        "還",
        -9.454580193790779
      ],
      [
        "冬",
        -9.454580193790779
      ],
      [
        "固",
        -9.454580193790779
      ],
      [
        "イーサン・ウィンターズ",
        -9.454580193790779
      ],
      [
        "電子書籍のネタバレを",
        -9.454580193790779
      ],
      [
        "について勉強する",
        -9.454580193790779
      ],
      [
        "格安SIMを",
        -9.454580193790779
      ],
      [
        "この「郷里」",
        -9.454580193790779
      ],
      [
        "伝統工芸の",
        -9.454580193790779
      ],
      [
        "馬鹿",
        -9.454580193790779
      ],
      [
        "瓦礫",
        -9.454580193790779
      ],
      [
        "曖昧",
        -9.454580193790779
      ],
      [
        "支那",
        -9.454580193790779
      ],
      [
        "濃",
        -9.454580193790786
      ],
      [
        "赤",
        -9.454580193790795
      ],
      [
        "県",
        -9.454580193790795
      ],
      [
        "秋",
        -9.454580193790795
      ],
      [
        "陣",
        -9.454580193790795
      ],
      [
        "暗",
        -9.454580193790795
      ],
      [
        "は、ほんとうに",
        -9.454580193790795
      ],
      [
        "の田舎町",
        -9.454580193790795
      ],
      [
        "年(昭和",
        -9.45458019379081
      ],
      [
        "促",
        -9.454580193790814
      ],
      [
        "勢",
        -9.454580193790814
      ],
      [
        "蘇",
        -9.454580193790814
      ],
      [
        "炎",
        -9.454580193790814
      ],
      [
        "卓",
        -9.454580193790814
      ],
      [
        "赴",
        -9.454580193790814
      ],
      [
        "肺",
        -9.454580193790814
      ],
      [
        "uuun",
        -9.454580193790814
      ],
      [
        "ube",
        -9.454580193790818
      ],
      [
        "テクノロジー",
        -9.454580193790832
      ],
      [
        "、キッズケータイ",
        -9.454580193790852
      ],
      [
        "週刊金曜日",
        -9.454580193790852
      ],
      [
        "襲い掛か",
        -9.454580193790852
      ],
      [
        "z",
        -9.45458019379087
      ],
      [
        "例",
        -9.454580193790887
      ],
      [
        "没入感",
        -9.45458019379096
      ],
      [
        "既得権",
        -9.45458019379096
      ],
      [
        "の番組で",
        -9.454580193790997
      ],
      [
        "ヒ",
        -9.454580193791035
      ],
      [
        "旨",
        -9.454580193791035
      ],
      [
        "培",
        -9.45458019379107
      ],
      [
        "繰り返",
        -9.45458019379107
      ],
      [
        "に生息する",
        -9.454580193791108
      ],
      [
        "に支配されて",
        -9.454580193791145
      ],
      [
        "ゝ",
        -9.45458019379118
      ],
      [
        "獄",
        -9.45458019379118
      ],
      [
        "には秘密にして",
        -9.45458019379129
      ],
      [
        "る放射性物質",
        -9.454580193791328
      ],
      [
        "のプレゼン",
        -9.454580193791841
      ],
      [
        "自分の息子",
        -9.45458019379197
      ],
      [
        "に起因",
        -9.454580193791978
      ],
      [
        "こころとからだが",
        -9.454580193793895
      ],
      [
        "虚偽を",
        -9.454580193794397
      ],
      [
        "立派な",
        -9.454580193794481
      ],
      [
        "に及ぶ",
        -9.454580193794884
      ],
      [
        "▁左袖に",
        -9.454580193795094
      ],
      [
        "のコンセプト",
        -9.454580193795433
      ],
      [
        "では9.99",
        -9.454580193795836
      ],
      [
        "正式名称は「",
        -9.454580193795856
      ],
      [
        "特別支援学校",
        -9.454580193796405
      ],
      [
        "には、言うまでもなく、",
        -9.454580193796497
      ],
      [
        "退役軍人",
        -9.454580193796863
      ],
      [
        "第一東京弁護士会",
        -9.45458019379789
      ],
      [
        "のムービー",
        -9.454580193797963
      ],
      [
        "を挟んで",
        -9.45458019380042
      ],
      [
        "2670人が参加して",
        -9.454580193804965
      ],
      [
        "原子力発電所",
        -9.454580193807825
      ],
      [
        "▁DLC『",
        -9.454580193808201
      ],
      [
        "▁room」",
        -9.454580193811188
      ],
      [
        "に成功",
        -9.454580193813296
      ],
      [
        "「やじうま",
        -9.454580193813728
      ],
      [
        ".net",
        -9.454580193817515
      ],
      [
        "追い詰め",
        -9.45458019382336
      ],
      [
        "退",
        -9.454580193824706
      ],
      [
        "垂れ流",
        -9.454580193824734
      ],
      [
        "偽",
        -9.45458019382734
      ],
      [
        "邸",
        -9.454580193828775
      ],
      [
        "、日常",
        -9.454580193829015
      ],
      [
        "ゼ",
        -9.45458019382962
      ],
      [
        "詞",
        -9.454580193830298
      ],
      [
        "ミリシーベルト",
        -9.454580193830335
      ],
      [
        "=",
        -9.454580193830408
      ],
      [
        "○○説",
        -9.454580193830408
      ],
      [
        "祖",
        -9.454580193830463
      ],
      [
        "凶",
        -9.454580193830482
      ],
      [
        "託",
        -9.4545801938305
      ],
      [
        "盛",
        -9.454580193830518
      ],
      [
        "競",
        -9.454580193830518
      ],
      [
        "驚",
        -9.454580193830537
      ],
      [
        "差",
        -9.454580193830537
      ],
      [
        "括",
        -9.454580193830555
      ],
      [
        "布",
        -9.454580193830555
      ],
      [
        "草",
        -9.454580193830555
      ],
      [
        "老",
        -9.454580193830555
      ],
      [
        "刊",
        -9.454580193830566
      ],
      [
        "若",
        -9.454580193830573
      ],
      [
        "婆",
        -9.454580193830573
      ],
      [
        "婚",
        -9.45458019383059
      ],
      [
        "紛",
        -9.45458019383059
      ],
      [
        "偉",
        -9.45458019383059
      ],
      [
        "核",
        -9.45458019383059
      ],
      [
        "凝",
        -9.45458019383059
      ],
      [
        "遺",
        -9.45458019383059
      ],
      [
        "閑",
        -9.45458019383059
      ],
      [
        "藤",
        -9.454580193830596
      ],
      [
        "劣",
        -9.45458019383061
      ],
      [
        "洋",
        -9.45458019383061
      ],
      [
        "省",
        -9.45458019383061
      ],
      [
        "製",
        -9.45458019383061
      ],
      [
        "遣",
        -9.454580193830619
      ],
      [
        "阻",
        -9.454580193830628
      ],
      [
        "漁",
        -9.454580193830628
      ],
      [
        "総",
        -9.454580193830628
      ],
      [
        "測",
        -9.454580193830628
      ],
      [
        "紀",
        -9.454580193830628
      ],
      [
        "ノルウェーのノーベル賞委員会",
        -9.454580193830628
      ],
      [
        "「Madhouse」では",
        -9.454580193830628
      ],
      [
        "▁ご存知の方も多い",
        -9.454580193830628
      ],
      [
        "ベイカー農場",
        -9.454580193830628
      ],
      [
        "ビートルズの",
        -9.454580193830637
      ],
      [
        "越",
        -9.454580193830648
      ],
      [
        "炉",
        -9.454580193830648
      ],
      [
        "粘",
        -9.454580193830648
      ],
      [
        "王",
        -9.454580193830648
      ],
      [
        "邪",
        -9.454580193830648
      ],
      [
        "仮",
        -9.454580193830648
      ],
      [
        "眼",
        -9.454580193830656
      ],
      [
        "清",
        -9.454580193830658
      ],
      [
        "獲",
        -9.454580193830665
      ],
      [
        "妙",
        -9.454580193830665
      ],
      [
        "雄",
        -9.454580193830665
      ],
      [
        "卑",
        -9.454580193830665
      ],
      [
        "西",
        -9.454580193830665
      ],
      [
        "炭",
        -9.454580193830665
      ],
      [
        "マジョリティー",
        -9.454580193830665
      ],
      [
        "素晴らしい",
        -9.454580193830665
      ],
      [
        "酸",
        -9.454580193830674
      ],
      [
        "フェイスブック",
        -9.454580193830674
      ],
      [
        "微",
        -9.454580193830683
      ],
      [
        "包",
        -9.454580193830683
      ],
      [
        "糾",
        -9.454580193830683
      ],
      [
        "亜",
        -9.454580193830683
      ],
      [
        "駅",
        -9.454580193830683
      ],
      [
        "巻",
        -9.454580193830683
      ],
      [
        "季",
        -9.454580193830683
      ],
      [
        "菜",
        -9.454580193830683
      ],
      [
        "節",
        -9.454580193830683
      ],
      [
        "築",
        -9.454580193830683
      ],
      [
        "Z",
        -9.454580193830683
      ],
      [
        "将",
        -9.454580193830683
      ],
      [
        "X",
        -9.454580193830683
      ],
      [
        "不動産買取企業が",
        -9.454580193830683
      ],
      [
        "編集",
        -9.454580193830683
      ],
      [
        "光州",
        -9.454580193830683
      ],
      [
        "泣",
        -9.454580193830692
      ],
      [
        "法律事務所や法務事務所",
        -9.454580193830692
      ],
      [
        "やメンテナンス",
        -9.454580193830692
      ],
      [
        "吸",
        -9.4545801938307
      ],
      [
        "夢",
        -9.4545801938307
      ],
      [
        "補",
        -9.4545801938307
      ],
      [
        "随",
        -9.4545801938307
      ],
      [
        "群",
        -9.4545801938307
      ],
      [
        "j",
        -9.4545801938307
      ],
      [
        "川",
        -9.4545801938307
      ],
      [
        "粋",
        -9.4545801938307
      ],
      [
        "並",
        -9.4545801938307
      ],
      [
        "殺",
        -9.4545801938307
      ],
      [
        "希",
        -9.4545801938307
      ],
      [
        "菅",
        -9.4545801938307
      ],
      [
        "角",
        -9.4545801938307
      ],
      [
        "津",
        -9.4545801938307
      ],
      [
        "愕",
        -9.4545801938307
      ],
      [
        "漂",
        -9.4545801938307
      ],
      [
        "純",
        -9.4545801938307
      ],
      [
        "扱",
        -9.4545801938307
      ],
      [
        "肌",
        -9.4545801938307
      ],
      [
        "伏",
        -9.4545801938307
      ],
      [
        "沼",
        -9.4545801938307
      ],
      [
        "懸",
        -9.4545801938307
      ],
      [
        "短",
        -9.4545801938307
      ],
      [
        "前には主催者からも告知されていた",
        -9.4545801938307
      ],
      [
        "「淫欲の棲家」という同人漫画",
        -9.4545801938307
      ],
      [
        "お問い合わせ下さい",
        -9.4545801938307
      ],
      [
        "の異常による",
        -9.4545801938307
      ],
      [
        "た清志郎",
        -9.4545801938307
      ],
      [
        "雰囲気",
        -9.4545801938307
      ],
      [
        "志向性",
        -9.4545801938307
      ],
      [
        "の護送の",
        -9.454580193838252
      ],
      [
        "アーチスト",
        -9.454580193839865
      ],
      [
        "・ベイカー",
        -9.454580193855794
      ],
      [
        "た寄付金が",
        -9.454580193859993
      ],
      [
        "授与す",
        -9.454580193868496
      ],
      [
        "▁Q:",
        -9.454580193871632
      ],
      [
        "貴重な",
        -9.454580193876856
      ],
      [
        "が降ろうと",
        -9.454580193917659
      ],
      [
        "オススメ",
        -9.454580193938032
      ],
      [
        "豆腐",
        -9.454580193950783
      ],
      [
        "渋谷",
        -9.454580193950783
      ],
      [
        "妥協",
        -9.454580193950783
      ],
      [
        "比較",
        -9.4545801939508
      ],
      [
        "「最初から不可能」と",
        -9.454580193967608
      ],
      [
        "を尋ね",
        -9.454580193991125
      ],
      [
        "粉砕",
        -9.454580193993399
      ],
      [
        "債務",
        -9.454580194007569
      ],
      [
        "幼少期は",
        -9.454580194012095
      ],
      [
        "かけがえのない",
        -9.45458019402489
      ],
      [
        "次第に",
        -9.45458019402896
      ],
      [
        "LINEモバイル",
        -9.454580194036794
      ],
      [
        "リンク切れ",
        -9.45458019403972
      ],
      [
        "具体的",
        -9.454580194043624
      ],
      [
        "タブレットや",
        -9.454580194061624
      ],
      [
        "肯定",
        -9.454580194113507
      ],
      [
        "の順番",
        -9.45458019411797
      ],
      [
        "アメリカ",
        -9.454580194125228
      ],
      [
        "男に抱かれ",
        -9.454580194209345
      ],
      [
        "さくらのどら焼き",
        -9.4545801942137
      ],
      [
        "に掲載され",
        -9.454580194225457
      ],
      [
        "苦労",
        -9.454580194241736
      ],
      [
        "ナンバリング",
        -9.454580194342935
      ],
      [
        "規定",
        -9.45458019436385
      ],
      [
        "見たことのない",
        -9.454580194376645
      ],
      [
        "的なものとみな",
        -9.454580194388743
      ],
      [
        "報酬で",
        -9.454580194393747
      ],
      [
        "徐々に",
        -9.45458019444562
      ],
      [
        "是非ご",
        -9.454580194458103
      ],
      [
        "選挙",
        -9.454580194488166
      ],
      [
        "治療",
        -9.454580194508017
      ],
      [
        "指導",
        -9.454580194510106
      ],
      [
        "東芝",
        -9.454580194514781
      ],
      [
        "家庭",
        -9.454580194524304
      ],
      [
        "意志",
        -9.45458019467649
      ],
      [
        "毛先",
        -9.454580194707944
      ],
      [
        "すなわち、",
        -9.454580194754081
      ],
      [
        "グロテスクVer.",
        -9.45458019478627
      ],
      [
        "トピックを",
        -9.454580194806926
      ],
      [
        "機械",
        -9.454580194807054
      ],
      [
        "仲間",
        -9.454580194880943
      ],
      [
        "感謝",
        -9.454580194901308
      ],
      [
        "頂きました。",
        -9.454580194912124
      ],
      [
        "カチタス",
        -9.454580194919217
      ],
      [
        "が、借金",
        -9.454580194944338
      ],
      [
        "摂取",
        -9.454580194944503
      ],
      [
        "平均",
        -9.454580194950047
      ],
      [
        "世界が救われ",
        -9.454580194959965
      ],
      [
        "戦闘",
        -9.454580195033266
      ],
      [
        "伸ば",
        -9.45458019518713
      ],
      [
        "著書",
        -9.45458019541391
      ],
      [
        "旅行",
        -9.454580195534467
      ],
      [
        "は、ほんの",
        -9.454580195779652
      ],
      [
        "知恵",
        -9.454580195866225
      ],
      [
        "心拍",
        -9.454580195874692
      ],
      [
        "午前",
        -9.454580196006267
      ],
      [
        "哲学",
        -9.454580196120162
      ],
      [
        "▁ちなみに、",
        -9.454580196125523
      ],
      [
        "おうち買取のオンライン無料査定サ",
        -9.454580196251706
      ],
      [
        "ご提",
        -9.454580196296524
      ],
      [
        "いろいろ",
        -9.4545801963317
      ],
      [
        "中庭",
        -9.454580196335549
      ],
      [
        "拍手",
        -9.454580196343091
      ],
      [
        "第一",
        -9.454580196425098
      ],
      [
        "80歳の母親",
        -9.454580196435787
      ],
      [
        "▁PRO",
        -9.454580197061368
      ],
      [
        "冒頭",
        -9.454580197143706
      ],
      [
        "船員",
        -9.454580197220656
      ],
      [
        "激しく反発",
        -9.454580197764638
      ],
      [
        "金で買うことのできない",
        -9.454580197810355
      ],
      [
        "アピールして",
        -9.454580198143194
      ],
      [
        "込み",
        -9.454580198533662
      ],
      [
        "ゲノム",
        -9.454580198575895
      ],
      [
        "「最低40年」",
        -9.454580198635949
      ],
      [
        "コンテンツ",
        -9.454580198924827
      ],
      [
        "何も語らぬ",
        -9.4545801992261
      ],
      [
        "《M》",
        -9.454580199904498
      ],
      [
        "▁2016]「バイオハザード7",
        -9.454580199964479
      ],
      [
        "お気軽にご連絡下さい",
        -9.454580200350485
      ],
      [
        "なんとかなるので",
        -9.454580200461479
      ],
      [
        "ゆる",
        -9.454580200905102
      ],
      [
        "何年か前",
        -9.45458020108978
      ],
      [
        "捨て",
        -9.454580201411822
      ],
      [
        "そろそろ",
        -9.454580201423838
      ],
      [
        "vil",
        -9.454580202089161
      ],
      [
        "スマホのルールを",
        -9.454580202179525
      ],
      [
        "刺繍",
        -9.454580203137915
      ],
      [
        "仕方のないことだった",
        -9.454580203799157
      ],
      [
        "皆様",
        -9.454580204326579
      ],
      [
        "震え",
        -9.454580205616818
      ],
      [
        "「シニフィ",
        -9.454580206799854
      ],
      [
        "ビジネス",
        -9.45458020778528
      ],
      [
        "の支",
        -9.454580208211206
      ],
      [
        "は『1』",
        -9.454580208992247
      ],
      [
        "自然食レストラン",
        -9.45458020907575
      ],
      [
        "▁ともあれ、",
        -9.454580209915646
      ],
      [
        "「すべては恐怖",
        -9.454580210363634
      ],
      [
        "で見積もり",
        -9.454580211316873
      ],
      [
        "おすすめ",
        -9.454580211834388
      ],
      [
        "をお勧め",
        -9.454580212355605
      ],
      [
        "俳優",
        -9.454580214356264
      ],
      [
        "というわけではないのですが...",
        -9.454580218028541
      ],
      [
        "最終",
        -9.45458021868115
      ],
      [
        "わけにはいきません",
        -9.45458021902746
      ],
      [
        "エルモサの",
        -9.454580220130559
      ],
      [
        "大々的に報",
        -9.454580220600093
      ],
      [
        "一郎氏",
        -9.454580222703898
      ],
      [
        "頑張",
        -9.454580222960923
      ],
      [
        "救い難い",
        -9.454580223164342
      ],
      [
        "ご依頼",
        -9.454580223182479
      ],
      [
        "プレイステーション",
        -9.454580223722171
      ],
      [
        "なめらか",
        -9.454580225047533
      ],
      [
        "直截",
        -9.454580228151794
      ],
      [
        "焦げ目",
        -9.454580228407849
      ],
      [
        "00kmを",
        -9.45458022851044
      ],
      [
        "デモ行進",
        -9.454580230112624
      ],
      [
        "当てはまる",
        -9.454580230498381
      ],
      [
        "貴方",
        -9.454580231072242
      ],
      [
        "飲食店",
        -9.454580231115136
      ],
      [
        "意味を成さな",
        -9.45458023146821
      ],
      [
        "た[5]。",
        -9.454580232033766
      ],
      [
        "数週間",
        -9.45458023711138
      ],
      [
        "頬を",
        -9.454580238226493
      ],
      [
        "を許",
        -9.454580238226493
      ],
      [
        "を纏",
        -9.454580238736234
      ],
      [
        "エヴリンの支配",
        -9.454580241109564
      ],
      [
        "に囚",
        -9.454580244202646
      ],
      [
        "何故",
        -9.454580247255134
      ],
      [
        "見つかると思います。",
        -9.454580247404845
      ],
      [
        "いささか",
        -9.454580248986113
      ],
      [
        "変わらない",
        -9.45458025586477
      ],
      [
        "トラブルに",
        -9.45458025850932
      ],
      [
        "集ま",
        -9.454580263099853
      ],
      [
        "事務局",
        -9.454580264406516
      ],
      [
        "屈辱的なことを",
        -9.454580267106966
      ],
      [
        "か否かを",
        -9.454580268411064
      ],
      [
        "アルバム「",
        -9.454580271683945
      ],
      [
        "成人男性",
        -9.454580279997227
      ],
      [
        "の絶望的な事態が",
        -9.454580285022935
      ],
      [
        "▁見た目",
        -9.454580289173473
      ],
      [
        "敗戦続きで",
        -9.454580298380348
      ],
      [
        "イメージ",
        -9.454580300396323
      ],
      [
        "中華料理",
        -9.45458030233467
      ],
      [
        "自転車",
        -9.45458030555159
      ],
      [
        "接触を避け",
        -9.454580308107689
      ],
      [
        "わかりやすく",
        -9.454580310581314
      ],
      [
        "限度量を",
        -9.454580310983317
      ],
      [
        "アワード",
        -9.454580315967585
      ],
      [
        "するステップを踏",
        -9.454580325967228
      ],
      [
        "お散歩",
        -9.454580326435316
      ],
      [
        "を下回っている",
        -9.454580341690724
      ],
      [
        "行方不明となった",
        -9.454580346391502
      ],
      [
        "はNHKの真横",
        -9.45458034991831
      ],
      [
        "不合理",
        -9.454580351583346
      ],
      [
        "破壊すると「",
        -9.454580359906581
      ],
      [
        "を踏",
        -9.454580362551546
      ],
      [
        "が浮",
        -9.454580369531689
      ],
      [
        "スライドを",
        -9.454580372751977
      ],
      [
        "実写より",
        -9.454580380851832
      ],
      [
        "2018年6月1",
        -9.45458039678074
      ],
      [
        "室外機",
        -9.454580409246708
      ],
      [
        "1時間ごとの",
        -9.454580411663681
      ],
      [
        "解析ソフト",
        -9.45458042446634
      ],
      [
        "ストーリー",
        -9.454580431499766
      ],
      [
        "購読",
        -9.45458046219335
      ],
      [
        "▁いきなり",
        -9.454580471520078
      ],
      [
        "襲撃です。",
        -9.454580475040471
      ],
      [
        "データ",
        -9.454580481126568
      ],
      [
        "運ぶことは",
        -9.454580488119046
      ],
      [
        "SNS",
        -9.454580496684688
      ],
      [
        "で楽しむという",
        -9.454580518424732
      ],
      [
        "トレーニング",
        -9.454580521069767
      ],
      [
        "▁>",
        -9.454580532208936
      ],
      [
        "福島第1原発",
        -9.454580535475165
      ],
      [
        "4日発売",
        -9.454580541696668
      ],
      [
        "が守ってくれる",
        -9.454580561450557
      ],
      [
        "かぎり、",
        -9.454580582743548
      ],
      [
        "「カセット",
        -9.45458059894093
      ],
      [
        "で、ちょっと変わった",
        -9.454580628443265
      ],
      [
        "思わないわけで",
        -9.454580628729472
      ],
      [
        "エンジン",
        -9.454580638524059
      ],
      [
        "を緩",
        -9.45458068742908
      ],
      [
        "各種",
        -9.454580702728723
      ],
      [
        "唆され",
        -9.454580710868644
      ],
      [
        "▁*",
        -9.454580726371681
      ],
      [
        "「ウェブ",
        -9.454580731793005
      ],
      [
        "多くの賞を受賞した。",
        -9.454580733385747
      ],
      [
        "稿を",
        -9.454580803034952
      ],
      [
        "異様さ",
        -9.454580808605337
      ],
      [
        "日に発売された",
        -9.454580809824543
      ],
      [
        "に生き合わせた",
        -9.454580811256037
      ],
      [
        "キロカロリー",
        -9.454580852387032
      ],
      [
        "ちらのほう",
        -9.454580859044546
      ],
      [
        "「知らなかった」と",
        -9.454580881036515
      ],
      [
        "でやり取り",
        -9.454580906664516
      ],
      [
        "、『5』",
        -9.454580917462563
      ],
      [
        "できてしまうんです",
        -9.454580945439176
      ],
      [
        "ou",
        -9.454580965675502
      ],
      [
        "に敬意を",
        -9.454581041793977
      ],
      [
        "ハンド",
        -9.454581085709089
      ],
      [
        "世界中の人",
        -9.45458113346537
      ],
      [
        "「風評」",
        -9.454581156515399
      ],
      [
        "グリン",
        -9.454581177248869
      ],
      [
        "さすがに",
        -9.454581187722194
      ],
      [
        "過半数",
        -9.454581218266688
      ],
      [
        "相まって、",
        -9.454581232191442
      ],
      [
        "仕掛けを解",
        -9.454581252800708
      ],
      [
        "ボトル",
        -9.454581263320133
      ],
      [
        "この世で最も",
        -9.454581293676997
      ],
      [
        "日本のマス",
        -9.454581374546958
      ],
      [
        "不明な点",
        -9.454581407959893
      ],
      [
        "絞っ",
        -9.454581532332803
      ],
      [
        "じゃないですか",
        -9.454581644287117
      ],
      [
        "容器",
        -9.454581722984713
      ],
      [
        "参考に",
        -9.454581835164591
      ],
      [
        "も用意し",
        -9.454582096066822
      ],
      [
        "もったいない",
        -9.45458210780539
      ],
      [
        "センス",
        -9.454582161654972
      ],
      [
        "』に登場する",
        -9.454582252603718
      ],
      [
        "のセーブ",
        -9.45458229139219
      ],
      [
        "、「夫」",
        -9.454582534615238
      ],
      [
        "▁PAY",
        -9.454582609292551
      ],
      [
        "大切な",
        -9.454582727835863
      ],
      [
        "の悪さに",
        -9.454582954658783
      ],
      [
        "調和してい",
        -9.454583167652546
      ],
      [
        "分けて",
        -9.454583208766122
      ],
      [
        "お買い",
        -9.45458324005145
      ],
      [
        "、鳥の",
        -9.45458329144707
      ],
      [
        "を足止めし",
        -9.4545833032524
      ],
      [
        "妻のミア",
        -9.454583584309571
      ],
      [
        "まざま",
        -9.454583973528624
      ],
      [
        "議論で",
        -9.4545841060288
      ],
      [
        "書いてある",
        -9.454584831084642
      ],
      [
        "▁2017年12月",
        -9.454584916397712
      ],
      [
        "の少女",
        -9.454585179193618
      ],
      [
        "民大衆の",
        -9.454585208370986
      ],
      [
        "確実に",
        -9.454585436511286
      ],
      [
        "感じませんでした",
        -9.454585874032396
      ],
      [
        "ったと判明する",
        -9.454586039855423
      ],
      [
        "で起こった",
        -9.454586493649716
      ],
      [
        "戦時中",
        -9.454586583716996
      ],
      [
        "虚構世界の",
        -9.454586604431396
      ],
      [
        "を考慮",
        -9.454586666391421
      ],
      [
        "いけません。",
        -9.45458672042899
      ],
      [
        "[21]",
        -9.45458697508916
      ],
      [
        "混乱して",
        -9.454587058844622
      ],
      [
        "象徴",
        -9.454587182596807
      ],
      [
        "▁茂木:",
        -9.454587321562412
      ],
      [
        "、命を削",
        -9.454587339914893
      ],
      [
        "私見では",
        -9.454587446463695
      ],
      [
        "、演劇",
        -9.454587771524695
      ],
      [
        "の開発中の",
        -9.454587847042983
      ],
      [
        "、ようやく",
        -9.454588298557066
      ],
      [
        "は苦痛",
        -9.454588432694305
      ],
      [
        "んだよな",
        -9.45458850758333
      ],
      [
        "を共有して",
        -9.454588545103718
      ],
      [
        "る事ができる。",
        -9.454588683708963
      ],
      [
        "直接相談する",
        -9.454589155159203
      ],
      [
        "しておきましょう。",
        -9.454589972337757
      ],
      [
        "思い切って",
        -9.454590554781669
      ],
      [
        "使用していると",
        -9.454590977793295
      ],
      [
        "成果を、",
        -9.454591037865463
      ],
      [
        "腹の",
        -9.454591165400918
      ],
      [
        "フィクション",
        -9.454591490186141
      ],
      [
        "まずくはないので",
        -9.454591580859443
      ],
      [
        "全国紙の記者",
        -9.45459166565564
      ],
      [
        "するごとに",
        -9.454592172584793
      ],
      [
        "業務用エアコンの修理",
        -9.454592525167115
      ],
      [
        "これからは輝",
        -9.454592712753772
      ],
      [
        "これでもか",
        -9.454593363584248
      ],
      [
        "『3』",
        -9.454593766902898
      ],
      [
        "サバイバルホラー",
        -9.454594273003568
      ],
      [
        "厚手のもの",
        -9.454594283596046
      ],
      [
        "米軍",
        -9.454594292744604
      ],
      [
        "における",
        -9.454594294178133
      ],
      [
        "千万",
        -9.454594297864132
      ],
      [
        "覚悟",
        -9.45459456572928
      ],
      [
        "た方がよい",
        -9.454596203522115
      ],
      [
        "大きく",
        -9.454596234617048
      ],
      [
        "バックアップ",
        -9.454597667566285
      ],
      [
        "テープ」",
        -9.454598003705529
      ],
      [
        "ビビ",
        -9.454598152175507
      ],
      [
        "解消さ",
        -9.454599274439907
      ],
      [
        "もできないのです。",
        -9.45459960413591
      ],
      [
        "本数は",
        -9.454600167860722
      ],
      [
        "詩に",
        -9.454600741001263
      ],
      [
        "ではないものの",
        -9.454600827231843
      ],
      [
        "転送する",
        -9.454601141386362
      ],
      [
        "の特定の位置に",
        -9.45460121589585
      ],
      [
        "何度も",
        -9.454601491442222
      ],
      [
        "検討",
        -9.454601505981593
      ],
      [
        "のせいで",
        -9.454601611732764
      ],
      [
        "これ以上、",
        -9.45460171673922
      ],
      [
        "が増してき",
        -9.454601998297408
      ],
      [
        "が発生してしまう",
        -9.454602675801718
      ],
      [
        "可能性が高い",
        -9.454603651953374
      ],
      [
        "先回り",
        -9.454603713084888
      ],
      [
        "与党",
        -9.454604062602398
      ],
      [
        "でしたよ。",
        -9.45460436848568
      ],
      [
        "異様な",
        -9.454605068717672
      ],
      [
        "月26日",
        -9.454605100078796
      ],
      [
        "勇気を持って",
        -9.454605716595918
      ],
      [
        "特有の",
        -9.45460707395317
      ],
      [
        "NHKの場合には",
        -9.454607101790707
      ],
      [
        "「日常の中で",
        -9.454608105781428
      ],
      [
        "、異常なほど",
        -9.454608588132976
      ],
      [
        "いて、普通の",
        -9.45460957318303
      ],
      [
        "で、お金を取",
        -9.454610106548872
      ],
      [
        "▁いずれにしても",
        -9.454610624358002
      ],
      [
        "原因が多く、",
        -9.45461065525356
      ],
      [
        "日本国民の",
        -9.454611083525013
      ],
      [
        "からといって、",
        -9.45461157834585
      ],
      [
        "サイズ",
        -9.454614161519626
      ],
      [
        "を選ぶ",
        -9.454614261210564
      ],
      [
        "OHA",
        -9.454614691579476
      ],
      [
        "致します。",
        -9.454615102589385
      ],
      [
        "、まずインターネット",
        -9.454615412685076
      ],
      [
        "ている他、",
        -9.45461650669461
      ],
      [
        "豆乳",
        -9.454618519607848
      ],
      [
        "禁止",
        -9.454618581060325
      ],
      [
        "確率",
        -9.454618596938314
      ],
      [
        "住宅",
        -9.45461859794479
      ],
      [
        "とりわけ",
        -9.454618709452681
      ],
      [
        "刺激",
        -9.454618937586371
      ],
      [
        "追い込",
        -9.454619602165534
      ],
      [
        "劉氏",
        -9.454621899135926
      ],
      [
        "シャ",
        -9.454622553183702
      ],
      [
        "先生のご",
        -9.454622656606045
      ],
      [
        "証拠",
        -9.454624298114743
      ],
      [
        "特殊",
        -9.454624330376966
      ],
      [
        "が苦手",
        -9.454624752470771
      ],
      [
        "本作の",
        -9.4546250997778
      ],
      [
        "似たような",
        -9.45462547892059
      ],
      [
        "開始",
        -9.454626377670575
      ],
      [
        "至る所に",
        -9.454627498770666
      ],
      [
        "好評を",
        -9.454628095043791
      ],
      [
        "聞こえ",
        -9.454628379355523
      ],
      [
        "。既",
        -9.454631541422623
      ],
      [
        "報じ",
        -9.454631567445816
      ],
      [
        "技術",
        -9.45463336005475
      ],
      [
        "してもらわないと",
        -9.454633416127564
      ],
      [
        "視聴",
        -9.45463352970496
      ],
      [
        "のみであるが、",
        -9.45463463642853
      ],
      [
        "600円",
        -9.454635696742818
      ],
      [
        "個人的には",
        -9.45463572480476
      ],
      [
        "冷え",
        -9.454637354549066
      ],
      [
        "理解できる人",
        -9.454638755167867
      ],
      [
        "こんなことを言",
        -9.454639029761966
      ],
      [
        "選んでいただけ",
        -9.454640498380954
      ],
      [
        "交流",
        -9.454640820592212
      ],
      [
        "の海底",
        -9.454642369961828
      ],
      [
        "に過ぎないと",
        -9.454644895507876
      ],
      [
        "静岡市",
        -9.454645500626578
      ],
      [
        "過去作の",
        -9.45464648323694
      ],
      [
        "ことが判明",
        -9.45464661576174
      ],
      [
        "が、途中から",
        -9.454647250896556
      ],
      [
        "暑さを",
        -9.454647419964829
      ],
      [
        "演技",
        -9.45464930486115
      ],
      [
        "特異菌に感染しており、",
        -9.454649553821206
      ],
      [
        "変更",
        -9.45465087268615
      ],
      [
        "期待",
        -9.45465088414471
      ],
      [
        "を含む",
        -9.454653125754437
      ],
      [
        "更新",
        -9.454654333608348
      ],
      [
        "便利",
        -9.454654614501337
      ],
      [
        "の高さ",
        -9.454654747325097
      ],
      [
        "の花が",
        -9.454655557823626
      ],
      [
        "十代",
        -9.454657523766722
      ],
      [
        "同一性",
        -9.454657740275433
      ],
      [
        "電力は",
        -9.454658060309606
      ],
      [
        "良くなり",
        -9.454660034661126
      ],
      [
        "12月",
        -9.45466026767044
      ],
      [
        "のいずれ",
        -9.454660672201449
      ],
      [
        "を見つけて",
        -9.454660889351947
      ],
      [
        "突如",
        -9.454661590612446
      ],
      [
        "必ずしも",
        -9.454661817893705
      ],
      [
        "命題",
        -9.454662317504482
      ],
      [
        "都市",
        -9.454663275916538
      ],
      [
        "甘いものが",
        -9.45466354741656
      ],
      [
        "進行",
        -9.454665769250305
      ],
      [
        "記念",
        -9.454667714813846
      ],
      [
        "爆弾",
        -9.454668381231702
      ],
      [
        "未来",
        -9.454669440264988
      ],
      [
        "ッタリ",
        -9.454670969913774
      ],
      [
        "になってしまっている",
        -9.454671276755944
      ],
      [
        "チェ",
        -9.45467134257438
      ],
      [
        "人為的",
        -9.454672717883813
      ],
      [
        "い状態だと",
        -9.45467357334857
      ],
      [
        "最低",
        -9.45467526378627
      ],
      [
        "家に帰",
        -9.454677382102231
      ],
      [
        "カヴァー",
        -9.45467743742004
      ],
      [
        "準備してく",
        -9.454677703532687
      ],
      [
        "ンテージ",
        -9.45467790909578
      ],
      [
        "オブジェ",
        -9.454678774976136
      ],
      [
        "クリームなのか、",
        -9.454679156676953
      ],
      [
        "性質",
        -9.454679311518454
      ],
      [
        "施されており",
        -9.454682209635566
      ],
      [
        "プラス",
        -9.45468372667381
      ],
      [
        "激坂",
        -9.454684438391983
      ],
      [
        "どうなるか。",
        -9.454684618577703
      ],
      [
        "込ませる",
        -9.454684842411858
      ],
      [
        "基準",
        -9.454685170866046
      ],
      [
        "目指し",
        -9.454686483836353
      ],
      [
        "起こらない",
        -9.454688834208266
      ],
      [
        "敗戦",
        -9.454689562475268
      ],
      [
        "ストロー",
        -9.454690234651874
      ],
      [
        "人間の生命",
        -9.454690344847048
      ],
      [
        "外に出て",
        -9.454691336834465
      ],
      [
        "置かれ",
        -9.454692195328432
      ],
      [
        "んですけど",
        -9.454693176787872
      ],
      [
        "資料において",
        -9.454695707122475
      ],
      [
        "こちらのページ",
        -9.454698059957403
      ],
      [
        "加担",
        -9.454700791425786
      ],
      [
        "放置",
        -9.454700963735341
      ],
      [
        "少数",
        -9.454701359244893
      ],
      [
        "NHKに対する",
        -9.454702585398266
      ],
      [
        "追求",
        -9.45470430017373
      ],
      [
        "は思えな",
        -9.45470798995685
      ],
      [
        "入れれば",
        -9.454708079942622
      ],
      [
        "意図",
        -9.454710271037511
      ],
      [
        "ニヤ",
        -9.454710939574873
      ],
      [
        "で紹介させていただきま",
        -9.454711039087202
      ],
      [
        "進化",
        -9.454711603067503
      ],
      [
        "▁A:",
        -9.454713457855759
      ],
      [
        "汚染水",
        -9.454713604037677
      ],
      [
        "友達",
        -9.454715688401446
      ],
      [
        "主張し",
        -9.454716054502912
      ],
      [
        "事情があ",
        -9.454717314662352
      ],
      [
        "世話になって",
        -9.454719815014249
      ],
      [
        "視線",
        -9.454722731669932
      ],
      [
        "見つめ",
        -9.454728855785474
      ],
      [
        "自覚し",
        -9.454729404719828
      ],
      [
        "子供にスマホを持たせ",
        -9.454730066617348
      ],
      [
        "ご自身の",
        -9.454730129186311
      ],
      [
        "に達してい",
        -9.454731368245476
      ],
      [
        "、この夏",
        -9.45473344718116
      ],
      [
        "地元の",
        -9.45473491732417
      ],
      [
        "違和感を感じ",
        -9.454734943075838
      ],
      [
        "る」という見",
        -9.454736157988926
      ],
      [
        "いったい",
        -9.45473868606559
      ],
      [
        "食文化",
        -9.454739682733104
      ],
      [
        "箇月",
        -9.454739797413025
      ],
      [
        "遅れて",
        -9.45474027119854
      ],
      [
        "納得",
        -9.45474258172675
      ],
      [
        "するかわからない",
        -9.454742801068978
      ],
      [
        "放送",
        -9.454743144286121
      ],
      [
        "があって、",
        -9.454746298821856
      ],
      [
        "調べ",
        -9.454749269782734
      ],
      [
        "」や「",
        -9.454749544643187
      ],
      [
        "直前に",
        -9.454750136191132
      ],
      [
        "文章",
        -9.454752018423225
      ],
      [
        "他者と",
        -9.454753618046126
      ],
      [
        "込ま",
        -9.454754558602904
      ],
      [
        "想像",
        -9.454755471039608
      ],
      [
        "予想",
        -9.454755882247792
      ],
      [
        "、こちらのサイト",
        -9.454757703007571
      ],
      [
        "の小さな",
        -9.45475789170958
      ],
      [
        "傑作",
        -9.454758181572174
      ],
      [
        "ワーク",
        -9.454758936473874
      ],
      [
        "ホップ",
        -9.45475939550446
      ],
      [
        "に行かなければならない",
        -9.454762990097729
      ],
      [
        "が感じられ",
        -9.45476338327449
      ],
      [
        "性格",
        -9.454763958311938
      ],
      [
        "出荷",
        -9.454764635222869
      ],
      [
        "初代",
        -9.45476471142357
      ],
      [
        "2011年",
        -9.45476593756588
      ],
      [
        "チョク",
        -9.45476697665232
      ],
      [
        "的にみて",
        -9.45476974447523
      ],
      [
        "neに",
        -9.454772483407915
      ],
      [
        "機関",
        -9.45477456150698
      ],
      [
        "携帯電話",
        -9.454774875091395
      ],
      [
        "プリント",
        -9.454775713162055
      ],
      [
        "リメイク",
        -9.454776149036919
      ],
      [
        "スポン",
        -9.454777077880173
      ],
      [
        "気温",
        -9.454780615608115
      ],
      [
        "、どうしても",
        -9.454781365169765
      ],
      [
        "、日本政府と",
        -9.454782745206401
      ],
      [
        "本音",
        -9.45478510704891
      ],
      [
        "言語",
        -9.45478607294088
      ],
      [
        "当初",
        -9.45478957735495
      ],
      [
        "切断",
        -9.454791203011705
      ],
      [
        "今作で",
        -9.454792557838001
      ],
      [
        "狂気",
        -9.454799346695644
      ],
      [
        "現時点で",
        -9.454799432549823
      ],
      [
        "の名前",
        -9.454800861360175
      ],
      [
        "チベ",
        -9.454801798850365
      ],
      [
        "生徒",
        -9.454803262991144
      ],
      [
        "に取り入れて",
        -9.454803302558096
      ],
      [
        "つらい",
        -9.454804511432272
      ],
      [
        "ランチ",
        -9.454806903512697
      ],
      [
        "意味内容",
        -9.454807738254283
      ],
      [
        "安易",
        -9.454809174983806
      ],
      [
        "楽しめる",
        -9.454810972955453
      ],
      [
        "タイム",
        -9.454816390011171
      ],
      [
        "に潜む",
        -9.45481902654094
      ],
      [
        "ケースが多",
        -9.454821320798416
      ],
      [
        "「人命",
        -9.45482317527583
      ],
      [
        "ップ",
        -9.45482354671668
      ],
      [
        "理想",
        -9.45482501510839
      ],
      [
        "前作『6』で",
        -9.454826465367601
      ],
      [
        "拡大",
        -9.454827469206588
      ],
      [
        "大人向け",
        -9.45482902450327
      ],
      [
        "▁なぜ",
        -9.454830860869833
      ],
      [
        "言うなら、",
        -9.454831850466034
      ],
      [
        "不明",
        -9.454841449530477
      ],
      [
        "アップロード",
        -9.45484517548102
      ],
      [
        "実績",
        -9.454846111633355
      ],
      [
        "無しに",
        -9.454851121889984
      ],
      [
        "ることになる",
        -9.45485304204642
      ],
      [
        "移動",
        -9.454853816485537
      ],
      [
        "住んでいる",
        -9.454859922528122
      ],
      [
        "残念",
        -9.454860549326476
      ],
      [
        "整理",
        -9.45486217451733
      ],
      [
        "oo",
        -9.454864197703534
      ],
      [
        "生き残",
        -9.454865227923328
      ],
      [
        "性能",
        -9.454866842971873
      ],
      [
        "中継",
        -9.45486685748523
      ],
      [
        "二十代",
        -9.454868330046432
      ],
      [
        "大切にし",
        -9.454868909947015
      ],
      [
        "正直",
        -9.454870454423721
      ],
      [
        "独立",
        -9.454876196946937
      ],
      [
        "2階",
        -9.454876894358168
      ],
      [
        "評価を受け",
        -9.454878279473231
      ],
      [
        "2枚",
        -9.454879726675369
      ],
      [
        "務め",
        -9.454880121138457
      ],
      [
        "小説",
        -9.454886611847375
      ],
      [
        "廃止",
        -9.454888460243371
      ],
      [
        "」というメッセージ",
        -9.454895616087896
      ],
      [
        "場合が多い",
        -9.454898648116847
      ],
      [
        "まともに",
        -9.454899062866055
      ],
      [
        "部屋があり、",
        -9.45489967256424
      ],
      [
        "動画",
        -9.454904776299252
      ],
      [
        "知らぬ",
        -9.454904898252522
      ],
      [
        "買ってもらえないと",
        -9.45490623702395
      ],
      [
        "推理",
        -9.454915799361139
      ],
      [
        "やはり",
        -9.454915917341879
      ],
      [
        "機能",
        -9.45491654824567
      ],
      [
        "クソ",
        -9.454918414058424
      ],
      [
        "毎日",
        -9.454918673139199
      ],
      [
        "を迎えた",
        -9.454921718349418
      ],
      [
        "を回してい",
        -9.454922402395455
      ],
      [
        "怖いもの",
        -9.454923921697052
      ],
      [
        "▁この3つの",
        -9.454928481584684
      ],
      [
        "ことが可能",
        -9.454928951513839
      ],
      [
        "電子",
        -9.454929730316367
      ],
      [
        "タオル",
        -9.454934999616647
      ],
      [
        "判事",
        -9.4549379189228
      ],
      [
        "みたいなもの",
        -9.454940463628253
      ],
      [
        "つながって",
        -9.454948251133429
      ],
      [
        "鈴木さん",
        -9.45495051866479
      ],
      [
        "、銀時として",
        -9.454952990136848
      ],
      [
        "仕組み",
        -9.45495501473231
      ],
      [
        "8月2",
        -9.454959661278004
      ],
      [
        "を読む",
        -9.454967275969162
      ],
      [
        "▁しかしながら、",
        -9.454970423214089
      ],
      [
        "レコー",
        -9.45497726328392
      ],
      [
        "」の文字",
        -9.454978262567614
      ],
      [
        "破壊",
        -9.454987350308908
      ],
      [
        "世間",
        -9.454988251373758
      ],
      [
        "ライブ",
        -9.45499205706306
      ],
      [
        "戦術",
        -9.4549928452629
      ],
      [
        "わたり、",
        -9.454993054146197
      ],
      [
        "『アンブレラコア』",
        -9.455002572474916
      ],
      [
        "危険性",
        -9.45501805420389
      ],
      [
        "見ているか",
        -9.455032182558696
      ],
      [
        "1年程",
        -9.45503507654331
      ],
      [
        "わかったので",
        -9.455038715650845
      ],
      [
        "不十分",
        -9.455039468111496
      ],
      [
        "なのですから、",
        -9.45505736603933
      ],
      [
        "できます",
        -9.455081233832724
      ],
      [
        "を突き",
        -9.45508434394425
      ],
      [
        "口にする",
        -9.455093679867684
      ],
      [
        "がやってくる",
        -9.455107848157423
      ],
      [
        "くらいまでの",
        -9.455111382739151
      ],
      [
        "ム」に",
        -9.455127806275646
      ],
      [
        "細部",
        -9.455128959731896
      ],
      [
        "形成",
        -9.455133277269246
      ],
      [
        "経過",
        -9.455139420414255
      ],
      [
        "きます。この",
        -9.455145363357127
      ],
      [
        "出来なかった",
        -9.455148473998932
      ],
      [
        "っぽいもの",
        -9.455148513742339
      ],
      [
        "展開",
        -9.455149368150764
      ],
      [
        "上記の",
        -9.455150741885653
      ],
      [
        "意見",
        -9.455153198296381
      ],
      [
        "ダメ",
        -9.455155060667105
      ],
      [
        "バラ",
        -9.455157749830112
      ],
      [
        "ブログとか",
        -9.455157751821893
      ],
      [
        "全然",
        -9.455159032521301
      ],
      [
        "上のほう",
        -9.455159304841544
      ],
      [
        "として使用する",
        -9.455160509647861
      ],
      [
        "過ち",
        -9.455161121936507
      ],
      [
        "高難易度",
        -9.455161486867835
      ],
      [
        "長期",
        -9.4551667232389
      ],
      [
        "だと言う",
        -9.455173607723633
      ],
      [
        "」と記",
        -9.45517373917663
      ],
      [
        "丸め",
        -9.455176492261709
      ],
      [
        "当たり前",
        -9.455177569365546
      ],
      [
        "聴いてい",
        -9.455177639911014
      ],
      [
        "中央",
        -9.455196361615583
      ],
      [
        "まだまだ",
        -9.455197323155048
      ],
      [
        "これらの",
        -9.455210185558592
      ],
      [
        "認め",
        -9.455224783351396
      ],
      [
        "つための",
        -9.455235005050968
      ],
      [
        "進行してい",
        -9.4552515018931
      ],
      [
        "か言",
        -9.45526806533828
      ],
      [
        "監視",
        -9.455271711764114
      ],
      [
        "建て",
        -9.45527357020123
      ],
      [
        "昼食",
        -9.455280941928521
      ],
      [
        "、その事実を",
        -9.455281661831444
      ],
      [
        "配信",
        -9.455285454809307
      ],
      [
        "相性",
        -9.4552927058912
      ],
      [
        "回復",
        -9.455296724651681
      ],
      [
        "EN",
        -9.455300782210475
      ],
      [
        "立場の",
        -9.455301593060005
      ],
      [
        "そうだったので、",
        -9.45530394907664
      ],
      [
        "泊まり",
        -9.45531642869208
      ],
      [
        "入手可能とな",
        -9.455318172604537
      ],
      [
        "ステ",
        -9.455323198304487
      ],
      [
        "かと問われ",
        -9.455329953188055
      ],
      [
        "ほい",
        -9.45533293774593
      ],
      [
        "異なる",
        -9.455334178348643
      ],
      [
        "自分たち",
        -9.45534621758718
      ],
      [
        "すことなく",
        -9.455351536303427
      ],
      [
        "バイオハザード7",
        -9.455358795677641
      ],
      [
        "有益",
        -9.455373712318186
      ],
      [
        "空調",
        -9.455378598577719
      ],
      [
        "お金を",
        -9.4553819588753
      ],
      [
        "作られた",
        -9.455387997445138
      ],
      [
        "ホール",
        -9.455398315018407
      ],
      [
        "つつも、",
        -9.455401865831208
      ],
      [
        "読書",
        -9.455405453140406
      ],
      [
        "食感が",
        -9.455421533594361
      ],
      [
        "反対",
        -9.455428147347192
      ],
      [
        "に位置する",
        -9.4554325475839
      ],
      [
        "置き",
        -9.455434988261699
      ],
      [
        "ねば",
        -9.455439954746467
      ],
      [
        "二人が",
        -9.455441790088708
      ],
      [
        "作家",
        -9.455450659237037
      ],
      [
        "、一生",
        -9.455462902433894
      ],
      [
        "立ち読み",
        -9.455465973617516
      ],
      [
        "証",
        -9.455465991343079
      ],
      [
        "それほどまでに",
        -9.45547459098845
      ],
      [
        "撃を与え",
        -9.455475333326163
      ],
      [
        "コイン",
        -9.455475994174066
      ],
      [
        "男性",
        -9.455496338185037
      ],
      [
        "そしてそれらの",
        -9.455498840553112
      ],
      [
        "文学",
        -9.455500470524647
      ],
      [
        "1人で",
        -9.455502589630289
      ],
      [
        "9日",
        -9.455503102716882
      ],
      [
        "ミニ",
        -9.455504125634556
      ],
      [
        "武器",
        -9.4555053944247
      ],
      [
        "自分自身の",
        -9.455520901561975
      ],
      [
        "なのではないか、という",
        -9.455528597508174
      ],
      [
        "3月11日以",
        -9.455536601986422
      ],
      [
        "見つけ",
        -9.455538902671364
      ],
      [
        "動かしてい",
        -9.455539570152737
      ],
      [
        "が必要とされる",
        -9.455555666064756
      ],
      [
        "ということになる。",
        -9.455561753238268
      ],
      [
        "リザ",
        -9.455574124558046
      ],
      [
        "の戦略と",
        -9.455587032683145
      ],
      [
        "関わっていた",
        -9.455602878711574
      ],
      [
        "られるの",
        -9.4556303970024
      ],
      [
        "市場",
        -9.455653697945893
      ],
      [
        "一楽",
        -9.455715322361577
      ],
      [
        "押しや",
        -9.455716016450328
      ],
      [
        "ることができた",
        -9.455721710699612
      ],
      [
        "まぁ",
        -9.455727852922207
      ],
      [
        "会議",
        -9.455736697959727
      ],
      [
        "なのだから、",
        -9.455741284750015
      ],
      [
        "発信",
        -9.455754748120183
      ],
      [
        "クリス",
        -9.455758466132577
      ],
      [
        "国会",
        -9.455761025259866
      ],
      [
        "店まで",
        -9.455761423423855
      ],
      [
        "VI",
        -9.45576218209414
      ],
      [
        "となれ",
        -9.455765650401638
      ],
      [
        "何でしょう",
        -9.455768243759216
      ],
      [
        "動物",
        -9.45578388254561
      ],
      [
        "こういう感覚",
        -9.455820042955711
      ],
      [
        "危険度",
        -9.455822713560366
      ],
      [
        "ックス",
        -9.455823220040159
      ],
      [
        "取り出",
        -9.455830865018033
      ],
      [
        "超え",
        -9.455858462052717
      ],
      [
        "したが、それでも",
        -9.455860889656169
      ],
      [
        "目標",
        -9.455863960187889
      ],
      [
        "時折",
        -9.455878831686295
      ],
      [
        "発表された",
        -9.455883325700952
      ],
      [
        "▁最後に、",
        -9.455885448140167
      ],
      [
        "機会",
        -9.455892441893386
      ],
      [
        "土地",
        -9.455910015442207
      ],
      [
        "CN",
        -9.455916828134399
      ],
      [
        "今週",
        -9.45593123917228
      ],
      [
        "87",
        -9.455937670679585
      ],
      [
        "誰か",
        -9.455946538588158
      ],
      [
        "払い",
        -9.455948318411725
      ],
      [
        "したところ、",
        -9.455952923471534
      ],
      [
        "2005年",
        -9.45596390685517
      ],
      [
        "けど、",
        -9.455977425082917
      ],
      [
        "ジオ",
        -9.455982106324042
      ],
      [
        "しゃ",
        -9.455984349464382
      ],
      [
        "を遂げて",
        -9.455987101312168
      ],
      [
        "試し",
        -9.455987131538453
      ],
      [
        "は、すなわち",
        -9.45599834717797
      ],
      [
        "とされる。",
        -9.455999392485623
      ],
      [
        "根本",
        -9.456003065312258
      ],
      [
        "モード",
        -9.456003736062536
      ],
      [
        "関心",
        -9.456014106422417
      ],
      [
        "(もしかしたら、",
        -9.456049987584812
      ],
      [
        "7]。",
        -9.456068238220757
      ],
      [
        "る事は",
        -9.456075481267968
      ],
      [
        "もう一つは、",
        -9.456111711529829
      ],
      [
        "ことを考え",
        -9.456116983270523
      ],
      [
        "ベスト",
        -9.45612079383538
      ],
      [
        "ざるを得ない",
        -9.456120977425575
      ],
      [
        "学部",
        -9.456123792905029
      ],
      [
        "当たり",
        -9.456133368440998
      ],
      [
        "ーロ",
        -9.456135463311677
      ],
      [
        "だったのだと",
        -9.4561445484438
      ],
      [
        "ついている",
        -9.45614515948383
      ],
      [
        "するかもしれませんが...",
        -9.45615317697102
      ],
      [
        "今更",
        -9.456166085215447
      ],
      [
        "ラー",
        -9.4561968906534
      ],
      [
        "ミス",
        -9.456207394793601
      ],
      [
        "37",
        -9.456222838035162
      ],
      [
        "入っており、",
        -9.456250288679195
      ],
      [
        "ご覧",
        -9.45626248566418
      ],
      [
        "めば",
        -9.456277093272949
      ],
      [
        "を過ご",
        -9.456279252340645
      ],
      [
        "ぐる",
        -9.45631935128151
      ],
      [
        "が、そもそも",
        -9.456350726635895
      ],
      [
        "語られる",
        -9.456402200772395
      ],
      [
        "ございま",
        -9.456409536895155
      ],
      [
        "不安になる",
        -9.45643879137507
      ],
      [
        "すれば良い",
        -9.456439160616835
      ],
      [
        "なく銀時",
        -9.456462610791704
      ],
      [
        "売り",
        -9.456468748116292
      ],
      [
        "によると、",
        -9.456498698479761
      ],
      [
        "上げるべき",
        -9.456519983710779
      ],
      [
        "マー",
        -9.456520936645736
      ],
      [
        "周り",
        -9.456534518468601
      ],
      [
        "かもしれませんけれどね",
        -9.4565346669486
      ],
      [
        "分くらい",
        -9.456537133718442
      ],
      [
        "ルタ",
        -9.456556609172495
      ],
      [
        "好きではない",
        -9.4565671228831
      ],
      [
        "も高く",
        -9.456585443292536
      ],
      [
        "他人に",
        -9.456587563713345
      ],
      [
        "目的",
        -9.456644882175691
      ],
      [
        "こともなく",
        -9.456666016502956
      ],
      [
        "で支払い",
        -9.4566816664344
      ],
      [
        "目下",
        -9.456682562518964
      ],
      [
        "するほどの",
        -9.456691958839558
      ],
      [
        "当時",
        -9.456693607486681
      ],
      [
        "年代",
        -9.456728880533591
      ],
      [
        "年8",
        -9.456730558541036
      ],
      [
        "能力",
        -9.45678463725788
      ],
      [
        "キー",
        -9.456794919926836
      ],
      [
        "途中で",
        -9.456804403212654
      ],
      [
        "、両",
        -9.45681619234015
      ],
      [
        "ちゃいました",
        -9.456838811897438
      ],
      [
        "この事件",
        -9.456861015965245
      ],
      [
        "SD",
        -9.456875208609343
      ],
      [
        "味わ",
        -9.456903993154565
      ],
      [
        "デュ",
        -9.45691479457135
      ],
      [
        "本場",
        -9.456929290311058
      ],
      [
        "を探",
        -9.456945448732169
      ],
      [
        "ることが",
        -9.456949379113858
      ],
      [
        "ージ",
        -9.456952428038989
      ],
      [
        "ガン",
        -9.45696494503059
      ],
      [
        "早く",
        -9.457020347833124
      ],
      [
        "借りて",
        -9.45704359014566
      ],
      [
        "手に入る",
        -9.457051477423676
      ],
      [
        "ペースで",
        -9.457093163153662
      ],
      [
        "たことがある。",
        -9.45711413940029
      ],
      [
        "を食べてい",
        -9.457169862765642
      ],
      [
        "単位で",
        -9.457193451231086
      ],
      [
        "「世界」",
        -9.457194023292441
      ],
      [
        "も頻繁に",
        -9.457201478950486
      ],
      [
        "この頃で",
        -9.457221848938016
      ],
      [
        "を一新した",
        -9.45726317399135
      ],
      [
        "リラ",
        -9.457263657040208
      ],
      [
        "、日本という国の",
        -9.457298856142662
      ],
      [
        "引き",
        -9.457314535667003
      ],
      [
        "の反応を",
        -9.457315288983995
      ],
      [
        "て、大",
        -9.457352566054192
      ],
      [
        "イーサンは",
        -9.457357421057905
      ],
      [
        "と思いますし、",
        -9.457391440179052
      ],
      [
        "して返済",
        -9.457400529215466
      ],
      [
        "「置き換え",
        -9.45740091046075
      ],
      [
        "食べられる",
        -9.457447612475583
      ],
      [
        "いいのか",
        -9.457467642455539
      ],
      [
        "ーツが",
        -9.457506349389096
      ],
      [
        "お店",
        -9.45755299180283
      ],
      [
        "が増えている",
        -9.457573607312547
      ],
      [
        "歴史性",
        -9.45758451801397
      ],
      [
        "そんな感じで",
        -9.457590388870454
      ],
      [
        "変なもの",
        -9.457596612125409
      ],
      [
        "使わなく",
        -9.457613637924899
      ],
      [
        "「永遠」の",
        -9.457629259387486
      ],
      [
        "銃器や",
        -9.457638388889679
      ],
      [
        "帰り",
        -9.457665189310124
      ],
      [
        "もとても",
        -9.457666898064096
      ],
      [
        "設置",
        -9.457707212436699
      ],
      [
        "で発売",
        -9.45773818438964
      ],
      [
        "度数",
        -9.45774967578927
      ],
      [
        "付けられ",
        -9.457813784426563
      ],
      [
        "でしょうが、",
        -9.457864806233724
      ],
      [
        "電話や",
        -9.457877376197182
      ],
      [
        "で使用",
        -9.457880920789302
      ],
      [
        "は、すでに",
        -9.457890585688979
      ],
      [
        "高いので、",
        -9.457893387662287
      ],
      [
        "こうした",
        -9.457896870990018
      ],
      [
        "りますよね。",
        -9.457935705719954
      ],
      [
        "から受け",
        -9.457935720268036
      ],
      [
        "続く",
        -9.457950284654101
      ],
      [
        "出発し",
        -9.45798669623356
      ],
      [
        "「最長40年」と",
        -9.458005803809087
      ],
      [
        "最新",
        -9.458060865014406
      ],
      [
        "置いてい",
        -9.458061630776777
      ],
      [
        "に及んで",
        -9.45807399663923
      ],
      [
        "をはじめ",
        -9.458099387782413
      ],
      [
        "ない人、",
        -9.458113915634362
      ],
      [
        "▁昔は",
        -9.458127735288786
      ],
      [
        "に任",
        -9.458141381141218
      ],
      [
        "真実",
        -9.458156960428985
      ],
      [
        "きた、この",
        -9.458197075986924
      ],
      [
        "ようなこと",
        -9.458220763581547
      ],
      [
        "十年も",
        -9.458222353384997
      ],
      [
        "せる事で",
        -9.458242487013266
      ],
      [
        "▁さて、",
        -9.458368089789143
      ],
      [
        "持っている人",
        -9.458368701908984
      ],
      [
        "いない人",
        -9.458372304490519
      ],
      [
        "を重ね",
        -9.45837337018591
      ],
      [
        "からぬ",
        -9.458463614314077
      ],
      [
        "反日",
        -9.45851172370825
      ],
      [
        "17",
        -9.45851428510347
      ],
      [
        "不要で、",
        -9.45852083751189
      ],
      [
        "施工を",
        -9.458534758264374
      ],
      [
        "がトップ",
        -9.458577994106282
      ],
      [
        "、少しでも",
        -9.458587319300328
      ],
      [
        "嫌い",
        -9.458587347464036
      ],
      [
        "せれば",
        -9.458656524391145
      ],
      [
        "者たちが",
        -9.458677603887324
      ],
      [
        "を掛け",
        -9.458686518758192
      ],
      [
        "連動している",
        -9.458739557139243
      ],
      [
        "た場所",
        -9.458759915655802
      ],
      [
        "ばかりか、",
        -9.458815782608456
      ],
      [
        "アイ",
        -9.45882488012114
      ],
      [
        "変化し",
        -9.458836067415541
      ],
      [
        "弁護士・司法書士に相談",
        -9.45888292784391
      ],
      [
        "それなり",
        -9.458892925826795
      ],
      [
        "完全な",
        -9.458910691642663
      ],
      [
        "丁寧に",
        -9.458962210033217
      ],
      [
        "リアルに",
        -9.458962386932306
      ],
      [
        "最初から",
        -9.458971306427829
      ],
      [
        "上手",
        -9.459018794370069
      ],
      [
        "りをつけ",
        -9.459032066804312
      ],
      [
        "らしい。",
        -9.459035522838684
      ],
      [
        "外観",
        -9.459040344497328
      ],
      [
        "為に",
        -9.459057985914589
      ],
      [
        "に触れる",
        -9.45908212625032
      ],
      [
        "ようとすると",
        -9.459158136226216
      ],
      [
        "c.",
        -9.459167802247041
      ],
      [
        "と思いますが、",
        -9.45918660590095
      ],
      [
        "やっている",
        -9.459300567354646
      ],
      [
        "地上",
        -9.45933858996671
      ],
      [
        "「演じる」ということは",
        -9.459346618844513
      ],
      [
        "痛い",
        -9.459363127698328
      ],
      [
        "民主",
        -9.459367623308363
      ],
      [
        "、ついに",
        -9.459383577425212
      ],
      [
        "日々",
        -9.459441108782386
      ],
      [
        "考えているか",
        -9.459447691503101
      ],
      [
        "なるほど",
        -9.45946671861344
      ],
      [
        "くなったと",
        -9.459486080035594
      ],
      [
        "▁もっとも、",
        -9.459520488518248
      ],
      [
        "苦し",
        -9.45953663799226
      ],
      [
        "ルーカス",
        -9.45953954251585
      ],
      [
        "で、汚",
        -9.45957385313523
      ],
      [
        "生き方",
        -9.459608814317198
      ],
      [
        "発生",
        -9.459677423181947
      ],
      [
        "図に",
        -9.459679076027296
      ],
      [
        "31",
        -9.459720549220847
      ],
      [
        "の外見",
        -9.459748950061265
      ],
      [
        "これだけの",
        -9.459755384523334
      ],
      [
        "存在した",
        -9.45980392982888
      ],
      [
        "絶対に",
        -9.45980562360193
      ],
      [
        "・ホテル",
        -9.459808914042037
      ],
      [
        "わからない。",
        -9.459868548775848
      ],
      [
        "を起動",
        -9.459885387750989
      ],
      [
        "こちらから",
        -9.459922747883732
      ],
      [
        "で報道しない",
        -9.459948533036313
      ],
      [
        "を保護",
        -9.459981421870824
      ],
      [
        "積から",
        -9.460001776521047
      ],
      [
        "の外国",
        -9.460007723761612
      ],
      [
        "の暮らし",
        -9.46002604938288
      ],
      [
        "』など",
        -9.460026746001857
      ],
      [
        "き散らされ",
        -9.460042866329088
      ],
      [
        "は、全く",
        -9.460049024890866
      ],
      [
        "終了。",
        -9.46008865400351
      ],
      [
        "入り",
        -9.460097556333464
      ],
      [
        "世界的に",
        -9.460198065195211
      ],
      [
        "分かっている。",
        -9.460237413847263
      ],
      [
        "タイトルで",
        -9.460245827930068
      ],
      [
        "屋で",
        -9.460375559896452
      ],
      [
        "判断で",
        -9.460381262015247
      ],
      [
        "であるような",
        -9.460384663781625
      ],
      [
        "デザインの",
        -9.460439614592056
      ],
      [
        "に、売却",
        -9.460440866450696
      ],
      [
        "向いて",
        -9.460491983695311
      ],
      [
        "の不動産",
        -9.460540851880477
      ],
      [
        "絵本",
        -9.460578604896094
      ],
      [
        "面白い",
        -9.46071596874658
      ],
      [
        "4時間",
        -9.460741160817623
      ],
      [
        "回想",
        -9.460836243426929
      ],
      [
        "どうせ",
        -9.460926041913702
      ],
      [
        "に対して「",
        -9.460947925172878
      ],
      [
        "、まだ",
        -9.46096232042293
      ],
      [
        "(第",
        -9.4609803482089
      ],
      [
        "のスイーツ",
        -9.460986722852795
      ],
      [
        "利用でき",
        -9.460988373559644
      ],
      [
        "だと思うのですが",
        -9.460995199813262
      ],
      [
        "、産経新聞は",
        -9.461188926897947
      ],
      [
        "ると...",
        -9.461204329405032
      ],
      [
        "後方",
        -9.461256809738694
      ],
      [
        "ですが",
        -9.461426141848046
      ],
      [
        "んでしま",
        -9.4614763193564
      ],
      [
        "なかったが、",
        -9.461554690588649
      ],
      [
        "実害",
        -9.461581097817318
      ],
      [
        "幸いで",
        -9.461590504843821
      ],
      [
        "なんだけど",
        -9.46159716441123
      ],
      [
        "は...「苦",
        -9.461623695891317
      ],
      [
        "だ」と",
        -9.461639776671252
      ],
      [
        "で一番",
        -9.461665780134771
      ],
      [
        "ドリ",
        -9.461705272755648
      ],
      [
        "んでいた",
        -9.46175672779021
      ],
      [
        "次いで",
        -9.461783254038568
      ],
      [
        "▁40年とは",
        -9.46179258409203
      ],
      [
        "した姿",
        -9.461796552883182
      ],
      [
        "14日",
        -9.461809046126973
      ],
      [
        "を加え",
        -9.461810127757312
      ],
      [
        "何でも",
        -9.46189612792892
      ],
      [
        "使ってみる",
        -9.461932425550561
      ],
      [
        "が一般",
        -9.461935831897765
      ],
      [
        "弾薬の",
        -9.461987374283797
      ],
      [
        "こちらは",
        -9.462012486475007
      ],
      [
        "したい",
        -9.462067374439282
      ],
      [
        "は悪化",
        -9.46215507694211
      ],
      [
        "38",
        -9.462156786900541
      ],
      [
        "被害を受け",
        -9.462196249982906
      ],
      [
        "大人",
        -9.462291039091179
      ],
      [
        "、こんな重大な",
        -9.462453713393478
      ],
      [
        "、私にとって",
        -9.462459301214944
      ],
      [
        "以下に",
        -9.462526646768783
      ],
      [
        "うまくい",
        -9.462551419636586
      ],
      [
        "気付いた",
        -9.462598598181629
      ],
      [
        "が行われ",
        -9.462615988752965
      ],
      [
        "イーサンに",
        -9.46261694656373
      ],
      [
        "他の",
        -9.462667383207105
      ],
      [
        "の片隅",
        -9.462790283905221
      ],
      [
        "に上が",
        -9.462821404429738
      ],
      [
        "の根",
        -9.46283888468334
      ],
      [
        "自身が、",
        -9.462865958755302
      ],
      [
        "、もはや",
        -9.462866109672667
      ],
      [
        "値段は",
        -9.46290257394535
      ],
      [
        "人の",
        -9.462914885738233
      ],
      [
        "低下",
        -9.462940026928829
      ],
      [
        "なのだろう。",
        -9.462955100730312
      ],
      [
        "、本来、",
        -9.463034929771911
      ],
      [
        "当た",
        -9.463230193336607
      ],
      [
        "インド",
        -9.463269085130001
      ],
      [
        "を求め",
        -9.463358677523834
      ],
      [
        "は主に",
        -9.463370997925582
      ],
      [
        "知れない",
        -9.463417972954472
      ],
      [
        "としたところで",
        -9.463473363814456
      ],
      [
        "状況に対して",
        -9.463513097788747
      ],
      [
        "一定",
        -9.463533257463581
      ],
      [
        "に貼",
        -9.46364763253801
      ],
      [
        "13",
        -9.463654569102236
      ],
      [
        "登録して",
        -9.46366910859611
      ],
      [
        "が飲んでも",
        -9.463669722251296
      ],
      [
        "(バイオハザード",
        -9.463670441732884
      ],
      [
        "ーション",
        -9.463830695414472
      ],
      [
        "は死",
        -9.463891050004772
      ],
      [
        "が、最近",
        -9.463905082197794
      ],
      [
        "せん。",
        -9.463977010005637
      ],
      [
        "なくて、",
        -9.464066570378536
      ],
      [
        "に戻",
        -9.464143449457016
      ],
      [
        "しまっている",
        -9.464178007218202
      ],
      [
        "の人びと",
        -9.464364692188601
      ],
      [
        "人数",
        -9.464389826110466
      ],
      [
        "こともできるようになっ",
        -9.464406655373267
      ],
      [
        "言い",
        -9.464510471489833
      ],
      [
        "生まれたと",
        -9.464524108623186
      ],
      [
        "がほしい",
        -9.464634432858404
      ],
      [
        "夜な",
        -9.464668081955661
      ],
      [
        "言を",
        -9.464688243277383
      ],
      [
        "の状態となって",
        -9.464755659978817
      ],
      [
        "が、非常に",
        -9.464768701301782
      ],
      [
        "ているように感じま",
        -9.46478925321227
      ],
      [
        "使えな",
        -9.464843526727549
      ],
      [
        "だったら",
        -9.464998736542444
      ],
      [
        "、もしくは",
        -9.465032016546163
      ],
      [
        "の電話番号に",
        -9.465254801315439
      ],
      [
        "がこのような",
        -9.465290352982318
      ],
      [
        "歌が",
        -9.465410779363598
      ],
      [
        "た様子が",
        -9.46557724895882
      ],
      [
        "拒否され",
        -9.46557745307464
      ],
      [
        "幅広",
        -9.465673875813774
      ],
      [
        "気持ちが",
        -9.465689714308274
      ],
      [
        "を送",
        -9.465693240608182
      ],
      [
        "なぁ。",
        -9.465797618053708
      ],
      [
        "をここで",
        -9.465873609422763
      ],
      [
        "▁むしろ、",
        -9.466025672383575
      ],
      [
        "の定",
        -9.466076057110822
      ],
      [
        "本人",
        -9.46615786659454
      ],
      [
        "どうしようもない",
        -9.466173916006563
      ],
      [
        "ホテルで",
        -9.466196124690892
      ],
      [
        "るのだろうか。",
        -9.466269690219946
      ],
      [
        "ものではなく、",
        -9.466324463557658
      ],
      [
        "場所ではありま",
        -9.466345315400975
      ],
      [
        "といった言葉",
        -9.466521955199951
      ],
      [
        "びた",
        -9.466538556336545
      ],
      [
        "地区",
        -9.466585797875572
      ],
      [
        "ったのかは",
        -9.466604604675172
      ],
      [
        "中の",
        -9.466624635223518
      ],
      [
        "の誕生",
        -9.466652172501329
      ],
      [
        "を開",
        -9.466731865463787
      ],
      [
        "いかないと",
        -9.466802909413987
      ],
      [
        "という状態",
        -9.466809299442291
      ],
      [
        "だ。[",
        -9.466838024921872
      ],
      [
        "しっかりと",
        -9.466846453839226
      ],
      [
        "やかに",
        -9.466887144098292
      ],
      [
        "人も",
        -9.46689458013518
      ],
      [
        "も一",
        -9.466944758431465
      ],
      [
        "の怒りは",
        -9.466990727852302
      ],
      [
        "っています。",
        -9.467016528794314
      ],
      [
        "映画を",
        -9.467087479839707
      ],
      [
        "抜いて",
        -9.467159939831308
      ],
      [
        "押す",
        -9.467164064344507
      ],
      [
        "かも。",
        -9.467261920240311
      ],
      [
        "の風味が",
        -9.467273794150351
      ],
      [
        "が生まれ",
        -9.467319588300334
      ],
      [
        "でさえ",
        -9.467324692518917
      ],
      [
        "以前から",
        -9.467344671196102
      ],
      [
        "ようになる",
        -9.4673641894825
      ],
      [
        "効果を",
        -9.467527776507529
      ],
      [
        "10月2日の",
        -9.467707511364953
      ],
      [
        "見ても、",
        -9.467891948725825
      ],
      [
        "にならない",
        -9.467965437389042
      ],
      [
        "をやっている",
        -9.468021790462272
      ],
      [
        "出し",
        -9.468126460869524
      ],
      [
        "ファン",
        -9.468163272016584
      ],
      [
        "てしまっていました",
        -9.46823120416194
      ],
      [
        "一般的な",
        -9.468324528473472
      ],
      [
        "出る",
        -9.468572558655897
      ],
      [
        "わか",
        -9.468746525214984
      ],
      [
        "のメディアが",
        -9.468788173284315
      ],
      [
        "ん)は",
        -9.468953762463261
      ],
      [
        "チャレンジ",
        -9.468983340994145
      ],
      [
        "公開され",
        -9.469135941893608
      ],
      [
        "程度の",
        -9.469160342353529
      ],
      [
        "割り",
        -9.46920834927395
      ],
      [
        "のおうちを",
        -9.469325959596262
      ],
      [
        "の最高",
        -9.469540792349514
      ],
      [
        "最高の",
        -9.469543931397421
      ],
      [
        "髪を",
        -9.469585786127306
      ],
      [
        "を確認",
        -9.469605080228202
      ],
      [
        "を行う",
        -9.46969661370519
      ],
      [
        "、お酒を飲",
        -9.469833968954532
      ],
      [
        "、中国政府",
        -9.47000048086429
      ],
      [
        "議員の",
        -9.470099061379017
      ],
      [
        "をた",
        -9.470119322191282
      ],
      [
        "が書かれてい",
        -9.470360035789309
      ],
      [
        "の脱",
        -9.47037000147158
      ],
      [
        "わけがない",
        -9.47041654420581
      ],
      [
        "生きていく",
        -9.47049810867749
      ],
      [
        "たのですが",
        -9.47052297646931
      ],
      [
        "の事件",
        -9.470538431892537
      ],
      [
        "で見",
        -9.470995490520359
      ],
      [
        "ことはできる",
        -9.47104924510165
      ],
      [
        "たん",
        -9.471065678254712
      ],
      [
        "▁鈴木先生",
        -9.47111261218201
      ],
      [
        ")め",
        -9.471150869502491
      ],
      [
        "入っているよう",
        -9.471360364455773
      ],
      [
        "に満ち",
        -9.471374401220373
      ],
      [
        "を買う",
        -9.471529393264046
      ],
      [
        "にほかな",
        -9.471542284638168
      ],
      [
        "お願いした",
        -9.471576353693072
      ],
      [
        "通り",
        -9.47175146108515
      ],
      [
[...]
