{
  "version": "1.0",
  "truncation": null,
  "padding": null,
  "added_tokens": [
    {
      "id": 0,
      "content": "[UNK]",
      "single_word": false,
      "lstrip": false,
      "rstrip": false,
      "normalized": false,
      "special": true
    },
    {
      "id": 1,
      "content": "[CLS]",
      "single_word": false,
      "lstrip": false,
      "rstrip": false,
      "normalized": false,
      "special": true
    },
    {
      "id": 2,
      "content": "[SEP]",
      "single_word": false,
      "lstrip": false,
      "rstrip": false,
      "normalized": false,
      "special": true
    },
    {
      "id": 3,
      "content": "[PAD]",
      "single_word": false,
      "lstrip": false,
      "rstrip": false,
      "normalized": false,
      "special": true
    },
    {
      "id": 4,
      "content": "[MASK]",
      "single_word": false,
      "lstrip": false,
      "rstrip": false,
      "normalized": false,
      "special": true
    }
  ],
  "normalizer": {
    "type": "Sequence",
    "normalizers": [
      {
        "type": "Nmt"
      },
      {
        "type": "NFKC"
      },
      {
        "type": "Replace",
        "pattern": {
          "Regex": " {2,}"
        },
        "content": " "
      }
    ]
  },
  "pre_tokenizer": {
    "type": "Metaspace",
    "replacement": "▁",
    "prepend_scheme": "always",
    "split": true
  },
  "post_processor": null,
  "decoder": {
    "type": "Metaspace",
    "replacement": "▁",
    "prepend_scheme": "always",
    "split": true
  },
  "model": {
    "type": "Unigram",
    "unk_id": 0,
    "vocab": [
      [
        "[UNK]",
        0.0
      ],
      [
        "[CLS]",
        0.0
      ],
      [
        "[SEP]",
        0.0
      ],
      [
        "[PAD]",
        0.0
      ],
      [
        "[MASK]",
        0.0
      ],
      [
        "▁",
        -2.5339874906725814
      ],
      [
        "の",
        -3.7574508274408025
      ],
      [
        "、",
        -4.124661839344828
      ],
      [
        "が",
        -4.433740598737415
      ],
      [
        "を",
        -4.485492448146731
      ],
      [
        "は",
        -4.5225061809241165
      ],
      [
        "に",
        -4.549325904898179
      ],
      [
        "で",
        -4.870792601862178
      ],
      [
        "。",
        -4.951133566545611
      ],
      [
        "と",
        -5.033944392390456
      ],
      [
        "も",
        -5.205545463245967
      ],
      [
        "「",
        -5.456435935886459
      ],
      [
        "や",
        -5.5649811914026905
      ],
      [
        "は、",
        -5.62344137507448
      ],
      [
        "から",
        -5.718062452905762
      ],
      [
        "(",
        -5.842499838378982
      ],
      [
        "」",
        -5.869242310486623
      ],
      [
        "です。",
        -5.893353747661374
      ],
      [
        ")",
        -6.066203441381754
      ],
      [
        "な",
        -6.15223386013127
      ],
      [
        "・",
        -6.171411080008424
      ],
      [
        "る",
        -6.240484129389122
      ],
      [
        "する",
        -6.287286021042701
      ],
      [
        "た",
        -6.367783275368401
      ],
      [
        "して",
        -6.421591485475849
      ],
      [
        "した",
        -6.521041329471405
      ],
      [
        "て",
        -6.529435259726713
      ],
      [
        "という",
        -6.541715587768657
      ],
      [
        "には",
        -6.582454315876802
      ],
      [
        "その",
        -6.614941424455901
      ],
      [
        "か",
        -6.6239873212395874
      ],
      [
        "で、",
        -6.6776348822773155
      ],
      [
        "ます。",
        -6.694143940140934
      ],
      [
        "し",
        -6.715496339047145
      ],
      [
        "この",
        -6.73259332647448
      ],
      [
        "が、",
        -6.776976142654136
      ],
      [
        "い",
        -6.81453442769482
      ],
      [
        "でも",
        -6.817993825402626
      ],
      [
        "し、",
        -6.826178391188767
      ],
      [
        "人",
        -6.851241620835645
      ],
      [
        "こと",
        -6.861294239384036
      ],
      [
        "って",
        -6.880164628376748
      ],
      [
        "...",
        -6.891461403431148
      ],
      [
        "!",
        -6.908895229390839
      ],
      [
        "▁「",
        -6.91324910606966
      ],
      [
        "ので、",
        -6.915228495477045
      ],
      [
        "など",
        -6.919371366276363
      ],
      [
        "として",
        -6.946342977881693
      ],
      [
        ",",
        -6.946669504568296
      ],
      [
        "ました。",
        -6.985747207877877
      ],
      [
        "お",
        -7.020549602925534
      ],
      [
        "では",
        -7.03021014174781
      ],
      [
        "り",
        -7.046951976849976
      ],
      [
        "している",
        -7.062529967392378
      ],
      [
        "まで",
        -7.111988881321187
      ],
      [
        "ない",
        -7.167288790386638
      ],
      [
        "と、",
        -7.2121203423901115
      ],
      [
        "ですが、",
        -7.225455302538543
      ],
      [
        "にも",
        -7.244473660638573
      ],
      [
        "ら",
        -7.286717966484829
      ],
      [
        "く",
        -7.288192160594794
      ],
      [
        "」と",
        -7.3058205581342275
      ],
      [
        "1",
        -7.321042982213931
      ],
      [
        "より",
        -7.346462882181491
      ],
      [
        "事",
        -7.347463924610055
      ],
      [
        "もの",
        -7.353596658042892
      ],
      [
        "・・・",
        -7.361358198956297
      ],
      [
        "である",
        -7.363643926458098
      ],
      [
        "2",
        -7.389640609739468
      ],
      [
        "された",
        -7.403106525242283
      ],
      [
        "ている",
        -7.429220407181531
      ],
      [
        "『",
        -7.443697835164027
      ],
      [
        "自分の",
        -7.466611099127159
      ],
      [
        "大",
        -7.471941375667103
      ],
      [
        "について",
        -7.481201256452272
      ],
      [
        "▁この",
        -7.491981013977197
      ],
      [
        "がある",
        -7.492548970900371
      ],
      [
        "できる",
        -7.497092384125114
      ],
      [
        "3",
        -7.498646941985412
      ],
      [
        "さ",
        -7.500313280425367
      ],
      [
        "では、",
        -7.513870076333848
      ],
      [
        "のです。",
        -7.544227552574479
      ],
      [
        "される",
        -7.560402327212137
      ],
      [
        "いる",
        -7.568898768727411
      ],
      [
        "になる",
        -7.583429510784344
      ],
      [
        "』",
        -7.585648051672957
      ],
      [
        "ような",
        -7.589996071620472
      ],
      [
        "だった",
        -7.590279948842598
      ],
      [
        "します。",
        -7.590989896067529
      ],
      [
        "」という",
        -7.604033328306274
      ],
      [
        "でした。",
        -7.604174729433263
      ],
      [
        "ので",
        -7.618908942513587
      ],
      [
        "き",
        -7.627920662512833
      ],
      [
        "ある",
        -7.6362679066222405
      ],
      [
        "て、",
        -7.63977898269274
      ],
      [
        "への",
        -7.640052104917073
      ],
      [
        "だけ",
        -7.641099033866313
      ],
      [
        "いた",
        -7.645991518158145
      ],
      [
        "も、",
        -7.646021389563357
      ],
      [
        "す",
        -7.647627838594807
      ],
      [
        "見",
        -7.651928964017769
      ],
      [
        "いい",
        -7.657407799149009
      ],
      [
        "本",
        -7.658288863248532
      ],
      [
        "と思います。",
        -7.675433413946682
      ],
      [
        "~",
        -7.682728473305255
      ],
      [
        "一",
        -7.686081569757952
      ],
      [
        ":",
        -7.687803641885241
      ],
      [
        "▁また、",
        -7.690418665724781
      ],
      [
        "方",
        -7.7145847889353885
      ],
      [
        "へ",
        -7.715895749231584
      ],
      [
        "だ",
        -7.723954535049684
      ],
      [
        "そう",
        -7.734335050878817
      ],
      [
        "なら",
        -7.735862620518053
      ],
      [
        "しています。",
        -7.737302428291195
      ],
      [
        "でしょう。",
        -7.740121583743877
      ],
      [
        "的な",
        -7.747381316305184
      ],
      [
        "った",
        -7.747589272685907
      ],
      [
        "である。",
        -7.7490531173096
      ],
      [
        "良い",
        -7.75820670739734
      ],
      [
        "ように",
        -7.758871369255018
      ],
      [
        "ています。",
        -7.764476725192941
      ],
      [
        "話",
        -7.765555390029105
      ],
      [
        "日",
        -7.771021519789068
      ],
      [
        "う",
        -7.771494003483732
      ],
      [
        "ご",
        -7.773304565235537
      ],
      [
        "問題",
        -7.782171520726031
      ],
      [
        "5",
        -7.793911543056784
      ],
      [
        "ー",
        -7.795716559471205
      ],
      [
        "み",
        -7.80817055122299
      ],
      [
        "から、",
        -7.815236933595965
      ],
      [
        "日本",
        -7.823743021811713
      ],
      [
        "?",
        -7.836740406132434
      ],
      [
        "います。",
        -7.839052018865996
      ],
      [
        "4",
        -7.842113653199256
      ],
      [
        "また",
        -7.8524816377857
      ],
      [
        "などの",
        -7.854379057530747
      ],
      [
        "のですが、",
        -7.854984020622702
      ],
      [
        "ことを",
        -7.856417406685943
      ],
      [
        "があります。",
        -7.857993315107832
      ],
      [
        "時間",
        -7.861373976682801
      ],
      [
        "中",
        -7.863220659204937
      ],
      [
        "ことが",
        -7.864414976269697
      ],
      [
        "ス",
        -7.864780627509714
      ],
      [
        "物",
        -7.872260727762535
      ],
      [
        "それ",
        -7.873086211758326
      ],
      [
        "によって",
        -7.874238455726491
      ],
      [
        "には、",
        -7.875709343922462
      ],
      [
        "しました。",
        -7.8797657703342505
      ],
      [
        "た。",
        -7.883643487574031
      ],
      [
        "よう",
        -7.890263600332516
      ],
      [
        "情報",
        -7.906648785487354
      ],
      [
        "だ。",
        -7.908139603691537
      ],
      [
        "”",
        -7.916737690099328
      ],
      [
        "者",
        -7.9193381772858435
      ],
      [
        "とても",
        -7.9211860564625605
      ],
      [
        "前",
        -7.927982571566302
      ],
      [
        "年",
        -7.943447377717996
      ],
      [
        "による",
        -7.944038748557529
      ],
      [
        "して、",
        -7.953205098691896
      ],
      [
        "私は",
        -7.95591978875527
      ],
      [
        "よく",
        -7.959142297685077
      ],
      [
        "ん",
        -7.960742510625502
      ],
      [
        "ため、",
        -7.967073607313308
      ],
      [
        "だと",
        -7.977723690376805
      ],
      [
        "なので、",
        -7.982790342363531
      ],
      [
        "上",
        -7.983343649108964
      ],
      [
        "力",
        -7.988539295986831
      ],
      [
        "/",
        -7.988650492805679
      ],
      [
        "ですね。",
        -7.992452626982717
      ],
      [
        "されている",
        -8.001560809833196
      ],
      [
        "手",
        -8.004135418243933
      ],
      [
        "気",
        -8.009326465851089
      ],
      [
        "時",
        -8.009934060927531
      ],
      [
        "国",
        -8.018200794482743
      ],
      [
        "、その",
        -8.018430576938997
      ],
      [
        "わ",
        -8.01997865670652
      ],
      [
        "6",
        -8.032844798696365
      ],
      [
        "でも、",
        -8.043421747098527
      ],
      [
        "こ",
        -8.044122173462704
      ],
      [
        "ほど",
        -8.051401904182704
      ],
      [
        "たい",
        -8.05229112359423
      ],
      [
        "考え",
        -8.055627764337714
      ],
      [
        "会",
        -8.056868635893329
      ],
      [
        "何",
        -8.05866567345582
      ],
      [
        "め",
        -8.060802116006743
      ],
      [
        "のは",
        -8.065180202192604
      ],
      [
        "のは、",
        -8.074262032086072
      ],
      [
        "目",
        -8.074285048246956
      ],
      [
        "他の",
        -8.079400800506571
      ],
      [
        "サービス",
        -8.080273545565902
      ],
      [
        "性",
        -8.08083431491815
      ],
      [
        "的",
        -8.08136412469878
      ],
      [
        "▁しかし、",
        -8.08501051458778
      ],
      [
        "人が",
        -8.086279467605674
      ],
      [
        "仕事",
        -8.086692469127147
      ],
      [
        "さん",
        -8.08810809056896
      ],
      [
        "私の",
        -8.090043770214137
      ],
      [
        "出",
        -8.094347456509277
      ],
      [
        "した。",
        -8.10021071067758
      ],
      [
        "なかった",
        -8.102784272485863
      ],
      [
        "は「",
        -8.10475462108309
      ],
      [
        "方法",
        -8.105747916280418
      ],
      [
        "大きな",
        -8.106013856238352
      ],
      [
        "とか",
        -8.115977980918947
      ],
      [
        "何か",
        -8.123423350926053
      ],
      [
        "、「",
        -8.127130218661271
      ],
      [
        "ま",
        -8.12847991844715
      ],
      [
        "同じ",
        -8.12855871780259
      ],
      [
        "今",
        -8.132994939301803
      ],
      [
        "分",
        -8.133859382424589
      ],
      [
        "後",
        -8.141096392238595
      ],
      [
        "7",
        -8.150897614275923
      ],
      [
        "ことは",
        -8.158413078474315
      ],
      [
        "先",
        -8.163347362971429
      ],
      [
        "少し",
        -8.166454511525568
      ],
      [
        "商品",
        -8.169155750890617
      ],
      [
        "本当に",
        -8.169418902649344
      ],
      [
        "っている",
        -8.170244435750583
      ],
      [
        "家",
        -8.174261992127487
      ],
      [
        "になった",
        -8.179664540093803
      ],
      [
        "ではない",
        -8.189073709855517
      ],
      [
        "法",
        -8.190550480350925
      ],
      [
        "していた",
        -8.191076130945614
      ],
      [
        "下",
        -8.191768287946363
      ],
      [
        "また、",
        -8.191890328449187
      ],
      [
        "思い",
        -8.201730530239827
      ],
      [
        "しか",
        -8.202874591089198
      ],
      [
        "子",
        -8.206987627699394
      ],
      [
        "それは",
        -8.210975941189568
      ],
      [
        "なら、",
        -8.214585372185269
      ],
      [
        "にある",
        -8.214776972505822
      ],
      [
        "自分が",
        -8.215633862539612
      ],
      [
        "」の",
        -8.216417083782027
      ],
      [
        ".",
        -8.221101252729511
      ],
      [
        "になります。",
        -8.222163238330637
      ],
      [
        "けど、",
        -8.223715226268023
      ],
      [
        "心",
        -8.2267648928199
      ],
      [
        "できない",
        -8.237855368527276
      ],
      [
        "私",
        -8.239266731954306
      ],
      [
        "ル",
        -8.239783404574126
      ],
      [
        "り、",
        -8.240605413566474
      ],
      [
        "ところ",
        -8.24143127590789
      ],
      [
        "んだ",
        -8.241788548336945
      ],
      [
        "ク",
        -8.24361870450083
      ],
      [
        "人は",
        -8.24709340865379
      ],
      [
        "であり、",
        -8.248464282844424
      ],
      [
        "すること",
        -8.25108276033124
      ],
      [
        "高",
        -8.25188648853536
      ],
      [
        "あ",
        -8.252697861999856
      ],
      [
        "リ",
        -8.252779374129558
      ],
      [
        "場所",
        -8.252882403970503
      ],
      [
        "くらい",
        -8.253116136401855
      ],
      [
        "前に",
        -8.25410321289386
      ],
      [
        "水",
        -8.254163426928027
      ],
      [
        "に、",
        -8.260022565139455
      ],
      [
        "活動",
        -8.263727719628985
      ],
      [
        "▁※",
        -8.266546470426754
      ],
      [
        "様々な",
        -8.267647842853174
      ],
      [
        "女性",
        -8.268158061695669
      ],
      [
        "8",
        -8.273066978207979
      ],
      [
        "数",
        -8.274031014820526
      ],
      [
        "のか",
        -8.27570110591234
      ],
      [
        "だった。",
        -8.277075011610968
      ],
      [
        "人の",
        -8.277540431434566
      ],
      [
        "生",
        -8.279064017559515
      ],
      [
        "会社",
        -8.28341000687607
      ],
      [
        "-",
        -8.283910078939648
      ],
      [
        "これ",
        -8.286130018843814
      ],
      [
        "ますが、",
        -8.287278968164188
      ],
      [
        "る。",
        -8.287766448794123
      ],
      [
        "人間",
        -8.289311092926203
      ],
      [
        "したい",
        -8.29766250984606
      ],
      [
        "地",
        -8.30068320203118
      ],
      [
        "ください。",
        -8.301284410497745
      ],
      [
        "サイト",
        -8.305755328814339
      ],
      [
        "それを",
        -8.30714952617313
      ],
      [
        "私が",
        -8.312170259644452
      ],
      [
        "▁その",
        -8.312268776876131
      ],
      [
        "ね。",
        -8.312700297733048
      ],
      [
        "新しい",
        -8.31284605429067
      ],
      [
        "とは",
        -8.316219452497666
      ],
      [
        "以上",
        -8.31768492150516
      ],
      [
        "多くの",
        -8.323425304982457
      ],
      [
        "点",
        -8.325476900508148
      ],
      [
        "的に",
        -8.328275035826223
      ],
      [
        "等",
        -8.32925292153779
      ],
      [
        "10",
        -8.330663168290897
      ],
      [
        "っ",
        -8.333790876527011
      ],
      [
        "利用",
        -8.339044274451341
      ],
      [
        "環境",
        -8.339126415648655
      ],
      [
        "関係",
        -8.34091980578767
      ],
      [
        "確認",
        -8.343888764397425
      ],
      [
        "よりも",
        -8.344610683222918
      ],
      [
        "場合",
        -8.344793750589929
      ],
      [
        "金",
        -8.346108546809807
      ],
      [
        "状況",
        -8.34898869464202
      ],
      [
        "自分",
        -8.355491706006811
      ],
      [
        "され",
        -8.356671206293703
      ],
      [
        "ア",
        -8.358941626759787
      ],
      [
        "になって",
        -8.360655516000588
      ],
      [
        "ていた",
        -8.362778954088522
      ],
      [
        "もう",
        -8.368318339269743
      ],
      [
        "生活",
        -8.369138388240376
      ],
      [
        "となる",
        -8.371635080188486
      ],
      [
        "一番",
        -8.374663859148635
      ],
      [
        "をする",
        -8.379234415503262
      ],
      [
        "え",
        -8.380912729317426
      ],
      [
        "れ",
        -8.38099561662207
      ],
      [
        "よ",
        -8.381956422590719
      ],
      [
        "s",
        -8.383104836745899
      ],
      [
        "場合は、",
        -8.383791757457445
      ],
      [
        "どう",
        -8.385059291874763
      ],
      [
        "ゲーム",
        -8.385931438582144
      ],
      [
        "のような",
        -8.391606936421228
      ],
      [
        "ド",
        -8.392000216044917
      ],
      [
        "ながら",
        -8.392989990598023
      ],
      [
        "作品",
        -8.394985346627601
      ],
      [
        "時に",
        -8.39647108526884
      ],
      [
        "山",
        -8.396626701639505
      ],
      [
        "▁そして、",
        -8.400466331697935
      ],
      [
        "A",
        -8.402962736131393
      ],
      [
        "機能",
        -8.404275551621037
      ],
      [
        "特に",
        -8.408411539964755
      ],
      [
        "まだ",
        -8.408808597783917
      ],
      [
        "あまり",
        -8.41315786724418
      ],
      [
        "これは",
        -8.414043780915076
      ],
      [
        "日本の",
        -8.414152928647262
      ],
      [
        "社会",
        -8.414419770631348
      ],
      [
        "どんな",
        -8.415951765400065
      ],
      [
        "もっと",
        -8.417938224665024
      ],
      [
        "があり、",
        -8.420067949201865
      ],
      [
        "感じ",
        -8.42050027809376
      ],
      [
        "かもしれません。",
        -8.422362826938507
      ],
      [
        "そんな",
        -8.423944724721338
      ],
      [
        "イ",
        -8.427018276903704
      ],
      [
        "メール",
        -8.427108152234268
      ],
      [
        "名",
        -8.427124830222175
      ],
      [
        "なんて",
        -8.427645288470409
      ],
      [
        "ちょっと",
        -8.429666920830131
      ],
      [
        "ため",
        -8.431494924917718
      ],
      [
        "など、",
        -8.432481369709812
      ],
      [
        "そうです。",
        -8.434435174838304
      ],
      [
        "」を",
        -8.436398037963858
      ],
      [
        "いました。",
        -8.436860732566775
      ],
      [
        "日本人",
        -8.437131105878677
      ],
      [
        "なので",
        -8.438563026810403
      ],
      [
        "それが",
        -8.44240465272808
      ],
      [
        "所",
        -8.443745982291322
      ],
      [
        "市",
        -8.443857817683291
      ],
      [
        "状態",
        -8.444690292193314
      ],
      [
        "ること",
        -8.446175861160711
      ],
      [
        "実際に",
        -8.447267813728756
      ],
      [
        "相談",
        -8.448704888753873
      ],
      [
        "だと思います。",
        -8.451014933787235
      ],
      [
        "戦",
        -8.453956566411659
      ],
      [
        "写真",
        -8.457326995260447
      ],
      [
        "場",
        -8.464378262845473
      ],
      [
        "られる",
        -8.464679340742483
      ],
      [
        "と言う",
        -8.465400696553916
      ],
      [
        "です",
        -8.466460735192342
      ],
      [
        "回",
        -8.46663221492616
      ],
      [
        "方が",
        -8.467051010562312
      ],
      [
        "すぐに",
        -8.469942729343968
      ],
      [
        "たら",
        -8.4708728290571
      ],
      [
        "新",
        -8.470932339544802
      ],
      [
        "〜",
        -8.471455935639117
      ],
      [
        "元",
        -8.472247652160696
      ],
      [
        "世界",
        -8.473815290390494
      ],
      [
        "のある",
        -8.47577143209945
      ],
      [
        "度",
        -8.481391149061032
      ],
      [
        "毎日",
        -8.483611496991655
      ],
      [
        "用",
        -8.484715164695668
      ],
      [
        "月",
        -8.48483587280549
      ],
      [
        "いつも",
        -8.485965744384607
      ],
      [
        "必要",
        -8.489542145400112
      ],
      [
        "のように",
        -8.490240346829331
      ],
      [
        "小",
        -8.492952276231271
      ],
      [
        "不",
        -8.495981765110326
      ],
      [
        "説明",
        -8.496179063874395
      ],
      [
        "と思う",
        -8.4967887706737
      ],
      [
        "S",
        -8.501107894270104
      ],
      [
        "だから",
        -8.502008659151894
      ],
      [
        "場合、",
        -8.50207288977248
      ],
      [
        "車",
        -8.502515659657577
      ],
      [
        "ト",
        -8.503336886686228
      ],
      [
        "よ。",
        -8.503551551121914
      ],
      [
        "内容",
        -8.50778056745424
      ],
      [
        "ということ",
        -8.508207038548566
      ],
      [
        "店",
        -8.508350640763158
      ],
      [
        "せ",
        -8.508678382748297
      ],
      [
        "長",
        -8.511652231895136
      ],
      [
        "感",
        -8.514408503315464
      ],
      [
        "勉強",
        -8.514417510803115
      ],
      [
        "経験",
        -8.51483848150453
      ],
      [
        "があった",
        -8.516600015160751
      ],
      [
        "化",
        -8.518070980877985
      ],
      [
        "効果",
        -8.518342097556795
      ],
      [
        "色",
        -8.519821619163515
      ],
      [
        "調査",
        -8.52144144704912
      ],
      [
        "体",
        -8.523447855489207
      ],
      [
        "ものです。",
        -8.525884609526944
      ],
      [
        "しない",
        -8.527311517130297
      ],
      [
        "やはり",
        -8.528407091170937
      ],
      [
        "ません。",
        -8.530012152889402
      ],
      [
        "ではなく、",
        -8.533197193077577
      ],
      [
        "コ",
        -8.534796366475366
      ],
      [
        "▁_",
        -8.537118268745749
      ],
      [
        "、そして",
        -8.537340269051679
      ],
      [
        "れば",
        -8.540409751432103
      ],
      [
        "に関する",
        -8.54254741761427
      ],
      [
        "ために",
        -8.545787597287738
      ],
      [
        "というのは",
        -8.546014042643332
      ],
      [
        "や、",
        -8.54711839606265
      ],
      [
        "む",
        -8.548602554329605
      ],
      [
        "」「",
        -8.548606059982061
      ],
      [
        "登録",
        -8.550238125556149
      ],
      [
        "ましょう。",
        -8.552942320064794
      ],
      [
        "、この",
        -8.554980574516952
      ],
      [
        "間",
        -8.555598937039335
      ],
      [
        "9",
        -8.555658394235104
      ],
      [
        "食べ",
        -8.556052680008198
      ],
      [
        "いて",
        -8.557155028175803
      ],
      [
        "使用",
        -8.557802160899518
      ],
      [
        "足",
        -8.56429718294545
      ],
      [
        "ば",
        -8.567632092767884
      ],
      [
        "内",
        -8.567654456996715
      ],
      [
        "行動",
        -8.567973764978227
      ],
      [
        "ずっと",
        -8.572041910857761
      ],
      [
        "面",
        -8.577035975648833
      ],
      [
        "B",
        -8.57917009017859
      ],
      [
        "(笑)",
        -8.582432013181315
      ],
      [
        "のために",
        -8.583645049322637
      ],
      [
        "イベント",
        -8.58467157409163
      ],
      [
        "技術",
        -8.588278344481576
      ],
      [
        "▁○",
        -8.588361932970976
      ],
      [
        "ポイント",
        -8.58864319217438
      ],
      [
        "“",
        -8.589527134366621
      ],
      [
        "かなり",
        -8.589821029406629
      ],
      [
        "だけで",
        -8.590084815358217
      ],
      [
        "意味",
        -8.593417537603482
      ],
      [
        "自分で",
        -8.594462611726742
      ],
      [
        "を見",
        -8.5944651651305
      ],
      [
        "カ",
        -8.59481671386774
      ],
      [
        "対応",
        -8.595394647133308
      ],
      [
        "C",
        -8.595771249948495
      ],
      [
        "行",
        -8.59659452641711
      ],
      [
        "映画",
        -8.596995328603537
      ],
      [
        "つ",
        -8.597237742674434
      ],
      [
        "ようです。",
        -8.597606663890001
      ],
      [
        "ている。",
        -8.59954432128946
      ],
      [
        "システム",
        -8.599676707893778
      ],
      [
        "ず",
        -8.600052714967585
      ],
      [
        "の中で",
        -8.60057867325877
      ],
      [
        "道",
        -8.602130141389468
      ],
      [
        "!!",
        -8.604810645489417
      ],
      [
        "▁私は",
        -8.60495489575996
      ],
      [
        "からの",
        -8.605097117862039
      ],
      [
        "ラ",
        -8.606380175818682
      ],
      [
        "を使って",
        -8.606935868290234
      ],
      [
        "ましたが、",
        -8.60721666084586
      ],
      [
        "20",
        -8.608418537712012
      ],
      [
        "家族",
        -8.6106360896237
      ],
      [
        "理解",
        -8.610689129451924
      ],
      [
        "てしまう",
        -8.611345253950429
      ],
      [
        "書",
        -8.611952150415377
      ],
      [
        "すると",
        -8.612511557535356
      ],
      [
        "三",
        -8.614464084031926
      ],
      [
        "に対して",
        -8.615099313498462
      ],
      [
        "簡単に",
        -8.61559716780345
      ],
      [
        "▁そして",
        -8.619029390776078
      ],
      [
        "け",
        -8.619771413894949
      ],
      [
        "されています。",
        -8.619780634491462
      ],
      [
        "というのは、",
        -8.622618098651426
      ],
      [
        "といった",
        -8.623009000297031
      ],
      [
        "お店",
        -8.624249803533344
      ],
      [
        "設定",
        -8.624531299189668
      ],
      [
        "だろう。",
        -8.625405018313351
      ],
      [
        "もある",
        -8.625469362436059
      ],
      [
        "同",
        -8.625835820923996
      ],
      [
        "結婚",
        -8.631630351524368
      ],
      [
        "んです。",
        -8.636100821299621
      ],
      [
        "データ",
        -8.63940304274491
      ],
      [
        "結果",
        -8.639937476658503
      ],
      [
        "理由",
        -8.640695405906431
      ],
      [
        "々",
        -8.641425965557598
      ],
      [
        "として、",
        -8.64168571153095
      ],
      [
        "ただ",
        -8.641828024883484
      ],
      [
        "させる",
        -8.641830553685217
      ],
      [
        "経済",
        -8.642463344680557
      ],
      [
        "外",
        -8.645364727346603
      ],
      [
        "いない",
        -8.64701295489673
      ],
      [
        "言葉",
        -8.647211955423089
      ],
      [
        "初めて",
        -8.648110950019664
      ],
      [
        "M",
        -8.649328497700104
      ],
      [
        "男性",
        -8.653347837167537
      ],
      [
        "購入",
        -8.65608593935685
      ],
      [
        "ばかり",
        -8.65652793800805
      ],
      [
        "不安",
        -8.657848954954458
      ],
      [
        "ると",
        -8.658140813381753
      ],
      [
        "の方が",
        -8.659666920942122
      ],
      [
        "部分",
        -8.66262348272686
      ],
      [
        "参加",
        -8.6664182937838
      ],
      [
        "なかなか",
        -8.66844182353924
      ],
      [
        "」が",
        -8.672088240871094
      ],
      [
        "今まで",
        -8.673075590326913
      ],
      [
        "来",
        -8.674055649388393
      ],
      [
        "もし",
        -8.674375701076137
      ],
      [
        "語",
        -8.675062667867781
      ],
      [
        "ます",
        -8.676572300373689
      ],
      [
        "ことで",
        -8.67712933757343
      ],
      [
        "がない",
        -8.677433647154453
      ],
      [
        "量",
        -8.679165464505092
      ],
      [
        "管理",
        -8.679349864217164
      ],
      [
        "一度",
        -8.67999281573275
      ],
      [
        "条件",
        -8.68024487754716
      ],
      [
        "を見て",
        -8.681595602338787
      ],
      [
        "すると、",
        -8.681988027023218
      ],
      [
        "られた",
        -8.684142324891841
      ],
      [
        "P",
        -8.684878230816851
      ],
      [
        "をして",
        -8.685271841953234
      ],
      [
        "ロ",
        -8.686042956449207
      ],
      [
        "できます。",
        -8.68948229881606
      ],
      [
        "取り",
        -8.689552243376117
      ],
      [
        "▁ただ、",
        -8.690508586105544
      ],
      [
        "時代",
        -8.693420101131201
      ],
      [
        "か、",
        -8.69474448260721
      ],
      [
        "一緒に",
        -8.695053234387702
      ],
      [
        "すれば",
        -8.695742867349818
      ],
      [
        "形",
        -8.696738283209834
      ],
      [
        "予定",
        -8.701085090087041
      ],
      [
        "高い",
        -8.70138674239195
      ],
      [
        "からです。",
        -8.702742094366888
      ],
      [
        "の方",
        -8.707948648644704
      ],
      [
        "地域",
        -8.708933936740367
      ],
      [
        "i",
        -8.709064954714142
      ],
      [
        "されて",
        -8.710430862733691
      ],
      [
        "の「",
        -8.71057822410301
      ],
      [
        "無",
        -8.71087397904013
      ],
      [
        "】",
        -8.712486141926004
      ],
      [
        "により",
        -8.712688008713712
      ],
      [
        "D",
        -8.71301225240605
      ],
      [
        "契約",
        -8.716222975455501
      ],
      [
        "企業",
        -8.716560427119486
      ],
      [
        "・・・。",
        -8.722149182964316
      ],
      [
        "さらに",
        -8.722382299753274
      ],
      [
        "などで",
        -8.723275616432627
      ],
      [
        "そうな",
        -8.723814476976386
      ],
      [
        "o",
        -8.727111932850743
      ],
      [
        "各",
        -8.727578175397491
      ],
      [
        "ネット",
        -8.72810373634969
      ],
      [
        "ました",
        -8.729592657866679
      ],
      [
        "親",
        -8.732090247382793
      ],
      [
        "気持ち",
        -8.732718990394869
      ],
      [
        "そ",
        -8.734557873490449
      ],
      [
        "m",
        -8.738724996345844
      ],
      [
        "を持つ",
        -8.742685924304906
      ],
      [
        "たり、",
        -8.743722479657094
      ],
      [
        "タ",
        -8.743961179649252
      ],
      [
        "可能性",
        -8.744004197191291
      ],
      [
        "ページ",
        -8.745379090359709
      ],
      [
        "口",
        -8.74579612231683
      ],
      [
        "する。",
        -8.747473478708105
      ],
      [
        "部",
        -8.747681604338734
      ],
      [
        "記事",
        -8.748537030596868
      ],
      [
        "カード",
        -8.748713418196001
      ],
      [
        "を行う",
        -8.749047936981668
      ],
      [
        "代",
        -8.751352278435185
      ],
      [
        "が多い",
        -8.753400035827106
      ],
      [
        "無料",
        -8.754683414981159
      ],
      [
        "のだ。",
        -8.75797470865518
      ],
      [
        "マ",
        -8.759945647483303
      ],
      [
        "発",
        -8.76282824353094
      ],
      [
        "場合は",
        -8.762936091642876
      ],
      [
        "このような",
        -8.76331201462476
      ],
      [
        "治療",
        -8.767398845435615
      ],
      [
        "予約",
        -8.77034146144561
      ],
      [
        "レ",
        -8.770391230871198
      ],
      [
        "でしたが、",
        -8.770489970912251
      ],
      [
        ")の",
        -8.77058182775974
      ],
      [
        "している。",
        -8.770906366625635
      ],
      [
        "心配",
        -8.771894766722605
      ],
      [
        "運動",
        -8.774331367520318
      ],
      [
        "神",
        -8.774711668276698
      ],
      [
        "なく",
        -8.77640692300942
      ],
      [
        "ぜひ",
        -8.779686076763802
      ],
      [
        "大学",
        -8.780653948188386
      ],
      [
        "子供",
        -8.7808460226491
      ],
      [
        "って、",
        -8.782612742465385
      ],
      [
        "ン",
        -8.782670354071922
      ],
      [
        "シ",
        -8.783255237809055
      ],
      [
        "夢",
        -8.784270661399681
      ],
      [
        "に対する",
        -8.78432660660477
      ],
      [
        "になっている",
        -8.787348732157154
      ],
      [
        "a",
        -8.788556845211339
      ],
      [
        "しかし、",
        -8.788765531192691
      ],
      [
        "▁また",
        -8.789123755596103
      ],
      [
        "研究",
        -8.79012480450611
      ],
      [
        "紹介",
        -8.79030320077313
      ],
      [
        "大変",
        -8.791120237874807
      ],
      [
        "です!",
        -8.791507099642692
      ],
      [
        "存在",
        -8.792043087783625
      ],
      [
        "とも",
        -8.792325945946853
      ],
      [
        "こんな",
        -8.792670133111603
      ],
      [
        "女",
        -8.793785756679473
      ],
      [
        "会員",
        -8.79391753579375
      ],
      [
        "電話",
        -8.794844148377306
      ],
      [
        "チ",
        -8.797477529353877
      ],
      [
        "体験",
        -8.799326117103519
      ],
      [
        "ですから、",
        -8.800356484170683
      ],
      [
        "事を",
        -8.80117178528855
      ],
      [
        "料理",
        -8.801461421263362
      ],
      [
        "ね",
        -8.802090081165183
      ],
      [
        "のである。",
        -8.802704036772901
      ],
      [
        "ことも",
        -8.804027957840674
      ],
      [
        "変更",
        -8.80429896924502
      ],
      [
        "あり",
        -8.805563296882987
      ],
      [
        "作業",
        -8.80587258517097
      ],
      [
        "個人",
        -8.807169815137645
      ],
      [
        "英語",
        -8.808307143513368
      ],
      [
        "をしている",
        -8.810058842688827
      ],
      [
        "0",
        -8.810330512163734
      ],
      [
        "♪",
        -8.810462614061748
      ],
      [
        "のみ",
        -8.811165114367881
      ],
      [
        "・・",
        -8.811804265515494
      ],
      [
        "キ",
        -8.812187949671458
      ],
      [
        "そういう",
        -8.814553110793124
      ],
      [
        "ことができます。",
        -8.816714428730904
      ],
      [
        "けれど、",
        -8.824305394052107
      ],
      [
        "ことで、",
        -8.82479687051804
      ],
      [
        "私も",
        -8.825137579365471
      ],
      [
        "にとって",
        -8.825817403816389
      ],
      [
        "意識",
        -8.826532467622453
      ],
      [
        "品",
        -8.826563873693507
      ],
      [
        "▁そんな",
        -8.828181566008439
      ],
      [
        "事業",
        -8.82891126970385
      ],
      [
        "町",
        -8.830448337582256
      ],
      [
        "コメント",
        -8.83064036430261
      ],
      [
        "動画",
        -8.83073438492721
      ],
      [
        "川",
        -8.832048237279214
      ],
      [
        "ことに",
        -8.834216019475443
      ],
      [
        "違い",
        -8.834742118670675
      ],
      [
        "ビジネス",
        -8.834992814954802
      ],
      [
        "イメージ",
        -8.835346151493468
      ],
      [
        "ブログ",
        -8.835653491985168
      ],
      [
        "違う",
        -8.83700543609848
      ],
      [
        "食",
        -8.837997156951282
      ],
      [
        "夜",
        -8.83913292902358
      ],
      [
        "人に",
        -8.840408664012887
      ],
      [
        "着",
        -8.841943404644384
      ],
      [
        "全く",
        -8.842083759331532
      ],
      [
        "アプリ",
        -8.842940277897565
      ],
      [
        "木",
        -8.84365144508881
      ],
      [
        "作",
        -8.844977271362126
      ],
      [
        "画像",
        -8.845705454296672
      ],
      [
        "され、",
        -8.846182931628643
      ],
      [
        "販売",
        -8.846241946846337
      ],
      [
        "通",
        -8.848353329544409
      ],
      [
        "前の",
        -8.84851649858465
      ],
      [
        "ように、",
        -8.85081245219861
      ],
      [
        "デザイン",
        -8.852291300549936
      ],
      [
        "していく",
        -8.852560886542362
      ],
      [
        "▁これは",
        -8.854547837572728
      ],
      [
        "ための",
        -8.854821251022038
      ],
      [
        "▁>",
        -8.855241127458235
      ],
      [
        "連絡",
        -8.85555436758376
      ],
      [
        "早く",
        -8.855733117022577
      ],
      [
        "てきた",
        -8.856305200082977
      ],
      [
        "ものを",
        -8.856820188503713
      ],
      [
        "後に",
        -8.857068424199948
      ],
      [
        "風",
        -8.857161401755224
      ],
      [
        "t",
        -8.858366291889372
      ],
      [
        "二",
        -8.858677923468045
      ],
      [
        "見て",
        -8.861484301596088
      ],
      [
        "身",
        -8.862299314153258
      ],
      [
        "ていく",
        -8.863710061437672
      ],
      [
        "れば、",
        -8.863875791252386
      ],
      [
        "表現",
        -8.863919183456002
      ],
      [
        "テレビ",
        -8.865063112316513
      ],
      [
        "お金",
        -8.865130064282429
      ],
      [
        "だが、",
        -8.865723920481694
      ],
      [
        "田",
        -8.867153925027319
      ],
      [
        "必ず",
        -8.867201018019806
      ],
      [
        "あります。",
        -8.870119726091499
      ],
      [
        "例",
        -8.871459940656205
      ],
      [
        "投稿",
        -8.871919671359034
      ],
      [
        "を持って",
        -8.872356555143433
      ],
      [
        "となります。",
        -8.877727730565834
      ],
      [
        "実",
        -8.880256764995814
      ],
      [
        "などを",
        -8.88205095718146
      ],
      [
        "撮影",
        -8.882554530170562
      ],
      [
        "非常に",
        -8.88321121521195
      ],
      [
        "じ",
        -8.885512206516934
      ],
      [
        "エ",
        -8.885966410277405
      ],
      [
        "機会",
        -8.887939207787554
      ],
      [
        "......",
        -8.888029801917906
      ],
      [
        "じゃない",
        -8.888839070953848
      ],
      [
        "目的",
        -8.89039654471638
      ],
      [
        "まず",
        -8.890805991229621
      ],
      [
        "ど",
        -8.891628699694525
      ],
      [
        "はない",
        -8.894469284416422
      ],
      [
        "のこと",
        -8.894880266172212
      ],
      [
        "だけでなく、",
        -8.897396028726348
      ],
      [
        "文化",
        -8.899407411634183
      ],
      [
        "西",
        -8.899841663143228
      ],
      [
        "程度",
        -8.901675666718589
      ],
      [
        "愛",
        -8.901728083716545
      ],
      [
        "業者",
        -8.9020884858028
      ],
      [
        "については、",
        -8.90245393925801
      ],
      [
        "T",
        -8.903587068712966
      ],
      [
        "主",
        -8.903914940363627
      ],
      [
        "空",
        -8.903992500956775
      ],
      [
        "▁でも、",
        -8.904472394242099
      ],
      [
        "ホテル",
        -8.906937154593386
      ],
      [
        "1日",
        -8.907504445323314
      ],
      [
        "海",
        -8.910652818167978
      ],
      [
        "男",
        -8.910872584304741
      ],
      [
        "味",
        -8.910916920614607
      ],
      [
        "あなたの",
        -8.910990200534304
      ],
      [
        "様",
        -8.911241136611862
      ],
      [
        "旅行",
        -8.913394080261675
      ],
      [
        "学校",
        -8.913823143098206
      ],
      [
        "対策",
        -8.914504651860792
      ],
      [
        "なのです。",
        -8.916080191425518
      ],
      [
        "のだが、",
        -8.916646572027178
      ],
      [
        "更新",
        -8.917043401513567
      ],
      [
        "F",
        -8.917471514046232
      ],
      [
        "質問",
        -8.918999569622216
      ],
      [
        "G",
        -8.919770117370845
      ],
      [
        "さんの",
        -8.919853109837886
      ],
      [
        "薬",
        -8.919957134564356
      ],
      [
        "評価",
        -8.921852599484238
      ],
      [
        "変化",
        -8.922438624634623
      ],
      [
        "ときに",
        -8.923197760941022
      ],
      [
        "ミ",
        -8.923729606583079
      ],
      [
        "が必要",
        -8.925599367217
      ],
      [
        "ナ",
        -8.928087251941601
      ],
      [
        "んで",
        -8.930239214469996
      ],
      [
        "こう",
        -8.930723903584209
      ],
      [
        "もあります。",
        -8.932691071747444
      ],
      [
        "E",
        -8.933163981353466
      ],
      [
        "表",
        -8.934256534896742
      ],
      [
        "ここで",
        -8.935402277403238
      ],
      [
        "音楽",
        -8.938162476311856
      ],
      [
        "のか、",
        -8.940130756557501
      ],
      [
        "ム",
        -8.940531140732752
      ],
      [
        "施設",
        -8.940750982020496
      ],
      [
        "一人",
        -8.940757481283093
      ],
      [
        "オ",
        -8.941174880439565
      ],
      [
        "やって",
        -8.942591979225671
      ],
      [
        "等の",
        -8.943087500765351
      ],
      [
        "してくれる",
        -8.945046994443711
      ],
      [
        "そこに",
        -8.945198621088991
      ],
      [
        "新着",
        -8.945741584442462
      ],
      [
        "たら、",
        -8.945854279451197
      ],
      [
        "以上の",
        -8.950917120435342
      ],
      [
        "ユーザー",
        -8.952656926815779
      ],
      [
        "処理",
        -8.954001420443634
      ],
      [
        "線",
        -8.954815646897805
      ],
      [
        "出会い",
        -8.955528218574296
      ],
      [
        "しっかり",
        -8.956226710673818
      ],
      [
        "であれば",
        -8.956939093729318
      ],
      [
        "ると、",
        -8.95838741290045
      ],
      [
        "何も",
        -8.959160381146013
      ],
      [
        "機",
        -8.960198702960108
      ],
      [
        "次の",
        -8.96076813116062
      ],
      [
        "万",
        -8.960939824010687
      ],
      [
        "てしまった",
        -8.96105049379091
      ],
      [
        "と思って",
        -8.96106000971638
      ],
      [
        "全て",
        -8.961601069151605
      ],
      [
        "ない。",
        -8.961954009516237
      ],
      [
        "版",
        -8.962201098597824
      ],
      [
        "文",
        -8.962525418111063
      ],
      [
        "したり、",
        -8.96275424695899
      ],
      [
        "側",
        -8.962955565518595
      ],
      [
        "1年",
        -8.964546905031884
      ],
      [
        "開催",
        -8.964659084372354
      ],
      [
        "▁/",
        -8.964981627165173
      ],
      [
        "事件",
        -8.965786800932587
      ],
      [
        "ことができる",
        -8.96587779748143
      ],
      [
        "だろう",
        -8.96653731035127
      ],
      [
        "なのか",
        -8.969997451688432
      ],
      [
        "東京",
        -8.9717104891488
      ],
      [
        "認識",
        -8.97210181929724
      ],
      [
        "成長",
        -8.972286476505506
      ],
      [
        "チーム",
        -8.97292017063279
      ],
      [
        "ズ",
        -8.973891455364498
      ],
      [
        "なぜ",
        -8.974253373295493
      ],
      [
        "一つ",
        -8.974508383554248
      ],
      [
        "&",
        -8.975087837169559
      ],
      [
        "お客様",
        -8.977493626551947
      ],
      [
        "期待",
        -8.977515317535612
      ],
      [
        "w",
        -8.98027827602355
      ],
      [
        "判断",
        -8.980992268393724
      ],
      [
        "ですので、",
        -8.981118417128453
      ],
      [
        "ち",
        -8.981198959918117
      ],
      [
        "パソコン",
        -8.981687908248164
      ],
      [
        ")。",
        -8.982132482173988
      ],
      [
        "いて、",
        -8.984123211499433
      ],
      [
        "インターネット",
        -8.985121004053543
      ],
      [
        "人は、",
        -8.98639686445826
      ],
      [
        "直",
        -8.986638953969763
      ],
      [
        "画面",
        -8.986946254980523
      ],
      [
        "公開",
        -8.9871226761592
      ],
      [
        "曲",
        -8.987700508552548
      ],
      [
        "フ",
        -8.98771121000236
      ],
      [
        "r",
        -8.98794513648038
      ],
      [
        "能力",
        -8.988871769754406
      ],
      [
        "社",
        -8.988946080939169
      ],
      [
        "今回は",
        -8.989225989781996
      ],
      [
        "約",
        -8.989316508734088
      ],
      [
        "れる",
        -8.990224873235078
      ],
      [
        "はありません。",
        -8.990286743769815
      ],
      [
        "投資",
        -8.991191225696213
      ],
      [
        "ですよね。",
        -8.991460072210426
      ],
      [
        "今は",
        -8.992884759087579
      ],
      [
        "素晴らしい",
        -8.993266121668913
      ],
      [
        "光",
        -8.995912357243137
      ],
      [
        "いたします。",
        -8.996015843439501
      ],
      [
        "全",
        -8.997414693997737
      ],
      [
        "K",
        -8.998743864678685
      ],
      [
        "考えて",
        -8.998872676640149
      ],
      [
        "ですが",
        -9.000134708759175
      ],
      [
        "病院",
        -9.000430775320044
      ],
      [
        "よい",
        -9.001129933815573
      ],
      [
        "▁『",
        -9.002184919425325
      ],
      [
        "時期",
        -9.002258293302933
      ],
      [
        "してしまう",
        -9.002594170000233
      ],
      [
        "言う",
        -9.00547865724932
      ],
      [
        "すでに",
        -9.005800161542409
      ],
      [
        "...。",
        -9.005887987333711
      ],
      [
        "そのまま",
        -9.006547441546273
      ],
      [
        "相手",
        -9.007521339156146
      ],
      [
        "▁さて、",
        -9.007798930986716
      ],
      [
        "または",
        -9.010435484988395
      ],
      [
        "病気",
        -9.010457477482241
      ],
      [
        "是非",
        -9.010537914024066
      ],
      [
        "19",
        -9.011248786252885
      ],
      [
        "及び",
        -9.011798540011274
      ],
      [
        "における",
        -9.01180760382152
      ],
      [
        "かどうか",
        -9.012054653535758
      ],
      [
        "訳",
        -9.012670304518906
      ],
      [
        "別の",
        -9.01346936313352
      ],
      [
        "健康",
        -9.013507495823797
      ],
      [
        "中の",
        -9.016448941262531
      ],
      [
        "アップ",
        -9.017889346698913
      ],
      [
        "ウ",
        -9.018984436792248
      ],
      [
        "とき",
        -9.019077699746374
      ],
      [
        "バ",
        -9.019285876493786
      ],
      [
        "歳",
        -9.019629388183663
      ],
      [
        "後の",
        -9.01983308595181
      ],
      [
        "と思った",
        -9.020492029822092
      ],
      [
        "流",
        -9.02063380195639
      ],
      [
        "なかった。",
        -9.020843503019512
      ],
      [
        "たり",
        -9.02122605664842
      ],
      [
        "東",
        -9.022009816228
      ],
      [
        "ことがあります。",
        -9.024647039290961
      ],
      [
        "街",
        -9.02570554278968
      ],
      [
        "資金",
        -9.026558365600204
      ],
      [
        "きっと",
        -9.027420856095839
      ],
      [
        "にて",
        -9.029111825727247
      ],
      [
        "検索",
        -9.029152093789422
      ],
      [
        "と同じ",
        -9.031707811381938
      ],
      [
        "位",
        -9.0323205707605
      ],
      [
        "駅",
        -9.032614584468135
      ],
      [
        "なんか",
        -9.032698814217435
      ],
      [
        "朝",
        -9.034916965186133
      ],
      [
        "ダイエット",
        -9.035472618940226
      ],
      [
        "e",
        -9.035617465665453
      ],
      [
        "ちゃん",
        -9.036487009496604
      ],
      [
        "中国",
        -9.037160297641828
      ],
      [
        "ぐらい",
        -9.0410187444966
      ],
      [
        "らない",
        -9.042244095472231
      ],
      [
        "ですし、",
        -9.042310075929743
      ],
      [
        "計画",
        -9.042811681576419
      ],
      [
        "していない",
        -9.042848897621212
      ],
      [
        "か?",
        -9.043398786779811
      ],
      [
        "ちゃんと",
        -9.046617293838157
      ],
      [
        "たくさんの",
        -9.052536820809634
      ],
      [
        "かもしれない",
        -9.052824925332715
      ],
      [
        "役",
        -9.05312056311459
      ],
      [
        "当然",
        -9.053732682469875
      ],
      [
        "努力",
        -9.05480213656453
      ],
      [
        "られ",
        -9.054941904571077
      ],
      [
        "については",
        -9.055638485810846
      ],
      [
        "スポーツ",
        -9.056220939324403
      ],
      [
        "犬",
        -9.056223959910898
      ],
      [
        "すれば、",
        -9.056599024146031
      ],
      [
        "付け",
        -9.057375921236517
      ],
      [
        "以下の",
        -9.058603299307828
      ],
      [
        "I",
        -9.058644428320036
      ],
      [
        "指定",
        -9.058974037404925
      ],
      [
        "楽しい",
        -9.059551892690134
      ],
      [
        "とか、",
        -9.059712029009283
      ],
      [
        "実は",
        -9.062191768624464
      ],
      [
        "下さい。",
        -9.062433197400352
      ],
      [
        "ず、",
        -9.062661381485853
      ],
      [
        "成功",
        -9.063761394606345
      ],
      [
        "しております。",
        -9.064750305446093
      ],
      [
        "ことです。",
        -9.06498748458911
      ],
      [
        "サ",
        -9.065155820680989
      ],
      [
        "なり",
        -9.066014281732691
      ],
      [
        "音",
        -9.066269914671922
      ],
      [
        "円",
        -9.067904261812526
      ],
      [
        "自",
        -9.068566510924601
      ],
      [
        "直接",
        -9.069289100969206
      ],
      [
        "型",
        -9.07012921734296
      ],
      [
        "において",
        -9.071093127294018
      ],
      [
        "悪",
        -9.071469913222513
      ],
      [
        "やっぱり",
        -9.07304379914079
      ],
      [
        "すべて",
        -9.073263490003384
      ],
      [
        "原因",
        -9.074034300981765
      ],
      [
        "さんが",
        -9.075119012101734
      ],
      [
        "重",
        -9.075385823004655
      ],
      [
        "食事",
        -9.075466051255466
      ],
      [
        "南",
        -9.076552870038459
      ],
      [
        "素敵な",
        -9.076991169780436
      ],
      [
        "ありません。",
        -9.077818095867539
      ],
      [
        "和",
        -9.078278621122289
      ],
      [
        "みたい",
        -9.07999199558093
      ],
      [
        "野",
        -9.08021965293689
      ],
      [
        "ッ",
        -9.081379698351325
      ],
      [
        "ケース",
        -9.08167325487382
      ],
      [
        "他",
        -9.082978456935606
      ],
      [
        "制度",
        -9.083990036565421
      ],
      [
        "難しい",
        -9.084187836255055
      ],
      [
        "教育",
        -9.085491717060364
      ],
      [
        "とは、",
        -9.085721727069021
      ],
      [
        "系",
        -9.086130320518247
      ],
      [
        "O",
        -9.08663700744528
      ],
      [
        "原",
        -9.086733507629017
      ],
      [
        "ために、",
        -9.087032933895731
      ],
      [
        "時の",
        -9.087134278493153
      ],
      [
        "のに、",
        -9.087760346470048
      ],
      [
        "現実",
        -9.089252376671169
      ],
      [
        "期間",
        -9.089404592764659
      ],
      [
        "台",
        -9.090914951442766
      ],
      [
        "中に",
        -9.091729201401836
      ],
      [
        "友達",
        -9.092250561955584
      ],
      [
        "パ",
        -9.092733360995318
      ],
      [
        "を持っている",
        -9.095680998130002
      ],
      [
        "結構",
        -9.095953498784862
      ],
      [
        "こちら",
        -9.097458922586505
      ],
      [
        "12",
        -9.098076603625067
      ],
      [
        "のでしょうか?",
        -9.098689292577745
      ],
      [
        "これが",
        -9.099668541512894
      ],
      [
        "言って",
        -9.100312914904967
      ],
      [
        "リー",
        -9.100937769592392
      ],
      [
        "ニュース",
        -9.101870431468527
      ],
      [
        "学習",
        -9.102884731162948
      ],
      [
        "おり、",
        -9.10293558883744
      ],
      [
        "]",
        -9.103045543257856
      ],
      [
        "好きな",
        -9.103527537582337
      ],
      [
        "ができる",
        -9.103986953718339
      ],
      [
        "彼は",
        -9.104683578749544
      ],
      [
        "きた",
        -9.105356637397495
      ],
      [
        "であれば、",
        -9.105449322319084
      ],
      [
        "ており、",
        -9.105692338985733
      ],
      [
        "15",
        -9.105779083970193
      ],
      [
        "提供",
        -9.106314251705486
      ],
      [
        "有",
        -9.106428985530211
      ],
      [
        "多く",
        -9.106710841929711
      ],
      [
        "の中に",
        -9.10697912560821
      ],
      [
        "か。",
        -9.107701297229383
      ],
      [
        "多",
        -9.109167961921099
      ],
      [
        "タイプ",
        -9.10926928229256
      ],
      [
        "しっかりと",
        -9.110114373739922
      ],
      [
        "メ",
        -9.11134833038115
      ],
      [
        "になりました。",
        -9.111688233235526
      ],
      [
        "業務",
        -9.114143647484527
      ],
      [
        "すべての",
        -9.114463128931746
      ],
      [
        "こういう",
        -9.114754985603327
      ],
      [
        "に行く",
        -9.11504439152759
      ],
      [
        "けど",
        -9.11605549885731
      ],
      [
        "石",
        -9.116417913061591
      ],
      [
        "収入",
        -9.116783529304241
      ],
      [
        "となった",
        -9.118764122774024
      ],
      [
        "強い",
        -9.119453592384435
      ],
      [
        "当",
        -9.120402113571913
      ],
      [
        "方は",
        -9.120532391760648
      ],
      [
        "かった",
        -9.121030537104941
      ],
      [
        "いま",
        -9.121056328505162
      ],
      [
        "ストレス",
        -9.121526697943278
      ],
      [
        "取引",
        -9.122042308891533
      ],
      [
        "ないように",
        -9.122050337753059
      ],
      [
        "妻",
        -9.122075783636372
      ],
      [
        "表示",
        -9.1226628296191
      ],
      [
        "かもしれませんが、",
        -9.122803514494347
      ],
      [
        "人気",
        -9.122823167958742
      ],
      [
        "後、",
        -9.122964495446189
      ],
      [
        "ブ",
        -9.123179150922155
      ],
      [
        "行く",
        -9.124681807582677
      ],
      [
        "学",
        -9.12570722104823
      ],
      [
        "させ",
        -9.126068334870267
      ],
      [
        "ながら、",
        -9.126472068622988
      ],
      [
        "もちろん",
        -9.126996302402198
      ],
      [
        "たち",
        -9.127742693172568
      ],
      [
        "W",
        -9.128592594281216
      ],
      [
        "支援",
        -9.128686985191752
      ],
      [
        "ても",
        -9.129528663035916
      ],
      [
        "コース",
        -9.129863974701143
      ],
      [
        "どの",
        -9.130253143545268
      ],
      [
        "価格",
        -9.130607226445186
      ],
      [
        "組織",
        -9.130704130594356
      ],
      [
        "ふ",
        -9.131637336013508
      ],
      [
        "でしょうか?",
        -9.131763123955746
      ],
      [
        "別",
        -9.13230843649545
      ],
      [
        "知",
        -9.132518135793326
      ],
      [
        "になり",
        -9.134437675614935
      ],
      [
        "=",
        -9.1347657124284
      ],
      [
        "としても",
        -9.135882769042915
      ],
      [
        "場合には、",
        -9.136580812840023
      ],
      [
        "利益",
        -9.136744129084462
      ],
      [
        "大きく",
        -9.138145343062114
      ],
      [
        "答え",
        -9.138156692754599
      ],
      [
        "ニ",
        -9.138262121927411
      ],
      [
        "金額",
        -9.138391972499935
      ],
      [
        "なる",
        -9.139862419213683
      ],
      [
        "4月",
        -9.140630504314062
      ],
      [
        "思う",
        -9.142241209505372
      ],
      [
        "あなたが",
        -9.143311322859786
      ],
      [
        "試合",
        -9.144209399041822
      ],
      [
        "選択",
        -9.145431610513796
      ],
      [
        "と思う。",
        -9.146463611767485
      ],
      [
        "開始",
        -9.14727994098406
      ],
      [
        "でしょうか。",
        -9.147417426118288
      ],
      [
        "面白い",
        -9.148598209577658
      ],
      [
        "次",
        -9.148687966606795
      ],
      [
        "現在の",
        -9.148696789539486
      ],
      [
        "されます。",
        -9.149947704829405
      ],
      [
        "ますので、",
        -9.15030661570466
      ],
      [
        "頑張って",
        -9.151577948967137
      ],
      [
        "グループ",
        -9.151866564212595
      ],
      [
        "解決",
        -9.1521387847113
      ],
      [
        "恋愛",
        -9.152142840241645
      ],
      [
        "読み",
        -9.152760136473056
      ],
      [
        "くる",
        -9.153367397875513
      ],
      [
        "ファン",
        -9.15491259250092
      ],
      [
        "何を",
        -9.155117291546958
      ],
      [
        "夏",
        -9.155487452023207
      ],
      [
        "ろ",
        -9.155662045377923
      ],
      [
        "書き",
        -9.155782225099596
      ],
      [
        "にして",
        -9.155838919602026
      ],
      [
        "失敗",
        -9.156449943589553
      ],
      [
        "いろいろな",
        -9.156653459321122
      ],
      [
        "\"",
        -9.157694234575926
      ],
      [
        "c",
        -9.15806309074084
      ],
      [
        "天",
        -9.15807991783888
      ],
      [
        "広告",
        -9.159172317203826
      ],
      [
        "行為",
        -9.159705402505965
      ],
      [
        "島",
        -9.15971916889211
      ],
      [
        "やすい",
        -9.160026328554288
      ],
      [
        "楽",
        -9.160139741503436
      ],
      [
        "流れ",
        -9.160391641400263
      ],
      [
        "安全",
        -9.16096432299791
      ],
      [
        "肌",
        -9.16134936978272
      ],
      [
        "最近",
        -9.161424435478342
      ],
      [
        "重要な",
        -9.16171029132762
      ],
      [
        "悪い",
        -9.161820958564103
      ],
      [
        "言い",
        -9.162140419106947
      ],
      [
        "最も",
        -9.162730950531806
      ],
      [
        "事故",
        -9.163452727869194
      ],
      [
        "報告",
        -9.164879368118047
      ],
      [
        "立",
        -9.165906524757396
      ],
      [
        "になっています。",
        -9.16591578193761
      ],
      [
        "死",
        -9.166070768424877
      ],
      [
        "ていない",
        -9.167352196945197
      ],
      [
        "そして",
        -9.168619637436596
      ],
      [
        "行き",
        -9.16885234976609
      ],
      [
        "発表",
        -9.169190693642959
      ],
      [
        "したり",
        -9.169238253746968
      ],
      [
        "てくれる",
        -9.170263849525025
      ],
      [
        "をした",
        -9.170953950238339
      ],
      [
        "好き",
        -9.171361358361656
      ],
      [
        "R",
        -9.171922489357918
      ],
      [
        "北",
        -9.172132131886254
      ],
      [
        "ツ",
        -9.172137115486251
      ],
      [
        "ところで",
        -9.172157843740518
      ],
      [
        "上で",
        -9.172500608581544
      ],
      [
        "パン",
        -9.173423026035064
      ],
      [
        "しかし",
        -9.173902902879508
      ],
      [
        "ということです。",
        -9.175880289866178
      ],
      [
        "注意",
        -9.176396395711576
      ],
      [
        "印象",
        -9.17695285044072
      ],
      [
        "たくさん",
        -9.177720806665821
      ],
      [
        "開発",
        -9.178122472735346
      ],
      [
        "していました。",
        -9.178345773161656
      ],
      [
        "となっています。",
        -9.178447989069925
      ],
      [
        "サイズ",
        -9.178814333191522
      ],
      [
        "ではなく",
        -9.180413733133769
      ],
      [
        "ずに",
        -9.180836855629776
      ],
      [
        "運営",
        -9.180848001411395
      ],
      [
        "動き",
        -9.1814017702626
      ],
      [
        "あった",
        -9.181458067605739
      ],
      [
        "▁しかし",
        -9.18237946457996
      ],
      [
        "時間が",
        -9.183111503265835
      ],
      [
        "あなた",
        -9.18332328940753
      ],
      [
        "海外",
        -9.183924021287568
      ],
      [
        "歴史",
        -9.183959989250138
      ],
      [
        "通り",
        -9.184006511203993
      ],
      [
        "準備",
        -9.184011336146714
      ],
      [
        "と思います",
        -9.18406485944142
      ],
      [
        "だから、",
        -9.184697998046119
      ],
      [
        "n",
        -9.185265310928214
      ],
      [
        "のない",
        -9.185356954872868
      ],
      [
        "出す",
        -9.185994322075217
      ],
      [
        "意見",
        -9.186059894556887
      ],
      [
        "そこで",
        -9.18618184432873
      ],
      [
        "保険",
        -9.186626782171453
      ],
      [
        "かな",
        -9.187201357856964
      ],
      [
        "3月",
        -9.187497240453897
      ],
      [
        "合",
        -9.188961868186873
      ],
      [
        "がある。",
        -9.189959472028256
      ],
      [
        "しても",
        -9.19194288987853
      ],
      [
        "どのような",
        -9.192302729524704
      ],
      [
        "30",
        -9.192749231438526
      ],
      [
        "料金",
        -9.193458384420097
      ],
      [
        "観",
        -9.19373480552968
      ],
      [
        "大丈夫",
        -9.194661327180121
      ],
      [
        "に行って",
        -9.195589453369799
      ],
      [
        "常に",
        -9.195921517726202
      ],
      [
        "猫",
        -9.195976828422694
      ],
      [
        "プラン",
        -9.19655105720416
      ],
      [
        "多い",
        -9.197154005652473
      ],
      [
        "部屋",
        -9.197395921752554
      ],
      [
        "すぐ",
        -9.197502214275072
      ],
      [
        "」に",
        -9.198639139057203
      ],
      [
        "市場",
        -9.19992965252999
      ],
      [
        "あと",
        -9.200461472859736
      ],
      [
        "目標",
        -9.20068049872782
      ],
      [
        "d",
        -9.202865809848534
      ],
      [
        "p",
        -9.203274281389593
      ],
      [
        "現在",
        -9.204304301664445
      ],
      [
        "人と",
        -9.204518384729187
      ],
      [
        "必要な",
        -9.205299989833001
      ],
      [
        "はず",
        -9.206503515007068
      ],
      [
        "のか?",
        -9.206950802735502
      ],
      [
        "建物",
        -9.207482140980716
      ],
      [
        "正しい",
        -9.208040880287445
      ],
      [
        "戦争",
        -9.208339461829606
      ],
      [
        "みんな",
        -9.208352199954184
      ],
      [
        "みたいな",
        -9.208409804684837
      ],
      [
        "、また",
        -9.208643748679552
      ],
      [
        "べき",
        -9.209534254783524
      ],
      [
        "価値",
        -9.210256476749468
      ],
      [
        "リスク",
        -9.2105357456471
      ],
      [
        "操作",
        -9.211075401585067
      ],
      [
        "▁...",
        -9.211084400452345
      ],
      [
        "クレジットカード",
        -9.211378256154582
      ],
      [
        "そのような",
        -9.211645485081728
      ],
      [
        "バー",
        -9.21220982033321
      ],
      [
        "す。",
        -9.212638462838548
      ],
      [
        "頭",
        -9.212898799236125
      ],
      [
        "と思いました。",
        -9.213963420888664
      ],
      [
        "動",
        -9.214709288330244
      ],
      [
        "人も",
        -9.214760727815314
      ],
      [
        "^^",
        -9.21493070866265
      ],
      [
        "ケ",
        -9.216220838594499
      ],
      [
        "見る",
        -9.217144673641652
      ],
      [
        "感情",
        -9.217228550848395
      ],
      [
        "わけです。",
        -9.217943006593721
      ],
      [
        "モデル",
        -9.218531427106921
      ],
      [
        "国際",
        -9.218877125778189
      ],
      [
        "号",
        -9.2190088682623
      ],
      [
        "そして、",
        -9.220219303553954
      ],
      [
        "以外の",
        -9.221484897521453
      ],
      [
        "移動",
        -9.223180162859652
      ],
      [
        "▁横浜F・マリノス",
        -9.223976405803514
      ],
      [
        "!」",
        -9.225078568504864
      ],
      [
        "したこと",
        -9.22530379048305
      ],
      [
        "なって",
        -9.226764445479663
      ],
      [
        "どうしても",
        -9.22689451195009
      ],
      [
        "気が",
        -9.228135417103701
      ],
      [
        "屋",
        -9.22830688282206
      ],
      [
        "10月",
        -9.228323443123037
      ],
      [
        "大人",
        -9.228416432759275
      ],
      [
        "離婚",
        -9.228713470080072
      ],
      [
        "ないと",
        -9.228855145166722
      ],
      [
        "今回の",
        -9.22885832276923
      ],
      [
        "顔",
        -9.22963327518255
      ],
      [
        "になり、",
        -9.230642068673191
      ],
      [
        "痛み",
        -9.23134468588447
      ],
      [
        "ネ",
        -9.231923857153575
      ],
      [
        "率",
        -9.232012290115657
      ],
      [
        "先生",
        -9.23290129697126
      ],
      [
        "ことは、",
        -9.233133603672753
      ],
      [
        "u",
        -9.23327075066916
      ],
      [
        "店舗",
        -9.233435603143768
      ],
      [
        "立ち",
        -9.23350786163185
      ],
      [
        "だったので、",
        -9.233730823043508
      ],
      [
        "および",
        -9.2341534610891
      ],
      [
        "L",
        -9.23575107427468
      ],
      [
        "ガ",
        -9.2363324752328
      ],
      [
        "ります。",
        -9.237507878695443
      ],
      [
        "へと",
        -9.239375325659093
      ],
      [
        "入",
        -9.239622122828095
      ],
      [
        "公",
        -9.240836819292285
      ],
      [
        "しましょう。",
        -9.241291627105669
      ],
      [
        "人生",
        -9.242959010485299
      ],
      [
        "るのは",
        -9.243978238865804
      ],
      [
        "図",
        -9.244057497262709
      ],
      [
        "セット",
        -9.244766563207381
      ],
      [
        "希望",
        -9.245005541080522
      ],
      [
        "銀行",
        -9.245146918811978
      ],
      [
        "これらの",
        -9.24519765991245
      ],
      [
        "これから",
        -9.246153551914226
      ],
      [
        "18",
        -9.246390482991169
      ],
      [
        "一部",
        -9.246767627401493
      ],
      [
        "、自分の",
        -9.24723982615155
      ],
      [
        "良かった",
        -9.248134156335013
      ],
      [
        "することができます。",
        -9.248744622622613
      ],
      [
        "っていた",
        -9.249120865855478
      ],
      [
        "は、「",
        -9.24927708172959
      ],
      [
        "自然",
        -9.249581602931539
      ],
      [
        "手続き",
        -9.249940733266836
      ],
      [
        "初",
        -9.250361219506992
      ],
      [
        "あの",
        -9.250962330089678
      ],
      [
        "旅",
        -9.253827625097735
      ],
      [
        ")に",
        -9.254929165296929
      ],
      [
        "わからない",
        -9.255421404774705
      ],
      [
        "再",
        -9.255792277538887
      ],
      [
        "の話",
        -9.257241254522889
      ],
      [
        "だって",
        -9.257378602462431
      ],
      [
        "ここ",
        -9.25886286444508
      ],
      [
        "席",
        -9.259165113522219
      ],
      [
        "チェック",
        -9.260519420872534
      ],
      [
        "明らかに",
        -9.260957377354114
      ],
      [
        "テーマ",
        -9.261407070082427
      ],
      [
        "室",
        -9.262154322915116
      ],
      [
        "改善",
        -9.263501445072606
      ],
      [
        "込み",
        -9.263842203081335
      ],
      [
        "はずです。",
        -9.264183354527145
      ],
      [
        "論",
        -9.264779607039682
      ],
      [
        "幸せ",
        -9.265056774238602
      ],
      [
        "▁これ",
        -9.265710069395414
      ],
      [
        "作り",
        -9.265778577713938
      ],
      [
        "ぶ",
        -9.266176046140092
      ],
      [
        "たこと",
        -9.267500877070358
      ],
      [
        "調べ",
        -9.267599575945258
      ],
      [
        "物語",
        -9.2676215006653
      ],
      [
        "すべき",
        -9.267826961264852
      ],
      [
        "最初の",
        -9.267913450812493
      ],
      [
        "できた",
        -9.268361985763462
      ],
      [
        "今回",
        -9.268495134295534
      ],
      [
        "学生",
        -9.26883406306234
      ],
      [
        "年齢",
        -9.269309055627733
      ],
      [
        "何度も",
        -9.269608524946303
      ],
      [
        "トラブル",
        -9.270388319894469
      ],
      [
        "未来",
        -9.27064140972897
      ],
      [
        "最後の",
        -9.271205271262424
      ],
      [
        "経営",
        -9.272043976809481
      ],
      [
        "いた。",
        -9.272627780048893
      ],
      [
        "使う",
        -9.272645804531138
      ],
      [
        "質",
        -9.273142455728516
      ],
      [
        "いろんな",
        -9.273706917539457
      ],
      [
        "脱毛",
        -9.273707425009842
      ],
      [
        "旦那",
        -9.274732733406667
      ],
      [
        "アクセス",
        -9.275597901004836
      ],
      [
        "韓国",
        -9.275935897525944
      ],
      [
        "母",
        -9.27694559561494
      ],
      [
        "良く",
        -9.278116089102635
      ],
      [
        "過ぎ",
        -9.278151820858646
      ],
      [
        "種",
        -9.279595376255637
      ],
      [
        "聞き",
        -9.279920545117928
      ],
      [
        "いろいろ",
        -9.280720972962175
      ],
      [
        "イン",
        -9.28074657432542
      ],
      [
        "てくる",
        -9.281371997993688
      ],
      [
        "式",
        -9.281669108681971
      ],
      [
        "ならば、",
        -9.281708542027731
      ],
      [
        "ご注文",
        -9.282345872746838
      ],
      [
        "不足",
        -9.282365100303402
      ],
      [
        "まずは",
        -9.282738449100869
      ],
      [
        "定",
        -9.282746915423445
      ],
      [
        "私たちは",
        -9.283931678835387
      ],
      [
        "引き",
        -9.284206275540221
      ],
      [
        "寝",
        -9.284518227214503
      ],
      [
        "ここに",
        -9.284959993661118
      ],
      [
        "ほとんど",
        -9.285146644973718
      ],
      [
        "解説",
        -9.285563686783167
      ],
      [
        "入れ",
        -9.285714479362394
      ],
      [
        "雨",
        -9.285783300889289
      ],
      [
        "製品",
        -9.286792578664699
      ],
      [
        "障害",
        -9.286918767364046
      ],
      [
        "逆に",
        -9.28702420289951
      ],
      [
        "なければ",
        -9.287063501802297
      ],
      [
        "と一緒に",
        -9.287778885411983
      ],
      [
        "レベル",
        -9.287782079027087
      ],
      [
        "御",
        -9.28893204033277
      ],
      [
        "小さな",
        -9.289260855069628
      ],
      [
        "すごく",
        -9.28980639142151
      ],
      [
        "今日",
        -9.290126928969196
      ],
      [
        "るのが",
        -9.291660461472496
      ],
      [
        "読んで",
        -9.291965977693817
      ],
      [
        "知識",
        -9.292259155049013
      ],
      [
        "用の",
        -9.293116593883724
      ],
      [
        "よかった",
        -9.296035397547886
      ],
      [
        "のではないでしょうか。",
        -9.2965013996627
      ],
      [
        "私は、",
        -9.297281866399334
      ],
      [
        "営業",
        -9.29743260459896
      ],
      [
        "のでしょうか。",
        -9.298666295885251
      ],
      [
        "強",
        -9.298680484138778
      ],
      [
        "全部",
        -9.298806431142776
      ],
      [
        "長く",
        -9.29948862070908
      ],
      [
        "してきた",
        -9.300286680425765
      ],
      [
        "ても、",
        -9.300753809564531
      ],
      [
        "歌",
        -9.301253550727242
      ],
      [
        "しまう",
        -9.301552818112842
      ],
      [
        "U",
        -9.30395351734845
      ],
      [
        "声",
        -9.304101611936261
      ],
      [
        "について、",
        -9.305327196530715
      ],
      [
        "がありますが、",
        -9.306824266964135
      ],
      [
        "おすすめ",
        -9.30818374172069
      ],
      [
        "がありました。",
        -9.309808456460342
      ],
      [
        "お客様の",
        -9.30996071232368
      ],
      [
        "額",
        -9.310829814176786
      ],
      [
        "事が",
        -9.311136376026393
      ],
      [
        "であった",
        -9.311231891259993
      ],
      [
        "長い",
        -9.311349736694268
      ],
      [
        "16",
        -9.312588071740635
      ],
      [
        "実施",
        -9.312716094107785
      ],
      [
        "熱",
        -9.312998987848502
      ],
      [
        "と言って",
        -9.313023996324901
      ],
      [
        "という事",
        -9.315720583954915
      ],
      [
        "ではありません。",
        -9.315955577375455
      ],
      [
        "いますが、",
        -9.315987870639127
      ],
      [
        "グ",
        -9.317283915237631
      ],
      [
        "、という",
        -9.317787612195524
      ],
      [
        "検査",
        -9.318062439121377
      ],
      [
        "としては",
        -9.318725286548975
      ],
      [
        "方は、",
        -9.319003292642186
      ],
      [
        "ません",
        -9.319011029329403
      ],
      [
        "ですよ。",
        -9.319168709328663
      ],
      [
        "g",
        -9.319179347975783
      ],
      [
        "娘",
        -9.319261122377197
      ],
      [
        "使って",
        -9.319303828609797
      ],
      [
        "正",
        -9.319751287182404
      ],
      [
        "【",
        -9.320206267593296
      ],
      [
        "確かに",
        -9.320326434638032
      ],
      [
        "危険",
        -9.322018311550742
      ],
      [
        "楽しみ",
        -9.323074234755047
      ],
      [
        "きちんと",
        -9.323539619844745
      ],
      [
        "メニュー",
        -9.323648034465847
      ],
      [
        "させて",
        -9.323932204243228
      ],
      [
        "るように",
        -9.324429244610831
      ],
      [
        "ていました。",
        -9.324608487851846
      ],
      [
        "モ",
        -9.32504880672964
      ],
      [
        "スマホ",
        -9.326229533297422
      ],
      [
        "発送",
        -9.326412444704342
      ],
      [
        "H",
        -9.326858642760294
      ],
      [
        "行って",
        -9.327245430963304
      ],
      [
        "っと",
        -9.327628773135672
      ],
      [
        "するのは",
        -9.32815719296925
      ],
      [
        "一日",
        -9.328161533462609
      ],
      [
        "年間",
        -9.329276092970133
      ],
      [
        "これを",
        -9.32936974846907
      ],
      [
        "資格",
        -9.330292999336248
      ],
      [
        "弁護士",
        -9.331169733843762
      ],
      [
        "さまざまな",
        -9.33152849978841
      ],
      [
        "ジ",
        -9.331683884908376
      ],
      [
        "土地",
        -9.331835328948396
      ],
      [
        "するのが",
        -9.332831027567963
      ],
      [
        "気になる",
        -9.3330249289568
      ],
      [
        "ホームページ",
        -9.334728812188036
      ],
      [
        "命",
        -9.335871223942938
      ],
      [
        "彼の",
        -9.336032407967561
      ],
      [
        "今の",
        -9.33621374810707
      ],
      [
        "ノ",
        -9.336305147469616
      ],
      [
        "氏",
        -9.3363981811504
      ],
      [
        "嬉しい",
        -9.336617204929219
      ],
      [
        "8月",
        -9.337045909601208
      ],
      [
        "となり、",
        -9.337747182490169
      ],
      [
        "金利",
        -9.33832491878922
      ],
      [
        "展開",
        -9.338365002544986
      ],
      [
        "楽しく",
        -9.338694620350868
      ],
      [
        "されました。",
        -9.340101439167313
      ],
      [
        "したら",
        -9.342886623840055
      ],
      [
        "美",
        -9.343247964005611
      ],
      [
        "時、",
        -9.34383945520803
      ],
      [
        "村",
        -9.344317867187055
      ],
      [
        "伝え",
        -9.344555747645053
      ],
      [
        "可能",
        -9.345175836350686
      ],
      [
        "N",
        -9.34528740245861
      ],
      [
        "雰囲気",
        -9.346464803359089
      ],
      [
        "一般",
        -9.34674086584199
      ],
      [
        "実行",
        -9.347588770263037
      ],
      [
        "l",
        -9.348332886588903
      ],
      [
        "火",
        -9.34834018589794
      ],
      [
        "b",
        -9.34849039242906
      ],
      [
        "9月",
        -9.34907001623672
      ],
      [
        "白",
        -9.349491481469606
      ],
      [
        "聞いて",
        -9.349819709776215
      ],
      [
        "団体",
        -9.349993974249532
      ],
      [
        "練習",
        -9.350308385375072
      ],
      [
        "工事",
        -9.350419806339735
      ],
      [
        "指導",
        -9.351515792056082
      ],
      [
        "先に",
        -9.351935719531273
      ],
      [
        "いく",
        -9.35240936580744
      ],
      [
        "それでも",
        -9.352460320893709
      ],
      [
        "黒",
        -9.35246425083092
      ],
      [
        "ら、",
        -9.352528468926055
      ],
      [
        "デ",
        -9.353541453080025
      ],
      [
        "目の",
        -9.353940120389689
      ],
      [
        "半",
        -9.353954004056154
      ],
      [
        "記憶",
        -9.354555801385164
      ],
      [
        "掲載",
        -9.355362631156826
      ],
      [
        "員",
        -9.355916581586618
      ],
      [
        "ぎ",
        -9.357667391684657
      ],
      [
        "結婚相談所",
        -9.35777711952725
      ],
      [
        "政府",
        -9.3581150533711
      ],
      [
        "クリニック",
        -9.358654853279035
      ],
      [
        "しながら",
        -9.358701305093383
      ],
      [
        "急",
        -9.35890693148879
      ],
      [
        "プログラム",
        -9.359039750370062
      ],
      [
        "子ども",
        -9.359318698300862
      ],
      [
        "になると",
        -9.359402864454179
      ],
      [
        "生まれ",
        -9.360140949596905
      ],
      [
        "?」",
        -9.36099948005062
      ],
      [
        "分かる",
        -9.362100760714538
      ],
      [
        "話題",
        -9.36218220516362
      ],
      [
        "してください。",
        -9.362484804558317
      ],
      [
        "僕は",
        -9.362768361661944
      ],
      [
        "ぐ",
        -9.362810977903852
      ],
      [
        "のための",
        -9.36298263867861
      ],
      [
        "入力",
        -9.363121842453463
      ],
      [
        "んですね。",
        -9.363729608272505
      ],
      [
        "安心して",
        -9.364516176989781
      ],
      [
        "人間の",
        -9.364881055521753
      ],
      [
        "☆",
        -9.364979042798952
      ],
      [
        "メンバー",
        -9.365095879377225
      ],
      [
        "会話",
        -9.365249635167078
      ],
      [
        "対象",
        -9.365874082411569
      ],
      [
        "を選ぶ",
        -9.366421376899632
      ],
      [
        "げ",
        -9.366534123687998
      ],
      [
        "解",
        -9.366700984481014
      ],
      [
        "k",
        -9.366990195005375
      ],
      [
        "る事",
        -9.367382248776874
      ],
      [
        "」は",
        -9.367828385734985
      ],
      [
        "12月",
        -9.368773325977683
      ],
      [
        "期",
        -9.368986461127514
      ],
      [
        "残",
        -9.369355908405996
      ],
      [
        "産業",
        -9.369581159176114
      ],
      [
        "病",
        -9.36969421037772
      ],
      [
        "安",
        -9.370045046689548
      ],
      [
        "自由",
        -9.371303730948258
      ],
      [
        "達",
        -9.371422944212881
      ],
      [
        "生産",
        -9.371638810018581
      ],
      [
        "分からない",
        -9.371740379371287
      ],
      [
        "のであれば、",
        -9.371960641085717
      ],
      [
        "変",
        -9.3725199975209
      ],
      [
        "うまく",
        -9.373043880307236
      ],
      [
        "持ち",
        -9.373353542534929
      ],
      [
        "により、",
        -9.374743949933547
      ],
      [
        "同時に",
        -9.375423667517584
      ],
      [
        "米",
        -9.375914005824043
      ],
      [
        "業界",
        -9.375965254548348
      ],
      [
        "情報を",
        -9.377088851334541
      ],
      [
        "安い",
        -9.377608556730578
      ],
      [
        "の問題",
        -9.377671426556653
      ],
      [
        "いつ",
        -9.377787271261768
      ],
      [
        "してる",
        -9.378159806414773
      ],
      [
        "ました!",
        -9.378496799854394
      ],
      [
        "今日は",
        -9.378638981867478
      ],
      [
        "産",
        -9.38062363236105
      ],
      [
        "でき",
        -9.381670250613933
      ],
      [
        "平",
        -9.381879312617194
      ],
      [
        "ものが",
        -9.382125556839515
      ],
      [
        "家庭",
        -9.383463069793354
      ],
      [
        "色々な",
        -9.38400410299235
      ],
      [
        "追加",
        -9.38404503970181
      ],
      [
        "最",
        -9.384172566106496
      ],
      [
        "小さい",
        -9.38502693801488
      ],
      [
        "土",
        -9.385720690537912
      ],
      [
        "アニメ",
        -9.38583187351028
      ],
      [
        "主張",
        -9.386070873853079
      ],
      [
        "仕事を",
        -9.386369905559963
      ],
      [
        "が高い",
        -9.386946579568196
      ],
      [
        "と思いますが、",
        -9.387165910110491
      ],
      [
        "しばらく",
        -9.387373474185324
      ],
      [
        "放送",
        -9.387751997172924
      ],
      [
        "大会",
        -9.387910145902712
      ],
      [
        "これで",
        -9.389078746880518
      ],
      [
        "生き",
        -9.389243149364894
      ],
      [
        "将来",
        -9.391735274270108
      ],
      [
        "のが、",
        -9.392999677098704
      ],
      [
        "発売",
        -9.393141840293648
      ],
      [
        "する事",
        -9.39387655649413
      ],
      [
        "傷",
        -9.393876863324433
      ],
      [
        "敵",
        -9.394021230285084
      ],
      [
        "城",
        -9.394056546624714
      ],
      [
        "ませんでした。",
        -9.395084786466658
      ],
      [
        "y",
        -9.395335175159182
      ],
      [
        "気分",
        -9.39535576102832
      ],
      [
        "手法",
        -9.395996111341592
      ],
      [
        "夫",
        -9.396171191740851
      ],
      [
        "最初に",
        -9.396262570558662
      ],
      [
        "民",
        -9.39649941916808
      ],
      [
        "いくら",
        -9.397399953613581
      ],
      [
        "った。",
        -9.39749730085948
      ],
      [
        "サポート",
        -9.397794030465842
      ],
      [
        "金融",
        -9.39804813375362
      ],
      [
        "相手の",
        -9.398227611553438
      ],
      [
        "安心",
        -9.398503391277519
      ],
      [
        "者が",
        -9.398821828739818
      ],
      [
        "区",
        -9.399578949114048
      ],
      [
        "反応",
        -9.400063721749323
      ],
      [
        "が出",
        -9.401013286974784
      ],
      [
        "の違い",
        -9.402223713591718
      ],
      [
        "婚活",
        -9.402338533455524
      ],
      [
        "感覚",
        -9.402847914659914
      ],
      [
        "ソフト",
        -9.403063298619536
      ],
      [
        "複数の",
        -9.403176914234344
      ],
      [
        "事実",
        -9.403224347808411
      ],
      [
        "なくなる",
        -9.40385766214414
      ],
      [
        "アメリカ",
        -9.404079073787916
      ],
      [
        "f",
        -9.404083092569607
      ],
      [
        "横",
        -9.405175712470303
      ],
      [
        "米国",
        -9.40655010656008
      ],
      [
        "50",
        -9.406984772235013
      ],
      [
        "ハ",
        -9.40700437078091
      ],
      [
        "てしまいます。",
        -9.407342669594824
      ],
      [
        "日本語",
        -9.408044479736759
      ],
      [
        "者の",
        -9.408526113118539
      ],
      [
        "過去",
        -9.409017243868586
      ],
      [
        "になってしまう",
        -9.40981519206185
      ],
      [
        "知らない",
        -9.409826312303636
      ],
      [
        "検討",
        -9.41012753717315
      ],
      [
        "第1",
        -9.410426668413567
      ],
      [
        "種類",
        -9.411544345218939
      ],
      [
        "とっても",
        -9.411864859233745
      ],
      [
        "ファイル",
        -9.412083566312388
      ],
      [
        "運",
        -9.41288067180982
      ],
      [
        "が「",
        -9.413231860514168
      ],
      [
        "料",
        -9.413432494449095
      ],
      [
        "法律",
        -9.413488787839494
      ],
      [
        "一人で",
        -9.413610986745987
      ],
      [
        "上の",
        -9.41364865041314
      ],
      [
        "とき、",
        -9.413673313485152
      ],
      [
        "春",
        -9.414950863161332
      ],
      [
        "び",
        -9.415582549398348
      ],
      [
        "それぞれ",
        -9.41571427158896
      ],
      [
        "比較",
        -9.415942158602704
      ],
      [
        "ますね。",
        -9.416377141403416
      ],
      [
        "7月",
        -9.417501621484252
      ],
      [
        "医療",
        -9.417974856285307
      ],
      [
        "られて",
        -9.41830826202666
      ],
      [
        "彼らは",
        -9.418615429376509
      ],
      [
        "明",
        -9.41879198289567
      ],
      [
        "れない",
        -9.418877623670959
      ],
      [
        "出来る",
        -9.419196385743716
      ],
      [
        "2年",
        -9.420668417663641
      ],
      [
        "テ",
        -9.4208157139084
      ],
      [
        "J",
        -9.421305284709602
      ],
      [
        "どんどん",
        -9.421902094628312
      ],
      [
        "ですか?",
        -9.423321378725248
      ],
      [
        "間違い",
        -9.423847883264592
      ],
      [
        "感謝",
        -9.424304975564812
      ],
      [
        "ケア",
        -9.424385791425284
      ],
      [
        "込んで",
        -9.424797000244137
      ],
      [
        "分析",
        -9.424891344236157
      ],
      [
        "応援",
        -9.425458648368648
      ],
      [
        "こそ",
        -9.426166351717448
      ],
      [
        "だけで、",
        -9.427230228156215
      ],
      [
        "いる。",
        -9.427478022007287
      ],
      [
        "口コミ",
        -9.428833170390233
      ],
      [
        "自分に",
        -9.4290585744499
      ],
      [
        "大切な",
        -9.429362682953187
      ],
      [
        "のか。",
        -9.429438613682626
      ],
      [
        "きました。",
        -9.429442200287788
      ],
      [
        "しまった",
        -9.43024027203149
      ],
      [
        "来た",
        -9.430967572591769
      ],
      [
        "証拠",
        -9.430996622484217
      ],
      [
        "ようで、",
        -9.43101098919204
      ],
      [
        "歯",
        -9.431255363538387
      ],
      [
        "書いた",
        -9.431765395668002
      ],
      [
        "仲間",
        -9.43333710164373
      ],
      [
        "興味",
        -9.433406633367513
      ],
      [
        "なども",
        -9.43430983760566
      ],
      [
        "時間を",
        -9.43437897285725
      ],
      [
        ")が",
        -9.434432098285356
      ],
      [
        "ごとに",
        -9.436297206137336
      ],
      [
        "基準",
        -9.436317071593908
      ],
      [
        "冬",
        -9.436384337726064
      ],
      [
        "そこまで",
        -9.437122020692897
      ],
      [
        "運転",
        -9.43827021244991
      ],
      [
        "事前に",
        -9.438546786459224
      ],
      [
        "選手",
        -9.439363011276592
      ],
      [
        "思考",
        -9.44081212227741
      ],
      [
        "受け",
        -9.44165957655757
      ],
      [
        "」(",
        -9.443104499160707
      ],
      [
        "国の",
        -9.443916221829994
      ],
      [
        "ダ",
        -9.444711757443027
      ],
      [
        "成",
        -9.444905510266857
      ],
      [
        "地球",
        -9.44552914573445
      ],
      [
        "スタート",
        -9.445971982728299
      ],
      [
        "前から",
        -9.446026801100835
      ],
      [
        "今年",
        -9.446154144724106
      ],
      [
        "番組",
        -9.446231548193685
      ],
      [
        "すごい",
        -9.446856233212586
      ],
      [
        "依頼",
        -9.446977120108386
      ],
      [
        "というもの",
        -9.447357463181518
      ],
      [
        "カー",
        -9.447476199877086
      ],
      [
        "軍",
        -9.447484200598959
      ],
      [
        "成分",
        -9.447531251929021
      ],
      [
        "ないので、",
        -9.44783574987672
      ],
      [
        "17",
        -9.449227092387831
      ],
      [
        "経",
        -9.449440281234203
      ],
      [
        "なん",
        -9.449560820217833
      ],
      [
        "まだまだ",
        -9.44997646897397
      ],
      [
        "センター",
        -9.45036246134403
      ],
      [
        "若い",
        -9.450695976981535
      ],
      [
        "▁ただし、",
        -9.451037918038464
      ],
      [
        "事情",
        -9.451046841623608
      ],
      [
        "見た",
        -9.451537406391376
      ],
      [
        "それで",
        -9.452910197668471
      ],
      [
        "▁それ",
        -9.453038902014377
      ],
      [
        "観光",
        -9.453743148208186
      ],
      [
        "ほどの",
        -9.453749388012966
      ],
      [
        "を受け",
        -9.454363664957455
      ],
      [
        "しており、",
        -9.454491729851068
      ],
      [
        "友人",
        -9.454797412455495
      ],
      [
        "らしい",
        -9.454868329976687
      ],
      [
        "メリット",
        -9.454948161021868
      ],
      [
        "要素",
        -9.455560274437982
      ],
      [
        "ほぼ",
        -9.456331909237683
      ],
      [
        "られない",
        -9.457072034681165
      ],
      [
        "自己",
        -9.457598804415733
      ],
      [
        "既に",
        -9.45983806329818
      ],
      [
        "メディア",
        -9.460099275274608
      ],
      [
        "アイテム",
        -9.460217920935431
      ],
      [
        "鬱病",
        -9.460226209498632
      ],
      [
        "筋肉",
        -9.460238320309394
      ],
      [
        "書いて",
        -9.462801359295284
      ],
      [
        "非",
        -9.462820692706648
      ],
      [
        "せる",
        -9.463009893579937
      ],
      [
        "を使う",
        -9.463017117650647
      ],
      [
        "精神",
        -9.463021158409365
      ],
      [
        "想像",
        -9.464061722138798
      ],
      [
        "もない",
        -9.464821968532682
      ],
      [
        "症状",
        -9.464846855760275
      ],
      [
        "行う",
        -9.46523830537031
      ],
      [
        "ツール",
        -9.466087839106597
      ],
      [
        "空間",
        -9.466484344558117
      ],
      [
        "特別",
        -9.466600417789813
      ],
      [
        "るべき",
        -9.466746033160547
      ],
      [
        "っています。",
        -9.46728447671681
      ],
      [
        "するための",
        -9.467586085501884
      ],
      [
        "出来ない",
        -9.467775813398847
      ],
      [
        "わけ",
        -9.467857748234469
      ],
      [
        "私たちが",
        -9.467954313854863
      ],
      [
        "組",
        -9.468006864761325
      ],
      [
        "▁1",
        -9.468503707012374
      ],
      [
        "美味しい",
        -9.468843735716607
      ],
      [
        "プロ",
        -9.469317833867429
      ],
      [
        "人々",
        -9.469433660574175
      ],
      [
        "タイトル",
        -9.470021862144952
      ],
      [
        "真",
        -9.47002979050809
      ],
      [
        "事は",
        -9.470092268704661
      ],
      [
        "大阪",
        -9.470102210391275
      ],
      [
        "探し",
        -9.470127607839835
      ],
      [
        "状態で",
        -9.470257458842115
      ],
      [
        "彼",
        -9.470501122220337
      ],
      [
        "実現",
        -9.470589400120343
      ],
      [
        "、私は",
        -9.471918098322494
      ],
      [
        "の場合は",
        -9.47194356848491
      ],
      [
        "強く",
        -9.472930957523683
      ],
      [
        "に「",
        -9.473075868425807
      ],
      [
        "1月",
        -9.473152164597824
      ],
      [
        "子供の",
        -9.473369304563985
      ],
      [
        "なくて",
        -9.473714530067816
      ],
      [
        "したら、",
        -9.473821908027393
      ],
      [
        "プロジェクト",
        -9.4740312848791
      ],
      [
        "...」",
        -9.474066593104943
      ],
      [
        "としての",
        -9.474080433393132
      ],
      [
        "遊び",
        -9.474752183463595
      ],
      [
        "in",
        -9.475371166220203
      ],
      [
        "までに",
        -9.47556559771222
      ],
      [
        "相場",
        -9.476088998650198
      ],
      [
        "少しでも",
        -9.476365880797626
      ],
      [
        "重要",
        -9.476801189014989
      ],
      [
        "プレイ",
        -9.477061341877507
      ],
      [
        "ただ、",
        -9.477439958966382
      ],
      [
        "僕の",
        -9.477707267952916
      ],
      [
        "活用",
        -9.479357706254024
      ],
      [
        "計算",
        -9.47993864486256
      ],
      [
        "モノ",
        -9.479995369860006
      ],
      [
        "性格",
        -9.480057444669928
      ],
      [
        "されていた",
        -9.480240074062287
      ],
      [
        "だけの",
        -9.480384451813023
      ],
      [
        "欲しい",
        -9.481326356982546
      ],
      [
        "居",
        -9.48148961538201
      ],
      [
        "花",
        -9.482126954136296
      ],
      [
        "▁【",
        -9.483956234100663
      ],
      [
        "バス",
        -9.484771431360258
      ],
      [
        "くれる",
        -9.485182648191092
      ],
      [
        "を作って",
        -9.485755961933235
      ],
      [
        "ビ",
        -9.48632018783415
      ],
      [
        "14",
        -9.48659986922084
      ],
      [
        "V",
        -9.487105900100628
      ],
      [
        "国家",
        -9.487977405719413
      ],
      [
        "介護",
        -9.489286257271385
      ],
      [
        "てください。",
        -9.489394190500558
      ],
      [
        "キャンペーン",
        -9.489544314182439
      ],
      [
        "新たな",
        -9.489819349465034
      ],
      [
        "構造",
        -9.489922813294557
      ],
      [
        "太陽",
        -9.489935542609302
      ],
      [
        "となって",
        -9.4914966342518
      ],
      [
        "使い",
        -9.49168931172535
      ],
      [
        "シーン",
        -9.491883796588638
      ],
      [
        "記載",
        -9.492323968315485
      ],
      [
        "関連",
        -9.49233153406766
      ],
      [
        "ボ",
        -9.492618696319152
      ],
      [
        "信頼",
        -9.493073540157555
      ],
      [
        "午後",
        -9.493422828741897
      ],
      [
        "目に",
        -9.49351593313824
      ],
      [
        "担当",
        -9.493537130273225
      ],
      [
        "文章",
        -9.493814497468787
      ],
      [
        ")を",
        -9.496435505640667
      ],
      [
        "プ",
        -9.49696005810963
      ],
      [
        "特徴",
        -9.497218174825095
      ],
      [
        "文字",
        -9.497444733023398
      ],
      [
        "上に",
        -9.497532135913076
      ],
      [
        "ティ",
        -9.497886193865181
      ],
      [
        "それぞれの",
        -9.497907468740065
      ],
      [
        "ピ",
        -9.498022789233557
      ],
      [
        "つく",
        -9.498119908544126
      ],
      [
        "_)m",
        -9.498773590507266
      ],
      [
        "毛",
        -9.499367678300224
      ],
      [
        "世界の",
        -9.499444949204499
      ],
      [
        "のため",
        -9.499745267372615
      ],
      [
        "逆",
        -9.499895445972022
      ],
      [
        "かもしれない。",
        -9.500632421402779
      ],
      [
        "差",
        -9.501173980316011
      ],
      [
        "相手に",
        -9.501179635539039
      ],
      [
        "を見る",
        -9.501357760545606
      ],
      [
        "制作",
        -9.501597308604822
      ],
      [
        "行った",
        -9.501661950523559
      ],
      [
        "絵",
        -9.502407659535967
      ],
      [
        "値",
        -9.502632803198523
      ],
      [
        "ブランド",
        -9.502666339619928
      ],
      [
        "色々",
        -9.503712338020339
      ],
      [
        "きます。",
        -9.503860079905973
      ],
      [
        "な。",
        -9.503921759474355
      ],
      [
        "これまで",
        -9.505215672428328
      ],
      [
        "そもそも",
        -9.507090561830092
      ],
      [
        "ますし、",
        -9.50722275964084
      ],
      [
        "難",
        -9.507257454145911
      ],
      [
        "申請",
        -9.507367708801244
      ],
      [
        "特",
        -9.507487274877022
      ],
      [
        "素",
        -9.507603110658636
      ],
      [
        "としては、",
        -9.50770164649444
      ],
      [
        "内の",
        -9.50802845503851
      ],
      [
        "スタイル",
        -9.508143075783593
      ],
      [
        "することで、",
        -9.508740192805819
      ],
      [
        "+",
        -9.510139013448057
      ],
      [
        "クラブ",
        -9.510507819676565
      ],
      [
        "があれば",
        -9.510860979419633
      ],
      [
        "さえ",
        -9.511160382701071
      ],
      [
        "コンテンツ",
        -9.51145883727554
      ],
      [
        "はある",
        -9.511755323044275
      ],
      [
        "が無い",
        -9.511883449828629
      ],
      [
        "の中",
        -9.512546794039718
      ],
      [
        "制",
        -9.514457214776257
      ],
      [
        "治",
        -9.514659761940212
      ],
      [
        "内で",
        -9.516274176000486
      ],
      [
        "業",
        -9.51630540952576
      ],
      [
        "保存",
        -9.517045711341927
      ],
      [
        "はとても",
        -9.518925427571478
      ],
      [
        "の高い",
        -9.519005584114941
      ],
      [
        "ありがとうございます。",
        -9.519217760948035
      ],
      [
        "服",
        -9.519343165571932
      ],
      [
        "縁",
        -9.519545297291431
      ],
      [
        "反対",
        -9.520457532802437
      ],
      [
        "オープン",
        -9.520537205474458
      ],
      [
        "Google",
        -9.521250161045064
      ],
      [
        "入り",
        -9.521790332072552
      ],
      [
        "30分",
        -9.522111700927415
      ],
      [
        "件",
        -9.52280891714323
      ],
      [
        "身体",
        -9.52340123443794
      ],
      [
        "100",
        -9.523683926080288
      ],
      [
        "開",
        -9.524388133489458
      ],
      [
        "超",
        -9.524440839469733
      ],
      [
        "はかなり",
        -9.524800290418373
      ],
      [
        "携帯",
        -9.524822985220272
      ],
      [
        "手術",
        -9.524849280076376
      ],
      [
        "活躍",
        -9.525121155365225
      ],
      [
        "起こ",
        -9.525667685781471
      ],
      [
        "政治",
        -9.525737528580924
      ],
      [
        "時には",
        -9.526156086787104
      ],
      [
        "使える",
        -9.52644033675292
      ],
      [
        "家の",
        -9.528997916874136
      ],
      [
        "▁もちろん、",
        -9.529387656181203
      ],
      [
        "人物",
        -9.52953220433175
      ],
      [
        "える",
        -9.529631660386942
      ],
      [
        "人たち",
        -9.529740133402246
      ],
      [
        "シリーズ",
        -9.530269898721007
      ],
      [
        "壁",
        -9.530295435980968
      ],
      [
        "骨",
        -9.530852779199922
      ],
      [
        "断",
        -9.530890111606602
      ],
      [
        "通知",
        -9.530983478215894
      ],
      [
        "無理",
        -9.530989901511695
      ],
      [
        "名前",
        -9.53264915712407
      ],
      [
        "▁今回は",
        -9.532854255386196
      ],
      [
        "に関して",
        -9.533091410848629
      ],
      [
        "自分は",
        -9.53346520692265
      ],
      [
        "によって、",
        -9.535073689175277
      ],
      [
        "桜",
        -9.535114290376047
      ],
      [
        "5月",
        -9.535362030512822
      ],
      [
        "彼女は",
        -9.535463188760616
      ],
      [
        "るような",
        -9.535480478338737
      ],
      [
        "一つの",
        -9.536185240098597
      ],
      [
        "言",
        -9.536258799279942
      ],
      [
        "完全に",
        -9.536911010037398
      ],
      [
        "しましたが、",
        -9.53758630167556
      ],
      [
        "費用",
        -9.537868035154833
      ],
      [
        "近",
        -9.538211699868292
      ],
      [
        "もいい",
        -9.538298594129653
      ],
      [
        "負担",
        -9.539144138845513
      ],
      [
        "誰",
        -9.539263423839962
      ],
      [
        "ております。",
        -9.53963081339379
      ],
      [
        "根",
        -9.539898903437251
      ],
      [
        "批判",
        -9.540270182160393
      ],
      [
        "PC",
        -9.540285782629926
      ],
      [
        "趣味",
        -9.541496543709613
      ],
      [
        "があって、",
        -9.542578753222388
      ],
      [
        "浮気",
        -9.54288504993351
      ],
      [
        "してから",
        -9.543060347803838
      ],
      [
        "アカウント",
        -9.544082888004151
      ],
      [
        "しよう",
        -9.545616442734293
      ],
      [
        "作成",
        -9.547288594599465
      ],
      [
        "コン",
        -9.547724121678659
      ],
      [
        "条",
        -9.547848085299886
      ],
      [
        "er",
        -9.54818872300504
      ],
      [
        "千",
        -9.54835558199503
      ],
      [
        "ためには、",
        -9.548653399104882
      ],
      [
        "職",
        -9.549021518366644
      ],
      [
        "知って",
        -9.5491034894734
      ],
      [
        "明治",
        -9.549579056255421
      ],
      [
        "3日",
        -9.549635998098339
      ],
      [
        "以前",
        -9.550415018642648
      ],
      [
        "関係者",
        -9.550666328112502
      ],
      [
        "なければならない",
        -9.550999297959194
      ],
      [
        "の世界",
        -9.551790230067718
      ],
      [
        "制限",
        -9.551845151949484
      ],
      [
        "ことになります。",
        -9.552149233510132
      ],
      [
        "会社の",
        -9.552527427493857
      ],
      [
        "当時",
        -9.55290862941679
      ],
      [
        "訪問",
        -9.55379944632406
      ],
      [
        "なくなった",
        -9.554210914374842
      ],
      [
        "やめ",
        -9.556070686652902
      ],
      [
        "セ",
        -9.556625668932732
      ],
      [
        "日本で",
        -9.55739582830693
      ],
      [
        "示",
        -9.557628384601038
      ],
      [
        "を作る",
        -9.558661164112433
      ],
      [
        "患者",
        -9.558732208653044
      ],
      [
        "絶対に",
        -9.560189011130003
      ],
      [
        "たった",
        -9.560231976274903
      ],
      [
        "スタッフ",
        -9.560961746617998
      ],
      [
        "どのように",
        -9.561926139407454
      ],
      [
        "こともあります。",
        -9.562106433883585
      ],
      [
        "波",
        -9.562670622450906
      ],
      [
        "動作",
        -9.562786330376843
      ],
      [
        "要因",
        -9.56289515412519
      ],
      [
        "わかる",
        -9.563368820133043
      ],
      [
        "することが",
        -9.563476894295398
      ],
      [
        "暮らし",
        -9.563486916686717
      ],
      [
        "具体的な",
        -9.563760566376343
      ],
      [
        "魅力",
        -9.564067904986324
      ],
      [
        "実際",
        -9.565477674244235
      ],
      [
        "それほど",
        -9.565667083707162
      ],
      [
        "ック",
        -9.565680450851774
      ],
      [
        "などは",
        -9.565878801630102
      ],
      [
        "』と",
        -9.56596761011862
      ],
      [
        "要",
        -9.566009065643778
      ],
      [
        "込む",
        -9.566107653452862
      ],
      [
        "取得",
        -9.566250294422073
      ],
      [
        "当時の",
        -9.566564296582012
      ],
      [
        "悩み",
        -9.566591980501261
      ],
      [
        "得",
        -9.567574974653361
      ],
      [
        "ランキング",
        -9.56830171636839
      ],
      [
        "付き",
        -9.56856736315471
      ],
      [
        "権",
        -9.569809940299153
      ],
      [
        "十分",
        -9.570251455479447
      ],
      [
        "に向けて",
        -9.570806281559094
      ],
      [
        "間に",
        -9.571031889156696
      ],
      [
        "世",
        -9.571118800895212
      ],
      [
        "近く",
        -9.57125596825832
      ],
      [
        "ぞ",
        -9.571463684377175
      ],
      [
        "減",
        -9.571557022484278
      ],
      [
        "などに",
        -9.57156653941027
      ],
      [
        "でしょう",
        -9.571958016516167
      ],
      [
        "リンク",
        -9.57257286327752
      ],
      [
        "ご紹介",
        -9.572697463601052
      ],
      [
        "方に",
        -9.573132601033054
      ],
      [
        "コーヒー",
        -9.573740741223354
      ],
      [
        "宇宙",
        -9.573741043663954
      ],
      [
        "姿勢",
        -9.573853664743666
      ],
      [
        "自転車",
        -9.574692607875885
      ],
      [
        "できること",
        -9.575746668071725
      ],
      [
        "妹",
        -9.57582535517897
      ],
      [
        "を受ける",
        -9.576180895484136
      ],
      [
        "において、",
        -9.576280241287051
      ],
      [
        "予想",
        -9.576611270251144
      ],
      [
        "なし",
        -9.576786942827905
      ],
      [
        "Y",
        -9.578129173315482
      ],
      [
        "星",
        -9.57822184351961
      ],
      [
        "国民",
        -9.578631304463428
      ],
      [
        "ていた。",
        -9.578646719727805
      ],
      [
        "するという",
        -9.579499830698172
      ],
      [
        "るので、",
        -9.579764340713703
      ],
      [
        "雑誌",
        -9.580433755310118
      ],
      [
        "退",
        -9.580700161840898
      ],
      [
        "なのですが、",
        -9.581234031967933
      ],
      [
        "向け",
        -9.581234632454048
      ],
      [
        "県",
        -9.582415889924489
      ],
      [
        "られている",
        -9.58296584016026
      ],
      [
        "をもって",
        -9.58333861845846
      ],
      [
        "まる",
        -9.583751517626968
      ],
      [
        "無い",
        -9.58398123431044
      ],
      [
        "機関",
        -9.584220496369603
      ],
      [
        "節",
        -9.584466868954987
      ],
      [
        "当該",
        -9.58472974159736
      ],
      [
        "手数料",
        -9.58474014542297
      ],
      [
        "様に",
        -9.585282288099162
      ],
      [
        "いう",
        -9.586041442735864
      ],
      [
        "しようと",
        -9.586518344885935
      ],
      [
        "積極的に",
        -9.58689431216074
      ],
      [
        "すぎる",
        -9.58714312069253
      ],
      [
        "証明",
        -9.587280499433506
      ],
      [
        "結局",
        -9.587798098682436
      ],
      [
        "ものの、",
        -9.588179654391066
      ],
      [
        "言語",
        -9.589046938261866
      ],
      [
        "とした",
        -9.589421001163384
      ],
      [
        "があるので、",
        -9.589516275967473
      ],
      [
        "切り",
        -9.589533639446339
      ],
      [
        "基本",
        -9.590278098578617
      ],
      [
        "不倫",
        -9.590473870997464
      ],
      [
        "四",
        -9.591111150240334
      ],
      [
        "責任",
        -9.592094247666346
      ],
      [
        "失",
        -9.59213509451573
      ],
      [
        "続ける",
        -9.592152233959563
      ],
      [
        "必要があります。",
        -9.592231065897948
      ],
      [
        "借金",
        -9.592338961995942
      ],
      [
        "だけど、",
        -9.59291828582688
      ],
      [
        "脳",
        -9.59343511246794
      ],
      [
        "客",
        -9.593759444140812
      ],
      [
        "いつでも",
        -9.59428667962827
      ],
      [
        "血",
        -9.594512656625943
      ],
      [
        "戦略",
        -9.594564245834864
      ],
      [
        "、日本",
        -9.594651233846127
      ],
      [
        "程度の",
        -9.594859955797837
      ],
      [
        "彼女",
        -9.595117884383477
      ],
      [
        "返",
        -9.595786961738725
      ],
      [
        "もあり、",
        -9.59678315807264
      ],
      [
        "あたり",
        -9.59697539455557
      ],
      [
        "公園",
        -9.59735115370113
      ],
      [
        "してしまった",
        -9.597653583122446
      ],
      [
        "普通に",
        -9.598085639788192
      ],
      [
        "食べる",
        -9.5982815245416
      ],
      [
        "低",
        -9.598342069239795
      ],
      [
        "もう少し",
        -9.599082325590125
      ],
      [
        "いか",
        -9.59921508373898
      ],
      [
        "家に",
        -9.599343920555174
      ],
      [
        "別に",
        -9.599763908077993
      ],
      [
        "ください",
        -9.600672049274323
      ],
      [
        "保証",
        -9.600729660756322
      ],
      [
        "全国",
        -9.601053860135664
      ],
      [
        "考える",
        -9.60106883441479
      ],
      [
        "費",
        -9.60142644850181
      ],
      [
        "さんは",
        -9.601753067556842
      ],
      [
        "落",
        -9.601875359242385
      ],
      [
        "だと思う",
        -9.602067510781715
      ],
      [
        "の原因",
        -9.602589991554737
      ],
      [
        "が悪い",
        -9.603096566429745
      ],
      [
        "それだけ",
        -9.603301533838351
      ],
      [
        "笑",
        -9.603869147748895
      ],
      [
        "回答",
        -9.604292839036098
      ],
      [
        "恋",
        -9.604662818188002
      ],
      [
        "に入って",
        -9.60467275783362
      ],
      [
        "ほうが",
        -9.605101882116696
      ],
      [
        "します",
        -9.605191401632462
      ],
      [
        "できません。",
        -9.606115030276813
      ],
      [
        "▁なお、",
        -9.606448323878682
      ],
      [
        "2人",
        -9.606475325076456
      ],
      [
        "政策",
        -9.607015585022722
      ],
      [
        "ようと",
        -9.607102795920513
      ],
      [
        "科学",
        -9.607130729113145
      ],
      [
        "ボート",
        -9.607450353265715
      ],
      [
        "簡単な",
        -9.60780032338256
      ],
      [
        "とする",
        -9.608188194613888
      ],
      [
        "どうして",
        -9.608380404917035
      ],
      [
        "主人公",
        -9.609249795231918
      ],
      [
        "かれ",
        -9.609415388233916
      ],
      [
        "やり",
        -9.609592201077845
      ],
      [
        "弱",
        -9.610286482886693
      ],
      [
        "うちに",
        -9.61091074374902
      ],
      [
        "OS",
        -9.611262795625558
      ],
      [
        "することで",
        -9.611314593281232
      ],
      [
        "によると、",
        -9.612517294194497
      ],
      [
        "時は",
        -9.61310635536215
      ],
      [
        "注文",
        -9.613566547185687
      ],
      [
        "ほ",
        -9.613582927304975
      ],
      [
        "館",
        -9.61407993263126
      ],
      [
        "▁今回の",
        -9.614821677797831
      ],
      [
        "勝",
        -9.616229713553478
      ],
      [
        "帰り",
        -9.616355364572911
      ],
      [
        "メッセージ",
        -9.616583896015232
      ],
      [
        "を利用する",
        -9.616615235107972
      ],
      [
        "▁特に",
        -9.616735476215295
      ],
      [
        "h",
        -9.616745152340538
      ],
      [
        "そうした",
        -9.617184688146303
      ],
      [
        "校",
        -9.617371986941524
      ],
      [
        "皆さん",
        -9.617678365803746
      ],
      [
        "姿",
        -9.618097353973955
      ],
      [
        "ディ",
        -9.618157630713993
      ],
      [
        "末",
        -9.618215945157615
      ],
      [
        "新聞",
        -9.618314968985429
      ],
      [
        "いじめ",
        -9.618532035819737
      ],
      [
        "エリア",
        -9.61858574639161
      ],
      [
        "息子",
        -9.618874704512798
      ],
      [
        "アン",
        -9.620834651267245
      ],
      [
        "ようだ。",
        -9.620957598965411
      ],
      [
        "会場",
        -9.62124002682212
      ],
      [
        "決定",
        -9.621683315292016
      ],
      [
        "とりあえず",
        -9.622641575635352
      ],
      [
        "ポ",
        -9.623265552529663
      ],
      [
        "通常",
        -9.623357909717592
      ],
      [
        "彼女の",
        -9.623848128196473
      ],
      [
        "3年",
        -9.624173237763259
      ],
      [
        "削除",
        -9.624802942019597
      ],
      [
        "痛",
        -9.624912212138543
      ],
      [
        "あるいは",
        -9.625316763564783
      ],
      [
        "ということで",
        -9.625323637615109
      ],
      [
        "十",
        -9.625530107462335
      ],
      [
        "限り",
        -9.625537868549142
      ],
      [
        "▁ちなみに、",
        -9.628297914937281
      ],
      [
        "こうした",
        -9.628310371073084
      ],
      [
        "最後に",
        -9.628747332014195
      ],
      [
        "当社",
        -9.628761304676171
      ],
      [
        "レッスン",
        -9.62880576606234
      ],
      [
        "つけ",
        -9.62897965106266
      ],
      [
        "、それ",
        -9.629146179067291
      ],
      [
        "の場合、",
        -9.629317599684466
      ],
      [
        "栄養",
        -9.629587754679932
      ],
      [
        "▁ただ",
        -9.629797890200205
      ],
      [
        "テスト",
        -9.629959115956494
      ],
      [
        "数字",
        -9.630235579821484
      ],
      [
        "からだ。",
        -9.630618969455233
      ],
      [
        "指",
        -9.631854765144833
      ],
      [
        "40",
        -9.632206530881055
      ],
      [
        "転",
        -9.63288688582054
      ],
      [
        "つき",
        -9.633044504420969
      ],
      [
        "かけ",
        -9.6331937493139
      ],
      [
        "配信",
        -9.633674961173444
      ],
      [
        "実感",
        -9.633741120946983
      ],
      [
        "ることができます。",
        -9.633834088165802
      ],
      [
        "異",
        -9.63453673026919
      ],
      [
        "合い",
        -9.635768515326244
      ],
      [
        "京都",
        -9.637921640957426
      ],
      [
        "んですが、",
        -9.63797456162684
      ],
      [
        "紙",
        -9.638441664096659
      ],
      [
        "あれ",
        -9.639446730571514
      ],
      [
        "書類",
        -9.639501743189712
      ],
      [
        "寺",
        -9.639921610724521
      ],
      [
        "破",
        -9.640805306295652
      ],
      [
        "てる",
        -9.641093455215541
      ],
      [
        "世代",
        -9.641297874361477
      ],
      [
        "思い出",
        -9.641415048610565
      ],
      [
        "請求",
        -9.641465371665465
      ],
      [
        "デート",
        -9.641480147061792
      ],
      [
        "▁つまり、",
        -9.641505336128773
      ],
      [
        "試験",
        -9.641544047674962
      ],
      [
        "ひと",
        -9.64195761119188
      ],
      [
        "解釈",
        -9.641972382511597
      ],
      [
        "有効",
        -9.642358961905707
      ],
      [
        "、あるいは",
        -9.64340928967223
      ],
      [
        "に対して、",
        -9.643411565242442
      ],
      [
        "1ヶ月",
        -9.643566802884541
      ],
      [
        "13",
        -9.643933158388311
      ],
      [
        "市民",
        -9.64418690658016
      ],
      [
        "方法を",
        -9.644751330724072
      ],
      [
        "コミュニケーション",
        -9.645435578803005
      ],
      [
        "決して",
        -9.64544134259985
      ],
      [
        "ということで、",
        -9.64593661406024
      ],
      [
        "五",
        -9.646347787088947
      ],
      [
        "特別な",
        -9.646546037600618
      ],
      [
        "エネルギー",
        -9.647212277329341
      ],
      [
        "4日",
        -9.647511996369577
      ],
      [
        "記",
        -9.647767319931795
      ],
      [
        "ット",
        -9.647899786170083
      ],
      [
        "下記",
        -9.648451613764188
      ],
      [
        "ソ",
        -9.648515759307625
      ],
      [
        "なくても",
        -9.648783510765949
      ],
      [
        "平和",
        -9.649278305053544
      ],
      [
        "過",
        -9.650050084512873
      ],
      [
        "天皇",
        -9.651035265670984
      ],
      [
        "教室",
        -9.651336052698689
      ],
      [
        "記録",
        -9.651458970415646
      ],
      [
        "発行",
        -9.651544816076004
      ],
      [
        "下の",
        -9.652627992422605
      ],
      [
        "逃げ",
        -9.65332399381303
      ],
      [
        "日々",
        -9.653496095822192
      ],
      [
        "異なる",
        -9.65505615900893
      ],
      [
        "ものは",
        -9.65531980645169
      ],
      [
        "確実に",
        -9.655882259524086
      ],
      [
        "はあまり",
        -9.655885618827563
      ],
      [
        "そんなに",
        -9.655961425690284
      ],
      [
        "あり、",
        -9.65666467516833
      ],
      [
        "走",
        -9.657336340930254
      ],
      [
        "ひ",
        -9.657820313155732
      ],
      [
        "。しかし、",
        -9.658086017200896
      ],
      [
        "ゆっくり",
        -9.658137482650545
      ],
      [
        "」で",
        -9.658177909562161
      ],
      [
        "心の",
        -9.658354285455854
      ],
      [
        "しやすい",
        -9.658733974043253
      ],
      [
        "スキル",
        -9.6589715528389
      ],
      [
        "皆",
        -9.65908271656403
      ],
      [
        "かかる",
        -9.65921652440603
      ],
      [
        "ようになりました。",
        -9.659533927315037
      ],
      [
        "ヤ",
        -9.659994969335992
      ],
      [
        "なければ、",
        -9.66004412483681
      ],
      [
        "インド",
        -9.660401886267778
      ],
      [
        "11月",
        -9.660536299463894
      ],
      [
        "となっている",
        -9.661310692619354
      ],
      [
        "いくつか",
        -9.661344998256592
      ],
      [
        "されること",
        -9.661666258760402
      ],
      [
        "父",
        -9.662090256012862
      ],
      [
        "と思っています。",
        -9.662517654004667
      ],
      [
        "リン",
        -9.664710935291442
      ],
      [
        "習慣",
        -9.664945997472888
      ],
      [
        "毎年",
        -9.665022311060707
      ],
      [
        "全然",
        -9.665181356514196
      ],
      [
        "設計",
        -9.665253640009556
      ],
      [
        "研修",
        -9.66542511931474
      ],
      [
        "古",
        -9.66554620102619
      ],
      [
        "は、その",
        -9.666002631937463
      ],
      [
        "とにかく",
        -9.666145022991461
      ],
      [
        "持って",
        -9.666509960194567
      ],
      [
        "程",
        -9.667152281090127
      ],
      [
        "まれ",
        -9.667236578232401
      ],
      [
        "例えば",
        -9.66783607397976
      ],
      [
        "もあった",
        -9.668427597069932
      ],
      [
        "働き",
        -9.668954447328273
      ],
      [
        "人類",
        -9.670356168839778
      ],
      [
        "たりする",
        -9.670792293204912
      ],
      [
        "▁●",
        -9.671000449404994
      ],
      [
        "スター",
        -9.67117931749609
      ],
      [
        "話し",
        -9.671279719015807
      ],
      [
        "というのが",
        -9.671991024856622
      ],
      [
        "▁もちろん",
        -9.672410496828212
      ],
      [
        "しておく",
        -9.67274322784472
      ],
      [
        "▁◆",
        -9.673075507743595
      ],
      [
        "それに",
        -9.673293792222283
      ],
      [
        "満足",
        -9.67350339707116
      ],
      [
        "があって",
        -9.673927549427145
      ],
      [
        "落ち",
        -9.674229577654126
      ],
      [
        "買い",
        -9.675333941013232
      ],
      [
        "上げ",
        -9.675516567387533
      ],
      [
        "はほとんど",
        -9.675590384463401
      ],
      [
        "自信",
        -9.675632800985344
      ],
      [
        "余裕",
        -9.676081566013186
      ],
      [
        "おそらく",
        -9.676345665058175
      ],
      [
        "▁ここでは、",
        -9.67638063158629
      ],
      [
        "最大",
        -9.676400874058706
      ],
      [
        "動物",
        -9.676563037460644
      ],
      [
        "採用",
        -9.676660836093323
      ],
      [
        "層",
        -9.676667611031686
      ],
      [
        "士",
        -9.676678640337173
      ],
      [
        "ギ",
        -9.677019303447295
      ],
      [
        "ドル",
        -9.67709507743549
      ],
      [
        "しかない",
        -9.67710656078971
      ],
      [
        "井",
        -9.677117412328602
      ],
      [
        "議論",
        -9.67731553334646
      ],
      [
        "データベース",
        -9.677427273562735
      ],
      [
        "としても、",
        -9.67781076609247
      ],
      [
        "終わり",
        -9.678518633065519
      ],
      [
        "そのもの",
        -9.678891943350031
      ],
      [
        "取",
        -9.679040445351252
      ],
      [
        "簡単",
        -9.679378144046288
      ],
      [
        "▁今日は",
        -9.679475866225793
      ],
      [
        "付",
        -9.679532782041147
      ],
      [
        "は何",
        -9.679921437369927
      ],
      [
        "専門",
        -9.68001049999777
      ],
      [
        "話す",
        -9.680024510006067
      ],
      [
        "と思っていた",
        -9.680411622509288
      ],
      [
        "に向かって",
        -9.680505916722723
      ],
      [
        "もらう",
        -9.680770456518708
      ],
      [
        "までの",
        -9.681086925418091
      ],
      [
        "フリー",
        -9.681199351408093
      ],
      [
        "んだ。",
        -9.681756215376808
      ],
      [
        "▁2",
        -9.681801172317943
      ],
      [
        "のではなく、",
        -9.68199589585196
      ],
      [
        "おい",
        -9.682791519172639
      ],
      [
        "をし",
        -9.682882842386602
      ],
      [
        "_",
        -9.68337667917036
      ],
      [
        "どういう",
        -9.68343890588772
      ],
      [
        "交換",
        -9.683782950182845
      ],
      [
        "人を",
        -9.684061791056784
      ],
      [
        "いただいた",
        -9.684071609015511
      ],
      [
        "しています",
        -9.684089214297622
      ],
      [
        "んですけど、",
        -9.684161448322097
      ],
      [
        "好",
        -9.684183183070648
      ],
      [
        "はまだ",
        -9.68466241142667
      ],
      [
        "いましたが、",
        -9.685257699124367
      ],
      [
        "そこ",
        -9.685289051882666
      ],
      [
        "看護師",
        -9.685729235454788
      ],
      [
        "だけではなく、",
        -9.685875683105749
      ],
      [
        "受付",
        -9.686731660263863
      ],
      [
        "プレゼント",
        -9.68738895550668
      ],
      [
        "仕組み",
        -9.687416837806976
      ],
      [
        "ですね",
        -9.687446852620155
      ],
      [
        "器",
        -9.687476908162681
      ],
      [
        "ぼ",
        -9.687749789906903
      ],
      [
        "ではない。",
        -9.68800330535564
      ],
      [
        "太",
        -9.688153964385208
      ],
      [
        "建築",
        -9.68829103786305
      ],
      [
        "続け",
        -9.688311381878329
      ],
      [
        "限定",
        -9.68869025193144
      ],
      [
        "職業",
        -9.68869702486328
      ],
      [
        "人口",
        -9.688759469413554
      ],
      [
        "丸",
        -9.68934301245611
      ],
      [
        "クリーム",
        -9.689450905291334
      ],
      [
        "徐々に",
        -9.689475387599167
      ],
      [
        "なんだか",
        -9.689657544243886
      ],
      [
        "有名",
        -9.690415227338514
      ],
      [
        "様子",
        -9.690452312401147
      ],
      [
        "を食べ",
        -9.690569236137456
      ],
      [
        "1時間",
        -9.691503241743627
      ],
      [
        "ところに",
        -9.691660599283491
      ],
      [
        "売り",
        -9.692443522879795
      ],
      [
        "に関しては",
        -9.69284459071738
      ],
      [
        "金融機関",
        -9.693019299876504
      ],
      [
        "歩いて",
        -9.693390027727308
      ],
      [
        "出来",
        -9.694105989681537
      ],
      [
        "よりも、",
        -9.694754821332708
      ],
      [
        "が一番",
        -9.695283576432455
      ],
      [
        "ってしまう",
        -9.696111215757735
      ],
      [
        "今後",
        -9.69687112753688
      ],
      [
        "代表",
        -9.69752351476402
      ],
      [
        "軽",
        -9.699608414056513
      ],
      [
        "大きい",
        -9.699913104121066
      ],
      [
        "」です。",
        -9.700829361245674
      ],
      [
        "OK",
        -9.701031594380794
      ],
      [
        "だと、",
        -9.701685341845957
      ],
      [
        "▁もし",
        -9.701755548875873
      ],
      [
        "雪",
        -9.701811818267508
      ],
      [
        "魚",
        -9.701821064816087
      ],
      [
        "に来て",
        -9.701912731424176
      ],
      [
        "増",
        -9.702143670211532
      ],
      [
        "かつ",
        -9.702331836756274
      ],
      [
        "消",
        -9.702520542698146
      ],
      [
        "食品",
        -9.702625316816
      ],
      [
        "体制",
        -9.703417514388885
      ],
      [
        "まったく",
        -9.704628305277993
      ],
      [
        "ビル",
        -9.704647640427396
      ],
      [
        "こと。",
        -9.70540513195263
      ],
      [
        "出し",
        -9.705709157817298
      ],
      [
        "することができる",
        -9.705776504180683
      ],
      [
        "出来事",
        -9.706048044099173
      ],
      [
        "に行った",
        -9.706203858194492
      ],
      [
        "やり方",
        -9.706290045033871
      ],
      [
        "たちが",
        -9.706696364691215
      ],
      [
        "大事な",
        -9.706733456220901
      ],
      [
        "していますが、",
        -9.70703029126354
      ],
      [
        "は非常に",
        -9.707656616031576
      ],
      [
        "データを",
        -9.709618213405149
      ],
      [
        "を見つけ",
        -9.709783695344859
      ],
      [
        "形で",
        -9.709816977813531
      ],
      [
        "せずに",
        -9.711032371620004
      ],
      [
        "リング",
        -9.711474121379243
      ],
      [
        "くれ",
        -9.711941499881677
      ],
      [
        "終了",
        -9.712092381861286
      ],
      [
        "説",
        -9.712098625441229
      ],
      [
        "を使った",
        -9.712628572606857
      ],
      [
        "、今",
        -9.712676740537214
      ],
      [
        "ていて、",
        -9.712692066753974
      ],
      [
        "のもの",
        -9.71273723972887
      ],
      [
        "反",
        -9.713008230374747
      ],
      [
        "その他の",
        -9.71338759180377
      ],
      [
        "首",
        -9.71406749019837
      ],
      [
        "買取",
        -9.714135966393968
      ],
      [
        "高校",
        -9.714175312729825
      ],
      [
        "に出",
        -9.714399821981754
      ],
      [
        "始め",
        -9.714498697551326
      ],
      [
        "全ての",
        -9.714920884583833
      ],
      [
        "ここまで",
        -9.714951745323045
      ],
      [
        "企画",
        -9.71549375044118
      ],
      [
        "入会",
        -9.715828661874184
      ],
      [
        "と思われます。",
        -9.716941434868694
      ],
      [
        "。この",
        -9.716954741705962
      ],
      [
        "間の",
        -9.717695404553858
      ],
      [
        "ということは",
        -9.717705881063365
      ],
      [
        "6月",
        -9.718858044264731
      ],
      [
        "指摘",
        -9.7189941899864
      ],
      [
        "どうやって",
        -9.719345253256634
      ],
      [
        "リスト",
        -9.719544560162596
      ],
      [
        "待ち",
        -9.719670669682097
      ],
      [
        "耳",
        -9.719890853323564
      ],
      [
        "ザ",
        -9.720278194649227
      ],
      [
        "してもらう",
        -9.720390394621427
      ],
      [
        "本人",
        -9.720964109671565
      ],
      [
        "具体的に",
        -9.721232422693568
      ],
      [
        "最初は",
        -9.721510164391296
      ],
      [
        "有名な",
        -9.721733952240815
      ],
      [
        "そのため、",
        -9.722134026653038
      ],
      [
        "1人",
        -9.722233885393752
      ],
      [
        "しました",
        -9.722486467911203
      ],
      [
        "勝手に",
        -9.72252536335079
      ],
      [
        "もなく",
        -9.723554381031077
      ],
      [
        "の一部",
        -9.723630236339954
      ],
      [
        "彼が",
        -9.723820540739698
      ],
      [
        "を含む",
        -9.723840552107657
      ],
      [
        "派",
        -9.72401250875385
      ],
      [
        "合う",
        -9.724103104117152
      ],
      [
        "売却",
        -9.724173044598128
      ],
      [
        "左",
        -9.724715060519685
      ],
      [
        "マン",
        -9.724909916607617
      ],
      [
        "ことがある",
        -9.725066292913326
      ],
      [
        "距離",
        -9.725422141581893
      ],
      [
        "Web",
        -9.725506525239535
      ],
      [
        "総",
        -9.725669843575346
      ],
      [
        "時は、",
        -9.72569564310996
      ],
      [
        "平均",
        -9.7265007576737
      ],
      [
        "人気の",
        -9.726756724210023
      ],
      [
        "カメラ",
        -9.726857895209136
      ],
      [
        "温泉",
        -9.726986611918498
      ],
      [
        "収益",
        -9.726997566326453
      ],
      [
        "ならば",
        -9.72749938078747
      ],
      [
        "そういった",
        -9.727583881346295
      ],
      [
        "忘れ",
        -9.72776502342458
      ],
      [
        "全員",
        -9.727787760525771
      ],
      [
        "に必要な",
        -9.728082219185282
      ],
      [
        "まさに",
        -9.728142674567783
      ],
      [
        "辛い",
        -9.728359122486683
      ],
      [
        "内に",
        -9.728680296948621
      ],
      [
        "するために",
        -9.728944233788734
      ],
      [
        "全体",
        -9.72903729891015
      ],
      [
        "方も",
        -9.729432958831527
      ],
      [
        "以外",
        -9.730058237272658
      ],
      [
        "などが",
        -9.730232464487617
      ],
      [
        "秋",
        -9.730466900362835
      ],
      [
        "スト",
        -9.730510023567883
      ],
      [
        "いった",
        -9.7306617517741
      ],
      [
        "維持",
        -9.730959004494544
      ],
      [
        "絶対",
        -9.731999272419685
      ],
      [
        "次に",
        -9.732345221666096
      ],
      [
        "人間が",
        -9.732458140972824
      ],
      [
        "施術",
        -9.732515997852522
      ],
      [
        "ありがとうございました。",
        -9.733170083127373
      ],
      [
        "第2",
        -9.733516539992326
      ],
      [
        "疑問",
        -9.733574661916368
      ],
      [
        "生徒",
        -9.733791511166553
      ],
      [
        "誰でも",
        -9.733848632923227
      ],
      [
        "現代",
        -9.734342573632897
      ],
      [
        "チャンス",
        -9.734467313534546
      ],
      [
        "会議",
        -9.734859011751208
      ],
      [
        "普通",
        -9.735072683659364
      ],
      [
        "更に",
        -9.735295955746906
      ],
      [
        "してみましょう。",
        -9.735514395878416
      ],
      [
        "わけではない",
        -9.735793101788872
      ],
      [
        "の一つ",
        -9.735985444717066
      ],
      [
        "でした",
        -9.736053808725874
      ],
      [
        "実際の",
        -9.736152112567922
      ],
      [
        "メーカー",
        -9.736507196576163
      ],
      [
        "ある程度",
        -9.736574474477273
      ],
      [
        "と思っている",
        -9.737101803552896
      ],
      [
        "が良い",
        -9.737134360084024
      ],
      [
        "調",
        -9.737260052287665
      ],
      [
        "かも",
        -9.737274986468922
      ],
      [
        "茶",
        -9.738016448555097
      ],
      [
        "▁ここで",
        -9.738600034745936
      ],
      [
        "あなたは",
        -9.738628924493621
      ],
      [
        "賞",
        -9.738787185693674
      ],
      [
        "少しずつ",
        -9.7391684023439
      ],
      [
        "一般的な",
        -9.73954070507646
      ],
      [
        "裏",
        -9.739646746449829
      ],
      [
        "スタジオ",
        -9.739755010044384
      ],
      [
        "舞台",
        -9.739844558425602
      ],
      [
        "信用",
        -9.739864519320385
      ],
      [
        "バイト",
        -9.739928593856991
      ],
      [
        "立場",
        -9.740860529330382
      ],
      [
        "自分を",
        -9.74086606690332
      ],
      [
        "▁日本",
        -9.740878130475943
      ],
      [
        "関心",
        -9.741689499589988
      ],
      [
        "フォーム",
        -9.741829972842199
      ],
      [
        "番号",
        -9.74187473460946
      ],
      [
        "どれだけ",
        -9.742372111813962
      ],
      [
        "たくない",
        -9.742651198050606
      ],
      [
        "しい",
        -9.742984398144571
      ],
      [
        "その時",
        -9.74375010043806
      ],
      [
        "地方",
        -9.743850064236916
      ],
      [
        "を中心に",
        -9.743907859635605
      ],
      [
        "自ら",
        -9.743924908039162
      ],
      [
        "他人",
        -9.744195333418261
      ],
      [
        "を探",
        -9.74450222138308
      ],
      [
        "不動産",
        -9.744566105597514
      ],
      [
        "無料で",
        -9.744870691253972
      ],
      [
        ")」",
        -9.744923508098715
      ],
      [
        "他にも",
        -9.745005194455892
      ],
      [
        "幅",
        -9.745282487772737
      ],
      [
        "みなさん",
        -9.745716243013263
      ],
      [
        "隣",
        -9.745736809541313
      ],
      [
        "ようですが、",
        -9.74616440310657
      ],
      [
        "合わせ",
        -9.746227721195098
      ],
      [
        "できるように",
        -9.74676239182351
      ],
      [
        "電",
        -9.746767803953379
      ],
      [
        "ときは、",
        -9.746791052373057
      ],
      [
        "僕",
        -9.747367913089859
      ],
      [
        "されていない",
        -9.749851541851973
      ],
      [
        "国内",
        -9.749876009502586
      ],
      [
        "こういった",
        -9.749998241231665
      ],
      [
        "ライブ",
        -9.750073652800685
      ],
      [
        "」や「",
        -9.750095816950274
      ],
      [
        "橋",
        -9.751584377495755
      ],
      [
        "収",
        -9.751917865539074
      ],
      [
        "審査",
        -9.7521258453936
      ],
      [
        "なくても、",
        -9.752217832952972
      ],
      [
        "ヒ",
        -9.752432469024413
      ],
      [
        "胸",
        -9.752478659739733
      ],
      [
        "200",
        -9.752837647784927
      ],
      [
        "事務所",
        -9.752848699599552
      ],
      [
        "美しい",
        -9.75288079800632
      ],
      [
        "飲む",
        -9.753021842660836
      ],
      [
        "便利",
        -9.753078173318382
      ],
      [
        "タイム",
        -9.753105620748363
      ],
      [
        "に入る",
        -9.753310768978737
      ],
      [
        "つもり",
        -9.753697069886798
      ],
      [
        "学び",
        -9.753929436411397
      ],
      [
        "われ",
        -9.754251795346068
      ],
      [
        "監督",
        -9.754541183255753
      ],
      [
        "にあった",
        -9.75457895480562
      ],
      [
        "疲れ",
        -9.754811431089806
      ],
      [
        "くれた",
        -9.754891831074037
      ],
      [
        "保護",
        -9.756203442455078
      ],
      [
        "自動車",
        -9.756343991222177
      ],
      [
        "気持ちが",
        -9.756729558811324
      ],
      [
        "今では",
        -9.756730086385996
      ],
      [
        "ということは、",
        -9.756892233085354
      ],
      [
        "は、この",
        -9.757037373659653
      ],
      [
        "気に",
        -9.757100697250042
      ],
      [
        "と思われる",
        -9.75763739846385
      ],
      [
        "を受けた",
        -9.75814859612076
      ],
      [
        "▁それは",
        -9.758150559209621
      ],
      [
        "今後も",
        -9.758331230734145
      ],
      [
        "という。",
        -9.758332102714396
      ],
      [
        "を考え",
        -9.758518483669143
      ],
      [
        "アメリカの",
        -9.758808864727701
      ],
      [
        "女性が",
        -9.75900010188283
      ],
      [
        "切",
        -9.759026920807472
      ],
      [
        "売",
        -9.759214044285365
      ],
      [
        "買って",
        -9.75932217780339
      ],
      [
        "れた",
        -9.759692838712013
      ],
      [
        "誰も",
        -9.759886985317667
      ],
      [
        "詳しく",
        -9.760571915072909
      ],
      [
        "持っている",
        -9.76070921973519
      ],
      [
        "1回",
        -9.76108445452602
      ],
      [
        "があり",
        -9.76194951497871
      ],
      [
        "演奏",
        -9.761968932847854
      ],
      [
        "回復",
        -9.762631741107885
      ],
      [
        "団",
        -9.762958559803565
      ],
      [
        "利",
        -9.763274885023478
      ],
      [
        "サッカー",
        -9.763413073782615
      ],
      [
        "25日",
        -9.764305108627848
      ],
      [
        "相",
        -9.764310934100926
      ],
      [
        "初心者",
        -9.76443050027137
      ],
      [
        "門",
        -9.764702663165249
      ],
      [
        "ます!",
        -9.764951103117573
      ],
      [
        "2つ",
        -9.76495121441636
      ],
      [
        "高く",
        -9.76508227984348
      ],
      [
        "案内",
        -9.765250732933477
      ],
      [
        "都市",
        -9.765735782792186
      ],
      [
        "通信",
        -9.765922864584464
      ],
      [
        "入院",
        -9.766062048763743
      ],
      [
        "任",
        -9.766162897577594
      ],
      [
        "女の子",
        -9.76630928850664
      ],
      [
        "ますので",
        -9.766401928356277
      ],
      [
        "はじめ",
        -9.76683593233712
      ],
      [
        "普通の",
        -9.766973150172271
      ],
      [
        "に合わせて",
        -9.767078298049292
      ],
      [
        "知っている",
        -9.767761729009916
      ],
      [
        "良",
        -9.767762642430416
      ],
      [
        "もう一度",
        -9.76806442027684
      ],
      [
        "のでしょう。",
        -9.768416314305949
      ],
      [
        "自由に",
        -9.769735727825207
      ],
      [
        "商品の",
        -9.770253395702326
      ],
      [
        "1つ",
        -9.770453260506294
      ],
      [
        "ルール",
        -9.77047326600572
      ],
      [
        "つまり、",
        -9.77141527933955
      ],
      [
        "なお",
        -9.77193164253309
      ],
      [
        "今でも",
        -9.772585374633628
      ],
      [
        "手段",
        -9.772702834543178
      ],
      [
        "以下",
        -9.77275749983806
      ],
      [
        "11",
        -9.77298708881866
      ],
      [
        "日本は",
        -9.773227087815213
      ],
      [
        "25",
        -9.773329976274312
      ],
      [
        "馬",
        -9.773908903220306
      ],
      [
        "をお",
        -9.77438892398778
      ],
      [
        "到着",
        -9.774548835185275
      ],
      [
        "トイレ",
        -9.774893289756083
      ],
      [
        "撃",
        -9.775029954925564
      ],
      [
        "商品を",
        -9.775165027853806
      ],
      [
        "たかった",
        -9.775531780785665
      ],
      [
        "だけでも",
        -9.775701568427541
      ],
      [
        "類",
        -9.775881873061714
      ],
      [
        "の?",
        -9.775900758901662
      ],
      [
        "髪",
        -9.777121209632174
      ],
      [
        "を出す",
        -9.777532403964365
      ],
      [
        "本当の",
        -9.777572321627334
      ],
      [
        "聞いた",
        -9.777575741020225
      ],
      [
        "されている。",
        -9.777965282714227
      ],
      [
        "映像",
        -9.778250512709214
      ],
      [
        "ホーム",
        -9.778962300457867
      ],
      [
        "宮",
        -9.77901333822329
      ],
      [
        "漫画",
        -9.779054581316606
      ],
      [
        "美容",
        -9.779082411826543
      ],
      [
        "パートナー",
        -9.77926937864985
      ],
      [
        "駐車場",
        -9.779331660198412
      ],
      [
        "私たち",
        -9.779515341172445
      ],
      [
        "たのは",
        -9.779757163824435
      ],
      [
        "X",
        -9.78047352626416
      ],
      [
        "、それを",
        -9.780825177313393
      ],
      [
        "くらいの",
        -9.78091873171144
      ],
      [
        "場合があります。",
        -9.781661836630647
      ],
      [
        "▁このような",
        -9.78194805971944
      ],
      [
        "。。。",
        -9.781974234942366
      ],
      [
        "が多く",
        -9.782265049697479
      ],
      [
        "ひとつ",
        -9.782404447502907
      ],
      [
        "じゃ",
        -9.782451340260234
      ],
      [
        "二人",
        -9.783431467308226
      ],
      [
        "転職",
        -9.783817958370737
      ],
      [
        "来て",
        -9.784227364758658
      ],
      [
        "荷物",
        -9.784543972556687
      ],
      [
        "権利",
        -9.78576056761239
      ],
      [
        "の内容",
        -9.78615053926821
      ],
      [
        "禁止",
        -9.786413245046855
      ],
      [
        "こちらの",
        -9.787004876175992
      ],
      [
        "中には",
        -9.787086931769645
      ],
      [
        "上記",
        -9.78716947120029
      ],
      [
        "急に",
        -9.787475448791007
      ],
      [
        "変わり",
        -9.787691907709807
      ],
      [
        "ことができ",
        -9.787834164049826
      ],
      [
        "ワ",
        -9.787843796762868
      ],
      [
        "外国人",
        -9.788737706407613
      ],
      [
        "子供が",
        -9.78915731896743
      ],
      [
        "りました。",
        -9.789543361955992
      ],
      [
        "私たちの",
        -9.789984942184978
      ],
      [
        "利用する",
        -9.790213264549436
      ],
      [
        "引",
        -9.790987700842482
      ],
      [
        "公式",
        -9.7915069938744
      ],
      [
        "気軽に",
        -9.791690451437809
      ],
      [
        "ラン",
        -9.79199112193321
      ],
      [
        "の場合は、",
        -9.7921368172467
      ],
      [
        "シーズン",
        -9.792138231545835
      ],
      [
        "みて",
        -9.792595997553668
      ],
      [
        "カップ",
        -9.792623487620391
      ],
      [
        "季節",
        -9.79275065870624
      ],
      [
        "喜び",
        -9.792824534516784
      ],
      [
        "なんとか",
        -9.7928858812281
      ],
      [
        "対処",
        -9.79309943406794
      ],
      [
        "(^^)",
        -9.793426118148611
      ],
      [
        "てしまいました。",
        -9.79373154653194
      ],
      [
        "上昇",
        -9.793938112087003
      ],
      [
        "を通じて",
        -9.794020877252574
      ],
      [
        "1週間",
        -9.794179831359632
      ],
      [
        "だったら",
        -9.794244416416028
      ],
      [
        "休",
        -9.796308958797589
      ],
      [
        "弊社",
        -9.796367235134214
      ],
      [
        "継続",
        -9.796695978165355
      ],
      [
        "今日の",
        -9.797086539755295
      ],
      [
        "調整",
        -9.7971403633971
      ],
      [
        "際に",
        -9.797361457263698
      ],
      [
        "▁私は、",
        -9.797438103574738
      ],
      [
        "卒業",
        -9.797493171416887
      ],
      [
        "いらっしゃる",
        -9.797495928449573
      ],
      [
        "話を",
        -9.798304645308956
      ],
      [
        "ていますが、",
        -9.798363715205495
      ],
      [
        "▁[",
        -9.798597354154413
      ],
      [
        "右",
        -9.798943337389698
      ],
      [
        "ってこと",
        -9.799091098360323
      ],
      [
        "ときは",
        -9.799400071512402
      ],
      [
        "▁例えば、",
        -9.799507988956075
      ],
      [
        "からは",
        -9.799670738669217
      ],
      [
        "であった。",
        -9.79976616589006
      ],
      [
        "住宅",
        -9.799951913564978
      ],
      [
        "第一",
        -9.80039452533855
      ],
      [
        "されており、",
        -9.800517334332461
      ],
      [
        "を探す",
        -9.801083106481446
      ],
      [
        "できなかった",
        -9.801164503170853
      ],
      [
        "園",
        -9.801187439296967
      ],
      [
        "となりました。",
        -9.801441025093986
      ],
      [
        "こうして",
        -9.801689214183769
      ],
      [
        "展示",
        -9.801708640350629
      ],
      [
        "割",
        -9.802260220353705
      ],
      [
        "であると",
        -9.802418385925929
      ],
      [
        "医師",
        -9.802470858315946
      ],
      [
        "5年",
        -9.802700928094957
      ],
      [
        "番",
        -9.802811385819473
      ],
      [
        "北海道",
        -9.802913647346724
      ],
      [
        "速",
        -9.803528493487528
      ],
      [
        "方の",
        -9.803782925216236
      ],
      [
        "物件",
        -9.803891058322247
      ],
      [
        "対",
        -9.803967384069573
      ],
      [
        "2月",
        -9.803986293681742
      ],
      [
        "厳しい",
        -9.80407183964102
      ],
      [
        "になること",
        -9.804308374169434
      ],
      [
        "最近は",
        -9.804319011991037
      ],
      [
        "肉",
        -9.804611584889027
      ],
      [
        "ドラマ",
        -9.806316473402806
      ],
      [
        "船",
        -9.806433157606273
      ],
      [
        "できれば",
        -9.80646867637802
      ],
      [
        "腕",
        -9.806490174420507
      ],
      [
        "iPhone",
        -9.806495874675276
      ],
      [
        "評判",
        -9.806499648092167
      ],
      [
        "ログイン",
        -9.806522040600722
      ],
      [
        "もともと",
        -9.806553156262659
      ],
      [
        "にならない",
        -9.806882857207604
      ],
      [
        "翻訳",
        -9.80786712728839
      ],
      [
        "加",
        -9.807875713780913
      ],
      [
        "資料",
        -9.808766260253591
      ],
      [
        "のですが",
        -9.80908002336
      ],
      [
        "、私が",
        -9.809484731145734
      ],
      [
        "感染",
        -9.809600362616328
      ],
      [
        "を見せ",
        -9.809852869064034
      ],
      [
        "時に、",
        -9.80985443402902
      ],
      [
        "さんに",
        -9.809898308433027
      ],
      [
        "先の",
        -9.810188002142976
      ],
      [
        "を見た",
        -9.810237709968487
      ],
      [
        "がいる",
        -9.810668089517712
      ],
      [
        "理想",
        -9.810669020700704
      ],
      [
        "メモ",
        -9.81099718090624
      ],
      [
        "私には",
        -9.81104293144783
      ],
      [
        "普段",
        -9.811252198520933
      ],
      [
        "らせ",
        -9.811453114334181
      ],
      [
        "近い",
        -9.812124198808014
      ],
      [
        "系の",
        -9.812279009821667
      ],
      [
        "女性は",
        -9.81242465615274
      ],
      [
        "深く",
        -9.812793615936917
      ],
      [
        "2017年",
        -9.813535338490873
      ],
      [
        "お金を",
        -9.814088547652076
      ],
      [
        "を入れ",
        -9.814969422253357
      ],
      [
        "俺は",
        -9.815063402234813
      ],
      [
        "最高",
        -9.81519768931836
      ],
      [
        "過ごし",
        -9.815402324264463
      ],
      [
        "社員",
        -9.815900891383098
      ],
      [
        "ね!",
        -9.817726100072747
      ],
      [
        "!?",
        -9.817857129608006
      ],
      [
        "酒",
        -9.817985472694893
      ],
      [
        "してくれ",
        -9.81800651123391
      ],
      [
        "可能性があります。",
        -9.818138553293153
      ],
      [
        "感動",
        -9.81906984982546
      ],
      [
        "を利用して",
        -9.819220583327908
      ],
      [
        "読者",
        -9.819878193671531
      ],
      [
        "中央",
        -9.819988190467358
      ],
      [
        "の関係",
        -9.820162278555141
      ],
      [
        "SNS",
        -9.820197455817894
      ],
      [
        "箇所",
        -9.820379080994108
      ],
      [
        "通貨",
        -9.820389755557489
      ],
      [
        "副作用",
        -9.820395572233016
      ],
      [
        "限界",
        -9.820396504145355
      ],
      [
        "課題",
        -9.820510370263275
      ],
      [
        "だけでなく",
        -9.820795855027061
      ],
      [
        "面倒",
        -9.821412202961344
      ],
      [
        "70",
        -9.821433487083615
      ],
      [
        "てくれた",
        -9.82185100705265
      ],
      [
        "それも",
        -9.821932629277168
      ],
      [
        "気をつけ",
        -9.822093273382844
      ],
      [
        "比較的",
        -9.822265481040894
      ],
      [
        "なく、",
        -9.823120794269812
      ],
      [
        "食べて",
        -9.823316342184174
      ],
      [
        "中で",
        -9.823596387705726
      ],
      [
        "皆様",
        -9.823626556694066
      ],
      [
        "のほうが",
        -9.823791933630282
      ],
      [
        "報道",
        -9.824292612520054
      ],
      [
        "を取り",
        -9.824443447905761
      ],
      [
        "方向",
        -9.82461437561049
      ],
      [
        "影響",
        -9.824677932762869
      ],
      [
        "時間は",
        -9.825174013852019
      ],
      [
        "再び",
        -9.82559679211548
      ],
      [
        "査定",
        -9.826990607096956
      ],
      [
        "で「",
        -9.827162711107977
      ],
      [
        "続けて",
        -9.827753533270858
      ],
      [
        "授業",
        -9.828002260983633
      ],
      [
        "ター",
        -9.828076470131546
      ],
      [
        "何が",
        -9.828912860844593
      ],
      [
        "箱",
        -9.82995741117087
      ],
      [
        "項目",
        -9.830289496569915
      ],
      [
        "教え",
        -9.83034399310521
      ],
      [
        "心理",
        -9.830733988223152
      ],
      [
        "提出",
        -9.831319038901292
      ],
      [
        "用意",
        -9.831864375257538
      ],
      [
        "が出る",
        -9.83206049369818
      ],
      [
        "、他の",
        -9.832060704416715
      ],
      [
        "返済",
        -9.832627856621633
      ],
      [
        "する必要があります。",
        -9.832837771831398
      ],
      [
        "主義",
        -9.833034886282768
      ],
      [
        "のではないか",
        -9.833841102756576
      ],
      [
        "導入",
        -9.83384744980372
      ],
      [
        "インストール",
        -9.8339510955307
      ],
      [
        "源",
        -9.834108180638971
      ],
      [
        "引っ越し",
        -9.834201370165282
      ],
      [
        "m(_",
        -9.834333434976244
      ],
      [
        "鳥",
        -9.834397729924742
      ],
      [
        "空港",
        -9.83441785762404
      ],
      [
        "キャンセル",
        -9.834451182039135
      ],
      [
        "セミナー",
        -9.834463126723
      ],
      [
        "道路",
        -9.834585023428247
      ],
      [
        "を感じ",
        -9.83473096893147
      ],
      [
        "レストラン",
        -9.837142990073758
      ],
      [
        "心が",
        -9.83730269605131
      ],
      [
        "成果",
        -9.837578891534736
      ],
      [
        "なのだ。",
        -9.83792882981695
      ],
      [
        "だったので",
        -9.83806881608911
      ],
      [
        "▁そう",
        -9.838069331672115
      ],
      [
        "はどう",
        -9.838612638305468
      ],
      [
        "の日",
        -9.838668173070761
      ],
      [
        "が必要です。",
        -9.838876780337284
      ],
      [
        "保",
        -9.839060532097896
      ],
      [
        "の人",
        -9.839073006128153
      ],
      [
        "ダメ",
        -9.83969405991899
      ],
      [
        "のようです。",
        -9.839862497258789
      ],
      [
        "いれば",
        -9.83987458864594
      ],
      [
        "助け",
        -9.839932910121743
      ],
      [
        "女性の",
        -9.84023000738674
      ],
      [
        "思っている",
        -9.840577778936328
      ],
      [
        "スキンケア",
        -9.840632790814173
      ],
      [
        "こんなに",
        -9.84114073904989
      ],
      [
        "だという",
        -9.841365538314369
      ],
      [
        "試",
        -9.841653327809516
      ],
      [
        "のなら、",
        -9.841969380548056
      ],
      [
        "できるだけ",
        -9.842413494839228
      ],
      [
        "又は",
        -9.842501459839315
      ],
      [
        "相当",
        -9.842934206452002
      ],
      [
        "分野",
        -9.843205915663447
      ],
      [
        "当たり前",
        -9.84387388084746
      ],
      [
        "るもの",
        -9.843890175009756
      ],
      [
        "柄",
        -9.84405023473572
      ],
      [
        "(*",
        -9.844329905591115
      ],
      [
        "がありません。",
        -9.844416660234215
      ],
      [
        "に入った",
        -9.844497114191647
      ],
      [
        "王",
        -9.845164711631206
      ],
      [
        "沖縄",
        -9.845553177286206
      ],
      [
        "をしていた",
        -9.845791439707284
      ],
      [
        "5日",
        -9.845900455037665
      ],
      [
        "被害",
        -9.84618239520067
      ],
      [
        "体の",
        -9.846597475189988
      ],
      [
        "飲み",
        -9.846651589422498
      ],
      [
        "の意味",
        -9.847135390436577
      ],
      [
        "一部の",
        -9.847280141637054
      ],
      [
        "あって",
        -9.847508214578978
      ],
      [
        "にいる",
        -9.847556821856429
      ],
      [
        "字",
        -9.847739843754534
      ],
      [
        "来る",
        -9.847910889045252
      ],
      [
        "界",
        -9.848277879793983
      ],
      [
        "資産",
        -9.848620630726867
      ],
      [
        "鍵",
        -9.848643527348981
      ],
      [
        "覚え",
        -9.848689515589463
      ],
      [
        "スーパー",
        -9.848728981195746
      ],
      [
        "訓練",
        -9.848750058485958
      ],
      [
        "トレーニング",
        -9.848750095738499
      ],
      [
        "ネットワーク",
        -9.848862292641776
      ],
      [
        "お願い",
        -9.849383168018761
      ],
      [
        "深い",
        -9.849627025184045
      ],
      [
        "のであれば",
        -9.849770611275904
      ],
      [
        "ハイ",
        -9.84996113756595
      ],
      [
        "になる。",
        -9.850025370608982
      ],
      [
        "を持ち",
        -9.850462962395682
      ],
      [
        "払い",
        -9.850868882924722
      ],
      [
        "おく",
        -9.85104779339001
      ],
      [
        "の歴史",
        -9.851661965688336
      ],
      [
        "明日",
        -9.851743095793573
      ],
      [
        "していること",
        -9.851745413863702
      ],
      [
        "10日",
        -9.851984721714114
      ],
      [
        "させていただきます。",
        -9.852013668647212
      ],
      [
        "選択肢",
        -9.852034477720505
      ],
      [
        "お母さん",
        -9.852233463755852
      ],
      [
        "渡",
        -9.852680824130502
      ],
      [
        "お届け",
        -9.853317127106735
      ],
      [
        "▁私の",
        -9.853543609405644
      ],
      [
        "刺激",
        -9.854197201213436
      ],
      [
        "座",
        -9.854271423873701
      ],
      [
        "の際に",
        -9.854298857146954
      ],
      [
        "繰り返し",
        -9.854451606772846
      ],
      [
        "もしくは",
        -9.854543496118415
      ],
      [
        "やる",
        -9.854949110282432
      ],
      [
        "乱",
        -9.854954642399747
      ],
      [
        "は,",
        -9.855045472222614
      ],
      [
        "ゴ",
        -9.85542270685557
      ],
      [
        "の中で、",
        -9.856140620805133
      ],
      [
        "まして",
        -9.856358034912084
      ],
      [
        "日本人の",
        -9.856379347585126
      ],
      [
        "ける",
        -9.85643605991693
      ],
      [
        "が起き",
        -9.856610382991425
      ],
      [
        "(笑)。",
        -9.856678615209947
      ],
      [
        "進んで",
        -9.856735989921143
      ],
      [
        "未",
        -9.8571661075405
      ],
      [
        "まとめ",
        -9.857366683234122
      ],
      [
        "人には",
        -9.857542695749142
      ],
      [
        "値段",
        -9.858086068258913
      ],
      [
        "2つの",
        -9.858267999444465
      ],
      [
        "今、",
        -9.85876206456106
      ],
      [
        "なんだ",
        -9.858781135206996
      ],
      [
        "彼ら",
        -9.859610445600925
      ],
      [
        "範囲",
        -9.859929164760032
      ],
      [
        "てい",
        -9.85994843008838
      ],
      [
        "暗",
        -9.860153367496153
      ],
      [
        "理",
        -9.860273308790276
      ],
      [
        "拡大",
        -9.86033052748877
      ],
      [
        "巻",
        -9.860375069457064
      ],
      [
        "世界に",
        -9.860449605425185
      ],
      [
        "べ",
        -9.860541637953212
      ],
      [
        "についても",
        -9.860732572327391
      ],
      [
        "コード",
        -9.860735720644133
      ],
      [
        "ることは",
        -9.86083703556724
      ],
      [
        "編集",
        -9.86095027597042
      ],
      [
        "発見",
        -9.861237252330412
      ],
      [
        "息",
        -9.86149945787053
      ],
      [
        "6日",
        -9.86185524618979
      ],
      [
        "ることができる",
        -9.861912385180327
      ],
      [
        "攻撃",
        -9.861936797256346
      ],
      [
        "が出来",
        -9.86204733669145
      ],
      [
        "広く",
        -9.862333435680942
      ],
      [
        "傾向",
        -9.862456468908622
      ],
      [
        "ファ",
        -9.862584429351276
      ],
      [
        "夫婦",
        -9.862649009840041
      ],
      [
        "極",
        -9.862829216820074
      ],
      [
        "州",
        -9.863004767455486
      ],
      [
        "を見て、",
        -9.863062977346749
      ],
      [
        "底",
        -9.86309013802696
      ],
      [
        "クリスマス",
        -9.863141891460991
      ],
      [
        "床",
        -9.863211703114478
      ],
      [
        "雲",
        -9.863242034068808
      ],
      [
        "ツイッター",
        -9.863242058800218
      ],
      [
        "らしい。",
        -9.863341507894248
      ],
      [
        "送信",
        -9.863367341415772
      ],
      [
        "支払",
        -9.863390125783479
      ],
      [
        "怖い",
        -9.863540024838407
      ],
      [
        "つか",
        -9.863588613677088
      ],
      [
        "運用",
        -9.863642771345916
      ],
      [
        "日本人は",
        -9.863882723310272
      ],
      [
        "半分",
        -9.863898738689699
      ],
      [
        "であろう",
        -9.864118641336326
      ],
      [
        "俺",
        -9.864214695341186
      ],
      [
        "もありますが、",
        -9.864560676756396
      ],
      [
        "少なくとも",
        -9.864622474704602
      ],
      [
        "使い方",
        -9.8649618313944
      ],
      [
        "の流れ",
        -9.865412809112167
      ],
      [
        "と言われています。",
        -9.86604957100758
      ],
      [
        "送",
        -9.866391422661112
      ],
      [
        "にとっては",
        -9.866429664370086
      ],
      [
        "単に",
        -9.866731382287474
      ],
      [
        "彼らの",
        -9.86674395698794
      ],
      [
        "のかもしれません。",
        -9.86713994111768
      ],
      [
        "早い",
        -9.867199746458803
      ],
      [
        "ればいい",
        -9.867247395668706
      ],
      [
        "師",
        -9.867356329464947
      ],
      [
        "プラス",
        -9.867423251980767
      ],
      [
        "考え方",
        -9.86779982797098
      ],
      [
        "かと思います。",
        -9.868141901820577
      ],
      [
        "▁さらに、",
        -9.86848555756498
      ],
      [
        "方法で",
        -9.869428152174123
      ],
      [
        "それは、",
        -9.87013533725069
      ],
      [
        "10分",
        -9.87130164683726
      ],
      [
        "ませんが、",
        -9.871326143488476
      ],
      [
        "どちら",
        -9.871489477514427
      ],
      [
        "オススメ",
        -9.871597657834755
      ],
      [
        "[",
        -9.871659275539276
      ],
      [
        "いただく",
        -9.871926933531476
      ],
      [
        "せず、",
        -9.872146196965955
      ],
      [
        "止め",
        -9.872627019701387
      ],
      [
        "武",
        -9.872860518463934
      ],
      [
        "参加者",
        -9.87305556897465
      ],
      [
        "ちょうど",
        -9.873218992614088
      ],
      [
        "を見ると、",
        -9.874084071665227
      ],
      [
        "しても、",
        -9.874116118443219
      ],
      [
        "まま",
        -9.874264866198256
      ],
      [
        "信",
        -9.874682316201504
      ],
      [
        "もっとも",
        -9.874724156229554
      ],
      [
        "把握",
        -9.875155315036515
      ],
      [
        "▁だから、",
        -9.875164810112127
      ],
      [
        "▁-",
        -9.87648359349873
      ],
      [
        "計",
        -9.876571406591342
      ],
      [
        "によっては",
        -9.876580705501134
      ],
      [
        "犯罪",
        -9.877030471705144
      ],
      [
        "お仕事",
        -9.87728860299774
      ],
      [
        "、本当に",
        -9.877716623856994
      ],
      [
        "再生",
        -9.877838869815575
      ],
      [
        "実験",
        -9.877887119293348
      ],
      [
        "委員会",
        -9.877923375713715
      ],
      [
        "キャリア",
        -9.877945731761706
      ],
      [
        "講座",
        -9.877956966539823
      ],
      [
        "小説",
        -9.878191746360358
      ],
      [
        "今から",
        -9.878261878206754
      ],
      [
        "最後まで",
        -9.878505196432455
      ],
      [
        "CD",
        -9.878629127773802
      ],
      [
        "募集",
        -9.87869681181181
      ],
      [
        "。その",
        -9.878738234466216
      ],
      [
        "嫌",
        -9.879230009050955
      ],
      [
        "ライン",
        -9.879281906441268
      ],
      [
        "ご相談",
        -9.88006760143016
      ],
      [
        "という話",
        -9.880565647381061
      ],
      [
        "進化",
        -9.88057324312488
      ],
      [
        "分かって",
        -9.881041421093265
      ],
      [
        "1.",
        -9.881305500607734
      ],
      [
        "構成",
        -9.88146604655999
      ],
      [
        "何とか",
        -9.881840946001498
      ],
      [
        "なんで",
        -9.88206765643696
      ],
      [
        "しますが、",
        -9.882781631869712
      ],
      [
        "の記事",
        -9.88435771476276
      ],
      [
        "回数",
        -9.884849448639052
      ],
      [
        "現状",
        -9.885351535395738
      ],
      [
        "携帯電話",
        -9.886660496379662
      ],
      [
        "自分たちの",
        -9.887210557653777
      ],
      [
        "まで、",
        -9.887279057711003
      ],
      [
        "昨年",
        -9.887668439190824
      ],
      [
        "していて、",
        -9.887718245616973
      ],
      [
        "に近い",
        -9.888049665450446
      ],
      [
        "小学校",
        -9.888635320477931
      ],
      [
        "選",
        -9.8889534658843
      ],
      [
        "」と「",
        -9.888980773171017
      ],
      [
        "主に",
        -9.889037627344493
      ],
      [
        "の仕事",
        -9.889220708642085
      ],
      [
        "」は、",
        -9.889333664958022
      ],
      [
        "検証",
        -9.889930985666869
      ],
      [
        "見せ",
        -9.890114120847894
      ],
      [
        "お問い合わせ",
        -9.890995551969365
      ],
      [
        "乗り",
        -9.890997166052763
      ],
      [
        "おき",
        -9.891179265488889
      ],
      [
        "案",
        -9.891581607756551
      ],
      [
        "2日",
        -9.891885297670079
      ],
      [
        "列",
        -9.89188565933986
      ],
      [
        "裁判",
        -9.892162903161996
      ],
      [
        "トップ",
        -9.892244556592956
      ],
      [
        "技",
        -9.892395032760607
      ],
      [
        "一回",
        -9.892758949240367
      ],
      [
        "予防",
        -9.892851006902477
      ],
      [
        "アルバム",
        -9.892873322984011
      ],
      [
        "ようやく",
        -9.892893621701866
      ],
      [
        "ブロック",
        -9.89292218824248
      ],
      [
        "▁そこで、",
        -9.892930771347723
      ],
      [
        "ツアー",
        -9.892937516197819
      ],
      [
        "観光地",
        -9.893287395668182
      ],
      [
        "作った",
        -9.893407453433483
      ],
      [
        "君",
        -9.893432078823496
      ],
      [
        "時間帯",
        -9.893589520864847
      ],
      [
        "僕が",
        -9.89369935304337
      ],
      [
        "ネットで",
        -9.893816478016573
      ],
      [
        "女子",
        -9.893846527978791
      ],
      [
        "ですから",
        -9.89401132881757
      ],
      [
        "ようで",
        -9.894516364944383
      ],
      [
        "発展",
        -9.894955749407842
      ],
      [
        "1番",
        -9.895966465310767
      ],
      [
        "個",
        -9.896441479569663
      ],
      [
        "地元",
        -9.896705179212997
      ],
      [
        "これも",
        -9.896904656343139
      ],
      [
        "に関しては、",
        -9.896941451756621
      ],
      [
        "相手が",
        -9.898240791067376
      ],
      [
        "頂いた",
        -9.898669068187436
      ],
      [
        "大切",
        -9.899694480886641
      ],
      [
        "あります",
        -9.900193614819967
      ],
      [
        "があれば、",
        -9.900208220314383
      ],
      [
        "▁私が",
        -9.900274116041938
      ],
      [
        "00",
        -9.900565229697268
      ],
      [
        "倍",
        -9.901025994038445
      ],
      [
        "はっきり",
        -9.901080369007385
      ],
      [
        "することができ",
        -9.901089076440059
      ],
      [
        "を通して",
        -9.901600086954598
      ],
      [
        "取り組み",
        -9.901700410601489
      ],
      [
        "を持った",
        -9.901818060713838
      ],
      [
        "だと思って",
        -9.902130967193322
      ],
      [
        "口座",
        -9.902630162395734
      ],
      [
        "宿",
        -9.903096824669769
      ],
      [
        "en",
        -9.904275163610741
      ],
      [
        "可能な",
        -9.904540458426455
      ],
      [
        "選び",
        -9.906420263281646
      ],
      [
        "定義",
        -9.907019064854044
      ],
      [
        "(木)",
        -9.907125887788002
      ],
      [
        "段",
        -9.907403601235046
      ],
      [
        "5分",
        -9.907443121231351
      ],
      [
        "松",
        -9.907458369113227
      ],
      [
        "大統領",
        -9.907829595259548
      ],
      [
        "兄",
        -9.90795102439963
      ],
      [
        "LINE",
        -9.90802483346333
      ],
      [
        "閲覧",
        -9.908025268831622
      ],
      [
        "セックス",
        -9.908044130824766
      ],
      [
        "するか",
        -9.908080330993688
      ],
      [
        "と言えます。",
        -9.908080906844525
      ],
      [
        "と考える",
        -9.908195026122979
      ],
      [
        "ってくる",
        -9.90860292193237
      ],
      [
        "電気",
        -9.90866449980229
      ],
      [
        "an",
        -9.909246657035407
      ],
      [
        "!」と",
        -9.909489715587199
      ],
      [
        "たちは",
        -9.909803623135378
      ],
      [
        "古い",
        -9.909815864375613
      ],
      [
        "ガン",
        -9.909820474561387
      ],
      [
        "てきました。",
        -9.909986260996854
      ],
      [
        "もので、",
        -9.910156930816218
      ],
      [
        "キング",
        -9.911002439397459
      ],
      [
        "債務整理",
        -9.911098994664261
      ],
      [
        "見た目",
        -9.911660643075162
      ],
      [
        "掛け",
        -9.911731384254947
      ],
      [
        "困難",
        -9.91232815440651
      ],
      [
        "タイ",
        -9.912514941067927
      ],
      [
        "▁こんな",
        -9.913358177676638
      ],
      [
        "んですよ。",
        -9.913755676857832
      ],
      [
        "一体",
        -9.913830177974134
      ],
      [
        "x",
        -9.913840399598875
      ],
      [
        "放",
        -9.914300321022782
      ],
      [
        "or",
        -9.91487370871398
      ],
      [
        ")と",
        -9.91495143276483
      ],
      [
        "輸入",
        -9.915691098903366
      ],
      [
        "残り",
        -9.915698734348712
      ],
      [
        "思って",
        -9.915861426059504
      ],
      [
        "元気",
        -9.915924902723592
      ],
      [
        "▁3",
        -9.91614583343425
      ],
      [
        "きっかけ",
        -9.91681968987209
      ],
      [
        "より、",
        -9.917182344936489
      ],
      [
        "の影響",
        -9.917237595094939
      ],
      [
        "意",
        -9.917514437235024
      ],
      [
        "お客さん",
        -9.91761683073342
      ],
      [
        "共有",
        -9.917733379194424
      ],
      [
        "を与え",
        -9.918042455292975
      ],
      [
        "基本的に",
        -9.918473665551787
      ],
      [
        "休み",
        -9.91873641116167
      ],
      [
        "の状態",
        -9.918829463318414
      ],
      [
        "ご利用",
        -9.918970537324851
      ],
      [
        "にする",
        -9.919262345882428
      ],
      [
        "減少",
        -9.91939268393899
      ],
      [
        "本当",
        -9.919587122269833
      ],
      [
        "のではないでしょうか?",
        -9.91972040482769
      ],
      [
        "の間に",
        -9.920179335897318
      ],
      [
        "していきます。",
        -9.920277496637912
      ],
      [
        "弾",
        -9.920473647488063
      ],
      [
        "お客様に",
        -9.920916488486847
      ],
      [
        "言っている",
        -9.920924683762491
      ],
      [
        "もらった",
        -9.92099607888203
      ],
      [
        "ことでしょう。",
        -9.921116922344623
      ],
      [
        "証",
        -9.921992620901271
      ],
      [
        "中、",
        -9.922134718473512
      ],
      [
        "コントロール",
        -9.922346914137137
      ],
      [
        "▁――",
        -9.92248606644401
      ],
      [
        "づくり",
        -9.922505579589217
      ],
      [
        "便利な",
        -9.923053458954884
      ],
      [
        "素材",
        -9.923275013468398
      ],
      [
        "インフレータブル",
        -9.923409441849273
      ],
      [
        "パターン",
        -9.923431935824365
      ],
      [
        "野菜",
        -9.92344765809116
      ],
      [
        "奥",
        -9.923569598397346
      ],
      [
        "向上",
        -9.924025136044204
      ],
      [
        "タイミング",
        -9.924810345056244
      ],
      [
        "久",
        -9.924901631753638
      ],
      [
        "」って",
        -9.92495354192206
      ],
      [
        "も多い",
        -9.924990322923982
      ],
      [
        "設置",
        -9.925567035640553
      ],
      [
        "実践",
        -9.925870562231609
      ],
      [
        "宿泊",
        -9.925943986847372
      ],
      [
        "の場合",
        -9.926100264087397
      ],
      [
        "の間",
        -9.92638966477659
      ],
      [
        "約束",
        -9.927904685844585
      ],
      [
        "品質",
        -9.928467160185349
      ],
      [
        "の時間",
        -9.928503967066924
      ],
      [
        "の様子",
        -9.92877926245809
      ],
      [
        "の為に",
        -9.929395904179806
      ],
      [
        "むしろ",
        -9.929723064288112
      ],
      [
        "のお",
        -9.930143099657265
      ],
      [
        "サン",
        -9.930187442957916
      ],
      [
        "同意",
        -9.930378932827072
      ],
      [
        "の方は",
        -9.93067810873447
      ],
      [
        "とともに",
        -9.93221655844323
      ],
      [
        "始めた",
        -9.93230642070252
      ],
      [
        "60",
        -9.932852923170541
      ],
      [
        "守",
        -9.933165388172581
      ],
      [
        "するような",
        -9.933433389743954
      ],
      [
        "ますか?",
        -9.933586943929424
      ],
      [
        "▁そこで",
        -9.93362027479419
      ],
      [
        "早",
        -9.933670654169465
      ],
      [
        "致します。",
        -9.933985529562399
      ],
      [
        "態度",
        -9.934153430139542
      ],
      [
        "ないこと",
        -9.934181188145214
      ],
      [
        "的には",
        -9.934426194404157
      ],
      [
        "職場",
        -9.934766990067727
      ],
      [
        "両親",
        -9.935122420623136
      ],
      [
        "交流",
        -9.935823867422412
      ],
      [
        "注目",
        -9.935836794335849
      ],
      [
        "つい",
        -9.936176726986826
      ],
      [
        "戸",
        -9.9366095260885
      ],
      [
        "苦労",
        -9.937333811483484
      ],
      [
        "そうですが、",
        -9.937550883649518
      ],
      [
        "同じような",
        -9.937701152851599
      ],
      [
        "。そして",
        -9.937721250785884
      ],
      [
        "についての",
        -9.93797128688637
      ],
      [
        "するように",
        -9.937972916600064
      ],
      [
        "の利用",
        -9.938051585347093
      ],
      [
        "可愛い",
        -9.938239515085412
      ],
      [
        "現地",
        -9.938257069872474
      ],
      [
        "▁僕は",
        -9.938774627227414
      ],
      [
        "許可",
        -9.938807519715898
      ],
      [
        "多くの人が",
        -9.938922967620087
      ],
      [
        "鑑定",
        -9.938932095329763
      ],
      [
        "旧",
        -9.939021230831322
      ],
      [
        "スマートフォン",
        -9.939035645951662
      ],
      [
        "キャラクター",
        -9.939063893960313
      ],
      [
        "飛行機",
        -9.939088444225185
      ],
      [
        "死ぬ",
        -9.939131592073688
      ],
      [
        "現場",
        -9.939304354404118
      ],
      [
        "下さい",
        -9.939435896295935
      ],
      [
        "と思い",
        -9.939597426252071
      ],
      [
        "いただけ",
        -9.940237818375138
      ],
      [
        "んですよね。",
        -9.940510296658061
      ],
      [
        "たちの",
        -9.940668327955139
      ],
      [
        "3つの",
        -9.940835330947575
      ],
      [
        "アジア",
        -9.941499061058481
      ],
      [
        "30日",
        -9.941527783829432
      ],
      [
        "2回",
        -9.94155447577012
      ],
      [
        "正直",
        -9.941954850716614
      ],
      [
        "」ということ",
        -9.942310100583647
      ],
      [
        "になると、",
        -9.9424028026865
      ],
      [
        "したもの",
        -9.943461394092374
      ],
      [
        "ありました。",
        -9.9437541937336
      ],
      [
        "ことが多い",
        -9.943761156908362
      ],
      [
        "働く",
        -9.943797928624566
      ],
      [
        "の高さ",
        -9.943952873891263
      ],
      [
        "の上に",
        -9.944542804630352
      ],
      [
        "見られる",
        -9.944793220632626
      ],
      [
        "ショップ",
        -9.94506823216705
      ],
      [
        "、または",
        -9.945082073627901
      ],
      [
        "乗",
        -9.94549009931243
      ],
      [
        "最大の",
        -9.94734845404107
      ],
      [
        "ができ",
        -9.947368198000504
      ],
      [
        "決め",
        -9.947827669188843
      ],
      [
        "▁“",
        -9.948596405289386
      ],
      [
        "出る",
        -9.949234768054314
      ],
      [
        "ったり",
        -9.949481757655665
      ],
      [
        "目を",
        -9.949626751400316
      ],
      [
        "かけて",
        -9.949733570421639
      ],
      [
        "工場",
        -9.949819351000958
      ],
      [
        "労働",
        -9.95024028681706
      ],
      [
        "10年",
        -9.95032879837234
      ],
      [
        "登場",
        -9.951011274397917
      ],
      [
        "妊娠",
        -9.951199217898122
      ],
      [
        "といっても",
        -9.951416852702144
      ],
      [
        "することを",
        -9.951457132764984
      ],
      [
        "を変える",
        -9.951458762858463
      ],
      [
        "させた",
        -9.951558306616983
      ],
      [
        "感想",
        -9.951593832241038
      ],
      [
        "他に",
        -9.951952288388055
      ],
      [
        "赤",
        -9.952202261246683
      ],
      [
        "んじゃないか",
        -9.952261089645013
      ],
      [
        "前提",
        -9.952299554231306
      ],
      [
        "いただける",
        -9.9523656370867
      ],
      [
        "進",
        -9.952390265237572
      ],
      [
        "密",
        -9.952398783003279
      ],
      [
        "昼",
        -9.952456197638863
      ],
      [
        "、とても",
        -9.952486746413397
      ],
      [
        "どうぞ",
        -9.952498705084222
      ],
      [
        "人が多い",
        -9.953685427449354
      ],
      [
        "みる",
        -9.953903944094698
      ],
      [
        "うつ病",
        -9.954147701123015
      ],
      [
        "協力",
        -9.954172828168094
      ],
      [
        "人々の",
        -9.954381082046508
      ],
      [
        "規定",
        -9.954452361550086
      ],
      [
        "ベ",
        -9.954771656167622
      ],
      [
        "ヨーロッパ",
        -9.954907457722218
      ],
      [
        "実績",
        -9.954907457744458
      ],
      [
        "DVD",
        -9.954907501286701
      ],
      [
        "決済",
        -9.954913175705158
      ],
      [
        "義務",
        -9.954937752378122
      ],
      [
        "特典",
        -9.954945045382914
      ],
      [
        "ロシア",
        -9.95494689607451
      ],
      [
        "ざ",
        -9.955146234688861
      ],
      [
        "個人の",
        -9.955158394032278
      ],
      [
        "利用できる",
        -9.955404936797166
      ],
      [
        "までは",
        -9.95566210565444
      ],
      [
        "最高の",
        -9.955779841053756
      ],
      [
        "広い",
        -9.955839808455908
      ],
      [
        "局",
        -9.956547466485457
      ],
      [
        "ところが",
        -9.957439049954688
      ],
      [
        "最初から",
        -9.957557154621362
      ],
      [
        ")は、",
        -9.957584850107638
      ],
      [
        "どこ",
        -9.957754300033415
      ],
      [
        "色々と",
        -9.957826553346251
      ],
      [
        "なった",
        -9.958027463030493
      ],
      [
        "詳細",
        -9.958178453055655
      ],
      [
        "韓国人",
        -9.958207752965556
      ],
      [
        "3ヶ月",
        -9.95866564880173
      ],
      [
        "ついて",
        -9.958889063981166
      ],
      [
        "可能性がある",
        -9.958963008346075
      ],
      [
        "薄毛",
        -9.959139375045108
      ],
      [
        "集",
        -9.959473525994124
      ],
      [
        "路",
        -9.959652985913202
      ],
      [
        "であること",
        -9.960453830843463
      ],
      [
        "替え",
        -9.96066923505592
      ],
      [
        "24",
        -9.961413878902373
      ],
      [
        "バイ",
        -9.961808745293201
      ],
      [
        "を感じる",
        -9.962546734738062
      ],
      [
        "の方に",
        -9.963283370624243
      ],
      [
        "Z",
        -9.964187851980228
      ],
      [
        "配",
        -9.96450951339206
      ],
      [
        "されない",
        -9.964994004521017
      ],
      [
        "ましたので、",
        -9.965102857386047
      ],
      [
        "する方法",
        -9.965355443675632
      ],
      [
        "お知らせ",
        -9.96541686983509
      ],
      [
        "が出来る",
        -9.965976800557218
      ],
      [
        "います",
        -9.966099734567575
      ],
      [
        "記事を",
        -9.966180851799175
      ],
      [
        "だし、",
        -9.966433341761764
      ],
      [
        "を読んで",
        -9.966779811026385
      ],
      [
        "いろいろと",
        -9.966932954883898
      ],
      [
        "昭和",
        -9.967216421713648
      ],
      [
        "ろう",
        -9.96740885794917
      ],
      [
        "、日本の",
        -9.967412064596495
      ],
      [
        "接続",
        -9.967907667356226
      ],
      [
        "くて",
        -9.96808662168693
      ],
      [
        "める",
        -9.968188969200503
      ],
      [
        "聞く",
        -9.968394118186056
      ],
      [
        "まあ、",
        -9.968568736901045
      ],
      [
        "いっぱい",
        -9.96923002388968
      ],
      [
        "後は",
        -9.969571590393642
      ],
      [
        "法人",
        -9.96958645944521
      ],
      [
        "マンション",
        -9.969610933202386
      ],
      [
        "みた",
        -9.970136273073344
      ],
      [
        "改めて",
        -9.970174704477653
      ],
      [
        "医者",
        -9.970248966844464
      ],
      [
        "22日",
        -9.97025212658954
      ],
      [
        "タイプの",
        -9.97069849811602
      ],
      [
        "その他",
        -9.970718085340597
      ],
      [
        "発言",
        -9.970740716419273
      ],
      [
        "キャンプ",
        -9.970819397155221
      ],
      [
        "買う",
        -9.970859188699873
      ],
      [
        "政権",
        -9.970970186138791
      ],
      [
        "規制",
        -9.97103131506017
      ],
      [
        "わざわざ",
        -9.97103648960978
      ],
      [
        "何らかの",
        -9.971064311631359
      ],
      [
        "新規",
        -9.971076080695056
      ],
      [
        "観光客",
        -9.971092627319393
      ],
      [
        "ランチ",
        -9.971116753294769
      ],
      [
        "おいしい",
        -9.971120909294369
      ],
      [
        "ご飯",
        -9.97116199298143
      ],
      [
        "ビール",
        -9.971230521643562
      ],
      [
        "周年",
        -9.971376773715331
      ],
      [
        "お前",
        -9.971402334033018
      ],
      [
        "北朝鮮",
        -9.971453123943341
      ],
      [
        "すぎて",
        -9.971485449354958
      ],
      [
        "20年",
        -9.971626767712582
      ],
      [
        "▁私も",
        -9.971671059305585
      ],
      [
        "神社",
        -9.97193767658942
      ],
      [
        "変わる",
        -9.972396727871555
      ],
      [
        "中国の",
        -9.97262379855725
      ],
      [
        "オン",
        -9.972647118417882
      ],
      [
        "効果が",
        -9.97270335684321
      ],
      [
        "現",
        -9.972857485824779
      ],
      [
        "出版",
        -9.973151913516872
      ],
      [
        "してい",
        -9.973243028998848
      ],
      [
        "するもの",
        -9.974069852347082
      ],
      [
        "通常の",
        -9.974258202249626
      ],
      [
        "仕事の",
        -9.974480358733034
      ],
      [
        "無く",
        -9.975375149728919
      ],
      [
        "を求める",
        -9.975465723453015
      ],
      [
        "内容を",
        -9.97584107717728
      ],
      [
        "、特に",
        -9.97585908118393
      ],
      [
        "事態",
        -9.976134125142007
      ],
      [
        "患者さん",
        -9.976506339562839
      ],
      [
        "向か",
        -9.978395597820633
      ],
      [
        "昨日",
        -9.979288099951768
      ],
      [
        "12日",
        -9.979551922575354
      ],
      [
        "世間",
        -9.980604729662275
      ],
      [
        "▁...2018年07月",
        -9.980877714188692
      ],
      [
        "人々が",
        -9.980959621181345
      ],
      [
        "あなたに",
        -9.98109276951272
      ],
      [
        "以上に",
        -9.981365515275957
      ],
      [
        "であっても",
        -9.981662310288083
      ],
      [
        "恐れ",
        -9.981792543919983
      ],
      [
        "電話番号",
        -9.98197477402788
      ],
      [
        "re",
        -9.982379821008827
      ],
      [
        "と呼ばれる",
        -9.98249843317295
      ],
      [
        "けれど",
        -9.982529765800013
      ],
      [
        "笑顔",
        -9.98297580740254
      ],
      [
        "よね。",
        -9.983006019854173
      ],
      [
        "いき",
        -9.983136638723973
      ],
      [
        "義",
        -9.983195577752634
      ],
      [
        "教えて",
        -9.98360272547399
      ],
      [
        "彼女が",
        -9.983797479512873
      ],
      [
        "自宅",
        -9.983866519711789
      ],
      [
        "も多く",
        -9.983889766368923
      ],
      [
        "であっても、",
        -9.98410841948785
      ],
      [
        "睡眠",
        -9.98427192137773
      ],
      [
        "っていう",
        -9.984478712939705
      ],
      [
        "最近の",
        -9.984619226109228
      ],
      [
        "見え",
        -9.984789464107745
      ],
      [
        "作用",
        -9.985348098210931
      ],
      [
        "細胞",
        -9.985586387553987
      ],
      [
        "体調",
        -9.985638889452261
      ],
      [
        "腹",
        -9.985778800365985
      ],
      [
        "今後の",
        -9.98582645930529
      ],
      [
        "時代の",
        -9.986375912949136
      ],
      [
        "の中から",
        -9.986471231555932
      ],
      [
        "がとても",
        -9.986556245235874
      ],
      [
        "男女",
        -9.986581036888206
      ],
      [
        "使っている",
        -9.986684963854318
      ],
      [
        "少ない",
        -9.98672449429891
      ],
      [
        "シャ",
        -9.986841581969053
      ],
      [
        "政",
        -9.98691914091306
      ],
      [
        "布",
        -9.987034044882376
      ],
      [
        "お気軽に",
        -9.987074362899047
      ],
      [
        "フィ",
        -9.987111848828572
      ],
      [
        "を受けて",
        -9.98722957688521
      ],
      [
        "長期",
        -9.98733732850446
      ],
      [
        "交渉",
        -9.987373858112235
      ],
      [
        "あらかじめ",
        -9.987415550827583
      ],
      [
        "プロセス",
        -9.98743008042586
      ],
      [
        "混乱",
        -9.987461098151435
      ],
      [
        "お子さん",
        -9.987861997050391
      ],
      [
        "ることが",
        -9.988256495417437
      ],
      [
        "問題は",
        -9.988325206771613
      ],
      [
        "一覧",
        -9.988839651545991
      ],
      [
        "自分自身",
        -9.989020253455163
      ],
      [
        "側の",
        -9.989289875026774
      ],
      [
        "テーブル",
        -9.989366242989766
      ],
      [
        "させていただきました。",
        -9.989566627279949
      ],
      [
        "過去に",
        -9.989783330136511
      ],
      [
        "なか",
        -9.990088085756305
      ],
      [
        "メールアドレス",
        -9.990271160420804
      ],
      [
        "、お",
        -9.990307150193912
      ],
      [
        ">",
        -9.990323743325487
      ],
      [
        "交",
        -9.991584953448093
      ],
      [
        "事に",
        -9.99198067928392
      ],
      [
        "整理",
        -9.992315995097659
      ],
      [
        "向き",
        -9.992460693678728
      ],
      [
        "診断",
        -9.992810350292995
      ],
      [
        "』の",
        -9.992882731086695
      ],
      [
        "苦",
        -9.992980828207592
      ],
      [
        "悪く",
        -9.993207874032624
      ],
      [
        "からも",
        -9.99438816667864
      ],
      [
        "次回",
        -9.994397252634748
      ],
      [
        "第3",
        -9.994759194954323
      ],
      [
        "近くの",
        -9.994841980161546
      ],
      [
        "物を",
        -9.994901299841565
      ],
      [
        "、さらに",
        -9.995416272634479
      ],
      [
        "無駄",
        -9.995851244584031
      ],
      [
        "宗教",
        -9.996312599296264
      ],
      [
        "住民",
        -9.99668696980172
      ],
      [
        "なのに",
        -9.997077886168112
      ],
      [
        "夕方",
        -9.997276682155487
      ],
      [
        "数値",
        -9.997738710578982
      ],
      [
        "ID",
        -9.997868227613797
      ],
      [
        "屋さん",
        -9.998001352670258
      ],
      [
        "鑑賞",
        -9.99844544413946
      ],
      [
        "誰か",
        -9.99885165794618
      ],
      [
        "連",
        -9.999469502564676
      ],
      [
        "使",
        -9.99959428183842
      ],
      [
        "就職",
        -10.001548328039185
      ],
      [
        "張",
        -10.001745260728438
      ],
      [
        "大学の",
        -10.001746122242475
      ],
      [
        "乾燥",
        -10.001804716285672
      ],
      [
        "▁今まで",
        -10.002008859969326
      ],
      [
        "死亡",
        -10.002199931977874
      ],
      [
        "ますよね。",
        -10.002814604534397
      ],
      [
        "余",
        -10.002896950259776
      ],
      [
        "ありますが、",
        -10.003026165418555
      ],
      [
        "の言葉",
        -10.00318247207927
      ],
      [
        "立って",
        -10.00338098510022
      ],
      [
        "21",
        -10.003504101923344
      ],
      [
        "んだけど、",
        -10.003609114436866
      ],
      [
        "スピード",
        -10.003676174637947
      ],
      [
        "ますが",
        -10.003693179062147
      ],
      [
        "メイク",
        -10.003740210948383
      ],
      [
        "すら",
        -10.00388210873267
      ],
      [
        "生きている",
        -10.003914220773042
      ],
      [
        "人達",
        -10.003954159638884
      ],
      [
        "章",
        -10.003967614892495
      ],
      [
        "八",
        -10.004050249268666
      ],
      [
        "のだと思います。",
        -10.004217104875067
      ],
      [
        "しかも",
        -10.00423335925451
      ],
      [
        "食料",
        -10.004253130888657
      ],
      [
        "テロ",
        -10.00428383083506
      ],
      [
        "シート",
        -10.004353855075992
      ],
      [
        "お互い",
        -10.004385750954258
      ],
      [
        "いきなり",
        -10.00440487387596
      ],
      [
        "歩",
        -10.004688741954917
      ],
      [
        "調子",
        -10.004708448746335
      ],
      [
        "一気に",
        -10.004775757745215
      ],
      [
        "ヘ",
        -10.004810484105768
      ],
      [
        "物質",
        -10.004875772845885
      ],
      [
        "かわいい",
        -10.004949492106487
      ],
      [
        "利用者",
        -10.005287348902737
      ],
      [
        "うち",
        -10.005393114482803
      ],
      [
        "段階",
        -10.005521222034059
      ],
      [
        "自身の",
        -10.006350114088363
      ],
      [
        "言葉を",
        -10.006459566935863
      ],
      [
        "追い",
        -10.00706348996669
      ],
      [
        "ずつ",
        -10.00778952571094
      ],
      [
        ")で",
        -10.008191907637322
      ],
[...]
