{
  "version": "1.0",
  "truncation": null,
  "padding": null,
  "added_tokens": [
    {
      "id": 0,
      "content": "[UNK]",
      "single_word": false,
      "lstrip": false,
      "rstrip": false,
      "normalized": false,
      "special": true
    },
    {
      "id": 1,
      "content": "[CLS]",
      "single_word": false,
      "lstrip": false,
      "rstrip": false,
      "normalized": false,
      "special": true
    },
    {
      "id": 2,
      "content": "[SEP]",
      "single_word": false,
      "lstrip": false,
      "rstrip": false,
      "normalized": false,
      "special": true
    },
    {
      "id": 3,
      "content": "[PAD]",
      "single_word": false,
      "lstrip": false,
      "rstrip": false,
      "normalized": false,
      "special": true
    },
    {
      "id": 4,
      "content": "[MASK]",
      "single_word": false,
      "lstrip": false,
      "rstrip": false,
      "normalized": false,
      "special": true
    }
  ],
  "normalizer": {
    "type": "Sequence",
    "normalizers": [
      {
        "type": "Nmt"
      },
      {
        "type": "NFKC"
      },
      {
        "type": "Replace",
        "pattern": {
          "Regex": " {2,}"
        },
        "content": " "
      }
    ]
  },
  "pre_tokenizer": {
    "type": "Metaspace",
    "replacement": "▁",
    "prepend_scheme": "always",
    "split": true
  },
  "post_processor": null,
  "decoder": {
    "type": "Metaspace",
    "replacement": "▁",
    "prepend_scheme": "always",
    "split": true
  },
  "model": {
    "type": "Unigram",
    "unk_id": 0,
    "vocab": [
      [
        "[UNK]",
        0.0
      ],
      [
        "[CLS]",
        0.0
      ],
      [
        "[SEP]",
        0.0
      ],
      [
        "[PAD]",
        0.0
      ],
      [
        "[MASK]",
        0.0
      ],
      [
        "▁",
        -2.825360129756712
      ],
      [
        ",",
        -2.95964676953748
      ],
      [
        ".",
        -3.562742764346565
      ],
      [
        "▁в",
        -3.854038858763321
      ],
      [
        "▁и",
        -3.917194033337543
      ],
      [
        "▁не",
        -4.433976859684732
      ],
      [
        "▁на",
        -4.497958131527248
      ],
      [
        "а",
        -4.49937638787199
      ],
      [
        "▁с",
        -4.787522121519
      ],
      [
        "е",
        -4.825471855527049
      ],
      [
        "и",
        -4.854368929443657
      ],
      [
        "▁что",
        -4.894714353897516
      ],
      [
        "▁по",
        -5.071362643548229
      ],
      [
        "я",
        -5.240949096741987
      ],
      [
        "▁-",
        -5.364506659755278
      ],
      [
        "м",
        -5.375491663262336
      ],
      [
        "▁от",
        -5.627741533008161
      ],
      [
        "й",
        -5.628656038835393
      ],
      [
        "▁как",
        -5.632061645015517
      ],
      [
        "▁за",
        -5.6405099256159055
      ],
      [
        "▁В",
        -5.682063329452461
      ],
      [
        "▁к",
        -5.686593209010946
      ],
      [
        "▁о",
        -5.740766006481099
      ],
      [
        "▁для",
        -5.7429601514581865
      ],
      [
        "▁это",
        -5.758661265233902
      ],
      [
        ":",
        -5.764554707584468
      ],
      [
        "▁—",
        -5.799710610292539
      ],
      [
        "о",
        -5.836433400654219
      ],
      [
        "▁–",
        -5.86171138846607
      ],
      [
        "х",
        -5.86572998107148
      ],
      [
        "у",
        -5.90101921207205
      ],
      [
        "▁из",
        -5.917355779364986
      ],
      [
        "▁у",
        -5.97002531461413
      ],
      [
        "?",
        -6.046811871778791
      ],
      [
        "ы",
        -6.1056141264550075
      ],
      [
        "▁он",
        -6.130778504970982
      ],
      [
        "▁все",
        -6.150564086458401
      ],
      [
        "▁но",
        -6.153006662513752
      ],
      [
        "-",
        -6.15600562606793
      ],
      [
        "▁его",
        -6.1665690539438085
      ],
      [
        "▁вы",
        -6.18396105827102
      ],
      [
        "▁или",
        -6.1941559198633165
      ],
      [
        "▁так",
        -6.257163637476728
      ],
      [
        "▁при",
        -6.281601984439844
      ],
      [
        "...",
        -6.310947893459904
      ],
      [
        ")",
        -6.317793383048931
      ],
      [
        "▁до",
        -6.3842976471363
      ],
      [
        "го",
        -6.394516677429072
      ],
      [
        "»",
        -6.398834327353772
      ],
      [
        "▁то",
        -6.398983809882001
      ],
      [
        "▁И",
        -6.421788823872559
      ],
      [
        "ом",
        -6.434903834437375
      ],
      [
        "▁же",
        -6.443326220632057
      ],
      [
        "▁А",
        -6.445779142653464
      ],
      [
        "в",
        -6.489967454291536
      ],
      [
        "▁только",
        -6.5254928082364
      ],
      [
        "!",
        -6.531367078519448
      ],
      [
        "▁(",
        -6.5446978032742535
      ],
      [
        "с",
        -6.546371660066853
      ],
      [
        "▁«",
        -6.546881189120731
      ],
      [
        "▁если",
        -6.610759248434077
      ],
      [
        "▁бы",
        -6.624381884634808
      ],
      [
        "ов",
        -6.642572314961365
      ],
      [
        "▁их",
        -6.6448724863081985
      ],
      [
        "▁Я",
        -6.6570123531256495
      ],
      [
        "▁было",
        -6.667935878463799
      ],
      [
        "▁мы",
        -6.683756427286427
      ],
      [
        "▁может",
        -6.716777768870129
      ],
      [
        "▁чтобы",
        -6.7180278249292495
      ],
      [
        "▁Но",
        -6.750703672219048
      ],
      [
        "т",
        -6.762376861783276
      ],
      [
        "▁можно",
        -6.763869174602549
      ],
      [
        "▁будет",
        -6.7656003245450425
      ],
      [
        "ся",
        -6.795916110960537
      ],
      [
        "ой",
        -6.801628865494353
      ],
      [
        "▁есть",
        -6.81499959163509
      ],
      [
        "\"",
        -6.816781704218899
      ],
      [
        "▁она",
        -6.8256630981233855
      ],
      [
        "▁С",
        -6.8261481741068
      ],
      [
        "▁уже",
        -6.842942058135655
      ],
      [
        "▁они",
        -6.849066923466426
      ],
      [
        "▁которые",
        -6.856127261316299
      ],
      [
        "▁быть",
        -6.862980513258876
      ],
      [
        "ю",
        -6.866462641791983
      ],
      [
        "▁раз",
        -6.889595670162569
      ],
      [
        ";",
        -6.890542223099974
      ],
      [
        "ми",
        -6.8974581741439405
      ],
      [
        "▁этом",
        -6.906398671148676
      ],
      [
        "▁под",
        -6.957718704255246
      ],
      [
        "▁об",
        -6.985309724936988
      ],
      [
        "▁ее",
        -6.987149937815079
      ],
      [
        "▁когда",
        -6.987604625416473
      ],
      [
        "▁время",
        -6.987907259879794
      ],
      [
        "▁меня",
        -7.015182491727693
      ],
      [
        "▁со",
        -7.025795965408429
      ],
      [
        "▁очень",
        -7.0321853805872845
      ],
      [
        "▁Это",
        -7.03799321430845
      ],
      [
        "▁На",
        -7.038444456459969
      ],
      [
        "▁был",
        -7.048277425563853
      ],
      [
        "ных",
        -7.051007541938757
      ],
      [
        "▁\"",
        -7.055682962173629
      ],
      [
        "▁Если",
        -7.060990085478647
      ],
      [
        "▁еще",
        -7.064471513377017
      ],
      [
        "▁По",
        -7.090524520950611
      ],
      [
        "▁также",
        -7.0965299137412785
      ],
      [
        "▁чем",
        -7.102240050739269
      ],
      [
        "▁мне",
        -7.111764060614647
      ],
      [
        ").",
        -7.118416715372868
      ],
      [
        "ные",
        -7.123169707812856
      ],
      [
        "к",
        -7.135369769826196
      ],
      [
        "н",
        -7.143947064784465
      ],
      [
        "▁более",
        -7.154681784101303
      ],
      [
        "▁этого",
        -7.161213156746243
      ],
      [
        "ной",
        -7.178226578685818
      ],
      [
        "но",
        -7.182411560301643
      ],
      [
        "▁Не",
        -7.21098763680137
      ],
      [
        "▁про",
        -7.213722055002389
      ],
      [
        "▁без",
        -7.228790849580971
      ],
      [
        "▁во",
        -7.2289403020320595
      ],
      [
        "▁того,",
        -7.230522786285041
      ],
      [
        "▁года",
        -7.254807643025607
      ],
      [
        "ая",
        -7.256201973394845
      ],
      [
        "▁даже",
        -7.270693762439203
      ],
      [
        "▁У",
        -7.273508212361664
      ],
      [
        "ный",
        -7.277056644281677
      ],
      [
        "ей",
        -7.321386355890981
      ],
      [
        "».",
        -7.323112155123967
      ],
      [
        "ного",
        -7.331769268165051
      ],
      [
        "▁ты",
        -7.3461208577461985
      ],
      [
        "▁Вы",
        -7.3465232065576345
      ],
      [
        "▁Он",
        -7.357807010587882
      ],
      [
        "▁ли",
        -7.36106548251254
      ],
      [
        "▁1",
        -7.361524136419584
      ],
      [
        "▁ни",
        -7.362882016479558
      ],
      [
        "▁просто",
        -7.381081060411166
      ],
      [
        "▁том,",
        -7.382522512286741
      ],
      [
        "ли",
        -7.383242376569813
      ],
      [
        "▁себя",
        -7.390162058506181
      ],
      [
        "▁который",
        -7.3924490567360515
      ],
      [
        "▁г.",
        -7.396472896956601
      ],
      [
        "▁после",
        -7.404793525126951
      ],
      [
        "▁тем",
        -7.408043374557332
      ],
      [
        "ная",
        -7.422888229983107
      ],
      [
        "л",
        -7.427840726956129
      ],
      [
        "▁нужно",
        -7.451521968686922
      ],
      [
        "на",
        -7.461397389856753
      ],
      [
        "▁были",
        -7.463363116914804
      ],
      [
        "▁нас",
        -7.463551598351788
      ],
      [
        "),",
        -7.464204268653647
      ],
      [
        "ет",
        -7.4642133520018845
      ],
      [
        "»,",
        -7.48410837354308
      ],
      [
        "а.",
        -7.4849537236077115
      ],
      [
        "▁При",
        -7.491780761708977
      ],
      [
        "▁К",
        -7.492934283455636
      ],
      [
        "▁Как",
        -7.497937232374376
      ],
      [
        "ую",
        -7.5006263824704575
      ],
      [
        "▁них",
        -7.510566879968778
      ],
      [
        "▁была",
        -7.51652103844242
      ],
      [
        "▁2",
        -7.5456391122570015
      ],
      [
        "▁вам",
        -7.5460629055456145
      ],
      [
        "▁где",
        -7.559243238296517
      ],
      [
        "▁всех",
        -7.563609336376727
      ],
      [
        "ого",
        -7.571180300046233
      ],
      [
        "▁могут",
        -7.588179609285344
      ],
      [
        "ть",
        -7.596830391890936
      ],
      [
        "▁является",
        -7.598463037375769
      ],
      [
        "▁больше",
        -7.603716828225407
      ],
      [
        "▁ему",
        -7.611529524828338
      ],
      [
        "▁этот",
        -7.62691974576448
      ],
      [
        "▁кто",
        -7.6278309853213315
      ],
      [
        "ка",
        -7.634910084305677
      ],
      [
        "▁вас",
        -7.63843671465861
      ],
      [
        "▁всего",
        -7.663477404609795
      ],
      [
        "ами",
        -7.666007327456159
      ],
      [
        "ем",
        -7.671481910018375
      ],
      [
        "▁пере",
        -7.672476504025127
      ],
      [
        "▁О",
        -7.682912607177281
      ],
      [
        "▁лет",
        -7.6990631452760265
      ],
      [
        "▁то,",
        -7.70521542024659
      ],
      [
        "▁один",
        -7.70972120805061
      ],
      [
        "▁случае",
        -7.71177528855576
      ],
      [
        "ную",
        -7.714863098059913
      ],
      [
        "▁этой",
        -7.72387082403584
      ],
      [
        "▁Так",
        -7.726597451665828
      ],
      [
        "▁много",
        -7.731654351878957
      ],
      [
        "д",
        -7.738734843803112
      ],
      [
        "ки",
        -7.74017908262681
      ],
      [
        "ным",
        -7.741564301622676
      ],
      [
        "ы,",
        -7.752841306419029
      ],
      [
        "▁него",
        -7.75354846221402
      ],
      [
        "▁вот",
        -7.784117351143408
      ],
      [
        "ых",
        -7.7844508486286035
      ],
      [
        "ла",
        -7.794994504500821
      ],
      [
        "▁Для",
        -7.801239861980148
      ],
      [
        "▁3",
        -7.805322446449736
      ],
      [
        "му",
        -7.806896045481249
      ],
      [
        "▁РФ",
        -7.8097822682889415
      ],
      [
        "▁которых",
        -7.81380641285509
      ],
      [
        "ь",
        -7.821102135258007
      ],
      [
        "ые",
        -7.831193565069732
      ],
      [
        "▁За",
        -7.841767398710067
      ],
      [
        "ый",
        -7.843435089158403
      ],
      [
        "▁том",
        -7.847061760923239
      ],
      [
        "▁N",
        -7.85505027851217
      ],
      [
        "▁работы",
        -7.855760526085906
      ],
      [
        "▁через",
        -7.860528964182333
      ],
      [
        "▁нет",
        -7.86052908392279
      ],
      [
        "▁всегда",
        -7.864330752801749
      ],
      [
        "▁там",
        -7.8654540277628175
      ],
      [
        "ное",
        -7.870527376089461
      ],
      [
        "▁несколько",
        -7.872423459486919
      ],
      [
        "▁России",
        -7.8780129701055
      ],
      [
        "▁Мы",
        -7.880031278101866
      ],
      [
        "▁эти",
        -7.884365707852524
      ],
      [
        "▁себе",
        -7.886376008152766
      ],
      [
        "▁году",
        -7.888717660369757
      ],
      [
        "▁потому",
        -7.888874479637382
      ],
      [
        "▁ничего",
        -7.89651606664283
      ],
      [
        "е.",
        -7.8998691411022435
      ],
      [
        "▁Что",
        -7.900032564994499
      ],
      [
        "▁должны",
        -7.909456214673689
      ],
      [
        "▁надо",
        -7.911916553754859
      ],
      [
        "▁именно",
        -7.917948535058155
      ],
      [
        "▁No",
        -7.929964130892458
      ],
      [
        "▁сейчас",
        -7.933629304080581
      ],
      [
        "▁тоже",
        -7.934753011224609
      ],
      [
        "▁других",
        -7.939638492235915
      ],
      [
        "▁которая",
        -7.945497475759417
      ],
      [
        "▁между",
        -7.948163041774118
      ],
      [
        "▁5",
        -7.958858176004714
      ],
      [
        "▁будут",
        -7.960323704370648
      ],
      [
        "▁Все",
        -7.962820706912934
      ],
      [
        "▁10",
        -7.96895044985488
      ],
      [
        "\".",
        -7.97849783133838
      ],
      [
        "▁своей",
        -7.97884959747776
      ],
      [
        "▁такой",
        -7.981331086427073
      ],
      [
        "ов,",
        -7.987556001767789
      ],
      [
        "ах",
        -7.994768875766379
      ],
      [
        "/",
        -7.9961975995373376
      ],
      [
        "▁Она",
        -7.997655408687031
      ],
      [
        "▁должен",
        -8.012092739156124
      ],
      [
        "▁человек",
        -8.013843277365833
      ],
      [
        "г",
        -8.013998069769633
      ],
      [
        "▁свою",
        -8.018893176695952
      ],
      [
        "▁Российской",
        -8.02161707637497
      ],
      [
        "▁свои",
        -8.028507379068039
      ],
      [
        "▁необходимо",
        -8.038671879183683
      ],
      [
        "ют",
        -8.0519137871798
      ],
      [
        "▁тех",
        -8.056135583742531
      ],
      [
        "▁здесь",
        -8.063818218530189
      ],
      [
        "▁лишь",
        -8.07447902431048
      ],
      [
        "▁жизни",
        -8.077073061556188
      ],
      [
        "з",
        -8.08384973533737
      ],
      [
        "ном",
        -8.091488817802002
      ],
      [
        "▁4",
        -8.096588060991934
      ],
      [
        "р",
        -8.09666598571989
      ],
      [
        "\",",
        -8.098564791948519
      ],
      [
        "▁пока",
        -8.101503827346598
      ],
      [
        "▁области",
        -8.105205231467847
      ],
      [
        "▁день",
        -8.105667558756009
      ],
      [
        "▁всё",
        -8.123801482294974
      ],
      [
        "▁что-то",
        -8.133407609040574
      ],
      [
        "у,",
        -8.13460873748317
      ],
      [
        "▁перед",
        -8.1407915752392
      ],
      [
        "ам",
        -8.155435366334947
      ],
      [
        "им",
        -8.164285730012445
      ],
      [
        "▁связи",
        -8.164810406194135
      ],
      [
        "▁имеет",
        -8.166196229453584
      ],
      [
        "ку",
        -8.172993532336855
      ],
      [
        "сти",
        -8.175655573436025
      ],
      [
        "▁сделать",
        -8.180357318521905
      ],
      [
        "▁тот",
        -8.181156979696125
      ],
      [
        "­",
        -8.184355092050373
      ],
      [
        "▁своих",
        -8.187329161561301
      ],
      [
        "▁которой",
        -8.194042297830164
      ],
      [
        "▁Федерации",
        -8.194770861181144
      ],
      [
        "ными",
        -8.212117179514474
      ],
      [
        "▁сказал",
        -8.212255954631605
      ],
      [
        "▁соответствии",
        -8.215764340278001
      ],
      [
        "▁нам",
        -8.219351254203447
      ],
      [
        "не",
        -8.219666697232814
      ],
      [
        "ни",
        -8.221267261642096
      ],
      [
        "▁этих",
        -8.225175845059276
      ],
      [
        "▁потом",
        -8.233937158532875
      ],
      [
        "▁того",
        -8.251485388277562
      ],
      [
        "▁теперь",
        -8.261117359035387
      ],
      [
        "▁стоит",
        -8.263560378076347
      ],
      [
        "▁Однако",
        -8.263687663030941
      ],
      [
        "▁времени",
        -8.267018434026259
      ],
      [
        "ж",
        -8.272430289654777
      ],
      [
        "ым",
        -8.274494213977063
      ],
      [
        "▁им",
        -8.274960450648328
      ],
      [
        "▁хотя",
        -8.275110313460605
      ],
      [
        "ло",
        -8.27856771883828
      ],
      [
        "ется",
        -8.280929863841356
      ],
      [
        "▁20",
        -8.28249104975707
      ],
      [
        "п",
        -8.287124738719267
      ],
      [
        "▁деятельности",
        -8.288292780245364
      ],
      [
        "▁возможность",
        -8.295184619347696
      ],
      [
        "у.",
        -8.296030653901319
      ],
      [
        "ской",
        -8.299510361425346
      ],
      [
        "▁поэтому",
        -8.30501425734493
      ],
      [
        "▁Да",
        -8.305591929863782
      ],
      [
        "▁тут",
        -8.307817673926662
      ],
      [
        "▁ведь",
        -8.310727118525495
      ],
      [
        "▁Вот",
        -8.311837233320068
      ],
      [
        "▁следует",
        -8.313056237660799
      ],
      [
        "▁два",
        -8.315027153802188
      ],
      [
        "▁лучше",
        -8.316533071777357
      ],
      [
        "▁сам",
        -8.318470839068409
      ],
      [
        "б",
        -8.319567972688878
      ],
      [
        "он",
        -8.321632083943701
      ],
      [
        "▁Они",
        -8.32292657529107
      ],
      [
        "ить",
        -8.326528169526146
      ],
      [
        "▁год",
        -8.32696086691931
      ],
      [
        "ом,",
        -8.32911578746357
      ],
      [
        "▁всем",
        -8.33324856612372
      ],
      [
        "▁6",
        -8.336786506628542
      ],
      [
        "▁дела",
        -8.337175926051529
      ],
      [
        "▁менее",
        -8.337810552975224
      ],
      [
        "▁другие",
        -8.341563419726981
      ],
      [
        "▁такие",
        -8.342944828298226
      ],
      [
        "▁15",
        -8.345248573107863
      ],
      [
        "▁тебя",
        -8.345514285615309
      ],
      [
        "▁те",
        -8.3511136608674
      ],
      [
        "▁18",
        -8.353939060055966
      ],
      [
        "ок",
        -8.354639662876922
      ],
      [
        "▁одной",
        -8.356501315544447
      ],
      [
        "▁момент",
        -8.36316387279873
      ],
      [
        "▁достаточно",
        -8.364104700277222
      ],
      [
        "м.",
        -8.365210452721351
      ],
      [
        "ы.",
        -8.372074573037892
      ],
      [
        "вер",
        -8.374381805232328
      ],
      [
        "▁числе",
        -8.376834527506045
      ],
      [
        "▁своего",
        -8.376984936888112
      ],
      [
        "s",
        -8.377664455946535
      ],
      [
        "▁развития",
        -8.37844555292894
      ],
      [
        "▁право",
        -8.379202484530346
      ],
      [
        "▁таких",
        -8.381565652628614
      ],
      [
        "▁этим",
        -8.384276440888382
      ],
      [
        "▁чего",
        -8.386435578566463
      ],
      [
        "ются",
        -8.387520534158757
      ],
      [
        "▁свой",
        -8.391555583609072
      ],
      [
        "ов.",
        -8.3942182567667
      ],
      [
        "▁можете",
        -8.39691891996803
      ],
      [
        "▁люди",
        -8.397943082251686
      ],
      [
        "▁жизнь",
        -8.401774077160722
      ],
      [
        "▁суд",
        -8.404025464006821
      ],
      [
        "▁порядке",
        -8.405845911464077
      ],
      [
        "▁каждый",
        -8.406166139195168
      ],
      [
        "▁ним",
        -8.407265444791307
      ],
      [
        "ского",
        -8.410469927699642
      ],
      [
        "▁тогда",
        -8.41457420966967
      ],
      [
        "▁людей",
        -8.42402740825069
      ],
      [
        "▁7",
        -8.424070304517837
      ],
      [
        "▁другой",
        -8.424885405232137
      ],
      [
        "▁вообще",
        -8.425038415903721
      ],
      [
        "▁организации",
        -8.425933182129398
      ],
      [
        "▁период",
        -8.429448875861372
      ],
      [
        "▁Поэтому",
        -8.429621880961886
      ],
      [
        "▁Когда",
        -8.432769501109464
      ],
      [
        "▁сегодня",
        -8.435220574433428
      ],
      [
        "▁либо",
        -8.436676640543686
      ],
      [
        "▁такое",
        -8.442715596916857
      ],
      [
        "▁сразу",
        -8.444080656393858
      ],
      [
        "▁никогда",
        -8.447339906887805
      ],
      [
        "▁вопрос",
        -8.449846603499488
      ],
      [
        "ом.",
        -8.450980242867983
      ],
      [
        "▁То",
        -8.456079991163522
      ],
      [
        "▁части",
        -8.457340764676669
      ],
      [
        "ский",
        -8.462528000927014
      ],
      [
        "▁должна",
        -8.472709852790121
      ],
      [
        "из-за",
        -8.475521160392056
      ],
      [
        "▁которого",
        -8.477420001137482
      ],
      [
        "▁над",
        -8.478330657434284
      ],
      [
        "▁тебе",
        -8.4783513471387
      ],
      [
        "▁которое",
        -8.48002372212906
      ],
      [
        "▁должно",
        -8.480146223300261
      ],
      [
        "▁системы",
        -8.481361504734862
      ],
      [
        "▁течение",
        -8.486552215570773
      ],
      [
        "▁собой",
        -8.487781387869791
      ],
      [
        "▁эту",
        -8.49069311847756
      ],
      [
        "▁8",
        -8.495521361633616
      ],
      [
        "▁место",
        -8.498446359519095
      ],
      [
        "▁одного",
        -8.499529740253612
      ],
      [
        "▁человека",
        -8.502330430434128
      ],
      [
        "▁да",
        -8.505726196827418
      ],
      [
        "▁совсем",
        -8.507259470125211
      ],
      [
        "ш",
        -8.508510918286248
      ],
      [
        "▁часто",
        -8.509029029661829
      ],
      [
        "▁средств",
        -8.509152379307746
      ],
      [
        "▁её",
        -8.513729808215563
      ],
      [
        "▁П",
        -8.516454494573388
      ],
      [
        "▁ещё",
        -8.517342313904406
      ],
      [
        "▁30",
        -8.52022150646548
      ],
      [
        "▁дело",
        -8.52158841744532
      ],
      [
        "▁три",
        -8.524989376419198
      ],
      [
        "▁пор",
        -8.526571311529187
      ],
      [
        "▁количество",
        -8.528567991709297
      ],
      [
        "▁часть",
        -8.53343549050267
      ],
      [
        "▁делать",
        -8.533584401149126
      ],
      [
        "▁12",
        -8.534094168206211
      ],
      [
        "их",
        -8.536543304682162
      ],
      [
        "▁свое",
        -8.537763417548343
      ],
      [
        "по",
        -8.539507421352514
      ],
      [
        "▁могу",
        -8.541818341014572
      ],
      [
        "▁компании",
        -8.546599622783903
      ],
      [
        "те",
        -8.54833274123216
      ],
      [
        "▁Ты",
        -8.551243262731159
      ],
      [
        "ться",
        -8.55817571634076
      ],
      [
        "▁решения",
        -8.558354587811662
      ],
      [
        "▁детей",
        -8.559597372440734
      ],
      [
        "▁Мне",
        -8.568471072178136
      ],
      [
        "▁получить",
        -8.571054111590952
      ],
      [
        "▁После",
        -8.574204624094799
      ],
      [
        "▁ст.",
        -8.5760932471599
      ],
      [
        "▁почти",
        -8.576945769138195
      ],
      [
        "▁решение",
        -8.577840107974513
      ],
      [
        "▁территории",
        -8.58050641545989
      ],
      [
        "▁права",
        -8.581880599180682
      ],
      [
        "▁самом",
        -8.584072205960418
      ],
      [
        "▁почему",
        -8.587023411568582
      ],
      [
        "▁найти",
        -8.588924425362281
      ],
      [
        "▁одно",
        -8.598040250106255
      ],
      [
        "▁мог",
        -8.598804469360783
      ],
      [
        "▁двух",
        -8.602379627802895
      ],
      [
        "▁ко",
        -8.603550624644482
      ],
      [
        "▁внимание",
        -8.617529138634582
      ],
      [
        "сть",
        -8.620976311875493
      ],
      [
        "▁9",
        -8.621334140546972
      ],
      [
        "▁От",
        -8.625826327844614
      ],
      [
        "▁услуг",
        -8.628705014944224
      ],
      [
        "▁ней",
        -8.629908215660745
      ],
      [
        "2",
        -8.631505940616327
      ],
      [
        "▁друг",
        -8.63341571059082
      ],
      [
        "за",
        -8.633566128192559
      ],
      [
        "ят",
        -8.638792074570757
      ],
      [
        "▁рас",
        -8.641574817103663
      ],
      [
        "та",
        -8.642955354527613
      ],
      [
        "▁Об",
        -8.650296263099866
      ],
      [
        "▁эта",
        -8.650582409354067
      ],
      [
        "▁стороны",
        -8.65282711308333
      ],
      [
        "▁против",
        -8.652843076543045
      ],
      [
        "-то",
        -8.655878539080199
      ],
      [
        "ами,",
        -8.658764801607848
      ],
      [
        "▁качестве",
        -8.6594624615069
      ],
      [
        "▁котором",
        -8.660693262856672
      ],
      [
        "▁оно",
        -8.661980940896758
      ],
      [
        "лись",
        -8.670546310644365
      ],
      [
        "от",
        -8.670728451737913
      ],
      [
        "▁Ну",
        -8.673057809410532
      ],
      [
        "Кроме",
        -8.673432467018076
      ],
      [
        "▁дня",
        -8.675103538640947
      ],
      [
        "▁11",
        -8.677836367434443
      ],
      [
        "▁Вам",
        -8.680815984265744
      ],
      [
        "▁вместе",
        -8.681308805766175
      ],
      [
        "▁быстро",
        -8.68191308616165
      ],
      [
        "▁США",
        -8.684058004375983
      ],
      [
        "▁действительно",
        -8.684831579555885
      ],
      [
        "▁помощью",
        -8.691934110560137
      ],
      [
        "ен",
        -8.691945465362794
      ],
      [
        "▁например,",
        -8.692468061927823
      ],
      [
        "▁(в",
        -8.694113512426402
      ],
      [
        "▁хорошо",
        -8.695615711568847
      ],
      [
        "▁такого",
        -8.695912664377262
      ],
      [
        "ко",
        -8.696220873913534
      ],
      [
        "▁делу",
        -8.700719487914157
      ],
      [
        "▁стал",
        -8.702236630251488
      ],
      [
        "▁таким",
        -8.705535415043489
      ],
      [
        "1",
        -8.710633638601674
      ],
      [
        "▁города",
        -8.713050982812073
      ],
      [
        "▁До",
        -8.715687625047009
      ],
      [
        "▁Нет",
        -8.71711034833495
      ],
      [
        "▁нашей",
        -8.717392350640335
      ],
      [
        "▁М",
        -8.721425537982084
      ],
      [
        "ская",
        -8.724467749274568
      ],
      [
        "▁работу",
        -8.727249962650774
      ],
      [
        "▁2018",
        -8.728758222961723
      ],
      [
        "▁лиц",
        -8.728802058450798
      ],
      [
        "▁использовать",
        -8.731831586474906
      ],
      [
        "▁поскольку",
        -8.742649608235698
      ],
      [
        "3",
        -8.745221015330577
      ],
      [
        "ля",
        -8.745599542549819
      ],
      [
        "бо",
        -8.74834097267835
      ],
      [
        "▁одна",
        -8.748959893546752
      ],
      [
        "▁являются",
        -8.749268545977069
      ],
      [
        "▁виде",
        -8.75122273730581
      ],
      [
        "▁мой",
        -8.756095012196521
      ],
      [
        "▁прав",
        -8.7564385582097
      ],
      [
        "▁начала",
        -8.757294386210614
      ],
      [
        "▁многие",
        -8.757391283123052
      ],
      [
        "▁участие",
        -8.759609115414387
      ],
      [
        "▁счет",
        -8.761379246132561
      ],
      [
        "▁власти",
        -8.761586638943683
      ],
      [
        "▁ВАС",
        -8.763931304940476
      ],
      [
        "или",
        -8.768672423896986
      ],
      [
        "ны",
        -8.771785483387289
      ],
      [
        "▁которую",
        -8.772697696074939
      ],
      [
        "▁возможности",
        -8.774823780054447
      ],
      [
        "▁“",
        -8.77592844488065
      ],
      [
        "то",
        -8.777342267527697
      ],
      [
        "▁слова",
        -8.777530050114628
      ],
      [
        "лась",
        -8.778183527710299
      ],
      [
        "▁Про",
        -8.778207894475733
      ],
      [
        "▁лица",
        -8.781344580647103
      ],
      [
        "▁16",
        -8.78248883630656
      ],
      [
        "▁совершенно",
        -8.784476006937425
      ],
      [
        "▁около",
        -8.784621173934106
      ],
      [
        "▁равно",
        -8.787064849293916
      ],
      [
        "▁14",
        -8.788527102273104
      ],
      [
        "▁Д",
        -8.789797830094745
      ],
      [
        "да",
        -8.789906710190905
      ],
      [
        "▁мир",
        -8.794648554980439
      ],
      [
        "▁слишком",
        -8.794774647620281
      ],
      [
        "▁своим",
        -8.796152198046942
      ],
      [
        "▁вопросы",
        -8.797206125450673
      ],
      [
        "из",
        -8.799711628288211
      ],
      [
        "ность",
        -8.800172004943645
      ],
      [
        "▁управления",
        -8.800315770826707
      ],
      [
        "ил",
        -8.802108078574843
      ],
      [
        "ст",
        -8.803498832495936
      ],
      [
        "▁Во",
        -8.804094518132553
      ],
      [
        "▁первый",
        -8.8041995624539
      ],
      [
        "ч",
        -8.804369064680978
      ],
      [
        "▁граждан",
        -8.80447905786216
      ],
      [
        "▁никто",
        -8.804491571311244
      ],
      [
        "▁19",
        -8.807676651455886
      ],
      [
        "▁этому",
        -8.808370691470348
      ],
      [
        "▁особенно",
        -8.808646534368732
      ],
      [
        "лся",
        -8.810899178508656
      ],
      [
        "▁Б",
        -8.81715121378968
      ],
      [
        "▁дней",
        -8.818056191139824
      ],
      [
        "▁средства",
        -8.818750138208427
      ],
      [
        "▁труда",
        -8.820034057612984
      ],
      [
        "ал",
        -8.820622775547998
      ],
      [
        "▁Да,",
        -8.822301116409433
      ],
      [
        "ле",
        -8.823266892656115
      ],
      [
        "▁работе",
        -8.82564374162323
      ],
      [
        "ми,",
        -8.827312306589011
      ],
      [
        "▁образом",
        -8.82747191486795
      ],
      [
        "▁уж",
        -8.827820581356988
      ],
      [
        "▁данных",
        -8.834574845359922
      ],
      [
        "ер",
        -8.837487049312058
      ],
      [
        "▁года.",
        -8.837660140552682
      ],
      [
        "▁25",
        -8.839978468473086
      ],
      [
        "▁деле",
        -8.841028195002098
      ],
      [
        "0",
        -8.842361712744705
      ],
      [
        "▁17",
        -8.843152771144467
      ],
      [
        "▁любой",
        -8.84539899824083
      ],
      [
        "▁1.",
        -8.853637973489693
      ],
      [
        "А",
        -8.85501859172631
      ],
      [
        "ах,",
        -8.85782832078317
      ],
      [
        "▁среди",
        -8.859268442047123
      ],
      [
        "▁результате",
        -8.859777206158086
      ],
      [
        "▁конечно,",
        -8.862136650871134
      ],
      [
        "▁выше",
        -8.864985814367694
      ],
      [
        "▁образования",
        -8.86568634422718
      ],
      [
        "▁имеют",
        -8.869135953846417
      ],
      [
        "▁мало",
        -8.869138281076502
      ],
      [
        "▁которым",
        -8.86954551712221
      ],
      [
        "▁13",
        -8.870365275287064
      ],
      [
        "кой",
        -8.87209356078262
      ],
      [
        "▁работ",
        -8.873080469307233
      ],
      [
        "▁полностью",
        -8.873197835588089
      ],
      [
        "▁точно",
        -8.874011483572335
      ],
      [
        "▁2017",
        -8.878110720142653
      ],
      [
        "▁тысяч",
        -8.87953435703515
      ],
      [
        "ному",
        -8.879811859430337
      ],
      [
        "▁игры",
        -8.879869333617027
      ],
      [
        "▁Е",
        -8.879939888471503
      ],
      [
        "▁постоянно",
        -8.881538744100393
      ],
      [
        "▁дома",
        -8.886607271801463
      ],
      [
        "▁рублей",
        -8.88715031080244
      ],
      [
        "▁информации",
        -8.889844804858557
      ],
      [
        "▁деньги",
        -8.890522508425343
      ],
      [
        "▁мере",
        -8.89157260009988
      ],
      [
        "▁практически",
        -8.899095674418652
      ],
      [
        "ль",
        -8.902576682437594
      ],
      [
        "ф",
        -8.905818597318133
      ],
      [
        "▁долго",
        -8.907615779852701
      ],
      [
        "▁работа",
        -8.910786815473385
      ],
      [
        "▁находится",
        -8.91259010115688
      ],
      [
        "В",
        -8.912818884562027
      ],
      [
        "▁нет.",
        -8.915132186265842
      ],
      [
        "▁Из",
        -8.915839110942873
      ],
      [
        "▁образом,",
        -8.91822716810535
      ],
      [
        "▁наиболее",
        -8.918852025716975
      ],
      [
        "▁снова",
        -8.919497461982733
      ],
      [
        "▁условиях",
        -8.92096058425209
      ],
      [
        "чи",
        -8.923700683416863
      ],
      [
        "▁однако",
        -8.924310170040158
      ],
      [
        "▁новых",
        -8.9252787748531
      ],
      [
        "ыми",
        -8.925687797383985
      ],
      [
        "▁действия",
        -8.927045811609903
      ],
      [
        "▁хочу",
        -8.927887218042319
      ],
      [
        "▁самое",
        -8.930329971485929
      ],
      [
        "▁Г",
        -8.931373921433678
      ],
      [
        "▁договора",
        -8.934056244210312
      ],
      [
        "▁государственной",
        -8.936034635467237
      ],
      [
        "▁иметь",
        -8.936396851808267
      ],
      [
        "ась",
        -8.93663882746867
      ],
      [
        "(",
        -8.93670764107592
      ],
      [
        "ировать",
        -8.937503874008906
      ],
      [
        "ами.",
        -8.937863262493787
      ],
      [
        "”",
        -8.937869387335047
      ],
      [
        "▁меньше",
        -8.939301681362616
      ],
      [
        "ских",
        -8.93957821434351
      ],
      [
        "ков",
        -8.939895315091254
      ],
      [
        "▁сами",
        -8.94037295450833
      ],
      [
        "▁Может",
        -8.941221788516474
      ],
      [
        "▁нельзя",
        -8.941671671002627
      ],
      [
        "▁статьи",
        -8.941858899291603
      ],
      [
        "ясь",
        -8.943357097918472
      ],
      [
        "▁важно",
        -8.944027726003515
      ],
      [
        "▁некоторые",
        -8.944835056928403
      ],
      [
        "▁надзора",
        -8.946399155225768
      ],
      [
        "▁тому",
        -8.946944067564695
      ],
      [
        "▁сайте",
        -8.94887030176312
      ],
      [
        "▁работать",
        -8.951886566620844
      ],
      [
        "▁2.",
        -8.952147769808947
      ],
      [
        "ты",
        -8.955242630594917
      ],
      [
        "▁многих",
        -8.957522334630395
      ],
      [
        "▁говорит",
        -8.957665684163432
      ],
      [
        "▁самых",
        -8.96067808850255
      ],
      [
        "▁конце",
        -8.960947714722503
      ],
      [
        "▁Вас",
        -8.961110857485155
      ],
      [
        "▁района",
        -8.961273346805923
      ],
      [
        "▁проведения",
        -8.961863502763014
      ],
      [
        "же",
        -8.963224210580842
      ],
      [
        "▁новые",
        -8.963841111998507
      ],
      [
        "▁случаях",
        -8.966051857356302
      ],
      [
        "▁какой",
        -8.96642839825966
      ],
      [
        "сь",
        -8.967938820148946
      ],
      [
        "▁немного",
        -8.968675256739244
      ],
      [
        "▁само",
        -8.968923566165271
      ],
      [
        "▁Теперь",
        -8.969109438099585
      ],
      [
        "ра",
        -8.972942665167198
      ],
      [
        "▁стало",
        -8.973592285545978
      ],
      [
        "▁рамках",
        -8.974345105190325
      ],
      [
        "▁идет",
        -8.975866911971051
      ],
      [
        "Чтобы",
        -8.975940975118867
      ],
      [
        "▁происходит",
        -8.977990100663657
      ],
      [
        "▁ноября",
        -8.982476097282783
      ],
      [
        "▁данные",
        -8.983140585740259
      ],
      [
        "▁кроме",
        -8.98392601974271
      ],
      [
        "▁2016",
        -8.985863478939347
      ],
      [
        "▁населения",
        -8.985965597375088
      ],
      [
        "▁«О",
        -8.986190529403839
      ],
      [
        "▁легко",
        -8.987173921335991
      ],
      [
        "▁срок",
        -8.98899056647742
      ],
      [
        "▁прямо",
        -8.98988800878293
      ],
      [
        "▁информацию",
        -8.99027393147155
      ],
      [
        "▁безопасности",
        -8.99037210883554
      ],
      [
        "▁вполне",
        -8.991655342246123
      ],
      [
        "▁обычно",
        -8.993260170240116
      ],
      [
        "▁прежде",
        -8.99391773424846
      ],
      [
        "ать",
        -8.997357755080902
      ],
      [
        "▁давно",
        -8.998482291747832
      ],
      [
        "▁каждого",
        -8.999219980478653
      ],
      [
        "ские",
        -8.999641142327642
      ],
      [
        "▁Только",
        -9.000148453258504
      ],
      [
        "▁--",
        -9.003065479958861
      ],
      [
        "ре",
        -9.00331154097587
      ],
      [
        "▁Тем",
        -9.005957913483817
      ],
      [
        "▁стали",
        -9.005978815255894
      ],
      [
        "▁процесс",
        -9.006025739987168
      ],
      [
        "▁помощи",
        -9.00603960044692
      ],
      [
        "▁ответ",
        -9.007759268916265
      ],
      [
        "▁органов",
        -9.0086215599981
      ],
      [
        "▁уровень",
        -9.011283192779246
      ],
      [
        "мер",
        -9.011696515975038
      ],
      [
        "▁программы",
        -9.012432312410537
      ],
      [
        "▁проблемы",
        -9.01288714049852
      ],
      [
        "▁сказать,",
        -9.01342318991158
      ],
      [
        "ние",
        -9.01591203118304
      ],
      [
        "▁[",
        -9.016592484794442
      ],
      [
        "▁условия",
        -9.017112816940141
      ],
      [
        "▁Есть",
        -9.018417586648807
      ],
      [
        "▁отношении",
        -9.018491720478426
      ],
      [
        "ми.",
        -9.01928892096534
      ],
      [
        "▁второй",
        -9.021005637312324
      ],
      [
        "▁Ф",
        -9.02239619173726
      ],
      [
        "5",
        -9.022529596293277
      ],
      [
        ");",
        -9.022895236953376
      ],
      [
        "▁довольно",
        -9.023618131313075
      ],
      [
        "▁основе",
        -9.024309618355371
      ],
      [
        "▁сколько",
        -9.024579743292131
      ],
      [
        "▁Т",
        -9.025529162558348
      ],
      [
        "▁Со",
        -9.02621238405451
      ],
      [
        "▁стран",
        -9.027044730810942
      ],
      [
        "▁производства",
        -9.027866478724452
      ],
      [
        "▁проект",
        -9.028449763477438
      ],
      [
        "▁самого",
        -9.029373857694651
      ],
      [
        "▁актов",
        -9.031207917934891
      ],
      [
        "▁стать",
        -9.03270776533329
      ],
      [
        "▁всю",
        -9.034704869938722
      ],
      [
        "▁одним",
        -9.035532570630348
      ],
      [
        "би",
        -9.037096784460767
      ],
      [
        "▁проблем",
        -9.037589682746967
      ],
      [
        "ности",
        -9.039237523809392
      ],
      [
        "▁опыт",
        -9.039831181827006
      ],
      [
        "▁говорить",
        -9.040032049591822
      ],
      [
        "▁буду",
        -9.042394327051035
      ],
      [
        "▁передаче",
        -9.044070414108946
      ],
      [
        "▁зависимости",
        -9.044797863370016
      ],
      [
        "▁позволяет",
        -9.04691874157335
      ],
      [
        "▁силу",
        -9.046955430596272
      ],
      [
        "▁Его",
        -9.048206804285048
      ],
      [
        "e",
        -9.05550994791556
      ],
      [
        "▁куда",
        -9.056702357125749
      ],
      [
        "▁использования",
        -9.059253386653573
      ],
      [
        "С",
        -9.06600495670137
      ],
      [
        "ру",
        -9.07130930858654
      ],
      [
        "▁какие",
        -9.073004636407623
      ],
      [
        "▁той",
        -9.07305492657465
      ],
      [
        "▁разных",
        -9.073557212820532
      ],
      [
        "▁группы",
        -9.07385048635216
      ],
      [
        "▁Под",
        -9.07608076303334
      ],
      [
        "▁затем",
        -9.076261653256203
      ],
      [
        "ком",
        -9.076634199132583
      ],
      [
        "▁такая",
        -9.07789624681824
      ],
      [
        "▁Также",
        -9.079392806525936
      ],
      [
        "▁Ведь",
        -9.080281356856377
      ],
      [
        "▁21",
        -9.080838468643089
      ],
      [
        "▁ними",
        -9.081803457423122
      ],
      [
        "▁обязательно",
        -9.082818454411724
      ],
      [
        "тер",
        -9.08316212591677
      ],
      [
        "▁случае,",
        -9.083642441147422
      ],
      [
        "▁Таким",
        -9.084842908571463
      ],
      [
        "▁100",
        -9.086099311607208
      ],
      [
        "▁страны",
        -9.086547083432647
      ],
      [
        "▁же,",
        -9.086857958923117
      ],
      [
        "▁вид",
        -9.089058394648124
      ],
      [
        "y",
        -9.089660349306493
      ],
      [
        "▁две",
        -9.090494079617287
      ],
      [
        "▁различных",
        -9.09345456197171
      ],
      [
        "▁закон",
        -9.093461112673996
      ],
      [
        "до",
        -9.094173025612728
      ],
      [
        "▁хоть",
        -9.094281155707932
      ],
      [
        "▁зависит",
        -9.09468953857805
      ],
      [
        "▁реализации",
        -9.09493400405454
      ],
      [
        "▁большой",
        -9.095203444798418
      ],
      [
        "▁работает",
        -9.096817223188575
      ],
      [
        "▁кто-то",
        -9.098391123446484
      ],
      [
        "овой",
        -9.098572682506285
      ],
      [
        "▁Совета",
        -9.105438939378567
      ],
      [
        "▁людей,",
        -9.105914000371602
      ],
      [
        "▁Определение",
        -9.106857065908104
      ],
      [
        "ча",
        -9.10890909651937
      ],
      [
        "▁законодательств",
        -9.110817915215662
      ],
      [
        "▁годы",
        -9.111339440912802
      ],
      [
        "▁уровня",
        -9.111626567795858
      ],
      [
        "об",
        -9.11343330220337
      ],
      [
        "▁Например,",
        -9.11364590823907
      ],
      [
        "▁сфере",
        -9.114360240475678
      ],
      [
        "▁могли",
        -9.115585552723253
      ],
      [
        "▁п",
        -9.116927572667539
      ],
      [
        "▁(с",
        -9.119459562256363
      ],
      [
        "▁минут",
        -9.120921776218426
      ],
      [
        "ись",
        -9.121702966041314
      ],
      [
        "▁Хотя",
        -9.123378294330303
      ],
      [
        "▁система",
        -9.123428383130117
      ],
      [
        "▁2011",
        -9.125886750747636
      ],
      [
        "▁изменения",
        -9.127339849113259
      ],
      [
        "▁50",
        -9.12781999140654
      ],
      [
        "▁знаю,",
        -9.129144924850626
      ],
      [
        "▁сама",
        -9.129332270036445
      ],
      [
        "▁г",
        -9.1294181000978
      ],
      [
        "▁нет,",
        -9.130237277123616
      ],
      [
        "▁отношения",
        -9.130445348082938
      ],
      [
        "▁наши",
        -9.131262691589761
      ],
      [
        "▁услуги",
        -9.134152278842466
      ],
      [
        "ния",
        -9.137880694294207
      ],
      [
        "▁сказать",
        -9.137976433818707
      ],
      [
        "▁документов",
        -9.138381481554497
      ],
      [
        "▁факт",
        -9.138627465035789
      ],
      [
        "▁самым",
        -9.1403112280998
      ],
      [
        "Н",
        -9.141338261408983
      ],
      [
        "▁Сейчас",
        -9.143678875288277
      ],
      [
        "▁своем",
        -9.14436264223044
      ],
      [
        "▁весь",
        -9.14622702021539
      ],
      [
        "▁сильно",
        -9.146377223514191
      ],
      [
        "▁24",
        -9.14822671580398
      ],
      [
        "ри",
        -9.148362022934018
      ],
      [
        "▁тыс.",
        -9.152709352404973
      ],
      [
        "]",
        -9.152762305934353
      ],
      [
        "▁сети",
        -9.153788998105199
      ],
      [
        "ение",
        -9.154813463189635
      ],
      [
        "ц",
        -9.155959216886215
      ],
      [
        "▁ребенка",
        -9.157458883628754
      ],
      [
        "▁хочет",
        -9.159031639474973
      ],
      [
        "▁Можно",
        -9.15974889068968
      ],
      [
        "али",
        -9.159850841335885
      ],
      [
        "▁хотел",
        -9.161589977551726
      ],
      [
        "▁заявление",
        -9.166242590419225
      ],
      [
        "▁условий",
        -9.166363191213327
      ],
      [
        "▁способ",
        -9.167684441691373
      ],
      [
        "И",
        -9.167811384696089
      ],
      [
        "▁проекта",
        -9.168177095960402
      ],
      [
        "▁получения",
        -9.168417884078208
      ],
      [
        "ар",
        -9.168716796642052
      ],
      [
        "ю,",
        -9.168860063496036
      ],
      [
        "га",
        -9.168864068173214
      ],
      [
        "8",
        -9.171808200688044
      ],
      [
        "▁та",
        -9.171958472886832
      ],
      [
        "▁наших",
        -9.172024037075152
      ],
      [
        "▁назад",
        -9.173817000740346
      ],
      [
        "▁22",
        -9.175157442055683
      ],
      [
        "▁2014",
        -9.177796972827153
      ],
      [
        "4",
        -9.178414073999216
      ],
      [
        "▁S",
        -9.179223865323662
      ],
      [
        "▁2015",
        -9.179457678734067
      ],
      [
        "▁июня",
        -9.17946673890626
      ],
      [
        "▁места",
        -9.1803530402766
      ],
      [
        "▁цен",
        -9.181660768967921
      ],
      [
        "ство",
        -9.18193242188679
      ],
      [
        "▁Или",
        -9.182935178237733
      ],
      [
        "йте",
        -9.184277952423141
      ],
      [
        "▁выбор",
        -9.184588585010129
      ],
      [
        "▁декабря",
        -9.184752352008093
      ],
      [
        "▁отказано",
        -9.184881238472098
      ],
      [
        "▁видео",
        -9.184986819537764
      ],
      [
        "▁существует",
        -9.185042177153392
      ],
      [
        "▁ваш",
        -9.18569977165325
      ],
      [
        "▁составляет",
        -9.18717137370554
      ],
      [
        "▁точки",
        -9.18919435530536
      ],
      [
        "▁кого",
        -9.189693564968582
      ],
      [
        "▁дети",
        -9.189831338280671
      ],
      [
        "▁наш",
        -9.190174593930282
      ],
      [
        "▁пересмотра",
        -9.1912442147254
      ],
      [
        "▁Здесь",
        -9.19133244934494
      ],
      [
        "▁лет.",
        -9.192551595687485
      ],
      [
        "▁ну",
        -9.192905332138329
      ],
      [
        "▁ряд",
        -9.194895928550793
      ],
      [
        "▁некоторых",
        -9.198654818064878
      ],
      [
        "▁пред",
        -9.198672156910945
      ],
      [
        "▁дом",
        -9.200108232990292
      ],
      [
        "▁мая",
        -9.201902396996614
      ],
      [
        "▁общества",
        -9.20205271335149
      ],
      [
        "▁самый",
        -9.202364069488821
      ],
      [
        "▁документы",
        -9.202976289886376
      ],
      [
        "▁казино",
        -9.203186549695925
      ],
      [
        "▁одном",
        -9.204178320706578
      ],
      [
        "▁регистрации",
        -9.20577803997789
      ],
      [
        "▁состав",
        -9.209012090108489
      ],
      [
        "ор",
        -9.209540709740132
      ],
      [
        "▁т.",
        -9.210645696989697
      ],
      [
        "▁развитие",
        -9.212015494213672
      ],
      [
        "▁3.",
        -9.212415108307065
      ],
      [
        "▁службы",
        -9.213446126397274
      ],
      [
        "судебных",
        -9.213740787067696
      ],
      [
        "▁дел",
        -9.214484882996873
      ],
      [
        "▁зрения",
        -9.21542947158264
      ],
      [
        "▁первой",
        -9.21594254924001
      ],
      [
        "▁новый",
        -9.21783691180684
      ],
      [
        "▁стране",
        -9.21897468125993
      ],
      [
        "ющих",
        -9.220528349422
      ],
      [
        "ну",
        -9.221164321405203
      ],
      [
        "▁часов",
        -9.221495753597212
      ],
      [
        "▁одну",
        -9.221970829257106
      ],
      [
        "▁скорее",
        -9.222968194863702
      ],
      [
        "▁//",
        -9.223924331178578
      ],
      [
        "▁становится",
        -9.223927265122377
      ],
      [
        "▁сказала",
        -9.223977592202584
      ],
      [
        "t",
        -9.223980619325783
      ],
      [
        "▁первую",
        -9.224415433053137
      ],
      [
        "▁трех",
        -9.226759050148047
      ],
      [
        "▁пре",
        -9.228414993098733
      ],
      [
        "▁знал",
        -9.228780905408927
      ],
      [
        "ман",
        -9.229076145020127
      ],
      [
        "▁играть",
        -9.229280844752042
      ],
      [
        "▁иногда",
        -9.230872648042498
      ],
      [
        "▁рядом",
        -9.23299790534633
      ],
      [
        "ам,",
        -9.233835434562605
      ],
      [
        "ах.",
        -9.234207557648768
      ],
      [
        "ки,",
        -9.234591898785796
      ],
      [
        "▁какой-то",
        -9.23481671335394
      ],
      [
        "ро",
        -9.236170415418314
      ],
      [
        "▁стала",
        -9.2363139636815
      ],
      [
        "▁«С",
        -9.236970890324375
      ],
      [
        "▁Очень",
        -9.24081748303745
      ],
      [
        "▁мире",
        -9.241236236425623
      ],
      [
        "▁сентября",
        -9.24204074071601
      ],
      [
        "▁целью",
        -9.242199748079008
      ],
      [
        "▁сил",
        -9.24243296422476
      ],
      [
        "▁денег",
        -9.244031399634803
      ],
      [
        "6",
        -9.244951610497054
      ],
      [
        "▁организаций",
        -9.245621502268136
      ],
      [
        "▁месте",
        -9.246617706751342
      ],
      [
        "▁Республики",
        -9.246743788949496
      ],
      [
        "▁далеко",
        -9.24685549337436
      ],
      [
        "данной",
        -9.24738692781814
      ],
      [
        "▁октября",
        -9.250184873363148
      ],
      [
        "▁товаров",
        -9.250194756678559
      ],
      [
        "▁ре",
        -9.250539472676458
      ],
      [
        "▁движения",
        -9.250710530209094
      ],
      [
        "про",
        -9.251263321488048
      ],
      [
        "вы",
        -9.251421023552965
      ],
      [
        "▁жить",
        -9.252804246538265
      ],
      [
        "▁социальной",
        -9.252914191311662
      ],
      [
        "▁сайт",
        -9.254235354542391
      ],
      [
        "▁будто",
        -9.254614564234053
      ],
      [
        "▁общей",
        -9.255449066132458
      ],
      [
        "ите",
        -9.256487580940021
      ],
      [
        "че",
        -9.256815116351584
      ],
      [
        "▁(19",
        -9.257208642317888
      ],
      [
        "▁нем",
        -9.258269198661822
      ],
      [
        "▁закона",
        -9.259272712027228
      ],
      [
        "▁требования",
        -9.25956314606606
      ],
      [
        "▁Ну,",
        -9.26036114198266
      ],
      [
        "▁качества",
        -9.260915216987092
      ],
      [
        "▁предприятия",
        -9.261070281192929
      ],
      [
        "▁жизни.",
        -9.262710002242976
      ],
      [
        "▁конечно",
        -9.26381658673883
      ],
      [
        "▁своими",
        -9.265611275849109
      ],
      [
        "▁правило,",
        -9.266274081312849
      ],
      [
        "▁нашего",
        -9.267004401579456
      ],
      [
        "▁кажется,",
        -9.268023768468831
      ],
      [
        "▁придется",
        -9.268954965042745
      ],
      [
        "▁стоимость",
        -9.27050203350403
      ],
      [
        "▁Сегодня",
        -9.272383404346733
      ],
      [
        "▁касается",
        -9.273457568947716
      ],
      [
        "щ",
        -9.274165073834784
      ],
      [
        "▁июля",
        -9.274736494411576
      ],
      [
        "ходе",
        -9.275413713054627
      ],
      [
        "▁изменений",
        -9.275697300112073
      ],
      [
        "▁пути",
        -9.278094831146879
      ],
      [
        "▁типа",
        -9.278708232184922
      ],
      [
        "▁руб.",
        -9.278848765499948
      ],
      [
        "па",
        -9.279383623031425
      ],
      [
        "ском",
        -9.280095362036366
      ],
      [
        "мен",
        -9.280476742600674
      ],
      [
        "Даже",
        -9.281684626723804
      ],
      [
        "▁человек,",
        -9.282293271436071
      ],
      [
        "▁речь",
        -9.283244100476978
      ],
      [
        "▁данный",
        -9.284491878540175
      ],
      [
        "ту",
        -9.284760597027716
      ],
      [
        "▁объектов",
        -9.285986350946063
      ],
      [
        "▁правильно",
        -9.286877415576964
      ],
      [
        "ства",
        -9.286877822920777
      ],
      [
        "дер",
        -9.287385503448778
      ],
      [
        "a",
        -9.287427417450795
      ],
      [
        "Е",
        -9.287903026524175
      ],
      [
        "▁мира",
        -9.288464947389288
      ],
      [
        "ель",
        -9.289641599215193
      ],
      [
        "▁моей",
        -9.290769059773163
      ],
      [
        "государственного",
        -9.291054360147971
      ],
      [
        "▁рынке",
        -9.291278204430954
      ],
      [
        "o",
        -9.293174207709136
      ],
      [
        "▁обеспечения",
        -9.297554557268167
      ],
      [
        "▁фото",
        -9.298689995913161
      ],
      [
        "ша",
        -9.299145498002591
      ],
      [
        "▁очередь",
        -9.299940174649489
      ],
      [
        "▁Конечно,",
        -9.300217544817732
      ],
      [
        "▁хотите",
        -9.301156676932273
      ],
      [
        "▁Именно",
        -9.301167116008164
      ],
      [
        "▁января",
        -9.30214883582357
      ],
      [
        "▁23",
        -9.302641278583023
      ],
      [
        "▁самой",
        -9.30410117017746
      ],
      [
        "▁как-то",
        -9.304349555988768
      ],
      [
        "лось",
        -9.304461475629727
      ],
      [
        "▁частности",
        -9.306465210505564
      ],
      [
        "▁значит,",
        -9.30728665297036
      ],
      [
        "Я",
        -9.308424216805744
      ],
      [
        "▁роль",
        -9.310169671289646
      ],
      [
        "▁собственности",
        -9.311228628277574
      ],
      [
        "▁настоящее",
        -9.312816190414976
      ],
      [
        "Еще",
        -9.314567201315121
      ],
      [
        "▁нового",
        -9.314927603022058
      ],
      [
        "▁процессе",
        -9.31557194735874
      ],
      [
        "ает",
        -9.316341765753585
      ],
      [
        "▁говорят",
        -9.31758512879734
      ],
      [
        "▁женщины",
        -9.319495569585781
      ],
      [
        "▁систем",
        -9.319612339832315
      ],
      [
        "▁раза",
        -9.32091930047299
      ],
      [
        "▁деятельность",
        -9.321219344608407
      ],
      [
        "ду",
        -9.321885804493949
      ],
      [
        "▁другими",
        -9.321936536132998
      ],
      [
        "ник",
        -9.323893771525814
      ],
      [
        "▁онлайн",
        -9.324483917926333
      ],
      [
        "▁спросил",
        -9.324522772379897
      ],
      [
        "▁суда",
        -9.32470949990416
      ],
      [
        "ше",
        -9.327332498889167
      ],
      [
        "▁форме",
        -9.327433064036738
      ],
      [
        "▁возможно",
        -9.327638186232292
      ],
      [
        "▁данном",
        -9.327739531484703
      ],
      [
        "ения",
        -9.328742271921989
      ],
      [
        "лов",
        -9.328897352194558
      ],
      [
        "▁продукции",
        -9.329117181923655
      ],
      [
        "▁000",
        -9.329496596476353
      ],
      [
        "▁целом",
        -9.33107800187578
      ],
      [
        "▁тому,",
        -9.332544507981545
      ],
      [
        "▁последние",
        -9.332761122824966
      ],
      [
        "▁ответственности",
        -9.332815163135118
      ],
      [
        "▁компания",
        -9.333084682713519
      ],
      [
        "▁будем",
        -9.334198843318617
      ],
      [
        "ось",
        -9.335186645141311
      ],
      [
        "▁защиты",
        -9.336814646352018
      ],
      [
        "▁силы",
        -9.336821182623
      ],
      [
        "▁истории",
        -9.337028782913777
      ],
      [
        "▁д.",
        -9.337932487509903
      ],
      [
        "ба",
        -9.338146609561365
      ],
      [
        "ры",
        -9.338235023883103
      ],
      [
        "▁мысли",
        -9.339389708026495
      ],
      [
        "▁могла",
        -9.339840449283292
      ],
      [
        "▁думаю,",
        -9.34187447981831
      ],
      [
        "мы",
        -9.34191100235257
      ],
      [
        "▁информация",
        -9.342716364855232
      ],
      [
        "г.",
        -9.343054010586803
      ],
      [
        "▁хотелось",
        -9.3435680635587
      ],
      [
        "вод",
        -9.343728099000252
      ],
      [
        "гр",
        -9.3440934998399
      ],
      [
        "▁поводу",
        -9.34436951294682
      ],
      [
        "▁29",
        -9.344395797615416
      ],
      [
        "▁станет",
        -9.34466374545535
      ],
      [
        "▁самые",
        -9.346995752234843
      ],
      [
        "▁таком",
        -9.347050380859299
      ],
      [
        "ому",
        -9.347159574501193
      ],
      [
        "▁строительства",
        -9.347499186245775
      ],
      [
        "▁сих",
        -9.34863765860986
      ],
      [
        "▁степени",
        -9.34998698882051
      ],
      [
        "▁состояние",
        -9.351727681652417
      ],
      [
        "овые",
        -9.352144746155343
      ],
      [
        "ся.",
        -9.35247442952814
      ],
      [
        "▁28",
        -9.352740845340168
      ],
      [
        "▁свет",
        -9.352915672483661
      ],
      [
        "лю",
        -9.354634923828371
      ],
      [
        "при",
        -9.356367182155392
      ],
      [
        "▁Почему",
        -9.357287313288396
      ],
      [
        "▁ниже",
        -9.358679947121866
      ],
      [
        "▁значит",
        -9.36054725958066
      ],
      [
        "▁участников",
        -9.361396992727128
      ],
      [
        "▁цены",
        -9.361689600464512
      ],
      [
        "лен",
        -9.3635921502091
      ],
      [
        "де",
        -9.36381179768167
      ],
      [
        "▁ситуации",
        -9.363925060171132
      ],
      [
        "▁\"О",
        -9.364518702382473
      ],
      [
        "▁выбрать",
        -9.364728478035916
      ],
      [
        "▁27",
        -9.365595420309006
      ],
      [
        "▁понял",
        -9.367495971220544
      ],
      [
        "▁нему",
        -9.367518001457917
      ],
      [
        "▁лет,",
        -9.368922991926354
      ],
      [
        "▁состоянии",
        -9.370335356942473
      ],
      [
        "▁необходимости",
        -9.370537367872409
      ],
      [
        "▁Тогда",
        -9.37183407306822
      ],
      [
        "▁правила",
        -9.371967245094972
      ],
      [
        "▁контроля",
        -9.372363311843564
      ],
      [
        "▁C",
        -9.372556135623608
      ],
      [
        "▁требований",
        -9.374261801093432
      ],
      [
        "▁договор",
        -9.375092341733694
      ],
      [
        "▁общего",
        -9.376682357827459
      ],
      [
        "▁город",
        -9.377986183072217
      ],
      [
        "▁апреля",
        -9.378897907711663
      ],
      [
        "▁можем",
        -9.37997183972638
      ],
      [
        "ист",
        -9.38004859949637
      ],
      [
        "вин",
        -9.380357952806314
      ],
      [
        "ова",
        -9.380622037556288
      ],
      [
        "ила",
        -9.380648227028388
      ],
      [
        "▁пол",
        -9.381662576100947
      ],
      [
        "▁разные",
        -9.382775334787926
      ],
      [
        "▁муниципального",
        -9.382840518467786
      ],
      [
        "▁человека,",
        -9.383533008009152
      ],
      [
        "▁Эти",
        -9.385483399869454
      ],
      [
        "▁обучения",
        -9.385802352580331
      ],
      [
        "▁культуры",
        -9.386388647371154
      ],
      [
        "▁I",
        -9.387304163385107
      ],
      [
        "▁сайта",
        -9.388255686667993
      ],
      [
        "М",
        -9.38841230121047
      ],
      [
        "▁вдруг",
        -9.38881092974913
      ],
      [
        "▁слово",
        -9.391043453888933
      ],
      [
        "▁гораздо",
        -9.391142264370767
      ],
      [
        "▁значение",
        -9.392252800520733
      ],
      [
        "▁ранее",
        -9.392654064678549
      ],
      [
        "▁весьма",
        -9.393013734529628
      ],
      [
        "▁адрес",
        -9.395368158586951
      ],
      [
        "▁авто",
        -9.395695437111371
      ],
      [
        "▁никаких",
        -9.39678336219939
      ],
      [
        "▁глаза",
        -9.397284203357964
      ],
      [
        "▁принять",
        -9.398189119006386
      ],
      [
        "r",
        -9.398781468299308
      ],
      [
        "иться",
        -9.3989512006637
      ],
      [
        "Т",
        -9.399298831499731
      ],
      [
        "▁знаю",
        -9.399364256397938
      ],
      [
        "▁Ни",
        -9.400955815985165
      ],
      [
        "▁СССР",
        -9.401135858557204
      ],
      [
        "▁примерно",
        -9.402595337040532
      ],
      [
        "7",
        -9.40349853819838
      ],
      [
        "_",
        -9.403651918651239
      ],
      [
        "кон",
        -9.40488013215116
      ],
      [
        "Этот",
        -9.405011983755237
      ],
      [
        "▁начале",
        -9.405424818816467
      ],
      [
        "▁готов",
        -9.405781216567554
      ],
      [
        "k",
        -9.40824587966452
      ],
      [
        "▁дает",
        -9.4083104311705
      ],
      [
        "▁имя",
        -9.408614718926408
      ],
      [
        "▁марта",
        -9.410504613457535
      ],
      [
        "▁ответил",
        -9.411571623579356
      ],
      [
        "▁другим",
        -9.411875454747182
      ],
      [
        "▁делает",
        -9.411998168931332
      ],
      [
        "▁сделал",
        -9.414459453438777
      ],
      [
        "!!!",
        -9.415086862675757
      ],
      [
        "ся,",
        -9.41512049470182
      ],
      [
        "▁удалось",
        -9.415808131793266
      ],
      [
        "▁нескольких",
        -9.41681018259126
      ],
      [
        "▁сможете",
        -9.419317119130518
      ],
      [
        "▁вариант",
        -9.419788866249082
      ],
      [
        "▁года,",
        -9.419807117840403
      ],
      [
        "▁п.",
        -9.420224620498564
      ],
      [
        "прав",
        -9.421649315676952
      ],
      [
        "сто",
        -9.423229795063275
      ],
      [
        "▁основании",
        -9.423909844347726
      ],
      [
        "▁начал",
        -9.425337126714293
      ],
      [
        "▁номер",
        -9.426610510283298
      ],
      [
        "▁местного",
        -9.427083555673091
      ],
      [
        "p",
        -9.427630343930266
      ],
      [
        "▁Л",
        -9.430516761986492
      ],
      [
        "▁нужны",
        -9.43095320749126
      ],
      [
        "▁нашем",
        -9.431073949169416
      ],
      [
        "▁все-таки",
        -9.432476454499994
      ],
      [
        "ющие",
        -9.433156563687003
      ],
      [
        "b",
        -9.433924197906641
      ],
      [
        "▁войны",
        -9.434257201087487
      ],
      [
        "▁уровне",
        -9.434854306899338
      ],
      [
        "▁видел",
        -9.43617158126473
      ],
      [
        "▁ту",
        -9.439332893734314
      ],
      [
        "d",
        -9.439438225254616
      ],
      [
        "▁участка",
        -9.439713281439346
      ],
      [
        "ней",
        -9.439722744689844
      ],
      [
        "▁внутри",
        -9.440161872477804
      ],
      [
        "▁согласно",
        -9.44097982630284
      ],
      [
        "овать",
        -9.441388061308366
      ],
      [
        "▁имущества",
        -9.441687992384932
      ],
      [
        "▁«В",
        -9.443802489220646
      ],
      [
        "▁чуть",
        -9.443987991534934
      ],
      [
        "пол",
        -9.445087263880609
      ],
      [
        "▁моя",
        -9.445309400993008
      ],
      [
        "▁трудно",
        -9.445410373511102
      ],
      [
        "▁ул.",
        -9.445451684062785
      ],
      [
        "▁признании",
        -9.445862095206873
      ],
      [
        "▁чаще",
        -9.446201483244561
      ],
      [
        "▁Украины",
        -9.44670592757641
      ],
      [
        "ут",
        -9.44676461908966
      ],
      [
        "▁план",
        -9.446804241071526
      ],
      [
        "▁Там",
        -9.446983151654738
      ],
      [
        "▁т.д.",
        -9.447762056622917
      ],
      [
        "▁любом",
        -9.44980219319912
      ],
      [
        "▁женщин",
        -9.450704368930367
      ],
      [
        "▁благодаря",
        -9.450820796163367
      ],
      [
        "▁труд",
        -9.451273459630798
      ],
      [
        "▁ж",
        -9.452227863360783
      ],
      [
        "▁40",
        -9.452320310643163
      ],
      [
        "▁данным",
        -9.452537785046752
      ],
      [
        "ю.",
        -9.452999543648115
      ],
      [
        "▁Потому",
        -9.454611775197968
      ],
      [
        "▁мои",
        -9.454765821429763
      ],
      [
        "▁игра",
        -9.455333350233143
      ],
      [
        "–",
        -9.455391612734715
      ],
      [
        "▁создания",
        -9.455905393535264
      ],
      [
        "ость",
        -9.456801603272861
      ],
      [
        "▁Россия",
        -9.457148232877655
      ],
      [
        "▁месяцев",
        -9.457339569079497
      ],
      [
        "▁предприятий",
        -9.457376757325024
      ],
      [
        "▁основном",
        -9.457696606435903
      ],
      [
        "со",
        -9.458972930020348
      ],
      [
        "▁государства",
        -9.459458639124398
      ],
      [
        "9",
        -9.459804195434076
      ],
      [
        "нет",
        -9.460280458997204
      ],
      [
        "тор",
        -9.460575619389726
      ],
      [
        "▁купить",
        -9.460718215885976
      ],
      [
        "▁системе",
        -9.461819748281663
      ],
      [
        "▁августа",
        -9.462835935334034
      ],
      [
        "▁возможно,",
        -9.467182861495369
      ],
      [
        "▁цели",
        -9.46746605004862
      ],
      [
        "▁заявил",
        -9.468541778686616
      ],
      [
        "стр",
        -9.468836022580714
      ],
      [
        "▁никак",
        -9.468914691679203
      ],
      [
        "▁время,",
        -9.469054235822895
      ],
      [
        "▁•",
        -9.469173363983742
      ],
      [
        "▁руки",
        -9.469224179831524
      ],
      [
        "▁2013",
        -9.469893970905272
      ],
      [
        "овых",
        -9.470037877975033
      ],
      [
        "ешь",
        -9.47022990524729
      ],
      [
        "ров",
        -9.470251897508563
      ],
      [
        "▁раньше",
        -9.470313812984942
      ],
      [
        "▁государственных",
        -9.471272532949211
      ],
      [
        "▁вопросам",
        -9.47129413059016
      ],
      [
        "▁означает",
        -9.471796462794316
      ],
      [
        "▁абсолютно",
        -9.473044484984149
      ],
      [
        "▁порядок",
        -9.473181565296239
      ],
      [
        "▁стоимости",
        -9.4749523724628
      ],
      [
        "▁сторону",
        -9.475034977121371
      ],
      [
        "▁2012",
        -9.475620462274753
      ],
      [
        "▁первого",
        -9.475953407491044
      ],
      [
        "▁(или",
        -9.475968043337154
      ],
      [
        "▁работников",
        -9.476783027963545
      ],
      [
        "▁готовы",
        -9.479092381169064
      ],
      [
        "▁пять",
        -9.479407900848376
      ],
      [
        "▁правил",
        -9.479764539590668
      ],
      [
        "▁говорил",
        -9.48114227203872
      ],
      [
        "лу",
        -9.48159049283067
      ],
      [
        "▁жизни,",
        -9.48212568414387
      ],
      [
        "▁систему",
        -9.482328379744988
      ],
      [
        "ское",
        -9.48276761244997
      ],
      [
        "▁момента",
        -9.483146371613465
      ],
      [
        "▁мнению",
        -9.483714667468785
      ],
      [
        "▁помощь",
        -9.483776667019985
      ],
      [
        "▁словам",
        -9.48458657440424
      ],
      [
        "▁Ш",
        -9.484783817959025
      ],
      [
        "▁создать",
        -9.484826487129293
      ],
      [
        "ща",
        -9.484998565901254
      ],
      [
        "▁б",
        -9.485233071421396
      ],
      [
        "род",
        -9.486690460362638
      ],
      [
        "▁вашей",
        -9.48785521630133
      ],
      [
        "ход",
        -9.48808223938775
      ],
      [
        "▁программ",
        -9.48919378327955
      ],
      [
        "▁(по",
        -9.48943130335874
      ],
      [
        "▁виду",
        -9.489893723067029
      ],
      [
        "▁взять",
        -9.489950495066076
      ],
      [
        "▁26",
        -9.490255828861105
      ],
      [
        "▁лицо",
        -9.49028403990233
      ],
      [
        "▁основных",
        -9.491724544726756
      ],
      [
        "▁вокруг",
        -9.493294166600696
      ],
      [
        "▁множество",
        -9.493433562892172
      ],
      [
        "▁самостоятельно",
        -9.493976065212443
      ],
      [
        "нее",
        -9.494373450537111
      ],
      [
        "▁результаты",
        -9.495862904002669
      ],
      [
        "▁Москве",
        -9.496097036680567
      ],
      [
        "▁бесплатно",
        -9.496805463516399
      ],
      [
        "▁большое",
        -9.496837475170903
      ],
      [
        "▁де",
        -9.497016563620878
      ],
      [
        "▁непосредственно",
        -9.497498366970802
      ],
      [
        "▁скоро",
        -9.497510570593935
      ],
      [
        "илась",
        -9.499580896598541
      ],
      [
        "▁Владимир",
        -9.500170701062837
      ],
      [
        "10",
        -9.500716852061135
      ],
      [
        "▁сможет",
        -9.501182960745039
      ],
      [
        ".ru",
        -9.501352224655605
      ],
      [
        "▁сумму",
        -9.501760891586201
      ],
      [
        ")))",
        -9.502388937156066
      ],
      [
        "стро",
        -9.502715586467481
      ],
      [
        "▁увидеть",
        -9.50451688344687
      ],
      [
        "▁дать",
        -9.504520994472255
      ],
      [
        "▁Н",
        -9.505673558670662
      ],
      [
        "▁путем",
        -9.505755651785243
      ],
      [
        "О",
        -9.505865147123805
      ],
      [
        "ели",
        -9.506665826463001
      ],
      [
        "▁Просто",
        -9.507566270356701
      ],
      [
        "▁учет",
        -9.507888449611862
      ],
      [
        "▁B",
        -9.508083792665246
      ],
      [
        "▁4.",
        -9.508219813315318
      ],
      [
        "▁исследования",
        -9.508975342300833
      ],
      [
        "▁решил",
        -9.509576429993661
      ],
      [
        "c",
        -9.510674978794396
      ],
      [
        "▁помочь",
        -9.511821749430137
      ],
      [
        "▁вроде",
        -9.511893578168188
      ],
      [
        "▁всего,",
        -9.511951142075612
      ],
      [
        "жа",
        -9.516052558948957
      ],
      [
        "▁Эта",
        -9.517961120014412
      ],
      [
        "▁представляет",
        -9.518209882151552
      ],
      [
        "▁быть,",
        -9.518307411538677
      ],
      [
        "▁З",
        -9.51986059384214
      ],
      [
        "▁особо",
        -9.520541646748178
      ],
      [
        "▁следующие",
        -9.520874093935891
      ],
      [
        "n",
        -9.521082112658124
      ],
      [
        "▁Э",
        -9.523141592023002
      ],
      [
        "ится",
        -9.523158288614896
      ],
      [
        "▁новой",
        -9.523513909527123
      ],
      [
        "00",
        -9.525761159224007
      ],
      [
        "▁класс",
        -9.526206929809359
      ],
      [
        "▁ответственность",
        -9.527043966825433
      ],
      [
        "▁размер",
        -9.527201301912077
      ],
      [
        "▁активно",
        -9.527294753745501
      ],
      [
        "У",
        -9.529517931045296
      ],
      [
        "D",
        -9.530943210709513
      ],
      [
        "▁результат",
        -9.531336689989356
      ],
      [
        "▁рублей.",
        -9.53301609823098
      ],
      [
        "▁число",
        -9.534422386874532
      ],
      [
        "ают",
        -9.534430129627317
      ],
      [
        "▁вами",
        -9.534598162314012
      ],
      [
        "▁данного",
        -9.534606604329579
      ],
      [
        "▁другом",
        -9.534878834763902
      ],
      [
        "▁Х",
        -9.535105516623817
      ],
      [
        "▁заявления",
        -9.535850074519194
      ],
      [
        "▁отметить",
        -9.537246879825968
      ],
      [
        "лож",
        -9.537386110982492
      ],
      [
        "▁случаев",
        -9.537593252490833
      ],
      [
        "▁сожалению,",
        -9.540590339592914
      ],
      [
        "▁опять",
        -9.54163972064995
      ],
      [
        "ний",
        -9.542484691060324
      ],
      [
        "чу",
        -9.542751404228191
      ],
      [
        "стан",
        -9.543194342307281
      ],
      [
        "▁городе",
        -9.545024607272314
      ],
      [
        "▁несмотря",
        -9.545496766148378
      ],
      [
        "▁имени",
        -9.54610343399129
      ],
      [
        "▁другого",
        -9.547024170645845
      ],
      [
        "ился",
        -9.548954572311875
      ],
      [
        "▁начать",
        -9.549456157464842
      ],
      [
        "▁район",
        -9.550364497376377
      ],
      [
        "что",
        -9.550365651267146
      ],
      [
        "▁взгляд",
        -9.550903049071284
      ],
      [
        "▁февраля",
        -9.551005241355323
      ],
      [
        "▁органа",
        -9.551806236141523
      ],
      [
        "▁сведения",
        -9.553806750600685
      ],
      [
        "▁ремонт",
        -9.554012774014973
      ],
      [
        "ца",
        -9.554051576065273
      ],
      [
        "▁расходов",
        -9.554690722351538
      ],
      [
        "▁относительно",
        -9.555012540225786
      ],
      [
        "зна",
        -9.55568059731796
      ],
      [
        "▁мероприятий",
        -9.555690086486084
      ],
      [
        "▁большинство",
        -9.556885073770331
      ],
      [
        "▁социальных",
        -9.55697209570041
      ],
      [
        "Д",
        -9.557308242548022
      ],
      [
        "а»",
        -9.55756581478587
      ],
      [
        "ста",
        -9.558197672641462
      ],
      [
        "▁хочется",
        -9.55955643481365
      ],
      [
        "▁политики",
        -9.560391695889074
      ],
      [
        "▁комплекс",
        -9.562032941530127
      ],
      [
        "▁администрации",
        -9.562114091524975
      ],
      [
        "▁лично",
        -9.563391226003379
      ],
      [
        "▁остается",
        -9.563503860288902
      ],
      [
        "▁мной",
        -9.564214979332103
      ],
      [
        "оз",
        -9.56622807916748
      ],
      [
        "▁видов",
        -9.566234949829607
      ],
      [
        "▁_",
        -9.566296182586996
      ],
      [
        "▁одновременно",
        -9.566443652194309
      ],
      [
        "▁стороны,",
        -9.566975897687541
      ],
      [
        "▁наличии",
        -9.56771524407307
      ],
      [
        "▁идти",
        -9.567737310314754
      ],
      [
        "вар",
        -9.567979810147822
      ],
      [
        "▁ваши",
        -9.568054386582999
      ],
      [
        "▁мест",
        -9.568914215489663
      ],
      [
        "▁видеть",
        -9.569060578897405
      ],
      [
        "▁материалов",
        -9.569125521654401
      ],
      [
        "ским",
        -9.569379822844745
      ],
      [
        "▁характер",
        -9.570643849131649
      ],
      [
        "l",
        -9.57113120064725
      ],
      [
        "▁вновь",
        -9.5713110646115
      ],
      [
        "▁путь",
        -9.571873104855563
      ],
      [
        "▁проблема",
        -9.573152048030181
      ],
      [
        "▁рода",
        -9.574426771570923
      ],
      [
        "▁приходится",
        -9.574659181072546
      ],
      [
        "вал",
        -9.576424482817663
      ],
      [
        "ка,",
        -9.577052107215334
      ],
      [
        "ости",
        -9.577929252276169
      ],
      [
        "▁каждой",
        -9.578575413763492
      ],
      [
        "▁значительно",
        -9.578664750145844
      ],
      [
        "▁законом",
        -9.578751639132681
      ],
      [
        "▁причин",
        -9.579779887704605
      ],
      [
        "w",
        -9.580067754918069
      ],
      [
        "▁смысл",
        -9.580188867059686
      ],
      [
        "▁воз",
        -9.580569530624542
      ],
      [
        "▁Москвы",
        -9.581085969561107
      ],
      [
        "▁2006",
        -9.581347576441281
      ],
      [
        "▁конца",
        -9.581595205683811
      ],
      [
        "▁слов",
        -9.581836861250748
      ],
      [
        "▁бес",
        -9.58289418859085
      ],
      [
        "▁взыскани",
        -9.58376452240769
      ],
      [
        "тель",
        -9.583773686514057
      ],
      [
        "▁выполнения",
        -9.584076183016752
      ],
      [
        "▁вашего",
        -9.586526367223463
      ],
      [
        "ец",
        -9.586771101211202
      ],
      [
        "▁F",
        -9.587840041090246
      ],
      [
        "▁столько",
        -9.589874710963716
      ],
      [
        "▁действий",
        -9.589962300748638
      ],
      [
        "▁состоит",
        -9.590116810092097
      ],
      [
        "▁целях",
        -9.591339515822138
      ],
      [
        "▁A",
        -9.591843672313347
      ],
      [
        "▁узнать",
        -9.591849385418364
      ],
      [
        "—",
        -9.5925908109064
      ],
      [
        "▁рост",
        -9.592640096897963
      ],
      [
        "гу",
        -9.593169008100263
      ],
      [
        "▁дальше",
        -9.593396892297498
      ],
      [
        "▁контроль",
        -9.593450418940888
      ],
      [
        "▁людям",
        -9.593825846188814
      ],
      [
        "▁положение",
        -9.594087850403165
      ],
      [
        "▁месяц",
        -9.594809261549393
      ],
      [
        "▁знать",
        -9.5954077184801
      ],
      [
        "▁Р",
        -9.595784140672944
      ],
      [
        "▁насколько",
        -9.59949816332667
      ],
      [
        "-19",
        -9.599587444663664
      ],
      [
        "▁2010",
        -9.599616021186904
      ],
      [
        "ика",
        -9.600112539286375
      ],
      [
        "▁рабочих",
        -9.600209768828714
      ],
      [
        "▁формы",
        -9.603062012572696
      ],
      [
        "▁осуществляется",
        -9.60336159853994
      ],
      [
        "▁люди,",
        -9.604263271933759
      ],
      [
        "▁%",
        -9.607022157438493
      ],
      [
        "▁иначе",
        -9.607747442117137
      ],
      [
        "▁качество",
        -9.60816194818813
      ],
      [
        "лит",
        -9.608662804684524
      ],
      [
        "▁меры",
        -9.611089095491335
      ],
      [
        "▁получил",
        -9.611268141239538
      ],
      [
        "▁отношение",
        -9.611305388557344
      ],
      [
        "▁процесса",
        -9.612601428523536
      ],
      [
        "▁ситуация",
        -9.61270483844728
      ],
      [
        "скую",
        -9.613149088295648
      ],
      [
        "ете",
        -9.613575401120743
      ],
      [
        "▁школы",
        -9.614745499185158
      ],
      [
        "▁принимать",
        -9.615091019601063
      ],
      [
        "ё",
        -9.615695545412718
      ],
      [
        "▁список",
        -9.616613784457773
      ],
      [
        "▁какие-то",
        -9.616708689676853
      ],
      [
        "ового",
        -9.617195182426718
      ],
      [
        "▁цвет",
        -9.617280170959656
      ],
      [
        "▁всему",
        -9.617371337428207
      ],
      [
        "▁России.",
        -9.617506958440082
      ],
      [
        "▁здоровья",
        -9.617647401721381
      ],
      [
        "▁пару",
        -9.619768947143973
      ],
      [
        "▁область",
        -9.620061903921203
      ],
      [
        "К",
        -9.620088815393139
      ],
      [
        "▁требует",
        -9.620346921329146
      ],
      [
        "▁дни",
        -9.621300519744722
      ],
      [
        "▁проверки",
        -9.62278122970472
      ],
      [
        "▁женщина",
        -9.622830113000017
      ],
      [
        "▁Более",
        -9.623248156083008
      ],
      [
        "▁понять",
        -9.624647249561102
      ],
      [
        "▁статье",
        -9.624885401942134
      ],
      [
        "ши",
        -9.625399333635013
      ],
      [
        "ились",
        -9.625910809309298
      ],
      [
        "бы",
        -9.626109281865222
      ],
      [
        "▁которому",
        -9.62754617444218
      ],
      [
        "▁ребенок",
        -9.628680144377645
      ],
      [
        "))",
        -9.629615321980467
      ],
      [
        "▁комиссии",
        -9.629659174418324
      ],
      [
        "▁интернет",
        -9.629670908227972
      ],
      [
        "овая",
        -9.630122631400042
      ],
      [
        "раз",
        -9.630595830535476
      ],
      [
        "цы",
        -9.630940001864609
      ],
      [
        "Каждый",
        -9.632412349567641
      ],
      [
        "жи",
        -9.632619508942824
      ],
      [
        "30",
        -9.632797709883675
      ],
      [
        "▁задач",
        -9.63396752256954
      ],
      [
        "▁рынка",
        -9.634350319137024
      ],
      [
        "B",
        -9.634392657844133
      ],
      [
        "▁требуется",
        -9.63584739261981
      ],
      [
        "▁размере",
        -9.636305133022343
      ],
      [
        "▁смотреть",
        -9.636602594612626
      ],
      [
        "▁главное",
        -9.636814396564958
      ],
      [
        "ции",
        -9.63775203531333
      ],
      [
        "al",
        -9.637976560931794
      ],
      [
        "▁членов",
        -9.639481288440088
      ],
      [
        "▁России,",
        -9.640226567938036
      ],
      [
        "▁млн",
        -9.641207162356995
      ],
      [
        "▁уверен",
        -9.641620459428179
      ],
      [
        "f",
        -9.642888428179084
      ],
      [
        "э",
        -9.644027103720074
      ],
      [
        "▁времени,",
        -9.645099322139831
      ],
      [
        "▁экономики",
        -9.646117003699931
      ],
      [
        "▁D",
        -9.649647615160667
      ],
      [
        "▁Александр",
        -9.649721756242315
      ],
      [
        "▁отказ",
        -9.649844460879702
      ],
      [
        "▁итоге",
        -9.649919191572907
      ],
      [
        "▁такую",
        -9.649924468671589
      ],
      [
        "▁задачи",
        -9.65025378391843
      ],
      [
        "▁поможет",
        -9.650493504243475
      ],
      [
        "нь",
        -9.650620355579134
      ],
      [
        "▁бизнеса",
        -9.652161238151667
      ],
      [
        "▁вовсе",
        -9.652170036927398
      ],
      [
        "ция",
        -9.6522719116794
      ],
      [
        "▁количества",
        -9.652901815640433
      ],
      [
        "▁документ",
        -9.653102435644184
      ],
      [
        "▁состояния",
        -9.653900478621189
      ],
      [
        "▁работают",
        -9.655675131933364
      ],
      [
        "▁наконец",
        -9.656030362211805
      ],
      [
        "вид",
        -9.656374528693544
      ],
      [
        "▁сначала",
        -9.656672805070595
      ],
      [
        "▁Раз",
        -9.658028021079748
      ],
      [
        "▁использование",
        -9.658127386470479
      ],
      [
        "Многие",
        -9.659512192652691
      ],
      [
        "▁автоматы",
        -9.659855558941985
      ],
      [
        "▁числа",
        -9.660100052077443
      ],
      [
        "▁различные",
        -9.660703909377668
      ],
      [
        "▁сотрудников",
        -9.661215889701449
      ],
      [
        "▁пришел",
        -9.661229809405661
      ],
      [
        "▁анализ",
        -9.662897715732583
      ],
      [
        "▁Кто",
        -9.664408834520067
      ],
      [
        "▁язык",
        -9.664513086614598
      ],
      [
        "▁книги",
        -9.664556131179591
      ],
      [
        "▁смысле",
        -9.666756604076529
      ],
      [
        "▁оборудования",
        -9.667122799520751
      ],
      [
        "▁обо",
        -9.667529587502576
      ],
      [
        "ще",
        -9.66776016808873
      ],
      [
        "▁ясно",
        -9.667778533150457
      ],
      [
        "▁цель",
        -9.672179724867181
      ],
      [
        "▁пример",
        -9.672771765416048
      ],
      [
        "20",
        -9.673626002881651
      ],
      [
        "▁самоуправления",
        -9.67430059525474
      ],
      [
        "▁воды",
        -9.67464637301315
      ],
      [
        "▁наличие",
        -9.675349999781801
      ],
      [
        "▁процентов",
        -9.676044507589939
      ],
      [
        "ой.",
        -9.676152920190159
      ],
      [
        "▁своему",
        -9.676394590177285
      ],
      [
        "▁месяца",
        -9.676639592144664
      ],
      [
        "▁поддержки",
        -9.676706753191308
      ],
      [
        "▁думать",
        -9.677336252534207
      ],
      [
        "вести",
        -9.677590331503549
      ],
      [
        "▁внимания",
        -9.677767472851311
      ],
      [
        "▁случай",
        -9.678155362464086
      ],
      [
        "▁знают",
        -9.678741599150296
      ],
      [
        "▁всеми",
        -9.679620415736604
      ],
      [
        "▁туда",
        -9.68077292648934
      ],
      [
        "50",
        -9.680916680544218
      ],
      [
        "▁провести",
        -9.681296149759778
      ],
      [
        "▁понять,",
        -9.682061606584229
      ],
      [
        "жен",
        -9.682284904222474
      ],
      [
        "аль",
        -9.682295050907618
      ],
      [
        "▁банка",
        -9.682324822049083
      ],
      [
        "▁товар",
        -9.682691228447304
      ],
      [
        "▁семьи",
        -9.683579269916159
      ],
      [
        "▁суммы",
        -9.684021174004275
      ],
      [
        "▁бывает",
        -9.684116217221195
      ],
      [
        "▁казалось",
        -9.684158092735753
      ],
      [
        "ним",
        -9.685562982977086
      ],
      [
        "лин",
        -9.688135185346653
      ],
      [
        "▁предложения",
        -9.688378573522483
      ],
      [
        "ики",
        -9.688597151562249
      ],
      [
        "▁четыре",
        -9.688977605694443
      ],
      [
        "▁\"С",
        -9.688986999257256
      ],
      [
        "ания",
        -9.68969516214256
      ],
      [
        "▁энергии",
        -9.689783178191576
      ],
      [
        "▁центр",
        -9.690025993580665
      ],
      [
        "in",
        -9.690210352870224
      ],
      [
        "▁подготовки",
        -9.690289658672913
      ],
      [
        "▁находятся",
        -9.69147758255001
      ],
      [
        "▁кому",
        -9.691744213215625
      ],
      [
        "земельного",
        -9.691769453065593
      ],
      [
        "▁вместо",
        -9.692308227366034
      ],
      [
        "i",
        -9.692835272680867
      ],
      [
        "образ",
        -9.693589662215203
      ],
      [
        "▁2008",
        -9.694077143629645
      ],
      [
        "▁доступ",
        -9.695283620307976
      ],
      [
        "▁человек.",
        -9.695387071209954
      ],
      [
        "▁смерти",
        -9.695490100562877
      ],
      [
        "▁исполнения",
        -9.698385242935535
      ],
      [
        "Согласно",
        -9.698627470121659
      ],
      [
        "▁положения",
        -9.698950157497084
      ],
      [
        "▁вне",
        -9.699952085457559
      ],
      [
        "▁сообщает",
        -9.700024913962595
      ],
      [
        "▁создание",
        -9.700358344947425
      ],
      [
        "▁профессионально",
        -9.700982087516142
      ],
      [
        "▁принято",
        -9.70109050759337
      ],
      [
        "▁крайней",
        -9.701197903736782
      ],
      [
        "Г",
        -9.701682639183277
      ],
      [
        "▁специалистов",
        -9.70301755405518
      ],
      [
        "▁Спасибо",
        -9.703223411681162
      ],
      [
        "ация",
        -9.703827688305278
      ],
      [
        "ации",
        -9.703930610130367
      ],
      [
        "▁применения",
        -9.704584270325602
      ],
      [
        "▁60",
        -9.704759102029104
      ],
      [
        "▁5.",
        -9.7049790450707
      ],
      [
        "▁порядка",
        -9.706477739971982
      ],
      [
        "▁учета",
        -9.707925444269978
      ],
      [
        "▁обратиться",
        -9.708279791903205
      ],
      [
        "▁примеру",
        -9.70835754592709
      ],
      [
        "лет",
        -9.71037334308841
      ],
      [
        "ишь",
        -9.711268099495369
      ],
      [
        "▁31",
        -9.71321869386746
      ],
      [
        "▁невозможно",
        -9.713309686954585
      ],
      [
        "▁кредит",
        -9.71333341603367
      ],
      [
        "▁«Об",
        -9.713655389745814
      ],
      [
        "▁возрасте",
        -9.714663508210045
      ],
      [
        "▁народ",
        -9.714689755429951
      ],
      [
        "ки.",
        -9.71474152738895
      ],
      [
        "▁заниматься",
        -9.715590905544348
      ],
      [
        "юсь",
        -9.715879399837657
      ],
      [
        "а)",
        -9.715974342118354
      ],
      [
        "▁посмотреть",
        -9.716880678881225
      ],
      [
        "ей,",
        -9.717090760066167
      ],
      [
        "ении",
        -9.717546342374192
      ],
      [
        "ятся",
        -9.717591131419177
      ],
      [
        "▁вида",
        -9.717926569283257
      ],
      [
        "▁раздел",
        -9.718636569220738
      ],
      [
        "▁отличие",
        -9.718674156974753
      ],
      [
        "тели",
        -9.71920012022192
      ],
      [
        "▁решений",
        -9.719873732236287
      ],
      [
        "▁игр",
        -9.72027677207746
      ],
      [
        "▁ради",
        -9.721093710037461
      ],
      [
        "ред",
        -9.723841547425913
      ],
      [
        "▁впервые",
        -9.724570281411369
      ],
      [
        "▁следующий",
        -9.725583977861621
      ],
      [
        "▁Бог",
        -9.72604304757439
      ],
      [
        "▁исключительно",
        -9.726087297441108
      ],
      [
        "▁товара",
        -9.726235887725728
      ],
      [
        "▁видно",
        -9.727038181986957
      ],
      [
        "▁2009",
        -9.72713036919011
      ],
      [
        "▁считает",
        -9.727734116983015
      ],
      [
        "▁пусть",
        -9.727935097351597
      ],
      [
        "ска",
        -9.728026879197717
      ],
      [
        "▁Правительства",
        -9.72811414513957
      ],
      [
        "▁интерес",
        -9.728133647298623
      ],
      [
        "тся",
        -9.728313386941663
      ],
      [
        "▁доме",
        -9.729722502752516
      ],
      [
        "▁настолько",
        -9.729764234632562
      ],
      [
        "▁иску",
        -9.729930628120051
      ],
      [
        "бер",
        -9.730140040684613
      ],
      [
        "▁модели",
        -9.730732576479106
      ],
      [
        "▁категории",
        -9.731162152564288
      ],
      [
        "▁первом",
        -9.73146167911755
      ],
      [
        "▁орган",
        -9.731505517675174
      ],
      [
        "▁гг.",
        -9.733350200379839
      ],
      [
        "▁знания",
        -9.733877842488717
      ],
      [
        "▁пришлось",
        -9.734598948496833
      ],
      [
        "▁крайне",
        -9.735225708713898
      ],
      [
        "▁относится",
        -9.73643385674792
      ],
      [
        "ющего",
        -9.736846651093472
      ],
      [
        "ъ",
        -9.738239129085496
      ],
      [
        "▁/",
        -9.738475037229794
      ],
      [
        "ья",
        -9.739189848745333
      ],
      [
        "▁оценки",
        -9.73934694806033
      ],
      [
        "▁заключается",
        -9.739829294533592
      ],
      [
        "▁роста",
        -9.740279716545047
      ],
      [
        "▁органы",
        -9.741148202701677
      ],
      [
        "▁пользу",
        -9.742181111788415
      ],
      [
        "▁которыми",
        -9.742319670901765
      ],
      [
        "▁срока",
        -9.74252121631265
      ],
      [
        "▁электро",
        -9.74278632510751
      ],
      [
        "Б",
        -9.744183365359415
      ],
      [
        "▁мер",
        -9.744397883722758
      ],
      [
        "▁отдельных",
        -9.744486389027621
      ],
      [
        "словно",
        -9.746275007268231
      ],
      [
        "▁отношений",
        -9.747139752684031
      ],
      [
        "▁материалы",
        -9.747599030390038
      ],
      [
        "▁хотят",
        -9.747867303310557
      ],
      [
        "▁значения",
        -9.748311297134848
      ],
      [
        "▁моего",
        -9.74847413276006
      ],
      [
        "▁принял",
        -9.748954419734002
      ],
      [
        "▁связанных",
        -9.75063229761874
      ],
      [
        "▁Санкт-Петербург",
        -9.751026090326885
      ],
      [
        "g",
        -9.751192225307307
      ],
      [
        "▁игровые",
        -9.751295650222907
      ],
      [
        "▁вижу",
        -9.751502639681455
      ],
      [
        "▁настоящего",
        -9.751728250489906
      ],
      [
        "▁пост",
        -9.752771214597704
      ],
      [
        "▁матери",
        -9.752931140571029
      ],
      [
        "▁час",
        -9.753353792592627
      ],
      [
        "▁подход",
        -9.754006145250408
      ],
      [
        "▁произошло",
        -9.756127763575169
      ],
      [
        "▁учреждения",
        -9.756178982428608
      ],
      [
        "▁ООО",
        -9.75622506610986
      ],
      [
        "▁функции",
        -9.756930322853812
      ],
      [
        "▁Один",
        -9.757539921877502
      ],
      [
        "▁голову",
        -9.757971280091745
      ],
      [
        "▁целей",
        -9.758312514724054
      ],
      [
        "▁«А",
        -9.75899079860018
      ],
      [
        "▁объем",
        -9.7603946196115
      ],
      [
        "▁голос",
        -9.760774980575997
      ],
      [
        "▁мероприятия",
        -9.761380228911971
      ],
      [
        "лы",
        -9.762082348374273
      ],
      [
        "став",
        -9.762148951868323
      ],
      [
        "▁знает",
        -9.762645333671895
      ],
      [
        "▁отсутствие",
        -9.76270571242881
      ],
      [
        "▁сравнению",
        -9.764265934262108
      ],
      [
        "▁словами",
        -9.764351776324165
      ],
      [
        "▁Ж",
        -9.764616102660508
      ],
      [
        "▁задача",
        -9.764723379572443
      ],
      [
        "▁нужен",
        -9.764911701093729
      ],
      [
        "▁организация",
        -9.76654099639099
      ],
      [
        "er",
        -9.766827070381439
      ],
      [
        "▁ночь",
        -9.767212684906596
      ],
      [
        "▁желание",
        -9.768555083174508
      ],
      [
        "▁(на",
        -9.768630148542709
      ],
      [
        "▁бюджет",
        -9.76869489559912
      ],
      [
        "кро",
        -9.769078769022219
      ],
      [
        "▁основные",
        -9.770198057521966
      ],
      [
        "▁году.",
        -9.770390113202676
      ],
      [
        "▁успешно",
        -9.770403613929673
      ],
      [
        "цев",
        -9.770451341249416
      ],
      [
        "▁Решение",
        -9.770613345730586
      ],
      [
        "▁Ре",
        -9.770677827771605
      ],
      [
        "▁отдыха",
        -9.77100580615284
      ],
      [
        "S",
        -9.77102514859325
      ],
      [
        "▁последнее",
        -9.772716828570658
      ],
      [
        "▁кон",
        -9.773790676958289
      ],
      [
        "▁Возможно,",
        -9.77389359999903
      ],
      [
        "▁столь",
        -9.774074035560439
      ],
      [
        "▁человека.",
        -9.774460997888937
      ],
      [
        "▁включая",
        -9.774850004667218
      ],
      [
        "ант",
        -9.77675199111248
      ],
      [
        "▁вывод",
        -9.77755663073116
      ],
      [
        "▁телефон",
        -9.777593153383421
      ],
      [
        "▁районе",
        -9.778319021492788
      ],
      [
        "▁Те",
        -9.778337655390427
      ],
      [
        "▁будете",
        -9.779552663884447
      ],
      [
        "▁зачем",
        -9.780154600368558
      ],
      [
        "клад",
        -9.780824479501057
      ],
      [
        "▁стр.",
        -9.781181566355986
      ],
      [
        "ические",
        -9.781536092695802
      ],
      [
        "вен",
        -9.782555085750694
      ],
      [
        "▁отец",
        -9.783172025143235
      ],
      [
        "▁текст",
        -9.78320104670346
      ],
      [
        "лей",
        -9.78354250287991
      ],
      [
        "▁понимать",
        -9.784760270822606
      ],
      [
        "рен",
        -9.785433430376507
      ],
      [
        "▁больше,",
        -9.786088475042785
      ],
      [
        "од",
        -9.786191875171205
      ],
      [
        "▁муж",
        -9.786250708907144
      ],
      [
        "▁любого",
        -9.786722056180043
      ],
      [
        "!»",
        -9.789177380691815
      ],
      [
        "▁бюджета",
        -9.790359112622841
      ],
      [
        "▁кодекса",
        -9.790516614271553
      ],
      [
        "▁никакого",
        -9.790550544533176
      ],
      [
        "▁прием",
        -9.790986081942103
      ],
      [
        "▁минимум",
        -9.79129289993148
      ],
      [
        "▁т.е.",
        -9.791456085019295
      ],
      [
        "▁продуктов",
        -9.791535206000816
      ],
      [
        "▁500",
        -9.791838616385935
      ],
      [
        "▁утверждении",
        -9.79201200544341
      ],
      [
        "▁причем",
        -9.792687630038634
      ],
      [
        "11",
        -9.793002657811439
      ],
      [
        "▁делают",
        -9.793312831042172
      ],
      [
        "▁1)",
        -9.793662093956886
      ],
      [
        "Ж",
        -9.79414893104885
      ],
      [
        "▁вести",
        -9.795364517096669
      ],
      [
        "▁рынок",
        -9.79633284910635
      ],
      [
        "▁первые",
        -9.79634735497752
      ],
      [
        "▁машин",
        -9.796503509682358
      ],
      [
        "▁прошлом",
        -9.79662911213283
      ],
      [
        "▁часа",
        -9.79669762328439
      ],
      [
        "▁нами",
        -9.79754718064687
      ],
      [
        "▁мысль",
        -9.797744334350142
      ],
      [
        "▁проектов",
        -9.797856630560226
      ],
      [
        "▁думал",
        -9.798221162308963
      ],
      [
        "▁программа",
        -9.798331364709014
      ],
      [
        "▁человеку",
        -9.798746702843243
      ],
      [
        "бр",
        -9.799115544271029
      ],
      [
        "▁каждом",
        -9.79918888429367
      ],
      [
        "пу",
        -9.799326216966588
      ],
      [
        "ран",
        -9.801014767897271
      ],
      [
        "Х",
        -9.801017477130287
      ],
      [
        "тро",
        -9.801109941060986
      ],
      [
        "▁где-то",
        -9.801231909157405
      ],
      [
        "▁представить",
        -9.801310620894707
      ],
      [
        "ирование",
        -9.801441611422085
      ],
      [
        "▁президент",
        -9.801887722534449
      ],
      [
        "▁другое",
        -9.803938493986234
      ],
      [
        "▁бизнес",
        -9.805048704521246
      ],
      [
        "m",
        -9.80620172331185
      ],
      [
        "▁тобой",
        -9.806812752887943
      ],
      [
        "▁поле",
        -9.80780813269121
      ],
      [
        "Ф",
        -9.808201156518063
      ],
      [
        "уд",
        -9.808554638776616
      ],
      [
        "це",
        -9.809011265141484
      ],
      [
        "▁образование",
        -9.809900470711067
      ],
      [
        "▁первых",
        -9.81001162576854
      ],
      [
        "▁позволит",
        -9.810107327282669
      ],
      [
        "▁G",
        -9.810838939843084
      ],
      [
        "мет",
        -9.811005268614156
      ],
      [
        "▁странах",
        -9.812701843298637
      ],
      [
        "▁получение",
        -9.81282167807162
      ],
      [
        "▁групп",
        -9.812995493724888
      ],
      [
        "▁частью",
        -9.813130011730232
      ],
      [
        "▁предоставления",
        -9.814430414330468
      ],
      [
        "▁начинает",
        -9.81478351340575
      ],
      [
        "▁сумма",
        -9.814793381376841
      ],
      [
        "▁эксплуатации",
        -9.814964141405433
      ],
      [
        "▁II",
        -9.815033801092753
      ],
      [
        "▁известно,",
        -9.815131406551433
      ],
      [
        "▁чему",
        -9.81564336776096
      ],
      [
        "▁\"В",
        -9.816304533398217
      ],
      [
        "▁проведении",
        -9.816408838443904
      ],
      [
        "▁большая",
        -9.816589261128762
      ],
      [
        "нос",
        -9.816711513000076
      ],
      [
        "▁Потом",
        -9.816915531565826
      ],
      [
        "▁каким",
        -9.817248801649878
      ],
      [
        "▁нужна",
        -9.817284922030922
      ],
      [
        "▁история",
        -9.817741477250804
      ],
      [
        "▁обязан",
        -9.818101906963467
      ],
      [
        "▁пишет",
        -9.819563548365995
      ],
      [
        "▁M",
        -9.819896194759881
      ],
      [
        "▁новое",
        -9.82058638014168
      ],
      [
        "▁последний",
        -9.821069471588398
      ],
      [
        "▁знаний",
        -9.8210740474487
      ],
      [
        "ирует",
        -9.821311340255555
      ],
      [
        "▁оплаты",
        -9.821579387318625
      ],
      [
        "▁полу",
        -9.821586389694483
      ],
      [
        "ала",
        -9.822066108051
      ],
      [
        "▁режим",
        -9.822871509369076
      ],
      [
        "пад",
        -9.823311182117454
      ],
      [
        "▁считать",
        -9.82355729872976
      ],
      [
        "▁наше",
        -9.824468320285284
      ],
      [
        "▁Ко",
        -9.825113151649115
      ],
      [
        "▁предприниматель",
        -9.82517869812336
      ],
      [
        "▁науки",
        -9.826173056907345
      ],
      [
        "лом",
        -9.828877207927398
      ],
      [
        "▁Пока",
        -9.82892159465311
      ],
      [
        "▁сроки",
        -9.829363513467229
      ],
      [
        "▁действие",
        -9.82967080775082
      ],
      [
        "▁прибыль",
        -9.829679828468059
      ],
      [
        "▁депутатов",
        -9.829749284065025
      ],
      [
        "ды",
        -9.830188699815178
      ],
      [
        "▁соответственно",
        -9.830586098395672
      ],
      [
        "▁метод",
        -9.832450180127793
      ],
      [
        "▁Совет",
        -9.833064406262345
      ],
      [
        "▁говорили",
        -9.833641661566341
      ],
      [
        "▁шаг",
        -9.834293988229017
      ],
      [
        "▁Пере",
        -9.83434292962918
      ],
      [
        "▁далее",
        -9.834729811026946
      ],
      [
        "▁Их",
        -9.834835568376922
      ],
      [
        "бор",
        -9.835337934186438
      ],
      [
        "▁учето",
        -9.835456065282594
      ],
      [
        "▁достижения",
        -9.835647006850765
      ],
      [
        "▁любовь",
        -9.835768535583922
      ],
      [
        "▁искать",
        -9.835957946662495
      ],
      [
        "12",
        -9.836627284842532
      ],
      [
        "▁200",
        -9.836735411379971
      ],
      [
        "фе",
        -9.83715453999126
      ],
      [
        "▁помещения",
        -9.837345737849748
      ],
      [
        "▁расходы",
        -9.83741966603656
      ],
      [
        "▁СМИ",
        -9.838733653350165
      ],
      [
        "емся",
        -9.838845526157076
      ],
      [
        "▁да,",
        -9.838881970839005
      ],
      [
        "▁2)",
        -9.839926564760589
      ],
      [
        "▁возникает",
        -9.840074872819635
      ],
      [
        "19",
        -9.840213496369444
      ],
      [
        "re",
        -9.842010044785997
      ],
      [
        "▁доход",
        -9.842191539503748
      ],
      [
        "▁спокойно",
        -9.842479914330715
      ],
      [
        "▁содержание",
        -9.842705249842336
      ],
      [
        "▁решили",
        -9.842758761106813
      ],
      [
        "?!",
        -9.843000466051322
      ],
      [
        "▁наверное,",
        -9.844100718260549
      ],
      [
        "▁имеется",
        -9.844580913040208
      ],
      [
        "▁сторон",
        -9.844641090668034
      ],
      [
        "▁нарушения",
        -9.844974803247005
      ],
      [
        "▁получать",
        -9.845521042959529
      ],
      [
        "▁гор",
        -9.8456220033442
      ],
      [
        "▁решить",
        -9.845693411547913
      ],
      [
        "ул",
        -9.84617467051157
      ],
      [
        "дел",
        -9.846461015282266
      ],
      [
        "▁Надо",
        -9.846482136862413
      ],
      [
        "▁кино",
        -9.846634862323747
      ],
      [
        "▁P",
        -9.846947935381674
      ],
      [
        "▁родители",
        -9.84701324545512
      ],
      [
        "▁пяти",
        -9.8473489471364
      ],
      [
        "▁интересов",
        -9.847648724446973
      ],
      [
        "пер",
        -9.848003766551148
      ],
      [
        "▁фильм",
        -9.848733789248596
      ],
      [
        "чат",
        -9.848981752791117
      ],
      [
        "▁привести",
        -9.850899031610272
      ],
      [
        "-1",
        -9.850932718485568
      ],
      [
        "▁протяжении",
        -9.851014247012264
      ],
      [
        "▁события",
        -9.851042148945504
      ],
      [
        "Несмотря",
        -9.851587972759676
      ],
      [
        "▁ставки",
        -9.85174149052352
      ],
      [
        "▁полной",
        -9.851771683057782
      ],
      [
        "ники",
        -9.851935600594278
      ],
      [
        "▁сюда",
        -9.852056748234642
      ],
      [
        "▁причине",
        -9.852062732896911
      ],
      [
        "▁договору",
        -9.852622643358185
      ],
      [
        "ски",
        -9.853005420655894
      ],
      [
        "▁мужчин",
        -9.853821998062966
      ],
      [
        "▁исключением",
        -9.854902636540166
      ],
      [
        "вед",
        -9.855977381357754
      ],
      [
        "▁образ",
        -9.856938916646783
      ],
      [
        "▁явно",
        -9.857910760660973
      ],
      [
        "▁мама",
        -9.857965884311684
      ],
      [
        "▁тело",
        -9.858923661666354
      ],
      [
        "▁режиме",
        -9.85915183187269
      ],
      [
        "изм",
        -9.859385481876668
      ],
      [
        "▁виды",
        -9.859767746124048
      ],
      [
        "x",
        -9.859908021068458
      ],
      [
        "▁г.)",
        -9.860046604765008
      ],
      [
        "вор",
        -9.861181573894989
      ],
      [
        "▁принятия",
        -9.86172964251745
      ],
      [
        "▁эффективности",
        -9.862463823834407
      ],
      [
        "▁автор",
        -9.86247716890836
      ],
      [
        "▁обеспечение",
        -9.862574327169883
      ],
      [
        "08",
        -9.863443644619682
      ],
      [
        "▁строительство",
        -9.864155955244573
      ],
      [
        "▁день,",
        -9.864456896167646
      ],
      [
        "Л",
        -9.864925520680135
      ],
      [
        "15",
        -9.865596149021277
      ],
      [
        "ника",
        -9.86600565870132
      ],
      [
        "ост",
        -9.868719663260183
      ],
      [
        "▁2007",
        -9.869217294239073
      ],
      [
        "▁местах",
        -9.869314516336711
      ],
      [
        "ью",
        -9.869753837560365
      ],
      [
        "▁связь",
        -9.87016317144235
      ],
      [
        "▁млн.",
        -9.871489569434011
      ],
      [
        "▁Кстати,",
        -9.871737199186768
      ],
      [
        "бу",
        -9.871802432869785
      ],
      [
        "▁Ваш",
        -9.873523502296264
      ],
      [
        "▁недо",
        -9.873771522363235
      ],
      [
        "▁цена",
        -9.875158226769686
      ],
      [
        "ическая",
        -9.875197536854266
      ],
      [
        "его",
        -9.87580473700621
      ],
      [
        "▁людей.",
        -9.87693946860839
      ],
      [
        "▁партии",
        -9.87716467176135
      ],
      [
        "▁семье",
        -9.877681642063573
      ],
      [
        "▁возраста",
        -9.877758537331184
      ],
      [
        "▁форм",
        -9.879138156254266
      ],
      [
        "▁Украине",
        -9.879353980273361
      ],
      [
        "цией",
        -9.879388001476325
      ],
      [
        "▁вес",
        -9.879532230666143
      ],
      [
        "▁родителей",
        -9.880260860298305
      ],
      [
        "▁пришли",
        -9.880864890383592
      ],
      [
        "M",
        -9.881149487178627
      ],
      [
        "▁века",
        -9.881528227700201
      ],
      [
        "▁наша",
        -9.882024823679345
      ],
      [
        "▁проводить",
        -9.882509195451249
      ],
      [
        "A",
        -9.883479921087549
      ],
      [
        "▁благо",
        -9.883577692408714
      ],
      [
        "▁технологии",
        -9.885360721491253
      ],
      [
        "лад",
        -9.886009790870137
      ],
      [
        "▁хотела",
        -9.88625158561067
      ],
      [
        "▁автомобиль",
        -9.886345262116627
      ],
      [
        "▁Итак,",
        -9.886684293737911
      ],
      [
        "▁сути",
        -9.888104826831793
      ],
      [
        "▁школе",
        -9.889001944628422
      ],
      [
        "▁изменить",
        -9.889098392427599
      ],
      [
        "▁совета",
        -9.889873196239183
      ],
      [
        "▁хозяйства",
        -9.891048676552119
      ],
      [
        "▁Дело",
        -9.891085581787195
      ],
      [
        "C",
        -9.89127758553181
      ],
      [
        "▁техники",
        -9.892167449783123
      ],
      [
        "▁показывает",
        -9.892684411775992
      ],
      [
        "▁временем",
        -9.892890337769995
      ],
      [
        "▁российских",
        -9.892939970012822
      ],
      [
        "▁отношению",
        -9.893786108368243
      ],
      [
        "▁Правда",
        -9.894387439995144
      ],
      [
        "ам.",
        -9.894572880687086
      ],
      [
        "▁основной",
        -9.896322117125006
      ],
      [
        "йтесь",
        -9.896348200704928
      ],
      [
        "под",
        -9.897134239390715
      ],
      [
        "▁кем",
        -9.89730599765911
      ],
      [
        "▁относятся",
        -9.89829949556706
      ],
      [
        "▁производство",
        -9.898688429579874
      ],
      [
        "▁улице",
        -9.898907534034844
      ],
      [
        "ций",
        -9.899543910241988
      ],
      [
        "▁понимаю,",
        -9.899987245188512
      ],
      [
        "▁банк",
        -9.900207413216954
      ],
      [
        "▁игре",
        -9.900481625382174
      ],
      [
        "▁Без",
        -9.900859552534206
      ],
      [
        "▁обязанности",
        -9.901236093922988
      ],
      [
        "▁времени.",
        -9.901597318783457
      ],
      [
        "▁недавно",
        -9.90281206370269
      ],
      [
        "▁тепло",
        -9.902867102854838
      ],
      [
        "▁необходимые",
        -9.903139690514816
      ],
      [
        "▁подумал",
        -9.903860181821955
      ],
      [
        "▁прекрасно",
        -9.904300285765817
      ],
      [
        "▁используется",
        -9.904895551744879
      ],
      [
        "▁связанные",
        -9.905126834591037
      ],
      [
        "▁центре",
        -9.905152832093739
      ],
      [
        "▁результатов",
        -9.905648327928784
      ],
      [
        "16",
        -9.90586864574535
      ],
      [
        "▁риск",
        -9.90592964116103
      ],
      [
        "▁знает,",
        -9.906141608633412
      ],
      [
        "▁Ю",
        -9.906362064743375
      ],
      [
        "▁евро",
        -9.90809472161181
      ],
      [
        "▁считается",
        -9.908151225690357
      ],
      [
        "▁:)",
        -9.90828824297224
      ],
      [
        "аж",
        -9.908357370838948
      ],
      [
        "▁вправе",
        -9.90853239784601
      ],
      [
        "25",
        -9.909095089350563
      ],
      [
        "▁сын",
        -9.909155392133322
      ],
      [
        "▁определения",
        -9.909495882042474
      ],
      [
        "▁шанс",
        -9.909575958342314
      ],
      [
        "ющий",
        -9.909999100105878
      ],
      [
        "оч",
        -9.910302684564707
      ],
      [
        "▁объекта",
        -9.910744584393061
      ],
      [
        "▁детей,",
        -9.912072034846153
      ],
      [
        "▁девушка",
        -9.912329208196539
      ],
      [
        "▁вещи",
        -9.913041252498266
      ],
      [
        "сон",
        -9.913151782593713
      ],
      [
        "▁устройства",
        -9.91389330065179
      ],
      [
        "▁чувство",
        -9.914119610379782
      ],
      [
        "Через",
        -9.914264573497203
      ],
      [
        "▁обеспечить",
        -9.91442250449097
      ],
      [
        "▁отчет",
        -9.914465858152429
      ],
      [
        "ден",
        -9.914658275527902
      ],
      [
        "ing",
        -9.914716286032732
      ],
      [
        "▁поселения",
        -9.914938084907522
      ],
      [
        "▁люблю",
        -9.914964313954084
      ],
      [
        "▁игру",
        -9.915441785454378
      ],
      [
        "ница",
        -9.915919702025505
      ],
      [
        "▁ресурсов",
        -9.916183812206313
      ],
      [
        "▁тела",
        -9.917584458959327
      ],
      [
        "воз",
        -9.917623625227403
      ],
      [
        "▁особенности",
        -9.9176543769429
      ],
      [
        "▁па",
        -9.917912895394286
      ],
      [
        "▁осуществления",
        -9.91804789879949
      ],
      [
        "▁разве",
        -9.91810401587721
      ],
      [
        "▁(не",
        -9.918317557864135
      ],
      [
        "▁нравится",
        -9.918519711007928
      ],
      [
        "куп",
        -9.919111579468995
      ],
      [
        "пис",
        -9.919268047574619
      ],
      [
        "станов",
        -9.91950801656212
      ],
      [
        "▁название",
        -9.919554383350327
      ],
      [
        "▁связано",
        -9.919995919596264
      ],
      [
        "▁пройти",
        -9.91999668963531
      ],
      [
        "▁чувства",
        -9.920200099507404
      ],
      [
        "▁сказал,",
        -9.92020816175867
      ],
      [
        "инг",
        -9.92294348166352
      ],
      [
        "▁Ли",
        -9.923571532593463
      ],
      [
        "▁учреждений",
        -9.923580727750174
      ],
      [
        "▁сообщил",
        -9.923644011200007
      ],
      [
        "▁рождения",
        -9.923906178503849
      ],
      [
        "▁вопросов",
        -9.924325981940552
      ],
      [
        "▁повышения",
        -9.924942615886275
      ],
      [
        "ание",
        -9.925962203016375
      ],
      [
        "▁мнение",
        -9.92633889853441
      ],
      [
        "▁операции",
        -9.926670370564775
      ],
      [
        "кор",
        -9.92716791734422
      ],
      [
        "▁намного",
        -9.92718203734815
      ],
      [
        "мир",
        -9.927557104635287
      ],
      [
        "▁президента",
        -9.927715020350057
      ],
      [
        "▁реально",
        -9.928368375046741
      ],
      [
        "▁Москва",
        -9.928421462842966
      ],
      [
        "▁резко",
        -9.928991812308883
      ],
      [
        "▁недели",
        -9.929550564860033
      ],
      [
        "*",
        -9.929755640608779
      ],
      [
        "▁жителей",
        -9.929794911925681
      ],
      [
        "▁другую",
        -9.9299688334612
      ],
      [
        "▁друга",
        -9.930177971523504
      ],
      [
        "▁начали",
        -9.930578999425673
      ],
      [
        "▁тему",
        -9.930602036354262
      ],
      [
        "мин",
        -9.931643157829665
      ],
      [
        "▁карты",
        -9.932095156845381
      ],
      [
        "▁например",
        -9.932167226165424
      ],
      [
        "▁питания",
        -9.932615073141026
      ],
      [
        "▁клиентов",
        -9.93300639481618
      ],
      [
        "▁плохо",
        -9.933159824843802
      ],
      [
        "L",
        -9.933433708457713
      ],
      [
        "▁любви",
        -9.93490941708966
      ],
      [
        "▁влияние",
        -9.935475869454475
      ],
      [
        "▁Министерства",
        -9.935872082989793
      ],
      [
        "▁установить",
        -9.936126474438879
      ],
      [
        "она",
        -9.936648297767684
      ],
      [
        "ирования",
        -9.937418459284185
      ],
      [
        "▁пределах",
        -9.938961400201196
      ],
      [
        "▁вкус",
        -9.939144335120574
      ],
      [
        "▁ваше",
        -9.939262253250835
      ],
      [
        "▁центра",
        -9.94012760657823
      ],
      [
        "сельского",
        -9.941265624227334
      ],
      [
        "13",
        -9.94173518196713
      ],
      [
        "▁власть",
        -9.942091118647971
      ],
      [
        "▁Уже",
        -9.943403850789823
      ],
      [
        "▁заранее",
        -9.943491950909689
      ],
      [
        "дет",
        -9.944134551714342
      ],
      [
        "жив",
        -9.944212868474722
      ],
      [
        "▁спасибо",
        -9.944271638012397
      ],
      [
        "▁участия",
        -9.945176202942104
      ],
      [
        "▁сервис",
        -9.945649519193477
      ],
      [
        "▁заключения",
        -9.945812685524896
      ],
      [
        "▁движение",
        -9.9460083361902
      ],
      [
        "▁плане",
        -9.946025414516082
      ],
      [
        "▁взял",
        -9.9461291169355
      ],
      [
        "▁анализа",
        -9.946689311728584
      ],
      [
        "07",
        -9.947116118977908
      ],
      [
        "▁Форма",
        -9.94731958485437
      ],
      [
        "▁выбора",
        -9.947617425074164
      ],
      [
        "▁встреча",
        -9.948678463696183
      ],
      [
        "▁хватает",
        -9.948712835834113
      ],
      [
        "▁Сам",
        -9.949447162311
      ],
      [
        "вали",
        -9.949469766804228
      ],
      [
        "▁похоже",
        -9.94961318534163
      ],
      [
        "▁знать,",
        -9.949979057004517
      ],
      [
        "▁сделали",
        -9.951124264018322
      ],
      [
        "▁обучение",
        -9.951203925906656
      ],
      [
        "вес",
        -9.951474102241788
      ],
      [
        "внесении",
        -9.951577372720394
      ],
      [
        "▁разговор",
        -9.951731172652545
      ],
      [
        "▁«с",
        -9.951796311741077
      ],
      [
        "▁фактически",
        -9.952267987940294
      ],
      [
        "▁любое",
        -9.952289295629829
      ],
      [
        "▁обращения",
        -9.95306075296876
      ],
      [
        "▁курс",
        -9.95337151021371
      ],
      [
        "▁боль",
        -9.95349654193912
      ],
      [
        "▁приятно",
        -9.954126365713126
      ],
      [
        "▁группа",
        -9.954188331037415
      ],
      [
        "▁среднего",
        -9.95465352067575
      ],
      [
        "ками",
        -9.95470154192854
      ],
      [
        "Нужно",
        -9.955619657692578
      ],
      [
        "▁заметил",
        -9.956039377936202
      ],
      [
        "оп",
        -9.956182135316055
      ],
      [
        "чет",
        -9.957046857318524
      ],
      [
        "▁материал",
        -9.957694642476488
      ],
      [
        "▁Чем",
        -9.957755063984969
      ],
      [
        "вит",
        -9.957774826336365
      ],
      [
        "▁РФ.",
        -9.95810926971234
      ],
      [
        "▁Ц",
        -9.958826255940028
      ],
      [
        "▁недвижимости",
        -9.958987824634292
      ],
      [
        "след",
        -9.960339224396513
      ],
      [
        "▁(например",
        -9.960628136483649
      ],
      [
        "▁Кон",
        -9.960770466212686
      ],
      [
        "▁позиции",
        -9.961262565112406
      ],
      [
        "▁затрат",
        -9.961751843550527
      ],
      [
        "чит",
        -9.962515275166353
      ],
      [
        "▁Ка",
        -9.963784119608938
      ],
      [
        "▁H",
        -9.964486811588246
      ],
      [
        "▁V",
        -9.964781337060682
      ],
      [
        "▁получили",
        -9.965457161643194
      ],
      [
        "▁Сергей",
        -9.965754989500429
      ],
      [
        "02",
        -9.966158254443137
      ],
      [
        "▁класса",
        -9.966430903020596
      ],
      [
        "▁мое",
        -9.966431198687587
      ],
      [
        "▁мать",
        -9.966465287913845
      ],
      [
        "▁деньги,",
        -9.966756821066511
      ],
      [
        "стра",
        -9.9667927932618
      ],
      [
        "▁Закон",
        -9.967762214389746
      ],
      [
        "ников",
        -9.967970000997497
      ],
      [
        "говор",
        -9.968130983756268
      ],
      [
        "▁+",
        -9.96821379526568
      ],
      [
        "▁управление",
        -9.968472751944182
      ],
      [
        "▁письмо",
        -9.96875782972224
      ],
      [
        "овое",
        -9.968885273717753
      ],
      [
        "▁чем-то",
        -9.969466736021463
      ],
      [
        "▁глаз",
        -9.969647363291386
      ],
      [
        "▁ждать",
        -9.969868199933995
      ],
      [
        "▁известно",
        -9.970409098126064
      ],
      [
        "▁необходимость",
        -9.970553619573494
      ],
      [
        "▁=",
        -9.970645492197173
      ],
      [
        "бе",
        -9.970742360453679
      ],
      [
        "▁новую",
        -9.970993851701474
      ],
      [
        "П",
        -9.971145727714312
      ],
      [
        "пут",
        -9.971440433538488
      ],
      [
        "▁концов",
        -9.971603517837984
      ],
      [
        "▁себя,",
        -9.971647318957208
      ],
      [
        "ок,",
        -9.971652766984972
      ],
      [
        "▁большую",
        -9.971719208059938
      ],
      [
        "▁компаний",
        -9.971860912149452
      ],
      [
        "▁приводит",
        -9.972464398129368
      ],
      [
        "-го",
        -9.972629293896489
      ],
      [
        "пре",
        -9.972921524563493
      ],
      [
        "P",
        -9.97313768104954
      ],
      [
        "ён",
        -9.973145618309655
      ],
      [
        "▁здоровье",
        -9.973817012428501
      ],
      [
        "▁форма",
        -9.97385680069097
      ],
      [
        "▁д",
        -9.974227808555911
      ],
      [
        "▁заявлению",
        -9.974380032763282
      ],
      [
        "G",
        -9.97462345181348
      ],
      [
        "▁представителей",
        -9.974802866192
      ],
      [
        "▁платы",
        -9.974829998997695
      ],
      [
        "▁продаж",
        -9.975166273263707
      ],
      [
        "▁говоря,",
        -9.976117256510673
      ],
      [
        "▁составе",
        -9.976134343672635
      ],
      [
        "▁директор",
        -9.976174482744511
      ],
      [
        "▁пункта",
        -9.9762915445261
      ],
      [
        "ряд",
        -9.977971441899575
      ],
      [
        "▁принципе",
        -9.978045700984227
      ],
      [
        "пор",
        -9.97810507165461
      ],
      [
        "▁сложно",
        -9.978243832843967
      ],
      [
        "▁правительства",
        -9.97881411038881
      ],
      [
        "▁требованиям",
        -9.979102754597797
      ],
      [
        "▁день.",
        -9.979579546062798
      ],
      [
        "каз",
        -9.980004636779757
      ],
      [
        "▁совет",
        -9.980565669452922
      ],
      [
        "▁компьютер",
        -9.981025755426135
      ],
      [
        "▁анти",
        -9.981556766689478
      ],
      [
        "▁руку",
        -9.981633326884772
      ],
      [
        "зы",
        -9.982024515484534
      ],
      [
        "u",
        -9.982275710277017
      ],
      [
        "▁проще",
        -9.982346983041078
      ],
      [
        "▁мужчина",
        -9.982450175620926
      ],
      [
        "▁писать",
        -9.982616890272045
      ],
      [
        "ия,",
        -9.983087012965544
      ],
      [
        "▁большим",
        -9.984130462640948
      ],
      [
        "▁максимально",
        -9.984206294334847
      ],
      [
        "▁миллионов",
        -9.98451109267478
      ],
      [
        "▁обслуживания",
        -9.984621965909998
      ],
      [
        "Некоторые",
        -9.985077082884683
      ],
      [
        "сковое",
        -9.985464760160577
      ],
      [
        "▁Та",
        -9.985590059125329
      ],
      [
        "▁государство",
        -9.986329684304291
      ],
      [
        "▁кажется",
        -9.986449002120091
      ],
      [
        "▁вынужден",
        -9.986559061551738
      ],
      [
        "▁неделю",
        -9.986885992831658
      ],
      [
        "▁дверь",
        -9.986910117907689
      ],
      [
        "▁лечения",
        -9.987224677737384
      ],
      [
        "40",
        -9.987514902896164
      ],
      [
        "▁городского",
        -9.987629397335379
      ],
      [
        "▁хочешь",
        -9.987869637733116
      ],
      [
        "▁смог",
        -9.988345995481463
      ],
      [
        "14",
        -9.988665998709173
      ],
      [
        "▁предмет",
        -9.988849691018512
      ],
      [
        "▁круг",
        -9.989237393290706
      ],
      [
        "▁месту",
        -9.989272996094984
      ],
      [
        "▁переход",
        -9.9912686244656
      ],
      [
        "▁фонда",
        -9.991326898981578
      ],
      [
        "▁разрешения",
        -9.993254489862561
      ],
      [
        "сел",
        -9.993801761633579
      ],
      [
        "▁стол",
        -9.994211990183127
      ],
      [
        "▁прошлого",
        -9.994316046885473
      ],
      [
        "ОАО",
        -9.994903969085371
      ],
      [
        "▁интересно",
        -9.994959834166455
      ],
      [
        "▁спор",
        -9.995490152258048
      ],
      [
        "ических",
        -9.996364022082695
      ],
      [
        "▁э",
        -9.996758790177694
      ],
      [
        "▁встречи",
        -9.996779258880345
      ],
      [
        "an",
        -9.997000600229015
      ],
      [
        "▁что-нибудь",
        -9.997113993015065
      ],
      [
        "▁норм",
        -9.997499874620413
      ],
      [
        "▁языка",
        -9.998002455595536
      ],
      [
        "▁выход",
        -9.99802948606282
      ],
      [
        "03",
        -9.998578123643643
      ],
      [
        "▁линии",
        -9.998767444331353
      ],
      [
        "▁программе",
        -9.999279795699557
      ],
      [
        "▁«Я",
        -9.999898017710994
      ],
      [
        "▁выплаты",
        -10.000044417827514
      ],
      [
        "ел",
        -10.000580256705396
      ],
      [
        "▁пользователей",
        -10.000721033574356
      ],
      [
        "ци",
        -10.001263947444865
      ],
      [
        "▁редко",
        -10.001333789743677
      ],
      [
        "▁проведение",
        -10.001583295085325
      ],
      [
        "кая",
        -10.001807347813315
      ],
      [
        "▁сердце",
        -10.002543243919042
      ],
      [
        "▁выплат",
        -10.002827201029966
      ],
      [
        "▁экономической",
        -10.003886095860281
      ],
      [
        "ку,",
        -10.004718238209655
      ],
      [
        "▁способны",
        -10.004751644403116
      ],
      [
        "▁имею",
        -10.005803141927782
      ],
      [
        "▁Затем",
        -10.005935738387192
      ],
      [
        "▁независимо",
        -10.0060612382919
      ],
      [
        "▁дома,",
        -10.00658808748004
      ],
      [
        "▁каких",
        -10.006664783622204
      ],
      [
        "▁опыта",
        -10.006884656885315
      ],
      [
        "▁ком",
        -10.00719872115041
      ],
      [
        "▁регулярно",
        -10.007554259141052
      ],
      [
        "кан",
        -10.008226671105373
      ],
      [
        "чен",
        -10.00826092258221
      ],
      [
        "T",
        -10.008912781789743
      ],
      [
        "▁внимательно",
        -10.009142170601713
      ],
      [
        "Р",
        -10.00918428313941
      ],
      [
        "ению",
        -10.009780627584014
      ],
      [
        "▁годов",
        -10.0105108930248
      ],
      [
        "▁неё",
        -10.010694778421687
      ],
      [
        "▁оказалось",
        -10.01079908162637
      ],
      [
        "▁T",
        -10.010927962081755
      ],
      [
        "ева",
        -10.011173717335536
      ],
      [
        "▁моих",
        -10.01161801823157
      ],
      [
        "ству",
        -10.011737011849018
      ],
      [
        "▁среды",
        -10.011803059689363
      ],
      [
        "▁историю",
        -10.012509040587428
      ],
      [
        "▁E",
        -10.012518542552764
      ],
      [
        "▁документа",
        -10.012598220652357
      ],
      [
        "▁читать",
        -10.013316532356743
      ],
      [
        "▁определить",
        -10.013493348745989
      ],
      [
        "▁понятия",
        -10.013717699640448
      ],
      [
        "ур",
        -10.014094728134644
      ],
      [
        "▁возраст",
        -10.014127568211489
      ],
      [
        "▁пожалуйста,",
        -10.014164531383056
      ],
      [
        "ей.",
        -10.01568421371979
      ],
      [
        "▁лицом",
        -10.015740459300796
      ],
      [
        "▁смогут",
        -10.015978086156798
      ],
      [
        "▁вряд",
        -10.016215767138666
      ],
      [
        "▁органами",
        -10.0162435289937
      ],
      [
        "▁руках",
        -10.016358240077457
      ],
      [
        "Ч",
        -10.016810288037032
      ],
      [
        "▁предусмотренных",
        -10.016830196630504
      ],
      [
        "нести",
        -10.017011848151359
      ],
      [
        "▁6.",
        -10.017312440017935
      ],
      [
        "▁предложение",
        -10.017373796742557
      ],
      [
        "▁четко",
        -10.017508114433575
      ],
      [
        "год",
        -10.018213234081024
      ],
      [
        "▁этапе",
        -10.019203613770992
      ],
      [
        "▁причины",
        -10.019259007452735
      ],
      [
        "▁знаем",
        -10.019368078659848
      ],
      [
        "+",
        -10.019562472424752
      ],
      [
        "▁продукт",
        -10.020718488287379
      ],
      [
        "▁начало",
        -10.02072150080994
      ],
      [
        "ический",
        -10.021224823054322
      ],
      [
        "ент",
        -10.02176358649687
      ],
      [
        "мор",
        -10.021772421630818
      ],
      [
        "▁Тут",
        -10.022107802591112
      ],
      [
        "Ш",
        -10.02326444779128
      ],
      [
        "05",
        -10.02330725532618
      ],
      [
        "▁широко",
        -10.023711915263132
      ],
      [
        "▁событий",
        -10.024324921469585
      ],
      [
        "▁аренды",
        -10.024990904616768
      ],
      [
        "▁семей",
        -10.025187581934428
      ],
      [
        "▁Федерального",
        -10.026015411355711
      ],
      [
        "▁использованием",
        -10.026060088804869
      ],
      [
        "▁год.",
        -10.026163704891031
      ],
      [
        "▁программу",
        -10.02656949060742
      ],
      [
        "▁записи",
        -10.026808931249029
      ],
      [
        "▁мужчины",
        -10.02684331072614
      ],
      [
        "▁гос",
        -10.026960543857985
      ],
      [
        "ступ",
        -10.027593724638034
      ],
      [
        "▁2000",
        -10.02806850404557
      ],
      [
        "▁большие",
        -10.028164829138671
      ],
      [
        "▁позже",
        -10.028172774814823
      ],
      [
        "60",
        -10.028279993646985
      ],
      [
        "▁Меня",
        -10.02895351884072
      ],
      [
        "▁общем",
        -10.030198577747239
      ],
      [
        "▁рассказал",
        -10.030716652307987
      ],
      [
        "ило",
        -10.031178815627502
      ],
      [
        "▁хороший",
        -10.031381095438007
      ],
      [
        "жал",
        -10.03156655916117
      ],
      [
        "▁будущем",
        -10.031592011144596
      ],
      [
        "▁очевидно",
        -10.03221146366407
      ],
      [
        "▁семья",
        -10.032904292861936
      ],
      [
        "▁Во-первых",
        -10.03292466075845
      ],
      [
        "▁мол",
        -10.032953672768063
      ],
      [
        "▁предлагает",
        -10.033222709552405
      ],
      [
        "итель",
        -10.033632533557904
      ],
      [
        "?»",
        -10.034640925602222
      ],
      [
        "▁детям",
        -10.035005631273119
      ],
      [
        "▁помогает",
        -10.035054067377363
      ],
      [
        "▁модель",
        -10.03556946336063
      ],
      [
        "”.",
        -10.035741790784442
      ],
      [
        "▁тип",
        -10.035966210616124
      ],
      [
        "кий",
        -10.036589022665442
      ],
      [
        "▁общественного",
        -10.03791944120928
      ],
      [
        "▁вопросу",
        -10.038220914086072
      ],
      [
        "18",
        -10.038399563329477
      ],
      [
        "▁идеи",
        -10.038941132379545
      ],
      [
        "▁сегодняшний",
        -10.039145644817996
      ],
      [
        "▁нарушение",
        -10.039201430427052
      ],
      [
        "▁тяжело",
        -10.039337839467821
      ],
      [
        "▁повышение",
        -10.039716779538393
      ],
      [
        "▁акции",
        -10.039838860729247
      ],
      [
        "▁большинстве",
        -10.041224572093824
      ],
      [
        "▁вероятно",
        -10.041567663900214
      ],
      [
        "▁многое",
        -10.041715148130711
      ],
      [
        "етесь",
        -10.041804522263652
      ],
      [
        "▁>",
        -10.041839947235356
      ],
      [
        "▁детьми",
        -10.043486924975511
      ],
      [
        "▁пользоваться",
        -10.043574103725284
      ],
      [
        "▁отдельно",
        -10.043704188548263
      ],
      [
        "ющая",
        -10.043890779465414
      ],
      [
        "▁средствами",
        -10.044567988409264
      ],
      [
        "▁осталось",
        -10.044754311563374
      ],
      [
        "E",
        -10.045062724561713
      ],
      [
        "▁вся",
        -10.045296678060865
      ],
      [
        "форм",
        -10.045303453038574
      ],
      [
        "▁постепенно",
        -10.04539709461471
      ],
      [
        "=",
        -10.04660352460535
      ],
      [
        "▁сельско",
        -10.046683919642996
      ],
      [
        "▁имущество",
        -10.046711592800065
      ],
      [
        "▁подробно",
        -10.046984044986635
      ],
      [
        "▁эффект",
        -10.046988920689138
      ],
      [
        "▁теле",
        -10.047312570418871
      ],
      [
        "▁автомобиля",
        -10.048186308493156
      ],
      [
        "чик",
        -10.048381082816562
      ],
      [
        "▁приняли",
        -10.048458642445947
      ],
      [
        "▁могло",
        -10.048580799755026
      ],
      [
        "нуть",
        -10.048690137950462
      ],
      [
        "рож",
        -10.04930184746392
      ],
      [
        "▁социального",
        -10.049427682380891
      ],
      [
        "▁общество",
        -10.050466722610645
      ],
      [
        "▁долларов",
        -10.05121196417289
      ],
      [
        "пе",
        -10.051622261045587
      ],
      [
        "▁крови",
        -10.05244238566859
      ],
      [
        "on",
        -10.052580365928783
      ],
      [
        "▁радио",
        -10.05265454890044
      ],
      [
        "▁указанных",
        -10.053552241552008
      ],
      [
        "▁имел",
        -10.054284209004297
      ],
      [
        "or",
        -10.054316369980734
      ],
      [
        "▁ваших",
        -10.054947328050911
      ],
      [
        "▁развитию",
        -10.055196264457654
      ],
      [
        "▁определяется",
        -10.055376015672898
      ],
      [
        "▁Всё",
        -10.055396487756358
      ],
      [
        "▁обязательств",
        -10.055471303906812
      ],
      [
        "▁35",
        -10.05649975447876
      ],
      [
        "изации",
        -10.057072327468646
      ],
      [
        "W",
        -10.05719448849392
      ],
      [
        "емых",
        -10.057498612565322
      ],
      [
        "▁С.",
        -10.05790235418083
      ],
      [
        "ря",
        -10.058197425568439
      ],
      [
        "▁здания",
        -10.05872232149389
      ],
      [
        "▁иностранных",
        -10.05876460304549
      ],
      [
        "06",
        -10.059664213173445
      ],
      [
        "▁утра",
        -10.059736508571639
      ],
      [
        "▁факторов",
        -10.06009910416957
      ],
      [
        "▁взгляд,",
        -10.060511687991896
      ],
      [
        "нят",
        -10.060708266998239
      ],
      [
        "▁веществ",
        -10.060762395871473
      ],
      [
        "▁социально-",
        -10.061263312570063
      ],
      [
        "законодательства",
        -10.061723760622517
      ],
      [
        "▁выйти",
        -10.061962880476699
      ],
      [
        "финансовых",
        -10.062187627176147
      ],
      [
        "▁деятельности,",
        -10.062556508405134
      ],
      [
        "уз",
        -10.062653039202026
      ],
      [
        "▁представитель",
        -10.062699262805125
      ],
      [
        "▁любит",
        -10.062795157537463
      ],
      [
        "z",
        -10.062933736842163
      ],
      [
        "▁работы,",
        -10.06304234185551
      ],
      [
        "▁правда",
        -10.063210747466705
      ],
      [
        "▁никакой",
        -10.063680400235668
      ],
      [
        "дар",
        -10.06369178940393
      ],
      [
        "▁«в",
        -10.06392604207904
      ],
      [
        "▁товары",
        -10.064038714979128
      ],
      [
        "▁головой",
        -10.064463817431214
      ],
      [
        "мат",
        -10.064900159155092
      ],
      [
        "стер",
        -10.065582397043377
      ],
      [
        "ван",
        -10.065783510339429
      ],
      [
        "▁денежных",
        -10.066583904139321
      ],
      [
        "тр",
        -10.0666562696092
      ],
      [
        "▁себе,",
        -10.066918424018105
      ],
      [
        "▁наук",
        -10.067870649143606
      ],
      [
        "▁главы",
        -10.068198537490705
      ],
      [
        "▁необходимых",
        -10.068734851023104
      ],
      [
        "▁Закона",
        -10.069265627632252
      ],
      [
        "▁полном",
        -10.069739344106829
      ],
      [
        "тон",
        -10.070898282547436
      ],
      [
        "▁работал",
        -10.071338135810661
      ],
      [
        "▁представители",
        -10.072231594613527
      ],
      [
        "▁времена",
        -10.072329652371575
      ],
      [
        "▁фонд",
        -10.072993856215497
      ],
      [
        "17",
        -10.073460810154884
      ],
      [
        "28",
        -10.073711240080524
      ],
      [
        "стве",
        -10.073722662472347
      ],
      [
        "▁команды",
        -10.07421729427774
      ],
      [
        "▁Кор",
        -10.074420042404368
      ],
      [
        "ий,",
        -10.074583624136746
      ],
      [
        "шей",
        -10.074827660478363
      ],
      [
        "сп",
        -10.074972714819058
      ],
      [
        "▁конкурс",
        -10.075018673258654
      ],
      [
        "судебного",
        -10.07534277010409
      ],
      [
        "▁группе",
        -10.075774025603334
      ],
      [
        "▁рассмотрения",
        -10.0758435425475
      ],
      [
        "сов",
        -10.075857879008119
      ],
      [
        "▁нормы",
        -10.075889938716589
      ],
      [
        "▁роли",
        -10.076108894460976
      ],
      [
        "▁выводу",
        -10.076956499464124
      ],
      [
        "▁глава",
        -10.077023444388082
      ],
      [
        "▁Бога",
        -10.077034301580966
      ],
      [
        "▁назвать",
        -10.078100272757966
      ],
      [
        "нию",
        -10.078445430676165
      ],
      [
        "нд",
        -10.078566459786927
      ],
      [
        "▁W",
        -10.07899540789185
      ],
      [
        "▁хуже",
        -10.079184267063741
      ],
      [
        "рас",
        -10.079678844010623
      ],
      [
        "▁практике",
        -10.080010250478736
      ],
      [
        "▁кого-то",
        -10.080563326659362
      ],
      [
        "▁брат",
        -10.080661852765505
      ],
      [
        "▁аппарат",
        -10.080890640585007
      ],
      [
        "▁*",
        -10.081016301654117
      ],
      [
        "▁методы",
        -10.081358168061097
      ],
      [
        "▁расчет",
        -10.081452202401271
      ],
      [
        "Э",
        -10.081471316401817
      ],
      [
        "▁окна",
        -10.082554975043724
      ],
      [
        "вшись",
        -10.082836621678302
      ],
      [
        "▁разработки",
        -10.083292275205412
      ],
      [
        "▁оказался",
        -10.083740960642228
      ],
      [
        "▁электронной",
        -10.083834684921293
      ],
      [
        "▁налога",
        -10.08422967877366
      ],
      [
        "▁быстрее",
        -10.084463481929838
      ],
      [
        "▁ответить",
        -10.08452898467397
      ],
      [
        "ar",
        -10.085156367723584
      ],
      [
        "▁площади",
        -10.085912855845606
      ],
      [
        "▁отметил",
        -10.085944488311762
      ],
      [
        "▁Ла",
        -10.087373969322217
      ],
      [
        "▁характера",
        -10.088012829316579
      ],
      [
        "▁какое-то",
        -10.088252460936342
      ],
      [
        "▁квартиры",
        -10.088265893924937
      ],
      [
        "▁дальнейшем",
        -10.08827031738647
      ],
      [
        "▁ч.",
        -10.088962232828312
      ],
      [
        "▁первым",
        -10.089146433855309
      ],
      [
        "мент",
        -10.089150994521406
      ],
      [
        "▁каждому",
        -10.089375491519686
      ],
      [
        "32",
        -10.089785653503895
      ],
      [
        "▁выполнять",
        -10.090463852339134
      ],
      [
        "▁начинается",
        -10.09051903703503
      ],
      [
        "рис",
        -10.090598662516257
      ],
      [
        "▁(U",
        -10.0907209227687
      ],
      [
        "▁разделе",
        -10.090877002479042
      ],
      [
        "▁крупных",
        -10.091364875165372
      ],
      [
        "▁другу",
        -10.091638938777269
      ],
      [
        "▁окончания",
        -10.091733182295442
      ],
      [
        "▁главным",
        -10.092353093203759
      ],
      [
        "▁назначения",
        -10.09282281175919
      ],
      [
        "Иногда",
        -10.093193637996212
      ],
      [
        "▁возможностей",
        -10.093355701167589
      ],
      [
        "▁первое",
        -10.094468392922877
      ],
      [
        "▁Ему",
        -10.094680338722307
      ],
      [
        "том",
        -10.095473795945118
      ],
      [
        "N",
        -10.09556800646073
      ],
      [
        "▁лице",
        -10.095652235255896
      ],
      [
        "▁общения",
        -10.09578494134907
      ],
      [
        "▁заказ",
        -10.0958190283473
      ],
      [
        "09",
        -10.095854251697077
      ],
      [
        "▁серьезно",
        -10.09627893922897
      ],
      [
        "▁Постановление",
        -10.096750751978467
      ],
      [
        "▁муниципальных",
        -10.096853932101162
      ],
      [
        "▁жилья",
        -10.096907794928901
      ],
      [
        "▁$",
        -10.097038050308171
      ],
      [
        "▁говоря",
        -10.097606094118873
      ],
      [
        "▁заболевания",
        -10.097663270766496
      ],
      [
        "▁пер",
        -10.09779654898982
      ],
      [
        "▁очередь,",
        -10.098082449103703
      ],
      [
        "▁Ваши",
        -10.098394581581463
      ],
      [
        "▁«Б",
        -10.099071452759176
      ],
      [
        "le",
        -10.099114974160095
      ],
      [
        "кин",
        -10.09937575110812
      ],
      [
        "▁избежать",
        -10.09961040242446
      ],
      [
        "▁скорость",
        -10.10001536329765
      ],
      [
        "чер",
        -10.100267532304276
      ],
      [
        "овую",
        -10.100845177465565
      ],
      [
        "▁периода",
        -10.101196504304765
      ],
      [
        "ления",
        -10.101664672664917
      ],
      [
        "▁организм",
        -10.102290721822289
      ],
      [
        "▁стороне",
        -10.10299136965461
      ],
      [
        "ируют",
        -10.10325719644774
      ],
      [
        "▁интересы",
        -10.104059856968771
      ],
      [
        "▁домов",
        -10.104264212719322
      ],
      [
        "▁студентов",
        -10.104902484975735
      ],
      [
        "▁написать",
        -10.105143269453876
      ],
      [
        "▁по-прежнему",
        -10.105307572888547
      ],
      [
        "шен",
        -10.105864610713773
      ],
      [
        "▁существуют",
        -10.105901556792114
      ],
      [
        "ген",
        -10.106731025470317
      ],
      [
        "▁свободы",
        -10.107300095135178
      ],
      [
        "▁проходит",
        -10.107688808534334
      ],
      [
        "▁края",
        -10.107730795079739
      ],
      [
        "город",
        -10.107858908181036
      ],
      [
        "ями",
        -10.108250476177066
      ],
      [
        "▁продажи",
        -10.108458677483394
      ],
      [
        "стей",
        -10.108578099784282
      ],
      [
        "тан",
        -10.108626844598447
      ],
      [
        "ическое",
        -10.108877948146059
      ],
      [
        "изма",
        -10.108903213909207
      ],
      [
        "ке,",
        -10.10903481563448
      ],
      [
        "▁сад",
        -10.109117439356552
      ],
      [
        "▁включает",
        -10.110237094115693
      ],
      [
        "▁бо",
        -10.110323587509656
      ],
      [
        "h",
        -10.110455832123275
      ],
      [
        "▁70",
        -10.110501697333238
      ],
      [
        "▁страны.",
        -10.110725606209552
      ],
      [
        "▁показать",
        -10.111176237426378
      ],
      [
        "овым",
        -10.111703755099105
      ],
      [
        "ений",
        -10.111821573085466
      ],
      [
        "▁Ар",
        -10.112239940538673
      ],
      [
        "▁такими",
        -10.112638297664153
      ],
      [
        "▁Ан",
        -10.112711522853754
      ],
      [
        "▁участков",
        -10.113198315871433
      ],
      [
        "it",
        -10.113239827415443
      ],
      [
        "▁вопрос,",
        -10.113360030989746
      ],
      [
        "▁выглядит",
        -10.1139389667137
      ],
      [
        "▁дополнительные",
        -10.114612559414065
      ],
      [
        "▁средств,",
        -10.114667697822073
      ],
      [
        "▁проводится",
        -10.11504469811634
      ],
      [
        "▁приложения",
        -10.11557546278572
      ],
      [
        "▁базе",
        -10.115694220074264
      ],
      [
        "▁остальные",
        -10.116116378764104
      ],
      [
        "▁дал",
        -10.116243429594094
      ],
      [
        "▁Де",
        -10.116665308194984
      ],
      [
        "▁двери",
        -10.117451292947903
      ],
      [
        "▁дороги",
        -10.11764365930554
      ],
      [
        "ch",
        -10.117692962434127
      ],
      [
        "▁никого",
        -10.117894741359777
      ],
      [
        "▁называется",
        -10.11807718707989
      ],
      [
        "▁государств",
        -10.118157006112448
      ],
      [
        "з-за",
        -10.118269524558183
      ],
      [
        "▁получает",
        -10.118281638157736
      ],
      [
        "▁материала",
        -10.118895178308165
      ],
      [
        "итесь",
        -10.119849297254978
      ],
      [
        "овый",
        -10.119889589875658
      ],
      [
        "'",
        -10.12057867603123
      ],
      [
        "▁видимо",
        -10.120874303427495
      ],
      [
        "▁млрд",
        -10.12091070224214
      ],
      [
        "▁300",
        -10.121313804155584
      ],
      [
        "▁охраны",
        -10.12144885973447
      ],
      [
        "▁существенно",
        -10.121592124335951
      ],
      [
        "▁памяти",
        -10.122281073140758
      ],
      [
        "▁желания",
        -10.122336726533522
      ],
      [
        "▁посмотрел",
        -10.12234786027712
      ],
      [
        "жд",
        -10.122386713282406
      ],
      [
        "енные",
        -10.122571777978091
      ],
      [
        "▁прошло",
        -10.122579470403743
      ],
      [
        "▁одному",
        -10.122986563342629
      ],
      [
        "ка.",
        -10.123138607916081
      ],
      [
        "▁среднем",
        -10.123346735438002
      ],
      [
        "очка",
        -10.124663140291657
      ],
      [
        "▁комитета",
        -10.124710244296363
      ],
      [
        "▁продукты",
        -10.124931669677773
      ],
      [
        "▁Путин",
        -10.125431954425775
      ],
      [
        "▁специально",
        -10.126579642701262
      ],
      [
        "гер",
        -10.126653940076064
      ],
      [
        "▁вред",
        -10.126909116529847
      ],
      [
        "▁тысячи",
        -10.127013884683382
      ],
      [
        "▁принимает",
        -10.12799377108936
      ],
      [
        "▁меню",
        -10.128377931515073
      ],
      [
        "▁бед",
        -10.128509831193515
      ],
      [
        "▁земли",
        -10.128751663433638
      ],
      [
        "счет",
        -10.129429908917402
      ],
      [
        "▁специалисты",
        -10.129660060412528
      ],
      [
        "▁федерального",
        -10.129712200930015
      ],
      [
        "TC)",
        -10.129866434624404
      ],
      [
        "▁идея",
        -10.129986763665592
      ],
      [
        "▁вернуться",
        -10.130072134124454
      ],
      [
        "ич",
        -10.130204263333646
      ],
      [
        "▁сообщения",
        -10.131162757698103
      ],
      [
        "▁Статья",
        -10.131171409519332
      ],
      [
        "▁входит",
        -10.131784575361042
      ],
      [
        "K",
        -10.1325813801406
      ],
      [
        "▁утром",
        -10.132595139845096
      ],
      [
        "▁поставить",
        -10.132628498580416
      ],
      [
        "▁Люди",
        -10.132676569822465
      ],
      [
        "▁расход",
        -10.133075974237311
      ],
      [
        "дан",
        -10.1331232989163
      ],
      [
        "▁действует",
        -10.133302593347121
      ],
      [
        "▁языке",
        -10.13345652399015
      ],
      [
        "▁сказал:",
        -10.13357836407778
      ],
      [
        "▁представления",
        -10.133860789237929
      ],
      [
        "шка",
        -10.133992028013488
      ],
      [
        "▁содержит",
        -10.134006870248204
      ],
      [
        ".06.2010",
        -10.13403953779109
      ],
      [
        "▁море",
        -10.134257793044668
      ],
      [
        "зем",
        -10.134642782738998
      ],
      [
        "▁откуда",
        -10.134701225848033
      ],
      [
        "▁фирмы",
        -10.13530857637392
      ],
      [
        "▁Перед",
        -10.135676823168325
      ],
      [
        "сад",
        -10.135715666051354
      ],
      [
        "▁спорта",
        -10.136232427854978
      ],
      [
        "▁говорю",
        -10.136299325796514
      ],
      [
        "▁капитал",
        -10.136428432255546
      ],
      [
        "▁завтра",
        -10.137293266894549
      ],
      [
        "▁новым",
        -10.137968071917301
      ],
      [
        "▁вышел",
        -10.138020796894818
      ],
      [
        "▁сто",
        -10.138034905322641
      ],
      [
        "R",
        -10.138109071384203
      ],
      [
        "▁учитывать",
        -10.13815387366343
      ],
      [
        "▁работы.",
        -10.138426005622968
      ],
      [
        "▁Просмотров",
        -10.138477393173442
      ],
      [
        "▁Человек",
        -10.138791919265511
      ],
      [
        "▁размера",
        -10.138888440220192
      ],
      [
        "at",
        -10.139034273902308
      ],
      [
        "▁80",
        -10.13937030930034
      ],
      [
        "шу",
        -10.139742237383935
      ],
      [
        "▁ПО",
        -10.139755257321767
      ],
      [
        "кри",
        -10.139831135477639
      ],
      [
        "ической",
        -10.139855688818027
      ],
      [
        "▁знаете,",
        -10.140022612145005
      ],
      [
        "▁обязанностей",
        -10.141111899956101
      ],
      [
        "▁формирования",
        -10.141155238781563
      ],
      [
        "▁случайно",
        -10.141217870448138
      ],
      [
        "▁совместно",
        -10.141847950436478
      ],
      [
        "▁борьбы",
        -10.141855869848634
      ],
      [
        "45",
        -10.141966104380838
      ],
      [
        "ток",
        -10.141992726100199
      ],
      [
        "▁жизнь.",
        -10.142056470661727
      ],
      [
        "].",
        -10.142352171077682
      ],
      [
        "▁оборудование",
        -10.142415051151525
      ],
      [
        "▁Вер",
        -10.142622459370997
      ],
      [
        "▁хорошо,",
        -10.143012286110608
      ],
      [
        "▁поддержку",
        -10.143391372076003
      ],
      [
        "Поскольку",
        -10.143894871222177
      ],
      [
        "▁капитала",
        -10.144066259024932
      ],
      [
        "▁Па",
        -10.144380040025347
      ],
      [
        "):",
        -10.14441835480374
      ],
      [
        "▁какая",
        -10.144500494982722
      ],
      [
        "ющим",
        -10.144502290358657
      ],
      [
        "▁версии",
        -10.144930172803434
      ],
      [
        "▁темы",
        -10.145110376674452
      ],
      [
        "альный",
        -10.145157300252343
      ],
      [
        "тек",
        -10.145471197768464
      ],
      [
        "▁любые",
        -10.145720395691788
      ],
      [
        "▁Германии",
        -10.145783026546535
      ],
      [
        "▁поведения",
        -10.1460262766406
      ],
      [
        "▁мировой",
        -10.146133891740917
      ],
      [
        "▁Ваше",
        -10.146279590586207
      ],
      [
        "три",
        -10.146487038251959
      ],
      [
        "6.",
        -10.146516250872956
      ],
      [
        "▁исследований",
        -10.146644102548583
      ],
      [
        "▁высоко",
        -10.147212632476549
      ],
      [
        "▁проблему",
        -10.14731061028079
      ],
      [
        "▁время.",
        -10.147424089040685
      ],
      [
        "▁деле,",
        -10.147823512428761
      ],
      [
        "▁Интернет",
        -10.148058478198307
      ],
      [
        "▁двумя",
        -10.148751507143885
      ],
      [
        "чка",
        -10.14965960275103
      ],
      [
        "▁сбор",
        -10.149793855323288
      ],
      [
        "▁передачи",
        -10.149827655409002
      ],
      [
        "▁страх",
        -10.149963997142468
      ],
      [
        "▁«П",
        -10.150491895310413
      ],
      [
        "▁некоторое",
        -10.150712789486619
      ],
      [
        "▁3)",
        -10.151009759957748
      ],
      [
        "▁собственной",
        -10.151390470339642
      ],
      [
        "▁ваша",
        -10.152667276637299
      ],
      [
        "▁письма",
        -10.152669215740254
      ],
      [
        "▁игровых",
        -10.152774771958935
      ],
      [
        "уча",
        -10.15307423177915
      ],
      [
        "▁дают",
        -10.153745039862816
      ],
      [
        "▁недостаточно",
        -10.153947213558858
      ],
      [
        "Ю",
        -10.15454917174888
      ],
      [
        "4.",
        -10.155918694961194
      ],
      [
        "▁там,",
        -10.156615884316551
      ],
      [
        "▁себя.",
        -10.156622639190742
      ],
      [
        "▁Значит",
        -10.156742994954264
      ],
      [
        "H",
        -10.157435648172463
      ],
      [
        "▁вызывает",
        -10.157549086170167
      ],
      [
        "▁души",
        -10.157815210493336
      ],
      [
        "▁вечер",
        -10.157937524827002
      ],
      [
        "▁десять",
        -10.15828379275019
      ],
      [
        "тар",
        -10.158742449690198
      ],
      [
        "▁народа",
        -10.159089710640437
      ],
      [
        "ку.",
        -10.159329826403457
      ],
      [
        "▁большей",
        -10.159851864519325
      ],
      [
        "▁приходит",
        -10.159927882536046
      ],
      [
        "рон",
        -10.16116711422692
      ],
      [
        "▁промышленности",
        -10.161310109548436
      ],
      [
        "24",
        -10.161839734134393
      ],
      [
        "▁можешь",
        -10.161849658131462
      ],
      [
        "тре",
        -10.162315948870681
      ],
      [
        "▁процедуры",
        -10.162495653680246
      ],
      [
        "▁получается",
        -10.16333442293373
      ],
      [
        "▁живет",
        -10.163342535238506
      ],
      [
        "лог",
        -10.164078428419426
      ],
      [
        "la",
        -10.164233146424786
      ],
      [
        "▁общественных",
        -10.164382505252423
      ],
      [
        "▁исходя",
        -10.16458249678497
      ],
      [
        "▁Беларусь",
        -10.164980291658281
      ],
      [
        "▁фотографии",
        -10.165166558138944
      ],
      [
        "▁отдела",
        -10.165695072433103
      ],
      [
        "▁тогда,",
        -10.165848551813433
      ],
      [
        "▁огромное",
        -10.165925782831868
      ],
      [
        "▁добиться",
        -10.167112548206429
      ],
      [
        "чин",
        -10.16737333892113
      ],
      [
        "▁легче",
        -10.16753616584846
      ],
      [
        "▁отлично",
        -10.167934321590359
      ],
      [
        "▁плюс",
        -10.168152220494285
      ],
      [
        "37",
        -10.168664269964674
      ],
      [
        "▁Главное",
        -10.16895188419076
      ],
      [
        "▁др.",
        -10.169676779177426
      ],
      [
        "▁какое",
        -10.169726978301703
      ],
      [
        "21",
        -10.170621982714177
      ],
      [
        "35",
        -10.171038532535007
      ],
      [
        "▁должности",
        -10.171094267928488
      ],
      [
        "▁Где",
        -10.171357248780984
      ],
      [
        "▁Ме",
        -10.17136440397567
      ],
      [
        "▁армии",
        -10.17146567385956
      ],
      [
        "▁прогноз",
        -10.172619325334487
      ],
      [
        "▁член",
        -10.172668311789899
      ],
      [
        "▁году,",
        -10.172750959674477
      ],
      [
        "▁хотели",
        -10.172801025282793
      ],
      [
        "Такие",
        -10.173774954947746
      ],
      [
        "▁делам",
        -10.173876595437697
      ],
      [
        "▁кол",
        -10.174010675107407
      ],
      [
        "▁отказаться",
        -10.174433060931138
      ],
      [
        "▁выпуск",
        -10.174594201317735
      ],
      [
        "▁полиции",
        -10.174631253950654
      ],
      [
        "▁защите",
        -10.17463664217967
      ],
      [
        "ёт",
        -10.17465488947176
      ],
      [
        "нер",
        -10.175318041748564
      ],
      [
        "▁писал",
        -10.175371908679672
      ],
      [
        "▁Прежде",
        -10.175400598526888
      ],
      [
        "фа",
        -10.175462781323024
      ],
      [
        "04",
        -10.176822770017536
      ],
      [
        "▁подходит",
        -10.176893716411815
      ],
      [
        "ует",
        -10.177624611881512
      ],
      [
        "▁установки",
        -10.177786247038828
      ],
      [
        "▁общем,",
        -10.177786567502206
      ],
      [
        "▁должность",
        -10.177850741235247
      ],
      [
        "▁форму",
        -10.179032505387989
      ],
      [
        "▁7.",
        -10.179162258407324
      ],
      [
        "▁жена",
        -10.179247832262828
      ],
      [
        "ление",
        -10.179603505523938
      ],
      [
        "Впрочем,",
        -10.179698959254079
      ],
      [
        "▁Думаю,",
        -10.179884508850456
      ],
      [
        "34",
        -10.179897204952487
      ],
      [
        "▁ответа",
        -10.180367027657521
      ],
      [
        "▁воспользоваться",
        -10.180926597921038
      ],
      [
        "▁подобных",
        -10.180996030423294
      ],
      [
        "▁Ро",
        -10.181020080875602
      ],
      [
        ">",
        -10.181026639272872
      ],
      [
        "▁окружающей",
        -10.181249163916558
      ],
      [
        "▁информации,",
        -10.181807744363553
      ],
      [
        "▁операций",
        -10.182566264112802
      ],
      [
        "▁определение",
        -10.184202100565432
      ],
      [
        "▁пар",
        -10.18420781780007
      ],
      [
        "щую",
        -10.184291889143376
      ],
      [
        "▁набор",
        -10.1849016537181
      ],
      [
        "▁современных",
        -10.184977174050104
      ],
      [
        "▁налогов",
        -10.185091605342777
      ],
      [
        "енный",
        -10.185816081758553
      ],
      [
        "▁ГК",
        -10.18585355629159
      ],
      [
        "[",
        -10.18634556130082
      ],
      [
        "▁появляется",
        -10.186670785281299
      ],
      [
        "вший",
        -10.186679488325131
      ],
      [
        "▁направления",
        -10.186715560536992
      ],
      [
        "Ц",
        -10.187324651378706
      ],
      [
        "▁думаю",
        -10.187328874835437
      ],
      [
        "▁Первый",
        -10.187419396393818
      ],
      [
        "▁иной",
        -10.187531223580418
      ],
      [
        "▁рассказать",
        -10.187614241058487
      ],
      [
        "▁этими",
        -10.18772210135036
      ],
      [
        "▁международных",
        -10.188353275073416
      ],
      [
        "▁Нам",
        -10.188550639339521
      ],
      [
        "v",
        -10.188557340936587
      ],
      [
        "▁субъектов",
        -10.189093197224258
      ],
      [
        "▁нечто",
        -10.189741795863787
      ],
      [
        "▁юридических",
        -10.190259640885408
      ],
      [
        "ват",
        -10.190510774791438
      ],
      [
        "us",
        -10.19054969884754
      ],
      [
        "▁одни",
        -10.190650999969876
      ],
      [
        "ган",
        -10.191704351848657
      ],
      [
        "!\"",
        -10.191886807208743
      ],
      [
        "▁(при",
        -10.192374418712358
      ],
      [
        "▁торговли",
        -10.192718234697903
      ],
      [
        "фи",
        -10.19272591358175
      ],
      [
        "недействительным",
        -10.193007832154821
      ],
      [
        "▁квартиру",
        -10.193057737857512
      ],
      [
        "▁Мо",
        -10.193658590885141
      ],
      [
        "▁вещей",
        -10.194011185308657
      ],
      [
        "нут",
        -10.19449071480065
      ],
      [
        "▁приема",
        -10.19483167934025
      ],
      [
        "▁административно",
        -10.195013123540743
      ],
      [
        "ешься",
        -10.195014308722929
      ],
      [
        "et",
        -10.195231333058459
      ],
      [
        "▁прибыли",
        -10.195475409200224
      ],
      [
        "▁сохранить",
        -10.195599709564881
      ],
      [
        "▁установленном",
        -10.1959220140786
      ],
      [
        "▁технологий",
        -10.196103085834503
      ],
      [
        "▁брать",
        -10.196305487644835
      ],
      [
        "▁отпуск",
        -10.196472803840997
      ],
      [
        "▁базы",
        -10.196724637812967
      ],
      [
        "▁пункт",
        -10.196803496630547
      ],
      [
        "▁нашу",
        -10.197491727786973
      ],
      [
        "▁кор",
        -10.197771480020183
      ],
      [
        "▁рабочего",
        -10.197864195784483
      ],
      [
        "▁адресу:",
        -10.19810049712876
      ],
      [
        "38",
        -10.198653039305318
      ],
      [
        "▁воду",
        -10.198891747184119
      ],
      [
        "▁каком",
        -10.199153645615263
      ],
      [
        "▁ощущение",
        -10.199488245647206
      ],
      [
        "▁подобные",
        -10.199513742717947
      ],
      [
        "st",
        -10.199560886485251
      ],
      [
        "ны,",
        -10.19962547456474
      ],
      [
        "чем",
        -10.19970818402535
      ],
      [
        "▁доходов",
        -10.200016603210114
      ],
      [
        "▁транспорта",
        -10.200556069188169
      ],
      [
        "▁Президент",
        -10.200620627902723
      ],
      [
        "▁офис",
        -10.200629524465455
      ],
      [
        "-2",
        -10.200824239302202
      ],
      [
        "▁своё",
        -10.201938213833106
      ],
      [
        "▁ф",
        -10.20243131739515
      ],
      [
        "▁живут",
        -10.202913940316344
      ],
      [
        "З",
        -10.203090474812694
      ],
      [
        "▁R",
        -10.203492194123799
      ],
      [
        "▁предоставлении",
        -10.203577450758917
      ],
      [
        "▁\"Об",
        -10.204022835888008
      ],
      [
        "▁«К",
        -10.204369108193006
      ],
      [
        "▁K",
        -10.20443870043708
      ],
      [
        "▁простой",
        -10.20487981022016
      ],
      [
        "▁(за",
        -10.20508893513668
      ],
      [
        "▁выполнение",
        -10.205368077189982
      ],
      [
        "▁элементов",
        -10.205409109081153
      ],
      [
        "▁номера",
        -10.205730420324546
      ],
      [
        "▁миру",
        -10.205836944925553
      ],
      [
        "вших",
        -10.206146391983399
      ],
      [
        "▁автомат",
        -10.206272932848378
      ],
      [
        "кат",
        -10.206887212993792
      ],
      [
        "нул",
        -10.207125841545057
      ],
      [
        "?..",
        -10.207274859490967
      ],
      [
        "▁тур",
        -10.207319248049224
      ],
      [
        "вол",
        -10.207712405612963
      ],
      [
        "▁Ди",
        -10.208307484717045
      ],
      [
        "▁обстоятельств",
        -10.208733660880782
      ],
      [
        "▁кризис",
        -10.209271608316683
      ],
      [
        "▁интервью",
        -10.20928822532645
      ],
      [
        "▁проверить",
        -10.20929043718478
      ],
      [
        "▁игроков",
        -10.20932572742683
      ],
      [
        "▁приобрести",
        -10.209763524297527
      ],
      [
        "▁Среди",
        -10.209837460144335
      ],
      [
        "F",
        -10.210048105784297
      ],
      [
        "▁Россию",
        -10.210109505556064
      ],
      [
        "ках",
        -10.211010054032888
      ],
      [
        "стью",
        -10.211367048515239
      ],
      [
        "▁решать",
        -10.211424330856975
      ],
      [
        "▁платить",
        -10.211478163464085
      ],
      [
        "вшие",
        -10.211497919330748
      ],
      [
        "овал",
        -10.211694066118094
      ],
      [
        "▁спросила",
        -10.211835278485264
      ],
      [
        "▁оснований",
        -10.211922178710235
      ],
      [
        "▁написал",
        -10.212434656925666
      ],
      [
        "едва",
        -10.212446382739554
      ],
      [
        "ими",
        -10.212532790694695
      ],
      [
        "▁появилась",
        -10.212721530697337
      ],
      [
        "▁оставить",
        -10.21273530643008
      ],
      [
        "уч",
        -10.213839504866407
      ],
      [
        "▁глазах",
        -10.213994168625081
      ],
      [
        "is",
        -10.214044404873748
      ],
      [
        "▁последних",
        -10.21422490177591
      ],
      [
        "▁помещений",
        -10.214280280685205
      ],
      [
        "▁отца",
        -10.215375225385621
      ],
      [
        "▁сеть",
        -10.215554265220819
      ],
      [
        "лек",
        -10.21562309937287
      ],
      [
        "▁праздник",
        -10.21602935047594
      ],
      [
        "▁отличается",
        -10.216963148224139
      ],
      [
        "зер",
        -10.21699939574363
      ],
      [
        "▁поиск",
        -10.217207891922333
      ],
      [
        "▁вопроса",
        -10.217215157698412
      ],
      [
        "ошел",
        -10.217291894330494
      ],
      [
        "▁экономического",
        -10.217714201695335
      ],
      [
        "▁разобраться",
        -10.217792156824224
      ],
      [
        "▁этап",
        -10.217960439830488
      ],
      [
        "ять",
        -10.218379094122453
      ],
      [
        "▁Европы",
        -10.218447703600791
      ],
      [
        "лез",
        -10.218678193078418
      ],
      [
        "▁буквально",
        -10.219373908236232
      ],
      [
        "▁дополнительных",
        -10.221675015894917
      ],
      [
        "бел",
        -10.221884669656948
      ],
      [
        "▁строго",
        -10.22197896764357
      ],
      [
        "Причем",
        -10.222003613665244
      ],
      [
        "▁Особенно",
        -10.222443033554804
      ],
      [
        "▁заседании",
        -10.222509359000359
      ],
      [
        "▁удобно",
        -10.222716274045343
      ],
      [
        "22",
        -10.22289588884708
      ],
      [
        "▁магазин",
        -10.223064028125627
      ],
      [
        "▁участвовать",
        -10.223338998853475
      ],
      [
        "ню",
        -10.22343423387619
      ],
      [
        "▁понятие",
        -10.22415717981674
      ],
      [
        "▁соответствует",
        -10.2241743064053
      ],
      [
        "▁больших",
        -10.224212141618715
      ],
      [
        "▁играет",
        -10.224390770634567
      ],
      [
        "▁решила",
        -10.224422854758156
      ],
      [
        "▁отвечает",
        -10.224471813748657
      ],
      [
        "▁самому",
        -10.224950068535147
      ],
      [
        "пуск",
        -10.225046992883584
      ],
      [
        "▁пришла",
        -10.225165629191661
      ],
      [
        "▁обратно",
        -10.225263729759074
      ],
      [
        "▁занимает",
        -10.225772706523582
      ],
      [
        "зов",
        -10.225868696600429
      ],
      [
        "▁порядке,",
        -10.226017448444395
      ],
      [
        "▁Ничего",
        -10.226034267392388
      ],
      [
        "▁отдел",
        -10.226498774623524
      ],
      [
        "▁постановления",
        -10.226673101435388
      ],
      [
        "▁другая",
        -10.226790007764482
      ],
      [
        "сти,",
        -10.226790072506173
      ],
      [
        "▁Ра",
        -10.228586768734111
      ],
      [
        "телей",
        -10.228679829744157
      ],
      [
        "▁средство",
        -10.229265496165256
      ],
      [
        "час",
        -10.22974760096439
      ],
      [
        "▁задолженности",
        -10.230018720595675
      ],
      [
        "тур",
        -10.230191501938062
      ],
      [
        "ировал",
        -10.230641385126912
      ],
      [
        "▁продаже",
        -10.230721874983344
      ],
      [
        "▁потребителей",
        -10.230857533691381
      ],
      [
        "▁назад,",
        -10.23109695594334
      ],
      [
        "▁каждым",
        -10.233163434024586
      ],
      [
        "▁чтоб",
        -10.233390385672607
      ],
      [
        "уют",
        -10.234256461102158
      ],
      [
        "▁основания",
        -10.234257860313711
      ],
      [
        "▁оказывается",
        -10.23479326226854
      ],
      [
        "▁лечение",
        -10.235139825514022
      ],
      [
        "▁чисто",
        -10.235289012591135
      ],
      [
        "▁источников",
        -10.235506715913367
      ],
      [
        "▁политика",
        -10.235580571997836
      ],
      [
        "уль",
        -10.235709488006368
      ],
      [
        "▁голове",
        -10.235841377332395
      ],
      [
        "чки",
        -10.23589929265222
      ],
      [
        "▁вода",
        -10.236147341719462
      ],
      [
        "▁Важно",
        -10.236150112789822
      ],
      [
        "▁открыть",
        -10.236685471637793
      ],
      [
        "▁источник",
        -10.23675754886002
      ],
      [
        "▁«У",
        -10.237166560035288
      ],
      [
        "▁ремонта",
        -10.237280091007129
      ],
      [
        "▁честно",
        -10.237696918417882
      ],
      [
        "▁действовать",
        -10.238459343387945
      ],
      [
        "крас",
        -10.23904154071692
      ],
      [
        "▁«не",
        -10.239108313728597
      ],
      [
        "▁ограничения",
        -10.239495511913482
      ],
      [
        "ем,",
        -10.239679121530578
      ],
      [
        "рев",
        -10.239692143984179
      ],
      [
        "▁Ми",
        -10.2398961291109
      ],
      [
        "▁душе",
        -10.239947175539942
      ],
      [
        "▁появился",
        -10.240161512761478
      ],
      [
        "▁никому",
        -10.240252767917147
      ],
      [
        "▁мед",
        -10.240548361376195
      ],
      [
        "▁2005",
        -10.241033151118394
      ],
      [
        "▁объект",
        -10.241799350911375
      ],
      [
        "▁Какие",
        -10.241984699177317
      ],
      [
        "▁округа",
        -10.242860742126872
      ],
      [
        "▁нашим",
        -10.242961058160496
      ],
      [
        "▁представление",
        -10.24303759290861
      ],
      [
        "▁региона",
        -10.243159368898535
      ],
      [
        "▁итогам",
        -10.243715315974342
      ],
      [
        "иль",
        -10.243885455058436
      ],
      [
        "▁увидел",
        -10.244002896266776
      ],
      [
        "-7",
        -10.244143958884312
      ],
      [
        ".10.2010",
        -10.244412078658655
      ],
      [
        "5.",
        -10.244726359809555
      ],
      [
        "зу",
        -10.244874686373159
      ],
      [
        "ющей",
        -10.244925207107489
      ],
      [
        "▁Ле",
        -10.245367766380882
      ],
      [
        "▁скажу",
        -10.245590987024636
      ],
      [
        "1.",
        -10.245664549828104
      ],
      [
        "en",
        -10.245907921166562
      ],
      [
        "▁Было",
        -10.24628972668743
      ],
      [
        "▁видит",
        -10.24639654135107
      ],
      [
        "▁статус",
        -10.246821847839268
      ],
      [
        "▁лицам",
        -10.247510266199075
      ],
      [
        "▁статью",
        -10.247712211482597
      ],
      [
        "▁(далее",
        -10.247770939856526
      ],
      [
        "3.",
        -10.24778241934069
      ],
      [
        "ключ",
        -10.248260220970696
      ],
      [
        "?\"",
        -10.248363550384507
      ],
      [
        "▁занятия",
        -10.249292242170855
      ],
      [
        "▁45",
        -10.249404627119826
      ],
      [
        "оль",
        -10.249605664710002
      ],
      [
        "▁жил",
        -10.25009218873636
      ],
      [
        "▁структур",
        -10.250395803475595
      ],
      [
        "▁вариантов",
        -10.250444442720195
      ],
      [
        "альные",
        -10.250803707186577
      ],
      [
        "▁шесть",
        -10.25113973664806
      ],
      [
        "▁ру",
        -10.251170295075358
      ],
      [
        "▁код",
        -10.251459359520808
      ],
      [
        "сти.",
        -10.251877228129395
      ],
      [
        "атор",
        -10.253249509583153
      ],
      [
        "ест",
        -10.253355370307315
      ],
      [
        "а\"",
        -10.253522100118033
      ],
      [
        "▁преступления",
        -10.253758624265558
      ],
      [
        "Вместе",
        -10.25416702024241
      ],
      [
        "▁странице",
        -10.254489872132073
      ],
      [
        "▁содержания",
        -10.25473216780804
      ],
      [
        "▁бонус",
        -10.254800803640503
      ],
      [
        "▁ситуацию",
        -10.2551995647243
      ],
      [
        "▁обратить",
        -10.255243872026913
      ],
      [
        "▁начинают",
        -10.255415382253524
      ],
      [
        "▁развитии",
        -10.255476193224682
      ],
      [
        "▁состава",
        -10.255588986869157
      ],
      [
        "▁(см.",
        -10.255772426071438
      ],
      [
        "▁реестр",
        -10.255898436526607
      ],
      [
        "▁собственных",
        -10.257225861029747
      ],
      [
        "▁воздействия",
        -10.257273547068177
      ],
      [
        "▁искусства",
        -10.257740688199041
      ],
      [
        "▁ближе",
        -10.25806509135641
      ],
      [
        "▁деятельности.",
        -10.259589341398732
      ],
      [
        "▁смысла",
        -10.26002915870337
      ],
      [
        "поль",
        -10.260507672870418
      ],
      [
        "луч",
        -10.260585960530207
      ],
      [
        "▁внутренних",
        -10.260652566782717
      ],
      [
        "кра",
        -10.2606929755988
      ],
      [
        "емые",
        -10.260943153302987
      ],
      [
        "▁почему-то",
        -10.261576854517225
      ],
      [
        "▁недель",
        -10.261631566169616
      ],
      [
        "▁практики",
        -10.262797307340797
      ],
      [
        "▁признан",
        -10.263210080939013
      ],
      [
        "-3",
        -10.263238625313393
      ],
      [
        "▁дома.",
        -10.263608435790907
      ],
      [
        "▁структуры",
        -10.263693955299562
      ],
      [
        "▁страны,",
        -10.263847256074353
      ],
      [
        "▁сделки",
        -10.264197434870917
      ],
      [
        "▁машину",
        -10.264234470507953
      ],
      [
        "▁ведет",
        -10.264350291557847
      ],
      [
        "▁Суд",
        -10.264375584148048
      ],
      [
        "▁компании,",
        -10.264558213052586
      ],
      [
        "▁детей.",
        -10.265022224477361
      ],
      [
        "▁90",
        -10.265148666682597
      ],
      [
        "ra",
        -10.266244347677315
      ],
      [
        "▁паспорт",
        -10.267499786592206
      ],
      [
        "▁последствия",
        -10.26783271078267
      ],
      [
        "▁рукой",
        -10.267894837208747
      ],
      [
        "▁видим",
        -10.268161028692273
      ],
      [
        "▁способен",
        -10.268222102529974
      ],
      [
        "▁небольшой",
        -10.268452055833013
      ],
      [
        "дав",
        -10.26855443757815
      ],
      [
        "▁телефона",
        -10.268803521496071
      ],
      [
        "▁край",
        -10.268851057882623
      ],
      [
        "жу",
        -10.269013063203317
      ],
      [
        "▁используют",
        -10.269148764793485
      ],
      [
        "▁НА",
        -10.269987391497848
      ],
      [
        "▁мою",
        -10.270025779932542
      ],
      [
        "эн",
        -10.270203281963887
      ],
      [
        "▁тонн",
        -10.271436223751095
      ],
      [
        "▁Европе",
        -10.27176139619148
      ],
      [
        "▁кстати",
        -10.271895130379969
      ],
      [
        "▁соответствующих",
        -10.271940964104987
      ],
      [
        "▁т.к.",
        -10.27201166618828
      ],
      [
        "▁конец",
        -10.272297356938292
      ],
      [
        "бли",
        -10.272896177081787
      ],
      [
        "▁обязательства",
        -10.272929548497597
      ],
      [
        "▁секунд",
        -10.272987774467069
      ],
      [
        "▁запрет",
        -10.27312399343694
      ],
      [
        "мол",
        -10.273536559679485
      ],
      [
        "начиная",
        -10.27464012272765
      ],
      [
        "▁позволяют",
        -10.274792373339217
      ],
      [
        "▁создавать",
        -10.275224063837289
      ],
      [
        "ад",
        -10.275547040677186
      ],
      [
        "▁размещения",
        -10.275634604058723
      ],
      [
        "▁Обычно",
        -10.275922011936643
      ],
      [
        "▁удар",
        -10.27610718456194
      ],
      [
        "▁Государственной",
        -10.276127002207126
      ],
      [
        "▁использовании",
        -10.276350239101028
      ],
      [
        "▁представлены",
        -10.276550221848563
      ],
      [
        "▁автоматически",
        -10.276665683408815
      ],
      [
        "▁отсутствии",
        -10.277197204298066
      ],
      [
        "▁ребята",
        -10.277206069308665
      ],
      [
        "рос",
        -10.277293541017086
      ],
      [
        "▁слышал",
        -10.277408315558196
      ],
      [
        "печат",
        -10.277512318973642
      ],
      [
        "▁умер",
        -10.277519087108619
      ],
      [
        "▁коллектив",
        -10.277561218745404
      ],
      [
        "▁разум",
        -10.277562167135903
      ],
      [
        "▁появились",
        -10.277679615900556
      ],
      [
        "▁статья",
        -10.277765791490047
      ],
      [
        "70",
        -10.277779252468655
      ],
      [
        "▁ужас",
        -10.278113615442837
      ],
      [
        "▁идут",
        -10.27836926592688
      ],
      [
        "▁высокой",
        -10.278409834000904
      ],
      [
        "▁причиной",
        -10.278639558869664
      ],
      [
        "▁Наверное",
        -10.278693571016777
      ],
      [
        "▁вечером",
        -10.279116879787637
      ],
      [
        "кал",
        -10.279311526820171
      ],
      [
        "▁направлении",
        -10.279323284549601
      ],
      [
        "▁книга",
        -10.27944637686425
      ],
      [
        "ём",
        -10.279726342662322
      ],
      [
        "▁лучших",
        -10.279837598153911
      ],
      [
        "el",
        -10.27984559246166
      ],
      [
        "▁32",
        -10.280077022894984
      ],
      [
        "▁вчера",
        -10.280191931088503
      ],
      [
        "вой",
        -10.280602127141218
      ],
      [
        "енных",
        -10.280715683665294
      ],
      [
        "▁телефону",
        -10.281342758651572
      ],
      [
        "люб",
        -10.281590230633935
      ],
      [
        "▁болезни",
        -10.281598675764938
      ],
      [
        "▁проекты",
        -10.281925347185009
      ],
      [
        "▁кофе",
        -10.282008700267667
      ],
      [
        "▁университет",
        -10.282312990726851
      ],
      [
        "кую",
        -10.282345440327063
      ],
      [
        "▁перечень",
        -10.282481625150933
      ],
      [
        "▁дороге",
        -10.282772577327735
      ],
      [
        "пр",
        -10.282955451565662
      ],
      [
        "▁цене",
        -10.2839536711445
      ],
      [
        "▁функций",
        -10.284249033402872
      ],
      [
        "▁определенные",
        -10.284430685695817
      ],
      [
        "▁отношениях",
        -10.284537624861326
      ],
      [
        "пл",
        -10.284831066407753
      ],
      [
        "▁мира.",
        -10.285095527928245
      ],
      [
        "▁выигрыш",
        -10.285115186895446
      ],
      [
        "▁сотрудники",
        -10.285868969150268
      ],
      [
        "39",
        -10.286344380362518
      ],
      [
        "рез",
        -10.28640041681206
      ],
      [
        "29",
        -10.286710545299936
      ],
      [
        "▁блок",
        -10.287390735864545
      ],
      [
        "▁способом",
        -10.287445276138707
      ],
      [
        "цию",
        -10.28747429740708
      ],
      [
        "▁\"А",
        -10.288004229498883
      ],
      [
        "▁используются",
        -10.28827047554129
      ],
      [
        "▁настоящий",
        -10.288417602240946
      ],
      [
        "ается",
        -10.288547739724784
      ],
      [
        "▁тихо",
        -10.288636264265554
      ],
      [
        "▁Ч",
        -10.288745290211677
      ],
      [
        "▁ма",
        -10.288754003741255
      ],
      [
        "▁выхода",
        -10.28876445350969
      ],
      [
        "▁условии",
        -10.289570423887483
      ],
      [
        "▁т.п.",
        -10.2895840865942
      ],
      [
        "▁работ,",
        -10.289966764980544
      ],
      [
        "▁нашли",
        -10.290341864959164
      ],
      [
        "▁Ново",
        -10.290372188582552
      ],
      [
        "▁второго",
        -10.290485024667511
      ],
      [
        "▁способности",
        -10.290575349965401
      ],
      [
        "▁знаком",
        -10.29118301107225
      ],
      [
        "▁муниципальной",
        -10.291350497567652
      ],
      [
        "▁землю",
        -10.292247823753115
      ],
      [
        "▁род",
        -10.292367748744706
      ],
      [
        "правовых",
        -10.292697063564633
      ],
      [
        "▁поток",
        -10.29308067910379
      ],
      [
        "▁наверняка",
        -10.293133793997225
      ],
      [
        "▁отрасли",
        -10.29313716310358
      ],
      [
        "▁специальных",
        -10.293138837858727
      ],
      [
        "▁остальных",
        -10.293143424233495
      ],
      [
        "▁учащихся",
        -10.294027603780625
      ],
      [
        "▁целый",
        -10.294213305334015
      ],
      [
        "▁ума",
        -10.294246955829072
      ],
      [
        "▁проб",
        -10.294435631301223
      ],
      [
        "▁машины",
        -10.294507511655828
      ],
      [
        "цен",
        -10.294570967711557
      ],
      [
        "▁области.",
        -10.294740812323766
      ],
      [
        "щего",
        -10.294846609977073
      ],
      [
        "так",
        -10.29487710317246
      ],
      [
        "▁Работа",
        -10.295364624479731
      ],
      [
        "▁друзей",
        -10.29640610872194
      ],
      [
        "▁конференции",
        -10.296792641600089
      ],
      [
        "рит",
        -10.296914813465225
      ],
      [
        "▁немало",
        -10.297085691317436
      ],
      [
        "▁Второй",
        -10.297615007289828
      ],
      [
        "▁память",
        -10.297678447495127
      ],
      [
        "▁практика",
        -10.298337286727635
      ],
      [
        "реш",
        -10.298389793552355
      ],
      [
        "▁создании",
        -10.29855923082484
      ],
      [
        "▁ЕС",
        -10.298987154521944
      ],
      [
        "▁применение",
        -10.299103033229347
      ],
      [
        "▁«по",
        -10.299362644585617
      ],
      [
        "V",
        -10.299569602745258
      ],
      [
        "▁глубоко",
        -10.29976515651075
      ],
      [
        "▁конкурса",
        -10.300006353792522
      ],
      [
        "▁методов",
        -10.300249073321316
      ],
      [
        "▁сведений",
        -10.300300388030212
      ],
      [
        "▁мнения",
        -10.300321781729348
      ],
      [
        "▁1000",
        -10.301029740428195
      ],
      [
        "▁ситуации,",
        -10.301182752430503
      ],
      [
        "▁эффективность",
        -10.301205146148058
      ],
      [
        "▁контакт",
        -10.301252631799452
      ],
      [
        "O",
        -10.301286794879921
      ],
      [
        "▁сообщение",
        -10.302353241574515
      ],
      [
        "альная",
        -10.302559791995007
      ],
      [
        "▁стадии",
        -10.303031869002023
      ],
      [
        "▁доказательств",
        -10.303686246232228
      ],
      [
        "енная",
        -10.303942777843677
      ],
      [
[...]
