{
  "version": "1.0",
  "truncation": null,
  "padding": null,
  "added_tokens": [
    {
      "id": 0,
      "content": "[UNK]",
      "single_word": false,
      "lstrip": false,
      "rstrip": false,
      "normalized": false,
      "special": true
    },
    {
      "id": 1,
      "content": "[CLS]",
      "single_word": false,
      "lstrip": false,
      "rstrip": false,
      "normalized": false,
      "special": true
    },
    {
      "id": 2,
      "content": "[SEP]",
      "single_word": false,
      "lstrip": false,
      "rstrip": false,
      "normalized": false,
      "special": true
    },
    {
      "id": 3,
      "content": "[PAD]",
      "single_word": false,
      "lstrip": false,
      "rstrip": false,
      "normalized": false,
      "special": true
    },
    {
      "id": 4,
      "content": "[MASK]",
      "single_word": false,
      "lstrip": false,
      "rstrip": false,
      "normalized": false,
      "special": true
    }
  ],
  "normalizer": {
    "type": "Sequence",
    "normalizers": [
      {
        "type": "Nmt"
      },
      {
        "type": "NFKC"
      },
      {
        "type": "Replace",
        "pattern": {
          "Regex": " {2,}"
        },
        "content": " "
      }
    ]
  },
  "pre_tokenizer": {
    "type": "Metaspace",
    "replacement": "▁",
    "prepend_scheme": "always",
    "split": true
  },
  "post_processor": null,
  "decoder": {
    "type": "Metaspace",
    "replacement": "▁",
    "prepend_scheme": "always",
    "split": true
  },
  "model": {
    "type": "Unigram",
    "unk_id": 0,
    "vocab": [
      [
        "[UNK]",
        0.0
      ],
      [
        "[CLS]",
        0.0
      ],
      [
        "[SEP]",
        0.0
      ],
      [
        "[PAD]",
        0.0
      ],
      [
        "[MASK]",
        0.0
      ],
      [
        "▁",
        -2.7200321779108627
      ],
      [
        "▁के",
        -3.5818859991500656
      ],
      [
        "▁में",
        -3.8349992736507073
      ],
      [
        ",",
        -3.974523353147392
      ],
      [
        "▁की",
        -3.997079750226952
      ],
      [
        "▁से",
        -4.284087816562293
      ],
      [
        "▁को",
        -4.347204484035885
      ],
      [
        "▁का",
        -4.426995052638782
      ],
      [
        "▁और",
        -4.467180513954025
      ],
      [
        "▁है",
        -4.563393501399062
      ],
      [
        "▁पर",
        -4.742555446527238
      ],
      [
        "▁ने",
        -4.946140846299903
      ],
      [
        "▁भी",
        -5.112426641223742
      ],
      [
        "▁लिए",
        -5.21154990594227
      ],
      [
        "▁एक",
        -5.228890070244921
      ],
      [
        "▁नहीं",
        -5.270874752422559
      ],
      [
        "▁है।",
        -5.309675056752864
      ],
      [
        "▁कि",
        -5.39303982578374
      ],
      [
        "▁तो",
        -5.418659033484367
      ],
      [
        "▁कर",
        -5.42783563118876
      ],
      [
        "▁ही",
        -5.499429290248477
      ],
      [
        "।",
        -5.515480170714678
      ],
      [
        "▁इस",
        -5.5178253132390775
      ],
      [
        "▁हो",
        -5.561642105365841
      ],
      [
        "▁हैं",
        -5.580943641072308
      ],
      [
        ":",
        -5.587150074553792
      ],
      [
        "...",
        -5.850254059067089
      ],
      [
        "ों",
        -5.853255491573055
      ],
      [
        "▁यह",
        -5.894842422124423
      ],
      [
        "▁करने",
        -5.906974273658191
      ],
      [
        "-",
        -5.921985828797583
      ],
      [
        ".",
        -5.960241961284595
      ],
      [
        "ी",
        -6.0311081798797375
      ],
      [
        "▁साथ",
        -6.0313002489500676
      ],
      [
        "▁किया",
        -6.0417809612304225
      ],
      [
        ")",
        -6.065972219821257
      ],
      [
        "▁आप",
        -6.088359333926952
      ],
      [
        "▁अपने",
        -6.112768885337786
      ],
      [
        "▁है.",
        -6.152284331246646
      ],
      [
        "▁ये",
        -6.188187979874279
      ],
      [
        "▁-",
        -6.196881678117034
      ],
      [
        "▁क्या",
        -6.210293430830234
      ],
      [
        "▁कुछ",
        -6.223869996636315
      ],
      [
        "▁हैं।",
        -6.237719050013476
      ],
      [
        "▁जो",
        -6.255095234474906
      ],
      [
        "▁है,",
        -6.321738679179266
      ],
      [
        "▁तक",
        -6.336470699122685
      ],
      [
        "▁मैं",
        -6.34341125277726
      ],
      [
        "▁गया",
        -6.370678754475353
      ],
      [
        "▁करें",
        -6.378554053244605
      ],
      [
        "▁रहे",
        -6.3959282789886345
      ],
      [
        "▁रहा",
        -6.403842598089247
      ],
      [
        "▁बाद",
        -6.406673323819577
      ],
      [
        "▁अब",
        -6.448104062214526
      ],
      [
        "े",
        -6.474157728426375
      ],
      [
        "▁कोई",
        -6.496702766742851
      ],
      [
        "▁भारत",
        -6.498907625328398
      ],
      [
        "▁या",
        -6.524047210885797
      ],
      [
        "▁(",
        -6.5281531851855945
      ],
      [
        "▁न",
        -6.567737789285037
      ],
      [
        "▁हुए",
        -6.579699781614535
      ],
      [
        "▁था",
        -6.5871177221576644
      ],
      [
        "▁रही",
        -6.588002758723386
      ],
      [
        "ा",
        -6.600741560608375
      ],
      [
        "▁_",
        -6.60578729009257
      ],
      [
        "▁बहुत",
        -6.626044051681008
      ],
      [
        "▁हम",
        -6.629711953228881
      ],
      [
        "▁अपनी",
        -6.638639438372241
      ],
      [
        "▁पहले",
        -6.652073195122108
      ],
      [
        "▁आज",
        -6.6633824764845535
      ],
      [
        "▁किसी",
        -6.665966274840466
      ],
      [
        "▁वह",
        -6.681905219440004
      ],
      [
        "▁कहा",
        -6.696040735344441
      ],
      [
        "न",
        -6.715324605139957
      ],
      [
        "▁जा",
        -6.7180967144746795
      ],
      [
        "▁दिया",
        -6.722825654289377
      ],
      [
        "▁–",
        -6.7281531273914155
      ],
      [
        "▁बात",
        -6.732428683381505
      ],
      [
        "▁वो",
        -6.772051139374463
      ],
      [
        "▁फिर",
        -6.780892601567958
      ],
      [
        "▁वाले",
        -6.799358102930439
      ],
      [
        "▁लेकिन",
        -6.809721945355719
      ],
      [
        "▁करते",
        -6.826334307026963
      ],
      [
        "▁सकते",
        -6.836508208064151
      ],
      [
        "▁जब",
        -6.836993865818373
      ],
      [
        "▁होने",
        -6.841079009512017
      ],
      [
        "र",
        -6.856399001945464
      ],
      [
        "▁तरह",
        -6.862386639435195
      ],
      [
        "▁सबसे",
        -6.867233212771467
      ],
      [
        "▁दिन",
        -6.8759770121030535
      ],
      [
        "▁सरकार",
        -6.890146053282859
      ],
      [
        "▁समय",
        -6.890758721324303
      ],
      [
        "’",
        -6.895863841593439
      ],
      [
        "▁हुआ",
        -6.900621771589506
      ],
      [
        "▁देश",
        -6.911393695485412
      ],
      [
        "▁हैं.",
        -6.928587818060578
      ],
      [
        "▁मुझे",
        -6.947090255165797
      ],
      [
        "▁होता",
        -6.9477282518406
      ],
      [
        "▁साल",
        -6.954218344788323
      ],
      [
        "▁बार",
        -6.978753937720835
      ],
      [
        "▁घर",
        -6.986387523402737
      ],
      [
        "▁आ",
        -7.004236062568582
      ],
      [
        "▁करना",
        -7.013270748226818
      ],
      [
        "▁सकता",
        -7.0176280244927725
      ],
      [
        "▁दो",
        -7.025473362271526
      ],
      [
        "▁लोगों",
        -7.029825258731325
      ],
      [
        "▁मेरे",
        -7.032248987922875
      ],
      [
        "▁बारे",
        -7.03289473680152
      ],
      [
        "▁जाता",
        -7.033197638111895
      ],
      [
        "'",
        -7.036602390660278
      ],
      [
        "क",
        -7.038725562624046
      ],
      [
        "▁जी",
        -7.040405142447028
      ],
      [
        "▁?",
        -7.0446723059308916
      ],
      [
        "▁आपको",
        -7.045870782441753
      ],
      [
        "▁नाम",
        -7.051715092678684
      ],
      [
        "▁!",
        -7.060614054763725
      ],
      [
        "ं",
        -7.066367468563632
      ],
      [
        "▁(1)",
        -7.070430332600212
      ],
      [
        "▁हर",
        -7.080595907235612
      ],
      [
        "▁काम",
        -7.084006484132702
      ],
      [
        "▁इन",
        -7.086008571389568
      ],
      [
        "ने",
        -7.093629892949863
      ],
      [
        "▁सभी",
        -7.09528047835183
      ],
      [
        "▁हैं,",
        -7.099954819215009
      ],
      [
        "!",
        -7.118636440517715
      ],
      [
        "▁प्रदेश",
        -7.1204633580088945
      ],
      [
        "▁गई",
        -7.123355382769372
      ],
      [
        "▁गए",
        -7.154539025039789
      ],
      [
        "▁‘",
        -7.162796503084605
      ],
      [
        "▁दी",
        -7.170535503624736
      ],
      [
        "▁पोस्ट",
        -7.173324040046516
      ],
      [
        "▁जाने",
        -7.173612144165771
      ],
      [
        "▁2018",
        -7.178552163271915
      ],
      [
        "▁मोदी",
        -7.185198219857645
      ],
      [
        "▁भारतीय",
        -7.186991271219624
      ],
      [
        "▁लोग",
        -7.189283284443681
      ],
      [
        "▁रूप",
        -7.189421211053936
      ],
      [
        "▁कम",
        -7.1895206012036965
      ],
      [
        "स",
        -7.226978306496614
      ],
      [
        "▁वे",
        -7.228371087574061
      ],
      [
        "▁उस",
        -7.236222779635366
      ],
      [
        "▁कई",
        -7.249064157265435
      ],
      [
        "▁हुई",
        -7.249235814371691
      ],
      [
        "म",
        -7.249781511416989
      ],
      [
        "▁द्वारा",
        -7.251251146698687
      ],
      [
        "ता",
        -7.259708419776951
      ],
      [
        "▁था।",
        -7.263027579355079
      ],
      [
        "▁थी",
        -7.265753813387423
      ],
      [
        "▁उसे",
        -7.267675291252342
      ],
      [
        "▁मेरी",
        -7.273455348019127
      ],
      [
        "?",
        -7.285121366643484
      ],
      [
        "▁उनके",
        -7.285470757419478
      ],
      [
        "▁...",
        -7.2871162752505185
      ],
      [
        "▁उसके",
        -7.294452214560552
      ],
      [
        "▁इसके",
        -7.300486709609022
      ],
      [
        "▁सिंह",
        -7.302391336068162
      ],
      [
        "▁'",
        -7.3102248941060815
      ],
      [
        "▁मैंने",
        -7.3211235019235374
      ],
      [
        "▁पास",
        -7.322307120084584
      ],
      [
        "ल",
        -7.322328238626705
      ],
      [
        "▁व",
        -7.324460879406518
      ],
      [
        "▁आपके",
        -7.32810557605419
      ],
      [
        "▁कैसे",
        -7.329134207242385
      ],
      [
        "▁उन्होंने",
        -7.336200068076495
      ],
      [
        "▁अगर",
        -7.34083683678355
      ],
      [
        "▁होती",
        -7.350849389434542
      ],
      [
        "▁लेकर",
        -7.354729307189485
      ],
      [
        "▁करता",
        -7.354903612588689
      ],
      [
        "▁वाली",
        -7.360995899526088
      ],
      [
        "त",
        -7.37281509471161
      ],
      [
        "▁एवं",
        -7.377855166587699
      ],
      [
        "▁अपना",
        -7.380578308328852
      ],
      [
        "▁शेयर",
        -7.38717832521737
      ],
      [
        "▁बड़े",
        -7.391045016644004
      ],
      [
        "▁कभी",
        -7.397798728288711
      ],
      [
        "▁तुम",
        -7.399749343049448
      ],
      [
        "▁\"",
        -7.403486314625756
      ],
      [
        "▁सब",
        -7.405170778083454
      ],
      [
        "ो",
        -7.405317299098556
      ],
      [
        "▁है?",
        -7.408383851446969
      ],
      [
        "▁ऐसा",
        -7.4137362373781315
      ],
      [
        "▁हमारे",
        -7.431320037129936
      ],
      [
        "▁जीवन",
        -7.436812435984322
      ],
      [
        "▁उन्हें",
        -7.444740158687754
      ],
      [
        "▁ऐसे",
        -7.454611148989585
      ],
      [
        "▁ले",
        -7.456452259781006
      ],
      [
        "▁दे",
        -7.4624137728981506
      ],
      [
        "▁चुनाव",
        -7.478100082102898
      ],
      [
        "▁थे",
        -7.486401792151314
      ],
      [
        "▁कांग्रेस",
        -7.490215944061367
      ],
      [
        "▁क्यों",
        -7.496564446678526
      ],
      [
        "▁पुलिस",
        -7.499422052797776
      ],
      [
        "▁सेक्स",
        -7.519698550234782
      ],
      [
        "▁शुरू",
        -7.522922655238508
      ],
      [
        "▁अधिक",
        -7.535882954550278
      ],
      [
        "▁उत्तर",
        -7.543766276002183
      ],
      [
        "▁ज्यादा",
        -7.550411237302875
      ],
      [
        "▁बड़ा",
        -7.551152513735936
      ],
      [
        "▁हूँ",
        -7.554898107461801
      ],
      [
        "कर",
        -7.557669587076866
      ],
      [
        "..",
        -7.558005060331103
      ],
      [
        "▁बना",
        -7.571070177369819
      ],
      [
        "▁बीच",
        -7.571695365883425
      ],
      [
        "▁नई",
        -7.572901470301343
      ],
      [
        "▁होगा",
        -7.574947602790033
      ],
      [
        "▁कारण",
        -7.58275240192021
      ],
      [
        "▁दुनिया",
        -7.58525650097819
      ],
      [
        "▁10",
        -7.590837350279129
      ],
      [
        "▁जैसे",
        -7.592787770987169
      ],
      [
        "्स",
        -7.596496445533218
      ],
      [
        "▁फिल्म",
        -7.614871627720461
      ],
      [
        "▁उनकी",
        -7.617111355412733
      ],
      [
        "/",
        -7.617316500832871
      ],
      [
        "▁बड़ी",
        -7.618940809059728
      ],
      [
        "\"",
        -7.632365655484438
      ],
      [
        "▁दिल्ली",
        -7.639086249694644
      ],
      [
        "▁मेरा",
        -7.6399428393555375
      ],
      [
        "▁इसे",
        -7.645071252017196
      ],
      [
        "▁5",
        -7.646438442587007
      ],
      [
        "▁देने",
        -7.649120753661771
      ],
      [
        "▁दोनों",
        -7.658732204528732
      ],
      [
        "▁Hindi",
        -7.664124658506539
      ],
      [
        "▁लगा",
        -7.664687425690181
      ],
      [
        "▁मन",
        -7.668829093529302
      ],
      [
        "▁जाती",
        -7.678681381495336
      ],
      [
        "▁आगे",
        -7.691535845946797
      ],
      [
        "▁राज्य",
        -7.693696365676978
      ],
      [
        "▁यहां",
        -7.697665420358852
      ],
      [
        "▁महिला",
        -7.702674798498261
      ],
      [
        "ना",
        -7.703385711746513
      ],
      [
        "▁होते",
        -7.706666656784442
      ],
      [
        "▁वर्ष",
        -7.708813743375538
      ],
      [
        "▁पता",
        -7.709252724390009
      ],
      [
        "य",
        -7.7117257708225395
      ],
      [
        "▁जानकारी",
        -7.713010301091844
      ],
      [
        "▁सकती",
        -7.716848308195177
      ],
      [
        "▁अभी",
        -7.720327393886894
      ],
      [
        "▁थी।",
        -7.727525009357423
      ],
      [
        "▁पानी",
        -7.735083574635489
      ],
      [
        "▁ना",
        -7.743728670953377
      ],
      [
        "s",
        -7.748152943123742
      ],
      [
        "▁1",
        -7.749375311379481
      ],
      [
        "▁दिल",
        -7.7571154049129465
      ],
      [
        "▁उसकी",
        -7.759222355231206
      ],
      [
        "▁लिया",
        -7.769530711112415
      ],
      [
        "▁हमें",
        -7.77020895191545
      ],
      [
        "▁2",
        -7.7755310797148915
      ],
      [
        "▁सामने",
        -7.780418309934905
      ],
      [
        "▁“",
        -7.782812960299779
      ],
      [
        "▁अच्छा",
        -7.784474953781903
      ],
      [
        "▁तीन",
        -7.78583752184162
      ],
      [
        "▁पार्टी",
        -7.7885053571303615
      ],
      [
        "▁आपकी",
        -7.791185006369773
      ],
      [
        "▁टीम",
        -7.795423168755317
      ],
      [
        "▁पूर्व",
        -7.7959573088122145
      ],
      [
        "▁बस",
        -7.802914651821535
      ],
      [
        "▁किस",
        -7.805546963765444
      ],
      [
        "▁अन्य",
        -7.805883475215248
      ],
      [
        "▁पूरी",
        -7.806878454538374
      ],
      [
        "▁कुमार",
        -7.811830139201916
      ],
      [
        "”",
        -7.82146008404079
      ],
      [
        "▁/",
        -7.829147173145724
      ],
      [
        "▁जाते",
        -7.830701158600258
      ],
      [
        "ते",
        -7.831534781059181
      ],
      [
        "▁कौन",
        -7.831677846190775
      ],
      [
        "ियों",
        -7.833345844899505
      ],
      [
        "▁दूर",
        -7.836929244012316
      ],
      [
        "▁तब",
        -7.842936588700324
      ],
      [
        "▁हाथ",
        -7.846983156509234
      ],
      [
        "▁बनाने",
        -7.849220848634534
      ],
      [
        "▁बंद",
        -7.853265712059143
      ],
      [
        "▁ओर",
        -7.854413294055819
      ],
      [
        "▁हिंदी",
        -7.856001964227987
      ],
      [
        "▁तथा",
        -7.858664843534536
      ],
      [
        "ट",
        -7.8626701662319824
      ],
      [
        "▁बन",
        -7.863817779454493
      ],
      [
        "▁करोड़",
        -7.869611354045714
      ],
      [
        "ित",
        -7.870344585590988
      ],
      [
        "▁पहली",
        -7.880714139773454
      ],
      [
        "▁देख",
        -7.8808226652406805
      ],
      [
        "▁मे",
        -7.885742647187724
      ],
      [
        "▁वाला",
        -7.887799888790449
      ],
      [
        "▁उसने",
        -7.890336050673639
      ],
      [
        "▁बाहर",
        -7.891348066552894
      ],
      [
        "▁3",
        -7.894821424722185
      ],
      [
        "▁मंत्री",
        -7.897638477043563
      ],
      [
        "▁थे।",
        -7.90741905932782
      ],
      [
        "▁आने",
        -7.90894226492469
      ],
      [
        "▁मीडिया",
        -7.924147066626064
      ],
      [
        "▁खुद",
        -7.927847778196201
      ],
      [
        "▁मिल",
        -7.930643135430721
      ],
      [
        "▁जारी",
        -7.9332920775564855
      ],
      [
        "▁इससे",
        -7.937017771296624
      ],
      [
        "▁यहाँ",
        -7.942214642467922
      ],
      [
        "▁गया।",
        -7.946098253119304
      ],
      [
        "▁आपका",
        -7.946319226737311
      ],
      [
        "▁शामिल",
        -7.946872115631109
      ],
      [
        "▁बताया",
        -7.947954674444674
      ],
      [
        "▁मामले",
        -7.948351608778703
      ],
      [
        "▁यदि",
        -7.952830508723688
      ],
      [
        "▁खिलाफ",
        -7.95492657582917
      ],
      [
        "ई",
        -7.96211945362794
      ],
      [
        "▁था.",
        -7.963572679346155
      ],
      [
        "▁क्षेत्र",
        -7.972528124137948
      ],
      [
        "▁4",
        -7.979573649992101
      ],
      [
        "▁माँ",
        -7.981612834120481
      ],
      [
        "▁दौरान",
        -7.981963190874518
      ],
      [
        "▁प्राप्त",
        -7.986628875390311
      ],
      [
        "▁प्रधानमंत्री",
        -7.992768639983568
      ],
      [
        "▁क्योंकि",
        -7.994751654510043
      ],
      [
        "▁2017",
        -8.002751683180174
      ],
      [
        "▁नही",
        -8.005654309089135
      ],
      [
        "▁सही",
        -8.006066928645517
      ],
      [
        "▁करती",
        -8.012160256893397
      ],
      [
        "▁रात",
        -8.018144732971212
      ],
      [
        "▁श्री",
        -8.020878537831846
      ],
      [
        "▁बच्चों",
        -8.0213768319066
      ],
      [
        "▁in",
        -8.022814794968005
      ],
      [
        "▁मौत",
        -8.024086375208457
      ],
      [
        "▁बैंक",
        -8.024205104271388
      ],
      [
        "▁प्यार",
        -8.025153781636325
      ],
      [
        "▁पूरा",
        -8.028915377441324
      ],
      [
        "▁नए",
        -8.02911067982508
      ],
      [
        "▁चाहिए",
        -8.030927838859347
      ],
      [
        "▁लाख",
        -8.033386533528786
      ],
      [
        "▁News",
        -8.033704371957317
      ],
      [
        "▁कहते",
        -8.037226195373632
      ],
      [
        "▁परिवार",
        -8.049228075887443
      ],
      [
        "▁शादी",
        -8.053300683894108
      ],
      [
        "▁सिर्फ",
        -8.053761031032794
      ],
      [
        "▁विश्व",
        -8.057224250722888
      ],
      [
        "▁ऐसी",
        -8.059221313037886
      ],
      [
        "▁याद",
        -8.05967453116118
      ],
      [
        "▁भाजपा",
        -8.06126179329784
      ],
      [
        "▁करके",
        -8.06170657545897
      ],
      [
        "ज",
        -8.065856372819825
      ],
      [
        "▁इसलिए",
        -8.06678445838019
      ],
      [
        "▁आई",
        -8.068654747037055
      ],
      [
        "▁कहानी",
        -8.069027148674667
      ],
      [
        "▁लगता",
        -8.072274694203657
      ],
      [
        "▁स्तन",
        -8.074080153451064
      ],
      [
        "▁वीडियो",
        -8.076765489452512
      ],
      [
        "▁आया",
        -8.078666618160824
      ],
      [
        "▁उपयोग",
        -8.083914347236883
      ],
      [
        "▁भर",
        -8.091632770903965
      ],
      [
        "▁लिये",
        -8.093868362471609
      ],
      [
        "▁खेल",
        -8.09451937398231
      ],
      [
        "▁सी",
        -8.094967132864783
      ],
      [
        "▁वजह",
        -8.096941570422299
      ],
      [
        "▁विकास",
        -8.09851746360548
      ],
      [
        "▁इस्तेमाल",
        -8.109306529869622
      ],
      [
        "▁6",
        -8.110194512599785
      ],
      [
        "▁इसका",
        -8.11167540042664
      ],
      [
        "▁था,",
        -8.113375728687569
      ],
      [
        "▁उन",
        -8.113702460512211
      ],
      [
        "ब",
        -8.11968918866114
      ],
      [
        "▁काफी",
        -8.122711286797786
      ],
      [
        "▁व्यक्ति",
        -8.124102860000075
      ],
      [
        "▁चल",
        -8.126020050161365
      ],
      [
        "▁कहा,",
        -8.128435107667585
      ],
      [
        "_",
        -8.12908775425092
      ],
      [
        "▁इंडिया",
        -8.130254690878242
      ],
      [
        "▁जगह",
        -8.13170997227245
      ],
      [
        "िंग",
        -8.131992812223425
      ],
      [
        "ती",
        -8.132843277396269
      ],
      [
        "▁चाहते",
        -8.132923309405795
      ],
      [
        "▁ध्यान",
        -8.139597628359695
      ],
      [
        "▁उनका",
        -8.141489590361983
      ],
      [
        "▁दूसरे",
        -8.149592876700996
      ],
      [
        "▁बिना",
        -8.149835524278414
      ],
      [
        "▁मुख्यमंत्री",
        -8.150127795056815
      ],
      [
        "▁योजना",
        -8.151137066842193
      ],
      [
        "ओं",
        -8.15337362881547
      ],
      [
        "▁ठीक",
        -8.153832754766585
      ],
      [
        "▁होगी",
        -8.154030313543284
      ],
      [
        "▁उसका",
        -8.159312626633856
      ],
      [
        "▁ऊपर",
        -8.16473786799733
      ],
      [
        "▁लिंक",
        -8.167591070239142
      ],
      [
        "▁बीबीसी",
        -8.168312986394351
      ],
      [
        "▁रह",
        -8.170615074554323
      ],
      [
        "▁शहर",
        -8.172903847081505
      ],
      [
        "▁किए",
        -8.173410606814466
      ],
      [
        "▁अच्छी",
        -8.173421642454112
      ],
      [
        "▁तैयार",
        -8.178771624509775
      ],
      [
        "▁इसी",
        -8.180882744444782
      ],
      [
        "▁करें।",
        -8.181730732208303
      ],
      [
        "▁कोर्ट",
        -8.184783240291129
      ],
      [
        "▁प्रकार",
        -8.185555874151927
      ],
      [
        "▁इसमें",
        -8.190052462851108
      ],
      [
        "▁सवाल",
        -8.191367301945558
      ],
      [
        "▁लेने",
        -8.19176372626591
      ],
      [
        "▁प्रश्न",
        -8.19179368626871
      ],
      [
        "▁अध्यक्ष",
        -8.192919955837475
      ],
      [
        "▁यही",
        -8.195680520731033
      ],
      [
        "▁सा",
        -8.203577265395635
      ],
      [
        "▁गांधी",
        -8.203608503933403
      ],
      [
        "▁मदद",
        -8.205953270964011
      ],
      [
        "▁राष्ट्रीय",
        -8.206378424296197
      ],
      [
        "▁होना",
        -8.209522636172917
      ],
      [
        "▁राम",
        -8.211597134273717
      ],
      [
        "▁चुदाई",
        -8.215027416798662
      ],
      [
        "▁अलग",
        -8.216665793332334
      ],
      [
        "▁जाना",
        -8.216828632096691
      ],
      [
        ";",
        -8.220745418215039
      ],
      [
        "▁देखा",
        -8.220910089999569
      ],
      [
        "▁परीक्षा",
        -8.221584902157327
      ],
      [
        "व",
        -8.22564823595027
      ],
      [
        "▁चार",
        -8.225707908650415
      ],
      [
        "▁भाई",
        -8.226394948900532
      ],
      [
        "▁मध्य",
        -8.229369832943709
      ],
      [
        "▁समाज",
        -8.233667424784889
      ],
      [
        "▁पाकिस्तान",
        -8.234044769527062
      ],
      [
        "▁नेता",
        -8.234200046046736
      ],
      [
        "▁बच्चे",
        -8.23532900534922
      ],
      [
        "नी",
        -8.235839404177163
      ],
      [
        "▁शरीर",
        -8.238161247050808
      ],
      [
        "▁राहुल",
        -8.238268471070066
      ],
      [
        "▁मुख्य",
        -8.239978630813827
      ],
      [
        "▁सेवा",
        -8.240805584364223
      ],
      [
        "▁देते",
        -8.243130210193659
      ],
      [
        "▁शिक्षा",
        -8.247096965367193
      ],
      [
        "▁गयी",
        -8.249999062403216
      ],
      [
        "▁रहने",
        -8.25079890612381
      ],
      [
        "▁रुपये",
        -8.253576140199442
      ],
      [
        "▁नीचे",
        -8.253595301852078
      ],
      [
        "▁कार्य",
        -8.258037259284762
      ],
      [
        "▁दिनों",
        -8.258505255536303
      ],
      [
        "▁केवल",
        -8.258770665522139
      ],
      [
        "▁अ",
        -8.259691244648106
      ],
      [
        "▁रुपए",
        -8.26033226465055
      ],
      [
        "▁कह",
        -8.262653582677485
      ],
      [
        "▁धर्म",
        -8.264115174540313
      ],
      [
        "्",
        -8.265755432647712
      ],
      [
        "▁कहना",
        -8.265890499400008
      ],
      [
        "▁आवेदन",
        -8.266324288945327
      ],
      [
        "▁संपर्क",
        -8.268433596187194
      ],
      [
        "▁कंपनी",
        -8.276005266631257
      ],
      [
        "▁हमारी",
        -8.2808761099685
      ],
      [
        "▁खान",
        -8.283359695989635
      ],
      [
        "▁जिस",
        -8.283676796255019
      ],
      [
        "▁बीजेपी",
        -8.284732633934542
      ],
      [
        "▁ब्लॉग",
        -8.293780473796833
      ],
      [
        "▁प्रति",
        -8.293998933954487
      ],
      [
        "▁कहीं",
        -8.301632632032529
      ],
      [
        "▁मिला",
        -8.302066502830808
      ],
      [
        "▁दिवस",
        -8.309461850131612
      ],
      [
        "▁आरोप",
        -8.311208047202353
      ],
      [
        "▁20",
        -8.312666343673833
      ],
      [
        "▁दिए",
        -8.31619046123064
      ],
      [
        "▁उम्र",
        -8.316512232426083
      ],
      [
        "▁समाचार",
        -8.320580039521623
      ],
      [
        "▁पीछे",
        -8.325639205402513
      ],
      [
        "▁7",
        -8.327720179745587
      ],
      [
        "▁12",
        -8.336096998775664
      ],
      [
        "▁इतना",
        -8.336770737823699
      ],
      [
        "▁15",
        -8.337066902023889
      ],
      [
        "▁विचार",
        -8.339496262011483
      ],
      [
        "▁पिछले",
        -8.339568704452937
      ],
      [
        "प",
        -8.342644752601812
      ],
      [
        "▁रंग",
        -8.345756013213249
      ],
      [
        "▁लड़की",
        -8.34723577559475
      ],
      [
        "▁दर्द",
        -8.352074206618685
      ],
      [
        "▁जवाब",
        -8.355944808408793
      ],
      [
        "ि",
        -8.356588917631044
      ],
      [
        "▁तरफ",
        -8.356787677013363
      ],
      [
        "▁आपने",
        -8.36079103962276
      ],
      [
        "▁स्कूल",
        -8.361959576318988
      ],
      [
        "▁सुबह",
        -8.362118965770556
      ],
      [
        "▁खबर",
        -8.363086579860015
      ],
      [
        "▁समझ",
        -8.364270051327722
      ],
      [
        "▁नया",
        -8.365189480715056
      ],
      [
        "▁बातें",
        -8.367781897642546
      ],
      [
        "▁सुरक्षा",
        -8.368786007421036
      ],
      [
        "▁अनुसार",
        -8.37211469518253
      ],
      [
        "▁यात्रा",
        -8.37215755532834
      ],
      [
        "▁पद",
        -8.373184822122136
      ],
      [
        "▁8",
        -8.376722055532461
      ],
      [
        "▁देखें",
        -8.381008016804131
      ],
      [
        "▁25",
        -8.383609846910264
      ],
      [
        "▁क्लिक",
        -8.384093756612316
      ],
      [
        "▁पत्नी",
        -8.38623351729198
      ],
      [
        "▁आम",
        -8.388750898977982
      ],
      [
        "ह",
        -8.389062608424169
      ],
      [
        "श",
        -8.389890494977841
      ],
      [
        "▁नीति",
        -8.390621835208346
      ],
      [
        "▁कविता",
        -8.392213282186505
      ],
      [
        "▁जहां",
        -8.394687898428504
      ],
      [
        "▁लेख",
        -8.39556793584796
      ],
      [
        "▁कहा-",
        -8.398044137492338
      ],
      [
        "▁राष्ट्रपति",
        -8.398439281621723
      ],
      [
        "▁जनता",
        -8.402877432750799
      ],
      [
        "▁आधार",
        -8.412092260466192
      ],
      [
        "▁हैं?",
        -8.418343405255271
      ],
      [
        "▁मंदिर",
        -8.423260079668625
      ],
      [
        "▁जान",
        -8.42527485629202
      ],
      [
        "▁आदमी",
        -8.428294663727648
      ],
      [
        "▁महिलाओं",
        -8.4287317628238
      ],
      [
        "▁अमेरिका",
        -8.430296969257064
      ],
      [
        "▁शर्मा",
        -8.43035065121954
      ],
      [
        "▁किशोर",
        -8.430856150739736
      ],
      [
        "▁11",
        -8.431682980155818
      ],
      [
        "▁सामग्री",
        -8.43294014938007
      ],
      [
        "▁स्थान",
        -8.43403939377305
      ],
      [
        "▁विशेष",
        -8.435053423638088
      ],
      [
        "▁स्वास्थ्य",
        -8.435095840988756
      ],
      [
        "▁प्रेम",
        -8.435885562184826
      ],
      [
        "▁कोशिश",
        -8.43588972476081
      ],
      [
        "▁ली",
        -8.436985305328422
      ],
      [
        "▁देता",
        -8.438408804599595
      ],
      [
        "▁मोबाइल",
        -8.44205794709389
      ],
      [
        "▁लग",
        -8.442214875117369
      ],
      [
        "▁वेबसाइट",
        -8.442712255203421
      ],
      [
        "▁देखने",
        -8.446376102816625
      ],
      [
        "द",
        -8.448419647444062
      ],
      [
        "▁कल",
        -8.450083893583837
      ],
      [
        "▁बेटी",
        -8.453255105794987
      ],
      [
        "▁जांच",
        -8.454890236286282
      ],
      [
        "▁हाल",
        -8.456340843952997
      ],
      [
        "▁प्रमुख",
        -8.458938149703446
      ],
      [
        "▁18",
        -8.462172818020893
      ],
      [
        "▁जानिए",
        -8.464159438888968
      ],
      [
        "▁बता",
        -8.465439473426002
      ],
      [
        "▁केंद्र",
        -8.465512789541897
      ],
      [
        "▁फोन",
        -8.46572455319908
      ],
      [
        "▁करे",
        -8.4676507864984
      ],
      [
        "▁थी.",
        -8.468440171405067
      ],
      [
        "▁बाल",
        -8.470413672659134
      ],
      [
        "ड",
        -8.471591649123418
      ],
      [
        "▁पसंद",
        -8.471922322315853
      ],
      [
        "▁चला",
        -8.473473971166605
      ],
      [
        "▁इतिहास",
        -8.473542210785904
      ],
      [
        "▁हिन्दी",
        -8.479286532066975
      ],
      [
        "▁देर",
        -8.480544712335902
      ],
      [
        "▁भर्ती",
        -8.480630124208652
      ],
      [
        "ए",
        -8.480992607631446
      ],
      [
        "▁नजर",
        -8.48121904187046
      ],
      [
        "▁हूं",
        -8.488159738687454
      ],
      [
        "▁होगा।",
        -8.489932248276565
      ],
      [
        "▁महीने",
        -8.491409155938037
      ],
      [
        "▁9",
        -8.491518121080695
      ],
      [
        "▁शायद",
        -8.492223154039475
      ],
      [
        "▁स्थित",
        -8.49369478652117
      ],
      [
        "▁कार्यक्रम",
        -8.49707446841673
      ],
      [
        "▁यादव",
        -8.499749470580479
      ],
      [
        "जी",
        -8.500306108446793
      ],
      [
        "▁हमेशा",
        -8.50229297653664
      ],
      [
        "▁दें",
        -8.507134572639393
      ],
      [
        "▁मैच",
        -8.507891927642202
      ],
      [
        "▁आता",
        -8.508185648538397
      ],
      [
        "▁आदि",
        -8.511624975564002
      ],
      [
        "ें",
        -8.513210294275394
      ],
      [
        "▁रिपोर्ट",
        -8.515063394406685
      ],
      [
        "▁लाभ",
        -8.516120814580802
      ],
      [
        "री",
        -8.522667951465472
      ],
      [
        "▁बेहतर",
        -8.525473193689377
      ],
      [
        "▁थे.",
        -8.52869543842304
      ],
      [
        "▁लगे",
        -8.530094861364635
      ],
      [
        "▁हजार",
        -8.530517628646244
      ],
      [
        "▁लगी",
        -8.53090306391293
      ],
      [
        "▁जन्म",
        -8.532038629671856
      ],
      [
        "▁किया।",
        -8.534847665414729
      ],
      [
        "▁दिया।",
        -8.535640063321868
      ],
      [
        "▁चीन",
        -8.538965953150027
      ],
      [
        "▁..",
        -8.53941077078288
      ],
      [
        "▁कट्टर",
        -8.542942109001345
      ],
      [
        "▁चाहिए।",
        -8.545014714109758
      ],
      [
        "▁इसकी",
        -8.545540012565265
      ],
      [
        "▁स्थिति",
        -8.547983420038719
      ],
      [
        "▁देना",
        -8.548529446375808
      ],
      [
        "▁रखने",
        -8.548671697955715
      ],
      [
        "▁बनाया",
        -8.549875863659137
      ],
      [
        "▁पूरे",
        -8.550778416995383
      ],
      [
        "▁खास",
        -8.5510069468775
      ],
      [
        "▁पीएम",
        -8.551058939231094
      ],
      [
        "▁राज",
        -8.552758982983786
      ],
      [
        "▁छोड़",
        -8.55480751087833
      ],
      [
        "▁चर्चा",
        -8.555654049307027
      ],
      [
        "▁on",
        -8.557126115688373
      ],
      [
        "▁भाग",
        -8.559611366704774
      ],
      [
        "▁मांग",
        -8.560330414379875
      ],
      [
        "▁हत्या",
        -8.560383731078431
      ],
      [
        "▁मिनट",
        -8.568133424866119
      ],
      [
        "▁प्रयोग",
        -8.569488839473106
      ],
      [
        "▁जल",
        -8.57071822652955
      ],
      [
        "▁समस्या",
        -8.571551976490932
      ],
      [
        "▁ऑफ",
        -8.573867471967173
      ],
      [
        "▁(2)",
        -8.573927183089506
      ],
      [
        "▁जानते",
        -8.575076981265656
      ],
      [
        "▁रहते",
        -8.575674474534967
      ],
      [
        "▁पांच",
        -8.579807295243668
      ],
      [
        "▁रखा",
        -8.58029527139071
      ],
      [
        "▁भगवान",
        -8.580829820074602
      ],
      [
        "▁सोशल",
        -8.581403070086928
      ],
      [
        "▁पिता",
        -8.581928988535884
      ],
      [
        "▁स",
        -8.58207806628431
      ],
      [
        "▁बदल",
        -8.582695785095042
      ],
      [
        "▁ज्ञान",
        -8.583751213903312
      ],
      [
        "▁»",
        -8.584147834102122
      ],
      [
        "▁मगर",
        -8.585656582907028
      ],
      [
        "▁दर्ज",
        -8.585752824089411
      ],
      [
        "▁चेहरे",
        -8.585776366830661
      ],
      [
        "▁ऑनलाइन",
        -8.585823012765184
      ],
      [
        "▁सेना",
        -8.589276416137018
      ],
      [
        "▁जिसमें",
        -8.589381650764196
      ],
      [
        "0",
        -8.589837874943303
      ],
      [
        "▁जीत",
        -8.592791589668664
      ],
      [
        "▁बजे",
        -8.592814751903237
      ],
      [
        "▁उपाय",
        -8.592850678660879
      ],
      [
        "▁करीब",
        -8.595812987920821
      ],
      [
        "▁*",
        -8.59672467760584
      ],
      [
        "]",
        -8.597090047640943
      ],
      [
        "▁सरकारी",
        -8.597798741233063
      ],
      [
        "▁संख्या",
        -8.599326708272896
      ],
      [
        "▁महत्वपूर्ण",
        -8.599352113005567
      ],
      [
        "▁30",
        -8.600542174679571
      ],
      [
        "▁पति",
        -8.601279299418998
      ],
      [
        "▁क्रिकेट",
        -8.602425488761668
      ],
      [
        "▁#",
        -8.603482769786318
      ],
      [
        "▁सच",
        -8.604476461645437
      ],
      [
        "▁विभाग",
        -8.606002195907156
      ],
      [
        "▁वहां",
        -8.606155676500727
      ],
      [
        "▁लिखा",
        -8.606932846556429
      ],
      [
        "▁शब्द",
        -8.607977205182781
      ],
      [
        "▁कब",
        -8.608098704673472
      ],
      [
        "▁विधानसभा",
        -8.611065325241137
      ],
      [
        "▁पहला",
        -8.612365910694445
      ],
      [
        "▁हवा",
        -8.614945568126318
      ],
      [
        "▁आए",
        -8.61999748098478
      ],
      [
        "▁छोटे",
        -8.624518232786473
      ],
      [
        "▁क",
        -8.625944630938339
      ],
      [
        "▁पे",
        -8.626058860218546
      ],
      [
        "▁बने",
        -8.628068892038888
      ],
      [
        "▁मिली",
        -8.631560506613171
      ],
      [
        "▁थी,",
        -8.631974165843413
      ],
      [
        "▁जिसे",
        -8.632488235900823
      ],
      [
        "▁आदेश",
        -8.63306471292232
      ],
      [
        "या",
        -8.635469140922144
      ],
      [
        "़",
        -8.635666520411204
      ],
      [
        "▁आती",
        -8.636180380252988
      ],
      [
        "▁सामान्य",
        -8.636801796453799
      ],
      [
        "▁अच्छे",
        -8.636985512129137
      ],
      [
        "▁राजस्थान",
        -8.639632172655986
      ],
      [
        "▁भाषा",
        -8.642770946085122
      ],
      [
        "▁खाने",
        -8.643029616800964
      ],
      [
        "▁लें",
        -8.64333385078961
      ],
      [
        "▁कीमत",
        -8.644326659500177
      ],
      [
        "▁उसी",
        -8.648326790898818
      ],
      [
        "▁चाहता",
        -8.65201772447669
      ],
      [
        "▁पूजा",
        -8.654197279067683
      ],
      [
        "▁पढ़ें",
        -8.654940270297534
      ],
      [
        "▁रहता",
        -8.655440892284172
      ],
      [
        "▁बिहार",
        -8.655625022691506
      ],
      [
        "▁रख",
        -8.655772185997614
      ],
      [
        "▁नौकरी",
        -8.658521743114115
      ],
      [
        "▁जिससे",
        -8.659313471832782
      ],
      [
        "▁राशि",
        -8.660349370479286
      ],
      [
        "▁लाल",
        -8.660830486412847
      ],
      [
        "▁वही",
        -8.660864638762357
      ],
      [
        "▁पत्र",
        -8.662319919098639
      ],
      [
        "▁मां",
        -8.666261471208257
      ],
      [
        "▁गई।",
        -8.671458301745094
      ],
      [
        "▁हेतु",
        -8.672012098982698
      ],
      [
        "▁मौजूद",
        -8.673976192941492
      ],
      [
        "▁कहाँ",
        -8.676919543103981
      ],
      [
        "▁आते",
        -8.677360035523137
      ],
      [
        "▁चुके",
        -8.677778849319289
      ],
      [
        "....",
        -8.677832329641687
      ],
      [
        "▁वालों",
        -8.678551098068048
      ],
      [
        "▁है...",
        -8.678854905296227
      ],
      [
        "▁घंटे",
        -8.682068828420821
      ],
      [
        "▁टेस्ट",
        -8.68282480964233
      ],
      [
        "▁तहत",
        -8.683490272010584
      ],
      [
        "▁जाए",
        -8.685721046981747
      ],
      [
        "▁मत",
        -8.686268887282786
      ],
      [
        "▁माध्यम",
        -8.689364733355301
      ],
      [
        "▁जानें",
        -8.691431028137188
      ],
      [
        "▁उपलब्ध",
        -8.691486635939649
      ],
      [
        "▁गये",
        -8.692224654170976
      ],
      [
        "▁लगातार",
        -8.69601154867634
      ],
      [
        "▁स्",
        -8.698323438131336
      ],
      [
        "▁लगभग",
        -8.698686396671476
      ],
      [
        "▁विभिन्न",
        -8.699146326507055
      ],
      [
        "▁निर्माण",
        -8.704313251901997
      ],
      [
        "का",
        -8.709488252893614
      ],
      [
        "▁घटना",
        -8.71095928068229
      ],
      [
        "▁देखते",
        -8.711617999098484
      ],
      [
        "▁युवा",
        -8.711996210263656
      ],
      [
        "▁संबंधित",
        -8.7132803176336
      ],
      [
        "▁फेसबुक",
        -8.71558941102014
      ],
      [
        "िक",
        -8.715755000794733
      ],
      [
        "▁मुंबई",
        -8.716448507237299
      ],
      [
        "▁जरूरत",
        -8.71652303967603
      ],
      [
        "▁ए",
        -8.716606725625429
      ],
      [
        "▁वहीं",
        -8.717902682662526
      ],
      [
        "▁मामला",
        -8.721520873144147
      ],
      [
        "सी",
        -8.72330079254744
      ],
      [
        "▁तेल",
        -8.724264337738425
      ],
      [
        "▁मिलने",
        -8.72785973042173
      ],
      [
        "(",
        -8.728538463824883
      ],
      [
        "▁अलावा",
        -8.730461586436876
      ],
      [
        "▁डॉ.",
        -8.732946426748228
      ],
      [
        "▁कमी",
        -8.733372374504587
      ],
      [
        "▁गुदा",
        -8.73512145221013
      ],
      [
        "▁जिसके",
        -8.736217073110833
      ],
      [
        "▁करेंगे",
        -8.736251488251058
      ],
      [
        "▁बढ़",
        -8.737020094330521
      ],
      [
        "▁दूसरी",
        -8.739587668342038
      ],
      [
        "1",
        -8.74135607657636
      ],
      [
        "▁योगी",
        -8.741961073583635
      ],
      [
        "▁प्रदर्शन",
        -8.74439534335746
      ],
      [
        "▁उच्च",
        -8.744406052379803
      ],
      [
        "▁तू",
        -8.744446130524912
      ],
      [
        "▁सोच",
        -8.746973391441113
      ],
      [
        "▁विरोध",
        -8.749281648555836
      ],
      [
        "▁बॉलीवुड",
        -8.750138534792958
      ],
      [
        "▁बल्कि",
        -8.750603523758127
      ],
      [
        "e",
        -8.751277327287028
      ],
      [
        "▁रन",
        -8.754754982710775
      ],
      [
        "▁कुल",
        -8.756265410698603
      ],
      [
        "▁लंड",
        -8.757829805689752
      ],
      [
        "▁विषय",
        -8.758841159449531
      ],
      [
        "▁नंबर",
        -8.759245700133437
      ],
      [
        "▁अंतिम",
        -8.75936968596525
      ],
      [
        "▁आसान",
        -8.75958272196371
      ],
      [
        "▁हमारा",
        -8.760483709066099
      ],
      [
        "▁होकर",
        -8.76053039392833
      ],
      [
        "▁अंदर",
        -8.762881675775745
      ],
      [
        "▁संबंध",
        -8.76292604902564
      ],
      [
        "के",
        -8.766884333286361
      ],
      [
        "▁14",
        -8.769421760797538
      ],
      [
        "▁सुप्रीम",
        -8.77038823483434
      ],
      [
        "▁प्रदान",
        -8.771137723197278
      ],
      [
        "▁गुरु",
        -8.7720123939847
      ],
      [
        "ः",
        -8.773045741373416
      ],
      [
        "▁कार",
        -8.773434453254708
      ],
      [
        "▁हमने",
        -8.773466865256983
      ],
      [
        "▁सारे",
        -8.777846438175844
      ],
      [
        "▁उससे",
        -8.778029787442936
      ],
      [
        "▁इतनी",
        -8.780039950664378
      ],
      [
        "▁बैठक",
        -8.780077871734752
      ],
      [
        "▁24",
        -8.780665843803876
      ],
      [
        "▁होंगे",
        -8.780916055018599
      ],
      [
        "▁वक्त",
        -8.78191679147497
      ],
      [
        "▁गांव",
        -8.782359550214418
      ],
      [
        "▁पैसे",
        -8.782448161809064
      ],
      [
        "▁समूह",
        -8.78328800246561
      ],
      [
        "▁पढ़े",
        -8.783894249251112
      ],
      [
        "▁सीमा",
        -8.787172477141134
      ],
      [
        "▁लगाया",
        -8.787840028405451
      ],
      [
        "▁[",
        -8.787901461802289
      ],
      [
        "▁स्तर",
        -8.791076699149624
      ],
      [
        "▁चूत",
        -8.792286313494872
      ],
      [
        "▁डाउनलोड",
        -8.796065209492959
      ],
      [
        "▁सूचना",
        -8.797470487564214
      ],
      [
        "▁वापस",
        -8.798575740035826
      ],
      [
        "िया",
        -8.799344103140442
      ],
      [
        "▁नरेंद्र",
        -8.803128917060942
      ],
      [
        "▁चुकी",
        -8.803487189511866
      ],
      [
        "ीय",
        -8.805567280933612
      ],
      [
        "▁बनने",
        -8.80579220422254
      ],
      [
        "▁पाने",
        -8.807089130221126
      ],
      [
        "ू",
        -8.807099045412365
      ],
      [
        "▁तौर",
        -8.807307418355387
      ],
      [
        "▁सूची",
        -8.807745816177988
      ],
      [
        "▁of",
        -8.808609663514453
      ],
      [
        "▁जिंदगी",
        -8.810292229379503
      ],
      [
        "▁अधिकारी",
        -8.811054525568533
      ],
      [
        "▁शौकिया",
        -8.813107049431425
      ],
      [
        "▁राष्ट्र",
        -8.813281452935726
      ],
      [
        "▁कश्मीर",
        -8.815438900400796
      ],
      [
        "▁तरीके",
        -8.816644554792045
      ],
      [
        "▁प्रयास",
        -8.8173410702709
      ],
      [
        "▁शाम",
        -8.820121362295765
      ],
      [
        "▁blowjob",
        -8.820808447163571
      ],
      [
        "▁2016",
        -8.821591186471904
      ],
      [
        "▁लेते",
        -8.821786419050154
      ],
      [
        "▁Home",
        -8.825816942906098
      ],
      [
        "▁16",
        -8.826441092458012
      ],
      [
        "▁कप",
        -8.826841608495663
      ],
      [
        "▁पेट",
        -8.827079792371357
      ],
      [
        "▁अनुभव",
        -8.827670529257862
      ],
      [
        "▁राजनीति",
        -8.827852148035468
      ],
      [
        "▁जबकि",
        -8.828088601214162
      ],
      [
        "▁जुड़े",
        -8.830299118561257
      ],
      [
        "▁कितना",
        -8.831915785176172
      ],
      [
        "▁कॉलेज",
        -8.832139034909954
      ],
      [
        "▁चुका",
        -8.832670706745374
      ],
      [
        "▁जैसा",
        -8.833563533073477
      ],
      [
        "▁श्यामला",
        -8.835959868169995
      ],
      [
        "▁बयान",
        -8.836384491847927
      ],
      [
        "▁कार्ड",
        -8.83966087261892
      ],
      [
        "▁बेटे",
        -8.841588522984537
      ],
      [
        "▁जनवरी",
        -8.841794041469875
      ],
      [
        "▁न्यूज़",
        -8.841950149986467
      ],
      [
        "▁प्रतिशत",
        -8.847597111013243
      ],
      [
        "▁बोर्ड",
        -8.85018104082122
      ],
      [
        "▁जरूर",
        -8.856670723081898
      ],
      [
        "▁उम्मीद",
        -8.857279982143275
      ],
      [
        "ये",
        -8.858277903006158
      ],
      [
        "▁थे,",
        -8.85881146143753
      ],
      [
        "▁देती",
        -8.860637595323427
      ],
      [
        "▁फैसला",
        -8.861102299236777
      ],
      [
        "▁नगर",
        -8.862832834069621
      ],
      [
        "▁अधिकार",
        -8.863219576457823
      ],
      [
        "▁लगाने",
        -8.86562889755236
      ],
      [
        "▁हार",
        -8.866721384585553
      ],
      [
        "ला",
        -8.866838973812204
      ],
      [
        "▁धन",
        -8.867904645914901
      ],
      [
        "▁13",
        -8.867924830623267
      ],
      [
        "▁आयोग",
        -8.870436622698428
      ],
      [
        "▁चलते",
        -8.871166643296068
      ],
      [
        "▁....",
        -8.872853606669741
      ],
      [
        "▁जल्द",
        -8.873623263475878
      ],
      [
        "▁ईमेल",
        -8.875988013359226
      ],
      [
        "▁साहित्य",
        -8.877048884171247
      ],
      [
        "▁मुस्लिम",
        -8.877809088840987
      ],
      [
        "▁प्रक्रिया",
        -8.88012165218012
      ],
      [
        "▁यूपी",
        -8.880746702276841
      ],
      [
        "▁जिले",
        -8.8810877752003
      ],
      [
        "▁कदम",
        -8.88163884751281
      ],
      [
        "▁वैसे",
        -8.884525917702561
      ],
      [
        "▁जाएगा",
        -8.884538889451152
      ],
      [
        "ओ",
        -8.88462902302986
      ],
      [
        "▁दोस्तों",
        -8.885237292370146
      ],
      [
        "▁देशों",
        -8.885252211435912
      ],
      [
        "▁टीवी",
        -8.885312383981129
      ],
      [
        "▁50",
        -8.886308755711728
      ],
      [
        "▁रहती",
        -8.886726875155963
      ],
      [
        "▁बेहद",
        -8.88868060247658
      ],
      [
        "▁मार्च",
        -8.888940589473338
      ],
      [
        "▁संघ",
        -8.891993559029487
      ],
      [
        "▁मै",
        -8.892870648377912
      ],
      [
        "▁भारी",
        -8.893497539822727
      ],
      [
        "▁प्रकाश",
        -8.894126759697519
      ],
      [
        "▁विज्ञान",
        -8.895580432361388
      ],
      [
        "▁शीर्ष",
        -8.898618556483527
      ],
      [
        "▁पहचान",
        -8.899623848218766
      ],
      [
        "▁21",
        -8.900515812177888
      ],
      [
        "▁100",
        -8.901160271500235
      ],
      [
        "▁तुम्हारे",
        -8.902378747902356
      ],
      [
        "▁गया.",
        -8.902470986087188
      ],
      [
        "▁गुजरात",
        -8.902705287225414
      ],
      [
        "▁शुरुआत",
        -8.90299416129416
      ],
      [
        "यों",
        -8.903590751107938
      ],
      [
        "▁आग",
        -8.904351744644353
      ],
      [
        "▁योग",
        -8.904569094762813
      ],
      [
        "▁खूबसूरत",
        -8.906797410026654
      ],
      [
        "▁पा",
        -8.906814101047948
      ],
      [
        "▁सिर",
        -8.908631329064509
      ],
      [
        "▁नज़र",
        -8.908914279603325
      ],
      [
        "▁संयुक्त",
        -8.908937713107075
      ],
      [
        "▁खुश",
        -8.909609245738
      ],
      [
        "▁अगले",
        -8.910536521854754
      ],
      [
        "▁पेज",
        -8.914393488441153
      ],
      [
        "▁मुश्किल",
        -8.915136828948722
      ],
      [
        "▁लागू",
        -8.915862672795843
      ],
      [
        "▁शक्ति",
        -8.917886919581026
      ],
      [
        "▁जरूरी",
        -8.91992605243376
      ],
      [
        "▁गिरफ्तार",
        -8.920339413746431
      ],
      [
        "▁खत्म",
        -8.92075424130098
      ],
      [
        "▁सारी",
        -8.92077102068915
      ],
      [
        "▁मौसम",
        -8.921506503471427
      ],
      [
        "▁सलमान",
        -8.921593141535997
      ],
      [
        "▁समर्थन",
        -8.922529740813118
      ],
      [
        "ग",
        -8.92262822349919
      ],
      [
        "▁पंजाब",
        -8.926154288356972
      ],
      [
        "▁शो",
        -8.929358894156117
      ],
      [
        "▁फोटो",
        -8.930399292165783
      ],
      [
        "▁किये",
        -8.932322599973215
      ],
      [
        "▁मिले",
        -8.934351874083166
      ],
      [
        "▁तुम्हें",
        -8.934445184985481
      ],
      [
        "▁रोग",
        -8.935508111564245
      ],
      [
        "▁गलत",
        -8.936034078876599
      ],
      [
        "▁दक्षिण",
        -8.936354047121563
      ],
      [
        "▁बालों",
        -8.936357156686983
      ],
      [
        "▁दूध",
        -8.939106616097927
      ],
      [
        "▁मार",
        -8.939516707597484
      ],
      [
        "▁रचना",
        -8.939593504962556
      ],
      [
        "▁जेल",
        -8.939981368219726
      ],
      [
        "▁जाएगा।",
        -8.941050524894322
      ],
      [
        "▁घरेलू",
        -8.941875542355287
      ],
      [
        "▁बाजार",
        -8.942491042949882
      ],
      [
        ".com",
        -8.94330737968996
      ],
      [
        "▁तेज",
        -8.94483728153023
      ],
      [
        "▁जल्दी",
        -8.946726214329942
      ],
      [
        "▁राय",
        -8.94814502350284
      ],
      [
        "▁विश्वास",
        -8.948685817700309
      ],
      [
        "रा",
        -8.948827316263575
      ],
      [
        "▁मिलता",
        -8.949119882038143
      ],
      [
        "▁देखकर",
        -8.951404450194229
      ],
      [
        "▁कानून",
        -8.952065608354202
      ],
      [
        "▁सीएम",
        -8.952765079813755
      ],
      [
        "▁माना",
        -8.95376881523859
      ],
      [
        "▁कितने",
        -8.955345699729296
      ],
      [
        "▁निकल",
        -8.955534372820686
      ],
      [
        "▁पल",
        -8.955598159598395
      ],
      [
        "▁भीतर",
        -8.957176244988236
      ],
      [
        "▁17",
        -8.957382667115624
      ],
      [
        "▁अगस्त",
        -8.957964070167058
      ],
      [
        "▁बनी",
        -8.95851201512265
      ],
      [
        "▁पुरस्कार",
        -8.958583971963243
      ],
      [
        "▁आर्थिक",
        -8.959284451533552
      ],
      [
        "▁आनंद",
        -8.959984783271413
      ],
      [
        "▁अश्लील",
        -8.96008600936193
      ],
      [
        "▁रेलवे",
        -8.96215583047712
      ],
      [
        "▁प्रकाशित",
        -8.962590580922779
      ],
      [
        "▁सड़क",
        -8.963842803395966
      ],
      [
        "▁छोटी",
        -8.963888829987074
      ],
      [
        "▁क्",
        -8.964109312919359
      ],
      [
        "▁संदेश",
        -8.966031822782035
      ],
      [
        "▁पुराने",
        -8.966366350306078
      ],
      [
        "▁नहीं,",
        -8.966601490000128
      ],
      [
        "▁पेश",
        -8.967481780322352
      ],
      [
        "▁सेवन",
        -8.967488918318029
      ],
      [
        "▁सम्मान",
        -8.967825429635704
      ],
      [
        "▁व्यवस्था",
        -8.970130925242
      ],
      [
        "▁हिस्सा",
        -8.971837638004958
      ],
      [
        "▁लेना",
        -8.973683394989695
      ],
      [
        "▁द",
        -8.974266690229015
      ],
      [
        "▁हूँ।",
        -8.974888277685693
      ],
      [
        "▁चले",
        -8.974894011067217
      ],
      [
        "▁:-",
        -8.97498028903895
      ],
      [
        "▁22",
        -8.977328654419086
      ],
      [
        "▁पड़",
        -8.977358629476887
      ],
      [
        "▁लंबे",
        -8.977403083850806
      ],
      [
        "▁19",
        -8.977478263612962
      ],
      [
        "▁ग्राम",
        -8.978829915162954
      ],
      [
        "▁दोस्त",
        -8.980594430579043
      ],
      [
        "फ",
        -8.981411481016242
      ],
      [
        "▁हिन्दू",
        -8.982118668895257
      ],
      [
        "▁!!",
        -8.982560848396334
      ],
      [
        "▁जाकर",
        -8.984540668540504
      ],
      [
        "d",
        -8.985005355781107
      ],
      [
        "▁बैठे",
        -8.985864041440657
      ],
      [
        "▁सो",
        -8.98604806435303
      ],
      [
        "▁केंद्रीय",
        -8.987374621230288
      ],
      [
        "▁पैदा",
        -8.987876302133785
      ],
      [
        "▁तभी",
        -8.990123460413763
      ],
      [
        "▁A",
        -8.992036719407414
      ],
      [
        "▁प्रथम",
        -8.99444126494219
      ],
      [
        "▁पदों",
        -8.998271170465543
      ],
      [
        "2",
        -9.000564235120734
      ],
      [
        "▁डर",
        -9.001051009696258
      ],
      [
        "▁जिला",
        -9.001804888216395
      ],
      [
        "▁खिलाड़ी",
        -9.004182116265856
      ],
      [
        "▁वहाँ",
        -9.007205572330811
      ],
      [
        "▁जैसी",
        -9.010299436441985
      ],
      [
        "▁तैयारी",
        -9.011944747590388
      ],
      [
        "▁राजा",
        -9.013874659815734
      ],
      [
        "वा",
        -9.014341860582906
      ],
      [
        "▁थोड़ा",
        -9.015599411622496
      ],
      [
        "▁भूल",
        -9.016028108584887
      ],
      [
        "▁महसूस",
        -9.019427116858822
      ],
      [
        "▁लॉन्च",
        -9.020598554714162
      ],
      [
        "▁अखिलेश",
        -9.022878989862829
      ],
      [
        "▁सुंदर",
        -9.02454391611236
      ],
      [
        "▁आयोजन",
        -9.02469448957973
      ],
      [
        "▁मतलब",
        -9.025309275017225
      ],
      [
        "▁परिणाम",
        -9.026108885410949
      ],
      [
        "▁स्वागत",
        -9.026490838432704
      ],
      [
        "▁हे",
        -9.026732881124008
      ],
      [
        "▁इतने",
        -9.026873280580908
      ],
      [
        "▁अंक",
        -9.030654805594505
      ],
      [
        "▁गए।",
        -9.03179569205783
      ],
      [
        "▁ट्रेन",
        -9.033009052931988
      ],
      [
        "▁सर",
        -9.034135917566957
      ],
      [
        "▁जमा",
        -9.03416804010494
      ],
      [
        "▁प्रभाव",
        -9.034323925978
      ],
      [
        "▁सफलता",
        -9.034542338081703
      ],
      [
        "▁विदेश",
        -9.037264164028734
      ],
      [
        "▁तय",
        -9.04132125887132
      ],
      [
        "▁पी",
        -9.041634456086097
      ],
      [
        "▁अक्टूबर",
        -9.041640160186915
      ],
      [
        "▁आखिर",
        -9.04223854165107
      ],
      [
        "▁खाना",
        -9.044945245137932
      ],
      [
        "▁साफ",
        -9.045625317437237
      ],
      [
        "▁अस्पताल",
        -9.046193661686264
      ],
      [
        "मा",
        -9.048201693365012
      ],
      [
        "एं",
        -9.049686292916425
      ],
      [
        "▁आँखों",
        -9.050397916582433
      ],
      [
        "ed",
        -9.05279824047685
      ],
      [
        "▁घायल",
        -9.053351032725946
      ],
      [
        "वें",
        -9.054402755609214
      ],
      [
        "▁बदलाव",
        -9.05440472770719
      ],
      [
        "▁हो।",
        -9.054544281102991
      ],
      [
        "▁चाहती",
        -9.055616352104963
      ],
      [
        "▁उत्पाद",
        -9.057479178322545
      ],
      [
        "i",
        -9.059040688688615
      ],
      [
        "▁घोषणा",
        -9.059696441696135
      ],
      [
        "▁हार्दिक",
        -9.061029476703203
      ],
      [
        "▁हो,",
        -9.061978693578029
      ],
      [
        "▁जहाँ",
        -9.062525647849297
      ],
      [
        "▁जुलाई",
        -9.063473752129816
      ],
      [
        "▁संगठन",
        -9.06443358241409
      ],
      [
        "▁बधाई",
        -9.064792234598947
      ],
      [
        "▁नदी",
        -9.06771259528023
      ],
      [
        "▁सहित",
        -9.068972881915204
      ],
      [
        "▁पाया",
        -9.069000725681775
      ],
      [
        "▁अभियान",
        -9.070050048604074
      ],
      [
        "▁साहब",
        -9.071971826198823
      ],
      [
        "की",
        -9.07200784771498
      ],
      [
        "▁प्रवेश",
        -9.072421113228675
      ],
      [
        "▁कितनी",
        -9.07252789782925
      ],
      [
        "▁अवसर",
        -9.073644512280385
      ],
      [
        "▁ताकि",
        -9.0747855768096
      ],
      [
        "▁ब",
        -9.075252370543247
      ],
      [
        "▁बनाए",
        -9.075578455280873
      ],
      [
        "▁हस्तमैथुन",
        -9.076307012487103
      ],
      [
        "▁युद्ध",
        -9.07689577960521
      ],
      [
        "▁पड़ता",
        -9.077106895414396
      ],
      [
        "▁सदस्य",
        -9.077318176430145
      ],
      [
        "▁जून",
        -9.077704719350525
      ],
      [
        "▁सजा",
        -9.078413680409097
      ],
      [
        "▁बारिश",
        -9.07867621761531
      ],
      [
        "▁स्वयं",
        -9.078966745142196
      ],
      [
        "▁हासिल",
        -9.080169398483356
      ],
      [
        "▁रोक",
        -9.080279506910518
      ],
      [
        "▁1.",
        -9.080442279312399
      ],
      [
        "o",
        -9.081133204971394
      ],
      [
        "▁दिखाई",
        -9.08276372711412
      ],
      [
        "▁अरब",
        -9.08744262069273
      ],
      [
        "▁गर्म",
        -9.087764287699816
      ],
      [
        "▁परेशान",
        -9.087995641904026
      ],
      [
        "▁आयोजित",
        -9.088741691173734
      ],
      [
        "▁चली",
        -9.088946843281839
      ],
      [
        "ली",
        -9.093516674247724
      ],
      [
        "▁है_",
        -9.09409647111444
      ],
      [
        "▁हरियाणा",
        -9.095226800546612
      ],
      [
        "▁विदेशी",
        -9.09589218486827
      ],
      [
        "▁अप्रैल",
        -9.096282349267572
      ],
      [
        "▁उनसे",
        -9.09633282011481
      ],
      [
        "▁दूसरा",
        -9.100033382577273
      ],
      [
        "▁बहन",
        -9.10043483515015
      ],
      [
        "ing",
        -9.101806655873698
      ],
      [
        "▁बाबा",
        -9.10191382075034
      ],
      [
        "▁पूर्ण",
        -9.103057886922777
      ],
      [
        "▁विज्ञापन",
        -9.103410680649377
      ],
      [
        "▁इलाज",
        -9.105744046278911
      ],
      [
        "▁है!",
        -9.10846754046902
      ],
      [
        "▁राशिफल",
        -9.108632883585145
      ],
      [
        "▁रस",
        -9.111377643022127
      ],
      [
        "▁उठा",
        -9.112934344349489
      ],
      [
        "▁मानव",
        -9.113897262086294
      ],
      [
        "▁सोने",
        -9.114359849995436
      ],
      [
        "▁मई",
        -9.114829092958377
      ],
      [
        "▁नोट",
        -9.115325578736108
      ],
      [
        "▁ट्विटर",
        -9.116246772849284
      ],
      [
        "▁S",
        -9.116321243329516
      ],
      [
        "▁शिकायत",
        -9.11650578750147
      ],
      [
        "▁मंत्रालय",
        -9.11671208577345
      ],
      [
        "▁विकल्प",
        -9.11774432604652
      ],
      [
        "▁आकार",
        -9.117842884846606
      ],
      [
        "▁चयन",
        -9.117927814130503
      ],
      [
        "▁भविष्य",
        -9.11917760020556
      ],
      [
        "▁हालांकि",
        -9.12071680419065
      ],
      [
        "▁जन",
        -9.120764176959227
      ],
      [
        "▁गंभीर",
        -9.12101922710606
      ],
      [
        "▁त्वचा",
        -9.121271516093639
      ],
      [
        "▁एंड",
        -9.125822307546208
      ],
      [
        "▁विधि",
        -9.126860182988166
      ],
      [
        "▁पहुंच",
        -9.127019558887334
      ],
      [
        "▁थोड़ी",
        -9.128498965921843
      ],
      [
        "▁रक्षा",
        -9.129150375884706
      ],
      [
        "▁अर्थ",
        -9.129228159272735
      ],
      [
        "t",
        -9.131577716315459
      ],
      [
        "▁•",
        -9.131741671651852
      ],
      [
        "▁वरिष्ठ",
        -9.13261682054783
      ],
      [
        "▁कोहली",
        -9.133139498401398
      ],
      [
        "▁जय",
        -9.133577117977248
      ],
      [
        "▁भाव",
        -9.135453601480586
      ],
      [
        "▁PM",
        -9.137591162133358
      ],
      [
        "च",
        -9.137802728318809
      ],
      [
        "▁फीसदी",
        -9.138456729501607
      ],
      [
        "▁दस",
        -9.140342103873511
      ],
      [
        "▁मुखमैथुन",
        -9.142361343573606
      ],
      [
        "से",
        -9.142735873400845
      ],
      [
        "▁मान",
        -9.143644488010423
      ],
      [
        "▁विधायक",
        -9.144438508636831
      ],
      [
        "▁कहने",
        -9.146601707827354
      ],
      [
        "▁अंत",
        -9.147775462158872
      ],
      [
        "▁>",
        -9.148482687581375
      ],
      [
        "▁बिल्ली",
        -9.15100213648238
      ],
      [
        "—",
        -9.151558595733608
      ],
      [
        "▁पुरुष",
        -9.15206140438292
      ],
      [
        "▁असर",
        -9.152747970517371
      ],
      [
        "▁किसानों",
        -9.153741550885577
      ],
      [
        "▁कपूर",
        -9.154277019191188
      ],
      [
        "▁होगी।",
        -9.154502189865909
      ],
      [
        "▁चाहे",
        -9.154971441256928
      ],
      [
        "▁गीत",
        -9.155210186253402
      ],
      [
        "▁खड़े",
        -9.155501078094014
      ],
      [
        "▁सामाजिक",
        -9.157054025092899
      ],
      [
        "▁डाल",
        -9.157497652832618
      ],
      [
        "▁2.",
        -9.15763765478842
      ],
      [
        "▁बिग",
        -9.157874065889146
      ],
      [
        "y",
        -9.158526009553814
      ],
      [
        "▁छात्र",
        -9.158867286471036
      ],
      [
        "▁तेरे",
        -9.160043507903557
      ],
      [
        "▁बोल",
        -9.160300760315614
      ],
      [
        "▁डॉक्टर",
        -9.162450227672801
      ],
      [
        "▁इंसान",
        -9.162614487864586
      ],
      [
        "▁खोज",
        -9.16268261255045
      ],
      [
        "▁सोमवार",
        -9.164303972728359
      ],
      [
        "▁विराट",
        -9.164656195858791
      ],
      [
        "r",
        -9.166212093271124
      ],
      [
        "▁मूल",
        -9.166714806554362
      ],
      [
        "▁लेखक",
        -9.16715359219095
      ],
      [
        "▁मात्रा",
        -9.167984335149097
      ],
      [
        "▁विजय",
        -9.168309690258088
      ],
      [
        "को",
        -9.168337874548197
      ],
      [
        "▁दल",
        -9.168647865050993
      ],
      [
        "▁तस्वीर",
        -9.169653429431126
      ],
      [
        "▁टिप्पणी",
        -9.169910823196748
      ],
      [
        "▁सुख",
        -9.1701706597902
      ],
      [
        "▁विकेट",
        -9.170732933189393
      ],
      [
        "▁सात",
        -9.171265297309258
      ],
      [
        "▁शाह",
        -9.172262031016981
      ],
      [
        "▁उपचार",
        -9.172584284951487
      ],
      [
        "▁नेताओं",
        -9.17287737609148
      ],
      [
        "▁नवंबर",
        -9.173860067074262
      ],
      [
        "▁हिमाचल",
        -9.17450469275662
      ],
      [
        "▁‘‘",
        -9.175991210286625
      ],
      [
        "▁दर",
        -9.1783389635007
      ],
      [
        "▁समीक्षा",
        -9.17967588024722
      ],
      [
        "▁आये",
        -9.179824945515485
      ],
      [
        "▁सफल",
        -9.18005051948073
      ],
      [
        "▁दिसंबर",
        -9.180087440122687
      ],
      [
        "▁मंच",
        -9.181669575211147
      ],
      [
        "▁अभिनेता",
        -9.18235891261316
      ],
      [
        "▁पार",
        -9.182457380776066
      ],
      [
        "ज़",
        -9.18379082303532
      ],
      [
        "▁मनुष्य",
        -9.185725935247238
      ],
      [
        "▁गोपनीयता",
        -9.186144874699302
      ],
      [
        "▁मशीन",
        -9.186231295521065
      ],
      [
        "▁एशियाई",
        -9.187153806091942
      ],
      [
        "▁2019",
        -9.188329450169373
      ],
      [
        "▁समिति",
        -9.188643184241174
      ],
      [
        "▁''",
        -9.188746803808133
      ],
      [
        "▁वर्ग",
        -9.188788745357314
      ],
      [
        "▁लोकसभा",
        -9.189434362433405
      ],
      [
        "▁कला",
        -9.189665745894377
      ],
      [
        "▁सहायता",
        -9.190423181288068
      ],
      [
        "▁आवश्यकता",
        -9.190472359566602
      ],
      [
        "▁आवश्यक",
        -9.190591532262264
      ],
      [
        "▁ज़्यादा",
        -9.190917421023315
      ],
      [
        "▁तुम्हारी",
        -9.193824915112234
      ],
      [
        "5",
        -9.194478945913005
      ],
      [
        "▁सप्ताह",
        -9.195428914724236
      ],
      [
        "▁लो",
        -9.195562355824377
      ],
      [
        "पुर",
        -9.196708040954956
      ],
      [
        "▁सत्य",
        -9.197334096081057
      ],
      [
        "▁कैसा",
        -9.197575811142642
      ],
      [
        "▁28",
        -9.205656981783967
      ],
      [
        "▁कमरे",
        -9.206232181596722
      ],
      [
        "▁सुन्दर",
        -9.206459142345821
      ],
      [
        "▁करो",
        -9.20701002434383
      ],
      [
        "▁सुन",
        -9.207858343385562
      ],
      [
        "▁ऊर्जा",
        -9.208289285385124
      ],
      [
        "▁सुरक्षित",
        -9.20833832282862
      ],
      [
        "▁मुताबिक",
        -9.209047202129685
      ],
      [
        "▁नुकसान",
        -9.209550184610507
      ],
      [
        "▁लड़कियों",
        -9.210226439331118
      ],
      [
        "▁बोले",
        -9.211076031087806
      ],
      [
        "▁पड़ा",
        -9.21153710426583
      ],
      [
        "▁देकर",
        -9.21169756819712
      ],
      [
        "▁विवाद",
        -9.213174560861312
      ],
      [
        "▁माता",
        -9.213193579433101
      ],
      [
        "▁भोजन",
        -9.213411469232772
      ],
      [
        "▁मुंह",
        -9.21367247587934
      ],
      [
        "▁काले",
        -9.214220211057011
      ],
      [
        "▁राज्यों",
        -9.214786554889447
      ],
      [
        "▁तरीका",
        -9.214861054995932
      ],
      [
        "▁कृपया",
        -9.21503021157589
      ],
      [
        "▁article",
        -9.215368385272395
      ],
      [
        "▁एस",
        -9.21614839428555
      ],
      [
        "▁पुरानी",
        -9.216855677671338
      ],
      [
        "▁प्रसाद",
        -9.217139937817427
      ],
      [
        "▁व्यापार",
        -9.219177178715626
      ],
      [
        "टी",
        -9.219467562059858
      ],
      [
        "▁दिशा",
        -9.219814748758543
      ],
      [
        "ण",
        -9.220206463156856
      ],
      [
        "▁(3)",
        -9.221677939958743
      ],
      [
        "▁अपडेट",
        -9.222308566021033
      ],
      [
        "a",
        -9.223500168996573
      ],
      [
        "▁खड़ा",
        -9.223530903677924
      ],
      [
        "▁खर्च",
        -9.223723356543166
      ],
      [
        "▁अक्सर",
        -9.224433910492051
      ],
      [
        "▁रेल",
        -9.225388541691743
      ],
      [
        "▁राजनीतिक",
        -9.22746964118636
      ],
      [
        "▁मुक्त",
        -9.227644053631089
      ],
      [
        "▁सहयोग",
        -9.22768346974628
      ],
      [
        "▁एक्सट",
        -9.228778635385895
      ],
      [
        "▁हूँ,",
        -9.229649831700705
      ],
      [
        "▁रखना",
        -9.230031078635815
      ],
      [
        "▁वर्तमान",
        -9.231538312148977
      ],
      [
        "▁26",
        -9.23351213151049
      ],
      [
        "▁सूर्य",
        -9.235475688857033
      ],
      [
        "र्नल",
        -9.236249501031583
      ],
      [
        "▁युवक",
        -9.237962186664603
      ],
      [
        "▁to",
        -9.2383402830698
      ],
      [
        "▁पूछा",
        -9.238393231933347
      ],
      [
        "▁पहुंचे",
        -9.238848714727498
      ],
      [
        "▁Next",
        -9.239551354399765
      ],
      [
        "थ",
        -9.240640205077604
      ],
      [
        "▁शेयरिंग",
        -9.240908410807254
      ],
      [
        "▁इंडियन",
        -9.242070501864005
      ],
      [
        "▁तस्वीरें",
        -9.242106874253972
      ],
      [
        "4",
        -9.242260829182904
      ],
      [
        "▁पत्रकार",
        -9.243318258280102
      ],
      [
        "▁बल",
        -9.244765354988317
      ],
      [
        "▁अधिकारियों",
        -9.245064621020965
      ],
      [
        "ले",
        -9.245115513179432
      ],
      [
        "▁जवान",
        -9.245311933571926
      ],
      [
        "▁मुझसे",
        -9.245575512474083
      ],
      [
        "▁वोट",
        -9.245841430899596
      ],
      [
        "▁ट्रंप",
        -9.247304346875557
      ],
      [
        "▁हमले",
        -9.247784656441322
      ],
      [
        "▁बढ़ाने",
        -9.24800626755081
      ],
      [
        "▁खूब",
        -9.249075843289255
      ],
      [
        "▁संसद",
        -9.249635588372563
      ],
      [
        "▁केजरीवाल",
        -9.25050166818573
      ],
      [
        "▁छत्तीसगढ़",
        -9.250801564182137
      ],
      [
        "▁फल",
        -9.250945671117357
      ],
      [
        "▁शिव",
        -9.252494758146817
      ],
      [
        "▁गैस",
        -9.252818221249349
      ],
      [
        "▁अध्ययन",
        -9.25455519288938
      ],
      [
        "▁कार्रवाई",
        -9.254918854271596
      ],
      [
        "▁परिवर्तन",
        -9.255681654595568
      ],
      [
        "ु",
        -9.258797982291338
      ],
      [
        "▁गूगल",
        -9.258799084371384
      ],
      [
        "▁©",
        -9.259657275911671
      ],
      [
        "▁सु",
        -9.261379009603992
      ],
      [
        "▁Previous",
        -9.262632610113432
      ],
      [
        "▁जी,",
        -9.26338678641756
      ],
      [
        "▁प्राकृतिक",
        -9.264388977184266
      ],
      [
        "▁फायदे",
        -9.265452854766249
      ],
      [
        "ड़",
        -9.265579536851643
      ],
      [
        "▁संविधान",
        -9.267541310771303
      ],
      [
        "▁शुभ",
        -9.268660058560807
      ],
      [
        "▁करें.",
        -9.269300320731361
      ],
      [
        "▁सुधार",
        -9.269616943599193
      ],
      [
        "▁सहायक",
        -9.270056144532187
      ],
      [
        "▁हाथों",
        -9.270159677624072
      ],
      [
        "▁है..",
        -9.270371884952011
      ],
      [
        "▁शब्दों",
        -9.27217872941846
      ],
      [
        "▁बातों",
        -9.272184968578717
      ],
      [
        "▁हमला",
        -9.27251415104232
      ],
      [
        "▁रिकॉर्ड",
        -9.275990399278578
      ],
      [
        "▁शुक्रवार",
        -9.27611575942095
      ],
      [
        "▁चम्मच",
        -9.276382887629804
      ],
      [
        "▁भेज",
        -9.276569082159677
      ],
      [
        "▁ह",
        -9.276838071729188
      ],
      [
        "सा",
        -9.27785126618399
      ],
      [
        "▁23",
        -9.279641073362708
      ],
      [
        "▁बातचीत",
        -9.280352637086603
      ],
      [
        "▁भूमिका",
        -9.28064739536348
      ],
      [
        "ियां",
        -9.281072501620562
      ],
      [
        "▁अमेरिकी",
        -9.281287270132038
      ],
      [
        "▁किसान",
        -9.282974170106801
      ],
      [
        "▁बी",
        -9.283063189528912
      ],
      [
        "▁जिसका",
        -9.285525344350368
      ],
      [
        "▁बुधवार",
        -9.286356523254405
      ],
      [
        "▁निजी",
        -9.288623362054334
      ],
      [
        "▁बिजली",
        -9.288711775659761
      ],
      [
        "▁लें।",
        -9.288973017691532
      ],
      [
        "▁भाभी",
        -9.28954322396341
      ],
      [
        "▁मिलती",
        -9.293219585046149
      ],
      [
        "▁उनको",
        -9.295633757239063
      ],
      [
        "▁कहां",
        -9.295715003460181
      ],
      [
        "▁करनी",
        -9.29631948375448
      ],
      [
        "▁महान",
        -9.297467825740686
      ],
      [
        "▁रखते",
        -9.29761198930187
      ],
      [
        "▁रहना",
        -9.298091194772777
      ],
      [
        "▁सुना",
        -9.298757986797844
      ],
      [
        "▁उम्मीदवार",
        -9.298947863533279
      ],
      [
        "▁यौन",
        -9.299693623363215
      ],
      [
        "ख",
        -9.299832131802534
      ],
      [
        "▁नियम",
        -9.300812318422574
      ],
      [
        "▁स्थापना",
        -9.301669719982177
      ],
      [
        "▁मजबूत",
        -9.30279489296236
      ],
      [
        "▁हुआ।",
        -9.303105277010491
      ],
      [
        "▁जिन",
        -9.303432868794086
      ],
      [
        "▁होगा.",
        -9.303668377796868
      ],
      [
        "▁सांसद",
        -9.303770561391403
      ],
      [
        "▁लिख",
        -9.303879691860859
      ],
      [
        "▁तेरी",
        -9.304422694160472
      ],
      [
        "▁(4)",
        -9.305410765910047
      ],
      [
        "॥",
        -9.306929384588619
      ],
      [
        "▁सत्ता",
        -9.308622783525763
      ],
      [
        "▁दी।",
        -9.309141542484284
      ],
      [
        "▁माह",
        -9.309850595601645
      ],
      [
        "वी",
        -9.309948801559013
      ],
      [
        "▁वायरल",
        -9.311432927803708
      ],
      [
        "▁सभा",
        -9.311595038973762
      ],
      [
        "▁लोकप्रिय",
        -9.312498306220867
      ],
      [
        "▁निकाल",
        -9.31270022403723
      ],
      [
        "▁स्थापित",
        -9.313062311690029
      ],
      [
        "▁परिपक्व",
        -9.313767831015856
      ],
      [
        "▁न्यूज",
        -9.317621764646603
      ],
      [
        "▁सार्वजनिक",
        -9.317881044089702
      ],
      [
        "▁3.",
        -9.318371842036512
      ],
      [
        "▁सह",
        -9.318581506743275
      ],
      [
        "▁2015",
        -9.318655364719673
      ],
      [
        "▁हूं।",
        -9.31970767653204
      ],
      [
        "▁समेत",
        -9.321151757539152
      ],
      [
        "▁विश्वविद्यालय",
        -9.321268911363525
      ],
      [
        "▁कपड़े",
        -9.323165246273255
      ],
      [
        "▁कृषि",
        -9.323964854697685
      ],
      [
        "▁चिंता",
        -9.324235475465917
      ],
      [
        "▁अमित",
        -9.324503793060675
      ],
      [
        "▁शिक्षक",
        -9.324614939182943
      ],
      [
        "▁लखनऊ",
        -9.325805236088383
      ],
      [
        "▁पढ़ने",
        -9.325924237396938
      ],
      [
        "▁चाय",
        -9.327008242940082
      ],
      [
        "▁पढ़",
        -9.32709383583829
      ],
      [
        "▁पैसा",
        -9.327251101864736
      ],
      [
        "▁बजट",
        -9.327260641065342
      ],
      [
        "▁कर्नाटक",
        -9.328186247108725
      ],
      [
        "▁हाई",
        -9.3291678532654
      ],
      [
        "▁नहीं।",
        -9.329528858472926
      ],
      [
        "▁गाँव",
        -9.331028705433095
      ],
      [
        "▁मिलेगा",
        -9.33144942612058
      ],
      [
        "▁वजन",
        -9.331729390106121
      ],
      [
        "ंग",
        -9.331861525262948
      ],
      [
        "▁क्षमता",
        -9.332137765133272
      ],
      [
        "▁खराब",
        -9.332849002158575
      ],
      [
        "▁वित्त",
        -9.334901515600603
      ],
      [
        "▁समारोह",
        -9.335019830419899
      ],
      [
        "▁शराब",
        -9.335591434180483
      ],
      [
        ".....",
        -9.336205537739257
      ],
      [
        "▁सुविधा",
        -9.337113523239713
      ],
      [
        "▁आसानी",
        -9.337327409222631
      ],
      [
        "▁फरवरी",
        -9.338186229065865
      ],
      [
        "▁प",
        -9.338786254672208
      ],
      [
        "▁अदालत",
        -9.338867199113595
      ],
      [
        "▁इंटरनेट",
        -9.339596301549067
      ],
      [
        "▁B",
        -9.339941417765026
      ],
      [
        "▁डी",
        -9.340357474426712
      ],
      [
        "▁उसमें",
        -9.34075436645823
      ],
      [
        "▁आवाज",
        -9.341191111669623
      ],
      [
        "▁2018:",
        -9.341680424976051
      ],
      [
        "▁पक्ष",
        -9.342956885413313
      ],
      [
        "▁शर्तें",
        -9.343161283003745
      ],
      [
        "गी",
        -9.34418495467586
      ],
      [
        "▁उप",
        -9.344737639459453
      ],
      [
        "▁31",
        -9.345116439082087
      ],
      [
        "▁प्रभावित",
        -9.345567998552017
      ],
      [
        "▁Comments",
        -9.3458104015589
      ],
      [
        "▁ऐप",
        -9.346340695893677
      ],
      [
        "7",
        -9.346464243101753
      ],
      [
        "▁टी",
        -9.346779629225752
      ],
      [
        "▁वन",
        -9.346846940358652
      ],
      [
        "▁।।",
        -9.346884291245631
      ],
      [
        "▁आरोपी",
        -9.34695366659981
      ],
      [
        "8",
        -9.347279464377106
      ],
      [
        "▁कराने",
        -9.348665194273297
      ],
      [
        "▁लड़के",
        -9.348889803252762
      ],
      [
        "▁बढ़ा",
        -9.349252166225334
      ],
      [
        "▁अमर",
        -9.349569063771376
      ],
      [
        "▁आराम",
        -9.349887324833848
      ],
      [
        "▁उसको",
        -9.350068157511398
      ],
      [
        "▁शुल्क",
        -9.35026674537409
      ],
      [
        "▁प्रस्तुत",
        -9.350977813045407
      ],
      [
        "▁लोक",
        -9.351067773420336
      ],
      [
        "▁रहेगा",
        -9.351537738215711
      ],
      [
        "▁छात्रों",
        -9.352573073818643
      ],
      [
        "▁अचानक",
        -9.353161284561928
      ],
      [
        "▁निर्णय",
        -9.354034219710217
      ],
      [
        "l",
        -9.35410071761169
      ],
      [
        "▁पीने",
        -9.354330801667333
      ],
      [
        "▁प्रतिक्रिया",
        -9.355065210877124
      ],
      [
        "▁आंदोलन",
        -9.355901540277975
      ],
      [
        "▁केस",
        -9.356989422043291
      ],
      [
        "▁जाएंगे",
        -9.357076275274371
      ],
      [
        "▁गले",
        -9.357100117560796
      ],
      [
        "▁रोज",
        -9.358051778323984
      ],
      [
        "▁राजधानी",
        -9.358109140791752
      ],
      [
        "▁खा",
        -9.358180288209393
      ],
      [
        "▁In",
        -9.360260127573422
      ],
      [
        "▁रोजगार",
        -9.362610321842006
      ],
      [
        "▁शानदार",
        -9.362792683747577
      ],
      [
        "▁ग्रुप",
        -9.362887146884203
      ],
      [
        "▁नींद",
        -9.364382515367083
      ],
      [
        "▁बावजूद",
        -9.364773215756344
      ],
      [
        "▁संस्कृति",
        -9.365393530377492
      ],
      [
        "▁चरण",
        -9.366031954692312
      ],
      [
        "▁विवाह",
        -9.366314289764475
      ],
      [
        "▁मॉडल",
        -9.367961753913344
      ],
      [
        "er",
        -9.368733628277075
      ],
      [
        "▁तेजी",
        -9.370185070607803
      ],
      [
        "▁प्रत्येक",
        -9.37138234490908
      ],
      [
        "वे",
        -9.371628017480752
      ],
      [
        "▁साइट",
        -9.371705719847721
      ],
      [
        "▁इन्हें",
        -9.37211991637177
      ],
      [
        "▁मूल्य",
        -9.373146166153216
      ],
      [
        "▁लगती",
        -9.374410699691502
      ],
      [
        "▁मौका",
        -9.37459658221469
      ],
      [
        "▁40",
        -9.375188296701662
      ],
      [
        "▁सलाह",
        -9.380717978758362
      ],
      [
        "–",
        -9.38101394375302
      ],
      [
        "▁देखना",
        -9.381188496253696
      ],
      [
        "▁जोर",
        -9.382177261085795
      ],
      [
        "▁विस्तार",
        -9.382971649037394
      ],
      [
        "▁सम्मेलन",
        -9.383121474931158
      ],
      [
        "▁गति",
        -9.383495954995132
      ],
      [
        "▁जुड़ी",
        -9.383833229666646
      ],
      [
        "▁स्त्री",
        -9.385279426087703
      ],
      [
        "▁कप्तान",
        -9.386916616450895
      ],
      [
        "▁तिथि",
        -9.387485842539917
      ],
      [
        "▁बकवास",
        -9.388283844202764
      ],
      [
        "▁मंगलवार",
        -9.38837079659779
      ],
      [
        "▁शांति",
        -9.38850817887223
      ],
      [
        "▁दौर",
        -9.38852196908072
      ],
      [
        "▁रखें",
        -9.388879413775154
      ],
      [
        "▁वृद्धि",
        -9.389152161070799
      ],
      [
        "▁कृष्ण",
        -9.389461493808868
      ],
      [
        "▁मिलाकर",
        -9.393005584749478
      ],
      [
        "▁बीमारी",
        -9.393837468826705
      ],
      [
        "▁बैठ",
        -9.394813486948173
      ],
      [
        "▁स्वतंत्रता",
        -9.396168340753766
      ],
      [
        "▁साबित",
        -9.396785267455215
      ],
      [
        "▁4.",
        -9.396840723927134
      ],
      [
        "▁स्टार",
        -9.397680505458444
      ],
      [
        "▁बचपन",
        -9.398164950307937
      ],
      [
        "▁बिल",
        -9.399606437217958
      ],
      [
        "▁धन्यवाद",
        -9.40012697462885
      ],
      [
        "स्",
        -9.400273647397059
      ],
      [
        "▁रहें",
        -9.400697572432486
      ],
      [
        "▁गांड",
        -9.403139816303923
      ],
      [
        "▁छह",
        -9.404291784542217
      ],
      [
        "*",
        -9.404830363577137
      ],
      [
        "▁कहता",
        -9.405328152701482
      ],
      [
        "▁हमसे",
        -9.405876679235291
      ],
      [
        "▁खाते",
        -9.40606941721784
      ],
      [
        "▁डे",
        -9.406295611453885
      ],
      [
        "▁प्रो",
        -9.40664576402919
      ],
      [
        "पी",
        -9.407031592843074
      ],
      [
        "▁बाकी",
        -9.409046909776588
      ],
      [
        "▁कैंसर",
        -9.41006048115092
      ],
      [
        "▁छूट",
        -9.41152173646511
      ],
      [
        "▁इनके",
        -9.411632181950846
      ],
      [
        "▁चैनल",
        -9.412826575165429
      ],
      [
        "▁आशा",
        -9.413460580370518
      ],
      [
        "▁[...]",
        -9.41443044704277
      ],
      [
        "▁लक्ष्य",
        -9.416776683687553
      ],
      [
        "▁Facebook",
        -9.416806925111654
      ],
      [
        "▁फैसले",
        -9.417139661775046
      ],
      [
        "▁भुगतान",
        -9.417599410721106
      ],
      [
        "ियाँ",
        -9.418384202514948
      ],
      [
        "▁दर्शन",
        -9.418528884076391
      ],
      [
        "▁गिर",
        -9.418667870203489
      ],
      [
        "▁निवेश",
        -9.419419493408164
      ],
      [
        "▁हाँ",
        -9.421144816189297
      ],
      [
        "▁आधारित",
        -9.421247672029535
      ],
      [
        "▁सारा",
        -9.421837389652008
      ],
      [
        "▁शनिवार",
        -9.421865722977014
      ],
      [
        "6",
        -9.422543818612652
      ],
      [
        "▁मैदान",
        -9.423225987926408
      ],
      [
        "▁तुरंत",
        -9.423619407852872
      ],
      [
        "▁India",
        -9.423945521541349
      ],
      [
        "▁देव",
        -9.424352583557607
      ],
      [
        "▁आकर",
        -9.425172445016756
      ],
      [
        "▁कथा",
        -9.426411384640181
      ],
      [
        "▁सौ",
        -9.426455472362722
      ],
      [
        "▁Read",
        -9.426903008717627
      ],
      [
        "▁खुशी",
        -9.42706486456805
      ],
      [
        "▁जमीन",
        -9.427847141475464
      ],
      [
        "▁मुद्दे",
        -9.427988616913012
      ],
      [
        "▁बनाई",
        -9.428624300051975
      ],
      [
        "▁जाये",
        -9.430162679585997
      ],
      [
        "▁छोटा",
        -9.430430785945987
      ],
      [
        "▁कठिन",
        -9.43099913207045
      ],
      [
        "al",
        -9.431708821480841
      ],
      [
        "▁मृत्यु",
        -9.431712283355886
      ],
      [
        "▁उत्तराखंड",
        -9.432063915384417
      ],
      [
        "▁विवरण",
        -9.432749082046248
      ],
      [
        "ँ",
        -9.432998919720998
      ],
      [
        "▁पैर",
        -9.43306833863025
      ],
      [
        "▁डॉलर",
        -9.43314312353138
      ],
      [
        "▁मार्ग",
        -9.433269828040071
      ],
      [
        "▁समान",
        -9.433702946194911
      ],
      [
        "▁चलता",
        -9.43389510015728
      ],
      [
        "्य",
        -9.434966199595227
      ],
      [
        "०",
        -9.43566381400636
      ],
      [
        "▁मौके",
        -9.43689129376619
      ],
      [
        "▁जम्मू",
        -9.437355895095752
      ],
      [
        "▁सितंबर",
        -9.437840047325674
      ],
      [
        "▁बच्चा,",
        -9.437944615721968
      ],
      [
        "▁चाहिए.",
        -9.438304208342025
      ],
      [
        "▁निर्देश",
        -9.43886597227298
      ],
      [
        "n",
        -9.439811024984198
      ],
      [
        "▁दिया.",
        -9.440449031301178
      ],
      [
        "▁हिंदू",
        -9.440511024862882
      ],
      [
        "▁27",
        -9.440918940456749
      ],
      [
        "▁भीड़",
        -9.441746003490685
      ],
      [
        "▁कही",
        -9.443384924835186
      ],
      [
        "▁पकड़",
        -9.443469581394691
      ],
      [
        "▁समाप्त",
        -9.444340442726599
      ],
      [
        "▁बेटा",
        -9.444758878142647
      ],
      [
        "▁राहत",
        -9.445194877265482
      ],
      [
        "▁दिखा",
        -9.44659179132432
      ],
      [
        "▁काल",
        -9.447895584423865
      ],
      [
        "3",
        -9.448494663769672
      ],
      [
        "▁कंप्यूटर",
        -9.449175977879175
      ],
      [
        "▁जाएगी",
        -9.44920062680815
      ],
      [
        "▁लोगो",
        -9.449722839405528
      ],
      [
        "▁फूल",
        -9.4508588491043
      ],
      [
        "▁फायदा",
        -9.4512960606039
      ],
      [
        "▁घोषित",
        -9.451329700504637
      ],
      [
        "▁.....",
        -9.453164059467614
      ],
      [
        "▁चलने",
        -9.4546529099021
      ],
      [
        "▁हालत",
        -9.454752347521397
      ],
      [
        "▁खाली",
        -9.455378480275062
      ],
      [
        "▁तनाव",
        -9.455707228614724
      ],
      [
        "▁किया.",
        -9.455887598656478
      ],
      [
        "▁मुँह",
        -9.456001315894394
      ],
      [
        "▁कार्यालय",
        -9.459250058963768
      ],
      [
        "▁यानी",
        -9.459328620299747
      ],
      [
        "▁आंखों",
        -9.46005470621417
      ],
      [
        "▁खुलासा",
        -9.460708799306811
      ],
      [
        "▁सीरीज",
        -9.461201538960253
      ],
      [
        "▁बनाना",
        -9.46260173569065
      ],
      [
        "▁काला",
        -9.463142290270682
      ],
      [
        "▁स्टेशन",
        -9.466064661109119
      ],
      [
        "▁डिक",
        -9.466110593202323
      ],
      [
        "▁खबरें",
        -9.4666973301793
      ],
      [
        "पर",
        -9.467423535761245
      ],
      [
        "▁दावा",
        -9.467682282893175
      ],
      [
        "बी",
        -9.46789603129952
      ],
      [
        "▁इंग्लैंड",
        -9.469684064392611
      ],
      [
        "▁लाइन",
        -9.47009744799583
      ],
      [
        "▁संभव",
        -9.470300648443317
      ],
      [
        "▁मर",
        -9.471847704923583
      ],
      [
        "▁देवी",
        -9.474362363248694
      ],
      [
        "▁आभार",
        -9.475567981305002
      ],
      [
        "▁सूत्र",
        -9.476448584864848
      ],
      [
        "▁संभावना",
        -9.477238786201967
      ],
      [
        "▁बोले-",
        -9.477654369915452
      ],
      [
        "▁लिया।",
        -9.479660839818425
      ],
      [
        "▁प्रस्ताव",
        -9.483183973995182
      ],
      [
        "▁पहुंचा",
        -9.484130307642356
      ],
      [
        "▁__",
        -9.484232373180056
      ],
      [
        "▁दैनिक",
        -9.484371649621345
      ],
      [
        "▁बाहरी",
        -9.484962277965298
      ],
      [
        "▁गाड़ी",
        -9.484976042403101
      ],
      [
        "▁दिमाग",
        -9.485949670488004
      ],
      [
        "▁सदस्यता",
        -9.486542182721564
      ],
      [
        "▁भरा",
        -9.487435711739636
      ],
      [
        "डी",
        -9.487566233816777
      ],
      [
        "▁वर्ल्ड",
        -9.488624205201834
      ],
      [
        "▁अनुमति",
        -9.48892529976586
      ],
      [
        "▁संगीत",
        -9.488949914864703
      ],
      [
        "इ",
        -9.489190626941953
      ],
      [
        "▁आवाज़",
        -9.489205957241403
      ],
      [
        "▁जिन्हें",
        -9.490333431439499
      ],
      [
        "▁खून",
        -9.490473438952089
      ],
      [
        "▁ट्वीट",
        -9.491692774118475
      ],
      [
        "▁लिखी",
        -9.493016751453293
      ],
      [
        "▁रोचक",
        -9.493585974242627
      ],
      [
        "▁स्वीकार",
        -9.493701390560375
      ],
      [
        "▁किताब",
        -9.494626799164458
      ],
      [
        "▁निम्नलिखित",
        -9.49587495519772
      ],
      [
        "▁सामना",
        -9.496008356471327
      ],
      [
        "▁प्रशासन",
        -9.496349066049767
      ],
      [
        "▁हों",
        -9.498384746105877
      ],
      [
        "▁रविवार",
        -9.498560456951815
      ],
      [
        "▁चीनी",
        -9.499336808878425
      ],
      [
        "g",
        -9.500129823326684
      ],
      [
        "▁इच्छा",
        -9.503664662723867
      ],
      [
        "▁Off",
        -9.504495827934228
      ],
      [
        "▁दवा",
        -9.504601891203105
      ],
      [
        "9",
        -9.505376247572013
      ],
      [
        "c",
        -9.507688425882742
      ],
      [
        "▁न्यायालय",
        -9.50771747848081
      ],
      [
        "▁चित्र",
        -9.507906433929524
      ],
      [
        "▁मुद्रा",
        -9.508552309961733
      ],
      [
        "▁मनाया",
        -9.510406935833172
      ],
      [
        "▁जिसकी",
        -9.511183210943248
      ],
      [
        "▁अंतरराष्ट्रीय",
        -9.512934561598023
      ],
      [
        "▁हिंसा",
        -9.515145987565504
      ],
      [
        "▁होम",
        -9.516100079825202
      ],
      [
        "▁किसने",
        -9.517102381275318
      ],
      [
        "▁जन्मदिन",
        -9.517222188070756
      ],
      [
        "▁निम्न",
        -9.517846177116835
      ],
      [
        "▁धीरे",
        -9.518077121401449
      ],
      [
        "h",
        -9.52008532182608
      ],
      [
        "▁उपकरण",
        -9.520399637281505
      ],
      [
        "▁कंपनियों",
        -9.520870288907258
      ],
      [
        "क्",
        -9.521080486822939
      ],
      [
        "▁गाय",
        -9.521466005306948
      ],
      [
        "▁लेता",
        -9.521644682972994
      ],
      [
        "▁गंगा",
        -9.521844173646112
      ],
      [
        "▁वक़्त",
        -9.522237911193457
      ],
      [
        "▁प्र",
        -9.522313547859756
      ],
      [
        "▁सीधे",
        -9.523356893294483
      ],
      [
        "▁उत्पादन",
        -9.524529495395583
      ],
      [
        "▁टॉप",
        -9.525511012909607
      ],
      [
        "▁स्वामी",
        -9.525918286099433
      ],
      [
        "▁मना",
        -9.526122347519221
      ],
      [
        "▁जाति",
        -9.526638966806564
      ],
      [
        "▁परिचय",
        -9.528969290005211
      ],
      [
        "▁स्मार्टफोन",
        -9.52918004767063
      ],
      [
        "आ",
        -9.52983046597034
      ],
      [
        "▁बंगाल",
        -9.53044426826887
      ],
      [
        "▁पश्चिम",
        -9.532667297620574
      ],
      [
        "▁प्रसिद्ध",
        -9.533152249102262
      ],
      [
        "▁क्षेत्रों",
        -9.533262484327743
      ],
      [
        "▁पेड़",
        -9.534130898473034
      ],
      [
        "राज",
        -9.534652429934054
      ],
      [
        "▁मिलते",
        -9.534945974431732
      ],
      [
        "k",
        -9.535012732213339
      ],
      [
        "▁थीं",
        -9.535803665186677
      ],
      [
        "▁उद्योग",
        -9.536070228919199
      ],
      [
        "▁वर्मा",
        -9.537803698733754
      ],
      [
        "▁खोजें",
        -9.539263144165268
      ],
      [
        "▁29",
        -9.539470165122044
      ],
      [
        "▁सीट",
        -9.539518626345465
      ],
      [
        "▁आठ",
        -9.53962845072955
      ],
      [
        "▁मामलों",
        -9.540260501492712
      ],
      [
        "▁पड़ी",
        -9.540679421248827
      ],
      [
        "▁मुलाकात",
        -9.540893623831467
      ],
      [
        "▁ऑस्ट्रेलिया",
        -9.540920669386738
      ],
      [
        "▁बोला",
        -9.541036227569883
      ],
      [
        "▁पटेल",
        -9.541482302535567
      ],
      [
        "▁पुस्तक",
        -9.541721811415051
      ],
      [
        "▁भ्रष्टाचार",
        -9.542018847124176
      ],
      [
        "पन",
        -9.542053042211549
      ],
      [
        "▁मंत्र",
        -9.54219368196226
      ],
      [
        "▁मात्र",
        -9.542327313340282
      ],
      [
        "▁केरल",
        -9.543077007674142
      ],
      [
        "▁फिल्मों",
        -9.544100797922134
      ],
      [
        "ध",
        -9.544581617861027
      ],
      [
        "▁अफ्रीका",
        -9.545357922303932
      ],
      [
        "▁फ़िल्म",
        -9.545652060738004
      ],
      [
        "▁तुलना",
        -9.546390898277483
      ],
      [
        "▁आना",
        -9.546997798304737
      ],
      [
        "▁वर्षों",
        -9.547318227736714
      ],
      [
        "▁तुम्हारा",
        -9.547356817343509
      ],
      [
        "▁जीता",
        -9.547697385138427
      ],
      [
        "▁संजय",
        -9.54850030108857
      ],
      [
        "▁देखिए",
        -9.549983022987798
      ],
      [
        "▁तुमने",
        -9.549986189854753
      ],
      [
        "▁स्पष्ट",
        -9.55052639759553
      ],
      [
        "▁ईश्वर",
        -9.550633136888074
      ],
      [
        "▁दम",
        -9.552505209064247
      ],
      [
        "▁रास्ते",
        -9.553025458265072
      ],
      [
        "▁प्रेस",
        -9.553519191836983
      ],
      [
        "▁अहम",
        -9.554342410608472
      ],
      [
        "▁2014",
        -9.55468862354795
      ],
      [
        "▁अथवा",
        -9.55506012426796
      ],
      [
        "▁सोचा",
        -9.55528215824977
      ],
      [
        "▁ग्रामीण",
        -9.555997103255837
      ],
      [
        "▁सालों",
        -9.556619304370514
      ],
      [
        "▁स्थानीय",
        -9.556760320438748
      ],
      [
        "▁इंतजार",
        -9.557540109907077
      ],
      [
        "▁मुर्गा",
        -9.557543571679414
      ],
      [
        "▁बचा",
        -9.558387129385164
      ],
      [
        "▁ख़बर",
        -9.559756938613612
      ],
      [
        "▁नयी",
        -9.559807756559756
      ],
      [
        "▁कवि",
        -9.55986456603274
      ],
      [
        "▁फाइनल",
        -9.561002584902555
      ],
      [
        "▁जिसने",
        -9.563035449818647
      ],
      [
        "▁प्रणाली",
        -9.563466897755148
      ],
      [
        "▁जानने",
        -9.563909777440944
      ],
      [
        "▁अंग्रेजी",
        -9.564150989835515
      ],
      [
        "र्स",
        -9.566159154347261
      ],
      [
        "▁डिग्री",
        -9.566304459992816
      ],
      [
        "▁महत्व",
        -9.566821334251564
      ],
      [
        "▁सके",
        -9.568223894213308
      ],
      [
        "▁ऑफिस",
        -9.568321107273722
      ],
      [
        "▁रानी",
        -9.568408077924357
      ],
      [
        "▁शिकार",
        -9.56900104301101
      ],
      [
        "▁स्वस्थ",
        -9.56947153684867
      ],
      [
        "▁समाधान",
        -9.569755975107594
      ],
      [
        "▁चिकित्सा",
        -9.570021381033094
      ],
      [
        "▁अतिरिक्त",
        -9.570111036389473
      ],
      [
        "▁बे",
        -9.571791343068965
      ],
      [
        "▁सिस्टम",
        -9.572092367766926
      ],
      [
        "▁होली",
        -9.572594978477998
      ],
      [
        "▁देंगे",
        -9.572677757850908
      ],
      [
        "▁@",
        -9.572897344393903
      ],
      [
        "▁5.",
        -9.57448115813683
      ],
      [
        "▁मशहूर",
        -9.575139555861572
      ],
      [
        "▁संघर्ष",
        -9.576130706615132
      ],
      [
        "▁नेशनल",
        -9.576142138984526
      ],
      [
        "▁टैक्स",
        -9.57648063430263
      ],
      [
        "भर",
        -9.576739603330594
      ],
      [
        "▁दृश्य",
        -9.57697000514447
      ],
      [
        "▁आखिरी",
        -9.577997753427464
      ],
      [
        "S",
        -9.57815080512612
      ],
      [
        "▁P",
        -9.578517454711179
      ],
      [
        "▁खो",
        -9.578645576302542
      ],
      [
        "▁C",
        -9.578852960574533
      ],
      [
        "बा",
        -9.579013252244645
      ],
      [
        "▁टिप्स",
        -9.581161529779274
      ],
      [
        "▁कर्मचारियों",
        -9.581363871022727
      ],
      [
        "▁बेहतरीन",
        -9.582078891470337
      ],
      [
        "▁तकनीक",
        -9.582926928032308
      ],
      [
        "▁इनमें",
        -9.583763442635892
      ],
      [
        "वर",
        -9.58386662304795
      ],
      [
        "▁जरिए",
        -9.584061549063975
      ],
      [
        "▁देखभाल",
        -9.58417657513975
      ],
      [
        "▁सुझाव",
        -9.584527748267348
      ],
      [
        "▁यू",
        -9.585096277266747
      ],
      [
        "▁दें।",
        -9.585156148814832
      ],
      [
        "▁2011",
        -9.585774470153897
      ],
      [
        "▁तथ्य",
        -9.586327587715651
      ],
      [
        "▁सपने",
        -9.58655897804434
      ],
      [
        "▁पर्यावरण",
        -9.587202989406894
      ],
      [
        "▁धरती",
        -9.587419742469631
      ],
      [
        "▁D",
        -9.588209328951926
      ],
      [
        "▁करेगा",
        -9.588427964253649
      ],
      [
        "▁जगत",
        -9.58896154610979
      ],
      [
        "▁ज़िन्दगी",
        -9.589383172260124
      ],
      [
        "▁पृथ्वी",
        -9.589475553686533
      ],
      [
        "▁दलित",
        -9.590293075132802
      ],
      [
        "▁शासन",
        -9.590559736341987
      ],
      [
        "▁पेट्रोल",
        -9.59073468077851
      ],
      [
        "वीं",
        -9.5907914454808
      ],
      [
        "▁टिकट",
        -9.591929449840551
      ],
      [
        "एँ",
        -9.592651869441418
      ],
      [
        "▁होटल",
        -9.592942856314384
      ],
      [
        "▁बिल्कुल",
        -9.593540972670766
      ],
      [
        "▁उद्देश्य",
        -9.593627753120769
      ],
      [
        "▁गोली",
        -9.59368936381184
      ],
      [
        "▁पत्थर",
        -9.595529404729206
      ],
      [
        "▁करेंगे।",
        -9.595546831472769
      ],
      [
        "गा",
        -9.595593688996551
      ],
      [
        "ंस",
        -9.59582387907199
      ],
      [
        "▁आतंकी",
        -9.596305326427826
      ],
      [
        "▁लगने",
        -9.598484725591302
      ],
      [
        "▁नियंत्रण",
        -9.5986283610719
      ],
      [
        "▁कहती",
        -9.600654468862157
      ],
      [
        "▁पुरुषों",
        -9.601182684945549
      ],
      [
        "▁चेहरा",
        -9.601345610103316
      ],
      [
        "▁लिस्ट",
        -9.603083671748717
      ],
      [
        "▁पुराना",
        -9.60351167656746
      ],
      [
        "▁रिलीज",
        -9.604191496864278
      ],
      [
        "▁झूठ",
        -9.604486260209786
      ],
      [
        "▁डेटा",
        -9.60534066450804
      ],
      [
        "▁परिषद",
        -9.606777826811985
      ],
      [
        "▁राज्यपाल",
        -9.607807876385834
      ],
      [
        "▁तलाश",
        -9.608053200883658
      ],
      [
        "▁रखे",
        -9.608348563704464
      ],
      [
        "▁नेतृत्व",
        -9.60877037663509
      ],
      [
        "▁वेतन",
        -9.60960234530376
      ],
      [
        "▁लाने",
        -9.60961778648484
      ],
      [
        "▁बताते",
        -9.609924118024882
      ],
      [
        "▁बनाकर",
        -9.610068148774086
      ],
      [
        "▁गया,",
        -9.610236770038448
      ],
      [
        "▁संस्थान",
        -9.610446399604266
      ],
      [
        "▁अवश्य",
        -9.610545715906357
      ],
      [
        "▁सरल",
        -9.612738319314001
      ],
      [
        "▁सुनवाई",
        -9.61287230498912
      ],
      [
        "▁मित्र",
        -9.613036045298507
      ],
      [
        "▁हैरान",
        -9.613119425698404
      ],
      [
        "▁देखे",
        -9.613191809184288
      ],
      [
        "▁रखी",
        -9.6134938946235
      ],
      [
        "▁मारे",
        -9.614120040317282
      ],
      [
        "▁अली",
        -9.614359440961675
      ],
      [
        "▁आयु",
        -9.614879687415058
      ],
      [
        "▁कॉपी",
        -9.6153001163425
      ],
      [
        "▁बचाने",
        -9.616143908005707
      ],
      [
        "▁I",
        -9.61616141960883
      ],
      [
        "▁अपराध",
        -9.61717213563399
      ],
      [
        "▁G",
        -9.618706539497119
      ],
      [
        "▁सम्बन्ध",
        -9.620399460264702
      ],
      [
        "▁लाइफ",
        -9.621093880927404
      ],
      [
        "▁मिलकर",
        -9.622062368115797
      ],
      [
        "▁अनेक",
        -9.622872839723243
      ],
      [
        "▁&",
        -9.623269989346564
      ],
      [
        "दूसरों",
        -9.623617646815504
      ],
      [
        "▁60",
        -9.625156012371761
      ],
      [
        "A",
        -9.6251826296946
      ],
      [
        "▁रेप",
        -9.626311286038652
      ],
      [
        "▁2013",
        -9.626883132314934
      ],
      [
        "▁ब्रिटेन",
        -9.627137275548968
      ],
      [
        "▁गुणवत्ता",
        -9.627159804900186
      ],
      [
        "▁प्रभु",
        -9.627255280721428
      ],
      [
        "at",
        -9.627534470031565
      ],
      [
        "▁निगम",
        -9.628423522648605
      ],
      [
        "▁उदाहरण",
        -9.628537649500052
      ],
      [
        "▁जम्मू-कश्मीर",
        -9.62913476101987
      ],
      [
        "▁and",
        -9.629212617813028
      ],
      [
        "▁दोष",
        -9.629328154642092
      ],
      [
        "▁खरीद",
        -9.630432586899222
      ],
      [
        "▁पड़े",
        -9.630644398397715
      ],
      [
        "▁बच्चा",
        -9.63107845919256
      ],
      [
        "▁रास्ता",
        -9.631401463992063
      ],
      [
        "▁महाराष्ट्र",
        -9.635661721193792
      ],
      [
        "▁लगा।",
        -9.636421493755158
      ],
      [
        "▁सचिव",
        -9.636798352734864
      ],
      [
        "▁ओ",
        -9.63681150009906
      ],
      [
        "▁बिक्री",
        -9.637108476413665
      ],
      [
        "▁एन",
        -9.637609568078284
      ],
      [
        "▁सर्वश्रेष्ठ",
        -9.637980606276312
      ],
      [
        "▁सपना",
        -9.640671765811145
      ],
      [
        "▁आपसे",
        -9.640989202176765
      ],
      [
        "▁WhatsApp",
        -9.641368061739126
      ],
      [
        "▁नौ",
        -9.642044926479219
      ],
      [
        "▁पुत्र",
        -9.642118171973582
      ],
      [
        "▁भरी",
        -9.642411504192221
      ],
      [
        "▁ला",
        -9.643182110757312
      ],
      [
        "▁जितना",
        -9.644993982231345
      ],
      [
        "▁पैनल",
        -9.645277663788955
      ],
      [
        "''",
        -9.647962698029591
      ],
      [
        "▁गोरा",
        -9.648909531765735
      ],
      [
        "▁लौट",
        -9.65153517655865
      ],
      [
        "▁एक्ट्रेस",
        -9.651548967763073
      ],
      [
        "▁गलती",
        -9.652488134519405
      ],
      [
        "▁मेल",
        -9.65391038097384
      ],
      [
        "▁खड़ी",
        -9.654320837016192
      ],
      [
        "▁निधन",
        -9.656033114245357
      ],
      [
        "▁पंचायत",
        -9.656043693228233
      ],
      [
        "▁डाला",
        -9.656932038732768
      ],
      [
        "▁बच्ची",
        -9.657052977817335
      ],
      [
        "▁बह",
        -9.657569383668694
      ],
      [
        "▁पृष्ठ",
        -9.658097739516757
      ],
      [
        "▁चौधरी",
        -9.658410890175169
      ],
      [
        "▁जाएगी।",
        -9.658912725130413
      ],
      [
        "▁अभिनेत्री",
        -9.659790197557445
      ],
      [
        "▁बाप",
        -9.65989334357485
      ],
      [
        "▁गई.",
        -9.660230826431048
      ],
      [
        "▁नियमित",
        -9.66034037325122
      ],
      [
        "▁विंडो",
        -9.66223344579527
      ],
      [
        "▁असली",
        -9.662402309764179
      ],
      [
        "▁अलग-अलग",
        -9.662560521026515
      ],
      [
        "दार",
        -9.664193515216482
      ],
      [
        "▁संसार",
        -9.664966707545263
      ],
      [
        "▁पत्रिका",
        -9.667851566326096
      ],
      [
        "▁तमाम",
        -9.669502656703926
      ],
      [
        "m",
        -9.669675005343217
      ],
      [
        "▁लालू",
        -9.670178048273144
      ],
      [
        "▁दीपक",
        -9.670928533654275
      ],
      [
        "▁बॉक्स",
        -9.671189547826074
      ],
      [
        "▁अरे",
        -9.67147355375802
      ],
      [
        "▁सत्र",
        -9.671623309817074
      ],
      [
        "▁लगाए",
        -9.671758099293992
      ],
      [
        "▁मेहनत",
        -9.673693276683908
      ],
      [
        "▁नौकरियां",
        -9.673724179216254
      ],
      [
        "▁videos",
        -9.674018848030173
      ],
      [
        "▁ग्रहण",
        -9.674023051371528
      ],
      [
        "▁भले",
        -9.67427290714425
      ],
      [
        "▁जानता",
        -9.674775171361933
      ],
      [
        "▁वेब",
        -9.676005696682466
      ],
      [
        "▁सामान",
        -9.67631386564302
      ],
      [
        "ै",
        -9.676873776572123
      ],
      [
        "▁आवास",
        -9.67691121393006
      ],
      [
        "▁सदस्यों",
        -9.677529595768567
      ],
      [
        "▁उत्पादों",
        -9.679030142834591
      ],
      [
        "▁लड़ाई",
        -9.67935865351339
      ],
      [
        "▁बाइक",
        -9.679383943506544
      ],
      [
        "▁मुकाबले",
        -9.6794351092252
      ],
      [
        "▁2010",
        -9.679528553158903
      ],
      [
        "▁समलैंगिक",
        -9.682989736103737
      ],
      [
        "▁शिवराज",
        -9.683479015050661
      ],
      [
        "▁चीज",
        -9.68416421464078
      ],
      [
        "▁मेडिकल",
        -9.684764789540033
      ],
      [
        "▁औरत",
        -9.68540153610352
      ],
      [
        "▁बदलने",
        -9.686044264282206
      ],
      [
        "▁संग्रह",
        -9.686220358062705
      ],
      [
        "▁संकेत",
        -9.686756611285592
      ],
      [
        "▁पटना",
        -9.686824932377451
      ],
      [
        "▁दिख",
        -9.687129481179232
      ],
      [
        "▁ओवर",
        -9.687829956772028
      ],
      [
        "▁जाओ",
        -9.689992845254396
      ],
      [
        "▁वी",
        -9.69000233567265
      ],
      [
        "▁अन्दर",
        -9.69057535279823
      ],
      [
        "▁ग",
        -9.692043238629415
      ],
      [
        "▁लगाई",
        -9.692252610181026
      ],
      [
        "▁भेजा",
        -9.69250911554138
      ],
      [
        "▁अमिताभ",
        -9.693172977996436
      ],
      [
        "▁संकट",
        -9.697784977613988
      ],
      [
        "▁गर्मी",
        -9.697918864848305
      ],
      [
        "▁एशिया",
        -9.697935836274564
      ],
      [
        "ाई",
        -9.69815194636972
      ],
      [
        "▁गुरुवार",
        -9.698978903123166
      ],
      [
        "▁पाए",
        -9.699108246751644
      ],
      [
        "▁अंतर्राष्ट्रीय",
        -9.69932550872348
      ],
      [
        "▁परियोजना",
        -9.69986083354496
      ],
      [
        "▁होनी",
        -9.700170682299769
      ],
      [
        "▁रेखा",
        -9.700585771766018
      ],
      [
        "▁कठोर",
        -9.701364900668427
      ],
      [
        "▁M",
        -9.701591858354222
      ],
      [
        "▁मिश्रा",
        -9.702400786332978
      ],
      [
        "▁योगदान",
        -9.705031569225824
      ],
      [
        "▁कड़ी",
        -9.705119145107998
      ],
      [
        "▁चोरी",
        -9.705142878593122
      ],
      [
        "▁हृदय",
        -9.705710552125558
      ],
      [
        "▁महिलाएं",
        -9.707282557135454
      ],
      [
        "▁शव",
        -9.70836927050162
      ],
      [
        "▁सम्मानित",
        -9.708660132036027
      ],
      [
        "ठ",
        -9.708755340322458
      ],
      [
        "▁बोली",
        -9.709306463234874
      ],
      [
        "▁अप",
        -9.710260768777278
      ],
      [
        "▁लिखने",
        -9.71200656953829
      ],
      [
        "▁पालन",
        -9.712109775969912
      ],
      [
        "▁साझा",
        -9.712246424465615
      ],
      [
        "▁मतदान",
        -9.712295179653276
      ],
      [
        "▁परेशानी",
        -9.71235000095102
      ],
      [
        "▁तारीख",
        -9.71316593824129
      ],
      [
        "▁संबंधी",
        -9.714084867005262
      ],
      [
        "▁मिश्र",
        -9.714478861738161
      ],
      [
        "▁बताने",
        -9.715115342606348
      ],
      [
        "▁mins",
        -9.715158650794436
      ],
      [
        "▁अशोक",
        -9.715859139815803
      ],
      [
        "▁वि",
        -9.716308667200755
      ],
      [
        "▁मालूम",
        -9.716506506854145
      ],
      [
        "▁जापानी",
        -9.717141167104668
      ],
      [
        "▁लगते",
        -9.718007926139784
      ],
      [
        "▁इलाके",
        -9.718054844571334
      ],
      [
        "▁नागरिक",
        -9.718499759802175
      ],
      [
        "▁साथ-साथ",
        -9.718522764848043
      ],
      [
        "▁कराया",
        -9.719305425807157
      ],
      [
        "▁देखो",
        -9.71970269801633
      ],
      [
        "▁कोरिया",
        -9.719930900782199
      ],
      [
        "▁श्रेणी",
        -9.720029506359921
      ],
      [
        "▁विकसित",
        -9.72059568732242
      ],
      [
        "▁खाद्य",
        -9.721661990467897
      ],
      [
        "▁लड़कियां",
        -9.722211061674914
      ],
      [
        "▁बढ़ती",
        -9.724273398796019
      ],
      [
        "▁व्",
        -9.724639543003926
      ],
      [
        "▁परमेश्वर",
        -9.725010762043109
      ],
      [
        "▁आत्मा",
        -9.725970496275641
      ],
      [
        "▁डॉ",
        -9.726898162386012
      ],
      [
        "▁इनकी",
        -9.727157235086306
      ],
      [
        "▁रिश्ते",
        -9.727542605819998
      ],
      [
        "▁रे",
        -9.727770262071797
      ],
      [
        "▁मंजूरी",
        -9.728933475597838
      ],
      [
        "▁गोल",
        -9.729053905483958
      ],
      [
        "▁पापा",
        -9.729496963111133
      ],
      [
        "▁धार्मिक",
        -9.72983435710921
      ],
      [
        "▁शैली",
        -9.730001443956349
      ],
      [
        "▁सेहत",
        -9.730211698227233
      ],
      [
        "▁रैली",
        -9.730728878068463
      ],
      [
        "्ड",
        -9.730835628868961
      ],
      [
        "▁नव",
        -9.73124034569679
      ],
      [
        "▁अंतर",
        -9.731605124892024
      ],
      [
        "▁मिलेगी",
        -9.732632587718637
      ],
      [
        "▁ऋण",
        -9.73283772978695
      ],
      [
        "▁सीबीआई",
        -9.73284003530954
      ],
      [
        "▁करवा",
        -9.733477922503987
      ],
      [
        "▁एम",
        -9.733728520825396
      ],
      [
        "▁the",
        -9.734019202783546
      ],
      [
        "▁मुफ्त",
        -9.734098770781788
      ],
      [
        "▁रोकने",
        -9.73438262038871
      ],
      [
        "▁पदक",
        -9.735160222543847
      ],
      [
        "▁मध्यप्रदेश",
        -9.735477733443968
      ],
      [
        "▁नये",
        -9.735639138600938
      ],
      [
        "▁उचित",
        -9.737352469216834
      ],
      [
        "दा",
        -9.737411676540258
      ],
      [
        "▁2012",
        -9.737838800609229
      ],
      [
        "▁सुपर",
        -9.73885483114768
      ],
      [
        "▁मोहम्मद",
        -9.73942767633362
      ],
      [
        "▁लक्षण",
        -9.740349142397212
      ],
      [
        "वि",
        -9.740738946859484
      ],
      [
        "in",
        -9.741457541924632
      ],
      [
        "D",
        -9.74185338878383
      ],
      [
        "▁व्यवहार",
        -9.742121338403551
      ],
      [
        "▁करियर",
        -9.742765946061951
      ],
      [
        "▁नोटबंदी",
        -9.743188439662141
      ],
      [
        "▁मिट्टी",
        -9.743240202899653
      ],
      [
        "▁होगा,",
        -9.743493689401513
      ],
      [
        "▁हालात",
        -9.744523684758814
      ],
      [
        "▁तीसरे",
        -9.744734928549319
      ],
      [
        "▁अजय",
        -9.744745202298683
      ],
      [
        "▁समझा",
        -9.745038939738537
      ],
      [
        "भ",
        -9.745352679180812
      ],
      [
        "▁हुई।",
        -9.745633820662793
      ],
      [
        "▁वास्तव",
        -9.74580373946523
      ],
      [
        "▁कर्म",
        -9.74637065524582
      ],
      [
        "▁आजकल",
        -9.746718320033475
      ],
      [
        "tion",
        -9.747583852739263
      ],
      [
        "▁भोपाल",
        -9.747763422786136
      ],
      [
        "▁दबाव",
        -9.747968139772594
      ],
      [
        "▁प्रबंधन",
        -9.748136186956867
      ],
      [
        "▁गरीब",
        -9.749705373833063
      ],
      [
        "▁दृष्टि",
        -9.749755074700275
      ],
      [
        "▁सामूहिक",
        -9.74983796355366
      ],
      [
        "▁F",
        -9.750884449189087
      ],
      [
        "▁पहुंचाने",
        -9.751888692983185
      ],
      [
        "▁धोनी",
        -9.752420369345959
      ],
      [
        "▁हिसाब",
        -9.752680146633438
      ],
      [
        "▁सुनकर",
        -9.753184598510511
      ],
      [
        "▁लिंग",
        -9.753295585888436
      ],
      [
        "▁जैन",
        -9.753851811627435
      ],
      [
        "▁प्रचार",
        -9.754332824009378
      ],
      [
        "▁सीटों",
        -9.75437952614616
      ],
      [
        "▁सबको",
        -9.75497876243529
      ],
      [
        "▁महा",
        -9.755177631871076
      ],
      [
        "▁चलें",
        -9.755572716186432
      ],
      [
        "▁कहानियाँ",
        -9.757305538465365
      ],
      [
        "▁वापसी",
        -9.757733501418459
      ],
      [
        "▁हैं...",
        -9.758490206056608
      ],
      [
        "▁केन्द्र",
        -9.759636597790388
      ],
      [
        "▁More",
        -9.759777703598642
      ],
      [
        "▁योग्य",
        -9.759979306977247
      ],
      [
        "▁हल",
        -9.760992361490283
      ],
      [
        "▁गृह",
        -9.761602816281991
      ],
      [
        "▁कलम",
        -9.761624009830443
      ],
      [
        "▁टूट",
        -9.761700535145263
      ],
      [
        "▁श्रीलंका",
        -9.761945903824898
      ],
      [
        "▁बलात्कार",
        -9.762056688354443
      ],
      [
        "th",
        -9.762223413449817
      ],
      [
        "▁परीक्षण",
        -9.762377960736867
      ],
      [
        "▁कमाई",
        -9.762420488601807
      ],
      [
        "▁राह",
        -9.763466601736116
      ],
      [
        "▁चूच",
        -9.763795217393385
      ],
      [
        "-ए-",
        -9.764247898048852
      ],
      [
        "▁Twitter",
        -9.765994386865511
      ],
      [
        "▁चौहान",
        -9.765996726820816
      ],
      [
        "▁नमक",
        -9.767407839005537
      ],
      [
        "▁लाइव",
        -9.768473892767929
      ],
      [
        "▁BJP",
        -9.76919409760538
      ],
      [
        "▁भूमि",
        -9.76920101548555
      ],
      [
        "▁करें,",
        -9.769796745741854
      ],
      [
        "▁लिंक्स",
        -9.770030009567709
      ],
      [
        "▁लिमिटेड",
        -9.772155429494182
      ],
      [
        "▁for",
        -9.77224261906979
      ],
      [
        "और",
        -9.772482729541148
      ],
      [
        "p",
        -9.773289613713079
      ],
      [
        "▁खुले",
        -9.773622169165147
      ],
      [
        "▁चुप",
        -9.77390510330405
      ],
      [
        "▁तेरा",
        -9.774058432429396
      ],
      [
        "▁ज़िम्मेदार",
        -9.775874461992759
      ],
      [
        "▁उतन",
        -9.776136606307663
      ],
      [
        "▁शपथ",
        -9.776807233141419
      ],
      [
        "।”",
        -9.77744570253658
      ],
      [
        "▁जोड़ा",
        -9.777658611728812
      ],
      [
        "▁तुझे",
        -9.778186317043861
      ],
      [
        "▁जर्मनी",
        -9.779007580454277
      ],
      [
        "▁रद्द",
        -9.779341175408721
      ],
      [
        "▁जीतने",
        -9.779566338578125
      ],
      [
        "▁शख्स",
        -9.77992760388587
      ],
      [
        "▁भरोसा",
        -9.779933236004958
      ],
      [
        "▁नेटवर्क",
        -9.780877543797244
      ],
      [
        "▁बदला",
        -9.781249276415291
      ],
      [
        "▁हूँ.",
        -9.781420725153652
      ],
      [
        "▁शोध",
        -9.781979645700234
      ],
      [
        "▁Copyright",
        -9.783022804945482
      ],
      [
        "▁विशाल",
        -9.783065441977953
      ],
      [
        "▁सफाई",
        -9.783066178914535
      ],
      [
        "▁जमकर",
        -9.783249493424936
      ],
      [
        "▁दोपहर",
        -9.783279627210344
      ],
      [
        "▁प्रकृति",
        -9.783681241652651
      ],
      [
        "शन",
        -9.784640684810132
      ],
      [
        "▁हॉट",
        -9.784824883004239
      ],
      [
        "▁साथी",
        -9.784861742053895
      ],
      [
        "▁उनमें",
        -9.787611280140945
      ],
      [
        "▁मानसिक",
        -9.787984658759054
      ],
      [
        "▁थीं।",
        -9.788054488193936
      ],
      [
        "▁जाएगा.",
        -9.788373330507174
      ],
      [
        "▁दौरे",
        -9.788455819667893
      ],
      [
        "▁कमबख्त",
        -9.789676735874455
      ],
      [
        "▁गधा,",
        -9.790562552899964
      ],
      [
        "िन",
        -9.790716881784448
      ],
      [
        "जा",
        -9.790839785879246
      ],
      [
        "▁जिन्होंने",
        -9.79086076252623
      ],
      [
        "▁बुरा",
        -9.790914557489902
      ],
      [
        "▁पहुंची",
        -9.791338353843852
      ],
      [
        "▁शहीद",
        -9.792605315674994
      ],
      [
        "▁व्यक्तिगत",
        -9.792633321748621
      ],
      [
        "▁प्रशिक्षण",
        -9.795591703634596
      ],
      [
        "▁चेक",
        -9.796208403811683
      ],
      [
        "▁संग",
        -9.796242073452461
      ],
      [
        "▁है-",
        -9.797012812943054
      ],
      [
        "▁उम्मीदवारों",
        -9.797153457064042
      ],
      [
        "▁उपयोगी",
        -9.797898972022839
      ],
      [
        "▁दिनांक",
        -9.798463172708246
      ],
      [
        "▁किलोमीटर",
        -9.79878099288819
      ],
      [
        "!!",
        -9.799146000221821
      ],
      [
        "िए",
        -9.799259387152386
      ],
      [
        "▁परमाणु",
        -9.800497747785599
      ],
      [
        "▁आउट",
        -9.801561156751001
      ],
      [
        "▁निश्चित",
        -9.803004400543088
      ],
      [
        "▁लगाकर",
        -9.803197083975327
      ],
      [
        "▁हटा",
        -9.803324721576743
      ],
      [
        "▁मीटर",
        -9.803735856954866
      ],
      [
        "▁कल्याण",
        -9.803745747339807
      ],
      [
        "▁भवन",
        -9.80464230656133
      ],
      [
        "▁खिलाड़ियों",
        -9.805125610928172
      ],
      [
        "▁35",
        -9.805350800129753
      ],
      [
        "▁बैठा",
        -9.805648847977128
      ],
      [
        "b",
        -9.806497756673558
      ],
      [
        "▁चलो",
        -9.806715176405863
      ],
      [
        "▁व्रत",
        -9.807507416058824
      ],
      [
        "▁इ",
        -9.807918283853148
      ],
      [
        "▁गए.",
        -9.809230255082088
      ],
      [
        "▁a",
        -9.809235578063785
      ],
      [
        "▁रूस",
        -9.80954939316677
      ],
      [
        "▁ताज़ा",
        -9.810023593591236
      ],
      [
        "न्",
        -9.811158925470473
      ],
      [
        "▁निर्धारित",
        -9.811528293066935
      ],
      [
        "▁अक्षय",
        -9.812286854080396
      ],
      [
        "वां",
        -9.81346552612833
      ],
      [
        "▁व्यवसाय",
        -9.814104387834075
      ],
      [
        "▁सेक्सी",
        -9.814175691005198
      ],
      [
        "▁स्थल",
        -9.814350304209391
      ],
      [
        "▁6.",
        -9.814513912838104
      ],
      [
        "।।",
        -9.81485648358475
      ],
      [
        "▁तापमान",
        -9.815271341589753
      ],
      [
        "▁रोहित",
        -9.81541024274675
      ],
      [
        ":-",
        -9.816384076475646
      ],
      [
        "▁समुदाय",
        -9.817182043662628
      ],
      [
        "▁चुनौती",
        -9.817935135854164
      ],
      [
        "▁ऐलान",
        -9.817982467653291
      ],
      [
        "▁आलेख",
        -9.818120278762423
      ],
      [
        "▁निकली",
        -9.818958382182984
      ],
      [
        "▁किमी",
        -9.81909267027687
      ],
      [
        "▁जिनके",
        -9.819988103058732
      ],
      [
        "▁नोटिस",
        -9.821299809514988
      ],
      [
        "▁विटामिन",
        -9.823509338301257
      ],
      [
        "उ",
        -9.823742642800402
      ],
      [
        "▁खाता",
        -9.823980998869793
      ],
      [
        "▁ग्रह",
        -9.824259813445769
      ],
      [
        "▁दूरी",
        -9.825839238851746
      ],
      [
        "▁पाक",
        -9.825922919203766
      ],
      [
        "▁कॉल",
        -9.826632366910026
      ],
      [
        "▁गठबंधन",
        -9.827071404172326
      ],
      [
        "▁बजाय",
        -9.827073419588825
      ],
      [
        "▁वैज्ञानिक",
        -9.827150091484732
      ],
      [
        "?\"",
        -9.827213710567406
      ],
      [
        "▁कु",
        -9.828851750328075
      ],
      [
        "▁सफेद",
        -9.829015834065865
      ],
      [
        "▁तोड़",
        -9.8296949768249
      ],
      [
        "▁साइटों",
        -9.830655104597462
      ],
      [
        "▁न्याय",
        -9.830810353232112
      ],
      [
        "कार",
        -9.831128687522737
      ],
      [
        "▁है:",
        -9.831927336024645
      ],
      [
        "▁समस्याओं",
        -9.83204257110043
      ],
      [
        "▁भूख",
        -9.833380249806766
      ],
      [
        "▁पर्व",
        -9.833537339758532
      ],
      [
        "▁विमान",
        -9.83430029858362
      ],
      [
        "▁पीठ",
        -9.834788970908285
      ],
      [
        "▁संपत्ति",
        -9.835759830043004
      ],
      [
        "▁200",
        -9.837578291423021
      ],
      [
        "▁500",
        -9.837872901427271
      ],
      [
        "▁गुप्ता",
        -9.838420663974969
      ],
      [
        "▁कपिल",
        -9.839516784770755
      ],
      [
        "▁अटल",
        -9.840482521662683
      ],
      [
        "▁लक्ष्मी",
        -9.840733191156266
      ],
      [
        "▁कर्मचारी",
        -9.841629895600644
      ],
      [
        "▁उठाया",
        -9.842171667649867
      ],
      [
        "▁लेती",
        -9.842452999430577
      ],
      [
        "▁--",
        -9.84258609010811
      ],
      [
        "▁जीएसटी",
        -9.843116726095039
      ],
      [
        "▁दुख",
        -9.84353594352779
      ],
      [
        "▁करा",
        -9.843691018485764
      ],
      [
        "▁लंबी",
        -9.84420418175981
      ],
      [
        "▁सफर",
        -9.845158123657011
      ],
      [
        "F",
        -9.845575683957168
      ],
      [
        "▁टाइम",
        -9.846178420964455
      ],
      [
        "▁ज़रूरत",
        -9.846626679287187
      ],
      [
        "▁Download",
        -9.847509270768882
      ],
      [
        "▁धारा",
        -9.847759892045001
      ],
      [
        "▁प्रधान",
        -9.848013770766997
      ],
      [
        "▁सांस",
        -9.84879539692485
      ],
      [
        "▁सऊदी",
        -9.849096969203025
      ],
      [
        "एस",
        -9.849350585994753
      ],
      [
        "▁मजबूर",
        -9.849543394568553
      ],
      [
        "▁शारीरिक",
        -9.84957388331198
      ],
      [
        "▁रहे।",
        -9.849976214415676
      ],
      [
        "▁लड़का",
        -9.850046570399833
      ],
      [
        "▁झारखंड",
        -9.850156279706304
      ],
      [
        "▁संस्था",
        -9.850398122898241
      ],
      [
        "▁डिजिटल",
        -9.850842916901627
      ],
      [
        "▁अंतर्गत",
        -9.85085352073229
      ],
      [
        "▁नीतीश",
        -9.850863486584956
      ],
      [
        "▁hindi",
        -9.851060058080066
      ],
      [
        "▁वित्तीय",
        -9.851127186998141
      ],
      [
        "▁खतरा",
        -9.8520382748672
      ],
      [
        "▁ताकत",
        -9.852290288391362
      ],
      [
        "▁पहुँच",
        -9.853333804913756
      ],
      [
        "▁सपा",
        -9.853880324864871
      ],
      [
        "▁होंगे।",
        -9.853985859290292
      ],
      [
        "▁सूरज",
        -9.854705216358397
      ],
      [
        "▁मुद्दा",
        -9.855875023223394
      ],
      [
        "▁देसी",
        -9.856403383878622
      ],
      [
        "▁युवाओं",
        -9.858513561098867
      ],
      [
        "▁(5)",
        -9.858555546441469
      ],
      [
        "▁●",
        -9.858560988905301
      ],
      [
        "▁हाईकोर्ट",
        -9.859244613765668
      ],
      [
        "▁बराबर",
        -9.860190874287113
      ],
      [
        "▁फ्री",
        -9.860268486352021
      ],
      [
        "▁कोलकाता",
        -9.860582212208968
      ],
      [
        "▁संचालित",
        -9.860930110720753
      ],
      [
        "▁बच्चन",
        -9.861644264205353
      ],
      [
        "▁स्क्रीन",
        -9.861842225591602
      ],
      [
        "▁खबरों",
        -9.861987247124144
      ],
      [
        "▁शांत",
        -9.86214187234378
      ],
      [
        "▁याचिका",
        -9.862178193983478
      ],
      [
        "▁नरेन्द्र",
        -9.862612000491215
      ],
      [
        "▁खुलेंगे",
        -9.862684333611305
      ],
      [
        "▁आय",
        -9.863495623694186
      ],
      [
        "+",
        -9.864708003309122
      ],
      [
        "▁विरोधी",
        -9.865363459221909
      ],
      [
        "▁दुकान",
        -9.865964473727349
      ],
      [
        "▁मजा",
        -9.866031065145826
      ],
      [
        "▁बुरी",
        -9.86654049171078
      ],
      [
        "▁हटाने",
        -9.866894902834112
      ],
      [
        "▁प्रिय",
        -9.866984471766106
      ],
      [
        "▁प्रियंका",
        -9.867013687739988
      ],
      [
        "▁दान",
        -9.867339558639845
      ],
      [
        "ौ",
        -9.867590611259905
      ],
      [
        "▁बनाये",
        -9.867692033890375
      ],
      [
        "▁क्रिकेटर",
        -9.868004855850588
      ],
      [
        "▁यूँ",
        -9.868351050406641
      ],
      [
        "▁अवधि",
        -9.868412156754967
      ],
      [
        "▁पाते",
        -9.868697549795804
      ],
      [
        "▁प्रौद्योगिकी",
        -9.868715096265202
      ],
      [
        "▁हैदराबाद",
        -9.86883514916246
      ],
      [
        "▁कारोबार",
        -9.869169891660277
      ],
      [
        "डा",
        -9.870762048683844
      ],
      [
        "▁पारी",
        -9.87138154330966
      ],
      [
        "▁रखता",
        -9.871769223365284
      ],
      [
        "▁उतर",
        -9.872551650662757
      ],
      [
        "▁अपील",
        -9.872811334911443
      ],
      [
        "▁बिलकुल",
        -9.873477054482223
      ],
      [
        "▁हफ्ते",
        -9.87451513864132
      ],
      [
        "▁बढ़िया",
        -9.87514786976347
      ],
      [
        "▁पढ़ा",
        -9.876085896616166
      ],
      [
        "▁पढ़ाई",
        -9.876239829331258
      ],
      [
        "▁जरा",
        -9.876578030704785
      ],
      [
        "▁रिश्तों",
        -9.876946319625162
      ],
      [
        "▁बढ़ने",
        -9.877116407079555
      ],
      [
        "an",
        -9.877870164242335
      ],
      [
        "▁मकान",
        -9.877943203650624
      ],
      [
        "▁चीजें",
        -9.87831672628678
      ],
      [
        "▁पाकिस्तानी",
        -9.878418955424841
      ],
      [
        "▁एकदम",
        -9.878672853178145
      ],
      [
        "▁हाउस",
        -9.879117008024563
      ],
      [
        "▁साफ़",
        -9.88084860656903
      ],
      [
        "▁The",
        -9.88101476486736
      ],
      [
        "▁सर्वाधिक",
        -9.88134680063332
      ],
      [
        "▁मौत,",
        -9.881350517061513
      ],
      [
        "▁दिये",
        -9.881624571245425
      ],
      [
        "▁स्वर्ण",
        -9.883417146270864
      ],
      [
        "▁वर्षीय",
        -9.88362529798981
      ],
      [
        "▁बनाते",
        -9.883680670207022
      ],
      [
        "▁+",
        -9.88442972094521
      ],
      [
        "▁बैंकों",
        -9.886060411734254
      ],
      [
        "▁अर्थव्यवस्था",
        -9.886126535362838
      ],
      [
        "▁रणनीति",
        -9.88674295813126
      ],
      [
        "▁शहरों",
        -9.886956035057146
      ],
      [
        "▁अवैध",
        -9.888273586612776
      ],
      [
        "▁सेट",
        -9.888305416260565
      ],
      [
        "▁भावना",
        -9.888552121522522
      ],
      [
        "▁खतरनाक",
        -9.88909311134805
      ],
      [
        "▁परन्तु",
        -9.890031847609638
      ],
      [
        "▁आहार",
        -9.89052247005428
      ],
      [
        "▁खोल",
        -9.890831632406229
      ],
      [
        "▁हैं:",
        -9.891355895753637
      ],
      [
        "▁चारों",
        -9.89147559765917
      ],
      [
        "▁काली",
        -9.89187449485901
      ],
      [
        "▁छोड़कर",
        -9.892025920985883
      ],
      [
        "▁काट",
        -9.892124203847946
      ],
      [
        "▁बल्लेबाज",
        -9.8922732125225
      ],
      [
        "▁शहद",
        -9.892545956648608
      ],
      [
        "▁मानते",
        -9.892641195081268
      ],
      [
        "▁एयर",
        -9.89271617078517
      ],
      [
        "▁पाई",
        -9.89328034011002
      ],
      [
        "▁दाम",
        -9.893420569257398
      ],
      [
        "▁70",
        -9.894337108331758
      ],
      [
        "▁बहस",
        -9.894477642856687
      ],
      [
        "फ़",
        -9.894605823446831
      ],
      [
        "▁बीज",
        -9.89490170166328
      ],
      [
        "▁R",
        -9.89522662916913
      ],
      [
        "▁गणेश",
        -9.896683864290358
      ],
      [
        "▁विचारों",
        -9.896724624628316
      ],
      [
        "ra",
        -9.896933135345607
      ],
      [
        "▁समझने",
        -9.89736622687244
      ],
      [
        "▁देगा",
        -9.897765492502103
      ],
      [
        "▁अकेले",
        -9.898231989344346
      ],
      [
        "▁अजीब",
        -9.898289921937064
      ],
      [
        "▁रहा।",
        -9.898624075087394
      ],
      [
        "▁ख्याल",
        -9.898774648507732
      ],
      [
        "▁गाँधी",
        -9.898923147865704
      ],
      [
        "▁रहेगा।",
        -9.899106666044649
      ],
      [
        "▁जायेगा",
        -9.899371462220627
      ],
      [
        "▁दिखाया",
        -9.899768196653657
      ],
      [
        "▁घंटा",
        -9.90096128873136
      ],
      [
        "▁था?",
        -9.901741835865813
      ],
      [
        "▁ढेर",
        -9.901829097941096
      ],
      [
        "हा",
        -9.901971010936617
      ],
      [
        "▁आसपास",
        -9.902285869760773
      ],
      [
        "▁रोड",
        -9.902845396608296
      ],
      [
        "▁गाने",
        -9.903108511767915
      ],
      [
        "अ",
        -9.904453015978525
      ],
      [
        "्र",
        -9.904477912012407
      ],
      [
        "▁मुझ",
        -9.904722084656449
      ],
      [
        "▁वाहन",
        -9.905398840244601
      ],
      [
        "▁आदत",
        -9.90575574929038
      ],
      [
        "▁विपक्ष",
        -9.90592503650851
      ],
      [
        "मान",
        -9.906231091728301
      ],
      [
        "▁सर्व",
        -9.906239534672455
      ],
      [
        "मन",
        -9.906397178057532
      ],
      [
        "ेशन",
        -9.906865764868531
      ],
      [
        "▁प्रतिबंध",
        -9.907213219916684
      ],
      [
        "▁h",
        -9.907231206951629
      ],
      [
        "▁अनिल",
        -9.907964408240577
      ],
      [
        "▁पहनने",
        -9.90805699363824
      ],
      [
        "▁जीने",
        -9.908262597422624
      ],
      [
        "▁एजेंसी",
        -9.908726794951942
      ],
      [
        "▁आसमान",
        -9.908912840446696
      ],
      [
        "▁पाउडर",
        -9.909268452441136
      ],
      [
        "▁कमर",
        -9.909300772030823
      ],
      [
        "▁हादसे",
        -9.90933153758252
      ],
      [
        "▁सदा",
        -9.910577127476351
      ],
      [
        "▁प्रार्थना",
        -9.91077035482411
      ],
      [
        "▁नवीनतम",
        -9.911104855290915
      ],
      [
        "▁कक्षा",
        -9.911246373862962
      ],
      [
        "10",
        -9.912341695451637
      ],
      [
        "▁खरीदने",
        -9.91398515542799
      ],
      [
        "▁इसको",
        -9.914264249031087
      ],
      [
        "▁मान्यता",
        -9.914416007017886
      ],
      [
        "▁कविताएं",
        -9.915200853457687
      ],
      [
        "▁कल्पना",
        -9.9154498103868
      ],
      [
        "C",
        -9.915712014603038
      ],
      [
        "▁बिहारी",
        -9.916053645491582
      ],
      [
        "▁Messenger",
        -9.916442652687138
      ],
      [
        "▁हुये",
        -9.91659233983313
      ],
      [
        "तर",
        -9.91728438967218
      ],
      [
        "▁इक",
        -9.917818179561474
      ],
      [
        "▁आजादी",
        -9.917906175759292
      ],
      [
        "▁हूं,",
        -9.918182092878407
      ],
      [
        "▁Google+",
        -9.918263376325719
      ],
      [
        "▁बदले",
        -9.918309625017326
      ],
      [
        "▁ममता",
        -9.918320466173526
      ],
      [
        "%",
        -9.918924379217566
      ],
      [
        "▁(6)",
        -9.919141307827523
      ],
      [
        "▁जनरल",
        -9.919154415971619
      ],
      [
        "वाद",
        -9.919620893070388
      ],
      [
        "▁लाखों",
        -9.92113993264988
      ],
      [
        "राम",
        -9.922508015279838
      ],
      [
        "▁गैर",
        -9.922541222874424
      ],
      [
        "▁बम",
        -9.923083757752428
      ],
      [
        "▁यूनिवर्सिटी",
        -9.923389463402486
      ],
      [
        "▁बचने",
        -9.924504491399532
      ],
      [
        "▁सागर",
        -9.924509517126635
      ],
      [
        "▁जयपुर",
        -9.924516395493647
      ],
      [
        "▁हवाई",
        -9.926750394815341
      ],
      [
        "▁तकनीकी",
        -9.927029812615686
      ],
      [
        "▁कैसी",
        -9.927104585289856
      ],
      [
        "▁वीर्य",
        -9.927272862459985
      ],
      [
        "▁जाए।",
        -9.92727599770176
      ],
      [
        "▁फ्रांस",
        -9.928859781511044
      ],
      [
        "▁ढंग",
        -9.929029853828059
      ],
      [
        "▁स्रोत",
        -9.929412787091897
      ],
      [
        "▁चोट",
        -9.929533806357423
      ],
      [
        "▁जानकर",
        -9.929601024065338
      ],
      [
        "हर",
        -9.930056498720235
      ],
      [
        "▁आईपीएल",
        -9.930308242926618
      ],
      [
        "▁बुद्ध",
        -9.930651075799222
      ],
      [
        "▁चीजों",
        -9.930911408606573
      ],
      [
        "▁सचिन",
        -9.931308815681696
      ],
      [
        "▁स्टाइल",
        -9.931727522050066
      ],
      [
        "▁महात्मा",
        -9.93253248261064
      ],
      [
        "▁7.",
        -9.932594950612469
      ],
      [
        "▁गरम",
        -9.93262268648354
      ],
      [
        "▁2009",
        -9.933119645175498
      ],
      [
        "▁मिशन",
        -9.934280486620576
      ],
      [
        "▁दोस्ती",
        -9.93531057409999
      ],
      [
        "st",
        -9.935822353969785
      ],
      [
        "▁नियुक्ति",
        -9.935953549046955
      ],
      [
        "▁ऑफ़",
        -9.936077541316763
      ],
      [
        "▁थाना",
        -9.936204257433792
      ],
      [
        "▁सौंदर्य",
        -9.936970494797647
      ],
      [
        "▁by",
        -9.937520241103652
      ],
      [
        "▁BBC",
        -9.938104634482501
      ],
      [
        "▁गठन",
        -9.938146655536288
      ],
      [
        "▁आधुनिक",
        -9.938373996016992
      ],
      [
        "B",
        -9.939197574649256
      ],
      [
        "▁बचाव",
        -9.940562097402848
      ],
      [
        "▁करेगी",
        -9.941684879807616
      ],
      [
        "▁माहौल",
        -9.94175427222679
      ],
      [
        "▁वनडे",
        -9.941792008714888
      ],
      [
        "▁प्रतियोगिता",
        -9.942029037316933
      ],
      [
        "▁कमजोर",
        -9.942466269402217
      ],
      [
        "▁कैमरा",
        -9.943110339693117
      ],
      [
        "▁स्किप",
        -9.943569148129123
      ],
      [
        "▁इंच",
        -9.943685012567252
      ],
      [
        "▁नियुक्त",
        -9.944020665073065
      ],
      [
        "▁हो.",
        -9.944170385272589
      ],
      [
        "▁दीदी",
        -9.9465886820876
      ],
      [
        "▁असम",
        -9.94695383904344
      ],
      [
        "▁अभ्यास",
        -9.947242193081124
      ],
      [
        "▁अंग",
        -9.947348275943384
      ],
      [
        "▁रेड",
        -9.947646552197734
      ],
      [
        "▁चेन्नई",
        -9.947944168477886
      ],
      [
        "▁भेजें",
        -9.94854409018052
      ],
      [
        "▁खेलने",
        -9.94887569637855
      ],
      [
        "▁सबके",
        -9.949802983656054
      ],
      [
        "▁लोकतंत्र",
        -9.949926399760495
      ],
      [
        "▁उत्पन्न",
        -9.950936175590904
      ],
      [
        "▁इनका",
        -9.951008280046738
      ],
      [
        "▁संस्करण",
        -9.951240096427988
      ],
      [
        "▁पाठ",
        -9.952023324932068
      ],
      [
        "▁व्यक्त",
        -9.952618032711545
      ],
      [
        "▁जंगल",
        -9.954785444270343
      ],
      [
        "▁बॉस",
        -9.954855716560168
      ],
      [
        "▁ऐ",
        -9.955065726195059
      ],
      [
        "▁अरुण",
        -9.955492382765598
      ],
      [
        "▁महाराज",
        -9.955717491644581
      ],
      [
        "▁बांग्लादेश",
        -9.9564441904615
      ],
      [
        "िका",
        -9.956717203267
      ],
      [
        "▁जयंती",
        -9.956910702303812
      ],
      [
        "▁क्लास",
        -9.957234865809314
      ],
      [
        "▁छुट्टी",
        -9.957689800889785
      ],
      [
        "▁आदित्यनाथ",
        -9.958361865041539
      ],
      [
        "▁फांसी",
        -9.958455527768962
      ],
      [
        "▁जातियों",
        -9.95870939916001
      ],
      [
        "▁बीमा",
        -9.958809391683577
      ],
      [
        "▁बैग",
        -9.959157049000467
      ],
      [
        "▁हिस्से",
        -9.959343215387312
      ],
      [
        "▁मानना",
        -9.959431126313554
      ],
      [
        "▁पेपर",
        -9.959894019614044
      ],
      [
        "▁Post",
        -9.959939880347005
      ],
      [
        "▁सुनिश्चित",
        -9.960211788424493
      ],
      [
        "▁आँखें",
        -9.960628133604185
      ],
      [
        "▁बीबीसी.",
        -9.96071888262335
      ],
      [
        "▁लूट",
        -9.960893813455751
      ],
      [
        "▁अयोध्या",
        -9.96090866323837
      ],
      [
        "▁एक्स",
        -9.962179496087929
      ],
      [
        "u",
        -9.962337163798122
      ],
      [
        "▁फॉलो",
        -9.964058158732206
      ],
      [
        "▁बनकर",
        -9.964481881609213
      ],
      [
        "▁आर",
        -9.965456631251836
      ],
      [
        "ही",
        -9.965808946629068
      ],
      [
        "▁उल्लेख",
        -9.96581526673284
      ],
      [
        "▁सर्विस",
        -9.966801386350763
      ],
      [
        "▁प्रेमिका",
        -9.967910725088373
      ],
      [
        "▁उठ",
        -9.968116566945165
      ],
      [
        "▁कर्ज",
        -9.968437764286806
      ],
      [
        "▁दिल्ली।",
        -9.968488409940267
      ],
      [
        "▁ग्राहक",
        -9.968573209053043
      ],
      [
        "▁लगी।",
        -9.969279080230706
      ],
      [
        "▁अरविंद",
        -9.969775752543175
      ],
      [
        "▁संत",
        -9.969872876100514
      ],
      [
        "▁मस्जिद",
        -9.969924458508109
      ],
      [
        "एल",
        -9.969945757713328
      ],
      [
        "▁वर्षा",
        -9.971763538512178
      ],
      [
        "▁भाषण",
        -9.97417403398573
      ],
      [
        "20",
        -9.974632881019087
      ],
      [
        "▁युग",
        -9.97465402620649
      ],
      [
        "▁pm",
        -9.974734809943211
      ],
      [
        "▁रक्त",
        -9.975094383864842
      ],
      [
        "▁जे",
        -9.975226867235323
      ],
      [
        "दी",
        -9.975722557270746
      ],
      [
        "▁शुरु",
        -9.977129548556526
      ],
      [
        "▁उद्घाटन",
        -9.97714974179225
      ],
      [
        "▁VIDEO:",
        -9.977499672100421
      ],
      [
        "▁जापान",
        -9.97783510155207
      ],
      [
        "▁रूपये",
        -9.97832230602677
      ],
      [
        "▁दोषी",
        -9.97871031530537
      ],
      [
        "▁खुल",
        -9.979584900361948
      ],
      [
        "▁चोर",
        -9.979640614714423
      ],
      [
        "▁अति",
        -9.980258101594309
      ],
      [
        "▁views",
        -9.98092445289626
      ],
      [
        "▁तट",
        -9.981444134187061
      ],
      [
        "ियो",
        -9.981802164867347
      ],
      [
        "▁पैरों",
        -9.982213243584795
      ],
      [
        "▁रुक",
        -9.982520918149426
      ],
      [
        "▁फ़ोन",
        -9.982740727312276
      ],
      [
        "▁तिवारी",
        -9.98286789774832
      ],
      [
        "▁निदेशक",
        -9.983140338807434
      ],
      [
        "रो",
        -9.983282701894353
      ],
      [
        "▁ज्यादातर",
        -9.983396742654076
      ],
      [
        "▁सुनील",
        -9.983522325040983
      ],
      [
        "▁राजीव",
        -9.983984169804561
      ],
      [
        "▁रि",
        -9.98439160427996
      ],
      [
        "▁हनुमान",
        -9.984455097160847
      ],
      [
        "मुझे",
        -9.985888198073571
      ],
      [
        "▁किसे",
        -9.98618595292887
      ],
      [
        "▁at",
        -9.986264206217596
      ],
      [
        "▁प्राचीन",
        -9.986400251563426
      ],
      [
        "▁हो?",
        -9.986470815552785
      ],
      [
        "▁सं",
        -9.986705072665016
      ],
      [
        "▁गुण",
        -9.987085073341806
      ],
      [
        "▁तुम्हे",
        -9.98798260710533
      ],
      [
        "▁तुमसे",
        -9.988309162575135
      ],
      [
        "ाना",
        -9.988572075613579
      ],
      [
        "▁लंदन",
        -9.989713973520747
      ],
      [
        "▁कुत्ते",
        -9.989892268439215
      ],
      [
        "▁गोद",
        -9.990954501019448
      ],
      [
        "▁स्टोरी",
        -9.99115114410177
      ],
      [
        "▁सुनाई",
        -9.991317825406966
      ],
      [
        "▁सके।",
        -9.991462558691998
      ],
      [
        "▁मासूम",
        -9.991618121960679
      ],
      [
        "▁डालकर",
        -9.991688119574768
      ],
      [
        "▁पाठक",
        -9.991762632971913
      ],
      [
        "▁प्रमाण",
        -9.992127529847814
      ],
      [
        "▁vs",
        -9.992313017960711
      ],
      [
        "पा",
        -9.992388449587185
      ],
      [
        "▁मोहन",
        -9.992419173619947
      ],
      [
        "▁बच",
        -9.993537829144849
      ],
      [
        "▁सिर्फ़",
        -9.99370787509872
      ],
      [
        "▁जाएं",
        -9.993912777316398
      ],
      [
        "▁ज़रूर",
        -9.994807615420456
      ],
      [
        "▁भरे",
        -9.994964060128137
      ],
      [
        "▁ज़िंदगी",
        -9.996361833622199
      ],
      [
        "▁सक्षम",
        -9.996462773850677
      ],
      [
        "O",
        -9.99887557938245
      ],
      [
        "▁अकबर",
        -9.999609007663537
      ],
      [
        "▁पत्रकारों",
        -10.000480300801033
      ],
      [
        "▁इस्लाम",
        -10.000592495843032
      ],
      [
        "▁ख़ास",
        -10.000930354211645
      ],
      [
        "▁अमरीका",
        -10.001001911603431
      ],
      [
        "▁प्लान",
        -10.001054920812678
      ],
      [
        "▁वास्तविकता",
        -10.001107650771543
      ],
      [
        "▁वीं",
        -10.001741353919453
      ],
      [
        "▁चलती",
        -10.002066628485844
      ],
      [
        "▁यार",
        -10.00341326226106
      ],
      [
        "▁महेंद्र",
        -10.003650659116872
      ],
      [
        "▁दास",
        -10.004701859078743
      ],
      [
        "▁हा",
        -10.004898692598676
      ],
      [
        "▁आधा",
        -10.005080239548143
      ],
      [
        "▁उ",
        -10.006392951046696
      ],
      [
        "▁सितम्बर",
        -10.007924370241597
      ],
      [
        "▁इंजन",
        -10.00809317867994
      ],
      [
        "▁ज़रूरी",
        -10.00811122444768
      ],
      [
        "▁शेर",
        -10.008423676250537
      ],
      [
        "▁धमकी",
        -10.008769302537898
      ],
      [
        "▁मुलायम",
        -10.00951247065762
      ],
      [
        "▁बाढ़",
        -10.009901573121507
      ],
      [
        "▁आरक्षण",
        -10.010670747218162
      ],
      [
        "▁गयी।",
        -10.011202076465008
      ],
      [
        "▁निशाना",
        -10.011754659825609
      ],
      [
        "▁पूछे",
        -10.011872694419827
      ],
      [
        "▁जानना",
        -10.012140718984327
      ],
      [
        "▁बादल",
        -10.01324437475003
      ],
      [
        "▁पूछ",
        -10.013586110823406
      ],
      [
        "▁गेंद",
        -10.013644220058762
      ],
      [
        "▁लेखन",
        -10.0137324675403
      ],
      [
        "▁जेटली",
        -10.013847769617144
      ],
      [
        "▁आचार्य",
        -10.013856343386152
      ],
      [
        "▁मारने",
        -10.014300473473698
      ],
      [
        "▁सोचने",
        -10.014801503092198
      ],
      [
        "▁दौड़",
        -10.015319526848742
      ],
      [
        "▁कोमल",
        -10.015511605479315
      ],
      [
        "▁ब्रिटिश",
        -10.015821185027434
      ],
      [
        "▁बनना",
        -10.01586332062666
      ],
      [
        "▁डाटा",
        -10.015867323830966
      ],
      [
        "▁रूखा",
        -10.01595895747031
      ],
      [
        "▁रूम",
        -10.016659412499699
      ],
      [
        "▁(At",
        -10.017005772282278
      ],
      [
        "K",
        -10.017485774030428
      ],
      [
        "▁मज़ा",
        -10.017597612452725
      ],
      [
        "नाथ",
        -10.017817803499966
      ],
      [
        "▁वार्षिक",
        -10.017885026836343
      ],
      [
        "▁नामक",
        -10.017969084924907
      ],
      [
        "▁जिम्मेदारी",
        -10.018165913373238
      ],
      [
        "▁संशोधन",
        -10.018786515418892
      ],
      [
        "▁स्कूलों",
        -10.019003817760932
      ],
      [
        "▁आदर्श",
        -10.019378228687273
      ],
      [
        "▁उतार",
        -10.019403195228882
      ],
      [
        "▁आलोचना",
        -10.019725600812453
      ],
      [
        "om)",
        -10.01992816593069
      ],
      [
        "▁तीसरी",
        -10.02011173909234
      ],
      [
        "▁होगी.",
        -10.020251261716254
      ],
      [
        "▁V",
        -10.020781142547794
      ],
      [
        "▁कार्यों",
        -10.020854939183968
      ],
      [
        "▁झटका",
        -10.020958431775902
      ],
      [
        "▁सच्चाई",
        -10.021918314547488
      ],
      [
        "▁यूरोप",
        -10.022777438971962
      ],
      [
        "-2",
        -10.024176592457533
      ],
      [
        "▁बेब",
        -10.024488539102974
      ],
      [
        "▁मालिक",
        -10.024784960724698
      ],
      [
        "▁लोड",
        -10.025375827023314
      ],
      [
        "▁आत्महत्या",
        -10.025679666883759
      ],
      [
        "▁पर्यटन",
        -10.026591825847245
      ],
      [
        "▁पाप",
        -10.026696953283288
      ],
      [
        "▁माल",
        -10.027023212547627
      ],
      [
        "▁लिखे",
        -10.02714967016118
      ],
      [
        "▁हरी",
        -10.027186016572045
      ],
      [
        "▁निर्माता",
        -10.027383301462573
      ],
      [
        "▁जिम्मेदार",
        -10.027433198581697
      ],
      [
        "▁अमीर",
        -10.0274927113834
      ],
      [
        "▁देखता",
        -10.027728125173887
      ],
      [
        "▁खेती",
        -10.027846524417562
      ],
      [
        "▁80",
        -10.029304938942186
      ],
      [
        "▁चेतावनी",
        -10.029323791526124
      ],
      [
        "▁मारा",
        -10.030342003582264
      ],
      [
        "▁अनुवाद",
        -10.03086387145959
      ],
      [
        "▁बोली-",
        -10.031191722959932
      ],
      [
        "▁सुनने",
        -10.031573661902614
      ],
      [
        "▁अनुसंधान",
        -10.031656641378566
      ],
      [
        "देव",
        -10.0329805148256
      ],
      [
        "▁रोल",
        -10.03330130935144
      ],
      [
        "▁घोटाले",
        -10.033668663743018
      ],
      [
        "▁खेलों",
        -10.0337163243226
      ],
      [
        "इस",
        -10.034585416727378
      ],
      [
        "▁च",
        -10.034700861361284
      ],
      [
        "▁लिखित",
        -10.035026951043744
      ],
      [
        "▁बोलने",
        -10.035671094038248
      ],
      [
        "▁प्रेरणा",
        -10.036155092139817
      ],
      [
        "T",
        -10.036684049601906
      ],
      [
        "▁धूप",
        -10.036718743666812
      ],
      [
        "कि",
        -10.036726310028978
      ],
      [
        "▁मरने",
        -10.037167790397067
      ],
      [
        "▁शिखर",
        -10.037313481690576
      ],
      [
        "▁लांच",
        -10.03772583865642
      ],
      [
        "▁कहे",
        -10.038779399983667
      ],
      [
        "▁बार-बार",
        -10.03889888551253
      ],
      [
        "▁मनोज",
        -10.039056110286465
      ],
      [
        "▁संरक्षण",
        -10.039709060232973
      ],
      [
        "▁प्रस्तुति",
        -10.040551975970128
      ],
      [
        "▁सवार",
        -10.042340344956312
      ],
      [
        "▁मौजूदा",
        -10.043048317720036
      ],
      [
        "▁ताजा",
        -10.04328347571111
      ],
      [
        "▁रेडियो",
        -10.043437877609747
      ],
      [
        "▁बीवी",
        -10.043937303731022
      ],
      [
        "टा",
        -10.044649143906497
      ],
      [
        "▁संवाद",
        -10.045249034515788
      ],
      [
        "▁राज्यसभा",
        -10.045641825440537
      ],
      [
        "▁मुकाबला",
        -10.0458957435497
      ],
      [
        "आर",
        -10.04748889001888
      ],
      [
        "w",
        -10.047490398560912
      ],
      [
        "▁L",
        -10.047591009200763
      ],
      [
        "▁नेहरू",
        -10.048290977944442
      ],
      [
        "▁श",
        -10.048888164018773
      ],
      [
        "त्",
        -10.049102150543856
      ],
      [
        "▁ओपन",
        -10.049113244000045
      ],
      [
        "।\"",
        -10.049255391985136
      ],
      [
        "▁मित्रों",
        -10.049722297825078
      ],
      [
        "▁तलाक",
        -10.04973580528636
      ],
      [
        "▁अग्रवाल",
        -10.049850891234033
      ],
      [
        "▁चक्कर",
        -10.04995376652582
      ],
      [
        "िये",
        -10.050016331110122
      ],
      [
        "▁अगली",
        -10.05018865696416
      ],
      [
        "▁more",
        -10.050367442101644
      ],
      [
        "▁एल",
        -10.050594748725473
      ],
      [
        "▁समाजवादी",
        -10.051350340199527
      ],
      [
        "▁फिलहाल",
        -10.051936562345595
      ],
      [
        "▁कोड",
        -10.05257700922052
      ],
      [
        "▁सीख",
        -10.05280138859476
      ],
      [
        "▁योग्यता",
        -10.052869736134657
      ],
      [
        "▁समुद्र",
        -10.054026707686702
      ],
      [
        "▁जियो",
        -10.05413754480951
      ],
      [
        "ड़ा",
        -10.05424689478739
      ],
      [
        "▁केन्द्रीय",
        -10.054472671022056
      ],
      [
        "▁पीड़ित",
        -10.055281449435686
      ],
      [
        "▁किनारे",
        -10.055606398384203
      ],
      [
        "▁जिनमें",
        -10.05608095608956
      ],
      [
        "▁प्रताप",
        -10.056247435445353
      ],
      [
        "P",
        -10.056612134791205
      ],
      [
        "▁विजेता",
        -10.056899749843966
      ],
      [
        "▁हद",
        -10.057274017916427
      ],
      [
        "▁इस्तीफा",
        -10.05755515862203
      ],
      [
        "▁मुद्दों",
        -10.058034992817216
      ],
      [
        "▁राफेल",
        -10.058037653237932
      ],
      [
        "▁उठाने",
        -10.058143268309877
      ],
      [
        "▁त्याग",
        -10.058275183778367
      ],
      [
        "▁बटन",
        -10.05836057464466
      ],
      [
        "▁देखी",
        -10.058447640710348
      ],
      [
        "▁मनोरंजन",
        -10.05999746994786
      ],
      [
        "▁गो",
        -10.06001864176871
      ],
      [
        "▁स्वतंत्र",
        -10.061408235447686
      ],
      [
        "▁जज",
        -10.061578538487236
      ],
      [
        "▁ब्रांड",
        -10.061664413982125
      ],
      [
        "▁कार्यकर्ता",
        -10.062063474605036
      ],
      [
        "मुख्यपृष्ठ",
        -10.062514548995333
      ],
      [
        "▁अधिसूचना",
        -10.062812423969653
      ],
      [
        "▁दीवार",
        -10.063037739084166
      ],
      [
        "वार",
        -10.063200925878924
      ],
      [
        "▁वाजपेयी",
        -10.064220534738809
      ],
      [
        "▁रफ्तार",
        -10.064220545182668
      ],
      [
        "▁लागत",
        -10.064524504074985
      ],
      [
        "▁कार्यकर्ताओं",
        -10.064563186005316
      ],
      [
        "टे",
        -10.066687462316928
      ],
      [
        "▁गोरखपुर",
        -10.067266923477384
      ],
      [
        "▁धीरे-धीरे",
        -10.068365640788663
      ],
      [
        "▁चलाने",
        -10.068462293062698
      ],
      [
        "▁हूं.",
        -10.068545282869962
      ],
      [
        "▁बढ़ावा",
        -10.068615083318083
      ],
      [
        "ष",
        -10.069096148525087
      ],
      [
        "▁अकाउंट",
        -10.06991714161408
      ],
      [
        "▁मेट्रो",
        -10.070265188701725
      ],
      [
        "▁Image",
        -10.070275257211389
      ],
      [
        "▁भरपूर",
        -10.070492831661884
      ],
      [
        "▁रो",
        -10.07049711813486
      ],
      [
        "▁शूटिंग",
        -10.070538789621018
      ],
      [
        "▁छत",
        -10.070651172965334
      ],
      [
        "▁भला",
        -10.070815580470548
      ],
      [
        "▁दुआ",
        -10.070984087899477
      ],
      [
        "▁November",
        -10.071080367161528
      ],
      [
        "▁उड़",
        -10.072013828379934
      ],
      [
        "▁धो",
        -10.072052639449092
      ],
      [
        "▁cumshot",
        -10.072527952425158
      ],
      [
        "▁वर्णन",
        -10.073337839183342
      ],
      [
        "ेश",
        -10.07438826605136
      ],
      [
        "▁नुस्खे",
        -10.074616092158085
      ],
      [
        "▁आकाश",
        -10.075910385348017
      ],
      [
        "s:",
        -10.076223378445999
      ],
      [
        "▁मूर्ति",
        -10.076303863530296
      ],
      [
        "▁सीधा",
        -10.076859028278871
      ],
      [
        "िस",
        -10.076867701967373
      ],
      [
        "ां",
        -10.077570802522914
      ],
      [
        "▁बीमार",
        -10.07882881948085
      ],
      [
        "le",
        -10.079021392262199
      ],
      [
        "▁डिजाइन",
        -10.079270814260287
      ],
      [
        "ति",
        -10.07985214168616
      ],
      [
        "▁आतंकवाद",
        -10.080367771176178
      ],
      [
        "▁कहा।",
        -10.080426893164653
      ],
      [
        "▁बिंदु",
        -10.080934288785555
      ],
      [
        "▁वाह",
        -10.081576869489991
      ],
      [
        "▁छात्रा",
        -10.08181964028299
      ],
      [
        "▁शक",
        -10.082263180199302
      ],
      [
        "▁गईं",
        -10.082607431875019
      ],
      [
        "जन",
        -10.082693597272197
      ],
      [
        "▁शिक्षकों",
        -10.082839178517101
      ],
      [
        "▁CM",
        -10.082966406822656
      ],
      [
        "▁बरामद",
        -10.083010892058898
      ],
      [
        "▁ख़त्म",
        -10.083013734015186
      ],
      [
        "▁अधिनियम",
        -10.083097846751029
      ],
      [
        "▁तत्व",
        -10.083203181102117
      ],
      [
        "▁32",
        -10.083263584031478
      ],
      [
        "▁कथन",
        -10.083541986033701
      ],
      [
        "x",
        -10.084745352406575
      ],
      [
        "▁प्रोग्राम",
        -10.084844722999078
      ],
      [
        "▁रहीं",
        -10.085226363311552
      ],
      [
        "▁चाँद",
        -10.085909103630115
      ],
      [
        "▁जरुर",
        -10.086118308289855
      ],
      [
        "▁संदर्भ",
        -10.086297030926703
      ],
      [
        "▁वास्तविक",
        -10.086427478887721
      ],
      [
        "▁यहीं",
        -10.086985586961639
      ],
      [
        "▁बिस्तर",
        -10.087116284544983
      ],
      [
        "ंड",
        -10.088790196549759
      ],
      [
        "▁मुसलमान",
        -10.089036236200684
      ],
      [
        "on",
        -10.089217932752032
      ],
      [
        "▁मुक्ति",
        -10.089263297779834
      ],
      [
        "▁IPL",
        -10.089347810083163
      ],
      [
        "▁कैमरे",
        -10.089494204051274
      ],
      [
        "▁आबादी",
        -10.089556290033798
      ],
      [
        "▁दलों",
        -10.090287146411157
      ],
      [
        "▁पार्क",
        -10.090537440193081
      ],
      [
        "▁पत्रकारिता",
        -10.09082273715747
      ],
      [
        "▁चाह",
        -10.09193444594685
      ],
      [
        "▁रहेंगे",
        -10.091988598678316
      ],
      [
        "▁श्रृंखला",
        -10.092152344973972
      ],
      [
        "▁अदा",
        -10.09286919874525
      ],
      [
        "▁ज्योतिष",
        -10.09301528880249
      ],
      [
        "▁चोपड़ा",
        -10.093603473662274
      ],
      [
        "▁रोटी",
        -10.093712718625074
      ],
      [
        "▁लगेगा",
        -10.093790302687902
      ],
      [
        "▁पदार्थ",
        -10.094490532750473
      ],
      [
        "▁पोर्न",
        -10.095256835390263
      ],
      [
        "स्ट",
        -10.095445528558436
      ],
      [
        "▁योनि",
        -10.095891139043616
      ],
      [
        "▁स्मृति",
        -10.095893027654913
      ],
      [
        "पूर्ण",
        -10.09745378744989
      ],
      [
        "▁बेस्ट",
        -10.09764740302245
      ],
      [
        "▁सिद्ध",
        -10.097747313871725
      ],
      [
        "▁रिसर्च",
        -10.097872688088948
      ],
      [
        "▁सिन्हा",
        -10.097876530319397
      ],
      [
        "▁टिप्पणियाँ",
        -10.097884176366602
      ],
      [
        "▁लाइक",
        -10.098202585068275
      ],
      [
        "▁sex",
        -10.098330835602756
      ],
      [
        "▁सीजन",
        -10.098412387843027
      ],
      [
        "▁मुसलमानों",
        -10.098700864667121
      ],
      [
        "▁शुभकामनाएं",
        -10.099374058803335
      ],
      [
        "▁गये।",
        -10.099797089075011
      ],
      [
        "▁बढ़ते",
        -10.100398976714242
      ],
      [
        "▁जड़",
        -10.100790026586548
      ],
      [
        "▁प्रदूषण",
        -10.100866947471857
      ],
      [
        "▁दिखने",
        -10.101273212778395
      ],
      [
        "▁सहारा",
        -10.101570024017617
      ],
      [
        "▁दोबारा",
        -10.103450690587572
      ],
      [
        "▁तमिलनाडु",
        -10.104209671370114
      ],
      [
        "▁यूं",
        -10.104593952799156
      ],
      [
        "▁हजारों",
        -10.10527400875938
      ],
      [
        "▁App",
        -10.105334448962719
      ],
      [
        "▁दीपिका",
        -10.106423164947543
      ],
      [
        "▁चीज़",
        -10.106460931540624
      ],
      [
        "▁प्लास्टिक",
        -10.106525303873077
      ],
      [
        "▁पड़ेगा",
        -10.106826383188647
      ],
      [
        "--",
        -10.107195874475632
      ],
      [
        "▁(8)",
        -10.107516310215933
      ],
      [
        "▁दरअसल",
        -10.10753731412489
      ],
      [
        "▁दुर्घटना",
        -10.10775130817478
      ],
      [
        "▁दिल्ली:",
        -10.108836497671653
      ],
      [
        "काल",
        -10.108930773032938
      ],
      [
        "▁9.",
        -10.109141567232287
      ],
      [
        "▁एक्सप्रेस",
        -10.109699906250075
      ],
      [
        "▁रोशनी",
        -10.110029361593408
      ],
      [
        "▁न्यायाधीश",
        -10.11079328602726
      ],
      [
        "▁मुंडा",
        -10.110825373694345
      ],
      [
        "▁सम्बंधित",
        -10.110847414968202
      ],
      [
        "वाला",
        -10.111214057781622
      ],
      [
        "▁टक्कर",
        -10.111428882162798
      ],
      [
        "▁फसल",
        -10.112244007486979
      ],
      [
        "▁सेंटर",
        -10.112588514691323
      ],
      [
        "▁पर्याप्त",
        -10.11297336631489
      ],
      [
        "▁कहा...",
        -10.113654063522457
      ],
      [
        "▁हस्ताक्षर",
        -10.114569954817021
      ],
      [
        "▁समर्पित",
        -10.115133779148293
      ],
      [
        "▁कौशल",
        -10.115490694564663
      ],
      [
        "▁मनोहर",
        -10.115502078281416
      ],
      [
        "रू",
        -10.115935919827715
      ],
      [
        "▁ग्राहकों",
        -10.116285636341695
      ],
      [
        "▁जानती",
        -10.116752827725765
      ],
      [
        "▁लुक",
        -10.116905747749513
      ],
      [
        "▁मंगल",
        -10.117185568340822
      ],
      [
        "▁जिंदा",
        -10.117311015061379
      ],
      [
        "मेंट",
        -10.11793517159857
      ],
      [
        "▁अनु",
        -10.11843116237457
      ],
      [
        "▁दशक",
        -10.1188145053017
      ],
      [
        "▁जुड़ा",
        -10.12044877588627
      ],
      [
        "▁खिलौने,",
        -10.12075105365776
      ],
      [
        "ॉ",
        -10.12080377846521
      ],
      [
        "▁मांगी",
        -10.121724814052673
      ],
      [
        "▁आमिर",
        -10.121849994356355
      ],
      [
        "W",
        -10.121872337871462
      ],
      [
        "▁कृपा",
        -10.12329468539242
      ],
      [
        "▁छवि",
        -10.123764273052348
      ],
      [
        "▁कैबिनेट",
        -10.124730604450246
      ],
      [
        "▁मोहब्बत",
        -10.125321377019025
      ],
      [
        "▁ग़ज़ल",
        -10.125529031744637
      ],
      [
        "।’’",
        -10.126223401157757
      ],
      [
        "▁पाता",
        -10.127143469110852
      ],
      [
        "en",
        -10.127196842337366
      ],
      [
        "▁सहमत",
        -10.12748337927341
      ],
      [
        "▁चाहिए,",
        -10.128460917469951
      ],
      [
        "I",
        -10.128469773381536
      ],
      [
        "▁चमक",
        -10.129618904456377
      ],
      [
        "छ",
        -10.13026393233965
      ],
      [
        "▁मैने",
        -10.130475196750904
      ],
      [
        "▁हथियार",
        -10.130619975164041
      ],
      [
        "▁ज्",
        -10.13171400466637
      ],
      [
        "▁सिनेमा",
        -10.131856843129988
      ],
      [
        "▁शाहरुख",
        -10.131915755267187
      ],
      [
        "शा",
        -10.131959547104064
      ],
      [
        "▁शोषण",
        -10.13230007805073
      ],
      [
        "▁द्वार",
        -10.132601469085394
      ],
      [
        "▁अनुरोध",
        -10.132696471699212
      ],
      [
        "▁बनता",
        -10.132876932777101
      ],
      [
        "▁फाइल",
        -10.132880232569402
      ],
      [
        "▁हमे",
        -10.133046979613015
      ],
      [
        "▁पहल",
        -10.133240918918027
      ],
      [
        "G",
        -10.133923993192454
      ],
      [
        "▁निर्वाचन",
        -10.134190684401224
      ],
      [
        "▁दौरा",
        -10.134365439098055
      ],
      [
        "▁बढ़ी",
        -10.134410030707258
      ],
      [
        "नि",
        -10.134425805430716
      ],
      [
        "▁बीते",
        -10.134463033864407
      ],
      [
        "▁प्रावधान",
        -10.134914577432125
      ],
      [
        "▁किस्मत",
        -10.135302933155721
      ],
      [
        "▁प्राथमिक",
        -10.136724436476428
      ],
      [
        "▁ईरान",
        -10.136957483391772
      ],
      [
        "▁गुजर",
        -10.13737258322385
      ],
      [
        "▁स्वरूप",
        -10.137743318014412
      ],
      [
        "▁प्लस",
        -10.138302544642706
      ],
      [
        "▁स्मार्ट",
        -10.138428950594896
      ],
      [
        "E",
        -10.138478845994324
      ],
      [
        "▁फ़ेसबुक",
        -10.139363139338595
      ],
      [
        "▁मासिक",
        -10.139411518126144
      ],
      [
        "▁रवि",
        -10.139816931920684
      ],
      [
        "▁शास्त्री",
        -10.139895865249695
      ],
      [
        "▁वै",
        -10.140286642910809
      ],
      [
        "▁सक्रिय",
        -10.140476501798295
      ],
      [
        "▁तीनों",
        -10.14079560387836
      ],
      [
        "▁वकील",
        -10.140941829835427
      ],
      [
        "▁प्राप्ति",
        -10.1410791266449
      ],
      [
        "▁दिवसीय",
        -10.141104943754359
      ],
      [
        "▁नारी",
        -10.14133010010746
      ],
      [
        "▁भरने",
        -10.141448938252756
      ],
      [
        "▁लॉग",
        -10.141658506880464
      ],
      [
        "▁8.",
        -10.142118539744926
      ],
      [
        "▁सन्",
        -10.142479487722587
      ],
      [
        "▁निकाला",
        -10.142533097597774
      ],
      [
        "▁चुनावी",
        -10.142773740316258
      ],
      [
        "▁दुःख",
        -10.142910233607413
      ],
      [
        "▁मिर्च",
        -10.143337353015156
      ],
      [
        "▁नींबू",
        -10.143411085881851
      ],
      [
        "▁समझते",
        -10.143960262914906
      ],
      [
        "▁ट्रक",
        -10.14492403541579
      ],
      [
        "▁मा",
        -10.145472660941333
      ],
      [
        "▁विद्यालय",
        -10.145772868706166
      ],
      [
        "▁अनमोल",
        -10.146076977586183
      ],
      [
        "▁अखबार",
        -10.14627573203912
      ],
      [
        "▁जोड़",
        -10.14655893122086
      ],
      [
        "▁निकलने",
        -10.146570991021637
      ],
      [
        "▁नष्ट",
        -10.146755636716918
      ],
      [
        "▁भारती",
        -10.147241238649771
      ],
      [
        "▁इधर",
        -10.14757930396908
      ],
      [
        "▁स्कोर",
        -10.148333091313798
      ],
      [
        "▁इसीलिए",
        -10.148702698529775
      ],
      [
        "▁निर्भर",
        -10.149456119759854
      ],
      [
        "▁सरदार",
        -10.149721723191146
      ],
      [
        "ंट",
        -10.149921496712189
      ],
      [
        "▁रहस्य",
        -10.149933248661284
      ],
      [
        "▁लीग",
        -10.150159279414536
      ],
      [
        "▁एहसास",
        -10.150574017625262
      ],
      [
        "▁शुद्ध",
        -10.15063270762021
      ],
      [
        "▁तर्क",
        -10.150644702509698
      ],
      [
        "▁सड़कों",
        -10.150985519415718
      ],
      [
        "ेट",
        -10.151311786137537
      ],
      [
        "▁हैं!",
        -10.151362746931447
      ],
      [
        "▁अंदाज",
        -10.15173177231059
      ],
      [
        "तो",
        -10.152024811947193
      ],
      [
        "▁सोनिया",
        -10.152492078216252
      ],
      [
        "▁अनिवार्य",
        -10.152787617338289
      ],
      [
        "▁राकेश",
        -10.152835684424584
      ],
      [
        "▁मायावती",
        -10.152839777284203
      ],
      [
        "▁ऑन",
        -10.153623298524524
      ],
      [
        "▁सेवाओं",
        -10.15480334536438
      ],
      [
        "▁45",
        -10.155546077150706
      ],
      [
        "▁किन्तु",
        -10.155627593008193
      ],
      [
        "india",
        -10.155841522024716
      ],
      [
        "▁खुला",
        -10.156617961094643
      ],
      [
        "▁करेगा।",
        -10.1575887787607
      ],
      [
        "▁May",
        -10.157613451566906
      ],
      [
        "▁दबा",
        -10.158066999751941
      ],
      [
        "▁पवित्र",
        -10.158625628745114
      ],
      [
        "▁छोड़ने",
        -10.159227450011677
      ],
      [
        "▁छुटकारा",
        -10.159635281790894
      ],
      [
        "▁कथित",
        -10.159649705676639
      ],
      [
        "▁नोटिफिकेशन",
        -10.159707209380219
      ],
      [
        "▁बदमाश",
        -10.160518457158506
      ],
      [
        "▁कमाल",
        -10.160809703780398
      ],
      [
        "▁फर्क",
        -10.162194182913204
      ],
      [
        "▁हेल्थ",
        -10.162305745718648
      ],
      [
        "▁बरस",
        -10.162520255322363
      ],
      [
        "▁इंतज़ार",
        -10.162637909248515
      ],
      [
        "▁ऑटो",
        -10.162941226874999
      ],
      [
        "▁आस",
        -10.163228717395846
      ],
      [
        "▁विडियो",
        -10.16328175158371
      ],
      [
        "▁इंटरनेशनल",
        -10.163285363792227
      ],
      [
        "▁अधिकतम",
        -10.1642012961832
      ],
      [
        "▁नशे",
        -10.16421333964798
      ],
      [
        "▁घड़ी",
        -10.164224887772635
      ],
      [
        "▁अफेयर्स",
        -10.16430968462521
      ],
      [
        "▁पोल",
        -10.164310139608157
      ],
      [
        "▁घाट",
        -10.164379341298343
      ],
      [
        "▁आतंकियों",
        -10.164388635096717
      ],
      [
        "▁ख़ुशी",
        -10.16500266873802
      ],
      [
        "▁कौनसा",
        -10.165164155067067
      ],
      [
        "▁अभिव्यक्ति",
        -10.165941003347747
      ],
      [
        "▁लड़",
        -10.166549764867124
      ],
      [
        "▁प्रकट",
        -10.167344385885311
      ],
      [
        "▁वायु",
        -10.168422082088913
      ],
      [
        "▁वरना",
        -10.168472109922625
      ],
      [
        "▁चक्र",
        -10.168655445176315
      ],
      [
        "▁मिश्रण",
        -10.168933597875242
      ],
      [
        "▁फॉर्म",
        -10.16895659692941
      ],
      [
        "▁सन",
        -10.169017522177997
      ],
      [
        "प्",
        -10.169069241188318
      ],
      [
        "▁देगी",
        -10.16932115376735
      ],
      [
        "बल",
        -10.169436591343397
      ],
      [
        "मे",
        -10.170054956958154
      ],
      [
        "▁मोड",
        -10.170338604591326
      ],
      [
        "लाल",
        -10.170565066510198
      ],
      [
        "▁वादा",
        -10.170803708233136
      ],
      [
        "▁माता-पिता",
        -10.171083349712614
      ],
      [
        "▁रिश्ता",
        -10.17114649350323
      ],
      [
        "▁पूछा,",
        -10.171388796421759
      ],
      [
        "िव",
        -10.171857444938361
      ],
      [
        "▁अंबानी",
        -10.171987984838312
      ],
      [
        "▁संकल्प",
        -10.17275145882479
      ],
      [
        "▁हल्के",
        -10.173403739035562
      ],
      [
        "▁गेम",
        -10.173524228339854
      ],
      [
        "▁पावर",
        -10.173702377385982
      ],
      [
        "कुछ",
        -10.174427667734179
      ],
      [
        "▁तारीफ",
        -10.175510733616068
      ],
      [
        "Label",
        -10.175832489948991
      ],
      [
        "▁पंडित",
        -10.175956819021277
      ],
      [
        "▁न्यू",
        -10.17668385642416
      ],
      [
        "▁सुषमा",
        -10.176914958756257
      ],
      [
        "▁कार्टून",
        -10.177213908947785
      ],
      [
        "▁निकालने",
        -10.17766315654892
      ],
      [
        "▁रिजल्ट",
        -10.178039737183754
      ],
      [
        "गे",
        -10.17818433536814
      ],
      [
        "▁प्रकाशन",
        -10.178679652683446
      ],
      [
        "ल्",
        -10.178690921480193
      ],
      [
        "▁टाइम्स",
        -10.179313574866224
      ],
      [
        "▁90",
        -10.179343584728567
      ],
      [
        "▁नहीं.",
        -10.179706315739399
      ],
      [
        "▁राव",
        -10.180718138552658
      ],
      [
        "दर",
        -10.181135858706465
      ],
      [
        "ur",
        -10.181145786319359
      ],
      [
        "’’",
        -10.181690287025393
      ],
      [
        "ार",
        -10.181888607792033
      ],
      [
        "▁दिवाली",
        -10.18233123428298
      ],
      [
        "▁अंतरिक्ष",
        -10.18263781081307
      ],
      [
        "▁बैटरी",
        -10.182678287648248
      ],
      [
        "▁स्पेशल",
        -10.183142350854624
      ],
      [
        "▁गायब",
        -10.183242049905278
      ],
      [
        "▁उधर",
        -10.18388239567049
      ],
      [
        "▁प्रतिभा",
        -10.18402664985033
      ],
      [
        "▁पार्टनर",
        -10.184234561285168
      ],
      [
        "▁विवेक",
        -10.18511626633801
      ],
      [
        "▁जाएँ",
        -10.18641491599957
      ],
      [
        "▁इमरान",
        -10.186549586987198
      ],
      [
        "▁ऐतिहासिक",
        -10.186879169858992
      ],
      [
        "▁स्थानों",
        -10.187581209579376
      ],
      [
        "▁किरण",
        -10.187620191880505
      ],
      [
        "▁परंपरा",
        -10.1890923770991
      ],
      [
        "▁यूरोपीय",
        -10.189727852279702
      ],
      [
        "▁कपड़ा",
        -10.189828208655138
      ],
      [
        "▁क्यूँ",
        -10.189923350460187
      ],
      [
        "▁बंधन",
        -10.190520884143053
      ],
      [
        "▁जोशी",
        -10.190635148371838
      ],
      [
        "▁पड़ती",
        -10.19065513672346
      ],
      [
        "▁थीम",
        -10.191207607083495
      ],
      [
        "रिया",
        -10.191212577816081
      ],
      [
        "▁चुना",
        -10.191398006577634
      ],
      [
        "▁देखिये",
        -10.191451283492238
      ],
      [
        "▁T",
        -10.19149454346007
      ],
      [
        "▁हिम्मत",
        -10.19184004143716
      ],
      [
        "▁नियमों",
        -10.191996254774775
      ],
      [
        "▁समझौते",
        -10.192006978044002
      ],
      [
        "▁मु",
        -10.19237480130033
      ],
      [
        "▁न्यूनतम",
        -10.192941298990151
      ],
      [
        "नगर",
        -10.193265876529605
      ],
      [
        "▁ठाकुर",
        -10.19339000762599
      ],
      [
        "▁300",
        -10.19351782092239
      ],
      [
        "▁उन्",
        -10.19355961508155
      ],
      [
        "▁धातु",
        -10.193722080275371
      ],
      [
        "▁संबोधित",
        -10.194359794751877
      ],
      [
        "फ़ाइल",
        -10.194401133152748
      ],
      [
        "▁शतक",
        -10.194712291609669
      ],
      [
        "त्रियों",
        -10.194753286159433
      ],
      [
        "▁लाया",
        -10.194849656360304
      ],
      [
        "▁जायेंगे",
        -10.195900692779992
      ],
      [
        "▁बुक",
        -10.196001321893629
      ],
      [
        "▁प्रेमी",
        -10.196091945315608
      ],
      [
        "▁स्टील",
        -10.196719658625398
      ],
      [
        "▁नि",
        -10.197609665620334
      ],
      [
        "▁December",
        -10.197636478843545
      ],
      [
        "गत",
        -10.197930635077297
      ],
      [
        "रि",
        -10.198208126361699
      ],
      [
        "▁आशंका",
        -10.19912127382379
      ],
      [
        "▁अतः",
        -10.199279902814332
      ],
      [
        "▁बैंकिंग",
        -10.199314508451657
      ],
      [
        "▁पाना",
        -10.199614416030453
      ],
      [
        "म्",
        -10.200511719936404
      ],
      [
        "▁दुर्गा",
        -10.200537087343278
      ],
      [
        "▁क्रीम",
        -10.200634345931583
      ],
      [
        "):",
        -10.200992678526621
      ],
      [
        "▁क्रांति",
        -10.201163915939865
      ],
      [
        "▁पिछली",
        -10.201187225785379
      ],
      [
        "▁जितनी",
        -10.20150594798211
      ],
      [
        "वादी",
        -10.2030308708045
      ],
      [
        "L",
        -10.203447892661671
      ],
      [
        "▁ब्लैक",
        -10.20354796598521
      ],
      [
        "▁गोवा",
        -10.20419479483838
      ],
      [
        "▁स्वाद",
        -10.204361638486832
      ],
      [
        "यू",
        -10.2045926417075
      ],
      [
        "▁प्रवक्ता",
        -10.20472295903995
      ],
      [
        "▁कट",
        -10.204885450921772
      ],
      [
        "▁NEWS",
        -10.206094973740615
      ],
      [
        "▁हड़ताल",
        -10.206208342226265
      ],
      [
        "▁पहुंचने",
        -10.20627464612365
      ],
      [
        "▁रनों",
        -10.206570102567639
      ],
      [
        "▁पागल",
        -10.206803383918583
      ],
      [
        "▁am",
        -10.206921672395737
      ],
      [
        "▁यात्री",
        -10.207508221727458
      ],
      [
        "▁चाट",
        -10.207529407262303
      ],
      [
        "▁अस्तित्व",
        -10.208623316056865
      ],
      [
        "▁यानि",
        -10.20934922434623
      ],
      [
        "▁जंग",
        -10.20939801912148
      ],
      [
        "▁अन्ना",
        -10.209601141342233
      ],
      [
        "▁आयी",
        -10.209839820314048
      ],
      [
        "▁अर्जुन",
        -10.21015142020389
      ],
      [
        "▁सोना",
        -10.210903196099226
      ],
      [
        "वन",
        -10.211825647376061
      ],
      [
        "▁Quote",
        -10.212805125918035
      ],
      [
        "▁कमल",
        -10.213127306571494
      ],
      [
        "▁ट्रेलर",
        -10.213388945910488
      ],
      [
        "▁कबीर",
        -10.213520276183765
      ],
      [
        "▁परिजनों",
        -10.214206881728314
      ],
      [
        "▁बोतल",
        -10.214481323040461
      ],
      [
        "▁योजनाओं",
        -10.215656662827296
      ],
      [
        "▁नवम्बर",
        -10.215688943735982
      ],
      [
        "▁लव",
        -10.216173138994872
      ],
      [
        "▁H",
        -10.216556594530292
      ],
      [
        "▁दिसम्बर",
        -10.216696016480507
      ],
      [
        "▁बढ़ता",
        -10.217442800098823
      ],
      [
        "M",
        -10.217447074308035
      ],
      [
        "re",
        -10.217809031030905
      ],
      [
        "-1",
        -10.218155965431109
      ],
      [
        "▁समझौता",
        -10.218199044008408
      ],
      [
        "कल",
        -10.218671279609747
      ],
      [
        "▁कानूनी",
        -10.219532161343196
      ],
      [
        "▁संगठनों",
        -10.220085956457865
      ],
      [
        "▁अनुमान",
        -10.220393281891445
      ],
      [
        "▁एकल",
        -10.220429477502314
      ],
      [
        "▁दिल्ली,",
        -10.220458036439567
      ],
      [
        "▁Story",
        -10.220623866612133
      ],
      [
        "▁किलो",
        -10.220818194139625
      ],
      [
        "▁भूकंप",
        -10.22138413950432
      ],
      [
        "▁नमस्कार",
        -10.221696446565325
      ],
      [
        "▁सकता।",
        -10.2217618350572
      ],
      [
        "▁सेक्टर",
        -10.221924263073035
      ],
      [
        "▁नेपाल",
        -10.22223657155417
      ],
      [
        "▁चुने",
        -10.22231437697549
      ],
      [
        "▁1,",
        -10.22266814002235
      ],
      [
        "▁माने",
        -10.22280002931442
      ],
      [
        "ar",
        -10.223220385984384
      ],
      [
        "▁पढ़ें:",
        -10.223261341512417
      ],
      [
        "▁गुस्सा",
        -10.22436649403533
      ],
      [
        "▁फैला",
        -10.224437079989446
      ],
      [
        "▁अहमद",
        -10.224588304865694
      ],
      [
        "▁स्वर",
        -10.225064977815386
      ],
      [
        "f",
        -10.225317838375602
      ],
      [
        "▁cap",
        -10.225490834909817
      ],
      [
        "▁(a)",
        -10.225670373175685
      ],
      [
        "▁पशु",
        -10.22570554680626
      ],
      [
        "▁रखें।",
        -10.226621488189119
      ],
      [
        "▁व्यापक",
        -10.226773709965759
      ],
      [
        "वो",
        -10.227323925759858
      ],
      [
        "▁खतरे",
        -10.227896703658148
      ],
      [
        "▁रखकर",
        -10.227982003378402
      ],
      [
        "▁जिनका",
        -10.228318182753311
      ],
      [
        "▁संस्कार",
        -10.228443004436741
      ],
      [
        "▁मुताबिक,",
        -10.228830534808207
      ],
      [
        "▁वाराणसी",
        -10.229359193306024
      ],
      [
        "▁जिसमे",
        -10.229641018620846
      ],
      [
        "▁मास्टर",
        -10.229666050146715
      ],
      [
        "▁लगे।",
        -10.2299205120605
      ],
      [
        "▁है;",
        -10.230066706908833
      ],
      [
        "▁बिजनेस",
        -10.230301674868954
      ],
      [
        "▁झलक",
        -10.230448066469274
      ],
      [
        "▁फिल्में",
        -10.230788911293626
      ],
      [
        "▁सैनिक",
        -10.231002962086677
      ],
      [
        "▁मारी",
        -10.232141398840202
      ],
      [
        "▁करार",
        -10.232250830355948
      ],
      [
        "▁छोड़ा",
        -10.232868978153007
      ],
      [
        "▁दिया,",
        -10.233359863325393
      ],
      [
        "▁कोच",
        -10.233970233087454
      ],
      [
        "▁जाएंगे।",
        -10.234589738647962
      ],
      [
        "▁निकला",
        -10.236144176335948
      ],
      [
        ",000",
        -10.23649435808625
      ],
      [
        "▁पकड़ा",
        -10.236937776067077
      ],
      [
        "▁सकारात्मक",
        -10.237398881588696
      ],
      [
        "▁डालने",
        -10.237678167305841
      ],
      [
        "▁उच्चारण",
        -10.237688006041068
      ],
      [
        "▁अमरीकी",
        -10.237688551894372
      ],
      [
        "......",
        -10.237788131069863
      ],
      [
        "▁पूर्वी",
        -10.237857025682132
      ],
      [
        "▁बि",
        -10.237956326851933
      ],
      [
        "▁क्या?",
        -10.238152409014655
      ],
      [
        "▁UP",
        -10.239105596749653
      ],
      [
        "▁भा",
        -10.239779330303659
      ],
      [
        "▁झा",
        -10.239982225824916
      ],
      [
        "▁प्रिंट",
        -10.240014355692207
      ],
      [
        "▁नागरिकों",
        -10.240067951740462
      ],
      [
        "ेन्द्र",
        -10.240155394083281
      ],
      [
        "ेश्वर",
        -10.2403231973325
      ],
      [
        "▁इनकार",
        -10.240364057525104
      ],
      [
        "▁डबल",
        -10.240477967060915
      ],
      [
        "क्ष",
        -10.24109601044266
      ],
      [
        "▁लेट",
        -10.24119190489192
      ],
      [
        "▁जीते",
        -10.241284519968527
      ],
      [
        "▁मचा",
        -10.241312391167092
      ],
      [
        "Yogi",
        -10.242620037805558
      ],
      [
        "सिंह",
        -10.24314810209197
      ],
      [
        "▁गीता",
        -10.24455683520247
      ],
      [
        "▁MP",
        -10.245255177078931
      ],
      [
        "ka",
        -10.245459605977846
      ],
      [
        "1.",
        -10.246054621008273
      ],
      [
        "यें",
        -10.24645856082299
      ],
      [
        "▁टू",
        -10.246844228864134
      ],
      [
        "▁सर्वोच्च",
        -10.247578674434886
      ],
      [
        "▁मध्यम",
        -10.247587254459651
      ],
      [
        "▁डी.",
        -10.247774285633792
      ],
      [
        "▁मैचों",
        -10.249047277537038
      ],
      [
        "▁हराया",
        -10.24916332314067
      ],
      [
        "▁चैट",
        -10.249844530912954
      ],
      [
        "▁विधान",
        -10.249856236635212
      ],
      [
        "▁is",
        -10.250702393717946
      ],
      [
        "▁खुली",
        -10.250802313801202
      ],
      [
        "▁हंस",
        -10.251219542654075
      ],
      [
        "▁करोड़ों",
        -10.251376583312886
      ],
      [
        "ेड",
        -10.251670079597126
      ],
      [
        "▁है....",
        -10.252586022286309
      ],
      [
        "▁O",
        -10.252980290915989
      ],
      [
        "▁हुआ.",
        -10.253388148670993
      ],
      [
        "आई",
        -10.253462423851758
      ],
      [
        "▁विस्तृत",
        -10.253705261568772
      ],
      [
        "▁किरदार",
        -10.255084522210122
      ],
      [
        "▁विषयों",
        -10.255439415154033
      ],
      [
        "▁साप्ताहिक",
        -10.255678517805123
      ],
      [
        "▁प्रबंधक",
        -10.255729443949258
      ],
      [
        "▁01",
        -10.256617235367003
      ],
      [
        "▁मिलेगा।",
        -10.257028903697911
      ],
      [
        "12",
        -10.257069187848167
      ],
      [
        "▁थीं.",
        -10.257162659075135
      ],
      [
        "▁सेल",
        -10.257587465195865
      ],
      [
        "▁तरफ़",
        -10.257882157302351
      ],
      [
        "▁करें:",
        -10.25953749600632
      ],
      [
        "▁मंडल",
        -10.259845829430308
      ],
      [
        "▁ज़ूबी",
        -10.26007726470418
      ],
      [
        "▁बताई",
        -10.260769940568741
      ],
      [
        "पाल",
        -10.261120677247483
      ],
      [
        "▁September",
        -10.26123276425523
      ],
      [
        "▁सुरेश",
        -10.262627343169132
      ],
      [
        "▁आगामी",
        -10.26277866998642
      ],
      [
        "▁सुनहरे",
        -10.262878171339736
      ],
      [
        "▁स्व",
        -10.26320978837278
      ],
      [
        "लो",
        -10.263219428724215
      ],
      [
        "▁मम्मी",
        -10.263483877371156
      ],
      [
        "▁डांस",
        -10.263519663623892
      ],
      [
        "▁खींच",
        -10.263714458999953
      ],
      [
        "▁यकीन",
        -10.263896433910798
      ],
      [
        "▁लेंगे",
        -10.265020278839405
      ],
      [
        "▁गिरा",
        -10.26502579390378
      ],
      [
        "▁गहरी",
        -10.265148619886782
      ],
      [
        "▁समस्त",
        -10.265362876667307
      ],
      [
        "▁संबंधों",
        -10.265411990994892
      ],
      [
        "रूप",
        -10.26563257044562
      ],
      [
        "▁छा",
        -10.266294462884355
      ],
      [
        "▁आएगा",
        -10.267145012947584
      ],
      [
        "▁इलाहाबाद",
        -10.267145809204036
      ],
      [
        "▁सोचते",
        -10.267360437247447
      ],
      [
        "▁How",
        -10.267478431388476
      ],
      [
        "▁शायरी",
        -10.267538724185412
      ],
      [
        "▁लगाते",
        -10.267969215142685
      ],
      [
        "▁लेबल",
        -10.268324188971008
      ],
      [
        "▁गाना",
        -10.268407648961588
      ],
      [
        "▁नकली",
        -10.268899557818207
      ],
      [
        "▁निवासी",
        -10.26977594458629
      ],
      [
        "▁(b)",
        -10.270196345283065
      ],
      [
        "▁जरुरी",
        -10.270548668581643
      ],
      [
        "▁संचार",
        -10.270777692145256
      ],
      [
        "▁सहज",
        -10.271598762421625
      ],
      [
        "▁गोल्ड",
        -10.271675648808182
      ],
      [
        "▁प्रसन्न",
        -10.271740314205477
      ],
      [
        "▁आपूर्ति",
        -10.272815006400709
      ],
      [
        "▁घी",
        -10.272920860537436
      ],
      [
        "▁—",
        -10.272946957971385
      ],
      [
        "▁आँख",
        -10.272968209584711
      ],
      [
        "▁घरों",
        -10.273374339709576
      ],
      [
        "ेंगे",
        -10.27349985434671
      ],
      [
        "▁विधेयक",
        -10.273546353161269
      ],
      [
        "▁घटनाओं",
        -10.274111294074583
[...]
