{
  "version": "1.0",
  "truncation": null,
  "padding": null,
  "added_tokens": [
    {
      "id": 0,
      "content": "[UNK]",
      "single_word": false,
      "lstrip": false,
      "rstrip": false,
      "normalized": false,
      "special": true
    },
    {
      "id": 1,
      "content": "[CLS]",
      "single_word": false,
      "lstrip": false,
      "rstrip": false,
      "normalized": false,
      "special": true
    },
    {
      "id": 2,
      "content": "[SEP]",
      "single_word": false,
      "lstrip": false,
      "rstrip": false,
      "normalized": false,
      "special": true
    },
    {
      "id": 3,
      "content": "[PAD]",
      "single_word": false,
      "lstrip": false,
      "rstrip": false,
      "normalized": false,
      "special": true
    },
    {
      "id": 4,
      "content": "[MASK]",
      "single_word": false,
      "lstrip": false,
      "rstrip": false,
      "normalized": false,
      "special": true
    }
  ],
  "normalizer": {
    "type": "Sequence",
    "normalizers": [
      {
        "type": "Nmt"
      },
      {
        "type": "NFKC"
      },
      {
        "type": "Replace",
        "pattern": {
          "Regex": " {2,}"
        },
        "content": " "
      }
    ]
  },
  "pre_tokenizer": {
    "type": "Metaspace",
    "replacement": "▁",
    "prepend_scheme": "always",
    "split": true
  },
  "post_processor": null,
  "decoder": {
    "type": "Metaspace",
    "replacement": "▁",
    "prepend_scheme": "always",
    "split": true
  },
  "model": {
    "type": "Unigram",
    "unk_id": 0,
    "vocab": [
      [
        "[UNK]",
        0.0
      ],
      [
        "[CLS]",
        0.0
      ],
      [
        "[SEP]",
        0.0
      ],
      [
        "[PAD]",
        0.0
      ],
      [
        "[MASK]",
        0.0
      ],
      [
        "▁",
        -2.815290961364214
      ],
      [
        ",",
        -3.273025503642298
      ],
      [
        ".",
        -3.5734818234548626
      ],
      [
        "▁a",
        -3.9848331125775456
      ],
      [
        "▁se",
        -4.3459583138007645
      ],
      [
        "▁na",
        -4.372004182192553
      ],
      [
        "▁v",
        -4.511418232293863
      ],
      [
        "i",
        -4.6476443819881865
      ],
      [
        "a",
        -4.736772613948732
      ],
      [
        "▁je",
        -4.7612434334321705
      ],
      [
        "m",
        -4.86120980946013
      ],
      [
        "u",
        -4.890324993466919
      ],
      [
        "▁to",
        -4.987881079550084
      ],
      [
        "▁s",
        -5.037764375706303
      ],
      [
        "y",
        -5.273336064020311
      ],
      [
        "▁že",
        -5.291405414336472
      ],
      [
        "▁z",
        -5.333751726230691
      ],
      [
        "▁do",
        -5.424091369743328
      ],
      [
        "▁o",
        -5.477917147738976
      ],
      [
        ":",
        -5.482029734933688
      ],
      [
        "▁pro",
        -5.493378874139282
      ],
      [
        "ch",
        -5.619633356772205
      ],
      [
        "▁za",
        -5.639895737860085
      ],
      [
        "▁-",
        -5.649430139172248
      ],
      [
        "▁si",
        -5.651263876001842
      ],
      [
        "o",
        -5.667748004230869
      ],
      [
        "ho",
        -5.829823074272683
      ],
      [
        "...",
        -5.849257056655162
      ],
      [
        "▁k",
        -5.8612438302480125
      ],
      [
        "?",
        -5.874151069835175
      ],
      [
        "▁ale",
        -5.874772698279402
      ],
      [
        "▁po",
        -5.87852908019555
      ],
      [
        "▁tak",
        -5.897429613561185
      ],
      [
        "▁jsem",
        -5.934946212855596
      ],
      [
        "e",
        -5.964748801966277
      ],
      [
        "á",
        -5.994604492459233
      ],
      [
        ")",
        -5.99590193882675
      ],
      [
        "▁ve",
        -6.116324683440261
      ],
      [
        "▁od",
        -6.142786551142082
      ],
      [
        "é",
        -6.15787871916382
      ],
      [
        "s",
        -6.16975603207009
      ],
      [
        "▁V",
        -6.21588528286739
      ],
      [
        "í",
        -6.224728958935648
      ],
      [
        "▁by",
        -6.257619570976955
      ],
      [
        "▁nebo",
        -6.27889470460506
      ],
      [
        "▁A",
        -6.287228469651625
      ],
      [
        "ní",
        -6.322040497980643
      ],
      [
        "▁jsou",
        -6.334763525630905
      ],
      [
        "ou",
        -6.336591722798783
      ],
      [
        "t",
        -6.338333296241133
      ],
      [
        "em",
        -6.355759264240826
      ],
      [
        "▁jako",
        -6.357886196843234
      ],
      [
        "▁co",
        -6.370098979170995
      ],
      [
        "▁ne",
        -6.444204854570337
      ],
      [
        "te",
        -6.4553110888005865
      ],
      [
        "▁(",
        -6.489434361851082
      ],
      [
        "▁jak",
        -6.495527981253321
      ],
      [
        "▁už",
        -6.5149380194267135
      ],
      [
        "▁které",
        -6.594174586626165
      ],
      [
        "mi",
        -6.605340405091216
      ],
      [
        "ý",
        -6.623753645124838
      ],
      [
        "v",
        -6.630733476707542
      ],
      [
        "▁jen",
        -6.650811644918177
      ],
      [
        "▁vy",
        -6.666144529312387
      ],
      [
        "▁S",
        -6.674010191911753
      ],
      [
        "▁při",
        -6.688809428914775
      ],
      [
        "ů",
        -6.692131666701309
      ],
      [
        "!",
        -6.74446409233331
      ],
      [
        "▁bude",
        -6.778628053578533
      ],
      [
        "▁jsme",
        -6.793571888051037
      ],
      [
        "▁_",
        -6.798348982259162
      ],
      [
        "me",
        -6.808789216168233
      ],
      [
        "▁má",
        -6.809756080807505
      ],
      [
        "▁když",
        -6.8132560060852025
      ],
      [
        "z",
        -6.819467066187677
      ],
      [
        "▁–",
        -6.826538133595154
      ],
      [
        "ě",
        -6.84727327358512
      ],
      [
        "▁který",
        -6.848160578918412
      ],
      [
        "▁Na",
        -6.8508651772296965
      ],
      [
        "k",
        -6.851387266554072
      ],
      [
        "▁mi",
        -6.872240856896855
      ],
      [
        "-",
        -6.887329406969631
      ],
      [
        "ž",
        -6.960498956903821
      ],
      [
        "ové",
        -6.970201467038631
      ],
      [
        "ka",
        -6.994342525932463
      ],
      [
        "▁před",
        -7.004885722158251
      ],
      [
        "▁byl",
        -7.020967788083748
      ],
      [
        "▁až",
        -7.021123404438937
      ],
      [
        "▁není",
        -7.027041200617326
      ],
      [
        "▁být",
        -7.066215648295076
      ],
      [
        "▁než",
        -7.076002384394311
      ],
      [
        "▁ze",
        -7.084760140175112
      ],
      [
        "▁aby",
        -7.088825419896924
      ],
      [
        "\"",
        -7.090314663141275
      ],
      [
        "▁mě",
        -7.096820739508207
      ],
      [
        "š",
        -7.104688997259176
      ],
      [
        "▁bez",
        -7.107119054090868
      ],
      [
        "l",
        -7.129294492419847
      ],
      [
        "▁také",
        -7.137770191379195
      ],
      [
        "▁ještě",
        -7.147687846784015
      ],
      [
        "▁jeho",
        -7.179049343841712
      ],
      [
        "▁bylo",
        -7.209544765013712
      ],
      [
        "▁Je",
        -7.214029626117908
      ],
      [
        "▁byla",
        -7.21781918700607
      ],
      [
        "▁Z",
        -7.219637353256328
      ],
      [
        "▁tam",
        -7.231624213323494
      ],
      [
        "▁To",
        -7.237248255640875
      ],
      [
        "ně",
        -7.238593725263062
      ],
      [
        "▁pak",
        -7.239319506948036
      ],
      [
        "▁která",
        -7.240567691067692
      ],
      [
        "ky",
        -7.245175191422197
      ],
      [
        "▁ani",
        -7.251644735455736
      ],
      [
        "d",
        -7.270959229272041
      ],
      [
        "▁\"",
        -7.279172742044148
      ],
      [
        "n",
        -7.28996229058003
      ],
      [
        "▁Po",
        -7.296501408564982
      ],
      [
        "▁nás",
        -7.2995396608492165
      ],
      [
        "▁K",
        -7.30827692055802
      ],
      [
        "▁či",
        -7.3160567077309295
      ],
      [
        "/",
        -7.337611969287787
      ],
      [
        "▁2",
        -7.343137015599821
      ],
      [
        "ce",
        -7.3436412166589236
      ],
      [
        "ná",
        -7.3491110890974
      ],
      [
        "y,",
        -7.362143737196089
      ],
      [
        "▁tu",
        -7.369765565105572
      ],
      [
        "▁O",
        -7.38287470868543
      ],
      [
        "▁podle",
        -7.396451262730592
      ],
      [
        "ová",
        -7.398218596338236
      ],
      [
        "▁ho",
        -7.398443164826524
      ],
      [
        "▁1",
        -7.401569790862508
      ],
      [
        "▁pod",
        -7.415708311484401
      ],
      [
        "▁„",
        -7.418984100911189
      ],
      [
        ").",
        -7.424289870700655
      ],
      [
        "né",
        -7.432313063413108
      ],
      [
        "mu",
        -7.434056809911578
      ],
      [
        "▁kde",
        -7.4354270044124675
      ],
      [
        "▁bych",
        -7.443625214185667
      ],
      [
        "▁nám",
        -7.444007140585324
      ],
      [
        "▁své",
        -7.444751842058109
      ],
      [
        "na",
        -7.447449917591362
      ],
      [
        "▁může",
        -7.460398106620332
      ],
      [
        "▁3",
        -7.466185539670951
      ],
      [
        "c",
        -7.469689714883117
      ],
      [
        "▁jejich",
        -7.47942551789113
      ],
      [
        "▁moc",
        -7.493361805776857
      ],
      [
        "▁P",
        -7.499540870990382
      ],
      [
        "▁já",
        -7.5051346229932765
      ],
      [
        "▁další",
        -7.507232505240273
      ],
      [
        "▁asi",
        -7.5334211836807015
      ],
      [
        "ých",
        -7.53566278168711
      ],
      [
        "▁let",
        -7.537763495409099
      ],
      [
        "▁jste",
        -7.541478044106627
      ],
      [
        "“",
        -7.5485022773160075
      ],
      [
        "▁Jak",
        -7.558388221142939
      ],
      [
        "▁vám",
        -7.564526675653923
      ],
      [
        "p",
        -7.573178268217145
      ],
      [
        "▁toho",
        -7.577510192533287
      ],
      [
        "ku",
        -7.579923755468149
      ],
      [
        "j",
        -7.58514483956607
      ],
      [
        "▁ty",
        -7.609802572795887
      ],
      [
        "▁nad",
        -7.620945493997654
      ],
      [
        "▁Pro",
        -7.621750016711424
      ],
      [
        "▁ten",
        -7.621904231226479
      ],
      [
        "▁Ale",
        -7.627752779365991
      ],
      [
        "▁ji",
        -7.630158296300788
      ],
      [
        "▁něco",
        -7.635123042487264
      ],
      [
        "▁více",
        -7.638815594455023
      ],
      [
        "▁mezi",
        -7.639189581457291
      ],
      [
        "la",
        -7.641033139243236
      ],
      [
        "▁mu",
        -7.648380903922055
      ],
      [
        "▁protože",
        -7.653980298748776
      ],
      [
        "▁třeba",
        -7.655352585582289
      ],
      [
        "▁nic",
        -7.655769450961955
      ],
      [
        "▁Za",
        -7.662564385546517
      ],
      [
        "▁vás",
        -7.6627318805506555
      ],
      [
        "ci",
        -7.663379854963514
      ],
      [
        "▁již",
        -7.674106418324293
      ],
      [
        "),",
        -7.675437714000914
      ],
      [
        "▁Pokud",
        -7.682871987260077
      ],
      [
        "▁velmi",
        -7.682875129122234
      ],
      [
        "▁kteří",
        -7.684265383443854
      ],
      [
        "▁pře",
        -7.6849173344155695
      ],
      [
        "▁Co",
        -7.691612130977022
      ],
      [
        "▁5",
        -7.698192028112565
      ],
      [
        "r",
        -7.712483217858328
      ],
      [
        "▁kdy",
        -7.71311246428569
      ],
      [
        "▁ke",
        -7.715679256594978
      ],
      [
        "▁mají",
        -7.716903423319128
      ],
      [
        "č",
        -7.7208723377836606
      ],
      [
        "▁první",
        -7.725004023045907
      ],
      [
        "▁U",
        -7.729508749480397
      ],
      [
        "▁tím",
        -7.735445238112787
      ],
      [
        "▁4",
        -7.753344782613382
      ],
      [
        "▁mít",
        -7.755613013660659
      ],
      [
        "ný",
        -7.762684135068456
      ],
      [
        "▁tedy",
        -7.7731535382671595
      ],
      [
        "ech",
        -7.774456560175256
      ],
      [
        "to",
        -7.780927514024377
      ],
      [
        "▁mám",
        -7.782101808700762
      ],
      [
        "▁taky",
        -7.782237226822732
      ],
      [
        "h",
        -7.786506677011229
      ],
      [
        "▁však",
        -7.797614488276244
      ],
      [
        "▁pokud",
        -7.8155289604820055
      ],
      [
        "nou",
        -7.817578765314261
      ],
      [
        "▁Kč",
        -7.820678276110584
      ],
      [
        "u.",
        -7.82091868131805
      ],
      [
        "▁přes",
        -7.821516095341842
      ],
      [
        "b",
        -7.834120057079909
      ],
      [
        "▁I",
        -7.837167466681887
      ],
      [
        "▁proti",
        -7.837803419521006
      ],
      [
        "y.",
        -7.838578043808473
      ],
      [
        "▁všechny",
        -7.840514172471252
      ],
      [
        "ne",
        -7.847254967568949
      ],
      [
        "▁Ne",
        -7.8561096111931175
      ],
      [
        "▁roce",
        -7.866535605727428
      ],
      [
        "▁můžete",
        -7.886317479429513
      ],
      [
        "▁roz",
        -7.8918102773019765
      ],
      [
        "▁měl",
        -7.895386643866971
      ],
      [
        "ovat",
        -7.897717495706729
      ],
      [
        "▁D",
        -7.897854028066851
      ],
      [
        "ový",
        -7.902896344187154
      ],
      [
        "▁Tak",
        -7.905115214615993
      ],
      [
        "▁10",
        -7.907306310132547
      ],
      [
        "cí",
        -7.918598573926445
      ],
      [
        "▁/",
        -7.922162176913453
      ],
      [
        "▁pouze",
        -7.923431190897736
      ],
      [
        "▁roku",
        -7.929004923283108
      ],
      [
        "▁budou",
        -7.934593366059895
      ],
      [
        "▁tomu",
        -7.94338424930498
      ],
      [
        "▁iDNES.cz",
        -7.95232898551814
      ],
      [
        "▁Do",
        -7.961733141292754
      ],
      [
        "le",
        -7.965400047347501
      ],
      [
        "▁tom",
        -7.97949206494545
      ],
      [
        "it",
        -7.9803635303886615
      ],
      [
        "▁B",
        -7.985962684934142
      ],
      [
        "ého",
        -7.99561070139727
      ],
      [
        "▁den",
        -8.01212959830009
      ],
      [
        "▁takže",
        -8.026309194649102
      ],
      [
        "▁kdo",
        -8.02707197155806
      ],
      [
        "ek",
        -8.027178382440177
      ],
      [
        "li",
        -8.033435409472474
      ],
      [
        "▁2018",
        -8.036867403145322
      ],
      [
        "ni",
        -8.040956143369458
      ],
      [
        "▁zde",
        -8.04170620908127
      ],
      [
        "ovou",
        -8.042571078005253
      ],
      [
        "ových",
        -8.04466984742817
      ],
      [
        "▁musí",
        -8.046275705234455
      ],
      [
        "▁teď",
        -8.054983336174088
      ],
      [
        "ování",
        -8.057712402329578
      ],
      [
        ";",
        -8.058151069111561
      ],
      [
        "▁C",
        -8.062813191675534
      ],
      [
        "▁ti",
        -8.067914379788816
      ],
      [
        "▁M",
        -8.072752518118602
      ],
      [
        "▁této",
        -8.077522529483236
      ],
      [
        "▁dnes",
        -8.081751364847623
      ],
      [
        ",“",
        -8.084394192628853
      ],
      [
        "no",
        -8.088058215506225
      ],
      [
        "▁nich",
        -8.092356128284413
      ],
      [
        "▁jim",
        -8.094119307903773
      ],
      [
        "kou",
        -8.095893057153623
      ],
      [
        ".cz",
        -8.098452938575027
      ],
      [
        "▁Já",
        -8.102158221387487
      ],
      [
        "uje",
        -8.102595645753059
      ],
      [
        "▁6",
        -8.111156684311828
      ],
      [
        "▁ta",
        -8.117582226351642
      ],
      [
        "▁Když",
        -8.119280570305646
      ],
      [
        "lo",
        -8.124459619705672
      ],
      [
        "▁práce",
        -8.12832010319559
      ],
      [
        "▁jí",
        -8.144498157353489
      ],
      [
        "▁nové",
        -8.14745831509517
      ],
      [
        "▁Vy",
        -8.148250607803716
      ],
      [
        "▁vůbec",
        -8.154083126244391
      ],
      [
        "▁byly",
        -8.154174160813497
      ],
      [
        "▁opravdu",
        -8.161530024833008
      ],
      [
        "▁děti",
        -8.175351213420813
      ],
      [
        "▁zase",
        -8.179374389436555
      ],
      [
        "▁vše",
        -8.189574097762268
      ],
      [
        "▁rok",
        -8.205109201179265
      ],
      [
        "▁jeden",
        -8.209165015585095
      ],
      [
        "▁Při",
        -8.209537000165271
      ],
      [
        "g",
        -8.215477834183531
      ],
      [
        "▁měla",
        -8.215849365904685
      ],
      [
        "▁7",
        -8.218260071806604
      ],
      [
        "▁někdo",
        -8.221397594125671
      ],
      [
        "▁každý",
        -8.232240835245811
      ],
      [
        "▁dva",
        -8.236358300256084
      ],
      [
        "▁Před",
        -8.246405637825863
      ],
      [
        "ým",
        -8.246577350592341
      ],
      [
        "▁kterou",
        -8.249772731698577
      ],
      [
        "▁něj",
        -8.250303251468656
      ],
      [
        "x",
        -8.25285341651815
      ],
      [
        "po",
        -8.253214195861418
      ],
      [
        "▁😃",
        -8.253222890008855
      ],
      [
        "▁H",
        -8.253962115749019
      ],
      [
        "ko",
        -8.255015335566387
      ],
      [
        "▁právě",
        -8.256005818097162
      ],
      [
        "ské",
        -8.266077904186625
      ],
      [
        "že",
        -8.268231296673124
      ],
      [
        "▁tady",
        -8.269919031253892
      ],
      [
        "▁stále",
        -8.270226927302039
      ],
      [
        "▁případě",
        -8.273844464027503
      ],
      [
        "▁pár",
        -8.278855399808629
      ],
      [
        "▁Praha",
        -8.279565538659202
      ],
      [
        "▁její",
        -8.284538222679876
      ],
      [
        "ů,",
        -8.286132999752557
      ],
      [
        "A",
        -8.286365932233489
      ],
      [
        "▁všech",
        -8.286732390672794
      ],
      [
        "▁jestli",
        -8.289275739300745
      ],
      [
        "st",
        -8.296254032891245
      ],
      [
        "▁lze",
        -8.300210736992298
      ],
      [
        "▁díky",
        -8.302807382737802
      ],
      [
        "▁(1)",
        -8.303754684914436
      ],
      [
        "▁Ve",
        -8.304183053293961
      ],
      [
        "▁20",
        -8.309746220847487
      ],
      [
        "▁tento",
        -8.310625685960135
      ],
      [
        "▁stejně",
        -8.314252235085789
      ],
      [
        "ská",
        -8.317541588825634
      ],
      [
        "▁T",
        -8.322428538785719
      ],
      [
        "▁tomto",
        -8.32707660667809
      ],
      [
        "▁mohou",
        -8.327545952230214
      ],
      [
        "em.",
        -8.329078770972004
      ],
      [
        "▁8",
        -8.334219568489406
      ],
      [
        "▁což",
        -8.335021058312675
      ],
      [
        "▁informace",
        -8.336673969517598
      ],
      [
        "▁dobře",
        -8.337475593786333
      ],
      [
        "ují",
        -8.33854657248418
      ],
      [
        "▁jsi",
        -8.341892760165406
      ],
      [
        "▁celý",
        -8.343526826939378
      ],
      [
        ".“",
        -8.344979115772803
      ],
      [
        "▁vždy",
        -8.344996457152753
      ],
      [
        "▁No",
        -8.346650810564922
      ],
      [
        "▁hodně",
        -8.348318105739546
      ],
      [
        "▁MAF",
        -8.349667783512839
      ],
      [
        "▁proto",
        -8.350928192040081
      ],
      [
        "▁trochu",
        -8.352155731386201
      ],
      [
        "ovi",
        -8.365643827159362
      ],
      [
        "▁jde",
        -8.369186000525092
      ],
      [
        "RA,",
        -8.372084295699944
      ],
      [
        "em,",
        -8.374122559789068
      ],
      [
        "ř",
        -8.374507786800178
      ],
      [
        ".\"",
        -8.381165881633201
      ],
      [
        "▁Od",
        -8.382560926276367
      ],
      [
        "▁České",
        -8.386067368782486
      ],
      [
        "▁vlastní",
        -8.38658519982933
      ],
      [
        "ta",
        -8.389056388929184
      ],
      [
        "il",
        -8.391288588510712
      ],
      [
        "▁proč",
        -8.393485722866634
      ],
      [
        "▁--",
        -8.394702674511128
      ],
      [
        "▁době",
        -8.397048634591513
      ],
      [
        "in",
        -8.397217007388443
      ],
      [
        "▁totiž",
        -8.39932107869041
      ],
      [
        "▁tohoto",
        -8.400803509315878
      ],
      [
        "▁měli",
        -8.403608816630255
      ],
      [
        "▁včetně",
        -8.40883230631032
      ],
      [
        "ra",
        -8.411715492297736
      ],
      [
        "je",
        -8.413275989320347
      ],
      [
        "ny",
        -8.421385170673558
      ],
      [
        "▁snad",
        -8.424187214958065
      ],
      [
        "▁místo",
        -8.42553754734615
      ],
      [
        "▁Vám",
        -8.425560832907303
      ],
      [
        "▁🙂",
        -8.426852959497369
      ],
      [
        "▁možné",
        -8.42818516230495
      ],
      [
        "▁dvě",
        -8.429941237110901
      ],
      [
        "8",
        -8.431658338572282
      ],
      [
        "▁té",
        -8.431832443119221
      ],
      [
        "▁tři",
        -8.432927173714084
      ],
      [
        "al",
        -8.437083875679814
      ],
      [
        "▁Další",
        -8.439061050312967
      ],
      [
        "▁máte",
        -8.439113105983132
      ],
      [
        "▁máme",
        -8.439316958858527
      ],
      [
        "en",
        -8.439516374897705
      ],
      [
        "er",
        -8.439907096844166
      ],
      [
        "▁lidí",
        -8.44123152088846
      ],
      [
        "▁svou",
        -8.441776146981013
      ],
      [
        "▁1.",
        -8.443914707259635
      ],
      [
        "▁svůj",
        -8.445243711844123
      ],
      [
        "se",
        -8.447062510905845
      ],
      [
        "▁jiné",
        -8.44929959701502
      ],
      [
        "2",
        -8.449876859005887
      ],
      [
        "▁dost",
        -8.455002362518119
      ],
      [
        "ům",
        -8.45513096574828
      ],
      [
        "▁prostě",
        -8.460516985981156
      ],
      [
        "▁několik",
        -8.465124251312558
      ],
      [
        "▁svého",
        -8.469333325224301
      ],
      [
        "V",
        -8.471451250072025
      ],
      [
        "▁tom,",
        -8.475497422626525
      ],
      [
        "▁E",
        -8.478128168448958
      ],
      [
        "ů.",
        -8.481163248855925
      ],
      [
        "▁*",
        -8.482600978866042
      ],
      [
        "▁byli",
        -8.48494227680593
      ],
      [
        "N",
        -8.489038785824526
      ],
      [
        "▁všechno",
        -8.494030666842624
      ],
      [
        "▁nikdy",
        -8.495207260020177
      ],
      [
        "▁kolem",
        -8.49670956773069
      ],
      [
        "▁sebe",
        -8.497888241214298
      ],
      [
        "▁cm",
        -8.501473711088009
      ],
      [
        "▁•",
        -8.505855100709455
      ],
      [
        "▁Re:",
        -8.506567220711284
      ],
      [
        "▁100",
        -8.509314944552669
      ],
      [
        "▁lidé",
        -8.510182031812702
      ],
      [
        "▁hlavně",
        -8.511210684112076
      ],
      [
        "▁dvou",
        -8.513117317196004
      ],
      [
        "▁x",
        -8.513153639999329
      ],
      [
        "▁poslední",
        -8.517720468711431
      ],
      [
        "▁15",
        -8.51799865100581
      ],
      [
        "▁člověk",
        -8.528657965593554
      ],
      [
        "▁víc",
        -8.539839787227065
      ],
      [
        "▁jinak",
        -8.541072525313254
      ],
      [
        "▁článek",
        -8.547522391489567
      ],
      [
        "▁větší",
        -8.54893850757155
      ],
      [
        "▁společnosti",
        -8.54927272117994
      ],
      [
        "▁nemá",
        -8.55253380763228
      ],
      [
        "ze",
        -8.553183522859559
      ],
      [
        "▁část",
        -8.553250916842716
      ],
      [
        "▁čas",
        -8.554278650840441
      ],
      [
        "▁něm",
        -8.56179761514641
      ],
      [
        "▁úplně",
        -8.565690927484606
      ],
      [
        "▁30",
        -8.566918488330117
      ],
      [
        "si",
        -8.567534171413685
      ],
      [
        "▁nebude",
        -8.570787265014209
      ],
      [
        "D",
        -8.572072398973427
      ],
      [
        "1",
        -8.572630146232067
      ],
      [
        "▁možnost",
        -8.578071021713226
      ],
      [
        "ných",
        -8.578324008713938
      ],
      [
        "S",
        -8.578592096595607
      ],
      [
        "ách",
        -8.578597894339383
      ],
      [
        "▁naše",
        -8.579892203568745
      ],
      [
        "▁zda",
        -8.580708706079953
      ],
      [
        "re",
        -8.5850171745393
      ],
      [
        "▁:)",
        -8.58536667162706
      ],
      [
        "ře",
        -8.586959813526143
      ],
      [
        "▁nejsou",
        -8.588245293293983
      ],
      [
        "-li",
        -8.58973442844995
      ],
      [
        "▁nejen",
        -8.591403532323067
      ],
      [
        "▁tím,",
        -8.596047660560464
      ],
      [
        "B",
        -8.596154561040253
      ],
      [
        "▁F",
        -8.59853609531882
      ],
      [
        "▁12",
        -8.598742970678149
      ],
      [
        "kvůli",
        -8.602695591412065
      ],
      [
        "▁opět",
        -8.603928663345272
      ],
      [
        "▁například",
        -8.605981282946372
      ],
      [
        "▁podmínky",
        -8.606013847433033
      ],
      [
        "3",
        -8.613209749452704
      ],
      [
        "ového",
        -8.613805013409419
      ],
      [
        "▁říká",
        -8.61532863940512
      ],
      [
        "▁hned",
        -8.615613901056316
      ],
      [
        "▁my",
        -8.62055847587274
      ],
      [
        "ský",
        -8.621503734153842
      ],
      [
        "▁těch",
        -8.62176315382934
      ],
      [
        "▁přímo",
        -8.623090033671659
      ],
      [
        "▁části",
        -8.623475609080387
      ],
      [
        "▁možná",
        -8.624203573994428
      ],
      [
        "▁patří",
        -8.625093221821796
      ],
      [
        "M",
        -8.62515540070538
      ],
      [
        "▁zatím",
        -8.626564234036229
      ],
      [
        "▁údajů",
        -8.636379112845015
      ],
      [
        "▁letech",
        -8.640087794842831
      ],
      [
        "▁jednou",
        -8.641684244311236
      ],
      [
        "▁9",
        -8.642895802491717
      ],
      [
        "▁těchto",
        -8.643196092577291
      ],
      [
        "e,",
        -8.64359608489437
      ],
      [
        "vě",
        -8.644458507460762
      ],
      [
        "nu",
        -8.64969857174817
      ],
      [
        "ť",
        -8.651311500723589
      ],
      [
        "▁dalších",
        -8.652879843618717
      ],
      [
        "▁Dobrý",
        -8.657462562373835
      ],
      [
        "▁často",
        -8.657765518553967
      ],
      [
        "us",
        -8.658779179701485
      ],
      [
        "▁R",
        -8.658923506582063
      ],
      [
        "ba",
        -8.65892568772394
      ],
      [
        "ři",
        -8.660553074644087
      ],
      [
        "▁všichni",
        -8.665006159037013
      ],
      [
        "▁nejlepší",
        -8.665736856658683
      ],
      [
        "ty",
        -8.667379115224447
      ],
      [
        "▁nevy",
        -8.668206242250276
      ],
      [
        "▁kraj",
        -8.669640004700762
      ],
      [
        "ří",
        -8.67398046122166
      ],
      [
        "▁svým",
        -8.676037105380676
      ],
      [
        "4",
        -8.678336669130688
      ],
      [
        "▁L",
        -8.67958826835944
      ],
      [
        "ti",
        -8.68099301024786
      ],
      [
        "▁ČR",
        -8.681658105708925
      ],
      [
        "▁chce",
        -8.68572886711377
      ],
      [
        "▁navíc",
        -8.686579767239483
      ],
      [
        "▁život",
        -8.688421516140247
      ],
      [
        "▁+",
        -8.689751330731994
      ],
      [
        "K",
        -8.691483556459758
      ],
      [
        "▁dobu",
        -8.69399966078732
      ],
      [
        "lu",
        -8.696957890743882
      ],
      [
        "▁naší",
        -8.697130829542232
      ],
      [
        "ově",
        -8.697209127244069
      ],
      [
        "ej",
        -8.700034682128825
      ],
      [
        "▁celé",
        -8.701239495956676
      ],
      [
        "▁N",
        -8.702176816429219
      ],
      [
        "▁určitě",
        -8.704673750248796
      ],
      [
        "▁svých",
        -8.705721045919098
      ],
      [
        "▁Už",
        -8.706788082749602
      ],
      [
        "oval",
        -8.708104354503577
      ],
      [
        "▁14",
        -8.710137771508235
      ],
      [
        "▁sice",
        -8.710232172722078
      ],
      [
        "▁především",
        -8.711920880974363
      ],
      [
        "▁©",
        -8.71235341522751
      ],
      [
        "▁zcela",
        -8.712370798238927
      ],
      [
        "▁mohl",
        -8.713439619678224
      ],
      [
        "▁nej",
        -8.718051741981643
      ],
      [
        "f",
        -8.720057763754124
      ],
      [
        "▁Všechny",
        -8.721241656596622
      ],
      [
        "▁nikdo",
        -8.721928673183767
      ],
      [
        "ve",
        -8.72257605085002
      ],
      [
        "▁práci",
        -8.722916828463882
      ],
      [
        "▁služby",
        -8.723170732324391
      ],
      [
        "▁někdy",
        -8.72461428776347
      ],
      [
        "▁kdyby",
        -8.728716156391002
      ],
      [
        "lí",
        -8.729823917637045
      ],
      [
        "▁pořád",
        -8.731916877179765
      ],
      [
        "▁2.",
        -8.731928666677327
      ],
      [
        "▁lepší",
        -8.73316500648464
      ],
      [
        "▁dá",
        -8.735849530108464
      ],
      [
        "▁50",
        -8.739727640452841
      ],
      [
        "▁nějaké",
        -8.739826935414094
      ],
      [
        "▁verze",
        -8.739856808203996
      ],
      [
        "▁18",
        -8.741975956841067
      ],
      [
        "▁problém",
        -8.742523241240008
      ],
      [
        "vá",
        -8.743188259778144
      ],
      [
        "▁fakt",
        -8.74423962549109
      ],
      [
        "▁G",
        -8.748098357200842
      ],
      [
        "▁Takže",
        -8.74966036108024
      ],
      [
        "▁sám",
        -8.751150106212526
      ],
      [
        "▁oblasti",
        -8.75362170854537
      ],
      [
        "▁tisíc",
        -8.75436861601088
      ],
      [
        "▁dle",
        -8.755968353191397
      ],
      [
        "▁během",
        -8.757247969261226
      ],
      [
        "▁osobních",
        -8.759664555084296
      ],
      [
        "▁jej",
        -8.762268773463202
      ],
      [
        "▁Jan",
        -8.762915433634745
      ],
      [
        "on",
        -8.763789148189293
      ],
      [
        "▁vaše",
        -8.768628866766107
      ],
      [
        "▁tyto",
        -8.770609486174319
      ],
      [
        "▁0",
        -8.770831344344444
      ],
      [
        "▁hodin",
        -8.77148220118326
      ],
      [
        "▁samozřejmě",
        -8.772743466366908
      ],
      [
        "▁webu",
        -8.780636758733774
      ],
      [
        "▁základní",
        -8.781415890125318
      ],
      [
        "▁budu",
        -8.782920736276898
      ],
      [
        "el",
        -8.78644405875146
      ],
      [
        "▁velké",
        -8.787590740164369
      ],
      [
        "▁Vás",
        -8.792377881192659
      ],
      [
        "T",
        -8.792509485893563
      ],
      [
        "ním",
        -8.792992290431599
      ],
      [
        "▁žádné",
        -8.793456863602465
      ],
      [
        "čí",
        -8.793779682066537
      ],
      [
        "tu",
        -8.79471913268765
      ],
      [
        "ky,",
        -8.796770952593219
      ],
      [
        "▁Tento",
        -8.796795120723154
      ],
      [
        "▁mm",
        -8.800992959496588
      ],
      [
        "▁lety",
        -8.801509537915233
      ],
      [
        "▁zboží",
        -8.805616124143995
      ],
      [
        "P",
        -8.806411588879469
      ],
      [
        "▁den,",
        -8.806665666148238
      ],
      [
        "5",
        -8.807720206441324
      ],
      [
        "▁vlastně",
        -8.808455988341708
      ],
      [
        "▁druhé",
        -8.809056761861797
      ],
      [
        "▁😉",
        -8.81129187874781
      ],
      [
        "▁»",
        -8.811760999473599
      ],
      [
        "▁budete",
        -8.81333769577309
      ],
      [
        "▁mnoho",
        -8.813835694811328
      ],
      [
        "▁nyní",
        -8.814628421338444
      ],
      [
        "▁města",
        -8.817436636965326
      ],
      [
        "▁nový",
        -8.820738100308208
      ],
      [
        "ň",
        -8.821508351649168
      ],
      [
        "▁tuto",
        -8.822308697590056
      ],
      [
        "Z",
        -8.823109191792133
      ],
      [
        "▁tato",
        -8.8235675725401
      ],
      [
        "▁jedno",
        -8.827847128792598
      ],
      [
        "če",
        -8.829778067958198
      ],
      [
        "▁Podle",
        -8.829942151373402
      ],
      [
        "▁dne",
        -8.833216662669182
      ],
      [
        "▁no",
        -8.835340814146496
      ],
      [
        "et",
        -8.83696202676707
      ],
      [
        "▁č.",
        -8.838660081046868
      ],
      [
        "ví",
        -8.84145008725405
      ],
      [
        "▁systém",
        -8.84188142765034
      ],
      [
        "lou",
        -8.841960785978573
      ],
      [
        "ované",
        -8.842393547357135
      ],
      [
        "▁dokonce",
        -8.844988465101498
      ],
      [
        "▁%",
        -8.846674864386571
      ],
      [
        "▁13",
        -8.847730536942905
      ],
      [
        "▁nepo",
        -8.850030218899828
      ],
      [
        "▁stát",
        -8.85052318076562
      ],
      [
        "▁užití",
        -8.859220045506166
      ],
      [
        "▁de",
        -8.859523324397514
      ],
      [
        "▁informací",
        -8.85963654591141
      ],
      [
        "de",
        -8.86000877491455
      ],
      [
        "▁ob",
        -8.862646208166478
      ],
      [
        "cích",
        -8.866312381525752
      ],
      [
        "za",
        -8.867237987278674
      ],
      [
        "▁Ta",
        -8.867908748106482
      ],
      [
        "▁peníze",
        -8.868911920127578
      ],
      [
        "▁jenom",
        -8.87142239476719
      ],
      [
        "▁nějaký",
        -8.872086863560103
      ],
      [
        "▁řekl",
        -8.874163201701464
      ],
      [
        "\".",
        -8.87576256126712
      ],
      [
        "co",
        -8.87579195695572
      ],
      [
        "▁Díky",
        -8.879335305551013
      ],
      [
        "ší",
        -8.884847399097076
      ],
      [
        "▁dítě",
        -8.886936100256076
      ],
      [
        "▁nějak",
        -8.888110123573536
      ],
      [
        "▁Hlavní",
        -8.88875228654925
      ],
      [
        "▁Proč",
        -8.891492306031394
      ],
      [
        "▁půl",
        -8.892857050972026
      ],
      [
        "▁000",
        -8.894936375104162
      ],
      [
        "ji",
        -8.900030736857612
      ],
      [
        "▁nabízí",
        -8.900430370638883
      ],
      [
        "▁3.",
        -8.901010971230702
      ],
      [
        "▁takové",
        -8.901507002900313
      ],
      [
        "▁akce",
        -8.901675334294286
      ],
      [
        "Y",
        -8.901698697560478
      ],
      [
        "▁19",
        -8.901936474576509
      ],
      [
        "▁on",
        -8.902146609639864
      ],
      [
        "▁všem",
        -8.902966005708885
      ],
      [
        "▁lidi",
        -8.903992112860921
      ],
      [
        "▁roky",
        -8.905141037619094
      ],
      [
        "▁celou",
        -8.905663200290066
      ],
      [
        "▁stojí",
        -8.906207110810211
      ],
      [
        "ru",
        -8.908229694846074
      ],
      [
        "▁mimo",
        -8.91011696869854
      ],
      [
        "ova",
        -8.910862335594384
      ],
      [
        "▁dlouho",
        -8.911163688992879
      ],
      [
        "tě",
        -8.911346739395775
      ],
      [
        "nost",
        -8.915611496241892
      ],
      [
        "lá",
        -8.917429769379359
      ],
      [
        "ost",
        -8.91812638571847
      ],
      [
        "ám",
        -8.919979345285267
      ],
      [
        "▁zařízení",
        -8.920672899581609
      ],
      [
        "▁toto",
        -8.921683858947766
      ],
      [
        "▁sobě",
        -8.924225634922612
      ],
      [
        "▁znovu",
        -8.925469901852335
      ],
      [
        "ať",
        -8.928030448573722
      ],
      [
        "▁mobilní",
        -8.929322311261277
      ],
      [
        "an",
        -8.932668677213517
      ],
      [
        "▁nakonec",
        -8.935408343167829
      ],
      [
        "▁doma",
        -8.93572517956817
      ],
      [
        "▁nebyl",
        -8.936106737559939
      ],
      [
        "▁našich",
        -8.93624759416356
      ],
      [
        "▁hlavní",
        -8.939162392239105
      ],
      [
        "▁Více",
        -8.939653711321434
      ],
      [
        "▁16",
        -8.939985308948575
      ],
      [
        "ec",
        -8.942657930633873
      ],
      [
        "▁2017",
        -8.942735572884645
      ],
      [
        "▁pomocí",
        -8.943647047022953
      ],
      [
        "du",
        -8.944335578655519
      ],
      [
        "U",
        -8.9455957959082
      ],
      [
        "▁rámci",
        -8.945839720257425
      ],
      [
        "▁ovšem",
        -8.948290492616689
      ],
      [
        "ného",
        -8.948324273333121
      ],
      [
        "ly",
        -8.948364357994954
      ],
      [
        ",\"",
        -8.949881220507907
      ],
      [
        "▁ním",
        -8.95046649284922
      ],
      [
        "ující",
        -8.950877443869285
      ],
      [
        "▁Vaše",
        -8.951109678531068
      ],
      [
        "▁Česká",
        -8.954588923875637
      ],
      [
        "do",
        -8.954750274499911
      ],
      [
        "▁stránky",
        -8.955400397212806
      ],
      [
        "jí",
        -8.958891427545069
      ],
      [
        "▁téměř",
        -8.96017169710323
      ],
      [
        "▁tomu,",
        -8.96037841613091
      ],
      [
        "▁společnost",
        -8.961779950133693
      ],
      [
        "▁velký",
        -8.962835609836024
      ],
      [
        "uji",
        -8.964263969332375
      ],
      [
        "▁počet",
        -8.966888367555159
      ],
      [
        "▁>",
        -8.96763859742282
      ],
      [
        "▁obsahu",
        -8.968521435360575
      ],
      [
        "val",
        -8.968730420728898
      ],
      [
        "da",
        -8.970120763973105
      ],
      [
        "▁dál",
        -8.970939384226895
      ],
      [
        "▁Petr",
        -8.97411914519443
      ],
      [
        "▁ostatní",
        -8.975723079001755
      ],
      [
        "▁např.",
        -8.976496285793662
      ],
      [
        "▁nez",
        -8.979108603257478
      ],
      [
        "ha",
        -8.979361241549924
      ],
      [
        "▁Pak",
        -8.982671334942353
      ],
      [
        "ém",
        -8.983566455158446
      ],
      [
        "vy",
        -8.984030936143363
      ],
      [
        "▁toho,",
        -8.988481653571089
      ],
      [
        "▁neza",
        -8.9904146092518
      ],
      [
        "▁jedna",
        -8.990756982304223
      ],
      [
        "▁dobré",
        -8.99217066849165
      ],
      [
        "▁času",
        -8.994837741684524
      ],
      [
        "▁několika",
        -8.995534254406149
      ],
      [
        "▁množství",
        -8.998008665679045
      ],
      [
        "ím",
        -8.998079135459026
      ],
      [
        "▁§",
        -9.000303263670816
      ],
      [
        "▁ceny",
        -9.001436952478908
      ],
      [
        "▁spolu",
        -9.001902804325741
      ],
      [
        "_",
        -9.002059095630864
      ],
      [
        "▁Se",
        -9.002287670613166
      ],
      [
        "▁pan",
        -9.003353956928379
      ],
      [
        "▁věci",
        -9.005204376075415
      ],
      [
        "man",
        -9.007564580798107
      ],
      [
        "O",
        -9.009636964191333
      ],
      [
        "▁J",
        -9.011337292560285
      ],
      [
        "ické",
        -9.012480342322494
      ],
      [
        "▁kvalitní",
        -9.01410701793698
      ],
      [
        "▁program",
        -9.016937879965528
      ],
      [
        "▁online",
        -9.017068813928049
      ],
      [
        "▁tohle",
        -9.018461339479785
      ],
      [
        "vý",
        -9.018503457579135
      ],
      [
        "▁rychle",
        -9.019222355585491
      ],
      [
        "▁sebou",
        -9.020962234360269
      ],
      [
        "▁dále",
        -9.022219109090246
      ],
      [
        "▁Jen",
        -9.023054460660774
      ],
      [
        "▁chvíli",
        -9.02379170318012
      ],
      [
        "▁cca",
        -9.024878320918024
      ],
      [
        "▁Kdo",
        -9.025231071094428
      ],
      [
        "▁byste",
        -9.02700234361356
      ],
      [
        "▁některé",
        -9.027584429439251
      ],
      [
        "▁dětí",
        -9.027939996520013
      ],
      [
        "▁takový",
        -9.028660935670278
      ],
      [
        "ká",
        -9.029210308531919
      ],
      [
        "▁W",
        -9.029718886227759
      ],
      [
        "▁tě",
        -9.030589310991598
      ],
      [
        "▁mne",
        -9.031394760077099
      ],
      [
        "▁naprosto",
        -9.031919713735492
      ],
      [
        "ing",
        -9.03268714045048
      ],
      [
        "▁budeme",
        -9.032784059360583
      ],
      [
        "s.,",
        -9.033444248035922
      ],
      [
        "▁@",
        -9.033908560253735
      ],
      [
        "6",
        -9.036170033665158
      ],
      [
        "▁dělat",
        -9.037850236690673
      ],
      [
        "kem",
        -9.039046177488075
      ],
      [
        "▁Š",
        -9.040206410600213
      ],
      [
        "▁přesně",
        -9.041590380272122
      ],
      [
        "▁nimi",
        -9.041781106910307
      ],
      [
        "tr",
        -9.0420972196261
      ],
      [
        "▁minut",
        -9.042286543168284
      ],
      [
        "▁chtěl",
        -9.04289410557706
      ],
      [
        "▁pracovní",
        -9.042948009860478
      ],
      [
        "▁celkem",
        -9.043384119995585
      ],
      [
        "H",
        -9.04569327129026
      ],
      [
        "▁řešení",
        -9.0470055548622
      ],
      [
        "▁zejména",
        -9.047068565974744
      ],
      [
        "▁žádný",
        -9.047200049690103
      ],
      [
        "▁11",
        -9.050213271395894
      ],
      [
        "▁Praze",
        -9.051616384350702
      ],
      [
        "▁neu",
        -9.051655850927123
      ],
      [
        "▁použití",
        -9.05175052658748
      ],
      [
        "nější",
        -9.053356159302412
      ],
      [
        "▁Má",
        -9.05606931197152
      ],
      [
        "▁hry",
        -9.057596719077843
      ],
      [
        "▁Proto",
        -9.058192719779015
      ],
      [
        "lé",
        -9.058623856141576
      ],
      [
        "▁řízení",
        -9.059846580815446
      ],
      [
        "▁Zobrazit",
        -9.062129240416954
      ],
      [
        "▁4.",
        -9.062621044044432
      ],
      [
        "or",
        -9.062702986981009
      ],
      [
        "▁jednoho",
        -9.06545237326239
      ],
      [
        "ro",
        -9.06586062871748
      ],
      [
        "▁místě",
        -9.067139129632503
      ],
      [
        "ila",
        -9.068831555202642
      ],
      [
        "▁25",
        -9.070850278001231
      ],
      [
        "▁školy",
        -9.070888364344523
      ],
      [
        "▁malé",
        -9.071458194606166
      ],
      [
        "▁světa",
        -9.074489666433443
      ],
      [
        "▁kam",
        -9.076800346348417
      ],
      [
        "▁mohli",
        -9.077157402285852
      ],
      [
        "(",
        -9.07822971096439
      ],
      [
        "▁údaje",
        -9.078378360820064
      ],
      [
        "ení",
        -9.0790256735762
      ],
      [
        "▁Ten",
        -9.07913995051857
      ],
      [
        "še",
        -9.080079278484913
      ],
      [
        "▁firmy",
        -9.080320693923891
      ],
      [
        "▁nebylo",
        -9.081333837048486
      ],
      [
        "▁svém",
        -9.084062255492361
      ],
      [
        "▁jednu",
        -9.084392594022857
      ],
      [
        "▁prostor",
        -9.086312670583773
      ],
      [
        "▁osobní",
        -9.089581295206731
      ],
      [
        "▁bychom",
        -9.090585038372216
      ],
      [
        "▁největší",
        -9.091290874422327
      ],
      [
        "R",
        -9.091852767843964
      ],
      [
        "ými",
        -9.092627505124813
      ],
      [
        "▁Není",
        -9.093074210566929
      ],
      [
        "▁můj",
        -9.094528997485526
      ],
      [
        "▁kterým",
        -9.097276839885144
      ],
      [
        "▁dny",
        -9.097851550646325
      ],
      [
        "ských",
        -9.098188386690737
      ],
      [
        "▁najdete",
        -9.100494131459595
      ],
      [
        "pl",
        -9.100860640802845
      ],
      [
        "▁alespoň",
        -9.101354082759585
      ],
      [
        "▁:-)",
        -9.104719615979967
      ],
      [
        "dě",
        -9.105424478199339
      ],
      [
        "7",
        -9.105546385494797
      ],
      [
        "▁17",
        -9.106752217116153
      ],
      [
        "pa",
        -9.108314854149993
      ],
      [
        "▁40",
        -9.109069100175013
      ],
      [
        "▁stránek",
        -9.109221835515212
      ],
      [
        "▁let,",
        -9.10949572895574
      ],
      [
        "ského",
        -9.111416136568302
      ],
      [
        "▁24",
        -9.114253851092883
      ],
      [
        "▁prostředí",
        -9.115919093311367
      ],
      [
        "▁docela",
        -9.116255399330985
      ],
      [
        "W",
        -9.117287545727006
      ],
      [
        "▁doby",
        -9.117471558662361
      ],
      [
        "▁rozdíl",
        -9.120475913732037
      ],
      [
        "▁Re",
        -9.121201360036908
      ],
      [
        "bo",
        -9.122418318873198
      ],
      [
        "▁týden",
        -9.122663816985378
      ],
      [
        "▁jiných",
        -9.123463326669395
      ],
      [
        "▁První",
        -9.125258323602134
      ],
      [
        "▁práva",
        -9.126668086058672
      ],
      [
        "▁vypadá",
        -9.127407422986373
      ],
      [
        "ur",
        -9.128391872962926
      ],
      [
        "ice",
        -9.128759935938616
      ],
      [
        "▁(2)",
        -9.128920816825438
      ],
      [
        "▁Ty",
        -9.130056837530027
      ],
      [
        "▁článků",
        -9.131659406438832
      ],
      [
        "▁zdarma",
        -9.133212016739868
      ],
      [
        "C",
        -9.133687313571507
      ],
      [
        "\",",
        -9.137624878779963
      ],
      [
        "▁zároveň",
        -9.138238781329889
      ],
      [
        "dr",
        -9.138352686688336
      ],
      [
        "▁příliš",
        -9.13881417166311
      ],
      [
        "▁čím",
        -9.139606713680404
      ],
      [
        "▁jaké",
        -9.14157477805503
      ],
      [
        "▁značky",
        -9.143351004385618
      ],
      [
        "ích",
        -9.143780899667757
      ],
      [
        "ovým",
        -9.144266837916238
      ],
      [
        "▁svět",
        -9.145122202695873
      ],
      [
        "ným",
        -9.145931574855862
      ],
      [
        "▁auto",
        -9.147627957834164
      ],
      [
        "▁platí",
        -9.148480429264044
      ],
      [
        "▁různých",
        -9.149047310407102
      ],
      [
        "▁české",
        -9.14946052646658
      ],
      [
        "▁životní",
        -9.149695424649334
      ],
      [
        "ovala",
        -9.149983070514088
      ],
      [
        "▁dispozici",
        -9.150232574281919
      ],
      [
        "▁století",
        -9.15210256527959
      ],
      [
        "▁jedné",
        -9.152593511605545
      ],
      [
        "▁střední",
        -9.154145669927502
      ],
      [
        "tí",
        -9.15561662761661
      ],
      [
        "▁kolik",
        -9.159033248564004
      ],
      [
        "▁přístup",
        -9.160710007415641
      ],
      [
        "▁jiný",
        -9.160968683898517
      ],
      [
        "▁obce",
        -9.161075715375187
      ],
      [
        "▁Jinak",
        -9.16108597803109
      ],
      [
        "▁nového",
        -9.162397046994212
      ],
      [
        "▁prosím",
        -9.16271763349954
      ],
      [
        "▁zprávy",
        -9.163527742415722
      ],
      [
        "▁místa",
        -9.167692168114225
      ],
      [
        "ovali",
        -9.168059027268296
      ],
      [
        "▁nes",
        -9.16979501306211
      ],
      [
        "▁velice",
        -9.171190034737117
      ],
      [
        "▁2014",
        -9.174254574545849
      ],
      [
        "▁60",
        -9.175863737441432
      ],
      [
        "ace",
        -9.178819260284355
      ],
      [
        "▁můžeme",
        -9.179209151682542
      ],
      [
        "▁fotografií",
        -9.18024774678224
      ],
      [
        "▁cena",
        -9.18052123990087
      ],
      [
        "ry",
        -9.180660219757193
      ],
      [
        "▁:-",
        -9.180786678059661
      ],
      [
        "▁skoro",
        -9.181854832138718
      ],
      [
        "▁nelze",
        -9.18302240188304
      ],
      [
        "ed",
        -9.184122785193125
      ],
      [
        "í.",
        -9.185308708583522
      ],
      [
        "▁období",
        -9.186253296932207
      ],
      [
        "▁vyšší",
        -9.186913632604888
      ],
      [
        "▁nemůže",
        -9.187399928551798
      ],
      [
        "▁letos",
        -9.189341406361411
      ],
      [
        "vat",
        -9.192031077892294
      ],
      [
        "▁5.",
        -9.19250213049165
      ],
      [
        "0",
        -9.193408536300566
      ],
      [
        "▁udělat",
        -9.193797580461197
      ],
      [
        "▁strany",
        -9.193899706879684
      ],
      [
        "▁dalšího",
        -9.193964505136275
      ],
      [
        "▁Jako",
        -9.19491752004207
      ],
      [
        "▁cenu",
        -9.196399872129192
      ],
      [
        "▁méně",
        -9.198391608115603
      ],
      [
        "“.",
        -9.200851927647058
      ],
      [
        "ků",
        -9.201339277875327
      ],
      [
        "▁mělo",
        -9.201687223407436
      ],
      [
        "▁web",
        -9.204112995410402
      ],
      [
        "▁služeb",
        -9.207101113214307
      ],
      [
        "let",
        -9.20829257580165
      ],
      [
        "kon",
        -9.20853554570903
      ],
      [
        "9",
        -9.208999073658982
      ],
      [
        "▁nedo",
        -9.209248845714416
      ],
      [
        "▁jméno",
        -9.2098248665881
      ],
      [
        "▁okolí",
        -9.210167844760642
      ],
      [
        "▁začátku",
        -9.210336934156324
      ],
      [
        "▁přijde",
        -9.210873647472209
      ],
      [
        "00",
        -9.210899937080686
      ],
      [
        "▁kterých",
        -9.211178524163614
      ],
      [
        "▁zákona",
        -9.211726021133746
      ],
      [
        "▁dát",
        -9.21374131613343
      ],
      [
        "▁Ti",
        -9.214203165830972
      ],
      [
        "▁g",
        -9.214449666043667
      ],
      [
        "▁Jiří",
        -9.215136009432069
      ],
      [
        "▁X",
        -9.215908113944204
      ],
      [
        "J",
        -9.21676130865681
      ],
      [
        "▁prý",
        -9.217112881822207
      ],
      [
        "▁rád",
        -9.220703722610137
      ],
      [
        "kové",
        -9.220972612929884
      ],
      [
        "E",
        -9.221139388522566
      ],
      [
        "▁spíše",
        -9.22490263505452
      ],
      [
        "▁potom",
        -9.225985276087698
      ],
      [
        "▁Tato",
        -9.226526571406144
      ],
      [
        "▁2016",
        -9.226925913784008
      ],
      [
        "▁domácí",
        -9.227127711384256
      ],
      [
        "▁mnohem",
        -9.22748767103442
      ],
      [
        "▁re",
        -9.228061782845085
      ],
      [
        "ovací",
        -9.229183079447807
      ],
      [
        "▁skutečně",
        -9.229621272497539
      ],
      [
        "ol",
        -9.230926898911385
      ],
      [
        "▁10.",
        -9.231308774437942
      ],
      [
        "od",
        -9.234785017758817
      ],
      [
        "▁Jeho",
        -9.23574193054098
      ],
      [
        "▁straně",
        -9.236966763535348
      ],
      [
        "▁spíš",
        -9.237421088727363
      ],
      [
        "1.",
        -9.237532351946989
      ],
      [
        "▁souhlasu",
        -9.2375563682777
      ],
      [
        "dy",
        -9.238209111354362
      ],
      [
        "▁komentář",
        -9.2395218809406
      ],
      [
        "▁přece",
        -9.241343482646073
      ],
      [
        "ka,",
        -9.241484844551941
      ],
      [
        "▁Napište",
        -9.241516482019083
      ],
      [
        "▁6.",
        -9.242327360037564
      ],
      [
        "▁9.",
        -9.242719561454278
      ],
      [
        "▁systému",
        -9.243424425052016
      ],
      [
        "di",
        -9.243570656826755
      ],
      [
        "▁potřeba",
        -9.244292285626376
      ],
      [
        "w",
        -9.24474954920664
      ],
      [
        "skou",
        -9.244812113389067
      ],
      [
        "▁nemusí",
        -9.247671577864448
      ],
      [
        "▁některých",
        -9.248242382383658
      ],
      [
        "▁světě",
        -9.25002571651662
      ],
      [
        "!!!",
        -9.250325661989038
      ],
      [
        "▁jich",
        -9.250466284924972
      ],
      [
        "vol",
        -9.252491229961986
      ],
      [
        "▁náš",
        -9.253053842192898
      ],
      [
        "▁bohužel",
        -9.253894630825801
      ],
      [
        "▁Nebo",
        -9.255712999614602
      ],
      [
        "▁velká",
        -9.256123574111264
      ],
      [
        "▁7.",
        -9.256411333884191
      ],
      [
        "▁nějakou",
        -9.25645364507837
      ],
      [
        "▁moje",
        -9.256817038871826
      ],
      [
        "ací",
        -9.258858167934253
      ],
      [
        "▁USA",
        -9.259244080925043
      ],
      [
        "▁chcete",
        -9.261678699580353
      ],
      [
        "▁večer",
        -9.261918193965482
      ],
      [
        "....",
        -9.262826310154585
      ],
      [
        "▁Český",
        -9.26367162136285
      ],
      [
        "▁dostal",
        -9.265430924061695
      ],
      [
        "▁půjčky",
        -9.266479779468948
      ],
      [
        "▁články",
        -9.268764103432728
      ],
      [
        "▁jít",
        -9.269002110771623
      ],
      [
        "▁života",
        -9.26904120448828
      ],
      [
        "▁září",
        -9.269167560654257
      ],
      [
        "▁teda",
        -9.269940019932978
      ],
      [
        "▁každé",
        -9.270298773706829
      ],
      [
        "▁abych",
        -9.275679452840802
      ],
      [
        "▁mohla",
        -9.277071820099085
      ],
      [
        "lit",
        -9.278662863709638
      ],
      [
        "hu",
        -9.278938698078996
      ],
      [
        "Jsou",
        -9.279904004711078
      ],
      [
        "▁tolik",
        -9.280102146863449
      ],
      [
        "▁třetí",
        -9.280318876236542
      ],
      [
        "▁11.",
        -9.28155746536751
      ],
      [
        "▁Mám",
        -9.281821077939092
      ],
      [
        "▁rozhodně",
        -9.282482731180492
      ],
      [
        "▁pohled",
        -9.283494448748666
      ],
      [
        "▁nabídky",
        -9.285096401596796
      ],
      [
        "▁osoby",
        -9.285935188632227
      ],
      [
        "stav",
        -9.288139693949613
      ],
      [
        "▁napsal",
        -9.291025539599206
      ],
      [
        "▁naopak",
        -9.292058316475494
      ],
      [
        "▁pří",
        -9.292220425032468
      ],
      [
        "▁Česko",
        -9.293320199165406
      ],
      [
        "▁vidět",
        -9.293775201284586
      ],
      [
        "nice",
        -9.2943763188301
      ],
      [
        "▁většinou",
        -9.295524771090008
      ],
      [
        "ujte",
        -9.297356841506112
      ],
      [
        "ter",
        -9.29903857375962
      ],
      [
        "by",
        -9.299672468379203
      ],
      [
        "▁dobrý",
        -9.300238143531425
      ],
      [
        "▁otázky",
        -9.300503463142771
      ],
      [
        "▁tělo",
        -9.30200810105277
      ],
      [
        "▁Obchodní",
        -9.304018365542927
      ],
      [
        "▁sami",
        -9.304477113729089
      ],
      [
        "▁hra",
        -9.304506186130919
      ],
      [
        "dí",
        -9.305049047653434
      ],
      [
        "▁Dnes",
        -9.305355958245066
      ],
      [
        "ú",
        -9.305747158669915
      ],
      [
        "▁Jsem",
        -9.30579826329781
      ],
      [
        "▁součástí",
        -9.306456166327605
      ],
      [
        "▁Prahy",
        -9.306822072043364
      ],
      [
        "▁konečně",
        -9.30706719321587
      ],
      [
        "▁2013",
        -9.307236633790849
      ],
      [
        "▁příspěvky",
        -9.307588810378967
      ],
      [
        "▁Podmínky",
        -9.309780843974405
      ],
      [
        "ští",
        -9.312273774958006
      ],
      [
        "▁vhodné",
        -9.313221964162313
      ],
      [
        "ních",
        -9.31349314725286
      ],
      [
        "▁milionů",
        -9.313724427172733
      ],
      [
        "▁máš",
        -9.314157274220069
      ],
      [
        "▁příspěvek",
        -9.314248912002657
      ],
      [
        "▁základě",
        -9.314801927323971
      ],
      [
        "▁zákon",
        -9.316198622690564
      ],
      [
        "▁mnoha",
        -9.317242873643405
      ],
      [
        "▁zpět",
        -9.317253756425618
      ],
      [
        "▁váš",
        -9.317731396009535
      ],
      [
        "G",
        -9.318331772220247
      ],
      [
        "ili",
        -9.318557652747034
      ],
      [
        "▁jistě",
        -9.318587073361908
      ],
      [
        "▁prvním",
        -9.31890354761005
      ],
      [
        "▁200",
        -9.320075202925985
      ],
      [
        "▁čtyři",
        -9.32053073431278
      ],
      [
        "▁rádi",
        -9.320816019245477
      ],
      [
        "▁obsah",
        -9.321594802269093
      ],
      [
        "▁korun",
        -9.322302662053701
      ],
      [
        "▁země",
        -9.32238621760865
      ],
      [
        "▁EU",
        -9.322515055812877
      ],
      [
        "▁různé",
        -9.322865935341593
      ],
      [
        "I",
        -9.322888513315807
      ],
      [
        "▁Ko",
        -9.322955569467284
      ],
      [
        "▁město",
        -9.325808899726928
      ],
      [
        "▁proto,",
        -9.328009054522102
      ],
      [
        "sky",
        -9.328359088104106
      ],
      [
        "▁našeho",
        -9.328519793895065
      ],
      [
        "▁zrovna",
        -9.328974984140604
      ],
      [
        "▁Li",
        -9.329760831834207
      ],
      [
        "há",
        -9.32997257276756
      ],
      [
        "ův",
        -9.330119283047853
      ],
      [
        "▁rozhodnutí",
        -9.330514788979183
      ],
      [
        "▁model",
        -9.332218938551538
      ],
      [
        "▁mně",
        -9.332340929618166
      ],
      [
        "pe",
        -9.335200418630995
      ],
      [
        "?“",
        -9.33553672072631
      ],
      [
        "▁převzetí",
        -9.33575475707079
      ],
      [
        "▁jiného",
        -9.33578770250306
      ],
      [
        "▁dní",
        -9.336011088002662
      ],
      [
        "ga",
        -9.336506916115141
      ],
      [
        "▁hodnocení",
        -9.337335163313435
      ],
      [
        "▁později",
        -9.337417411078949
      ],
      [
        "▁konci",
        -9.337465386109248
      ],
      [
        "▁in",
        -9.337840456144487
      ],
      [
        "▁s.r.o.",
        -9.338232311655661
      ],
      [
        "▁[",
        -9.338931445928495
      ],
      [
        "kr",
        -9.339187517065422
      ],
      [
        "Á",
        -9.339781422739899
      ],
      [
        "▁pět",
        -9.341000295726403
      ],
      [
        "▁www.",
        -9.34100279353322
      ],
      [
        "▁začal",
        -9.341132035375857
      ],
      [
        "▁Č",
        -9.341259357438327
      ],
      [
        "▁článku",
        -9.343731362033004
      ],
      [
        "▁vody",
        -9.344146652974903
      ],
      [
        "▁posledních",
        -9.345951331619254
      ],
      [
        "▁přitom",
        -9.349234086485236
      ],
      [
        "▁My",
        -9.349357167381914
      ],
      [
        "▁nutné",
        -9.349473734132271
      ],
      [
        "▁La",
        -9.349791117855313
      ],
      [
        "▁ženy",
        -9.350359945986384
      ],
      [
        "▁výkon",
        -9.350401976268289
      ],
      [
        "▁Ještě",
        -9.351461942441535
      ],
      [
        "ver",
        -9.353332500831453
      ],
      [
        "ic",
        -9.353629730231084
      ],
      [
        "▁občas",
        -9.355199342906001
      ],
      [
        "▁dělá",
        -9.356663400721416
      ],
      [
        "ami",
        -9.35773917027727
      ],
      [
        "30",
        -9.358742434284547
      ],
      [
        "▁Byl",
        -9.358907173413652
      ],
      [
        "▁Ba",
        -9.359025329158584
      ],
      [
        "▁atd.",
        -9.361998103756516
      ],
      [
        "át",
        -9.362125310259167
      ],
      [
        "▁ráno",
        -9.363026859929345
      ],
      [
        "▁trhu",
        -9.363112400569301
      ],
      [
        "▁situace",
        -9.364108338457267
      ],
      [
        "▁zpracování",
        -9.364404439580591
      ],
      [
        "▁Ú",
        -9.364989230554492
      ],
      [
        "▁paní",
        -9.365566670023604
      ],
      [
        "▁slova",
        -9.365932778636342
      ],
      [
        "▁nebyla",
        -9.367361335577307
      ],
      [
        "▁lépe",
        -9.367561044436023
      ],
      [
        "▁Bůh",
        -9.370354722096547
      ],
      [
        "▁nových",
        -9.371791756626056
      ],
      [
        "ovaný",
        -9.37264598034237
      ],
      [
        ",ale",
        -9.37390721200867
      ],
      [
        "sko",
        -9.37475658549687
      ],
      [
        "▁serveru",
        -9.375114986294887
      ],
      [
        "▁nena",
        -9.376569965285583
      ],
      [
        "▁zdraví",
        -9.377368768847752
      ],
      [
        "▁h",
        -9.377570315646224
      ],
      [
        "▁druhý",
        -9.378065120809152
      ],
      [
        "▁výše",
        -9.378320261337947
      ],
      [
        "hod",
        -9.378720009275307
      ],
      [
        "▁dnešní",
        -9.378869669032692
      ],
      [
        "▁dat",
        -9.379131465276245
      ],
      [
        "▁vedení",
        -9.379689156599078
      ],
      [
        "ina",
        -9.38003452609972
      ],
      [
        "▁právo",
        -9.381470918588546
      ],
      [
        "tra",
        -9.381883973515794
      ],
      [
        "▁obsahuje",
        -9.383279411525555
      ],
      [
        "▁výsledky",
        -9.383406245425018
      ],
      [
        "▁stránka",
        -9.383917852391983
      ],
      [
        "aci",
        -9.384173475701694
      ],
      [
        "▁stačí",
        -9.385292153659176
      ],
      [
        "▁20.",
        -9.38714898940974
      ],
      [
        "▁ml",
        -9.388010561722652
      ],
      [
        "▁způsob",
        -9.388945074816302
      ],
      [
        "L",
        -9.389685304088855
      ],
      [
        "▁2015",
        -9.389920791723377
      ],
      [
        "▁provedení",
        -9.389946533136492
      ],
      [
        "]",
        -9.390088271807745
      ],
      [
        "ční",
        -9.390934252816923
      ],
      [
        "▁Nový",
        -9.392206455236163
      ],
      [
        "▁číslo",
        -9.393144604262503
      ],
      [
        "▁problémy",
        -9.39399968547167
      ],
      [
        "▁obchodní",
        -9.394181425896274
      ],
      [
        "▁ú",
        -9.394374586373393
      ],
      [
        "▁čeká",
        -9.394535878081602
      ],
      [
        "▁menu",
        -9.397266295466624
      ],
      [
        "▁ně",
        -9.398052943447626
      ],
      [
        "▁zas",
        -9.399141433484377
      ],
      [
        "▁super",
        -9.400272693337666
      ],
      [
        "▁druhou",
        -9.40042637744256
      ],
      [
        "ujeme",
        -9.401432471092201
      ],
      [
        "▁Témata",
        -9.402286993615824
      ],
      [
        "▁způsobem",
        -9.402746378613845
      ],
      [
        "▁jednání",
        -9.40477527459539
      ],
      [
        "▁málo",
        -9.405747909576888
      ],
      [
        "ku,",
        -9.40629969044047
      ],
      [
        "ická",
        -9.406891219991767
      ],
      [
        "ační",
        -9.407253302440711
      ],
      [
        "čka",
        -9.409078232790106
      ],
      [
        "▁šíření",
        -9.410361437977151
      ],
      [
        "▁jedná",
        -9.410753047238558
      ],
      [
        "▁aplikace",
        -9.411016875950356
      ],
      [
        "▁Česku",
        -9.412920890706673
      ],
      [
        "jší",
        -9.41323267201561
      ],
      [
        "▁dům",
        -9.413302236383327
      ],
      [
        "▁ni",
        -9.413416067961307
      ],
      [
        "▁diskuse",
        -9.414948529624054
      ],
      [
        "▁musím",
        -9.415150190114336
      ],
      [
        "ber",
        -9.417268243308632
      ],
      [
        "▁tří",
        -9.420154557945866
      ],
      [
        "▁použít",
        -9.420943275113725
      ],
      [
        "ob",
        -9.420967581268965
      ],
      [
        "nosti",
        -9.421148199244069
      ],
      [
        "▁vždycky",
        -9.421809245048436
      ],
      [
        "▁(a",
        -9.42197018267753
      ],
      [
        "▁každého",
        -9.422369570927671
      ],
      [
        "▁novou",
        -9.42310350130354
      ],
      [
        "▁poprvé",
        -9.42363838564765
      ],
      [
        "▁vaší",
        -9.42501322445025
      ],
      [
        "▁chtěla",
        -9.42503704602287
      ],
      [
        "?\"",
        -9.425354620944649
      ],
      [
        "str",
        -9.428508189531271
      ],
      [
        "F",
        -9.428593879423882
      ],
      [
        "▁Brno",
        -9.428697070913206
      ],
      [
        "▁(v",
        -9.431157950883819
      ],
      [
        "▁Že",
        -9.43162701104967
      ],
      [
        "▁Pře",
        -9.432047975087638
      ],
      [
        "back",
        -9.43207154095294
      ],
      [
        "▁konce",
        -9.434781697974305
      ],
      [
        "mat",
        -9.43640483943295
      ],
      [
        "▁někde",
        -9.436498180306733
      ],
      [
        "▁chtějí",
        -9.437293877914492
      ],
      [
        "▁sociální",
        -9.439737656809212
      ],
      [
        "▁pomoc",
        -9.439801700368577
      ],
      [
        "▁dostat",
        -9.440520032299228
      ],
      [
        "▁dal",
        -9.442235984600988
      ],
      [
        "▁území",
        -9.442733162509786
      ],
      [
        "▁používání",
        -9.442927279746348
      ],
      [
        "▁nachází",
        -9.442997104198515
      ],
      [
        "▁500",
        -9.443609785732214
      ],
      [
        "▁členem",
        -9.443838373351259
      ],
      [
        "▁sex",
        -9.444049116664555
      ],
      [
        "▁státní",
        -9.444199618681974
      ],
      [
        "▁chci",
        -9.444243687235677
      ],
      [
        "ri",
        -9.444697863439455
      ],
      [
        "▁autor",
        -9.444949392617346
      ],
      [
        "▁Nové",
        -9.44508624526581
      ],
      [
        "▁De",
        -9.44611196714137
      ],
      [
        "▁pomoci",
        -9.446438353509038
      ],
      [
        "▁Martin",
        -9.446697526368636
      ],
      [
        "▁tzv.",
        -9.446805492238187
      ],
      [
        "▁Pod",
        -9.446924144251323
      ],
      [
        "▁programu",
        -9.448420900785475
      ],
      [
        "▁typu",
        -9.45216360103671
      ],
      [
        "děl",
        -9.45247327280092
      ],
      [
        "▁skupiny",
        -9.45352381788404
      ],
      [
        "▁vede",
        -9.454612169455281
      ],
      [
        "už",
        -9.456134203893994
      ],
      [
        "▁sama",
        -9.456535030725101
      ],
      [
        "NÍ",
        -9.457534507909733
      ],
      [
        "▁provoz",
        -9.458642201845816
      ],
      [
        "dl",
        -9.459278098240603
      ],
      [
        "▁Teď",
        -9.4599137787478
      ],
      [
        "ul",
        -9.460108213436964
      ],
      [
        "▁vnitřní",
        -9.460915999839413
      ],
      [
        "▁hodiny",
        -9.461120063632691
      ],
      [
        "▁rady",
        -9.465391205663764
      ],
      [
        "▁měsíc",
        -9.466342286906375
      ],
      [
        "▁mé",
        -9.466919413952258
      ],
      [
        "▁nová",
        -9.468573007297534
      ],
      [
        "▁21",
        -9.469529669602792
      ],
      [
        "▁myslím,",
        -9.471308664722056
      ],
      [
        "▁výběr",
        -9.471656409513002
      ],
      [
        "ovaná",
        -9.472059647971523
      ],
      [
        "▁nemám",
        -9.472459201550873
      ],
      [
        "▁velkou",
        -9.47294018480983
      ],
      [
        "▁městě",
        -9.473567812947245
      ],
      [
        "▁takhle",
        -9.474464159879908
      ],
      [
        "▁nemají",
        -9.47475641357936
      ],
      [
        "▁NA",
        -9.474859028940163
      ],
      [
        "▁Asi",
        -9.474960433940298
      ],
      [
        "▁finanční",
        -9.475209377454444
      ],
      [
        "▁používá",
        -9.475349889583027
      ],
      [
        "rt",
        -9.475502496257903
      ],
      [
        "▁cesta",
        -9.475532348964268
      ],
      [
        "▁půjčka",
        -9.476386436560242
      ],
      [
        "▁projektu",
        -9.476697287279746
      ],
      [
        "ši",
        -9.476929654779807
      ],
      [
        "▁většina",
        -9.477048977252618
      ],
      [
        "mě",
        -9.477758648571555
      ],
      [
        "vin",
        -9.478569417727957
      ],
      [
        "▁Možná",
        -9.47867887856258
      ],
      [
        "▁smlouvy",
        -9.478934713637045
      ],
      [
        "▁kterého",
        -9.48072300153683
      ],
      [
        "▁stav",
        -9.480791516062258
      ],
      [
        "▁naši",
        -9.480865605352065
      ],
      [
        "▁akci",
        -9.481326590438137
      ],
      [
        "▁cestu",
        -9.482113058458957
      ],
      [
        "▁stejné",
        -9.482463240013086
      ],
      [
        "▁Jo",
        -9.482829592781293
      ],
      [
        "▁foto",
        -9.483439452645467
      ],
      [
        "▁místní",
        -9.484068544372363
      ],
      [
        "ství",
        -9.48429444059883
      ],
      [
        "▁sobotu",
        -9.484418385279714
      ],
      [
        "▁soud",
        -9.484750063710855
      ],
      [
        "▁změny",
        -9.485732978955587
      ],
      [
        "▁22",
        -9.485889430535991
      ],
      [
        "▁ráda",
        -9.486689229689839
      ],
      [
        "▁věc",
        -9.487023259011941
      ],
      [
        "▁hrát",
        -9.487350484091706
      ],
      [
        "▁8.",
        -9.487533882331032
      ],
      [
        "▁let.",
        -9.488466028071787
      ],
      [
        "▁poté",
        -9.488722477645474
      ],
      [
        "▁tímto",
        -9.488807525224804
      ],
      [
        "▁Navíc",
        -9.489066580575331
      ],
      [
        "▁noci",
        -9.48916861624837
      ],
      [
        "▁stránkách",
        -9.489957886137393
      ],
      [
        "▁čem",
        -9.490764300888692
      ],
      [
        "▁tehdy",
        -9.491401634331423
      ],
      [
        "ník",
        -9.49286270032717
      ],
      [
        "▁kontakt",
        -9.493058383502964
      ],
      [
        "ent",
        -9.49398917039917
      ],
      [
        "▁současné",
        -9.494234259973236
      ],
      [
        "▁Sb.",
        -9.494482317580326
      ],
      [
        "▁Jakékoli",
        -9.495031764215248
      ],
      [
        "▁zájem",
        -9.496286140851787
      ],
      [
        "▁ma",
        -9.49643402519601
      ],
      [
        "▁funkce",
        -9.497227900131783
      ],
      [
        "Ochrana",
        -9.49794715802025
      ],
      [
        "nit",
        -9.498324147243018
      ],
      [
        "pr",
        -9.498790223836806
      ],
      [
        "()",
        -9.499601856240123
      ],
      [
        "▁snadno",
        -9.500320362209568
      ],
      [
        "ky.",
        -9.501592523067067
      ],
      [
        "▁začíná",
        -9.504387649091598
      ],
      [
        "▁ubytování",
        -9.504497647115013
      ],
      [
        "▁nejde",
        -9.505312671834108
      ],
      [
        "ček",
        -9.50821776314211
      ],
      [
        "▁neměl",
        -9.508431936530737
      ],
      [
        "▁Váš",
        -9.509443522981401
      ],
      [
        "▁aspoň",
        -9.510685351947295
      ],
      [
        "▁Každý",
        -9.510778479556754
      ],
      [
        "▁najít",
        -9.511207486068923
      ],
      [
        "▁jaký",
        -9.514126267055303
      ],
      [
        "▁nepro",
        -9.514543655732195
      ],
      [
        "▁Králové",
        -9.515166928006963
      ],
      [
        "▁snaží",
        -9.515552136305516
      ],
      [
        "ska",
        -9.515795025372359
      ],
      [
        "▁prodej",
        -9.516492761851403
      ],
      [
        "Č",
        -9.517100172737795
      ],
      [
        "▁tým",
        -9.517370197168814
      ],
      [
        "▁případně",
        -9.519028920904884
      ],
      [
        "sp",
        -9.519349343635044
      ],
      [
        "▁Poslední",
        -9.519762814109875
      ],
      [
        ",že",
        -9.520081027919312
      ],
      [
        "▁2012",
        -9.52083061917892
      ],
      [
        "ží",
        -9.522702163769054
      ],
      [
        "▁trh",
        -9.523045421111844
      ],
      [
        "go",
        -9.524389623386746
      ],
      [
        "▁Ch",
        -9.52447291870393
      ],
      [
        "▁soutěže",
        -9.525592035713384
      ],
      [
        "“,",
        -9.526125982539446
      ],
      [
        "▁stavu",
        -9.526220668755514
      ],
      [
        "▁Zá",
        -9.526336119095108
      ],
      [
        "▁kolo",
        -9.527360397324692
      ],
      [
        "▁projekt",
        -9.527933219738067
      ],
      [
        "▁činnosti",
        -9.527997045390098
      ],
      [
        "▁měly",
        -9.529026324712643
      ],
      [
        "▁normální",
        -9.52928907112719
      ],
      [
        "▁funguje",
        -9.529676469916595
      ],
      [
        "ech.",
        -9.529718112087219
      ],
      [
        "hl",
        -9.529847742378008
      ],
      [
        "▁tvrdí",
        -9.53133593367727
      ],
      [
        "▁Máte",
        -9.532482105618822
      ],
      [
        "▁musíte",
        -9.53371877427889
      ],
      [
        "▁muž",
        -9.533988309254742
      ],
      [
        "▁náměstí",
        -9.534228695259054
      ],
      [
        "▁Přihlásit",
        -9.534327476910228
      ],
      [
        "▁Bylo",
        -9.534617884922682
      ],
      [
        "sta",
        -9.535391651638818
      ],
      [
        "▁film",
        -9.535701785996208
      ],
      [
        "▁hotelu",
        -9.536896781849233
      ],
      [
        "▁Jízd",
        -9.538023220083769
      ],
      [
        "▁mohlo",
        -9.53830195476361
      ],
      [
        "▁Nová",
        -9.538770493667975
      ],
      [
        "▁12.",
        -9.54002895199445
      ],
      [
        "pat",
        -9.540160339916827
      ],
      [
        "▁Informace",
        -9.54041062679045
      ],
      [
        "či",
        -9.541150217706775
      ],
      [
        "pro",
        -9.541265340087413
      ],
      [
        "▁Články",
        -9.542561727426273
      ],
      [
        "▁jednom",
        -9.543681376570746
      ],
      [
        "men",
        -9.543713078042515
      ],
      [
        "▁takto",
        -9.544752260625135
      ],
      [
        "▁samo",
        -9.54476845205538
      ],
      [
        "ár",
        -9.544859096585277
      ],
      [
        "▁pátek",
        -9.545654024242834
      ],
      [
        "▁listopadu",
        -9.545853582757283
      ],
      [
        "▁osob",
        -9.546138223457078
      ],
      [
        "▁menší",
        -9.546540655400964
      ],
      [
        "▁Diskuse",
        -9.547136672368435
      ],
      [
        "▁námi",
        -9.54835970518483
      ],
      [
        "▁pojištění",
        -9.548475175349093
      ],
      [
        "▁stane",
        -9.550631294259503
      ],
      [
        "▁Bez",
        -9.551025046442888
      ],
      [
        "▁znamená",
        -9.554912076934524
      ],
      [
        "▁vedle",
        -9.555203789513252
      ],
      [
        "▁odpověď",
        -9.555706933024993
      ],
      [
        "20",
        -9.556942444451195
      ],
      [
        "▁zřejmě",
        -9.557179861031788
      ],
      [
        "▁zakázáno.",
        -9.558618571338998
      ],
      [
        "▁nejvíce",
        -9.55892792657868
      ],
      [
        "▁webových",
        -9.560223804975896
      ],
      [
        "▁p",
        -9.560876914016134
      ],
      [
        "▁musel",
        -9.562112414896927
      ],
      [
        "▁nepři",
        -9.56253070841829
      ],
      [
        "▁procent",
        -9.563323212308191
      ],
      [
        "▁Ping",
        -9.563548231697323
      ],
      [
        "žit",
        -9.56360123435389
      ],
      [
        "▁správně",
        -9.56500599507443
      ],
      [
        "▁ruce",
        -9.565562610390128
      ],
      [
        "▁kola",
        -9.56582868479719
      ],
      [
        "▁ČTK",
        -9.566516288245403
      ],
      [
        "▁Najdete",
        -9.56657881798634
      ],
      [
        "▁republiky",
        -9.567147408767529
      ],
      [
        "▁včera",
        -9.56771488187127
      ],
      [
        "▁téma",
        -9.568435419590916
      ],
      [
        "▁všude",
        -9.56922041388575
      ],
      [
        "▁kromě",
        -9.571128444904783
      ],
      [
        "▁škol",
        -9.571625536848291
      ],
      [
        "▁ihned",
        -9.572679997587066
      ],
      [
        "▁Mohl",
        -9.573002487941714
      ],
      [
        "▁raději",
        -9.573483276565323
      ],
      [
        "ková",
        -9.57360811192883
      ],
      [
        "▁českých",
        -9.574572569314316
      ],
      [
        "▁Le",
        -9.57492926443172
      ],
      [
        "▁jednotlivých",
        -9.575129658420277
      ],
      [
        "▁řády",
        -9.575893848112246
      ],
      [
        "▁data",
        -9.576816123132087
      ],
      [
        "▁stranu",
        -9.576885252716458
      ],
      [
        "▁Roz",
        -9.577092935361705
      ],
      [
        "▁kole",
        -9.57709589184747
      ],
      [
        "▁materiál",
        -9.577942379184552
      ],
      [
        "▁firma",
        -9.578187898968233
      ],
      [
        "▁happyfly.cz",
        -9.578971608556138
      ],
      [
        "ák",
        -9.57931066359381
      ],
      [
        "▁TV",
        -9.579757872363226
      ],
      [
        "pu",
        -9.580057597108201
      ],
      [
        "▁Vše",
        -9.580419462648056
      ],
      [
        "▁Ani",
        -9.581143982841148
      ],
      [
        "▁Děkuji",
        -9.581539545347447
      ],
      [
        "▁(3)",
        -9.582258587516165
      ],
      [
        "▁životě",
        -9.583090872165652
      ],
      [
        "▁ode",
        -9.583204197528003
      ],
      [
        "▁škole",
        -9.584259234254517
      ],
      [
        "▁starší",
        -9.584494886284316
      ],
      [
        "▁d",
        -9.585430204129448
      ],
      [
        "ější",
        -9.585572878540638
      ],
      [
        "▁lidí,",
        -9.586075782229337
      ],
      [
        "▁doba",
        -9.58677359538348
      ],
      [
        "▁smysl",
        -9.588214009089086
      ],
      [
        "▁Kde",
        -9.588676045293557
      ],
      [
        "▁možnosti",
        -9.589455842101984
      ],
      [
        "▁19.",
        -9.589564839557575
      ],
      [
        "▁začala",
        -9.590128822087856
      ],
      [
        "ován",
        -9.59029482772237
      ],
      [
        "nutí",
        -9.591097661346005
      ],
      [
        "▁pěti",
        -9.59114061839017
      ],
      [
        "▁muset",
        -9.591858284270419
      ],
      [
        "▁mého",
        -9.592542397604753
      ],
      [
        "▁umí",
        -9.592940771068848
      ],
      [
        "ech,",
        -9.592968535814395
      ],
      [
        "▁přesto",
        -9.593457497660626
      ],
      [
        "▁vliv",
        -9.593477369781356
      ],
      [
        "▁Měl",
        -9.595003834356934
      ],
      [
        "▁odkazy",
        -9.595309387919208
      ],
      [
        "▁začne",
        -9.59580307553896
      ],
      [
        "▁měsíců",
        -9.595808087884574
      ],
      [
        "T.",
        -9.596477184215491
      ],
      [
        "▁kterém",
        -9.596509310204189
      ],
      [
        "▁dnů",
        -9.598114355639026
      ],
      [
        "ický",
        -9.598633068400176
      ],
      [
        "plat",
        -9.598815553492155
      ],
      [
        "▁Zeman",
        -9.59897408516384
      ],
      [
        "▁150",
        -9.599913020915672
      ],
      [
        "▁nevím",
        -9.600821871332819
      ],
      [
        "▁Ob",
        -9.60289368331432
      ],
      [
        "▁podporu",
        -9.603516213919754
      ],
      [
        "▁neboť",
        -9.603621698079465
      ],
      [
        "vé",
        -9.6038383534447
      ],
      [
        "▁získat",
        -9.604542367603468
      ],
      [
        "X",
        -9.606102156599814
      ],
      [
        "▁taková",
        -9.60651902750336
      ],
      [
        "▁došlo",
        -9.607510204197208
      ],
      [
        "▁syn",
        -9.607823972592398
      ],
      [
        "kách",
        -9.608511536192534
      ],
      [
        "▁řešit",
        -9.60853608070202
      ],
      [
        "▁zkušenosti",
        -9.609538047779093
      ],
      [
        "ík",
        -9.609639899024154
      ],
      [
        "▁přírodní",
        -9.609650949690803
      ],
      [
        "▁Reuters",
        -9.610224153746154
      ],
      [
        "nej",
        -9.61061834892158
      ],
      [
        "▁deset",
        -9.611085980344631
      ],
      [
        "”",
        -9.611853478553412
      ],
      [
        "bi",
        -9.61236721150761
      ],
      [
        "▁Pavel",
        -9.612701979845268
      ],
      [
        "▁speciální",
        -9.61279629252456
      ],
      [
        "▁nevím,",
        -9.613217200060653
      ],
      [
        "▁Děkujeme",
        -9.61430245985625
      ],
      [
        "▁typ",
        -9.616298684755783
      ],
      [
        "hle",
        -9.61663337426478
      ],
      [
        "▁obou",
        -9.61786905113588
      ],
      [
        "ala",
        -9.61904096681191
      ],
      [
        "▁domu",
        -9.619092881419498
      ],
      [
        "CH",
        -9.619217432200227
      ],
      [
        "▁voda",
        -9.6193986643645
      ],
      [
        "sku",
        -9.619506334385502
      ],
      [
        "ální",
        -9.619889198797413
      ],
      [
        "ge",
        -9.620600346994244
      ],
      [
        "▁Hradec",
        -9.620888208643489
      ],
      [
        "▁poměrně",
        -9.621936291838445
      ],
      [
        "▁pa",
        -9.622892679358596
      ],
      [
        "▁Myslím",
        -9.6242394345255
      ],
      [
        "▁líbí",
        -9.624890477049757
      ],
      [
        "▁český",
        -9.624967670001926
      ],
      [
        "ant",
        -9.625113196514032
      ],
      [
        "▁vybrat",
        -9.62564370655226
      ],
      [
        "▁přišel",
        -9.625731570108606
      ],
      [
        "▁80",
        -9.62584260323801
      ],
      [
        "▁potřeby",
        -9.626089002713222
      ],
      [
        "ě.",
        -9.627344046500829
      ],
      [
        "▁účet",
        -9.627845498091965
      ],
      [
        "▁peněz",
        -9.627916899205653
      ],
      [
        "▁zhruba",
        -9.630784206876342
      ],
      [
        "▁kraji",
        -9.631903781052255
      ],
      [
        "▁telefon",
        -9.6322773157812
      ],
      [
        "den",
        -9.632779442683614
      ],
      [
        "pal",
        -9.633078288296044
      ],
      [
        "▁krásné",
        -9.633096240718292
      ],
      [
        "▁volby",
        -9.633289804032977
      ],
      [
        "▁zemi",
        -9.633815114129117
      ],
      [
        "▁nepře",
        -9.633889423336342
      ],
      [
        "▁těm",
        -9.63448177136145
      ],
      [
        "stup",
        -9.634868400842635
      ],
      [
        "▁Windows",
        -9.636617433513768
      ],
      [
        "ání",
        -9.637174404258465
      ],
      [
        "mile",
        -9.641053023389631
      ],
      [
        "▁provozu",
        -9.641347420800772
      ],
      [
        "▁a.s.",
        -9.641875213598654
      ],
      [
        "▁Naše",
        -9.642095570861693
      ],
      [
        "▁škola",
        -9.642505196518517
      ],
      [
        "▁stal",
        -9.642648635774417
      ],
      [
        "▁dneska",
        -9.644123621119025
      ],
      [
        "▁našem",
        -9.64414823099253
      ],
      [
        "▁nejvyšší",
        -9.645348516049989
      ],
      [
        "▁21.",
        -9.646468450914616
      ],
      [
        "ali",
        -9.646861310875702
      ],
      [
        "bal",
        -9.647151914671404
      ],
      [
        "▁malá",
        -9.64788768598724
      ],
      [
        "▁umožňuje",
        -9.64839965556095
      ],
      [
        "kla",
        -9.648979247224943
      ],
      [
        "▁vysoké",
        -9.64917308834719
      ],
      [
        "▁of",
        -9.649313748553459
      ],
      [
        "▁b",
        -9.649331802627998
      ],
      [
        "▁filmu",
        -9.649668280939487
      ],
      [
        "▁důvodu",
        -9.64994252192442
      ],
      [
        "▁kg",
        -9.650054491822429
      ],
      [
        "▁buď",
        -9.650353959232081
      ],
      [
        "ke",
        -9.650354347953636
      ],
      [
        "▁podobě",
        -9.650954382984564
      ],
      [
        "▁vašeho",
        -9.651291737204115
      ],
      [
        "Tyto",
        -9.651473893836197
      ],
      [
        "▁holky",
        -9.652810966195105
      ],
      [
        "▁republika",
        -9.655172570478115
      ],
      [
        "▁využít",
        -9.655177443681467
      ],
      [
        "▁moci",
        -9.655653132456003
      ],
      [
        "ven",
        -9.656747689108922
      ],
      [
        "▁aktuální",
        -9.65827083322821
      ],
      [
        "▁Protože",
        -9.658643287050717
      ],
      [
        "bu",
        -9.658868594306798
      ],
      [
        "ar",
        -9.659346308961819
      ],
      [
        "▁seznam",
        -9.661117147099713
      ],
      [
        "▁činnost",
        -9.66112293757266
      ],
      [
        "án",
        -9.661256393904136
      ],
      [
        "▁věku",
        -9.661381728093613
      ],
      [
        "ck",
        -9.661821372775972
      ],
      [
        "▁styl",
        -9.661857963282333
      ],
      [
        "▁The",
        -9.661982306381105
      ],
      [
        "▁obchod",
        -9.662189420415714
      ],
      [
        "▁domů",
        -9.664928214161161
      ],
      [
        "▁měsíce",
        -9.664974072110804
      ],
      [
        "pis",
        -9.66629943626609
      ],
      [
        "▁dříve",
        -9.666476843659895
      ],
      [
        "▁Boží",
        -9.66681737524883
      ],
      [
        "▁chování",
        -9.667186399107688
      ],
      [
        "▁strana",
        -9.667257360233217
      ],
      [
        "▁důležité",
        -9.667684676942413
      ],
      [
        "▁uvedl",
        -9.66813897687177
      ],
      [
        "▁svoji",
        -9.669784031277906
      ],
      [
        "▁dvěma",
        -9.670001469425495
      ],
      [
        "▁Jenže",
        -9.670245213108995
      ],
      [
        "hr",
        -9.670408695256482
      ],
      [
        "▁prostřednictvím",
        -9.670625184592032
      ],
      [
        "ír",
        -9.670774917503412
      ],
      [
        "kládat",
        -9.670888964521994
      ],
      [
        "lad",
        -9.672256468026
      ],
      [
        "dá",
        -9.672695169844989
      ],
      [
        "▁90",
        -9.672880668253152
      ],
      [
        "sti",
        -9.674800481076678
      ],
      [
        "▁malý",
        -9.675192102087168
      ],
      [
        "▁Tomáš",
        -9.675535207563858
      ],
      [
        "▁moderní",
        -9.676405574596803
      ],
      [
        "ního",
        -9.676958562888931
      ],
      [
        "▁vydání",
        -9.677365555783169
      ],
      [
        "Tím",
        -9.67809838839159
      ],
      [
        "▁knihy",
        -9.678287080990582
      ],
      [
        "▁kon",
        -9.679279800949079
      ],
      [
        "▁Ústí",
        -9.6793566464967
      ],
      [
        "▁byt",
        -9.679645886920852
      ],
      [
        "▁Lo",
        -9.680901578976219
      ],
      [
        "▁odkaz",
        -9.681326360558579
      ],
      [
        "▁Ano,",
        -9.681712811026658
      ],
      [
        "▁e-mail",
        -9.68209533392399
      ],
      [
        "osti",
        -9.683230706183226
      ],
      [
        "+",
        -9.683429764991764
      ],
      [
        "▁názor",
        -9.683632488956427
      ],
      [
        "▁her",
        -9.683790337005215
      ],
      [
        "ička",
        -9.683837311252134
      ],
      [
        "▁In",
        -9.68431751359217
      ],
      [
        "▁sto",
        -9.68435593416832
      ],
      [
        "▁km",
        -9.685120611563754
      ],
      [
        "▁balení",
        -9.6852997439776
      ],
      [
        "▁koupit",
        -9.68531940727814
      ],
      [
        "▁rodiče",
        -9.685442236979885
      ],
      [
        "▁výrazně",
        -9.685765536160709
      ],
      [
        "▁IČ",
        -9.686013941421741
      ],
      [
        "▁vhodný",
        -9.686404112386889
      ],
      [
        "▁pěkně",
        -9.6868402492127
      ],
      [
        "▁zpřístupňování",
        -9.688064706448294
      ],
      [
        "▁situaci",
        -9.688870589341239
      ],
      [
        "▁2011",
        -9.689631269932043
      ],
      [
        "ají",
        -9.68978993447198
      ],
      [
        "▁jež",
        -9.690320958987765
      ],
      [
        "ené",
        -9.690626621818467
      ],
      [
        "▁postupně",
        -9.692278326613243
      ],
      [
        "▁příští",
        -9.69242936408129
      ],
      [
        "▁spoustu",
        -9.692815700991913
      ],
      [
        "▁jiná",
        -9.693156884748017
      ],
      [
        "▁díl",
        -9.69321098838317
      ],
      [
        "▁delší",
        -9.693374272523414
      ],
      [
        "▁koncernu",
        -9.693756744059687
      ],
      [
        "▁oči",
        -9.69399097076941
      ],
      [
        "▁nedá",
        -9.694524775396609
      ],
      [
        "▁video",
        -9.695099904018935
      ],
      [
        "kov",
        -9.69641024474429
      ],
      [
        "nul",
        -9.697226840763545
      ],
      [
        "▁(s",
        -9.697678077961095
      ],
      [
        "ď",
        -9.697875207311029
      ],
      [
        "tý",
        -9.69788522928303
      ],
      [
        "▁prezident",
        -9.698064624030298
      ],
      [
        "▁Labem",
        -9.698182839655406
      ],
      [
        "▁řadu",
        -9.698772991145534
      ],
      [
        "▁hlas",
        -9.699179264370349
      ],
      [
        "▁metrů",
        -9.699327712327712
      ],
      [
        "▁nastavení",
        -9.699709388399876
      ],
      [
        "▁péče",
        -9.699906940512548
      ],
      [
        "▁lidem",
        -9.70026957354806
      ],
      [
        "▁brzy",
        -9.70224727105218
      ],
      [
        "vůči",
        -9.702521475608169
      ],
      [
        "▁f",
        -9.702848082649918
      ],
      [
        "▁abyste",
        -9.703576167718683
      ],
      [
        "▁r.",
        -9.70404361663886
      ],
      [
        "▁Ro",
        -9.704081305986266
      ],
      [
        "ó",
        -9.704235795055634
      ],
      [
        "ek,",
        -9.704336924739938
      ],
      [
        "▁daleko",
        -9.705219307426704
      ],
      [
        "mal",
        -9.705645820285046
      ],
      [
        "len",
        -9.705740928823309
      ],
      [
        "335",
        -9.707482461460597
      ],
      [
        "▁šéf",
        -9.709500306033505
      ],
      [
        "▁průběhu",
        -9.710478232735056
      ],
      [
        "▁fotografie",
        -9.71129323793771
      ],
      [
        "▁100%",
        -9.711642491957605
      ],
      [
        "▁:D",
        -9.71235684465479
      ],
      [
        "▁On",
        -9.712548475671714
      ],
      [
        "▁dodavatelé",
        -9.712554413397758
      ],
      [
        "▁společně",
        -9.713048045298258
      ],
      [
        "▁používat",
        -9.7139139455706
      ],
      [
        "št",
        -9.714046034918537
      ],
      [
        "▁plné",
        -9.714190623078757
      ],
      [
        "tro",
        -9.714446446016275
      ],
      [
        "▁=",
        -9.71696900879315
      ],
      [
        "▁osobně",
        -9.717555018742903
      ],
      [
        "ku.",
        -9.7183807356298
      ],
      [
        "ruš",
        -9.718848942611789
      ],
      [
        "▁výrobce",
        -9.71886400258403
      ],
      [
        "▁rovněž",
        -9.719416831062194
      ],
      [
        "▁Ha",
        -9.719559354492642
      ],
      [
        "FER",
        -9.719834461812988
      ],
      [
        "▁přibližně",
        -9.721269046780757
      ],
      [
        "▁Mezi",
        -9.721427800752863
      ],
      [
        "▁jedním",
        -9.723014499231088
      ],
      [
        "10",
        -9.7234715440526
      ],
      [
        "▁Provozovatelem",
        -9.724212853609561
      ],
      [
        "▁apod.",
        -9.725883658591242
      ],
      [
        "▁pokoj",
        -9.726216057023862
      ],
      [
        "▁Pa",
        -9.727490481196567
      ],
      [
        "der",
        -9.72796248743865
      ],
      [
        "▁NE",
        -9.72884257841205
      ],
      [
        "▁Vý",
        -9.729668137217043
      ],
      [
        "íme",
        -9.72991206840823
      ],
      [
        "▁měsíci",
        -9.729946948689658
      ],
      [
        "▁organizace",
        -9.73004659569423
      ],
      [
        "▁děkuji",
        -9.730120097882992
      ],
      [
        "▁člověka",
        -9.730674563012832
      ],
      [
        "▁čtyř",
        -9.731939383255964
      ],
      [
        "▁Byla",
        -9.732112143186509
      ],
      [
        "▁Ahoj",
        -9.732173108356996
      ],
      [
        "▁cen",
        -9.73247081628946
      ],
      [
        "▁2010",
        -9.732572065862175
      ],
      [
        "▁23",
        -9.732916948877635
      ],
      [
        "ner",
        -9.733510357245926
      ],
      [
        "▁vývoj",
        -9.734238109199019
      ],
      [
        "tek",
        -9.735678946962857
      ],
      [
        "ké",
        -9.73612520496458
      ],
      [
        "▁nechat",
        -9.736184223970639
      ],
      [
        "té",
        -9.73626382403783
      ],
      [
        "▁AGRO",
        -9.73674527353635
      ],
      [
        "liv",
        -9.736921853592424
      ],
      [
        "▁začít",
        -9.737597566935504
      ],
      [
        "ště",
        -9.737764133321738
      ],
      [
        "):",
        -9.738087336307638
      ],
      [
        "▁tebe",
        -9.738675661075057
      ],
      [
        "▁rychlost",
        -9.739351726939299
      ],
      [
        "▁ona",
        -9.740096522613175
      ],
      [
        "▁ideální",
        -9.740586635555644
      ],
      [
        "*",
        -9.741503184753794
      ],
      [
        "▁celkové",
        -9.741620310727304
      ],
      [
        "▁hotel",
        -9.743090202378582
      ],
      [
        "▁70",
        -9.743561092894117
      ],
      [
        "▁postup",
        -9.744012222439855
      ],
      [
        "▁Ze",
        -9.744681591658182
      ],
      [
        "▁roze",
        -9.74487651290282
      ],
      [
        "ců",
        -9.745888331452024
      ],
      [
        "▁MS",
        -9.745908460815063
      ],
      [
        "hy",
        -9.746380048883065
      ],
      [
        "▁žádná",
        -9.747240195246752
      ],
      [
        "▁němu",
        -9.747769258460528
      ],
      [
        "▁Mi",
        -9.74840578667082
      ],
      [
        "▁akcí",
        -9.749087700802349
      ],
      [
        "▁týmu",
        -9.751426477050675
      ],
      [
        "▁Google",
        -9.75156136805716
      ],
      [
        "▁kategorie",
        -9.751640537003425
      ],
      [
        "▁působí",
        -9.75244735079933
      ],
      [
        "rat",
        -9.75340070594111
      ],
      [
        "▁Mar",
        -9.75402410586492
      ],
      [
        "br",
        -9.754386550218488
      ],
      [
        "!“",
        -9.755068785821486
      ],
      [
        "▁letenky",
        -9.75553652778559
      ],
      [
        "▁sportovní",
        -9.755604708074678
      ],
      [
        "▁produktů",
        -9.755943537987573
      ],
      [
        "▁radost",
        -9.756082998938393
      ],
      [
        "min",
        -9.75616711424546
      ],
      [
        "▁Kromě",
        -9.756814268354693
      ],
      [
        "▁Základní",
        -9.75763880981053
      ],
      [
        "▁vztah",
        -9.758041367560992
      ],
      [
        "▁auta",
        -9.758125465617532
      ],
      [
        "▁každou",
        -9.75832002597176
      ],
      [
        "kl",
        -9.75857718035853
      ],
      [
        "01",
        -9.758832647514291
      ],
      [
        "▁vlasy",
        -9.758923715727647
      ],
      [
        "▁15.",
        -9.759113440346333
      ],
      [
        "▁nesmí",
        -9.760030635228059
      ],
      [
        "▁Vydavatelství",
        -9.760110421772195
      ],
      [
        "Ž",
        -9.760905933485072
      ],
      [
        "▁Mo",
        -9.76096367194826
      ],
      [
        "▁denně",
        -9.761231608132611
      ],
      [
        "uju",
        -9.761543619337871
      ],
      [
        "abychom",
        -9.761848361719673
      ],
      [
        "▁pohledu",
        -9.762074713092012
      ],
      [
        "▁chuť",
        -9.762585498741421
      ],
      [
        "nic",
        -9.763548558540123
      ],
      [
        "▁Pan",
        -9.76369645735852
      ],
      [
        "▁dostala",
        -9.7643085364194
      ],
      [
        "raz",
        -9.764340378237097
      ],
      [
        "▁Profimedia",
        -9.764420846900569
      ],
      [
        "▁&",
        -9.764479712955184
      ],
      [
        "▁nechce",
        -9.76463359107547
      ],
      [
        "▁mnou",
        -9.764658216884563
      ],
      [
        "▁4531",
        -9.764879817330431
      ],
      [
        "▁centra",
        -9.765003802312137
      ],
      [
        "▁velikosti",
        -9.765339613211355
      ],
      [
        "▁svými",
        -9.765585371151323
      ],
      [
        "▁sítě",
        -9.76584276532162
      ],
      [
        "ému",
        -9.766745310741957
      ],
      [
        "▁podstatě",
        -9.766757622109802
      ],
      [
        "▁internetu",
        -9.767347438249846
      ],
      [
        "▁svoje",
        -9.769623402414954
      ],
      [
        "▁Bohužel",
        -9.77005233059453
      ],
      [
        "▁vys",
        -9.770265342365029
      ],
      [
        "▁chtěli",
        -9.770335064045014
      ],
      [
        "▁1999–201",
        -9.770567253202344
      ],
      [
        "ist",
        -9.771566314836962
      ],
      [
        "nění",
        -9.771713644697323
      ],
      [
        "byt",
        -9.772112588839406
      ],
      [
        "▁žije",
        -9.772554017697981
      ],
      [
        "▁řada",
        -9.77271250003238
      ],
      [
        ",tak",
        -9.773205520753583
      ],
      [
        "▁nejsem",
        -9.773369648961623
      ],
      [
        "ce,",
        -9.77359938952101
      ],
      [
        "▁celém",
        -9.775185914017955
      ],
      [
        "stra",
        -9.776377908110181
      ],
      [
        "▁zajímavé",
        -9.776478955422967
      ],
      [
        "lin",
        -9.7765488028475
      ],
      [
        "▁300",
        -9.776570523679577
      ],
      [
        "th",
        -9.776682148090345
      ],
      [
        "▁komentáře",
        -9.777349052841387
      ],
      [
        "▁nebudou",
        -9.777512357056768
      ],
      [
        "sl",
        -9.777708624421726
      ],
      [
        "▁směrem",
        -9.7779846790669
      ],
      [
        "▁Hotel",
        -9.778157477166653
      ],
      [
        "▁vážně",
        -9.778180728337095
      ],
      [
        "▁rukou",
        -9.778777562510838
      ],
      [
        "▁návrh",
        -9.779355058103114
      ],
      [
        "▁řadě",
        -9.78063791608561
      ],
      [
        "▁Cena",
        -9.781264417952194
      ],
      [
        "Lidé",
        -9.781400172014141
      ],
      [
        "▁Zde",
        -9.78261927907792
      ],
      [
        "▁míst",
        -9.782637432908913
      ],
      [
        "▁počasí",
        -9.78268980905332
      ],
      [
        "▁pocit",
        -9.784523113009994
      ],
      [
        "▁ulici",
        -9.784896543667527
      ],
      [
        "▁nijak",
        -9.78505734699142
      ],
      [
        "ler",
        -9.78579448847401
      ],
      [
        "▁dnech",
        -9.785802074306808
      ],
      [
        "▁dlouhé",
        -9.785865681790806
      ],
      [
        "▁policie",
        -9.786957270933877
      ],
      [
        "▁18.",
        -9.788798705254546
      ],
      [
        "▁psát",
        -9.788914150488637
      ],
      [
        "▁(S",
        -9.78979960802288
      ],
      [
        "▁svému",
        -9.790667867893045
      ],
      [
        "▁vláda",
        -9.791260000153617
      ],
      [
        "▁myslím",
        -9.791838503503554
      ],
      [
        "▁2008",
        -9.792598262988452
      ],
      [
        "▁13.",
        -9.793698833203416
      ],
      [
        "▁takovou",
        -9.795169651493953
      ],
      [
        "▁email",
        -9.795868676005028
      ],
      [
        "van",
        -9.796895151850002
      ],
      [
        "▁podobné",
        -9.79771257500456
      ],
      [
        "▁cesty",
        -9.79916967940709
      ],
      [
        "▁Toto",
        -9.799250877855185
      ],
      [
        "▁takového",
        -9.79929328018266
      ],
      [
        "▁hor",
        -9.799488996830515
      ],
      [
        "▁srdce",
        -9.800281402347093
      ],
      [
        "▁nabídka",
        -9.800637282898386
      ],
      [
        "▁PO",
        -9.80081322572852
      ],
      [
        "kám",
        -9.801691323605066
      ],
      [
        "▁domě",
        -9.801774882631534
      ],
      [
        "▁nějaká",
        -9.80197632762265
      ],
      [
        "▁17.",
        -9.80259113990637
      ],
      [
        "▁Společnost",
        -9.803125557835465
      ],
      [
        "▁skutečnosti",
        -9.803431724744717
      ],
      [
        "'",
        -9.80366865499125
      ],
      [
        "▁😞",
        -9.804813942904385
      ],
      [
        "▁neustále",
        -9.805717997683786
      ],
      [
        "ejte",
        -9.805918591466902
      ],
      [
        "▁teprve",
        -9.807671656189218
      ],
      [
        "▁Jana",
        -9.808146133377335
      ],
      [
        "▁žena",
        -9.809392766002878
      ],
      [
        "nout",
        -9.810469631546704
      ],
      [
        "▁Jestli",
        -9.810611094981649
      ],
      [
        "▁spolupráci",
        -9.811528150879564
      ],
      [
        "▁Ho",
        -9.81167373183734
      ],
      [
        "▁PC",
        -9.812372241895815
      ],
      [
        "▁motor",
        -9.812377530476024
      ],
      [
        "▁baterie",
        -9.812973697791888
      ],
      [
        "až",
        -9.813199869253127
      ],
      [
        "▁těžké",
        -9.813530971521441
      ],
      [
        "▁neděli",
        -9.813577249723473
      ],
      [
        "krát",
        -9.815076775953036
      ],
      [
        "▁Ž",
        -9.81531074037185
      ],
      [
        "▁zdravotní",
        -9.815441073737983
      ],
      [
        "▁ročník",
        -9.816159732235423
      ],
      [
        "▁platit",
        -9.81618627644104
      ],
      [
        "▁oni",
        -9.816634806716895
      ],
      [
        "▁barva",
        -9.816930645389476
      ],
      [
        "▁plán",
        -9.817379066429671
      ],
      [
        "▁případ",
        -9.81787249756237
      ],
      [
        "▁klidně",
        -9.819718284279915
      ],
      [
        "▁LED",
        -9.820314745950405
      ],
      [
        "▁někoho",
        -9.820836980557175
      ],
      [
        "▁cestě",
        -9.821400575511731
      ],
      [
        "hled",
        -9.821480750770952
      ],
      [
        "▁Ma",
        -9.82194848615415
      ],
      [
        "­",
        -9.822061356835011
      ],
      [
        "ment",
        -9.822587358911173
      ],
      [
        "▁najednou",
        -9.822590233368935
      ],
      [
        "▁musíme",
        -9.824056662051966
      ],
      [
        "▁okolo",
        -9.824254018797436
      ],
      [
        "ovaných",
        -9.824800042957051
      ],
      [
        "▁tvoří",
        -9.82492947302351
      ],
      [
        "Také",
        -9.825551637562427
      ],
      [
        "▁ředitel",
        -9.825699111815224
      ],
      [
        "▁ledna",
        -9.825994501247568
      ],
      [
        "vit",
        -9.826821728925406
      ],
      [
        "▁náklady",
        -9.827029815657212
      ],
      [
        "▁smrti",
        -9.827558357193166
      ],
      [
        "▁",
        -9.827573359170467
      ],
      [
        "▁pondělí",
        -9.827585237806048
      ],
      [
        "14",
        -9.828338514691032
      ],
      [
        "▁možností",
        -9.828690545913773
      ],
      [
        "▁zajímat",
        -9.82900248242926
      ],
      [
        "▁2009",
        -9.829100978500723
      ],
      [
        "▁spojení",
        -9.82943373804249
      ],
      [
        "▁Moc",
        -9.830408598955342
      ],
      [
        "▁vybavení",
        -9.830732011476528
      ],
      [
        "▁výkonu",
        -9.831024241941392
      ],
      [
        "▁text",
        -9.831508541471555
      ],
      [
        "gen",
        -9.831934696166826
      ],
      [
        "celého",
        -9.8323903049566
      ],
      [
        "▁hraje",
        -9.83266816950054
      ],
      [
        "▁pomalu",
        -9.832686153768542
      ],
      [
        "000",
        -9.834345592934376
      ],
      [
        "▁35",
        -9.834544227297206
      ],
      [
        "▁výši",
        -9.834647933972882
      ],
      [
        "▁prakticky",
        -9.834691322891999
      ],
      [
        "▁každém",
        -9.834699013767388
      ],
      [
        "▁podařilo",
        -9.835319073449408
      ],
      [
        "Í",
        -9.836167113261183
      ],
      [
        "▁možno",
        -9.836383251165788
      ],
      [
        "▁něho",
        -9.83681446820643
      ],
      [
        "▁vím,",
        -9.83757696079817
      ],
      [
        "▁26",
        -9.83805217523198
      ],
      [
        "▁dělají",
        -9.83873292498484
      ],
      [
        "ová,",
        -9.838969784189668
      ],
      [
        "▁zemřel",
        -9.839625518064157
      ],
      [
        "▁Kdyby",
        -9.839953534980626
      ],
      [
        "▁plně",
        -9.840515254460554
      ],
      [
        "▁16.",
        -9.841074712332755
      ],
      [
        "▁14.",
        -9.841217590504481
      ],
      [
        "▁slovo",
        -9.842822686976179
      ],
      [
        "▁Nic",
        -9.84327985723445
      ],
      [
        "▁počtu",
        -9.844216056766
      ],
      [
        "▁stejný",
        -9.844250835281313
      ],
      [
        "▁právní",
        -9.844401226091248
      ],
      [
        "▁hru",
        -9.845663362115355
      ],
      [
        "▁oblečení",
        -9.845684853884311
      ],
      [
        "dejte",
        -9.846593658993733
      ],
      [
        "▁věcí",
        -9.84672106112765
      ],
      [
        "▁Můžete",
        -9.847161303581089
      ],
      [
        "op",
        -9.847169557590659
      ],
      [
        "▁Ja",
        -9.847551875867605
      ],
      [
        "▁utkání",
        -9.848168118303047
      ],
      [
        "▁jasně",
        -9.848563042360002
      ],
      [
        "▁existuje",
        -9.84905793474428
      ],
      [
        "▁soubory",
        -9.849577765918873
      ],
      [
        "▁celá",
        -9.849923749774733
      ],
      [
        "ster",
        -9.850445947265161
      ],
      [
        "15",
        -9.850908774512419
      ],
      [
        "▁Kláves",
        -9.851127246521834
      ],
      [
        "dle",
        -9.851328895592644
      ],
      [
        "▁jo",
        -9.85144858432195
      ],
      [
        "▁roli",
        -9.851567754307212
      ],
      [
        "▁c",
        -9.852230242539052
      ],
      [
        "▁Mě",
        -9.852236193490914
      ],
      [
        "▁Čechy",
        -9.852454276289006
      ],
      [
        "▁rokem",
        -9.85374548228042
      ],
      [
        "▁víkend",
        -9.85398126253116
      ],
      [
        "▁Zprávy",
        -9.855629077601915
      ],
      [
        "▁stalo",
        -9.855642194045439
      ],
      [
        "▁Počet",
        -9.855786618444832
      ],
      [
        "▁níž",
        -9.856125052436191
      ],
      [
        "▁zkratky",
        -9.856427567891053
      ],
      [
        "rou",
        -9.856700022812394
      ],
      [
        "▁řád",
        -9.856755477260482
      ],
      [
        "lan",
        -9.857260995880406
      ],
      [
        "▁podívat",
        -9.857363831231526
      ],
      [
        "▁šanci",
        -9.857381979478411
      ],
      [
        "▁května",
        -9.858751968198401
      ],
      [
        "▁aut",
        -9.858909098894149
      ],
      [
        "▁technologie",
        -9.858923702903091
      ],
      [
        "▁oba",
        -9.860043658401846
      ],
      [
        "▁korun.",
        -9.8602705228204
      ],
      [
        "ral",
        -9.860333084039947
      ],
      [
        "▁středu",
        -9.860608786904486
      ],
      [
        "▁zobrazení",
        -9.860854177916071
      ],
      [
        "▁ono",
        -9.861218774687917
      ],
      [
        "▁dává",
        -9.861483247033028
      ],
      [
        "▁skvělý",
        -9.862642598435215
      ],
      [
        "jehož",
        -9.863348888072391
      ],
      [
        "Reality.iDNES.cz",
        -9.863656878445246
      ],
      [
        "pla",
        -9.864362830485438
      ],
      [
        "▁sdílet",
        -9.864689527900609
      ],
      [
        "▁června",
        -9.865103955945377
      ],
      [
        "ící",
        -9.865535794902346
      ],
      [
        "▁pocit,",
        -9.865539661619401
      ],
      [
        "▁Právě",
        -9.865569721667159
      ],
      [
        "pra",
        -9.865645532768458
      ],
      [
        "40",
        -9.865860449006377
      ],
      [
        "ař",
        -9.866023799882297
      ],
      [
        "▁konec",
        -9.866208288086861
      ],
      [
        "▁dokáže",
        -9.866876461132126
      ],
      [
        "▁těla",
        -9.867555284171004
      ],
      [
        "▁Velké",
        -9.869993850875629
      ],
      [
        "ění",
        -9.870044617528546
      ],
      [
        "ovém",
        -9.870222246087888
      ],
      [
        "▁x-",
        -9.870258522513701
      ],
      [
        "▁boj",
        -9.870531820765885
      ],
      [
        "▁obvykle",
        -9.871002369543703
      ],
      [
        "▁verzi",
        -9.871034809821975
      ],
      [
        "Š",
        -9.871293330381391
      ],
      [
        "▁Kam",
        -9.872394836462327
      ],
      [
        "TE",
        -9.874348065995786
      ],
      [
        "íte",
        -9.876351674259016
      ],
      [
        "tka",
        -9.877106985369105
      ],
      [
        "▁šlo",
        -9.877618395443891
      ],
      [
        "▁říct,",
        -9.877897956362464
      ],
      [
        "▁šest",
        -9.879285712904878
      ],
      [
        "▁minimálně",
        -9.879490642890566
      ],
      [
        "▁onemocnění",
        -9.879726728842712
      ],
      [
        "▁viděl",
        -9.880334020215244
      ],
      [
        "▁olej",
        -9.881907393863518
      ],
      [
        "▁PRO",
        -9.883231798538045
      ],
      [
        "▁října",
        -9.88356575460559
      ],
      [
        "▁tentokrát",
        -9.88402396614433
      ],
      [
        "▁štěstí",
        -9.884433654223201
      ],
      [
        "▁firem",
        -9.884444228024563
      ],
      [
        "▁produkty",
        -9.884458602836268
      ],
      [
        "▁slouží",
        -9.884503092036178
      ],
      [
        "▁bod",
        -9.88577478037724
      ],
      [
        "▁krásně",
        -9.886044405783839
      ],
      [
        "▁dějiny",
        -9.886631213905712
      ],
      [
        "▁naleznete",
        -9.88811744427657
      ],
      [
        "▁odst.",
        -9.888388960129515
      ],
      [
        "lý",
        -9.888480266357757
      ],
      [
        "▁Škoda",
        -9.888870352175472
      ],
      [
        "tor",
        -9.889074276699926
      ],
      [
        "▁umění",
        -9.88913230135638
      ],
      [
        "▁Dále",
        -9.889657670110832
      ],
      [
        "▁obě",
        -9.889828531256715
      ],
      [
        "▁pane",
        -9.889997714424812
      ],
      [
        "▁můžu",
        -9.890013542458258
      ],
      [
        "nými",
        -9.891055386883641
      ],
      [
        "▁pracovat",
        -9.891195530345499
      ],
      [
        "▁fotky",
        -9.89127510236403
      ],
      [
        "▁šel",
        -9.891499101213515
      ],
      [
        "▁Jedná",
        -9.892131041239672
      ],
      [
        "▁českého",
        -9.892139599626564
      ],
      [
        "▁nim",
        -9.892692980660089
      ],
      [
        "▁náhodou",
        -9.892757560938275
      ],
      [
        "ických",
        -9.892966405449554
      ],
      [
        "–",
        -9.893162753938746
      ],
      [
        "▁ostatních",
        -9.893876223239912
      ],
      [
        "▁případech",
        -9.894297274815294
      ],
      [
        "▁dopravní",
        -9.894983684076928
      ],
      [
        "▁Tu",
        -9.896385540973522
      ],
      [
        "▁Evropské",
        -9.896686023662605
      ],
      [
        "▁design",
        -9.896721953779117
      ],
      [
        "▁původní",
        -9.897470624191406
      ],
      [
        "▁energie",
        -9.897657545188677
      ],
      [
        "sek",
        -9.897714723738595
      ],
      [
        "▁dalším",
        -9.89797069832525
      ],
      [
        "ovy",
        -9.898339369634854
      ],
      [
        "ičky",
        -9.899507303397584
      ],
      [
        "▁státu",
        -9.899596781506666
      ],
      [
        "19",
        -9.900194077956264
      ],
      [
        "▁Čech",
        -9.901023941194879
      ],
      [
        "kat",
        -9.901040654017425
      ],
      [
        "▁Jde",
        -9.901253803113622
      ],
      [
        "▁stroje",
        -9.901814077650108
      ],
      [
        "ton",
        -9.90181588343444
      ],
      [
        "▁dveře",
        -9.90206913957954
      ],
      [
        "▁úřad",
        -9.902194409734719
      ],
      [
        "▁dotaz",
        -9.90293378646817
      ],
      [
        "ici",
        -9.903155666020059
      ],
      [
        "ex",
        -9.904442127355026
      ],
      [
        "CE",
        -9.90445081410054
      ],
      [
        "kup",
        -9.904522100777562
      ],
      [
        "▁vlády",
        -9.905208098792272
      ],
      [
        "▁vzdělávání",
        -9.905397723831163
      ],
      [
        "▁vstup",
        -9.906706531579463
      ],
      [
        "▁chodí",
        -9.90681060717612
      ],
      [
        "▁létě",
        -9.90781170087521
      ],
      [
        "▁centru",
        -9.907834632976446
      ],
      [
        "▁přehled",
        -9.908603573853775
      ],
      [
        "vou",
        -9.910467186802244
      ],
      [
        "Máme",
        -9.910915975396
      ],
      [
        "bě",
        -9.91138687979754
      ],
      [
        "▁slov",
        -9.911405127871918
      ],
      [
        "▁iPhone",
        -9.911978450376607
      ],
      [
        "vod",
        -9.912540905011461
      ],
      [
        "▁války",
        -9.91353249573798
      ],
      [
        "▁získal",
        -9.913589098932242
      ],
      [
        "▁servis",
        -9.913652559896825
      ],
      [
        "▁spodní",
        -9.914428336560563
      ],
      [
        "son",
        -9.91495038969619
      ],
      [
        "rát",
        -9.915438256735325
      ],
      [
        "▁míru",
        -9.915928700976533
      ],
      [
        "▁stavební",
        -9.916146704454206
      ],
      [
        "vaz",
        -9.916448355309647
      ],
      [
        "▁soudu",
        -9.916944502999973
      ],
      [
        "▁setkání",
        -9.91711165913201
      ],
      [
        "▁test",
        -9.91762502475875
      ],
      [
        "up",
        -9.917653035096858
      ],
      [
        "▁všeho",
        -9.917665580558793
      ],
      [
        "▁Brně",
        -9.918471578787312
      ],
      [
        "▁Kč.",
        -9.918486713276023
      ],
      [
        "▁žen",
        -9.919706067153648
      ],
      [
        "▁špatně",
        -9.920146732699102
      ],
      [
        "▁Automodul.cz",
        -9.920823154500793
      ],
      [
        "▁někteří",
        -9.920842252208082
      ],
      [
        "▁Be",
        -9.921102937933394
      ],
      [
        "mer",
        -9.921197976137643
      ],
      [
        "▁jinou",
        -9.92152789120864
      ],
      [
        "▁kód",
        -9.921647838886788
      ],
      [
        "▁povrch",
        -9.92199937081032
      ],
      [
        "▁dosud",
        -9.923291805770003
      ],
      [
        "▁píše",
        -9.923381070482723
      ],
      [
        "▁zápas",
        -9.923628321750908
      ],
      [
        "▁světové",
        -9.923671701947493
      ],
      [
        "▁řekla",
        -9.924088025836205
      ],
      [
        "▁klub",
        -9.924452955008906
      ],
      [
        "kovi",
        -9.924566323488019
      ],
      [
        "▁žádnou",
        -9.925517637422121
      ],
      [
        "▁(4)",
        -9.92627911420632
      ],
      [
        "▁karty",
        -9.926561417454538
      ],
      [
        "▁pán",
        -9.926759636232768
      ],
      [
        "▁jazyk",
        -9.92709337156841
      ],
      [
        "11",
        -9.927093529974444
      ],
      [
        "▁klubu",
        -9.927280479067406
      ],
      [
        "▁per",
        -9.928819155048107
      ],
      [
        "ujete",
        -9.928947708136494
      ],
      [
        "▁opatření",
        -9.929235799356839
      ],
      [
        "tan",
        -9.929330450237273
      ],
      [
        "ovými",
        -9.929677714376378
      ],
      [
        "be",
        -9.92983217928634
      ],
      [
        "▁obraz",
        -9.930398671314492
      ],
      [
        "▁Taky",
        -9.930839220727743
      ],
      [
        "▁neod",
        -9.930896608907066
      ],
      [
        "AP.",
        -9.931056582379439
      ],
      [
        "▁Stejně",
        -9.931096716456416
      ],
      [
        "▁Všeobecné",
        -9.932261429586317
      ],
      [
        "jezd",
        -9.933123770581421
      ],
      [
        "ář",
        -9.934409322173728
      ],
      [
        "▁pra",
        -9.9345583863643
      ],
      [
        "▁případě,",
        -9.934592887287733
      ],
      [
        "ér",
        -9.934611647644271
      ],
      [
        "▁noční",
        -9.934645608054346
      ],
      [
        "▁prostředky",
        -9.935391236428647
      ],
      [
        "ována",
        -9.936430449364273
      ],
      [
        "▁velikost",
        -9.9366436359132
      ],
      [
        "▁znám",
        -9.936687624715361
      ],
      [
        "▁Al",
        -9.936895840440236
      ],
      [
        "▁pr",
        -9.937945479814267
      ],
      [
        "▁prací",
        -9.938076281926213
      ],
      [
        "▁Bude",
        -9.938183243163468
      ],
      [
        ">",
        -9.938377612303931
      ],
      [
        "▁veškeré",
        -9.938444100938373
      ],
      [
        "nek",
        -9.938498782598412
      ],
      [
        "ama",
        -9.938520515001276
      ],
      [
        "▁název",
        -9.938751019439184
      ],
      [
        "▁ochrany",
        -9.93875974171937
      ],
      [
        "▁udělal",
        -9.94064389131561
      ],
      [
        "▁Zatím",
        -9.940926349399358
      ],
      [
        "hal",
        -9.940999798456044
      ],
      [
        "▁končí",
        -9.942023683354087
      ],
      [
        "▁Plzeň",
        -9.942416492306979
      ],
      [
        "iště",
        -9.942524452905904
      ],
      [
        "▁děje",
        -9.9427362708413
      ],
      [
        "▁nejlépe",
        -9.942876692602473
      ],
      [
        "▁výlet",
        -9.943091477337177
      ],
      [
        "▁Národní",
        -9.943864959086387
      ],
      [
        "ilo",
        -9.944575566129593
      ],
      [
        "▁republice",
        -9.944893590905906
      ],
      [
        "???",
        -9.945495528351815
      ],
      [
        "▁Boha",
        -9.945825386192205
      ],
      [
        "▁vedoucí",
        -9.946094752127777
      ],
      [
        "▁nemocnice",
        -9.94612329736576
      ],
      [
        "▁nově",
        -9.94650855322313
      ],
      [
        "bor",
        -9.946682665201532
      ],
      [
        "▁centrum",
        -9.946876530031824
      ],
      [
        "▁jejím",
        -9.948180505071345
      ],
      [
        "▁Nabízíme",
        -9.948411632961104
      ],
      [
        "▁28",
        -9.948680050142741
      ],
      [
        "rod",
        -9.948881396820536
      ],
      [
        "▁neměla",
        -9.949001642657853
      ],
      [
        "▁března",
        -9.9494413544352
      ],
      [
        "▁hodnoty",
        -9.949681983391676
      ],
      [
        "▁využití",
        -9.94970604435808
      ],
      [
        "▁nápad",
        -9.95055712047796
      ],
      [
        "HO",
        -9.950565276920035
      ],
      [
        "per",
        -9.950806978706103
      ],
      [
        "▁podobně",
        -9.951147741961718
      ],
      [
        "▁směr",
        -9.952131558585986
      ],
      [
        "▁David",
        -9.95222487634907
      ],
      [
        "▁stránce",
        -9.952418939248393
      ],
      [
        "ran",
        -9.952924351907189
      ],
      [
        "▁tisíce",
        -9.95301374837247
      ],
      [
        "▁konkrétní",
        -9.953059718074252
      ],
      [
        "▁předem",
        -9.95316514267071
      ],
      [
        "▁názvem",
        -9.953557453459673
      ],
      [
        "▁videa",
        -9.953612917609592
      ],
      [
        "▁uz",
        -9.953864910313666
      ],
      [
        "▁tr",
        -9.95410372994671
      ],
      [
        "▁SE",
        -9.954182089100502
      ],
      [
        "▁DPH",
        -9.955781834716214
      ],
      [
        "▁vytvořit",
        -9.955954629208746
      ],
      [
        "▁Budějovice",
        -9.956488544845673
      ],
      [
        "▁šla",
        -9.956832466249914
      ],
      [
        "▁pl",
        -9.957075311198347
      ],
      [
        "ům,",
        -9.957218048624739
      ],
      [
        "dat",
        -9.957465263819664
      ],
      [
        "▁růst",
        -9.958198431759065
      ],
      [
        "▁žít",
        -9.95865095998952
      ],
      [
        "▁týdny",
        -9.959314512703127
      ],
      [
        "▁cvičení",
        -9.959397609129562
      ],
      [
        "▁zatímco",
        -9.959844682187072
      ],
      [
        "ováno",
        -9.961239141988068
      ],
      [
        "▁ja",
        -9.961253047564034
      ],
      [
        "del",
        -9.961676487024079
      ],
      [
        "▁Bohu",
        -9.961728151804486
      ],
      [
        "▁St",
        -9.961980623448138
      ],
      [
        "▁jediný",
        -9.962548488236312
      ],
      [
        "▁Ke",
        -9.963380216245277
      ],
      [
        "▁představuje",
        -9.963631544471024
      ],
      [
        "▁úrovni",
        -9.963853696032169
      ],
      [
        "▁výsledek",
        -9.963938165069521
      ],
      [
        "▁Tam",
        -9.964205661218855
      ],
      [
        "▁popis",
        -9.964652656897922
      ],
      [
        "▁mysli",
        -9.964860559624636
      ],
      [
        "nici",
        -9.964914063611664
      ],
      [
        "▁dětem",
        -9.965150806632963
      ],
      [
        "▁dětmi",
        -9.96525331331395
      ],
      [
        "▁řady",
        -9.965585069042499
      ],
      [
        "▁spousta",
        -9.965772549459773
      ],
      [
        "▁27",
        -9.966274346667209
      ],
      [
        "▁Karel",
        -9.966351289043097
      ],
      [
        "▁běžné",
        -9.967081885124143
      ],
      [
        "!!",
        -9.9681568436311
      ],
      [
        "Během",
        -9.968286540554104
      ],
      [
        "▁vzhledem",
        -9.968684933937437
      ],
      [
        "▁Podívejte",
        -9.968703484902477
      ],
      [
        "▁Evropě",
        -9.968819683866512
      ],
      [
        "▁síť",
        -9.969025966159002
      ],
      [
        "▁stran",
        -9.969325484848733
      ],
      [
        "▁nebudu",
        -9.969759136873648
      ],
      [
        "50",
        -9.969845025272924
      ],
      [
        "▁ruku",
        -9.970178259426548
      ],
      [
        "▁změnit",
        -9.97042304538532
      ],
      [
        "top",
        -9.970613283876133
      ],
      [
        "▁(ne",
        -9.970718261352193
      ],
      [
        "Celkem",
        -9.970936337689992
      ],
      [
        "▁školní",
        -9.971438128315988
      ],
      [
        "▁čeho",
        -9.972603938809858
      ],
      [
        "▁rodiny",
        -9.972658022588597
      ],
      [
        "▁dobrá",
        -9.973194423938377
      ],
      [
        "ickou",
        -9.97333073499685
      ],
      [
        "▁ano,",
        -9.973933343641699
      ],
      [
        "▁45",
        -9.973980560725632
      ],
      [
        "▁Ra",
        -9.97409559480581
      ],
      [
        "▁správné",
        -9.974347664629242
      ],
      [
        "▁kol",
        -9.97445734825845
      ],
      [
        "▁maximální",
        -9.974496741844504
      ],
      [
        "▁USB",
        -9.97460143822019
      ],
      [
        "▁bydlení",
        -9.974817559677236
      ],
      [
        "▁těžko",
        -9.97497100419724
      ],
      [
        "▁nejvíc",
        -9.97527798259302
      ],
      [
        "▁zadní",
        -9.975548833316507
      ],
      [
        "▁staré",
        -9.975994051799466
      ],
      [
        "▁sdružení",
        -9.977047617056366
      ],
      [
        "▁odpoledne",
        -9.977948931064045
      ],
      [
        "▁pomáhá",
        -9.98080346734178
      ],
      [
        "sh",
        -9.980820500255259
      ],
      [
        "▁adresu",
        -9.980882582118078
      ],
      [
        "mín",
        -9.981122080611545
      ],
      [
        "▁uživatele",
        -9.982517446879175
      ],
      [
        "▁Jaké",
        -9.983058819610113
      ],
      [
        "ovány",
        -9.983339182882505
      ],
      [
        "▁cestou",
        -9.984095537795604
      ],
      [
        "▁zdá",
        -9.984316924879195
      ],
      [
        "▁vědět",
        -9.98501501882865
      ],
      [
        "▁okamžitě",
        -9.985174432339932
      ],
      [
        "rad",
        -9.985281231040386
      ],
      [
        "nik",
        -9.98562456215375
      ],
      [
        "kro",
        -9.98595480835085
      ],
      [
        "rov",
        -9.986205882192202
      ],
      [
        "12",
        -9.986212054095795
      ],
      [
        "▁využívá",
        -9.986276253236547
      ],
      [
        "▁půjde",
        -9.986284460463718
      ],
      [
        "▁pokoje",
        -9.986899542352806
      ],
      [
        "KY",
        -9.98741280787445
      ],
      [
        "ané",
        -9.987642710161005
      ],
      [
        "▁banky",
        -9.987996032771626
      ],
      [
        "▁Václav",
        -9.988380800218419
      ],
      [
        "nec",
        -9.989411745028644
      ],
      [
        "▁přání",
        -9.989664290718569
      ],
      [
        "▁mohu",
        -9.990036752471653
      ],
      [
        "▁obyvatel",
        -9.990906435423256
      ],
      [
        "Nyní",
        -9.991575591730308
      ],
      [
        "▁technické",
        -9.99158986392256
      ],
      [
        "▁člen",
        -9.991619977429899
      ],
      [
        "ista",
        -9.991986138932841
      ],
      [
        "▁srpna",
        -9.992160791803663
      ],
      [
        "▁zítra",
        -9.992177308080528
      ],
      [
        "▁jezdí",
        -9.99224071203152
      ],
      [
        "▁plyn",
        -9.992369409335648
      ],
      [
        "▁DO",
        -9.99288993697261
      ],
      [
        "▁ochranu",
        -9.993364309346834
      ],
      [
        "▁tlak",
        -9.993365304174178
      ],
      [
        "▁Mobilní",
        -9.99364313934387
      ],
      [
        "ený",
        -9.99399204767013
      ],
      [
        "áš",
        -9.994421721029394
      ],
      [
        "▁Vaší",
        -9.994748523087518
      ],
      [
        "24",
        -9.994798394867068
      ],
      [
        "▁bu",
        -9.994957581872116
      ],
      [
        "2.",
        -9.99542125580366
      ],
      [
        "▁nižší",
        -9.995690783013483
      ],
      [
        "▁přišla",
        -9.996455506803013
      ],
      [
        "▁Aby",
        -9.996746798932328
      ],
      [
        "▁chtít",
        -9.996941635321024
      ],
      [
        "▁zkušenost",
        -9.997600254132628
      ],
      [
        "21",
        -9.997646778877225
      ],
      [
        "čit",
        -9.99777111283997
      ],
      [
        "▁dávno",
        -9.997964353952657
      ],
      [
        "▁čemu",
        -9.997977088453514
      ],
      [
        "▁úřadu",
        -9.998069731744447
      ],
      [
        "uš",
        -9.998155415490714
      ],
      [
        "▁jiným",
        -9.998243052419788
      ],
      [
        "▁vrací",
        -9.998277122781634
      ],
      [
        "▁Tohle",
        -9.998398575556521
      ],
      [
        "▁dubna",
        -9.998446143348168
      ],
      [
        "▁příběh",
        -9.999891737652012
      ],
      [
        "▁vzniku",
        -10.000199762502035
      ],
      [
        "bl",
        -10.000518391748749
      ],
      [
        "▁zemí",
        -10.000705423820417
      ],
      [
        "É",
        -10.001028855708118
      ],
      [
        "▁internet",
        -10.001032701448658
      ],
      [
        "▁mění",
        -10.002008219579444
      ],
      [
        "ita",
        -10.00221778416055
      ],
      [
        "▁července",
        -10.002240745739744
      ],
      [
        "nov",
        -10.003613548721411
      ],
      [
        "▁(např.",
        -10.004157334380682
      ],
      [
        "▁americké",
        -10.00436080406177
      ],
      [
        "▁péči",
        -10.004946794833355
      ],
      [
        "dla",
        -10.005035108904647
      ],
      [
        "▁komunikace",
        -10.005458691700897
      ],
      [
        "▁cílem",
        -10.006459010244537
      ],
      [
        "▁duchovní",
        -10.006616931982645
      ],
      [
        "▁Stačí",
        -10.00666677107989
      ],
      [
        "▁manžel",
        -10.006911826375074
      ],
      [
        "▁(z",
        -10.007149998774299
      ],
      [
        "Jsme",
        -10.007172396411752
      ],
      [
        "▁kousek",
        -10.007232968787594
      ],
      [
        "▁následující",
        -10.007729326823064
      ],
      [
        "▁32",
        -10.009445060421582
      ],
      [
        "▁b)",
        -10.00950403266761
      ],
      [
        "form",
        -10.009883039875213
      ],
      [
        "▁body",
        -10.010455748192701
      ],
      [
        "▁trošku",
        -10.010569586070076
      ],
      [
        "▁Evropy",
        -10.010886617717706
      ],
      [
        "▁Dům",
        -10.011120706720867
      ],
      [
        "▁důvod",
        -10.011979501594865
      ],
      [
        "▁přední",
        -10.012115980491947
      ],
      [
        "▁telefonu",
        -10.012458155595873
      ],
      [
        "ký",
        -10.012493518023806
      ],
      [
        "čky",
        -10.012607440664599
      ],
      [
        "ovat.",
        -10.01299560225413
      ],
      [
        "▁trest",
        -10.01391972850328
      ],
      [
        "▁Všichni",
        -10.015176118859285
      ],
      [
        "▁Harry",
        -10.015901432869017
      ],
      [
        "dní",
        -10.016540298977667
      ],
      [
        "roz",
        -10.017082029405646
      ],
      [
        "ten",
        -10.017393962213669
      ],
      [
        "▁síly",
        -10.017574726114821
      ],
      [
        "prac",
        -10.017944647746386
      ],
      [
        "▁říct",
        -10.018365398206843
      ],
      [
        "lice",
        -10.018782301737254
      ],
      [
        "▁unie",
        -10.019074829626309
      ],
      [
        "▁Bo",
        -10.019107303156039
      ],
      [
        "▁minulosti",
        -10.019277162164439
      ],
      [
        "▁pozornost",
        -10.019516093831776
      ],
      [
        "▁Pi",
        -10.020147468500483
      ],
      [
        "▁bytu",
        -10.020296659444917
      ],
      [
        "18",
        -10.020486794074966
      ],
      [
        "▁Pán",
        -10.02057683850406
      ],
      [
        "▁pozor",
        -10.020923765551675
      ],
      [
        "▁vaši",
        -10.021107898127699
      ],
      [
        "▁22.",
        -10.021849130525421
      ],
      [
        "▁rozvoj",
        -10.021962581549055
      ],
      [
        "▁aktivní",
        -10.02223955071189
      ],
      [
        "▁čase",
        -10.022250641972205
      ],
      [
        "▁následně",
        -10.022619731018363
      ],
      [
        "tal",
        -10.022939542211864
      ],
      [
        "▁muže",
        -10.023028654263502
      ],
      [
        "▁potřebuje",
        -10.023669720065127
      ],
      [
        "▁mluví",
        -10.023720262130945
      ],
      [
        "▁sedm",
        -10.024046132521056
      ],
      [
        "▁podnikání",
        -10.02628517966826
      ],
      [
        "▁chybí",
        -10.026532250631384
      ],
      [
        "dal",
        -10.026569644676758
      ],
      [
        "nc",
        -10.026621379372507
      ],
      [
        "itel",
        -10.02710455780345
      ],
      [
        "▁důvodů",
        -10.027228181209793
      ],
      [
        "▁zvláštní",
        -10.027264682432625
      ],
      [
        "▁rychlé",
        -10.027475699123976
      ],
      [
        "▁strach",
        -10.027710106841923
      ],
      [
        "kop",
        -10.028023137588491
      ],
      [
        "▁duše",
        -10.028040631548599
      ],
      [
        "kle",
        -10.028475262398633
      ],
      [
        "▁skvělé",
        -10.02863861299857
      ],
      [
        "Tady",
        -10.028737970380227
      ],
      [
        "▁materiálu",
        -10.028749108942797
      ],
      [
        "est",
        -10.029064539859434
      ],
      [
        "▁noc",
        -10.02972567009034
      ],
      [
        "▁prosince",
        -10.029832528528118
      ],
      [
        "ovo",
        -10.029968701952969
      ],
      [
        "kra",
        -10.030089821554569
      ],
      [
        "bit",
        -10.030185136106109
      ],
      [
        "led",
        -10.03038882640006
      ],
      [
        "▁Ježíš",
        -10.03136819145347
      ],
      [
        "▁museli",
        -10.031509412310989
      ],
      [
        "ily",
        -10.031856795501511
      ],
      [
        "▁pořádně",
        -10.032492512653803
      ],
      [
        "▁hodí",
        -10.032553047779938
      ],
      [
        "▁Kr",
        -10.033117022392416
      ],
      [
        "▁prezidenta",
        -10.033383709588414
      ],
      [
        "▁práce,",
        -10.034057972939223
      ],
      [
        "▁barvy",
        -10.034078381718613
      ],
      [
        "ER",
        -10.035490897951687
      ],
      [
        "▁Nej",
        -10.03589805146237
      ],
      [
        "▁členů",
        -10.03591887431521
      ],
      [
        "▁pravidelně",
        -10.036174965684706
      ],
      [
        "▁Její",
        -10.03638901104372
      ],
      [
        "Všechna",
        -10.036543875536228
      ],
      [
        "▁prostoru",
        -10.036713302106048
      ],
      [
        "▁krém",
        -10.037867270637518
      ],
      [
        "▁hráč",
        -10.037890116909669
      ],
      [
        "▁závod",
        -10.038224929916888
      ],
      [
        "ml",
        -10.038404713901253
      ],
      [
        "▁látky",
        -10.038416847839496
      ],
      [
        "▁miliard",
        -10.038652657241578
      ],
      [
        "▁chodit",
        -10.039039391121108
      ],
      [
        "▁učení",
        -10.039549760928168
      ],
      [
        "▁http://www.",
        -10.040631568483558
      ],
      [
        "ce.",
        -10.040739271424808
      ],
      [
        "▁Prodej",
        -10.04083468127136
      ],
      [
        "hra",
        -10.041810862598625
      ],
      [
        "▁psal",
        -10.04186943910988
      ],
      [
        "ohledně",
        -10.042133031118992
      ],
      [
        "▁kniha",
        -10.042657948479167
      ],
      [
        "▁historii",
        -10.043566272389143
      ],
      [
        "▁Josef",
        -10.043635762310252
      ],
      [
        "▁lidské",
        -10.044203334495972
      ],
      [
        "▁budeš",
        -10.044239993550393
      ],
      [
        "▁HD",
        -10.044246682651181
      ],
      [
        "▁černá",
        -10.0444090314543
      ],
      [
        "▁podmínek",
        -10.044974529209998
      ],
      [
        "▁Velmi",
        -10.045872403804395
      ],
      [
        "▁musela",
        -10.046338797145644
      ],
      [
        "▁bolest",
        -10.046551002037116
      ],
      [
        "▁VIDEO",
        -10.047165390584649
      ],
      [
        "ško",
        -10.047302685081151
      ],
      [
        "▁Jižní",
        -10.047402347700295
      ],
      [
        "▁nechci",
        -10.047767864428877
      ],
      [
        "▁kompletní",
        -10.048156000645783
      ],
      [
        "lat",
        -10.048478636396613
      ],
      [
        "▁osm",
        -10.048516312477595
      ],
      [
        "pt",
        -10.0485352834178
      ],
      [
        "▁·",
        -10.049622538783277
      ],
      [
        "▁jednoduše",
        -10.049843683323123
      ],
      [
        "▁veřejné",
        -10.049875525503337
      ],
      [
        "▁bezpečnostní",
        -10.049891002275412
      ],
      [
        "▁Pl",
        -10.050296589153076
      ],
      [
        "▁akční",
        -10.050580256030274
      ],
      [
        "lek",
        -10.05118876894986
      ],
      [
        "▁dostane",
        -10.051460060493238
      ],
      [
        "ft",
        -10.051647808132655
      ],
      [
        "▁evropské",
        -10.053224324810179
      ],
      [
        "▁názory",
        -10.053376398367718
      ],
      [
        "▁vlastním",
        -10.053606806010386
      ],
      [
        "▁hlediska",
        -10.053640963131475
      ],
      [
        "icky",
        -10.054210774737655
      ],
      [
        "▁hodinu",
        -10.054643636269187
      ],
      [
        "▁druhá",
        -10.055015605705794
      ],
      [
        "▁souvislosti",
        -10.055657648137723
      ],
      [
        "bra",
        -10.056598697554374
      ],
      [
        "(a)",
        -10.05672569053884
      ],
      [
        "▁muži",
        -10.057070012696347
      ],
      [
        "▁kus",
        -10.057702143588202
      ],
      [
        "▁2x",
        -10.057762724787581
      ],
      [
        "▁jídlo",
        -10.058366636908259
      ],
      [
        "▁pole",
        -10.058393209347582
      ],
      [
        "▁omezení",
        -10.058568178457051
      ],
      [
        "▁prvního",
        -10.058638649297404
      ],
      [
        "▁400",
        -10.05869436824561
      ],
      [
        "▁herní",
        -10.058859345968695
      ],
      [
        "ion",
        -10.059350527653855
      ],
      [
        "LA",
        -10.059384653685404
      ],
      [
        "▁Bar",
        -10.05959523123169
      ],
      [
        "▁souladu",
        -10.060002395944096
      ],
      [
        "▁vánoční",
        -10.060197834323892
      ],
      [
        "ům.",
        -10.060258674661185
      ],
      [
        "▁produkt",
        -10.060588904579411
      ],
      [
        "▁banka",
        -10.06062493191368
      ],
      [
        "▁nev",
        -10.06208579123405
      ],
      [
        "▁otázka",
        -10.062141913446265
      ],
      [
        "▁krok",
        -10.062637462837817
      ],
      [
        "▁Lu",
        -10.062645578899314
      ],
      [
        "▁nákupu",
        -10.062684659675686
      ],
      [
        "fi",
        -10.06361565379645
      ],
      [
        "▁Čast",
        -10.064224344524652
      ],
      [
        "▁nemohl",
        -10.064226162243653
      ],
      [
        "sen",
        -10.064823261416041
      ],
      [
        "nem",
        -10.06539329645437
      ],
      [
        "▁Typ",
        -10.066128505136664
      ],
      [
        "▁ano",
        -10.066828794992706
      ],
      [
        "▁rozhodl",
        -10.067125900240427
      ],
      [
        "▁klid",
        -10.067273507076216
      ],
      [
        "dom",
        -10.067865886223014
      ],
      [
        "▁stanice",
        -10.067961458661582
      ],
      [
        "▁význam",
        -10.068786331518538
      ],
      [
        ".cz/",
        -10.06898663764471
      ],
      [
        "▁jdu",
        -10.069592603499132
      ],
      [
        "▁dopravy",
        -10.069696023889499
      ],
      [
        "▁odborné",
        -10.069861546359006
      ],
      [
        "▁pozici",
        -10.071279345029826
      ],
      [
        "▁den.",
        -10.07130242155409
      ],
      [
        "ovi,",
        -10.071408197148038
      ],
      [
        "▁pracovních",
        -10.07141553801449
      ],
      [
        "▁zástupce",
        -10.07307300735883
      ],
      [
        "▁adresa",
        -10.073671890210704
      ],
      [
        "vání",
        -10.074088982769323
      ],
      [
        "▁Přidat",
        -10.074442346463925
      ],
      [
        "▁Sport",
        -10.074569629743053
      ],
      [
        "▁chod",
        -10.075102041834514
      ],
      [
        "60",
        -10.075108164070368
      ],
      [
        "▁stažení",
        -10.07515391028987
      ],
      [
        "▁tomuto",
        -10.075193490361817
      ],
      [
        "▁ovládání",
        -10.075247438456707
      ],
      [
        "▁systémy",
        -10.07604160876166
      ],
      [
        "▁2007",
        -10.07608335930976
      ],
      [
        "▁skupina",
        -10.076280352395923
      ],
      [
        "▁pozitivní",
        -10.076314431643862
      ],
      [
        "▁ks",
        -10.076547998237366
      ],
      [
        "▁dětské",
        -10.07681337138133
      ],
      [
        "▁zdroj",
        -10.076946063351695
      ],
      [
        "▁potřebné",
        -10.077077561601461
      ],
      [
        "zd",
        -10.07758736299116
      ],
      [
        "ele",
        -10.077657417901595
      ],
      [
        "▁Prostě",
        -10.078304442726154
      ],
      [
        "▁druhého",
        -10.078489367522945
      ],
      [
        "90",
        -10.079028855632876
      ],
      [
        "▁šesti",
        -10.079036267944872
      ],
      [
        "ence",
        -10.079849595667486
      ],
      [
        "kal",
        -10.080145160156121
      ],
      [
        "▁stala",
        -10.080220622235688
      ],
      [
        "▁zkoušky",
        -10.08063565844467
      ],
      [
        "▁funkci",
        -10.080638923800027
      ],
      [
        "▁pleť",
        -10.080641236887015
      ],
      [
        "iny",
        -10.080793208281825
      ],
      [
        "▁stránku",
        -10.081943386009351
      ],
      [
        "▁uvádí",
        -10.0821450552795
      ],
      [
        "pad",
        -10.083431363375764
      ],
      [
        "▁řidič",
        -10.083564735217875
      ],
      [
        "▁deseti",
        -10.083645281844543
      ],
      [
        "▁vzduchu",
        -10.083894882687906
      ],
      [
        "▁vynikající",
        -10.084552413168968
      ],
      [
        "▁cookies",
        -10.08490136654807
      ],
      [
        "ka.",
        -10.084921361756331
      ],
      [
        "▁týká",
        -10.084928811621381
      ],
      [
        "▁kterému",
        -10.085104353928338
      ],
      [
        "▁tělem",
        -10.085363105373474
      ],
      [
        "▁léta",
        -10.085523101482199
      ],
      [
        "▁Nicméně",
        -10.085867283465051
      ],
      [
        "▁čtvrtek",
        -10.086196244559824
      ],
      [
        "▁dobrou",
        -10.086376623918522
      ],
      [
        "▁přináší",
        -10.086563918391416
      ],
      [
        "▁New",
        -10.08694454824779
      ],
      [
        "▁blíží",
        -10.087842868519488
      ],
      [
        "chod",
        -10.08861502162258
      ],
      [
        "▁Hra",
        -10.089316214443674
      ],
      [
        "ger",
        -10.089926222866854
      ],
      [
        "tře",
        -10.09002141790138
      ],
      [
        "▁originální",
        -10.090245481923782
      ],
      [
        "čně",
        -10.090362418971722
      ],
      [
        "▁připojení",
        -10.090570816228123
      ],
      [
        "ci,",
        -10.091708167889264
      ],
      [
        "ovač",
        -10.092077628243288
      ],
      [
        "áček",
        -10.09221151298473
      ],
      [
        "dů",
        -10.092363338492332
      ],
      [
        "▁nádraží",
        -10.092434290510461
      ],
      [
        "▁pobyt",
        -10.09262864822174
      ],
      [
        "eb",
        -10.092979639830002
      ],
      [
        "▁list",
        -10.093080208544965
      ],
      [
        ".....",
        -10.093243989710224
      ],
      [
        "ovaly",
        -10.093704376364181
      ],
      [
        "▁vodu",
        -10.094281335982163
      ],
      [
        "▁Nejlepší",
        -10.094667555169336
      ],
      [
        "▁úterý",
        -10.095083333252788
      ],
      [
        "▁RSS",
        -10.09522844747015
      ],
      [
        "nes",
        -10.095324907521958
      ],
      [
        "▁společností",
        -10.095562077362363
      ],
      [
        "▁bývá",
        -10.097516476980818
      ],
      [
        "▁podíl",
        -10.098024673723806
      ],
      [
        "ška",
        -10.098236173386054
      ],
      [
        "ig",
        -10.098268638443873
      ],
      [
        "▁smyslu",
        -10.098974936749253
      ],
      [
        "▁výrobky",
        -10.099044310051244
      ],
      [
        "▁dokud",
        -10.099086779274577
      ],
      [
        "▁neměli",
        -10.099094712787386
      ],
      [
        "▁dítěte",
        -10.099175287085497
      ],
      [
        "▁kvality",
        -10.099460217434924
      ],
      [
        "▁cíl",
        -10.099538459890105
      ],
      [
        "▁Michal",
        -10.099644310083038
      ],
      [
        "▁kurz",
        -10.10001418047207
      ],
      [
        "fr",
        -10.100226114601229
      ],
      [
        "▁klidu",
        -10.101040365751949
      ],
      [
        "mít",
        -10.101284550726255
      ],
      [
        "▁Bu",
        -10.101405589976507
      ],
      [
        "Evropská",
        -10.101702143884843
      ],
      [
        "▁oblast",
        -10.101766480263137
      ],
      [
        "▁třídy",
        -10.101975262532905
      ],
      [
        "▁krásný",
        -10.102073349606723
      ],
      [
        "▁pracuje",
        -10.102149976870392
      ],
      [
        "▁Děti",
        -10.102206405492455
      ],
      [
        "dra",
        -10.102431454977246
      ],
      [
        ".com",
        -10.10260257082611
      ],
      [
        "▁mezinárodní",
        -10.102800313143913
      ],
      [
        "▁Ná",
        -10.103203765275545
      ],
      [
        "▁drží",
        -10.103726785365629
      ],
      [
        "▁rodina",
        -10.10378548113064
      ],
      [
        "▁(A",
        -10.10430668162713
      ],
      [
        "▁dovolenou",
        -10.10466198183019
      ],
      [
        "inu",
        -10.104884882042187
      ],
      [
        "▁„V",
        -10.105574428104166
      ],
      [
        "▁dostali",
        -10.105591448107718
      ],
      [
        "▁sociálních",
        -10.106126100902333
      ],
      [
        "▁zahraničí",
        -10.106415727266205
      ],
      [
        "▁„Ne",
        -10.106809133775963
      ],
      [
        "=",
        -10.106865219034717
      ],
      [
        "pol",
        -10.107165034556228
      ],
      [
        "▁čaj",
        -10.107654389195625
      ],
      [
        "▁zásadní",
        -10.107726029065612
      ],
      [
        "▁Rad",
        -10.107776318321227
      ],
      [
        "ňuje",
        -10.108134943454953
      ],
      [
        "▁národní",
        -10.108430491107026
      ],
      [
        "ir",
        -10.108597291164813
      ],
      [
        "▁řeší",
        -10.109431689759257
      ],
      [
        "▁jména",
        -10.109718167912238
      ],
      [
        "▁loni",
        -10.109850886585754
      ],
      [
        "RA",
        -10.109869224943687
      ],
      [
        "voz",
        -10.109915616804264
      ],
      [
        "13",
        -10.109960700011504
      ],
      [
        "▁dvakrát",
        -10.110071657549529
      ],
      [
        "▁Německo",
        -10.110598678014117
      ],
      [
        "▁Jejich",
        -10.111069796318569
      ],
      [
        "čení",
        -10.111262040043835
      ],
      [
        "▁účtu",
        -10.111524213445264
      ],
      [
        "ff",
        -10.111931914461305
      ],
      [
        "▁vhodná",
        -10.112228718861747
      ],
      [
        "▁stavby",
        -10.11259760641909
      ],
      [
        "fe",
        -10.112616958170955
      ],
      [
        "▁dala",
        -10.113050084732599
      ],
      [
        "▁hudební",
        -10.113491691605473
      ],
      [
        "▁Třeba",
        -10.113576016948052
      ],
      [
        "šel",
        -10.114776742864635
      ],
      [
        "▁sv.",
        -10.114968348405242
      ],
      [
        "▁min.",
        -10.115224862814198
      ],
      [
        "▁Auto",
        -10.115345185244388
      ],
      [
        "kový",
        -10.11539412772954
      ],
      [
        ".cz.",
        -10.115992704031171
      ],
      [
        "04",
        -10.116273329456831
      ],
      [
        "▁vzít",
        -10.116454009914202
      ],
      [
        "▁hlavu",
        -10.11653359583914
      ],
      [
        "▁přidat",
        -10.116536472930648
      ],
      [
        "▁ANO",
        -10.116624810891475
      ],
      [
        "zen",
        -10.117127403900557
      ],
      [
        "lez",
        -10.117641863371892
      ],
      [
        "▁horní",
        -10.118096298579562
      ],
      [
        "▁takových",
        -10.118139248490202
      ],
      [
        "▁vidím",
        -10.11824403744991
      ],
      [
        "▁časem",
        -10.118316687613241
      ],
      [
        "▁Pří",
        -10.118469867913568
      ],
      [
        "mon",
        -10.118523080324305
      ],
      [
        "▁jasné,",
        -10.118545887106222
      ],
      [
        "▁všechna",
        -10.118751421900242
      ],
      [
        "▁záleží",
        -10.11915407234519
      ],
      [
        "▁ročníku",
        -10.119648989310054
      ],
      [
        "stat",
        -10.120118314777297
      ],
      [
        "▁technologií",
        -10.120507205130984
      ],
      [
        "▁bolesti",
        -10.121053353567893
      ],
      [
        "▁pravidla",
        -10.121603158300136
      ],
      [
        "▁značka",
        -10.12184977326718
      ],
      [
        "NĚ",
        -10.122616679288939
      ],
      [
        "▁rovnou",
        -10.122636470193504
      ],
      [
        "▁někomu",
        -10.12380585231205
      ],
      [
        "Jestliže",
        -10.124562864827148
      ],
      [
        "▁Me",
        -10.12482955936822
      ],
      [
        "80",
        -10.124845669345508
      ],
      [
        "▁porod",
        -10.125111847428732
      ],
      [
        "▁(po",
        -10.125461655197215
      ],
      [
        "▁kabel",
        -10.125689084870796
      ],
      [
        "▁Snad",
        -10.126005837586854
      ],
      [
        "koli",
        -10.126172959978268
      ],
      [
        "EM",
        -10.126453269283743
      ],
      [
        "stru",
        -10.126576236549198
      ],
      [
        "▁webové",
        -10.12678798247584
      ],
      [
        "▁prvních",
        -10.127810534184635
      ],
      [
        "▁komise",
        -10.128677320722499
      ],
      [
        "▁lehce",
        -10.128863813393856
      ],
      [
        "▁Materiál:",
        -10.129197611056899
      ],
      [
        "▁pokračovat",
        -10.130044082056626
      ],
      [
        "▁koho",
        -10.130304123061736
      ],
      [
        "ovky",
        -10.130311234324576
      ],
      [
        "▁vysokou",
        -10.130405123971585
      ],
      [
        "ském",
        -10.130584402183525
      ],
      [
        "mar",
        -10.131348720038314
      ],
      [
        "▁maximálně",
        -10.131414222144485
      ],
      [
        "▁>>",
        -10.131570016248926
      ],
      [
        "▁Chcete",
        -10.131715273168638
      ],
      [
        "▁výrobu",
        -10.132785883277837
      ],
      [
        "jelikož",
        -10.132787562771586
      ],
      [
        "▁Zákon",
        -10.132805046181884
      ],
      [
        "▁viz",
        -10.132838739785372
      ],
      [
        "▁ba",
        -10.133071382469693
      ],
      [
        "▁Svět",
        -10.13351854096949
      ],
      [
        "▁politiky",
        -10.133789565975325
      ],
      [
        "▁smrt",
        -10.134849683729367
      ],
      [
        "▁osoba",
        -10.134949871328148
      ],
      [
        "▁vzdělání",
        -10.135568410368634
      ],
      [
        "jejichž",
        -10.136145686202646
      ],
      [
        "▁vrátit",
        -10.136366524246297
      ],
      [
        "Ať",
        -10.137214047678203
      ],
      [
        "▁bílé",
        -10.137247757365426
      ],
      [
        "š,",
        -10.13761449306912
      ],
      [
        "▁plnění",
        -10.138272590280565
      ],
      [
        "▁stylu",
        -10.138697542132617
      ],
      [
        "▁oboru",
        -10.138774805132108
      ],
      [
        "▁základ",
        -10.139142450126766
      ],
      [
        "▁II.",
        -10.139352441621018
      ],
      [
        "ron",
        -10.139587696262303
      ],
      [
        "▁poskytuje",
        -10.139928236823952
      ],
      [
        "▁pravděpodobně",
        -10.14010281277419
      ],
      [
        "▁vlastnosti",
        -10.14020082287076
      ],
      [
        "▁Ri",
        -10.140411627567811
      ],
      [
        "slov",
        -10.140565883776874
      ],
      [
        "▁náhradní",
        -10.14060118941826
      ],
      [
        "▁festival",
        -10.14077319123029
      ],
      [
        "lík",
        -10.14085573295922
      ],
      [
        "▁Super",
        -10.14107022212054
      ],
      [
        "▁ochrana",
        -10.141072590481974
      ],
      [
        "▁mam",
        -10.141508994731753
      ],
      [
        "▁druhém",
        -10.142317200161578
      ],
      [
        "▁elektro",
        -10.1431447121564
      ],
      [
        "▁zájmu",
        -10.143827978558432
      ],
      [
        "ném",
        -10.1440738120929
      ],
      [
        "▁obecně",
        -10.144375941187276
      ],
      [
        "▁tvar",
        -10.144426214001989
      ],
      [
        "▁bo",
        -10.144518508761148
      ],
      [
        "ovalo",
        -10.144939145782015
      ],
      [
        "▁individuální",
        -10.145245786064013
      ],
      [
        "▁skvěle",
        -10.145285793160344
      ],
      [
        "▁„S",
        -10.145602362186892
      ],
      [
        "▁(P",
        -10.14561522556361
      ],
      [
        "▁bílá",
        -10.145784847106714
      ],
      [
        "▁bezpečnost",
        -10.145859597734043
      ],
      [
        "▁též",
        -10.145910187655925
      ],
      [
        "▁ex",
        -10.14618482124811
      ],
      [
        "▁pes",
        -10.146353724845172
      ],
      [
        "▁napsat",
        -10.146391709547972
      ],
      [
        "▁ovoce",
        -10.146448211300932
      ],
      [
        "▁pohyb",
        -10.146523145962565
      ],
      [
        "▁moře",
        -10.147225408757865
      ],
      [
        "▁ulice",
        -10.148213925899238
      ],
      [
        "▁Používá",
        -10.148262313753529
      ],
      [
        "tah",
        -10.148597241704108
      ],
      [
        "▁strašně",
        -10.148739277811169
      ],
      [
        "17",
        -10.148788288243772
      ],
      [
        "▁jediné",
        -10.149334690439918
      ],
      [
        "čet",
        -10.149855255045933
      ],
      [
        "▁druhy",
        -10.149993716445035
      ],
      [
        "▁dojde",
        -10.150097805446713
      ],
      [
        "▁hezky",
        -10.150792832706793
      ],
      [
        "jde",
        -10.150816502625641
      ],
      [
        "oproti",
        -10.151018277618999
      ],
      [
        "net",
        -10.151609315711472
      ],
      [
        "klad",
        -10.15203472291796
      ],
      [
        "▁vítězství",
        -10.152253176237593
      ],
      [
        "▁historie",
        -10.152302771180711
      ],
      [
        "▁délka",
        -10.152342488582807
      ],
      [
        "▁můžeš",
        -10.152429650006916
      ],
      [
        "▁2006",
        -10.152954312188662
      ],
      [
        "▁plný",
        -10.153004395330996
      ],
      [
        "ì",
        -10.153131110293348
      ],
      [
        "▁m2",
        -10.153446563662568
      ],
      [
        "▁Jedna",
        -10.153638924249746
      ],
      [
        "éče",
        -10.154227982661475
      ],
      [
        "▁ohledu",
        -10.155041196302939
      ],
      [
        "▁termín",
        -10.155079872640638
      ],
      [
        "▁Jeden",
        -10.155594098915966
      ],
      [
        "▁tipy",
        -10.156033484194145
      ],
      [
        "▁Per",
        -10.156205382107078
      ],
      [
        "▁(na",
        -10.156331511308677
      ],
      [
        "▁mladší",
        -10.15646630288221
      ],
      [
        "stře",
        -10.15691935655383
      ],
      [
        "▁mohly",
        -10.157778727212829
      ],
      [
        "▁proces",
        -10.15794526167349
      ],
      [
        "fer",
        -10.158631669785489
      ],
      [
        "▁jednoduché",
        -10.158768771116007
      ],
      [
        "▁hlad",
        -10.158911684745227
      ],
      [
        "▁zimní",
        -10.159100570765082
      ],
      [
        "▁okres",
        -10.15961805814242
      ],
      [
        "ub",
        -10.159647119358677
      ],
      [
        "věr",
        -10.160431427564438
      ],
      [
        "▁nabídku",
        -10.160624407038924
      ],
      [
        "▁bar",
        -10.161505807366328
      ],
      [
        "▁papír",
        -10.162122441655303
      ],
      [
        "bar",
        -10.16216107239579
      ],
      [
        "▁Místo",
        -10.162201820378819
      ],
      [
        "▁skupin",
        -10.162332616233066
      ],
      [
        "▁Če",
        -10.162476843993648
      ],
      [
        "▁120",
        -10.163000037794045
      ],
      [
        "▁heslo",
        -10.163289511387575
      ],
      [
        "▁podzim",
        -10.16336674353348
      ],
      [
        "22",
        -10.163399145856387
      ],
      [
        "tou",
        -10.164146344944957
      ],
      [
        "▁státy",
        -10.165009762300958
      ],
      [
        "Ú",
        -10.165487984133163
      ],
      [
        "▁Určitě",
        -10.165800134727984
      ],
      [
        "▁nemáte",
        -10.166180335838346
      ],
      [
        "▁zdroje",
        -10.16622859781798
      ],
      [
        "▁uvedené",
        -10.166331847224452
      ],
      [
        "▁týče",
        -10.166391443331932
      ],
      [
        "▁nejméně",
        -10.166470657842094
      ],
      [
        "var",
        -10.166660650787382
      ],
      [
        "▁pana",
        -10.167089217818795
      ],
      [
        "▁změnu",
        -10.168291895436866
      ],
      [
        "▁sport",
        -10.168438909977617
      ],
      [
        "ud",
        -10.168440083275366
      ],
      [
        "▁uzavřena",
        -10.168819543491782
      ],
      [
        "▁mluvit",
        -10.168990116149326
      ],
      [
        "▁produktu",
        -10.169049870461695
      ],
      [
        "▁srovnání",
        -10.169125809542214
      ],
      [
        "▁příslušenství",
        -10.169127884395875
      ],
      [
        "▁šaty",
        -10.16927544867347
      ],
      [
        "čku",
        -10.169449563848806
      ],
      [
        "▁bys",
        -10.169614444899336
      ],
      [
        "▁Doprava",
        -10.16984196125949
      ],
      [
        "▁mužů",
        -10.16995948638379
      ],
      [
        "▁́",
        -10.17031352206514
      ],
      [
        "▁aktivity",
        -10.17042819552681
      ],
      [
        "▁výběru",
        -10.170632480632744
      ],
      [
        "▁tradiční",
        -10.170925777498695
      ],
      [
        "▁hledat",
        -10.171510168854894
      ],
      [
        "ená",
        -10.171636552039152
      ],
      [
        "Vždyť",
        -10.17212122359075
      ],
      [
        "▁jídla",
        -10.172331241051644
      ],
      [
        "▁znění",
        -10.172404985514447
      ],
      [
        "tem",
        -10.173118049386165
      ],
      [
        "▁kategorii",
        -10.173407490695709
      ],
      [
        "▁čísla",
        -10.173425999277885
      ],
      [
        "▁měst",
        -10.17349006812091
      ],
      [
        "▁soutěž",
        -10.173598795258066
      ],
      [
        "áci",
        -10.173613822924139
      ],
      [
        "▁výška",
        -10.173799286599401
      ],
      [
        "▁vztahu",
        -10.17388160712461
      ],
      [
        "▁odpovídá",
        -10.17413857784401
      ],
      [
        "▁Může",
        -10.174405601268461
      ],
      [
        "▁ceně",
        -10.174802251706723
      ],
      [
        "▁letošní",
        -10.174819493462469
      ],
      [
        "cm",
        -10.174996632084499
      ],
      [
        "▁Úvodní",
        -10.175611766467341
      ],
      [
        "▁psy",
        -10.176011817318182
      ],
      [
        "!\"",
        -10.176305229974439
      ],
      [
        "IT",
        -10.176313654818706
      ],
      [
        "áč",
        -10.176438117156366
      ],
      [
        "out",
        -10.17654241475249
      ],
      [
        "vid",
        -10.17677607579468
      ],
      [
        "▁novinky",
        -10.176850143253429
      ],
      [
        "▁obcí",
        -10.176961535247784
      ],
      [
        "▁hráči",
        -10.177288540623026
      ],
      [
        "▁Město",
        -10.178288601359387
      ],
      [
        "▁objeví",
        -10.178308863485597
      ],
      [
        "ovanou",
        -10.178447465067613
      ],
      [
        "▁Du",
        -10.178734366703678
      ],
      [
        "ren",
        -10.17874907901664
      ],
      [
        "▁většinu",
        -10.17914229354638
      ],
      [
        "▁lidí.",
        -10.179293838423437
      ],
      [
        "▁deska",
        -10.179477913451109
      ],
      [
        "▁ví,",
        -10.179730024461781
      ],
      [
        "▁\"Ne",
        -10.179829528289313
      ],
      [
        "▁obci",
        -10.179935462437964
      ],
      [
        "▁určité",
        -10.180064982755606
      ],
      [
        "▁kvalitu",
        -10.180215821608495
      ],
      [
        "▁hráče",
        -10.180539483157954
      ],
      [
        "%",
        -10.180652097401017
      ],
      [
        "▁studie",
        -10.180838693872342
      ],
      [
        "▁Zlín",
        -10.181250218681708
      ],
      [
        "rot",
        -10.181303216733737
      ],
      [
        "▁Úvod",
        -10.18137708403903
      ],
      [
        "▁rostlin",
        -10.181408480435707
      ],
      [
        "pak",
        -10.181616259518904
      ],
      [
        "▁pomůže",
        -10.181647008201534
      ],
      [
        "Ů",
        -10.181690909707278
      ],
      [
        "▁doprava",
        -10.181956812290377
      ],
      [
        "tel",
        -10.182416521329102
      ],
      [
        "▁vysoce",
        -10.182626117700927
      ],
      [
        "ste",
        -10.18310738144567
      ],
      [
        "log",
        -10.183223895779157
      ],
      [
        "▁závěr",
        -10.18326032964672
      ],
      [
        "▁hlavním",
        -10.183280767275125
      ],
      [
        "▁Copyright",
        -10.183465048110481
      ],
      [
        "šť",
        -10.183505300157513
      ],
      [
        "▁látek",
        -10.18352515106319
      ],
      [
        "▁chyb",
        -10.183560491903446
      ],
      [
        "▁01",
        -10.183824091674914
      ],
      [
        "03",
        -10.184110584612194
      ],
      [
        "▁velkých",
        -10.184241460078834
      ],
      [
        "▁velkým",
        -10.184761272795948
      ],
      [
        "▁Ing.",
        -10.184929399665297
      ],
      [
        "▁anebo",
        -10.184953193263631
      ],
      [
        "▁jakou",
        -10.185500601988725
      ],
      [
        "▁zůstává",
        -10.18636085230293
      ],
      [
        "▁uvnitř",
        -10.186527535834678
      ],
      [
        "▁chceme",
        -10.187295886286336
      ],
      [
        "▁JE",
        -10.18775679183542
      ],
      [
        "▁Tvorb",
        -10.187810981700327
      ],
      [
        "sil",
        -10.18797778910156
      ],
      [
        "▁25.",
        -10.188596837023645
      ],
      [
        "▁probíhá",
        -10.188807474964888
      ],
      [
        "3.",
        -10.18908332333506
      ],
      [
        "▁mluvčí",
        -10.189271646104393
      ],
      [
        "▁hře",
        -10.189800476992747
      ],
      [
        "▁horší",
        -10.190011723767364
      ],
      [
        "šli",
        -10.190439232479125
      ],
      [
        "▁minimální",
        -10.190712397776498
      ],
      [
        "▁sledovat",
        -10.190723118177853
      ],
      [
        "▁vyroben",
        -10.19089679989563
      ],
      [
        "drž",
        -10.191845927631483
      ],
      [
        "▁28.",
        -10.191991699785923
      ],
      [
        "▁příspěvku",
        -10.19216705633674
      ],
      [
        "▁pre",
        -10.19226500308076
      ],
      [
        "▁samé",
        -10.192453188436316
      ],
      [
        "▁zpátky",
        -10.192642735720703
      ],
      [
        "stí",
        -10.19331842448836
      ],
      [
        "▁mas",
        -10.193911413642336
      ],
      [
        "▁dané",
        -10.193983336414288
      ],
      [
        "▁obec",
        -10.195221592827588
      ],
      [
        "▁formou",
        -10.195223761809308
      ],
      [
        "▁nikoliv",
        -10.195356724039527
      ],
      [
        "▁profesionální",
        -10.195491068879903
      ],
      [
        "▁poskytování",
        -10.195580250777446
      ],
      [
        "Velká",
        -10.195611987903145
      ],
      [
        "▁dovolené",
        -10.196218350202713
      ],
      [
        "vali",
        -10.196314832443393
      ],
      [
        "les",
        -10.196835002855202
      ],
      [
        "sel",
        -10.197322232454372
      ],
      [
        "25",
        -10.197592411536487
      ],
      [
        "▁30.",
        -10.19790147889291
      ],
      [
        "▁výrobků",
        -10.198010762722387
      ],
      [
        "▁dobře,",
        -10.198078379797051
      ],
      [
        "gu",
        -10.198933363514623
      ],
      [
        "02",
        -10.199352636652169
      ],
      [
        "izace",
        -10.199390019070304
      ],
      [
        "▁textu",
        -10.199822266701315
      ],
      [
        "▁Apple",
        -10.201033547986656
      ],
      [
        "▁nadále",
        -10.20122921929483
      ],
      [
        "▁51",
        -10.201629756017397
      ],
      [
        "▁Můj",
        -10.201708377270155
      ],
      [
        "▁věří",
        -10.20200863958868
      ],
      [
        "šení",
        -10.20227857389925
      ],
      [
        "▁(1",
        -10.202679736523049
      ],
      [
        "▁sedí",
        -10.202750968674492
      ],
      [
        "▁druh",
        -10.203346442638141
      ],
      [
        "▁led",
        -10.203736881405934
      ],
      [
        "▁plánu",
        -10.204081884918402
      ],
      [
        "▁the",
        -10.204147676874566
      ],
      [
        "▁třech",
        -10.204259926350211
      ],
      [
        "▁vychází",
        -10.204647157287877
      ],
      [
        "▁ryb",
        -10.204649510585813
      ],
      [
        "ismus",
        -10.204791472902574
      ],
      [
        "dil",
        -10.20503462168336
      ],
      [
        "▁počítače",
        -10.205324524362311
      ],
      [
        "NA",
        -10.20535240166063
      ],
      [
        "▁oddělení",
        -10.205411237075364
      ],
      [
        "▁Nakonec",
        -10.205503474362516
      ],
      [
        "▁výboru",
        -10.205591829963474
      ],
      [
        "▁zvýšení",
        -10.205647690901738
      ],
      [
        "▁hodin.",
        -10.205728198464175
      ],
      [
        "▁lékař",
        -10.205735894932015
      ],
      [
        "▁nechal",
        -10.205877485223652
      ],
      [
        "05",
        -10.205893893658844
      ],
      [
        "▁maso",
        -10.205971224915501
      ],
      [
        "▁efekt",
        -10.206174178780318
      ],
      [
        "▁2000",
        -10.206225113379801
      ],
      [
        "▁porodu",
        -10.206619530788707
      ],
      [
        "▁Evropa",
        -10.20684127236973
      ],
      [
        "rád",
        -10.208010621453557
      ],
      [
        "nicméně",
        -10.208012147130624
      ],
      [
        "▁konstrukce",
        -10.208187422496877
      ],
      [
        "▁čtení",
        -10.208199319259574
      ],
      [
        "tří",
        -10.208204497729632
      ],
      [
        "▁Celý",
        -10.208388803530076
      ],
      [
        "▁zip",
        -10.20839838237595
      ],
      [
        "mp",
        -10.209098149150126
      ],
      [
        "45",
        -10.209295492610202
      ],
      [
        "▁místech",
        -10.209330106928025
      ],
      [
        "▁modely",
        -10.20941381780072
      ],
      [
        "▁24.",
        -10.209783876699134
      ],
      [
        "▁Vol",
        -10.210136526102692
      ],
      [
        "▁stroj",
        -10.210460900061989
      ],
      [
        "▁Web",
        -10.210506228537662
      ],
      [
        "▁mo",
        -10.210872520655343
      ],
      [
        "nka",
        -10.210944966713162
      ],
      [
        "▁příjemné",
        -10.211156330537776
      ],
      [
        "▁černé",
        -10.211256775528225
      ],
      [
        "▁prádlo",
        -10.211292987845978
      ],
      [
        "▁fotek",
        -10.211348882373382
      ],
      [
        "▁doplňky",
        -10.211768051713598
      ],
      [
        "▁Br",
        -10.21214057799828
      ],
      [
        "▁Přesto",
        -10.212481791174454
      ],
      [
        "▁leží",
        -10.212717920722184
      ],
      [
        "nové",
        -10.212825016036158
      ],
      [
        "▁250",
        -10.212939974760062
      ],
      [
        "▁vidí",
        -10.213333417896475
      ],
      [
        "▁hřiště",
        -10.214259325499164
      ],
      [
        "▁letiště",
        -10.214969333845204
      ],
      [
        "eček",
        -10.215463334948328
      ],
      [
        "▁požadavky",
        -10.215749574595403
      ],
      [
        "íček",
        -10.21577673964665
      ],
      [
        "▁průměr",
        -10.215864550414631
      ],
      [
        "▁začali",
        -10.216368262837392
      ],
      [
        "▁dar",
        -10.216667955771133
      ],
      [
        "▁rejstřík",
        -10.216815738417274
      ],
      [
        "▁dochází",
        -10.216878598344687
      ],
      [
        "▁trenér",
        -10.216926309580352
      ],
      [
        "▁vašich",
        -10.217181234443395
      ],
      [
        "▁server",
        -10.217196024540508
      ],
      [
        "▁cíle",
        -10.21782632916782
      ],
      [
        "▁(2",
        -10.218322767245697
      ],
      [
        "▁problémů",
        -10.218338084176317
      ],
      [
        "▁bodů",
        -10.218571000742227
      ],
      [
        "▁nemůžu",
        -10.218931323850097
      ],
      [
        "▁Seznam",
        -10.219329099276417
      ],
      [
        "▁přijít",
        -10.219478113734331
      ],
      [
        "▁zaměstnanců",
        -10.219975591746175
      ],
      [
        "era",
        -10.220054007190312
      ],
      [
        "▁zeptat",
        -10.220412076472975
      ],
      [
        "@",
        -10.220587293026838
      ],
      [
        "▁února",
        -10.222435213054387
      ],
      [
        "bil",
        -10.222760996575195
      ],
      [
        "mluv",
        -10.22283458602125
      ],
      [
        "▁udělá",
        -10.222925856543092
      ],
      [
        "▁trvá",
        -10.22298485270408
      ],
      [
        "▁Facebook",
        -10.2231357294359
      ],
      [
        "▁číst",
        -10.223254247139216
      ],
      [
        "▁pěkný",
        -10.22344643066458
      ],
      [
        "▁ustanovení",
        -10.22372940686305
      ],
      [
        "▁jenž",
        -10.224113934128528
      ],
      [
        "ete",
        -10.224496574300971
      ],
      [
        "▁těhotenství",
        -10.224738397721008
      ],
      [
        "rz",
        -10.224752817652469
      ],
      [
        "▁vztahy",
        -10.22506126650072
      ],
      [
        "▁sklo",
        -10.22519592352717
      ],
      [
        "▁Ni",
        -10.225488224900417
      ],
      [
        "▁dělal",
        -10.225613843420225
      ],
      [
        "▁snadné",
        -10.225790795133207
      ],
      [
        "▁práv",
        -10.226057039359784
      ],
      [
        "▁generace",
        -10.226244527422889
      ],
      [
        "▁účinky",
        -10.226271042141835
      ],
      [
        "▁Twitter",
        -10.226372284004416
      ],
      [
        "▁doktor",
        -10.226480261802834
      ],
      [
        "▁stává",
        -10.22653365046962
      ],
      [
        "▁kraje",
        -10.226717976002462
      ],
      [
        "těž",
        -10.226819216639079
      ],
      [
        "TA",
        -10.226909934525457
      ],
      [
        "▁Den",
        -10.227055544078407
      ],
      [
        "▁vybaven",
        -10.227391020589026
      ],
      [
        "jen",
        -10.227569458027812
      ],
      [
        "▁režim",
        -10.227858136588821
      ],
      [
        "ač",
        -10.228285126065412
      ],
      [
        "fa",
        -10.228365823787604
      ],
      [
        "▁pobytu",
        -10.228392359150833
      ],
      [
        "▁Tedy",
        -10.228838539831926
      ],
      [
        "▁obchodním",
        -10.229220453673257
      ],
      [
        "▁ochraně",
        -10.22926544335607
      ],
      [
        "▁Miloš",
        -10.229271067477566
      ],
      [
        "▁Například",
        -10.229376266118688
      ],
      [
        "▁rychlosti",
        -10.229835557573258
      ],
      [
        "▁souhlas",
        -10.230115761029602
      ],
      [
        "letý",
        -10.230184436373825
      ],
      [
        "▁hvězd",
        -10.230615304043159
      ],
      [
        "ard",
        -10.230717568587913
      ],
      [
        "▁automaticky",
        -10.230803928071104
      ],
      [
        "▁dodává",
        -10.230837568720089
      ],
      [
        "▁odpovědi",
        -10.23097875419996
      ],
      [
        "▁změně",
        -10.231069449733832
      ],
      [
        "▁Kdy",
        -10.231937617294331
      ],
      [
        "▁složení",
        -10.232057144563363
      ],
      [
        "▁pochopení.",
        -10.232106880313989
      ],
      [
        "▁letní",
        -10.232348541576068
      ],
      [
        "▁Německu",
        -10.232777263721317
      ],
      [
        "▁stál",
        -10.232965421645847
      ],
      [
        "ající",
        -10.232971391687466
      ],
      [
        "▁hranice",
        -10.232991962321854
      ],
      [
        "▁luxusní",
        -10.233043550763197
      ],
      [
        "▁pri",
        -10.233510271602603
      ],
      [
        "▁oběd",
        -10.233601174334076
      ],
      [
        "▁výročí",
        -10.23380882256365
      ],
      [
        "▁víry",
        -10.234172745453712
      ],
      [
        "▁Kon",
        -10.234661548689376
      ],
      [
        "▁nese",
        -10.235023130334705
      ],
      [
        "▁titul",
        -10.235335749416508
      ],
      [
        "▁názoru",
        -10.235671158349696
      ],
      [
        "▁techniky",
        -10.235831847209965
      ],
      [
        "▁potravin",
        -10.235955136773928
      ],
      [
        "▁pivo",
        -10.236238159940376
      ],
      [
        "jet",
        -10.236902227799202
      ],
      [
        "Vzhledem",
        -10.237220562151013
      ],
      [
        "▁Ministerstvo",
        -10.237420841057538
      ],
      [
        "py",
        -10.237597701700716
      ],
      [
        "▁příklad",
        -10.237824976860798
      ],
      [
        "▁http://",
        -10.238183513458097
      ],
      [
        "pan",
        -10.238222867598015
      ],
      [
        "▁současně",
        -10.238376291338927
      ],
      [
        "▁Star",
        -10.23874317666088
      ],
      [
        "▁23.",
        -10.23902939511768
      ],
      [
        "▁vašem",
        -10.239098430944205
      ],
      [
        "▁zahraniční",
        -10.239326870575155
      ],
      [
        "eš",
        -10.239535023829664
      ],
      [
        "▁post",
        -10.239614285750779
      ],
      [
        "KA",
        -10.240011416724311
      ],
      [
        "▁venku",
        -10.240871750198583
      ],
      [
        "▁Češi",
        -10.241521545913788
      ],
      [
        "▁narodil",
        -10.24153428904666
      ],
      [
        "▁funkční",
        -10.241888678330936
      ],
      [
        "▁areálu",
        -10.241922198527655
      ],
      [
        "▁He",
        -10.241938659488628
      ],
      [
        "▁věci,",
        -10.242161148256134
      ],
      [
        "tit",
        -10.243022380249563
      ],
      [
        "▁dřív",
        -10.243400881352885
      ],
      [
        "ek.",
        -10.243638614064006
      ],
      [
        "čas",
        -10.244058224588503
      ],
      [
        "▁obchodu",
        -10.244234480948421
      ],
      [
        "▁běhat",
        -10.244520143235494
      ],
      [
        "▁každá",
        -10.244722171316617
      ],
      [
        "▁ted",
        -10.24473559647128
      ],
      [
        "▁Přes",
        -10.24474601734003
      ],
      [
        "▁hráčů",
        -10.244831444408387
      ],
      [
        "▁daně",
        -10.2451913710204
      ],
      [
        "▁vodní",
        -10.245487022544562
      ],
      [
        "▁Ostrava",
        -10.24558134753632
      ],
      [
        "par",
        -10.245797406361937
      ],
      [
        "nos",
        -10.246081827587654
      ],
      [
        "dlo",
        -10.246262810157905
      ],
      [
        "l.",
        -10.24634028919109
      ],
      [
        "▁ne?",
        -10.246432892138536
      ],
      [
        "já",
        -10.246895410087571
      ],
      [
        "▁používají",
        -10.24757701795682
      ],
      [
        "vel",
        -10.248314061300805
      ],
      [
        "cím",
        -10.248378989802811
      ],
      [
        "▁zajištění",
        -10.248431856117431
      ],
      [
        "▁dají",
        -10.248601848075719
      ],
      [
        "LE",
        -10.248638026707486
      ],
      [
        "▁podnik",
        -10.248820275345391
      ],
      [
        "▁tj.",
        -10.249153436094344
      ],
      [
        "▁nákup",
        -10.24951115299453
      ],
      [
        "▁jednotlivé",
        -10.249759901668078
      ],
      [
        "▁malých",
        -10.249806069279348
      ],
      [
        "31",
        -10.250218823371602
      ],
      [
        "▁kombinaci",
        -10.25065451420636
      ],
      [
        "▁klíč",
        -10.25068019603044
      ],
      [
        "▁rad",
        -10.251350248993322
      ],
      [
        "▁boty",
        -10.251660865885128
      ],
      [
        "70",
        -10.25192324361813
      ],
      [
        "▁několikrát",
        -10.252491951855506
      ],
      [
        "▁malou",
        -10.252626988795713
      ],
      [
        "ským",
        -10.252807227453681
      ],
      [
        "▁užívání",
        -10.252939612944381
      ],
      [
        "▁vzal",
        -10.252971612201328
      ],
      [
        "AN",
        -10.25303098141638
      ],
      [
        "▁cm,",
        -10.253245348248432
      ],
      [
        "▁domov",
        -10.254556334692346
      ],
      [
        "▁Mal",
        -10.255503526048841
      ],
      [
        "▁Petra",
        -10.255856104827402
      ],
      [
        "▁kilometrů",
        -10.25588664346559
      ],
      [
        "▁blogu",
        -10.256071115820337
      ],
      [
        "▁knih",
        -10.25633952999155
      ],
      [
        "▁Vánoce",
        -10.256355710240367
      ],
      [
        "▁No,",
        -10.256367521555976
      ],
      [
        "▁kdysi",
        -10.25638676008145
      ],
      [
        "eno",
        -10.256410497928009
      ],
      [
        "▁chyby",
        -10.256605037843856
      ],
      [
        "▁unikátní",
        -10.256853506877178
      ],
      [
        "▁funkcí",
        -10.25690520739516
      ],
      [
        "▁36",
        -10.257193971604632
      ],
      [
        "-(",
        -10.257460832908988
      ],
      [
        "▁anti",
        -10.258124997374335
      ],
      [
        "▁Největší",
        -10.25822501787238
      ],
      [
        "isté",
        -10.258390773894416
      ],
      [
        "▁vláken",
        -10.258408208778883
      ],
      [
        "▁majitel",
        -10.258795602072095
      ],
      [
        "hlíd",
        -10.258978822109395
      ],
      [
        "▁přednost",
        -10.259135207545475
      ],
      [
        "▁povolení",
        -10.259543806823565
      ],
      [
        "ris",
        -10.25970650830342
      ],
      [
        "▁úroveň",
        -10.259973045780658
      ],
      [
        "▁objednávky",
        -10.259977968284836
      ],
      [
        "▁schopnost",
        -10.26003501607588
      ],
      [
        "▁čekat",
        -10.260380547470678
      ],
      [
        "▁ODS",
        -10.260518832112652
      ],
      [
        "▁světlo",
        -10.260669329720475
      ],
      [
        "▁poškození",
        -10.260733914231029
      ],
      [
        "věř",
        -10.260937863818775
      ],
      [
        "▁reakce",
        -10.261553734324497
      ],
      [
        "▁Chci",
        -10.261710355972138
      ],
      [
        "▁nejdříve",
        -10.261769947486261
      ],
      [
        "jdou",
        -10.262373333810542
      ],
      [
        "res",
        -10.262426675506124
      ],
      [
        "▁cest",
        -10.26308979356417
      ],
      [
        "ičku",
        -10.263633953383877
      ],
      [
        "▁doufám,",
        -10.263889183787995
      ],
      [
        "vál",
        -10.263986386028137
      ],
      [
        "čil",
        -10.264070852686643
      ],
      [
        "▁příležitost",
        -10.265159520006723
      ],
      [
        "▁pokus",
        -10.265413901091357
      ],
      [
        "▁výstřik",
        -10.266507232771977
      ],
      [
        "▁oprav",
        -10.26656038130341
      ],
      [
        "▁osvětlení",
        -10.266788698603435
      ],
      [
        "▁cit",
        -10.266831673798688
      ],
      [
        "▁31.",
        -10.266886884755621
      ],
      [
        "▁pořadí",
        -10.266986224103515
      ],
      [
        "▁úvěr",
        -10.267075758072991
      ],
      [
        "▁jinde",
        -10.267135044157836
      ],
      [
        "▁dávat",
        -10.267532613287564
      ],
      [
        "▁návod",
        -10.267908642797822
      ],
      [
        "▁zahradě",
        -10.26816809822525
      ],
      [
        "▁Akce",
        -10.268520630831134
      ],
      [
        "▁hlavy",
        -10.26873946287538
      ],
      [
        "▁majetku",
        -10.269361374382404
      ],
      [
        "▁série",
        -10.269374756282943
      ],
      [
        "▁48",
        -10.26944350862804
      ],
      [
        "▁pá",
        -10.269871966997929
      ],
      [
        "▁lid",
        -10.270156967973533
      ],
      [
        "▁hlavě",
        -10.270246219394965
      ],
      [
        "▁nikoho",
        -10.27093910040008
      ],
      [
        "▁víkendu",
        -10.271330307861984
      ],
      [
        "rub",
        -10.271437882081479
      ],
      [
        "▁nebyly",
        -10.27166138009489
      ],
      [
        "př",
        -10.27212293082616
      ],
      [
        "▁písm",
        -10.272445422877755
      ],
      [
        "he",
        -10.272527810136232
      ],
      [
        "ického",
        -10.273418877148835
      ],
      [
        "▁profil",
        -10.273959560872017
      ],
      [
        "▁zajišťuje",
        -10.27409315482361
      ],
      [
        "▁Domácí",
        -10.27409363121454
      ],
      [
        "kami",
        -10.274108100530238
      ],
      [
        "▁aneb",
        -10.27491865074899
      ],
      [
        "▁oblíbené",
        -10.275652573772051
      ],
      [
        "▁aplikaci",
        -10.275675326237227
      ],
      [
        "▁zpráva",
        -10.275730767309035
      ],
      [
        "▁prsa,",
        -10.275782097125054
      ],
      [
        "▁prvky",
        -10.275982878805436
      ],
      [
        "▁začneme",
        -10.276315011896589
      ],
      [
        "▁cestování",
        -10.27639430799634
      ],
      [
        "▁odběru",
        -10.27747067191537
      ],
      [
        "▁hrozí",
        -10.27845548781669
      ],
      [
        "▁výroby",
        -10.278847687684362
      ],
      [
        "▁00",
        -10.279529154482846
      ],
      [
        "▁knize",
        -10.280442628165448
      ],
      [
        "▁zvířat",
        -10.280657802120498
      ],
      [
        "▁Ru",
        -10.281001550473785
      ],
      [
        "°",
        -10.28188178426796
      ],
      [
        "▁praxi",
        -10.282044392743165
      ],
      [
        "ena",
        -10.282296634865107
      ],
      [
        "▁mladé",
        -10.28240146951376
      ],
      [
        "▁II",
        -10.283125057011297
      ],
      [
        "lení",
        -10.283562518009587
      ],
      [
        "▁hračky",
        -10.284395303200485
      ],
      [
        "▁krize",
        -10.284416355442925
      ],
      [
        "▁pořádku",
        -10.284457057236146
      ],
      [
        "▁hledání",
        -10.284635389882975
      ],
      [
        "álně",
        -10.28508683811462
      ],
      [
        "bychom",
        -10.285275928622573
      ],
      [
        "▁půjčku",
        -10.285277680504274
      ],
      [
        "▁městské",
        -10.285411553506027
      ],
      [
        "▁volný",
        -10.285432826247426
      ],
      [
        "▁počítač",
        -10.285488218140568
      ],
      [
        "▁Muž",
        -10.28569597948124
      ],
      [
        "▁hledá",
        -10.285912390513193
      ],
      [
        "▁Barva:",
        -10.286432552877827
      ],
      [
        "▁Tr",
        -10.286820272550564
      ],
      [
        "▁potřeb",
        -10.286895154694218
      ],
      [
        "▁voleb",
        -10.287226048670671
      ],
      [
        "EC",
        -10.287252528828256
      ],
      [
        "▁rejstříku",
        -10.28737637071509
      ],
      [
        "▁zdrojů",
        -10.287481348270557
      ],
      [
        "▁teploty",
        -10.287691656415749
      ],
      [
        "▁3D",
        -10.287710654865446
      ],
      [
        "ovaného",
        -10.289522192704364
      ],
      [
        "▁kontrolu",
        -10.28972797155821
      ],
      [
        "▁Fa",
[...]
