{
  "version": "1.0",
  "truncation": null,
  "padding": null,
  "added_tokens": [
    {
      "id": 0,
      "content": "[UNK]",
      "single_word": false,
      "lstrip": false,
      "rstrip": false,
      "normalized": false,
      "special": true
    },
    {
      "id": 1,
      "content": "[CLS]",
      "single_word": false,
      "lstrip": false,
      "rstrip": false,
      "normalized": false,
      "special": true
    },
    {
      "id": 2,
      "content": "[SEP]",
      "single_word": false,
      "lstrip": false,
      "rstrip": false,
      "normalized": false,
      "special": true
    },
    {
      "id": 3,
      "content": "[PAD]",
      "single_word": false,
      "lstrip": false,
      "rstrip": false,
      "normalized": false,
      "special": true
    },
    {
      "id": 4,
      "content": "[MASK]",
      "single_word": false,
      "lstrip": false,
      "rstrip": false,
      "normalized": false,
      "special": true
    }
  ],
  "normalizer": {
    "type": "Sequence",
    "normalizers": [
      {
        "type": "Nmt"
      },
      {
        "type": "NFKC"
      },
      {
        "type": "Replace",
        "pattern": {
          "Regex": " {2,}"
        },
        "content": " "
      }
    ]
  },
  "pre_tokenizer": {
    "type": "Metaspace",
    "replacement": "▁",
    "prepend_scheme": "always",
    "split": true
  },
  "post_processor": null,
  "decoder": {
    "type": "Metaspace",
    "replacement": "▁",
    "prepend_scheme": "always",
    "split": true
  },
  "model": {
    "type": "Unigram",
    "unk_id": null,
    "vocab": [
      [
        "[UNK]",
        0.0
      ],
      [
        "[CLS]",
        0.0
      ],
      [
        "[SEP]",
        0.0
      ],
      [
        "[PAD]",
        0.0
      ],
      [
        "[MASK]",
        0.0
      ],
      [
        "▁",
        -1.8688888138681516
      ],
      [
        "၊",
        -4.510223741203022
      ],
      [
        "ကို",
        -4.7195450828289776
      ],
      [
        "။",
        -4.8059317436475
      ],
      [
        ")",
        -4.958533357693858
      ],
      [
        ",",
        -5.120498533843522
      ],
      [
        "က",
        -5.143120982763509
      ],
      [
        "မှာ",
        -5.392827661732484
      ],
      [
        "▁(",
        -5.478730449339013
      ],
      [
        "နှင့်",
        -5.505667136569617
      ],
      [
        ".",
        -5.689467028973789
      ],
      [
        "မှ",
        -5.729480802184074
      ],
      [
        "များ",
        -5.761998520270607
      ],
      [
        "တွင်",
        -5.762961049565821
      ],
      [
        "နဲ့",
        -5.809142621509906
      ],
      [
        "၏",
        -5.864364350535654
      ],
      [
        "▁-",
        -5.883270186977667
      ],
      [
        "သည်",
        -5.895268899302721
      ],
      [
        "▁ကို",
        -5.934797061233057
      ],
      [
        "-",
        -6.053551299348025
      ],
      [
        "တဲ့",
        -6.098530754399811
      ],
      [
        "ပြီး",
        -6.108225129735871
      ],
      [
        ":",
        -6.112386053514729
      ],
      [
        "သော",
        -6.12402393628339
      ],
      [
        "...",
        -6.142657970490366
      ],
      [
        "s",
        -6.25116504729646
      ],
      [
        "တွေ",
        -6.284648163225487
      ],
      [
        "/",
        -6.3715221758885905
      ],
      [
        "မ",
        -6.384371727483952
      ],
      [
        "▁က",
        -6.392179484105476
      ],
      [
        "▁မြန်မာ",
        -6.40825977053493
      ],
      [
        "အတွက်",
        -6.423908296963508
      ],
      [
        "လည်း",
        -6.450549947396718
      ],
      [
        "အ",
        -6.4818787965866225
      ],
      [
        "ပါတယ်။",
        -6.532187771750033
      ],
      [
        "သည်။",
        -6.536532828369628
      ],
      [
        "ဟာ",
        -6.561284025333799
      ],
      [
        "▁အ",
        -6.575788169907468
      ],
      [
        "ရန်",
        -6.578081980026267
      ],
      [
        "”",
        -6.600972388816153
      ],
      [
        "ရဲ့",
        -6.605805061483063
      ],
      [
        "ပါ။",
        -6.641047319631417
      ],
      [
        "▁_",
        -6.683743158584503
      ],
      [
        "ခြင်း",
        -6.689735431492528
      ],
      [
        "ရှိ",
        -6.731916196089712
      ],
      [
        "▁“",
        -6.732292443979774
      ],
      [
        "▁ဘီဘီစီ",
        -6.732789451726964
      ],
      [
        "ပါ",
        -6.734134093088592
      ],
      [
        "ရ",
        -6.743887308870406
      ],
      [
        "ဖြင့်",
        -6.748584227875614
      ],
      [
        "မှု",
        -6.756403331212611
      ],
      [
        "ဖို့",
        -6.756838098828457
      ],
      [
        "]",
        -6.770508547126827
      ],
      [
        "တာ",
        -6.776593942678436
      ],
      [
        "တော့",
        -6.786567771878183
      ],
      [
        "\"",
        -6.797196604185463
      ],
      [
        "▁မ",
        -6.804413999510101
      ],
      [
        "လို့",
        -6.8057580920469185
      ],
      [
        "(",
        -6.817480686588213
      ],
      [
        "အား",
        -6.822882084014002
      ],
      [
        "a",
        -6.826398425361681
      ],
      [
        "း",
        -6.886463847465839
      ],
      [
        "သည့်",
        -6.891127209626648
      ],
      [
        "ဆိုင်ရာ",
        -6.932423301610622
      ],
      [
        "တွေကို",
        -6.954613373553834
      ],
      [
        "▁BBC",
        -6.963972762455082
      ],
      [
        "၍",
        -6.971743818781556
      ],
      [
        "သို့",
        -7.000238505922112
      ],
      [
        "▁2018",
        -7.027145502015058
      ],
      [
        "သူ",
        -7.052778717884466
      ],
      [
        "ကြီး",
        -7.0665432288563945
      ],
      [
        "သာ",
        -7.070028730699349
      ],
      [
        "ရေး",
        -7.074268817724297
      ],
      [
        "တ",
        -7.07777316816848
      ],
      [
        "▁မှ",
        -7.081682787801454
      ],
      [
        "▁၂",
        -7.086395465223458
      ],
      [
        "များကို",
        -7.101215552227398
      ],
      [
        "၌",
        -7.126031473610318
      ],
      [
        "▁ဒီ",
        -7.141224271602547
      ],
      [
        "ပဲ",
        -7.143209968418494
      ],
      [
        "▁ဖြစ်ပါတယ်။",
        -7.153824216923832
      ],
      [
        "တယ်။",
        -7.154744645224429
      ],
      [
        "▁နဲ့",
        -7.157514493816047
      ],
      [
        "▁မူဝါဒ",
        -7.157766437879147
      ],
      [
        "နေ",
        -7.189476258799952
      ],
      [
        "▁–",
        -7.204056907603176
      ],
      [
        "▁လမ်းညွှန်",
        -7.2054327070963105
      ],
      [
        "▁ပြင်ပ",
        -7.219685354365299
      ],
      [
        "?",
        -7.227091764509001
      ],
      [
        "အောင်",
        -7.251828302279308
      ],
      [
        "▁စာမျက်နှာ",
        -7.275205455794853
      ],
      [
        "ကြောင်း",
        -7.29755215109366
      ],
      [
        "ကာ",
        -7.303031482088101
      ],
      [
        "▁News",
        -7.303112761021296
      ],
      [
        "ရာ",
        -7.304989187271373
      ],
      [
        "လာ",
        -7.312040922923105
      ],
      [
        "[",
        -7.31228147534063
      ],
      [
        "အဖြစ်",
        -7.320587658638833
      ],
      [
        "သ",
        -7.329533103596205
      ],
      [
        "e",
        -7.337211166725522
      ],
      [
        "▁၁",
        -7.3435281656037645
      ],
      [
        "ပြင်ဆင်ရန်",
        -7.3444520080768685
      ],
      [
        "▁နှင့်",
        -7.350581629001373
      ],
      [
        "▁၃",
        -7.353663093819314
      ],
      [
        "▁ဦး",
        -7.361219466532281
      ],
      [
        "ခဲ့သည်။",
        -7.396295135727417
      ],
      [
        "▁ဤ",
        -7.409433856708036
      ],
      [
        "ပေး",
        -7.415538103289672
      ],
      [
        "▁သိရသည်။",
        -7.416230977727828
      ],
      [
        "▁1",
        -7.421847294947833
      ],
      [
        "▁ရယူရန်",
        -7.440676377295279
      ],
      [
        "▁\"",
        -7.4408955157159085
      ],
      [
        "▁Myanmar",
        -7.458064528449487
      ],
      [
        "ကတော့",
        -7.458574289716947
      ],
      [
        "▁အဆိုပါ",
        -7.459750642703747
      ],
      [
        "နိုင်",
        -7.4624839072649545
      ],
      [
        "▁/",
        -7.463008431599348
      ],
      [
        "သွား",
        -7.4635055115805855
      ],
      [
        "▁ရဲ့",
        -7.469807493210737
      ],
      [
        "▁အတွက်",
        -7.474169635233813
      ],
      [
        "▁Facebook",
        -7.480497982619947
      ],
      [
        "▁လူ",
        -7.481838244457747
      ],
      [
        "တို့",
        -7.492675133597149
      ],
      [
        "▁ဝင်ရောက်",
        -7.5051047647524545
      ],
      [
        "စ",
        -7.5233387363564175
      ],
      [
        "▁C",
        -7.525087469568754
      ],
      [
        "▁ခုနှစ်",
        -7.526120875375806
      ],
      [
        "လေး",
        -7.534343534496617
      ],
      [
        "ရင်",
        -7.538838760628323
      ],
      [
        "ing",
        -7.541014840080243
      ],
      [
        "ဖြစ်",
        -7.554846098971306
      ],
      [
        "ကြောင့်",
        -7.555972700396826
      ],
      [
        "▁၅",
        -7.56522476845144
      ],
      [
        "▁ပင်မစာမျက်နှာ",
        -7.573989486984528
      ],
      [
        "▁၄",
        -7.576291133600888
      ],
      [
        "▁=",
        -7.578376207222145
      ],
      [
        "လို",
        -7.587592057677964
      ],
      [
        "လ",
        -7.58886034174272
      ],
      [
        "y",
        -7.588984369930186
      ],
      [
        "▁ပြောပါတယ်။",
        -7.592958004655387
      ],
      [
        "▁သတင်း",
        -7.5973852288864245
      ],
      [
        "ပါသည်။",
        -7.608235506376851
      ],
      [
        "ထား",
        -7.610473910757637
      ],
      [
        "i",
        -7.612676511622327
      ],
      [
        "▁မြန်မာနိုင်ငံ",
        -7.6299103021757775
      ],
      [
        "▁ဗီဒီယိုများ",
        -7.634441855439264
      ],
      [
        "▁ရ",
        -7.6411484588873435
      ],
      [
        "ခဲ့ပါတယ်။",
        -7.650107218280944
      ],
      [
        "▁တွေ",
        -7.670821063293404
      ],
      [
        "er",
        -7.682441908884816
      ],
      [
        "▁©",
        -7.685461450421608
      ],
      [
        "အချက်အလက်",
        -7.69733052321186
      ],
      [
        "အတွင်း",
        -7.699418847529352
      ],
      [
        "▁အမေရိကန်",
        -7.701441508285233
      ],
      [
        "အပေါ်",
        -7.701608369371415
      ],
      [
        "▁အကူအညီ",
        -7.718312917851118
      ],
      [
        "လဲ",
        -7.719740469855468
      ],
      [
        "ဦး",
        -7.730653932666163
      ],
      [
        "t",
        -7.733531627255703
      ],
      [
        "▁၆",
        -7.736595531179136
      ],
      [
        "▁\"https://my.",
        -7.737517492917966
      ],
      [
        "့",
        -7.746425862171525
      ],
      [
        "ခဲ့",
        -7.749149376697958
      ],
      [
        "်",
        -7.750987643730827
      ],
      [
        "ဝ",
        -7.751332841554173
      ],
      [
        "▁နှစ်",
        -7.752179265851129
      ],
      [
        "d",
        -7.754516758849078
      ],
      [
        "▁လင့်များ",
        -7.7669089240500915
      ],
      [
        "▁ဝေမျှ",
        -7.771342417081616
      ],
      [
        "▁နိုင်ငံ",
        -7.77186296973852
      ],
      [
        "ကနေ",
        -7.772240502619503
      ],
      [
        "န",
        -7.773177546601984
      ],
      [
        "များအတွက်",
        -7.782314616355548
      ],
      [
        "▁၀",
        -7.786565649373186
      ],
      [
        "ပ",
        -7.786673572305037
      ],
      [
        "လိုက်",
        -7.792704051237221
      ],
      [
        "▁ဝီကီပီးဒီးယား",
        -7.7956316370048135
      ],
      [
        "များနှင့်",
        -7.797077971673936
      ],
      [
        "လုပ်",
        -7.802896258124194
      ],
      [
        "▁ပြောသည်။",
        -7.805164440003349
      ],
      [
        "ကျ",
        -7.806380503779672
      ],
      [
        "▁ကျွန်ုပ်တို့",
        -7.8065319557511375
      ],
      [
        "▁Copyright",
        -7.8093177302017756
      ],
      [
        "ာ",
        -7.809713191107896
      ],
      [
        "ဖြစ်ပါတယ်။",
        -7.814694427081587
      ],
      [
        "ပါမည်။",
        -7.82291454376683
      ],
      [
        "▁အကြောင်းအရာများ",
        -7.829540597288718
      ],
      [
        "▁ဖြစ်",
        -7.841890037791407
      ],
      [
        "▁2",
        -7.845068563762964
      ],
      [
        "မှုဆိုင်ရာ",
        -7.845332419832466
      ],
      [
        "ရေ",
        -7.846725232035328
      ],
      [
        "▁အသက်",
        -7.847227865596911
      ],
      [
        "▁ပိတ်",
        -7.849132030539497
      ],
      [
        "!",
        -7.850409177494107
      ],
      [
        "တွေနဲ့",
        -7.851476825699932
      ],
      [
        "▁အကြောင်း",
        -7.864341031560287
      ],
      [
        "▁စ",
        -7.864437475566776
      ],
      [
        "▁ရက်",
        -7.867032380981069
      ],
      [
        "▁ပြည်ထောင်စု",
        -7.868842766818854
      ],
      [
        "▁of",
        -7.869326661799191
      ],
      [
        "..",
        -7.8707580575991924
      ],
      [
        "နေတဲ့",
        -7.87224061616098
      ],
      [
        "နှင့်အတူ",
        -7.872958830868179
      ],
      [
        "A",
        -7.874161871715289
      ],
      [
        "ထဲမှာ",
        -7.874239202529877
      ],
      [
        "▁ပါ",
        -7.87476156442033
      ],
      [
        "ခြင်းအကြောင်း",
        -7.875051061400559
      ],
      [
        "o",
        -7.877930143056427
      ],
      [
        "▁၁၀",
        -7.87995627723767
      ],
      [
        "▁ပြန်",
        -7.882442916378855
      ],
      [
        "ံ",
        -7.883849501978079
      ],
      [
        "ကြည့်ရှုနိုင်",
        -7.884174921218322
      ],
      [
        "▁ဓာတ်ပုံများ",
        -7.889902950425753
      ],
      [
        "ထက်",
        -7.890208166705152
      ],
      [
        "▁ပွင့်",
        -7.893116529200531
      ],
      [
        "▁S",
        -7.894063023386154
      ],
      [
        "အသစ်တစ်ခု",
        -7.897996511226979
      ],
      [
        "▁ဘယ်လို",
        -7.899918791990876
      ],
      [
        "တစ်ခု",
        -7.900974095877709
      ],
      [
        "စည်းကမ်းချက်များ",
        -7.906374793971308
      ],
      [
        "ကြ",
        -7.9070557174987535
      ],
      [
        "r",
        -7.9075648304135555
      ],
      [
        "▁အစိုးရ",
        -7.908098028214723
      ],
      [
        "နှင့်ပတ်သက်သည့်",
        -7.908572405826419
      ],
      [
        "ထားတဲ့",
        -7.9147542673211975
      ],
      [
        "▁ဒီစာမျက်နှာ",
        -7.915377407124365
      ],
      [
        "▁မျှဝေ",
        -7.91655420465273
      ],
      [
        "▁သုံးစွဲမှု",
        -7.916762703936827
      ],
      [
        "နိုင်ပါတယ်။",
        -7.9196363064432145
      ],
      [
        "▁နောက်ထပ်",
        -7.921950187510052
      ],
      [
        "▁သင်",
        -7.9256998784666255
      ],
      [
        "ပင်",
        -7.926778659545189
      ],
      [
        "ဆို",
        -7.926916317365307
      ],
      [
        "▁လုပ်",
        -7.931234628511601
      ],
      [
        "ဝက်ဘ်ဆိုက်များ",
        -7.9314615120106655
      ],
      [
        "▁အဲဒီ",
        -7.932000741773047
      ],
      [
        "▁လင့်",
        -7.932057716087054
      ],
      [
        "▁သူတို့",
        -7.932806248708845
      ],
      [
        "သုံး",
        -7.934904878157375
      ],
      [
        "က်",
        -7.937022067268405
      ],
      [
        "index.php?title=",
        -7.937805982698134
      ],
      [
        "တော်",
        -7.940451678722392
      ],
      [
        "ပြင်ပလင့်များ",
        -7.942418626376002
      ],
      [
        "▁ကိုယ်ရေးကိုယ်တာ",
        -7.94446000968854
      ],
      [
        "▁ဒီသတင်းကို",
        -7.947183050619723
      ],
      [
        "▁စာမျက်နှာကို",
        -7.9507979380573435
      ],
      [
        "▁ချဉ်းကပ်မှု",
        -7.951692911541465
      ],
      [
        "▁&",
        -7.952864006906199
      ],
      [
        "▁တာဝန်မယူပါ။",
        -7.9539659406246574
      ],
      [
        "တစ်",
        -7.958550815170245
      ],
      [
        "တင်",
        -7.9628130621260915
      ],
      [
        "▁ဟု",
        -7.972953039493323
      ],
      [
        "တယ်",
        -7.975858704236384
      ],
      [
        "မည်",
        -7.977998091515344
      ],
      [
        "လျှင်",
        -7.992496636106234
      ],
      [
        "ခဲ့တဲ့",
        -7.993170549670409
      ],
      [
        "▁ထို",
        -8.000517421969453
      ],
      [
        "▁တစ်",
        -8.004874948563668
      ],
      [
        "မြို့နယ်",
        -8.005407715418105
      ],
      [
        "www.pho",
        -8.008872381314877
      ],
      [
        "thut",
        -8.008896075990624
      ],
      [
        "▁ဖိုးသူတော်",
        -8.016265713887279
      ],
      [
        "မျိုး",
        -8.017502626867323
      ],
      [
        "ပြန်",
        -8.019795709955641
      ],
      [
        "w.com",
        -8.023493331472547
      ],
      [
        "▁ဖြစ်သည်။",
        -8.026384785093594
      ],
      [
        "▁သတင်းများ",
        -8.028273659487919
      ],
      [
        "ု",
        -8.029220848000783
      ],
      [
        "c",
        -8.030443265128422
      ],
      [
        "▁to",
        -8.032754797499095
      ],
      [
        "သား",
        -8.033151819919802
      ],
      [
        "▁A",
        -8.037449348572686
      ],
      [
        "ချက်",
        -8.03892107450531
      ],
      [
        "al",
        -8.04428229579792
      ],
      [
        "▁ပြော",
        -8.046846886470286
      ],
      [
        "စာ",
        -8.046872869065936
      ],
      [
        "n",
        -8.047756875404751
      ],
      [
        "▁၇",
        -8.049217946476737
      ],
      [
        "ခံ",
        -8.055699796756166
      ],
      [
        "တောင်",
        -8.056353730429958
      ],
      [
        "နိုင်ငံ",
        -8.059057701476995
      ],
      [
        "တိုင်း",
        -8.064201698226526
      ],
      [
        "▁အခု",
        -8.064355882352139
      ],
      [
        "▁၈",
        -8.064801988345017
      ],
      [
        "မယ့်",
        -8.064995851040425
      ],
      [
        "တွေက",
        -8.067007695101521
      ],
      [
        "ဖြစ်သည်။",
        -8.068007619530563
      ],
      [
        "နှစ်",
        -8.069397853455978
      ],
      [
        "▁အမျိုးသား",
        -8.070033992658487
      ],
      [
        "ပုံ",
        -8.0738874120146
      ],
      [
        "ခြင်း၊",
        -8.080754621317517
      ],
      [
        "▁စီးပွားရေး",
        -8.084875880015119
      ],
      [
        "▁နောက်ဆုံး",
        -8.085985645176237
      ],
      [
        "ပြော",
        -8.098004676169765
      ],
      [
        "ed",
        -8.098659634710693
      ],
      [
        "အထိ",
        -8.09897508186376
      ],
      [
        "ယ",
        -8.105251762451806
      ],
      [
        "အရ",
        -8.106047800560237
      ],
      [
        "ဟု",
        -8.106087870849079
      ],
      [
        "စား",
        -8.106272677081188
      ],
      [
        "▁M",
        -8.109857673566603
      ],
      [
        "သင့်",
        -8.112009135102646
      ],
      [
        "+",
        -8.112303357346565
      ],
      [
        "▁၂၀၁၇",
        -8.119503201870888
      ],
      [
        "လောက်",
        -8.124396701985141
      ],
      [
        "▁သမ္မတ",
        -8.128905642533887
      ],
      [
        "▁တ",
        -8.130378210618202
      ],
      [
        "ဝင်",
        -8.13187720477239
      ],
      [
        "▁(၁)",
        -8.134442060303263
      ],
      [
        "▁တရုတ်",
        -8.136516571550732
      ],
      [
        "▁လို့",
        -8.137499165915433
      ],
      [
        "ဘဲ",
        -8.140046594053246
      ],
      [
        "▁သူ",
        -8.14073057817471
      ],
      [
        "ယူ",
        -8.146614841573362
      ],
      [
        "တိ",
        -8.146850950072974
      ],
      [
        "နည်း",
        -8.1520187693962
      ],
      [
        "▁(၂)",
        -8.153946753277067
      ],
      [
        "▁စာ",
        -8.154588047365937
      ],
      [
        "တို့ကို",
        -8.158921182896663
      ],
      [
        "▁နိုင်ငံတကာ",
        -8.159893701193809
      ],
      [
        "▁ဝေမျှပါ",
        -8.162046958744632
      ],
      [
        "သိ",
        -8.162700214883262
      ],
      [
        "▁ဆိုပါတယ်။",
        -8.16642949527763
      ],
      [
        "▁၉",
        -8.177139346827136
      ],
      [
        "▁T",
        -8.18207362862137
      ],
      [
        "▁အထူး",
        -8.183087498929755
      ],
      [
        "▁အခြား",
        -8.186301255970516
      ],
      [
        "▁and",
        -8.188174471233577
      ],
      [
        "ထဲက",
        -8.190523801360653
      ],
      [
        "တိုင်းဒေသကြီး",
        -8.19228349204273
      ],
      [
        "ကျော်",
        -8.192539519967891
      ],
      [
        "▁Home",
        -8.196189930747366
      ],
      [
        "▁ဖန်တီးရန်",
        -8.200705201528223
      ],
      [
        "▁အပြောင်းအလဲများ",
        -8.20619443924807
      ],
      [
        "တစ်ဦး",
        -8.210470320616764
      ],
      [
        "ကောင်း",
        -8.21368519697046
      ],
      [
        "ခဲ့ပြီး",
        -8.213763179853952
      ],
      [
        "▁သူ့",
        -8.218228440406634
      ],
      [
        "▁ရွေးကောက်ပွဲ",
        -8.21866203305595
      ],
      [
        "▁ကျော်",
        -8.219671050277437
      ],
      [
        "စေ",
        -8.220146109734713
      ],
      [
        "▁the",
        -8.222448128762919
      ],
      [
        "မှာတော့",
        -8.222998289811672
      ],
      [
        "စွာ",
        -8.223085569187294
      ],
      [
        "▁၁။",
        -8.22427749690505
      ],
      [
        "ပေါင်း",
        -8.227980083329811
      ],
      [
        "မိ",
        -8.228416389242856
      ],
      [
        "လုပ်ငန်း",
        -8.229277578782012
      ],
      [
        "ဂ",
        -8.23354365916423
      ],
      [
        "▁ရှိ",
        -8.24045268280825
      ],
      [
        "3",
        -8.241075703875897
      ],
      [
        "▁သိ",
        -8.245452780869279
      ],
      [
        "▁in",
        -8.251769784839283
      ],
      [
        "▁ဟာ",
        -8.253615611600312
      ],
      [
        "▁အကောင့်",
        -8.257668259713217
      ],
      [
        "▁•",
        -8.258829700330704
      ],
      [
        "▁သ",
        -8.258985242517548
      ],
      [
        "ဖြစ်ပြီး",
        -8.263846567379098
      ],
      [
        "▁ခု",
        -8.264959222031184
      ],
      [
        "မြို့",
        -8.268085287706098
      ],
      [
        "▁ရေ",
        -8.268587089835558
      ],
      [
        "၀",
        -8.269017740904387
      ],
      [
        "ထုတ်",
        -8.269034909350333
      ],
      [
        "နာ",
        -8.269462572372406
      ],
      [
        "ရင်း",
        -8.271192353910003
      ],
      [
        "on",
        -8.272919229032615
      ],
      [
        "▁၂၀၁၈",
        -8.274713930695459
      ],
      [
        "များ၏",
        -8.277109989417639
      ],
      [
        "ခ",
        -8.277754640322879
      ],
      [
        "▁၁၂",
        -8.27829028841807
      ],
      [
        "မယ်",
        -8.281983905279521
      ],
      [
        "wikipedia.org/w",
        -8.283678479142225
      ],
      [
        "ကား",
        -8.29550569260045
      ],
      [
        "▁ပါဝင်",
        -8.301789028650784
      ],
      [
        "▁လ",
        -8.301815847230133
      ],
      [
        "▁ကဏ္ဍ",
        -8.30818957402092
      ],
      [
        "or",
        -8.310677272311278
      ],
      [
        "▁B",
        -8.310999777789167
      ],
      [
        "▁ပြန်လည်",
        -8.311240667361371
      ],
      [
        "လေ",
        -8.31195512528737
      ],
      [
        "▁နိုင်ငံရေး",
        -8.312790564163386
      ],
      [
        "▁၁၁",
        -8.314939366778423
      ],
      [
        "▁ဘုရားသခင်၏",
        -8.317903631365676
      ],
      [
        "▁၂။",
        -8.318687900203052
      ],
      [
        "▁့",
        -8.319194597348673
      ],
      [
        "▁စတင်",
        -8.319690732940508
      ],
      [
        "▁သို့မဟုတ်",
        -8.323590829532709
      ],
      [
        "ေ",
        -8.325780811874399
      ],
      [
        "လမ်း",
        -8.326836883492131
      ],
      [
        "▁D",
        -8.327861941102718
      ],
      [
        "ထွက်",
        -8.332164729007602
      ],
      [
        "▁သုံး",
        -8.334563695607283
      ],
      [
        "▁ဒါပေမယ့်",
        -8.337814522476183
      ],
      [
        "▁၂၀",
        -8.342586311698234
      ],
      [
        "ပွဲ",
        -8.344237525091966
      ],
      [
        "▁ဆောင်ရွက်",
        -8.34555962556643
      ],
      [
        "k",
        -8.347631384463387
      ],
      [
        "▁(၃)",
        -8.347985723903921
      ],
      [
        "အဖွဲ့",
        -8.351537688609499
      ],
      [
        "▁G",
        -8.351886009156294
      ],
      [
        "▁သူက",
        -8.352634519853423
      ],
      [
        "▁အဓိက",
        -8.355085592661709
      ],
      [
        "ဆိုတာ",
        -8.356714188338692
      ],
      [
        "ဒီ",
        -8.357672157355438
      ],
      [
        "သို့မဟုတ်",
        -8.35828590542222
      ],
      [
        "အကြောင်း",
        -8.360442206468704
      ],
      [
        "၏။",
        -8.36137212705886
      ],
      [
        "စိတ်",
        -8.368587644212244
      ],
      [
        "u",
        -8.36892862204989
      ],
      [
        "န်",
        -8.368944900334762
      ],
      [
        "ပေါ်",
        -8.370715349672109
      ],
      [
        "▁နောက်",
        -8.370863650824518
      ],
      [
        "ထားပါတယ်။",
        -8.371876294645542
      ],
      [
        "ရက်",
        -8.373189868548895
      ],
      [
        "▁ဒုတိယ",
        -8.378854709244553
      ],
      [
        "ချ",
        -8.378992105685835
      ],
      [
        "▁၁၈",
        -8.379269625263483
      ],
      [
        "▁ရန်ကုန်",
        -8.381227759453258
      ],
      [
        "ကိုလည်း",
        -8.384620436191838
      ],
      [
        "င်",
        -8.387423305141953
      ],
      [
        "များ၊",
        -8.390206558742864
      ],
      [
        "များအား",
        -8.391189699768649
      ],
      [
        "▁၃။",
        -8.392180025974007
      ],
      [
        "S",
        -8.392501489138507
      ],
      [
        "▁»",
        -8.392694097625403
      ],
      [
        "ထ",
        -8.39443220821912
      ],
      [
        "ပို",
        -8.394706091160591
      ],
      [
        "▁စာမျက်နှာများ",
        -8.395768971316329
      ],
      [
        "စီ",
        -8.396476049507843
      ],
      [
        "▁ပြင်ဆင်",
        -8.401044897441064
      ],
      [
        "တယ်လို့",
        -8.410888980685813
      ],
      [
        "၇",
        -8.41106931657993
      ],
      [
        "▁ကျန်းမာရေး",
        -8.41133079248143
      ],
      [
        "_",
        -8.411571282676942
      ],
      [
        "အနေနဲ့",
        -8.412283921968845
      ],
      [
        "▁ရက်နေ့",
        -8.413393033105708
      ],
      [
        "ရွှေ",
        -8.415275540860105
      ],
      [
        "ခဲ့တာ",
        -8.415424428830182
      ],
      [
        "စရာ",
        -8.41595521236631
      ],
      [
        "▁ပ",
        -8.416755012434454
      ],
      [
        "ကြည့်",
        -8.4186991304604
      ],
      [
        "▁ဆိုတဲ့",
        -8.419806597934182
      ],
      [
        "▁3",
        -8.42172932262489
      ],
      [
        "▁ဒီလို",
        -8.422997349124449
      ],
      [
        "▁ကိုယ်",
        -8.424855215691492
      ],
      [
        "တက်",
        -8.428245457950453
      ],
      [
        "သင်",
        -8.428792870001864
      ],
      [
        "▁R",
        -8.429362191898822
      ],
      [
        "ပြ",
        -8.429727060072679
      ],
      [
        "▁သေ",
        -8.43008621715652
      ],
      [
        "များတွင်",
        -8.43128856219924
      ],
      [
        "ချုပ်",
        -8.432683373360707
      ],
      [
        "▁အနေနဲ့",
        -8.433816453942693
      ],
      [
        "▁ဆွေးနွေး",
        -8.436276369542924
      ],
      [
        "▁စာအုပ်",
        -8.436637604355779
      ],
      [
        "▁သင့်",
        -8.437085918742769
      ],
      [
        "ကလည်း",
        -8.437821184945768
      ],
      [
        "▁အလုပ်",
        -8.440841517051268
      ],
      [
        "သစ်",
        -8.443371368658653
      ],
      [
        "ဒ",
        -8.44395702115537
      ],
      [
        "၂",
        -8.444332925688848
      ],
      [
        "ရော",
        -8.444474893232755
      ],
      [
        "တတ်",
        -8.44476601188395
      ],
      [
        "ဆေး",
        -8.44505283279784
      ],
      [
        "▁ကိုယ်ပိုင်",
        -8.445482740551242
      ],
      [
        "▁Android",
        -8.44645157067434
      ],
      [
        "4",
        -8.4486961066769
      ],
      [
        "ဘ",
        -8.452030501757328
      ],
      [
        "▁ဖုန်း",
        -8.453192814097179
      ],
      [
        "▁ပုံ",
        -8.454549615968263
      ],
      [
        "ထဲ",
        -8.4583593678114
      ],
      [
        "ချိန်",
        -8.45956855260095
      ],
      [
        "▁ပြုလုပ်",
        -8.46431794888888
      ],
      [
        "▁ယခု",
        -8.464644576179353
      ],
      [
        "▁8",
        -8.46593942462469
      ],
      [
        "▁မိမိ",
        -8.467953099470952
      ],
      [
        "တွေမှာ",
        -8.468317137757406
      ],
      [
        "1",
        -8.46901619751385
      ],
      [
        "▁P",
        -8.470179123446693
      ],
      [
        "m",
        -8.472465348471019
      ],
      [
        "▁ငါ",
        -8.473102004260216
      ],
      [
        "စ်",
        -8.473904070237936
      ],
      [
        "▁စိတ်",
        -8.475433227030603
      ],
      [
        "▁ဒေါက်တာ",
        -8.482666052569762
      ],
      [
        "▁လွှတ်တော်",
        -8.48516857756579
      ],
      [
        "▁န",
        -8.485311705903884
      ],
      [
        "ဆုံး",
        -8.489203818205883
      ],
      [
        "▁၂၀၁၅",
        -8.491354341820003
      ],
      [
        "b",
        -8.491605510065627
      ],
      [
        "သဖြင့်",
        -8.496722929095428
      ],
      [
        "ရောက်",
        -8.496746750810125
      ],
      [
        "နေ့",
        -8.50196122403565
      ],
      [
        "▁ဆိုတာ",
        -8.502736484316973
      ],
      [
        "▁(၄)",
        -8.503621222015717
      ],
      [
        "▁အားလုံး",
        -8.504368240512608
      ],
      [
        "7",
        -8.506001513926911
      ],
      [
        "ထိ",
        -8.50726135966016
      ],
      [
        "တံ",
        -8.508392001022877
      ],
      [
        "လုံး",
        -8.508667721248862
      ],
      [
        "▁သိရပါတယ်။",
        -8.509636755362465
      ],
      [
        "▁အဖွဲ့",
        -8.510194035417253
      ],
      [
        "▁ဝင်",
        -8.511068922686928
      ],
      [
        "▁တွေကို",
        -8.519010754744192
      ],
      [
        "↑",
        -8.519697449191945
      ],
      [
        "လက်",
        -8.519917979258288
      ],
      [
        "▁၁၉",
        -8.521653086621068
      ],
      [
        "မာ",
        -8.522060281414813
      ],
      [
        "ခွင့်",
        -8.5230554700717
      ],
      [
        "၁",
        -8.523734251253533
      ],
      [
        "လူ",
        -8.525866754719509
      ],
      [
        "နိုင်ပါသည်။",
        -8.527486133425619
      ],
      [
        "တ်",
        -8.5328057047645
      ],
      [
        "၅",
        -8.533170635306542
      ],
      [
        "▁5",
        -8.534338245140264
      ],
      [
        "▁ယင်း",
        -8.535270524924893
      ],
      [
        "ချင်",
        -8.535303231527916
      ],
      [
        "▁E",
        -8.536403261756446
      ],
      [
        "ကြား",
        -8.538164279964466
      ],
      [
        "▁လက်ရှိ",
        -8.539592929370997
      ],
      [
        "g",
        -8.53994947817927
      ],
      [
        "’",
        -8.54609254898286
      ],
      [
        "▁ဥပဒေ",
        -8.5495096011417
      ],
      [
        "9",
        -8.550212942693571
      ],
      [
        "▁4",
        -8.55793569510704
      ],
      [
        "▁တို့",
        -8.558772638970352
      ],
      [
        "▁လတ်တလော",
        -8.559891118935965
      ],
      [
        "▁►",
        -8.560064542326575
      ],
      [
        "▁၁၅",
        -8.560480796802974
      ],
      [
        "▁''",
        -8.560908386348174
      ],
      [
        "တွေဟာ",
        -8.561659579267252
      ],
      [
        "သလို",
        -8.563687712570042
      ],
      [
        "▁ဒါဟာ",
        -8.563973424988166
      ],
      [
        "▁ဘယ်",
        -8.565124327986073
      ],
      [
        "▁အချက်အလက်များ",
        -8.565176383821612
      ],
      [
        "▁မြန်မာဘာသာ",
        -8.565735539216686
      ],
      [
        "▁The",
        -8.567378310122418
      ],
      [
        "▁၁၃",
        -8.568226542463066
      ],
      [
        "ပြီ",
        -8.570191591383125
      ],
      [
        "p",
        -8.571158323359636
      ],
      [
        "စဉ်",
        -8.573506005966763
      ],
      [
        "▁ဆို",
        -8.573893838870644
      ],
      [
        "▁အသုံးပြု",
        -8.575783575677516
      ],
      [
        "▁ဘုရားသခင်",
        -8.576667916403654
      ],
      [
        "စက်",
        -8.578854997744234
      ],
      [
        "ကြပါတယ်။",
        -8.581808722246654
      ],
      [
        "ရှင်",
        -8.585325937441542
      ],
      [
        "နေရာ",
        -8.588033904823373
      ],
      [
        "၈",
        -8.592767274210894
      ],
      [
        "▁2017",
        -8.594010834975608
      ],
      [
        "C",
        -8.597297268505947
      ],
      [
        "2",
        -8.601618279013916
      ],
      [
        "▁ဒေါ်လာ",
        -8.605235952922843
      ],
      [
        "ထားပြီး",
        -8.608809782015385
      ],
      [
        "▁မွန်ပြည်နယ်",
        -8.611916893587505
      ],
      [
        "▁အမျိုးသမီး",
        -8.613965111332586
      ],
      [
        "▁ဘာ",
        -8.615855879130924
      ],
      [
        "▁၃၀",
        -8.616050573004586
      ],
      [
        "တွေ့",
        -8.617042713740396
      ],
      [
        "▁ပါတီ",
        -8.617816434806473
      ],
      [
        "▁၄။",
        -8.619480525009681
      ],
      [
        "အချိန်",
        -8.61948200567756
      ],
      [
        "ိ",
        -8.620243838054613
      ],
      [
        "ပေ",
        -8.621946441703267
      ],
      [
        "အတိုင်း",
        -8.622561481672777
      ],
      [
        "မေတ္တာ",
        -8.622880286452958
      ],
      [
        "မယ်လို့",
        -8.626924345036585
      ],
      [
        "▁စုစုပေါင်း",
        -8.627119228267889
      ],
      [
        "ပါတယ်",
        -8.630281118089687
      ],
      [
        "h",
        -8.634798482536421
      ],
      [
        "▁In",
        -8.635498652939104
      ],
      [
        "▁ကနေ",
        -8.63627832507596
      ],
      [
        "ပါဘူး။",
        -8.636522647468126
      ],
      [
        "ည",
        -8.637432746602883
      ],
      [
        "▁သွား",
        -8.638331483783507
      ],
      [
        "လှ",
        -8.638384412397802
      ],
      [
        "မည့်",
        -8.63881968325098
      ],
      [
        "'",
        -8.640245067889841
      ],
      [
        "ဖ",
        -8.640475068621774
      ],
      [
        "ommons",
        -8.64064104216961
      ],
      [
        "အားလုံး",
        -8.641051949866213
      ],
      [
        "wiktionary.org/w",
        -8.645951648351858
      ],
      [
        "နီ",
        -8.649412987212152
      ],
      [
        "ခြင်း။",
        -8.650012158995263
      ],
      [
        "ပြီးနောက်",
        -8.65191466249723
      ],
      [
        "▁ပြည်နယ်",
        -8.652940524708743
      ],
      [
        "▁မရှိ",
        -8.655372570228316
      ],
      [
        "▁[",
        -8.656384997836348
      ],
      [
        "▁+",
        -8.656675939048952
      ],
      [
        "R",
        -8.657797952590052
      ],
      [
        "▁10",
        -8.660880804456873
      ],
      [
        "မှာပါ။",
        -8.660944733383246
      ],
      [
        "▁(၁",
        -8.663342808871786
      ],
      [
        "▁နေ",
        -8.666168597422576
      ],
      [
        "▁ဆွေးနွေးချက်",
        -8.666332337031616
      ],
      [
        "▁၁၄",
        -8.66859030921132
      ],
      [
        "▁ကျွန်တော်",
        -8.669308459067462
      ],
      [
        "▁နေရာ",
        -8.669869978400026
      ],
      [
        "လား",
        -8.670569444847512
      ],
      [
        "ူ",
        -8.671244949450696
      ],
      [
        "▁အကောင်းဆုံး",
        -8.671449403892591
      ],
      [
        "မီ",
        -8.671975552072595
      ],
      [
        "▁လုပ်ငန်း",
        -8.673341171222393
      ],
      [
        "ဘာ",
        -8.674264150933823
      ],
      [
        "စီး",
        -8.675601205453315
      ],
      [
        "အလုပ်",
        -8.67668840624075
      ],
      [
        "x",
        -8.677049097480502
      ],
      [
        "▁အမှတ်",
        -8.67712545592427
      ],
      [
        "ရာတွင်",
        -8.678585436811503
      ],
      [
        "l",
        -8.679345026545702
      ],
      [
        "သတ်မှတ်ချက်များ",
        -8.680780729125658
      ],
      [
        "ဒါ",
        -8.681344688323058
      ],
      [
        "▁ပထမဆုံး",
        -8.681432210913714
      ],
      [
        "ဝန်ကြီး",
        -8.681775773791568
      ],
      [
        "င",
        -8.683376461314095
      ],
      [
        "ဆီ",
        -8.68364670567464
      ],
      [
        "ပါပဲ။",
        -8.68380996042345
      ],
      [
        "▁စစ်",
        -8.68412033195368
      ],
      [
        "▁သင့်ရဲ့",
        -8.684955099198628
      ],
      [
        "ငွေ",
        -8.68557333973041
      ],
      [
        "▁F",
        -8.689976831148478
      ],
      [
        "▁အား",
        -8.690092831355544
      ],
      [
        "မို့",
        -8.691616970620505
      ],
      [
        "▁ဆက်လက်",
        -8.691636905001374
      ],
      [
        "Share",
        -8.69506011148368
      ],
      [
        "▁ငြိမ်းချမ်းရေး",
        -8.696073572788912
      ],
      [
        "f",
        -8.696574690031657
      ],
      [
        "▁ကိုယ့်",
        -8.69817015023073
      ],
      [
        "▁iPhone",
        -8.698769159445208
      ],
      [
        "in",
        -8.704557153596866
      ],
      [
        "▁ဖြစ်ပြီး",
        -8.70570820778192
      ],
      [
        "▁အသုံးပြုခြင်း",
        -8.705787258903108
      ],
      [
        "▁အနေဖြင့်",
        -8.706416173039822
      ],
      [
        "နေသော",
        -8.707422669903078
      ],
      [
        "▁(၅)",
        -8.709313249049256
      ],
      [
        "▁ဒါကြောင့်",
        -8.710789564146634
      ],
      [
        "▁တက်ရောက်",
        -8.711121357360089
      ],
      [
        "▁လုံခြုံရေး",
        -8.712106321957267
      ],
      [
        "▁၂၁",
        -8.713098627781577
      ],
      [
        "▁ရှမ်းပြည်နယ်",
        -8.713337036541573
      ],
      [
        "▁၁၆",
        -8.713443073359388
      ],
      [
        "▁2016",
        -8.714461595712386
      ],
      [
        "ပေမယ့်",
        -8.716794404934692
      ],
      [
        "▁on",
        -8.717295750006315
      ],
      [
        "▁ယနေ့",
        -8.718205487703113
      ],
      [
        "▁မေး",
        -8.718395618763346
      ],
      [
        "ရွာ",
        -8.71855756451395
      ],
      [
        "ပြု",
        -8.720823008571898
      ],
      [
        "▁မင်း",
        -8.722156624161446
      ],
      [
        "▁ပို",
        -8.7233733442304
      ],
      [
        "ပုံစံ",
        -8.725226474386325
      ],
      [
        "▁နည်းပညာ",
        -8.725556450585579
      ],
      [
        "တွင်း",
        -8.725701229640647
      ],
      [
        "▁မွန်",
        -8.726684527063068
      ],
      [
        "လွှတ်တော်",
        -8.729073141673403
      ],
      [
        "T",
        -8.730881203924646
      ],
      [
        "▁အချိန်",
        -8.733548402264741
      ],
      [
        "ကြသည်။",
        -8.737229319191504
      ],
      [
        "သည်ဟု",
        -8.73738576574074
      ],
      [
        "တန်း",
        -8.738218084797442
      ],
      [
        "ရယ်",
        -8.738622563501387
      ],
      [
        "▁၁၇",
        -8.741015351109393
      ],
      [
        "နေတာ",
        -8.742563530946963
      ],
      [
        "ပါက",
        -8.74277657969823
      ],
      [
        "ထားသော",
        -8.742942132129443
      ],
      [
        "ဖြစ်တဲ့",
        -8.743256931697811
      ],
      [
        "ခြင်းနှင့်",
        -8.743737206749586
      ],
      [
        "တိုက်",
        -8.744320463015033
      ],
      [
        "ဌာန",
        -8.74503988960503
      ],
      [
        "မှုများ",
        -8.74514235905389
      ],
      [
        "▁အဖြစ်",
        -8.745588916838921
      ],
      [
        "8",
        -8.745595192234756
      ],
      [
        "▁လက်",
        -8.745822873434602
      ],
      [
        "▁သန်း",
        -8.746151043937552
      ],
      [
        "ရှာ",
        -8.747884489441272
      ],
      [
        "like",
        -8.748496256431608
      ],
      [
        "ခန့်",
        -8.749451756525424
      ],
      [
        "မြေ",
        -8.751709797488502
      ],
      [
        "▁6",
        -8.753371975405106
      ],
      [
        "မဲ့",
        -8.75341528939986
      ],
      [
        "ဝါ",
        -8.753793704316518
      ],
      [
        "▁တပ်မတော်",
        -8.756379694579644
      ],
      [
        "▁I",
        -8.762673867734144
      ],
      [
        "▁‘",
        -8.768768055572803
      ],
      [
        "မင်း",
        -8.768980823739252
      ],
      [
        "ဖြစ်ကြောင်း",
        -8.77141171587262
      ],
      [
        "ပေါက်",
        -8.771609568121752
      ],
      [
        "▁ကိုယ်စားလှယ်",
        -8.771670471759027
      ],
      [
        "PDF",
        -8.77452713991013
      ],
      [
        "▁တခြား",
        -8.775883665744018
      ],
      [
        "အနေဖြင့်",
        -8.77614024628765
      ],
      [
        "▁#",
        -8.776289641359558
      ],
      [
        "▁ကား",
        -8.77638232434228
      ],
      [
        "အပြင်",
        -8.776482364368725
      ],
      [
        "5",
        -8.777507321958172
      ],
      [
        "▁နာရီ",
        -8.779315886099656
      ],
      [
        "္",
        -8.77939855012876
      ],
      [
        "ဆောင်",
        -8.779810588373708
      ],
      [
        "ခွဲ",
        -8.782198602966279
      ],
      [
        "ခင်",
        -8.782206136716985
      ],
      [
        "▁အတွင်း",
        -8.783657629091064
      ],
      [
        "▁ကျင်းပ",
        -8.783861123084456
      ],
      [
        "ပိုင်း",
        -8.78446141200796
      ],
      [
        "▁Download",
        -8.784554522290385
      ],
      [
        "သတင်း",
        -8.787063619635894
      ],
      [
        "ဆိုရင်",
        -8.787578532092638
      ],
      [
        "စကား",
        -8.788585343758262
      ],
      [
        "လိုက်ပါတယ်။",
        -8.789010863675758
      ],
      [
        "▁မြို့နယ်",
        -8.789376465715552
      ],
      [
        "▁ဓာတ်ပုံ",
        -8.789599919147182
      ],
      [
        "▁မြန်မာ့ရေးရာ",
        -8.790548765486704
      ],
      [
        "▁Windows",
        -8.79185275134084
      ],
      [
        "▁ထိုင်း",
        -8.795476837299582
      ],
      [
        "▁(Burmese)",
        -8.796144485958665
      ],
      [
        "▁0",
        -8.796440013011317
      ],
      [
        "▁နိုင်ငံတော်",
        -8.798192676150471
      ],
      [
        "▁Creative",
        -8.801264219330795
      ],
      [
        "ျ",
        -8.804987134880054
      ],
      [
        "▁ရရှိနိုင်",
        -8.80564183202157
      ],
      [
        "▁၂၀၁၆",
        -8.806805303020962
      ],
      [
        "မြင့်",
        -8.807533812906485
      ],
      [
        "▁သူ့ရဲ့",
        -8.808444339286364
      ],
      [
        "▁စစ်ဆေး",
        -8.814128447683192
      ],
      [
        "ရိုက်",
        -8.815028192424709
      ],
      [
        "ar",
        -8.815117495045445
      ],
      [
        "▁အခုလို",
        -8.816891661569084
      ],
      [
        "▁ရရှိ",
        -8.817957806265682
      ],
      [
        "စနစ်",
        -8.820508256687074
      ],
      [
        "▁ပြောကြား",
        -8.821340731538964
      ],
      [
        "▁ကိရိယာများ",
        -8.822669450098168
      ],
      [
        "ချစ်သူ",
        -8.82336423028272
      ],
      [
        "▁ချက်",
        -8.824487359290346
      ],
      [
        "ဆောင်ရွက်",
        -8.826896251999392
      ],
      [
        "▁ကျပ်",
        -8.82862308609005
      ],
      [
        "....",
        -8.828671902677055
      ],
      [
        "▁အစီအစဉ်",
        -8.828818808079891
      ],
      [
        "▁NLD",
        -8.831272205172208
      ],
      [
        "ဘူး",
        -8.83319197218649
      ],
      [
        "▁မျိုး",
        -8.835168111689722
      ],
      [
        "▁ဘုရားသခင်ကို",
        -8.836906961272485
      ],
      [
        "▁Google",
        -8.837871768621573
      ],
      [
        "များက",
        -8.838953830944693
      ],
      [
        "▁တိုင်းရင်းသား",
        -8.83985756316428
      ],
      [
        "th",
        -8.840320173550623
      ],
      [
        "▁လိပ်",
        -8.841404446611767
      ],
      [
        "▁ဗိုလ်ချုပ်",
        -8.842383117529849
      ],
      [
        "မူ",
        -8.843442383830705
      ],
      [
        "▁ဆိုပြီး",
        -8.844795871824243
      ],
      [
        "အဆင့်",
        -8.846630205041226
      ],
      [
        "နေပါတယ်။",
        -8.848659686048974
      ],
      [
        "သံ",
        -8.850052544830532
      ],
      [
        "ဟောင်း",
        -8.851904004718566
      ],
      [
        "ဖြစ်စေ",
        -8.854810150601661
      ],
      [
        "မှုကို",
        -8.85613265287298
      ],
      [
        "▁ဒေါ",
        -8.85620514456961
      ],
      [
        "▁H",
        -8.857695188910332
      ],
      [
        "ပေးပါတယ်။",
        -8.85915493595013
      ],
      [
        "အားဖြင့်",
        -8.859784561990026
      ],
      [
        "ကုန်",
        -8.860187409347903
      ],
      [
        "ှ",
        -8.860764983754489
      ],
      [
        "သော်လည်း",
        -8.860909417554142
      ],
      [
        "▁ကလေး",
        -8.861975527386303
      ],
      [
        "K",
        -8.86234062533276
      ],
      [
        "▁အချိန်တွင်",
        -8.86271492808542
      ],
      [
        "▁လုပ်ဆောင်",
        -8.862919567790797
      ],
      [
        "▁ထိုင်းနိုင်ငံ",
        -8.863472736913184
      ],
      [
        "▁ဆေး",
        -8.863727893669086
      ],
      [
        "ရဲ",
        -8.863880181670734
      ],
      [
        "တိုး",
        -8.864491734541652
      ],
      [
        "▁ကမ္ဘာ့",
        -8.864539897372318
      ],
      [
        "▁ဆရာ",
        -8.865480506019193
      ],
      [
        "▁၅။",
        -8.865489867134118
      ],
      [
        "ချင်း",
        -8.865936851668582
      ],
      [
        "ကုမ္ပဏီ",
        -8.866551446014128
      ],
      [
        "▁အာ",
        -8.866571569923373
      ],
      [
        "ပြင်",
        -8.866582435460138
      ],
      [
        "▁ဤစာမျက်နှာ",
        -8.866764337464382
      ],
      [
        "ြ",
        -8.867110321547315
      ],
      [
        "တာတွေ",
        -8.86777239752613
      ],
      [
        "အကောင့်ဝင်ရန်",
        -8.868519701850737
      ],
      [
        "▁ခုနှစ်၊",
        -8.869717512573182
      ],
      [
        "ဆက်စပ်သော",
        -8.871534151772494
      ],
      [
        "▁မတ်လ",
        -8.87366202651138
      ],
      [
        "ရှိပါတယ်။",
        -8.874935412887986
      ],
      [
        "▁လာ",
        -8.875993354801444
      ],
      [
        "▁ပိုမို",
        -8.877949695094388
      ],
      [
        "▁အထိ",
        -8.878172479718447
      ],
      [
        "စစ်",
        -8.879106419802426
      ],
      [
        "▁ကုလသမဂ္ဂ",
        -8.88046903849565
      ],
      [
        "▁လေ့လာ",
        -8.882702167579644
      ],
      [
        "▁ငွေ",
        -8.883326988273067
      ],
      [
        "ကျွန်တော်တို့ရဲ့",
        -8.88451247671071
      ],
      [
        "▁Burmese",
        -8.885549045522868
      ],
      [
        "▁စာသားများကို",
        -8.886236612660014
      ],
      [
        "သူများ",
        -8.886538101787238
      ],
      [
        "▁အခြေခံ",
        -8.887595328259764
      ],
      [
        "ဝင်း",
        -8.888937615014985
      ],
      [
        "▁ပူးပေါင်း",
        -8.88911606446466
      ],
      [
        "အိမ်",
        -8.890791344844933
      ],
      [
        "▁ဇွန်လ",
        -8.891516104573718
      ],
      [
        "▁Attribution",
        -8.891976237782035
      ],
      [
        "အသစ်",
        -8.892228383637125
      ],
      [
        "ပိုင်",
        -8.895651799452091
      ],
      [
        "ပြုလုပ်",
        -8.896170835321705
      ],
      [
        "သေး",
        -8.89622813260219
      ],
      [
        "▁တစ်ခု",
        -8.896499495869978
      ],
      [
        "▁သတ်မှတ်ချက်များ",
        -8.89764532518807
      ],
      [
        "▁ပတ်သက်ပြီး",
        -8.898335119934139
      ],
      [
        "▁တက္ကသိုလ်",
        -8.898838945183051
      ],
      [
        "▁7",
        -8.899662934475037
      ],
      [
        "▁W",
        -8.901463549560214
      ],
      [
        "ရတဲ့",
        -8.902110195174451
      ],
      [
        "ဝန်ကြီးဌာန",
        -8.902341926482002
      ],
      [
        "တန်",
        -8.902395033412422
      ],
      [
        "▁ဆီးရီးယား",
        -8.90320883984954
      ],
      [
        "▁ထပ်ဆောင်း",
        -8.90392271108386
      ],
      [
        "ခဲ့သည့်",
        -8.904232163694509
      ],
      [
        "w",
        -8.905182198514096
      ],
      [
        "▁for",
        -8.90598116321215
      ],
      [
        "နာရီ",
        -8.908049161543275
      ],
      [
        "▁တိုက်ခိုက်",
        -8.90814579711794
      ],
      [
        "▁သို့",
        -8.909207733804443
      ],
      [
        "▁ကြည့်ပါ။",
        -8.909257943426569
      ],
      [
        "▁လိုင်စင်ဖြင့်",
        -8.91037950626676
      ],
      [
        "▁ပေး",
        -8.910948748351744
      ],
      [
        "အသေးစိတ်အတွက်",
        -8.911202446505403
      ],
      [
        "လီ",
        -8.911728149247164
      ],
      [
        "ပ်",
        -8.912306179995912
      ],
      [
        "ပေါ့။",
        -8.913543726294677
      ],
      [
        "▁မြန်မာ့",
        -8.915552717122715
      ],
      [
        "ဆ",
        -8.915922049540457
      ],
      [
        "▁ဝန်ကြီး",
        -8.920538396039838
      ],
      [
        "▁ညနေ",
        -8.922436095441366
      ],
      [
        "ပစ်",
        -8.92301127192211
      ],
      [
        "အသင်း",
        -8.92584142987338
      ],
      [
        "ပါလိမ့်မယ်။",
        -8.926283333698443
      ],
      [
        "ဘဝ",
        -8.927765317658643
      ],
      [
        "▁နံနက်",
        -8.929393859609966
      ],
      [
        "▁ဆက်",
        -8.931570514043358
      ],
      [
        "င်း",
        -8.931738816514962
      ],
      [
        "%",
        -8.932224931444871
      ],
      [
        "လေးတွေ",
        -8.933354534810045
      ],
      [
        "▁[edit",
        -8.934416654719133
      ],
      [
        "▁စက်တင်ဘာ",
        -8.936154902551126
      ],
      [
        "▁အခမဲ့",
        -8.936804266407231
      ],
      [
        "▁အိန္ဒိယ",
        -8.938054090714083
      ],
      [
        "တွေရဲ့",
        -8.939808301237605
      ],
      [
        "▁သငျသညျ",
        -8.940766174718686
      ],
      [
        "▁လေး",
        -8.9412336635049
      ],
      [
        ";",
        -8.941947633065837
      ],
      [
        "▁ရှိနိုင်သည်",
        -8.942028284360715
      ],
      [
        "အသုံးပြု",
        -8.945125682502095
      ],
      [
        "▁သေဆုံး",
        -8.945213525213237
      ],
      [
        "ဘက်",
        -8.9457392082332
      ],
      [
        "P",
        -8.945845154191307
      ],
      [
        "နောက်",
        -8.948737122125896
      ],
      [
        "မှုတွေ",
        -8.950845663898583
      ],
      [
        "သူတွေ",
        -8.951302058315864
      ],
      [
        "ြခင်း",
        -8.952476574407179
      ],
      [
        ".com",
        -8.954259089060912
      ],
      [
        "▁ကုမ္ပဏီ",
        -8.954452495831525
      ],
      [
        "6",
        -8.954853641015125
      ],
      [
        "ဒေသ",
        -8.955837290928088
      ],
      [
        "▁NAB",
        -8.955933126750443
      ],
      [
        "ရီ",
        -8.958027521671475
      ],
      [
        "▁မစ္စတာ",
        -8.959649646758459
      ],
      [
        "▁ဒါပေမဲ့",
        -8.960417669099456
      ],
      [
        "စု",
        -8.961198023650326
      ],
      [
        "ယာ",
        -8.962173939755028
      ],
      [
        "မှာလည်း",
        -8.962287851622836
      ],
      [
        "နော်...",
        -8.962437336867147
      ],
      [
        "▁ဆိုသည်။",
        -8.962741108889468
      ],
      [
        "▁ရုရှား",
        -8.962910244727166
      ],
      [
        "ယ်",
        -8.964241824664676
      ],
      [
        "ဟ",
        -8.965047169751319
      ],
      [
        "ဖူး",
        -8.965843749419202
      ],
      [
        "၃",
        -8.965880931853238
      ],
      [
        "ထားသည့်",
        -8.967133130090849
      ],
      [
        "▁12",
        -8.967284952170345
      ],
      [
        "ဇာ",
        -8.967687218212713
      ],
      [
        "အခမဲ့",
        -8.96848356782801
      ],
      [
        "လိုက်ပါ။",
        -8.968971686027585
      ],
      [
        "ရတာ",
        -8.96915517118097
      ],
      [
        "us",
        -8.96949389783624
      ],
      [
        "an",
        -8.971014321917293
      ],
      [
        "▁Image",
        -8.973372812038454
      ],
      [
        "ion",
        -8.974025563796584
      ],
      [
        "▁ဒါ",
        -8.974164115501758
      ],
      [
        "▁ခုနှစ်တွင်",
        -8.974651590042079
      ],
      [
        "▁ကတော့",
        -8.975042934160115
      ],
      [
        "▁Re",
        -8.976702820083862
      ],
      [
        "အစိုးရ",
        -8.976760532003894
      ],
      [
        "နယ်",
        -8.977890534792223
      ],
      [
        "▁အပေါ်",
        -8.978096048596028
      ],
      [
        "▁Apple",
        -8.97820587091404
      ],
      [
        "ရပ်",
        -8.980982948372187
      ],
      [
        "▁၂၅",
        -8.981662049132742
      ],
      [
        "နိုင်တဲ့",
        -8.982330019143316
      ],
      [
        "ပုဂ္ဂိုလ်",
        -8.983010738754269
      ],
      [
        "▁ပြီးခဲ့တဲ့",
        -8.98352930053391
      ],
      [
        "▁စက်တင်ဘာလ",
        -8.984292310254158
      ],
      [
        "▁သူ့ကို",
        -8.985645083655008
      ],
      [
        "ထားပါ",
        -8.98810384522552
      ],
      [
        "▁ရက်နေ့တွင်",
        -8.988467169632678
      ],
      [
        "▁ကျနော်တို့",
        -8.989008234682743
      ],
      [
        "ဘူး။",
        -8.990105372722509
      ],
      [
        "▁O",
        -8.990901627245405
      ],
      [
        "▁အဖွဲ့ဝင်",
        -8.991338608666418
      ],
      [
        "▁m",
        -8.991538472981995
      ],
      [
        "▁ရခိုင်ပြည်နယ်",
        -8.99154326646783
      ],
      [
        "ကျမ်း",
        -8.99217856180566
      ],
      [
        "▁လင့်ခ်များ",
        -8.994373594782994
      ],
      [
        "▁အပိုင်း",
        -8.996118657269538
      ],
      [
        "ငယ်",
        -8.996220196664298
      ],
      [
        "▁အသစ်",
        -8.997169155331529
      ],
      [
        "ကတည်းက",
        -8.998740097105799
      ],
      [
        "တည်းဖြတ်ရန်",
        -8.99935169560067
      ],
      [
        "မ်",
        -8.999986625702011
      ],
      [
        "▁မျှဝေပေး",
        -9.000673844723444
      ],
      [
        "ဆိုင်",
        -9.001734374357284
      ],
      [
        "en",
        -9.002582548012528
      ],
      [
        "B",
        -9.00301284526034
      ],
      [
        "▁Galaxy",
        -9.004952794313855
      ],
      [
        "တို",
        -9.005690394758021
      ],
      [
        "ရုံး",
        -9.01133455019918
      ],
      [
        "လေ၏။",
        -9.011437546775623
      ],
      [
        "ဖတ်",
        -9.011464572364892
      ],
      [
        "▁ရောဂါ",
        -9.011687440016917
      ],
      [
        "ဆက်",
        -9.011897991570226
      ],
      [
        "▁သွားရောက်",
        -9.014646014435602
      ],
      [
        "မိုး",
        -9.014799776196899
      ],
      [
        "▁ရန်ကုန်မြို့",
        -9.016499072890635
      ],
      [
        "ီ",
        -9.01734767411432
      ],
      [
        "▁အပါအဝင်",
        -9.017883385648247
      ],
      [
        "▁ယောက်",
        -9.017962679896344
      ],
      [
        "▁၂၄",
        -9.018310921196539
      ],
      [
        "ခဲ့ကြောင်း",
        -9.018422689244414
      ],
      [
        "re",
        -9.019116870599609
      ],
      [
        "တဲ့အခါ",
        -9.019941994699986
      ],
      [
        "တရား",
        -9.02053508070568
      ],
      [
        "ို",
        -9.022282843356882
      ],
      [
        "▁သိန်း",
        -9.022460121602933
      ],
      [
        "တို့သည်",
        -9.022515452579064
      ],
      [
        "▁တရားဝင်",
        -9.023124223406313
      ],
      [
        "▁တွေ့ဆုံ",
        -9.023570706392512
      ],
      [
        "▁သင်သည်",
        -9.023820447658437
      ],
      [
        "ကြာ",
        -9.02470075916192
      ],
      [
        "▁ရွေးချယ်",
        -9.026909194406379
      ],
      [
        "▁ခေါ်",
        -9.027920590552416
      ],
      [
        "ပေါ်မှာ",
        -9.028146468738399
      ],
      [
        "▁ပြု",
        -9.029188937930206
      ],
      [
        "လင်း",
        -9.030177270268656
      ],
      [
        "ကာလ",
        -9.03106114638398
      ],
      [
        "▁ဂျပန်",
        -9.032845519962677
      ],
      [
        "ပါတီ",
        -9.033026079429197
      ],
      [
        "တည်း",
        -9.035700977197589
      ],
      [
        "▁K",
        -9.036951767867464
      ],
      [
        "▁ဖမ်းဆီး",
        -9.037142748608366
      ],
      [
        "သတင်းများ",
        -9.038100328271748
      ],
      [
        "ရည်",
        -9.039288886361975
      ],
      [
        "ဂိမ်း",
        -9.04059389427547
      ],
      [
        "်အောင်ဆန်းစုကြည်",
        -9.04154242345118
      ],
      [
        "ခဲ့ကြ",
        -9.042997284697904
      ],
      [
        "▁စက်မှု",
        -9.043256754481595
      ],
      [
        "တခု",
        -9.044352403021046
      ],
      [
        "M",
        -9.044995445436648
      ],
      [
        "▁သွေး",
        -9.045486526959127
      ],
      [
        "တီ",
        -9.046047179384129
      ],
      [
        "ဆရာ",
        -9.046836953581955
      ],
      [
        "▁ထုတ်ပြန်",
        -9.0474438053109
      ],
      [
        "ဇ",
        -9.048283645883046
      ],
      [
        "ဖြစ်သော",
        -9.049136260684497
      ],
      [
        "es",
        -9.049699818986547
      ],
      [
        "▁အချက်",
        -9.049861255292456
      ],
      [
        "တို့၏",
        -9.050499533792031
      ],
      [
        "ရှိတဲ့",
        -9.05071591328285
      ],
      [
        "ချောင်း",
        -9.052569813982007
      ],
      [
        "▁ပြင်သစ်",
        -9.05345607946964
      ],
      [
        "တာကို",
        -9.054396095025904
      ],
      [
        "▁ကျွန်တော်တို့",
        -9.056116787979127
      ],
      [
        "ပြည်",
        -9.057161522813956
      ],
      [
        "ခေါ်",
        -9.059707906965116
      ],
      [
        "▁ပထမ",
        -9.063458500750496
      ],
      [
        "ေန",
        -9.064007648706408
      ],
      [
        "ma",
        -9.065728185451745
      ],
      [
        "ႆ",
        -9.065814859632017
      ],
      [
        "ic",
        -9.066431301269663
      ],
      [
        "▁ဘုရား",
        -9.066867672913482
      ],
      [
        "တစ်မျိုးပဲ",
        -9.066932817597488
      ],
      [
        "▁ကိုးကား",
        -9.068329728216392
      ],
      [
        "▁ရခိုင်",
        -9.06834176841976
      ],
      [
        "ဆိုတော့",
        -9.068684449643872
      ],
      [
        "▁ကျွန်",
        -9.068815927770453
      ],
      [
        "နေသည့်",
        -9.0688890270042
      ],
      [
        "ထံမှ",
        -9.070335392100924
      ],
      [
        "▁သို့သော်",
        -9.070893755757801
      ],
      [
        "ရှိသည်။",
        -9.071346292165678
      ],
      [
        "▁သြဂုတ်လ",
        -9.071888513957608
      ],
      [
        "ကိစ္စ",
        -9.072590850476278
      ],
      [
        "ထားသည်။",
        -9.07454732007946
      ],
      [
        "▁ဧပြီလ",
        -9.076416542990113
      ],
      [
        "တုန်းက",
        -9.077115527041816
      ],
      [
        "ပစ္စည်း",
        -9.077336940026434
      ],
      [
        "မြောက်",
        -9.07757999108459
      ],
      [
        "▁ည",
        -9.079428518041533
      ],
      [
        "▁တစ်ဦး",
        -9.080266706969251
      ],
      [
        "ကလေး",
        -9.080400771791949
      ],
      [
        "ထိုး",
        -9.080966231664743
      ],
      [
        "▁မေးခွန်း",
        -9.081232575881018
      ],
      [
        "▁သတ်မှတ်",
        -9.081364771381182
      ],
      [
        "▁၂၂",
        -9.081471663240421
      ],
      [
        "ဖြစ်လာ",
        -9.081559591479499
      ],
      [
        "▁ဒေါ်",
        -9.08283539557318
      ],
      [
        "▁N",
        -9.083117452738803
      ],
      [
        "▁နိုဝင်ဘာလ",
        -9.08380701634077
      ],
      [
        "▁Mi",
        -9.083985406690244
      ],
      [
        "▁မီး",
        -9.085268355745537
      ],
      [
        "▁အောက်တိုဘာ",
        -9.08715572721237
      ],
      [
        "တစ်ယောက်",
        -9.088709878994699
      ],
      [
        "▁ကျွန်ုပ်တို့၏",
        -9.089020326492435
      ],
      [
        "မရ",
        -9.089655413147486
      ],
      [
        "ကိုယ်",
        -9.091747409487322
      ],
      [
        "▁ရက်နေ့က",
        -9.091852848583649
      ],
      [
        "▁မျှဝေပေးပါ",
        -9.092068394341801
      ],
      [
        "▁*",
        -9.093194171066305
      ],
      [
        "တာပါ။",
        -9.093703437905523
      ],
      [
        "ဝယ်",
        -9.094585194875759
      ],
      [
        "▁ဖြစ်ကြောင်း",
        -9.094733408664437
      ],
      [
        "▁(၆)",
        -9.096029407068297
      ],
      [
        "အပါအဝင်",
        -9.09686639637447
      ],
      [
        "ပေးပါ။",
        -9.098894053808205
      ],
      [
        "များသည်",
        -9.099955036763667
      ],
      [
        "မလဲ",
        -9.100238518795642
      ],
      [
        "▁နေပြည်တော်",
        -9.10357150323965
      ],
      [
        "▁ပုဒ်မ",
        -9.103727925107776
      ],
      [
        "▁ဇူလိုင်လ",
        -9.10442248069825
      ],
      [
        "▁သင်၏",
        -9.104905785668043
      ],
      [
        "▁ဒီမိုကရေစီ",
        -9.106967294386322
      ],
      [
        "▁အလုပ်သမား",
        -9.10788656136221
      ],
      [
        "▁>",
        -9.108148746285261
      ],
      [
        "▁Mobile",
        -9.109894018338208
      ],
      [
        "▁ပတ်သက်၍",
        -9.110273805731566
      ],
      [
        "ခြင်းဟာလည်း",
        -9.110645188396628
      ],
      [
        "▁ရာခိုင်နှုန်း",
        -9.11131156993412
      ],
      [
        "မရှိ",
        -9.111421485004893
      ],
      [
        "▁£",
        -9.111864241694807
      ],
      [
        "ဆွဲ",
        -9.114345130145656
      ],
      [
        "▁သက်ဆိုင်ရာ",
        -9.114431172106471
      ],
      [
        "▁အကြောင်းအရာ",
        -9.114923048234463
      ],
      [
        "ခေတ်",
        -9.11566617856161
      ],
      [
        "ကျောင်း",
        -9.116097783118416
      ],
      [
        "ဖွင့်",
        -9.116568477834042
      ],
      [
        "▁မီဒီယာ",
        -9.1166635605944
      ],
      [
        "▁အစည်းအဝေး",
        -9.116715266832621
      ],
      [
        "အုပ်ချုပ်ရေးမှူး",
        -9.117095503744935
      ],
      [
        "နိုင်ဖို့",
        -9.11723469586008
      ],
      [
        "သီး",
        -9.118667574266752
      ],
      [
        "▁9",
        -9.121033479161703
      ],
      [
        "ဖြစ်သည့်",
        -9.121467042258745
      ],
      [
        "ထပ်",
        -9.121675704423488
      ],
      [
        "▁ထည့်သွင်း",
        -9.124649209717944
      ],
      [
        "▁ရောက်",
        -9.124887722832067
      ],
      [
        "▁ဒီနေ့",
        -9.124952642648946
      ],
      [
        "▁လမ်း",
        -9.125387161803472
      ],
      [
        "▁အမျိုးအစား",
        -9.127109860215867
      ],
      [
        "လျက်",
        -9.127733277716928
      ],
      [
        "▁(၇)",
        -9.131158579101307
      ],
      [
        "ရမည်။",
        -9.131738543901552
      ],
      [
        "▁caption",
        -9.132329713303186
      ],
      [
        "▁cache",
        -9.13233479936212
      ],
      [
        "ခဲ့သူ",
        -9.133213644825108
      ],
      [
        "သင်တန်း",
        -9.133338569398768
      ],
      [
        "သု",
        -9.134362993870422
      ],
      [
        "▁Samsung",
        -9.134402732958577
      ],
      [
        "▁ကျောင်း",
        -9.13449742467865
      ],
      [
        "ပန်း",
        -9.134876421968675
      ],
      [
        "လွန်",
        -9.135496107075085
      ],
      [
        "မျှ",
        -9.137861251017831
      ],
      [
        "▁၂၇",
        -9.138035552899135
      ],
      [
        "▁ဖော်ပြ",
        -9.139683997617976
      ],
      [
        "လုပ်ငန်းများ",
        -9.140202745762952
      ],
      [
        "ဗ",
        -9.141016270068658
      ],
      [
        "▁မေလ",
        -9.141265512024397
      ],
      [
        "သေ",
        -9.141278790598836
      ],
      [
        "ပါပြီ။",
        -9.141823474594883
      ],
      [
        "▁ဒီဇင်ဘာလ",
        -9.142367843923129
      ],
      [
        "ကထာ",
        -9.142512441640744
      ],
      [
        "▁အိမ်",
        -9.142690922383084
      ],
      [
        "▁Hack",
        -9.144211345635945
      ],
      [
        "ပတ်",
        -9.145020839774904
      ],
      [
        "▁ပြောဆို",
        -9.145628601173275
      ],
      [
        "▁၂၃",
        -9.146036649534867
      ],
      [
        "I",
        -9.146111463368364
      ],
      [
        "▁(က)",
        -9.147519258544207
      ],
      [
        "←",
        -9.147537781737585
      ],
      [
        "▁ချစ်",
        -9.148035209353182
      ],
      [
        "▁V",
        -9.148122370036983
      ],
      [
        "▁အောက်တိုဘာလ",
        -9.15004681194133
      ],
      [
        "နိုင်သည်။",
        -9.150931490448478
      ],
      [
        "▁ကွန်ပျူတာ",
        -9.151600596726999
      ],
      [
        "တော",
        -9.152317218988536
      ],
      [
        "နိ",
        -9.152341116508685
      ],
      [
        "▁ဝန်ဆောင်မှု",
        -9.153226329697224
      ],
      [
        "နား",
        -9.1541916073615
      ],
      [
        "မယ်။",
        -9.154473168040145
      ],
      [
        "ခု",
        -9.156072412070216
      ],
      [
        "အမျိုးသား",
        -9.157772857300428
      ],
      [
        "▁တရား",
        -9.158135443994748
      ],
      [
        "▁ကြေညာ",
        -9.159212483860575
      ],
      [
        "▁အခြေအနေ",
        -9.161243627366733
      ],
      [
        "▁မြေ",
        -9.161734632715653
      ],
      [
        "ခြင်းကို",
        -9.161864129426755
      ],
      [
        "▁Z",
        -9.163488619794332
      ],
      [
        "▁(ခ)",
        -9.165452346903386
      ],
      [
        "v",
        -9.165748011508033
      ],
      [
        "ရုံ",
        -9.170090210228302
      ],
      [
        "စစ်ပြီး",
        -9.17113491689614
      ],
      [
        "▁ဘဝ",
        -9.17169420114227
      ],
      [
        "▁မေ",
        -9.172469430835283
      ],
      [
        "▁တာချီလိတ်",
        -9.172789870384943
      ],
      [
        "▁၆။",
        -9.173343746952142
      ],
      [
        "▁မန္တလေး",
        -9.175304353580758
      ],
      [
        "G",
        -9.17599458369746
      ],
      [
        "Unicode",
        -9.178645232232267
      ],
      [
        "နှုန်း",
        -9.180585412132565
      ],
      [
        "▁အရ",
        -9.18121298783046
      ],
      [
        "▁ဆောင်းပါး",
        -9.184477862014635
      ],
      [
        "ထံ",
        -9.189082548925452
      ],
      [
        "၆",
        -9.190203711976858
      ],
      [
        "▁J",
        -9.190522949750239
      ],
      [
        "လ်",
        -9.190681265188665
      ],
      [
        "▁လာရောက်",
        -9.192789116707392
      ],
      [
        "▁ပညာရေး",
        -9.19327369210321
      ],
      [
        "ထားတာ",
        -9.194041804790867
      ],
      [
        "▁ထပ်မံ",
        -9.194617874590657
      ],
      [
        "▁အင်္ဂလိပ်",
        -9.194710720091216
      ],
      [
        "မယ်ဆိုရင်",
        -9.195017963158584
      ],
      [
        "တွေလည်း",
        -9.195985891277669
      ],
      [
        "▁တောင်းဆို",
        -9.196187621923693
      ],
      [
        "ဝန်ဆောင်မှု",
        -9.197573616107155
      ],
      [
        "▁U",
        -9.198324733493425
      ],
      [
        "▁တင်",
        -9.199310945833346
      ],
      [
        "le",
        -9.19974438844649
      ],
      [
        "▁Play",
        -9.200102752514844
      ],
      [
        "▁ခ",
        -9.201245825148849
      ],
      [
        "ခံရ",
        -9.203441887816837
      ],
      [
        "စိုး",
        -9.204831194610176
      ],
      [
        "ဗီဒီယို",
        -9.206871715811037
      ],
      [
        "သန်း",
        -9.20773931898439
      ],
      [
        "▁ကြည့်",
        -9.208723220098369
      ],
      [
        "စစ်ဆေး",
        -9.210149000732553
      ],
      [
        "▁ဖွဲ့စည်း",
        -9.210783092309892
      ],
      [
        "အပြည်ပြည်ဆိုင်ရာ",
        -9.211002850089148
      ],
      [
        "သူတို့",
        -9.211049246125992
      ],
      [
        "▁မှတ်တမ်း",
        -9.211250147237951
      ],
      [
        "ရရှိ",
        -9.212233417363326
      ],
      [
        "ဝေ",
        -9.212642790097892
      ],
      [
        "▁အလွန်",
        -9.215520459050511
      ],
      [
        "ly",
        -9.21612119274165
      ],
      [
        "▁ဖြစ်တယ်လို့",
        -9.21669033524936
      ],
      [
        "▁ကြိုးစား",
        -9.21845945357831
      ],
      [
        "လိုက်တာ",
        -9.219555915610666
      ],
      [
        "▁၂၆",
        -9.219582563044145
      ],
      [
        "စက်ရုံ",
        -9.219966322047092
      ],
      [
        "ခဲ့ပါသည်။",
        -9.220509785293757
      ],
      [
        "တွေ၊",
        -9.222982304176597
      ],
      [
        "ဘုရား",
        -9.224744195110876
      ],
      [
        "ကုန်း",
        -9.22607109150756
      ],
      [
        "၄",
        -9.22635726998886
      ],
      [
        "စာရင်း",
        -9.2264352579752
      ],
      [
        "▁Pro",
        -9.228096869898955
      ],
      [
        "တယ်၊",
        -9.231126932886827
      ],
      [
        "အာ",
        -9.232386924081936
      ],
      [
        "ပါး",
        -9.232593322068945
      ],
      [
        "▁နိုဝင်ဘာ",
        -9.23354098060753
      ],
      [
        "ce",
        -9.234784814531194
      ],
      [
        "▁ကျွန်မ",
        -9.234952051199247
      ],
      [
        "▁မူပိုင်",
        -9.23559463395437
      ],
      [
        "▁iOS",
        -9.235611205814145
      ],
      [
        "ဆဲ",
        -9.236565482081852
      ],
      [
        "▁မိသားစု",
        -9.2369210336082
      ],
      [
        "ဦးစီးဌာန",
        -9.23718339282632
      ],
      [
        "ဖြစ်ပါသည်။",
        -9.237203248253781
      ],
      [
        "ပေါ်တွင်",
        -9.237878899718062
      ],
      [
        "အောက်",
        -9.23978969079289
      ],
      [
        "▁အသုံးပြုနိုင်",
        -9.240374630683695
      ],
      [
        "se",
        -9.242532530077433
      ],
      [
        "▁ဝန်ကြီးချုပ်",
        -9.243073762355356
      ],
      [
        "ရောဂါ",
        -9.243950350563498
      ],
      [
        "တိုင်",
        -9.245647429626374
      ],
      [
        "▁အတူ",
        -9.24612381020421
      ],
      [
        "နိုင်ရန်",
        -9.246270888050095
      ],
      [
        "သင့်ရဲ့",
        -9.246395596271297
      ],
      [
        "တပ်",
        -9.247165411449274
      ],
      [
        "▁အတည်ပြု",
        -9.24759110923576
      ],
      [
        "▁လို",
        -9.248994236479067
      ],
      [
        "ဆင်",
        -9.24918390396249
      ],
      [
        "▁ဇန်နဝါရီလ",
        -9.24948660873206
      ],
      [
        "▁ငါ့",
        -9.250714805104005
      ],
      [
        "▁ပါး",
        -9.252095058885395
      ],
      [
        "▁မိတ်ဆက်",
        -9.25331661357932
      ],
      [
        "A)",
        -9.254066081941943
      ],
      [
        "▁ဥရောပ",
        -9.254975458545797
      ],
      [
        "တူ",
        -9.255468875278986
      ],
      [
        "▁သူတို့ရဲ့",
        -9.256085450486994
      ],
      [
        "ေရာ",
        -9.256388363710919
      ],
      [
        "တက္ကသိုလ်",
        -9.256640159346173
      ],
      [
        "တာက",
        -9.260329702037764
      ],
      [
        "မီး",
        -9.26046347305903
      ],
      [
        "▁ဒီဇင်ဘာ",
        -9.260527262990996
      ],
      [
        "သတ်",
        -9.261337184315675
      ],
      [
        "ဆိုတဲ့",
        -9.262455434041907
      ],
      [
        "▁ဇူလိုင်",
        -9.263906199230632
      ],
      [
        "▁၇။",
        -9.265448467565976
      ],
      [
        "ရိုး",
        -9.26716117508871
      ],
      [
        "▁အင်တာနက်",
        -9.267231293518247
      ],
      [
        "ဆန်",
        -9.26765914450768
      ],
      [
        "မြင်",
        -9.271466073718392
      ],
      [
        "▁ဖြစ်တဲ့",
        -9.272019882296057
      ],
      [
        "နည်းပညာ",
        -9.273257872915128
      ],
      [
        "များမှာ",
        -9.27637954511874
      ],
      [
        "ဘက်က",
        -9.276973761457828
      ],
      [
        "ation",
        -9.278537053230801
      ],
      [
        "▁သဘာဝ",
        -9.279062466055091
      ],
      [
        "ဖက်",
        -9.279551574945954
      ],
      [
        "it",
        -9.280212782871956
      ],
      [
        "▁စီစဉ်",
        -9.280986325567522
      ],
      [
        "ဤ",
        -9.281846047289132
      ],
      [
        "▁စား",
        -9.281866260510881
      ],
      [
        "အရာ",
        -9.282019416862873
      ],
      [
        "တို့က",
        -9.283047583410674
      ],
      [
        "▁မဝင်",
        -9.283591782971254
      ],
      [
        "ပညာ",
        -9.284033753886176
      ],
      [
        "▁ဤစာ",
        -9.284051295669808
      ],
      [
        "လမ်း၊",
        -9.284137355941612
      ],
      [
        "ပါဝင်",
        -9.284557656175503
      ],
      [
        "ချစ်",
        -9.284570503162445
      ],
      [
        "▁ယုံကြည်",
        -9.285271482273863
      ],
      [
        "▁သူ၏",
        -9.285893102037356
      ],
      [
        "▁သင်တန်း",
        -9.286351947641784
      ],
      [
        "စတင်",
        -9.286838547179029
      ],
      [
        "မေတ္တာပို့သ",
        -9.287133100000009
      ],
      [
        "ရှ",
        -9.287505579107732
      ],
      [
        "မှဆုတောင်း",
        -9.287592190003963
      ],
      [
        "သင်တန်းကျောင်း",
        -9.289086393740131
      ],
      [
        "ဘာသာ",
        -9.289285800753465
      ],
      [
        "ဖြစ်ပွား",
        -9.289302958334016
      ],
      [
        "ကျေးရွာ",
        -9.290030716090126
      ],
      [
        "▁အဆင့်",
        -9.290483149901048
      ],
      [
        "▁ရွှေ",
        -9.291943055496061
      ],
      [
        "မည်ဖြစ်ကြောင်း",
        -9.29196078723566
      ],
      [
        "ထောင်",
        -9.293110268747288
      ],
      [
        "မဆို",
        -9.293452564055906
      ],
      [
        "▁ပြောင်းလဲ",
        -9.293500105460028
      ],
      [
        "▁ပြန်ကြားချက်",
        -9.29599496919799
      ],
      [
        "ဖတ်သူများအားလုံး",
        -9.296060865562062
      ],
      [
        "▁မိုး",
        -9.296376453959258
      ],
      [
        "▁သား",
        -9.296895947364192
      ],
      [
        "ရမှာ",
        -9.29719686736366
      ],
      [
        "အုပ်စု",
        -9.29814982541868
      ],
      [
        "ကိုတော့",
        -9.298359305300028
      ],
      [
        "▁လက်ခံ",
        -9.298568598372325
      ],
      [
        "မံ",
        -9.299640839103754
      ],
      [
        "ကူညီ",
        -9.300848946897332
      ],
      [
        "▁အသံ",
        -9.301569008258262
      ],
      [
        "▁ထို့နောက်",
        -9.302998255385589
      ],
      [
        "▁by",
        -9.303620367885841
      ],
      [
        "▁ပြောပြ",
        -9.303916819223517
      ],
      [
        "▁ဦးဆောင်",
        -9.303930518244556
      ],
      [
        "W",
        -9.305339014781545
      ],
      [
        "▁ကောင်း",
        -9.305825464291054
      ],
      [
        "▁2015",
        -9.30634369699924
      ],
      [
        "▁ဖြစ်ပါသည်။",
        -9.307642652341404
      ],
      [
        "အမည်",
        -9.308710198416758
      ],
      [
        "ခေါင်း",
        -9.311252668273973
      ],
      [
        "တွဲ",
        -9.312155449100318
      ],
      [
        "ကဲ့သို့",
        -9.313329602979174
      ],
      [
        "ရှိသော",
        -9.313449872176061
      ],
      [
        "အစီအစဉ်",
        -9.315289066089498
      ],
      [
        "▁ဇွန်",
        -9.315857505005704
      ],
      [
        "တာမျိုး",
        -9.318739817735905
      ],
      [
        "ဥပဒေ",
        -9.319341333206461
      ],
      [
        "▁အမှု",
        -9.319372805750822
      ],
      [
        "▁ပညာ",
        -9.319761611447937
      ],
      [
        "▁မည်သည့်",
        -9.32088911625772
      ],
      [
        "ဆာ",
        -9.320983289178281
      ],
      [
        "ဲ့",
        -9.323817042084393
      ],
      [
        "▁မဟုတ်",
        -9.32412581278576
      ],
      [
        "မွန်",
        -9.324486699655143
      ],
      [
        "ခြင်းဖြင့်",
        -9.32544984084417
      ],
      [
        "အကောင်းဆုံး",
        -9.326299967953622
      ],
      [
        "ဆင်း",
        -9.327543553861037
      ],
      [
        "ဲ",
        -9.327682569307797
      ],
      [
        "▁ကူညီ",
        -9.328714547795364
      ],
      [
        "▁၅၀",
        -9.329963104188174
      ],
      [
        "ရာမှာ",
        -9.330315227449235
      ],
      [
        "▁ဧရာဝတီ",
        -9.33064718657069
      ],
      [
        "▁၂၈",
        -9.331126492723993
      ],
      [
        "▁အသေးစိတ်",
        -9.331375351587887
      ],
      [
        "▁ဇန်နဝါရီ",
        -9.331414455921427
      ],
      [
        "▁ဒါမှမဟုတ်",
        -9.331974895373083
      ],
      [
        "L",
        -9.331975225869765
      ],
      [
        "ပစ္စည်းများ",
        -9.332033275187829
      ],
      [
        "▁Read",
        -9.332875802955096
      ],
      [
        "ညွှန်ကြားရေးမှူး",
        -9.334567424898783
      ],
      [
        "▁ရှိသည်။",
        -9.334625634858247
      ],
      [
        "ခွင့်ပြု",
        -9.334689732105367
      ],
      [
        "▁ဗီဒီယို",
        -9.334693657794675
      ],
      [
        "▁ပြည်တွင်း",
        -9.335776091603407
      ],
      [
        "အချို့",
        -9.33620650144305
      ],
      [
        "▁L",
        -9.336336656183462
      ],
      [
        "▁ရှိနေ",
        -9.336455537699079
      ],
      [
        "▁အမည်",
        -9.336489041254755
      ],
      [
        "နေကြ",
        -9.336805567962191
      ],
      [
        "▁သူမ",
        -9.337880264748998
      ],
      [
        "ပေးဖို့",
        -9.33859745966098
      ],
      [
        "▁လက်မ",
        -9.339325127767633
      ],
      [
        "လဲ။",
        -9.33942463181957
      ],
      [
        "▁အားကစား",
        -9.339441350657516
      ],
      [
        "s,",
        -9.339694476329463
      ],
      [
        "▁လူ့အခွင့်အရေး",
        -9.342028052854207
      ],
      [
        "ပြီးတော့",
        -9.342238452175822
      ],
      [
        "ဝန်ကြီးချုပ်",
        -9.34235100394083
      ],
      [
        "el",
        -9.343101678948017
      ],
      [
        "▁ေန",
        -9.343383480840055
      ],
      [
        "▁ဝ",
        -9.343690375872047
      ],
      [
        "ဓ",
        -9.343881304163244
      ],
      [
        "J",
        -9.344059598910569
      ],
      [
        "▁ဗြိတိန်",
        -9.344620037902914
      ],
      [
        "▁တကယ်",
        -9.346902888819267
      ],
      [
        "▁သရုပ်ဆောင်",
        -9.347671837763293
      ],
      [
        "ခရိုင်",
        -9.34776752233871
      ],
      [
        "(၂)",
        -9.349193140165708
      ],
      [
        "▁ရုပ်ရှင်",
        -9.350616450818894
      ],
      [
        "ဆု",
        -9.351578806006088
      ],
      [
        "မှာဖြစ်ပါတယ်။",
        -9.351931795229326
      ],
      [
        "▁အမြဲ",
        -9.352560807781005
      ],
      [
        "▁ဆက်သွယ်",
        -9.352727113301686
      ],
      [
        "ပြောင်း",
        -9.35311168822869
      ],
      [
        "မည်ဟု",
        -9.35361205121976
      ],
      [
        "▁ကော်မရှင်",
        -9.35479595493939
      ],
      [
        "ရပါတယ်။",
        -9.355657666593029
      ],
      [
        "N",
        -9.356170175584918
      ],
      [
        "▁၂၀၁၄",
        -9.35721192868056
      ],
      [
        "ဆိုး",
        -9.357504999476447
      ],
      [
        "ဒီဇိုင်း",
        -9.358372367395372
      ],
      [
        "D",
        -9.358451705882185
      ],
      [
        "စေရန်",
        -9.360699849289139
      ],
      [
        "▁ငါး",
        -9.361030798171921
      ],
      [
        "ထုတ်လုပ်",
        -9.363597479823852
      ],
      [
        "ပါသလား။",
        -9.36389584656951
      ],
      [
        "▁ရှိပါတယ်။",
        -9.365836722885618
      ],
      [
        "▁စကား",
        -9.365957458157133
      ],
      [
        "▁တချို့",
        -9.366744436872366
      ],
      [
        "အမျိုးအစား",
        -9.36882986873162
      ],
      [
        "▁ဒေသ",
        -9.368904082974224
      ],
      [
        "▁ေရး",
        -9.369531616417078
      ],
      [
        "▁MH",
        -9.371903453738232
      ],
      [
        "▁ပဲခူး",
        -9.371923047139259
      ],
      [
        "သမား",
        -9.372188897875038
      ],
      [
        "▁မရ",
        -9.373518683421038
      ],
      [
        "အမျိုးသမီး",
        -9.37398209830776
      ],
      [
        "▁ဆ",
        -9.374200137741608
      ],
      [
        "▁အရင်",
        -9.375322101916627
      ],
      [
        "▁ရှိတဲ့",
        -9.375352674038037
      ],
      [
        "▁ဖေဖော်ဝါရီလ",
        -9.375557587134693
      ],
      [
        "▁24",
        -9.375947359159188
      ],
      [
        "အလိုက်",
        -9.376292059789755
      ],
      [
        "အကြောင်းကို",
        -9.377162838546228
      ],
      [
        "တစ်ဦးက",
        -9.377293743401887
      ],
      [
        "ဒိ",
        -9.377939227563258
      ],
      [
        "ထို",
        -9.37881217671261
      ],
      [
        "ပြည်ထောင်စု",
        -9.379326399328647
      ],
      [
        "အခြေအနေ",
        -9.37983792073063
      ],
      [
        "အမှတ်",
        -9.380133470582434
      ],
      [
        "▁အွန်လိုင်း",
        -9.380161791347618
      ],
      [
        "လား။",
        -9.380755495176386
      ],
      [
        "▁၂၉",
        -9.381494317632695
      ],
      [
        "▁မိနစ်",
        -9.383054834794166
      ],
      [
        "▁၎င်း",
        -9.383694482091105
      ],
      [
        "ကိုယ်စားလှယ်",
        -9.384093373577505
      ],
      [
        "တာကြောင့်",
        -9.384143413594273
      ],
      [
        "သိန်း",
        -9.38572813476399
      ],
      [
        "အသက်",
        -9.386452283630847
      ],
      [
        "ခဲ့သော",
        -9.386937527892913
      ],
      [
        "များစွာ",
        -9.387398309105976
      ],
      [
        "သောအခါ",
        -9.388200022661817
      ],
      [
        "ပါမယ်။",
        -9.388226358242713
      ],
      [
        "un",
        -9.388525138745836
      ],
      [
        "▁အရမ်း",
        -9.388586658385407
      ],
      [
        "▁အစိုးရက",
        -9.389091013574772
      ],
      [
        "▁၂၀၁၁",
        -9.389230812873686
      ],
      [
        "စာအုပ်",
        -9.390133553202563
      ],
      [
        "ပြည့်",
        -9.390201945633454
      ],
      [
        "ၚ်",
        -9.39052796317075
      ],
      [
        "ဘို့",
        -9.393124646506333
      ],
      [
        "all",
        -9.394036229520037
      ],
      [
        "ရမည်",
        -9.394342185921358
      ],
      [
        "▁ဗီဒီယိုက",
        -9.394365327633063
      ],
      [
        "▁ဒါက",
        -9.395884737784925
      ],
      [
        "ဖို့အတွက်",
        -9.395947455756005
      ],
      [
        "မေး",
        -9.396168467280667
      ],
      [
        "▁ဖတ်",
        -9.396302268741714
      ],
      [
        "▁ယူ",
        -9.397435725102085
      ],
      [
        "▁20",
        -9.397622670613949
      ],
      [
        "ရှိပါတယ်",
        -9.398751943049914
      ],
      [
        "တိုင်းရင်းသား",
        -9.398829480124753
      ],
      [
        "မောင်",
        -9.399031979584738
      ],
      [
        "▁ဆက်စပ်",
        -9.399201009263834
      ],
      [
        "▁X",
        -9.400462342916606
      ],
      [
        "▁အာရှ",
        -9.402003378057708
      ],
      [
        "ပူ",
        -9.402006251504243
      ],
      [
        "▁တည်ဆောက်",
        -9.40295732462154
      ],
      [
        "အေး",
        -9.405033195654802
      ],
      [
        "▁တရုတ်နိုင်ငံ",
        -9.405279785427915
      ],
      [
        "ရှိပြီး",
        -9.406589669884264
      ],
      [
        "ါ",
        -9.40811267232122
      ],
      [
        "ခန်း",
        -9.408625679243434
      ],
      [
        "la",
        -9.40941364767227
      ],
      [
        "▁တွေ့",
        -9.410068498618024
      ],
      [
        "at",
        -9.413769047899452
      ],
      [
        "ဆွေးနွေး",
        -9.414405408634154
      ],
      [
        "ခဲ့တယ်လို့",
        -9.414552436925387
      ],
      [
        "ia",
        -9.415482445967323
      ],
      [
        "▁လူဦးရေ",
        -9.416463480942937
      ],
      [
        "▁ပစ္စည်း",
        -9.41673970771374
      ],
      [
        "▁တင်ပြ",
        -9.416935933990722
      ],
      [
        "▁ပုံမှန်",
        -9.41715706946615
      ],
      [
        "▁ေတ",
        -9.418533368509214
      ],
      [
        "တို့တွင်",
        -9.418682600455384
      ],
      [
        "▁website",
        -9.418751630015885
      ],
      [
        "တော်မူ",
        -9.41988401833073
      ],
      [
        "▁အောက်ပါ",
        -9.4223686090966
      ],
      [
        "နဲ",
        -9.423286713876301
      ],
      [
        "▁..",
        -9.423639040694574
      ],
      [
        "ဖြူ",
        -9.425553348770112
      ],
      [
        "▁ဖေဖော်ဝါရီ",
        -9.428053744621506
      ],
      [
        "▁Card",
        -9.428743123650811
      ],
      [
        "▁ကမ္ဘာ",
        -9.430092154445404
      ],
      [
        "ဖွဲ့",
        -9.430282214756337
      ],
      [
        "ထုတ်ကုန်",
        -9.431075769390514
      ],
      [
        "များမှ",
        -9.431335837072602
      ],
      [
        "▁app",
        -9.431589770537599
      ],
      [
        "▁ဒီမှာ",
        -9.431699898806333
      ],
      [
        "▁Post",
        -9.43338012486333
      ],
      [
        "▁အနိုင်ရ",
        -9.433556953525446
      ],
      [
        "▁၂၀၁၃",
        -9.433803665078498
      ],
      [
        "မိသားစု",
        -9.434146505187012
      ],
      [
        "▁Note",
        -9.434712811544909
      ],
      [
        "▁၁၀၀",
        -9.434778456569791
      ],
      [
        "z",
        -9.435065763663772
      ],
      [
        "ညာ",
        -9.435674488111044
      ],
      [
        "ဳ",
        -9.435839726466545
      ],
      [
        "အတွင်းရှိ",
        -9.43618694719623
      ],
      [
        "ရွာ၊",
        -9.436301932411542
      ],
      [
        "▁--",
        -9.43658007768776
      ],
      [
        "▁ကျန်",
        -9.437207396199
      ],
      [
        "’s",
        -9.437438215821707
      ],
      [
        "▁မြန်မာနိုင်ငံ၏",
        -9.437599738978678
      ],
      [
        "ရက်နေ့",
        -9.438293840148027
      ],
      [
        "▁more",
        -9.438463520110826
      ],
      [
        "ပြည်နယ်",
        -9.438550155416323
      ],
      [
        "▁မြို့",
        -9.438634725911516
      ],
      [
        "te",
        -9.438792850736853
      ],
      [
        "▁ပိုပြီး",
        -9.439272965592036
      ],
      [
        "▁တာချီလိတ်မြို့",
        -9.439332435231375
      ],
      [
        "နေထိုင်",
        -9.439629454259155
      ],
      [
        "▁အများကြီး",
        -9.439784655851145
      ],
      [
        "ကျင်းပ",
        -9.442189675726713
      ],
      [
        "ပြိုင်ပွဲ",
        -9.443023495527193
      ],
      [
        "စီးပွားရေး",
        -9.443110246607201
      ],
      [
        "▁(၈)",
        -9.444678152606036
      ],
      [
        "ခဲ",
        -9.446563000948426
      ],
      [
        "▁တိုက်ရိုက်",
        -9.447275986086524
      ],
      [
        "အစည်းအဝေး",
        -9.447305511223703
      ],
      [
        "▁ဥက္ကဌ",
        -9.447599890123712
      ],
      [
        "▁ခေါင်းဆောင်",
        -9.448473532151308
      ],
      [
        "▁လောက်",
        -9.449094567130956
      ],
      [
        "▁ထိ",
        -9.450168247231534
      ],
      [
        "▁ပြုပြင်",
        -9.450548874469714
      ],
      [
        "▁(၁၀)",
        -9.451481197299252
      ],
      [
        "▁သရုပ်ပြ",
        -9.454760957911942
      ],
      [
        "ပို့",
        -9.455550408539722
      ],
      [
        "▁ထား",
        -9.456234347232531
      ],
      [
        "လို့လည်း",
        -9.45656017809755
      ],
      [
        "▁မိန်းမ",
        -9.456764102418166
      ],
      [
        "▁Show",
        -9.456815912748798
      ],
      [
        "က္",
        -9.457471267256103
      ],
      [
        "▁ရဲ",
        -9.457681685363205
      ],
      [
        "▁ဖြစ်လာ",
        -9.459568775570826
      ],
      [
        "elenor",
        -9.459823463373347
      ],
      [
        "▁ဒေသခံ",
        -9.461320052632233
      ],
      [
        "▁11",
        -9.461428910242521
      ],
      [
        "ရေးအတွက်",
        -9.464228276454266
      ],
      [
        "▁စီး",
        -9.464831215991971
      ],
      [
        "V",
        -9.466708562381754
      ],
      [
        "▁စီမံကိန်း",
        -9.466845929152115
      ],
      [
        "▁ဘာသာစကား",
        -9.467143344488639
      ],
      [
        "▁ရယူ",
        -9.467310628541966
      ],
      [
        "▁ပြဿနာ",
        -9.467353241134596
      ],
      [
        "▁ကြိမ်",
        -9.46857458946476
      ],
      [
        "▁အဖွဲ့အစည်း",
        -9.468695555377717
      ],
      [
        "▁ဆေးရုံ",
        -9.468796456121353
      ],
      [
        "▁ယခင်",
        -9.469036399709392
      ],
      [
        "▁လေယာဉ်",
        -9.469124152359594
      ],
      [
        "ကျန်",
        -9.471705200271266
      ],
      [
        "▁အောက်",
        -9.47191282018904
      ],
      [
        "▁သေချာ",
        -9.471976510394198
      ],
      [
        "င့်",
        -9.472064367010315
      ],
      [
        "▁(သို့)",
        -9.472332180225568
      ],
      [
        "န်း",
        -9.47273834505415
      ],
      [
        "လေ့လာ",
        -9.47376317600246
      ],
      [
        "▁18",
        -9.474222742014792
      ],
      [
        "တည်",
        -9.475102472079326
      ],
      [
        "၉",
        -9.475176657948529
      ],
      [
        "နှီးမြှုပ်နှံမှု",
        -9.476110216181421
      ],
      [
        "ကပ်",
        -9.47781934281383
      ],
      [
        "မှာပဲ",
        -9.478134986725387
      ],
      [
        "အလွန်",
        -9.478429315596003
      ],
      [
        "▁ဂ",
        -9.479171513160232
      ],
      [
        "မြို့နယ်၊",
        -9.479352033573651
      ],
      [
        "▁ခန္ဓာကိုယ်",
        -9.479903335492347
      ],
      [
        "ရောင်း",
        -9.48133246033361
      ],
      [
        "F",
        -9.481774169358479
      ],
      [
        "ခဲ့တယ်။",
        -9.482877268724785
      ],
      [
        "▁အများဆုံး",
        -9.483630930870198
      ],
      [
        "စံ",
        -9.48418350235993
      ],
      [
        "အွန်လိုင်း",
        -9.484981424572
      ],
      [
        "မှာရှိတဲ့",
        -9.486486908430265
      ],
      [
        "ပေးရန်",
        -9.486619837791668
      ],
      [
        "▁ရှင်းပြ",
        -9.488373242854719
      ],
      [
        "▁င",
        -9.489148851912201
      ],
      [
        "▁မှန်",
        -9.489510950621618
      ],
      [
        "10",
        -9.489782936349261
      ],
      [
        "ရအောင်",
        -9.490175961643832
      ],
      [
        "X",
        -9.490387594762026
      ],
      [
        "▁ဧပြီ",
        -9.49297337070153
      ],
      [
        "▁ပေ",
        -9.493628901601575
      ],
      [
        "▁ဘာကြောင့်",
        -9.494137503391912
      ],
      [
        "ပိုင်းဆိုင်ရာ",
        -9.49450988565508
      ],
      [
        "တွေကတော့",
        -9.495458278170865
      ],
      [
        "မြန်မာ",
        -9.495725395183285
      ],
      [
        "▁ဘ",
        -9.497907769183445
      ],
      [
        "ဖုန်း",
        -9.4979585609873
      ],
      [
        "တယ်”",
        -9.499630851543222
      ],
      [
        "ကြည်",
        -9.499839089783325
      ],
      [
        "▁ဒုတိယအကြိမ်",
        -9.50104341383258
      ],
      [
        "=",
        -9.501100490861518
      ],
      [
        "ဝိ",
        -9.501782771558672
      ],
      [
        "လိုအပ်",
        -9.502099165186348
      ],
      [
        "▁ဘာတွေ",
        -9.50218353745246
      ],
      [
        "မာတိကာ",
        -9.502571940112187
      ],
      [
        "နေစဉ်",
        -9.502894471845009
      ],
      [
        "ပဲ။",
        -9.503821616966494
      ],
      [
        "သွားတဲ့",
        -9.50396634112795
      ],
      [
        "ဂျ",
        -9.50593212344223
      ],
      [
        "▁၃၁",
        -9.505951157053161
      ],
      [
        "▁30",
        -9.50617745909186
      ],
      [
        "ကော",
        -9.506734131050004
      ],
      [
        "▁My",
        -9.507164093685489
      ],
      [
        "▁လူထု",
        -9.50728836114068
      ],
      [
        "▁အခန်း",
        -9.50742237811643
      ],
      [
        "ရေးရာ",
        -9.508048921680095
      ],
      [
        "-၂၀၁၈",
        -9.508931673115626
      ],
      [
        "ကော်မတီ",
        -9.509150832766387
      ],
      [
        "▁သင်ခန်းစာ",
        -9.50926789050601
      ],
      [
        "▁အသင်း",
        -9.509370513518974
      ],
      [
        "ဖြစ်တယ်။",
        -9.510085160399267
      ],
      [
        "▁ပြ",
        -9.51074891650925
      ],
      [
        "▁သက်တမ်း",
        -9.510810445506724
      ],
      [
        "▁ကြိမ်မြောက်",
        -9.510998982063267
      ],
      [
        "▁တန်ဖိုး",
        -9.511700052761427
      ],
      [
        "▁ကြား",
        -9.512877102151446
      ],
      [
        "−",
        -9.513558515538826
      ],
      [
        "▁Microsoft",
        -9.513560283550936
      ],
      [
        "NMSP",
        -9.513565353868866
      ],
      [
        "သွားပါတယ်။",
        -9.514482787292334
      ],
      [
        "ထွန်း",
        -9.515832652290568
      ],
      [
        "ပု",
        -9.515850349557779
      ],
      [
        "မှစ၍",
        -9.515915449666377
      ],
      [
        "▁KB",
        -9.516347181559723
      ],
      [
        "▁ငွေကြေး",
        -9.516371410202854
      ],
      [
        "▁ရေးသား",
        -9.517354868099327
      ],
      [
        "▁သူဟာ",
        -9.518433822586296
      ],
      [
        "▁ဒါ့အပြင်",
        -9.518601628271028
      ],
      [
        "ကိုယ်တိုင်",
        -9.519032972088425
      ],
      [
        "▁ကော်မတီ",
        -9.519314938471531
      ],
      [
        "▁နည်း",
        -9.520277626534781
      ],
      [
        "လူမျိုး",
        -9.520306463742507
      ],
      [
        "▁13",
        -9.520373327614497
      ],
      [
        "မသိ",
        -9.521643687679344
      ],
      [
        "ဆန်း",
        -9.521873365105275
      ],
      [
        "▁မြောက်ကိုရီးယား",
        -9.52197004318067
      ],
      [
        "လေသည်။",
        -9.522807716786836
      ],
      [
        "ခဲ့တာပါ။",
        -9.522894091173189
      ],
      [
        "ဖြတ်",
        -9.523086819652338
      ],
      [
        "▁ကျောက်",
        -9.52503036292677
      ],
      [
        "▁ရန်ကုန်တိုင်း",
        -9.525426382069107
      ],
      [
        "▁ဝေဖန်",
        -9.525879643989668
      ],
      [
        "▁Category:",
        -9.526672250335903
      ],
      [
        "ရှင်း",
        -9.526763804822075
      ],
      [
        "အများဆုံး",
        -9.526906821909614
      ],
      [
        "▁System",
        -9.527700652650353
      ],
      [
        "မှူး",
        -9.529052859369646
      ],
      [
        "▁ဆရာဝန်",
        -9.529986499062385
      ],
      [
        "▁လူငယ်",
        -9.531675268839322
      ],
      [
        "ဖွယ်",
        -9.53294551306535
      ],
      [
        "▁ဗြိတိသျှ",
        -9.53380520440288
      ],
      [
        "▁စနစ်",
        -9.534392993251629
      ],
      [
        "▁အနည်းဆုံး",
        -9.535112473191838
      ],
      [
        "လာတဲ့",
        -9.535214262672781
      ],
      [
        "လွန်း",
        -9.535467749172906
      ],
      [
        "▁တန်",
        -9.5354793712368
      ],
      [
        "▁အဲဒီလို",
        -9.535833609181962
      ],
      [
        "▁User",
        -9.536121178712277
      ],
      [
        "ရှိနေ",
        -9.536201533476646
      ],
      [
        "အဘို့",
        -9.536456180353163
      ],
      [
        "ပီ",
        -9.53753381692142
      ],
      [
        "လိမ့်မည်။",
        -9.538360602434336
      ],
      [
        "▁ကိုယ်တိုင်",
        -9.539283352887374
      ],
      [
        "▁အထက်",
        -9.539676836481721
      ],
      [
        "မဟုတ်",
        -9.54075224690331
      ],
      [
        "▁သဘောတူ",
        -9.541443146229886
      ],
      [
        "▁ဥက္ကဋ္ဌ",
        -9.541714305443492
      ],
      [
        "တန်ဖိုး",
        -9.542011963481137
      ],
      [
        "ငြိမ်းချမ်းရေး",
        -9.542830310454804
      ],
      [
        "ရွေးချယ်",
        -9.542849808872273
      ],
      [
        "▁(my)",
        -9.543117453266833
      ],
      [
        "s)",
        -9.543144613923044
      ],
      [
        "နာမည်",
        -9.543680600525411
      ],
      [
        "▁~",
        -9.543933858937347
      ],
      [
        "နဲ့အတူ",
        -9.546495723850882
      ],
      [
        "ကစား",
        -9.546655951500142
      ],
      [
        "တွေအတွက်",
        -9.54719073712393
      ],
      [
        "▁Network",
        -9.547272292143798
      ],
      [
        "ခဲ့ရာ",
        -9.547528820617611
      ],
      [
        "▁past",
        -9.547574971323002
      ],
      [
        "▁Mr.",
        -9.547630733633738
      ],
      [
        "▁NCA",
        -9.54787122140944
      ],
      [
        "မွဲ",
        -9.548191245984848
      ],
      [
        "▁App",
        -9.54864634103992
      ],
      [
        "အနီး",
        -9.548666077144318
      ],
      [
        "▁ညှိနှိုင်း",
        -9.549177828724325
      ],
      [
        "▁log",
        -9.550167325031506
      ],
      [
        "▁ဘက်",
        -9.550374915102154
      ],
      [
        "ra",
        -9.550646958455161
      ],
      [
        "ne",
        -9.550728884416674
      ],
      [
        "တင်ပြ",
        -9.550991464156734
      ],
      [
        "H",
        -9.551658877378209
      ],
      [
        "▁ဖျော်ဖြေရေး",
        -9.553519685351759
      ],
      [
        "▁ထွက်",
        -9.553660032088699
      ],
      [
        "တေ",
        -9.553753327703243
      ],
      [
        "▁2014",
        -9.554433590382182
      ],
      [
        "ဏ",
        -9.554639815123313
      ],
      [
        "သောကြောင့်",
        -9.555107939766565
      ],
      [
        "▁လိုအပ်",
        -9.555246730734993
      ],
      [
        "ဖန်တီး",
        -9.55629712066463
      ],
      [
        "အဘို့အ",
        -9.557159493130895
      ],
      [
        "နေပြီး",
        -9.557295880381691
      ],
      [
        "အဖွဲ့အစည်း",
        -9.557337358567867
      ],
      [
        "O",
        -9.557662906785643
      ],
      [
        "E",
        -9.557761987833452
      ],
      [
        "ပြန်လည်",
        -9.559527116875252
      ],
      [
        "am",
        -9.559607409377689
      ],
      [
        "ပေါ့",
        -9.559718800428545
      ],
      [
        "▁သတင်းစာ",
        -9.55990225773576
      ],
      [
        "ဖွံ့ဖြိုးတိုးတက်",
        -9.560351711692235
      ],
      [
        "မှုကြောင့်",
        -9.560447813540847
      ],
      [
        "▁မောင်",
        -9.560822882484203
      ],
      [
        "▁ပြည်ပ",
        -9.560897416423806
      ],
      [
        "တုန်း",
        -9.560902184309562
      ],
      [
        "▁16",
        -9.561144182810942
      ],
      [
        "▁နှစ်ခု",
        -9.561837216657075
      ],
      [
        "ဘာသာစကား",
        -9.562996314970711
      ],
      [
        "▁အလုပ်အကိုင်",
        -9.564300587879
      ],
      [
        "ငါး",
        -9.564958159946256
      ],
      [
        "▁တိုက်တွန်း",
        -9.565103682363546
      ],
      [
        "စျေးကွက်",
        -9.565984134169124
      ],
      [
        "လောက",
        -9.566007532717482
      ],
      [
        "▁မြို့တော်",
        -9.566160926293465
      ],
      [
        "▁နိုင်",
        -9.56633216381168
      ],
      [
        "ထောက်ပံ့",
        -9.567335873392423
      ],
      [
        "▁ခန့်",
        -9.567401149170388
      ],
      [
        "ကူး",
        -9.567542005314916
      ],
      [
        "ပြောပြ",
        -9.568274692099553
      ],
      [
        "ပြသ",
        -9.568721667228306
      ],
      [
        "▁တွေ့ရ",
        -9.569698020559446
      ],
      [
        "ry",
        -9.571202822725727
      ],
      [
        "ဘယ်လို",
        -9.571561832489301
      ],
      [
        "ငါ",
        -9.571646135956538
      ],
      [
        "▁နှစ်အရွယ်",
        -9.571823614823241
      ],
      [
        "အမျိုးမျိုး",
        -9.572697071897842
      ],
      [
        "▁နည်းလမ်း",
        -9.572843724925892
      ],
      [
        "U",
        -9.572962910165183
      ],
      [
        "▁တခု",
        -9.5737159969666
      ],
      [
        "▁နိုင်ငံသား",
        -9.574165664329957
      ],
      [
        "ရိ",
        -9.574752692498318
      ],
      [
        "အလုပ်လုပ်",
        -9.575256444218244
      ],
      [
        "ရင်တော့",
        -9.576060022977792
      ],
      [
        "ကင်း",
        -9.576871887346115
      ],
      [
        "▁သဘော",
        -9.577609257387023
      ],
      [
        "ch",
        -9.57770088312564
      ],
      [
        "▁ကင်မရာ",
        -9.579063514409643
      ],
      [
        "ဘေး",
        -9.580403751357665
      ],
      [
        "ထည့်",
        -9.580864804724744
      ],
      [
        "▁ဥပမာ",
        -9.581600734680773
      ],
      [
        "▁ဒါရိုက်တာ",
        -9.581772248710886
      ],
      [
        "▁Huawei",
        -9.5821560855032
      ],
      [
        "▁ဘယ်လောက်",
        -9.58241601950618
      ],
      [
        "ကျွန်း",
        -9.582626678314288
      ],
      [
        "ခ်",
        -9.582855367689609
      ],
      [
        "▁14",
        -9.583462267663023
      ],
      [
        "လစ်",
        -9.58447608206349
      ],
      [
        "one",
        -9.584519184466624
      ],
      [
        "ဖြစ်၏။",
        -9.584794387705212
      ],
      [
        "▁မှတ်ပုံတင်",
        -9.58496678008907
      ],
      [
        "▁ချမှတ်",
        -9.585403485232895
      ],
      [
        "▁လုံးဝ",
        -9.586357698091168
      ],
      [
        "▁Q",
        -9.586734846590204
      ],
      [
        "ရဖို့",
        -9.586798090548559
      ],
      [
        "▁ကချင်",
        -9.586805848985575
      ],
      [
        "▁15",
        -9.587219331249793
      ],
      [
        "ေသာ",
        -9.588135424651838
      ],
      [
        "▁နေ့စဉ်",
        -9.588311961314634
      ],
      [
        "▁တစ်ယောက်",
        -9.58837203447843
      ],
      [
        "သကဲ့သို့",
        -9.589147474410343
      ],
      [
        "▁နိုင်ငံခြားရေး",
        -9.589450369948388
      ],
      [
        "ရမယ့်",
        -9.589715792747773
      ],
      [
        "ဝတ်",
        -9.589889378542246
      ],
      [
        "ကော်မရှင်",
        -9.590063923684042
      ],
      [
        "▁အဆင်ပြေ",
        -9.590265175308476
      ],
      [
        "သော်",
        -9.590917967809075
      ],
      [
        "▁အခွင့်အရေး",
        -9.590975563088605
      ],
      [
        "ထိုင်",
        -9.59114797235135
      ],
      [
        "ကွက်",
        -9.591206806189792
      ],
      [
        "▁တပ်",
        -9.592427320841583
      ],
      [
        "▁နောက်ပိုင်း",
        -9.593665057756542
      ],
      [
        "▁သင့်ကို",
        -9.595871132997162
      ],
      [
        "▁နေအိမ်",
        -9.596382470482112
      ],
      [
        "အခြား",
        -9.598195121186157
      ],
      [
        "▁ခရီးသွား",
        -9.598642447903043
      ],
      [
        "တာ၊",
        -9.601211976658389
      ],
      [
        "▁စဉ်းစား",
        -9.601227546652698
      ],
      [
        "သတ်မှတ်",
        -9.601342432007542
      ],
      [
        "▁စက်",
        -9.601802650258001
      ],
      [
        "▁၈။",
        -9.602037168793004
      ],
      [
        "သွေး",
        -9.602195169472605
      ],
      [
        "▁ေသာ",
        -9.602247681723945
      ],
      [
        "▁ပတ်ဝန်းကျင်",
        -9.60367067094872
      ],
      [
        "▁Media",
        -9.603929279110615
      ],
      [
        "▁မိုင်",
        -9.604286335911777
      ],
      [
        "ဟိ",
        -9.60460490957793
      ],
      [
        "▁Data",
        -9.606169467824483
      ],
      [
        "နောက်ဆုံး",
        -9.60673335127353
      ],
      [
        "▁ပြည်သူ့",
        -9.607136257265616
      ],
      [
        "ဖော်ပြ",
        -9.607182526033085
      ],
      [
        "▁ရောင်းချ",
        -9.607464740176006
      ],
      [
        "ရမယ်",
        -9.608567677866027
      ],
      [
        "j",
        -9.608938972928225
      ],
      [
        "▁နိုင်ငံခြား",
        -9.610087088025654
      ],
      [
        "မြတ်",
        -9.610597991750115
      ],
      [
        "▁မှတ်ချက်",
        -9.611641674141321
      ],
      [
        "▁တာဝန်",
        -9.612612914376834
      ],
      [
        "ပေ။",
        -9.612804305185595
      ],
      [
        "▁Website",
        -9.613831379319052
      ],
      [
        "▁နိုင်ဟံသာ",
        -9.613839065062642
      ],
      [
        "နေသည်။",
        -9.614103145287936
      ],
      [
        "ထင်",
        -9.614153571640898
      ],
      [
        "▁21",
        -9.614222096759244
      ],
      [
        "နည်းလမ်း",
        -9.614646585798035
      ],
      [
        "ဖြစ်ပါတယ်",
        -9.614815421664307
      ],
      [
        "ဦးဆောင်",
        -9.615411592443907
      ],
      [
        "▁အနုပညာ",
        -9.615437807406284
      ],
      [
        "အခြေခံ",
        -9.616033920508416
      ],
      [
        "တောင်းဆို",
        -9.616322196232282
      ],
      [
        "မည်။",
        -9.617525697823549
      ],
      [
        "▁၄၀",
        -9.61782093260317
      ],
      [
        "ထုတ်လုပ်မှု",
        -9.618626096800426
      ],
      [
        "နေရ",
        -9.61961430898505
      ],
      [
        "မှတ်",
        -9.619644242829043
      ],
      [
        "ment",
        -9.620538552080852
      ],
      [
        "▁Xiaom",
        -9.620594702022258
      ],
      [
        "လုပ်ဆောင်",
        -9.621198939508197
      ],
      [
        "▁သတင်းထောက်",
        -9.621514200465196
      ],
      [
        "▁ထိုသို့",
        -9.621944368140534
      ],
      [
        "ကွင်း",
        -9.62200360097965
      ],
      [
        "အရောင်",
        -9.622226831713423
      ],
      [
        "လွယ်",
        -9.622425378433341
      ],
      [
        "ပြောသည်။",
        -9.62275060783828
      ],
      [
        "▁ထို့ကြောင့်",
        -9.622836426333908
      ],
      [
        "အချက်",
        -9.623293956828672
      ],
      [
        "လက်မှတ်",
        -9.623594576545106
      ],
      [
        "ဆွေးနွေးပွဲ",
        -9.624362788061715
      ],
      [
        "▁အရေး",
        -9.624414910247168
      ],
      [
        "မု",
        -9.624461121029704
      ],
      [
        "▁တိုက်ပွဲ",
        -9.624545633758899
      ],
      [
        "▁မတ်",
        -9.625036925882824
      ],
      [
        "▁ဇာတ်ကား",
        -9.62590740779509
      ],
      [
        "▁ဦးကို",
        -9.627032460206694
      ],
      [
        "▁Blog",
        -9.627244395690639
      ],
      [
        "et",
        -9.627329622481595
      ],
      [
        "▁မှတ်",
        -9.627724437493605
      ],
      [
        "အို",
        -9.628702259772954
      ],
      [
        "င္",
        -9.629167398183805
      ],
      [
        "▁ကိုု",
        -9.630049836588043
      ],
      [
        "▁အောင်မြင်",
        -9.630107252492024
      ],
      [
        "▁ဖန်တီး",
        -9.630229761145234
      ],
      [
        "နေကြောင်း",
        -9.630424205450254
      ],
      [
        "▁2013",
        -9.630703483561545
      ],
      [
        "▁ယဉ်ကျေးမှု",
        -9.631873361431037
      ],
      [
        "ထားခြင်း",
        -9.632073932265563
      ],
      [
        "▁အထွေထွေ",
        -9.632813838190575
      ],
      [
        "တဲ့အတွက်",
        -9.633248786009272
      ],
      [
        "ပြည်သူ့လွှတ်တော်",
        -9.63356339179176
      ],
      [
        "0",
        -9.633647886991398
      ],
      [
        "ပေးပို့",
        -9.634548867119818
      ],
      [
        "လော",
        -9.634764428538736
      ],
      [
        "လေးကို",
        -9.635043771208474
      ],
      [
        "ဘယ်",
        -9.636663518894224
      ],
      [
        "ဓာတ်",
        -9.636758589936143
      ],
      [
        "▁မြင်",
        -9.637061976667475
      ],
      [
        "▁ဆိုရင်",
        -9.63784585871538
      ],
      [
        "တာနဲ့",
        -9.63797961949678
      ],
      [
        "တို့အား",
        -9.6390690072169
      ],
      [
        "▁စတဲ့",
        -9.639111842030031
      ],
      [
        "ခေါင်းဆောင်",
        -9.639887833293937
      ],
      [
        "▁သမီး",
        -9.64067474735204
      ],
      [
        "▁ဆေးဝါး",
        -9.64130586015413
      ],
      [
        "အေ",
        -9.641717161539633
      ],
      [
        "စေပါတယ်။",
        -9.641851099703006
      ],
      [
        "▁မသိ",
        -9.641903269401272
      ],
      [
        "ပြောဆို",
        -9.642611793754531
      ],
      [
        "နှင့်ပတ်သက်၍",
        -9.643200664533442
      ],
      [
        "ခုနှစ်",
        -9.643857088272066
      ],
      [
        "▁မော်ဒယ်",
        -9.644239909221156
      ],
      [
        "▁အပြင်",
        -9.644385160610224
      ],
      [
        "နိုင်အောင်",
        -9.644631112111163
      ],
      [
        "▁အခမ်းအနား",
        -9.645971748674375
      ],
      [
        "ကဏ္ဍ",
        -9.645980402383604
      ],
      [
        "ခဲ့ခြင်း",
        -9.646120471115385
      ],
      [
        "သက်",
        -9.64620743635722
      ],
      [
        "▁ဗဟို",
        -9.646528056268226
      ],
      [
        "လိုက်တဲ့",
        -9.646756856148539
      ],
      [
        "um",
        -9.647211391966575
      ],
      [
        "▁ဆု",
        -9.647485732962126
      ],
      [
        "st",
        -9.647792927270649
      ],
      [
        "▁ခရီး",
        -9.649961428765064
      ],
      [
        "များ,",
        -9.65007534078955
      ],
      [
        "ကောင်",
        -9.651422998566119
      ],
      [
        "ပေါ",
        -9.654646477836966
      ],
      [
        "▁ရွာ",
        -9.65533608427085
      ],
      [
        "▁BIG",
        -9.655829333470862
      ],
      [
        "Online",
        -9.655860452755634
      ],
      [
        "သင့်ပါတယ်။",
        -9.656742450692441
      ],
      [
        "ား",
        -9.657204029505252
      ],
      [
        "▁၂၀၁၂",
        -9.657793312251304
      ],
      [
        "မည်ဖြစ်သည်။",
        -9.658581829159246
      ],
      [
        "အထူး",
        -9.659128374756936
      ],
      [
        "▁ခေါင်း",
        -9.65930649584529
      ],
      [
        "ခါ",
        -9.659320512316935
      ],
      [
        "နေတယ်လို့",
        -9.659748681237591
      ],
      [
        "▁ထုတ်ကုန်များ",
        -9.661271302826655
      ],
      [
        "ညှိနှိုင်း",
        -9.661760878475622
      ],
      [
        "▁k",
        -9.66224361353116
      ],
      [
        "နိုင်ငံ၏",
        -9.662692281535238
      ],
      [
        "▁ကစား",
        -9.662865645841514
      ],
      [
        "နိုင်ငံတော်သမ္မတ",
        -9.663260035290563
      ],
      [
        "ံ။",
        -9.663917232464545
      ],
      [
        "▁အမြဲတမ်း",
        -9.66441431007101
      ],
      [
        "▁စစ်တပ်",
        -9.664843841873566
      ],
      [
        "အကြား",
        -9.665095054074413
      ],
      [
        "▁19",
        -9.666480069868868
      ],
      [
        "▁စာပေ",
        -9.667062175728315
      ],
      [
        "ဒ်",
        -9.667694558217526
      ],
      [
        "▁ဖွင့်လှစ်",
        -9.667952676569826
      ],
      [
        "▁Black",
        -9.668621354639878
      ],
      [
        "▁November",
        -9.668628582666749
      ],
      [
        "▁သောက်",
        -9.668851483717436
      ],
      [
        "လေ့",
        -9.668907342187033
      ],
      [
        "ပူးပေါင်း",
        -9.669606092530332
      ],
      [
        "▁မာ",
        -9.66992865562209
      ],
      [
        "▁ကာကွယ်",
        -9.67010481614384
      ],
      [
        "နိုင်ပါတယ်",
        -9.670579638087963
      ],
      [
        "▁By",
        -9.670765937880407
      ],
      [
        "▁ပြည်",
        -9.671405686092726
      ],
      [
        "ပြေး",
        -9.672360289940023
      ],
      [
        "ပိုး",
        -9.672564563722958
      ],
      [
        "ကန်",
        -9.673868525303345
      ],
      [
        "အိုး",
        -9.67397438723683
      ],
      [
        "ရေးဆွဲ",
        -9.674002428176166
      ],
      [
        "▁တတိယ",
        -9.67428918226079
      ],
      [
        "▁ပုံစံ",
        -9.674973132178001
      ],
      [
        "သုံးစွဲ",
        -9.676843492089077
      ],
      [
        "▁ထပ်",
        -9.677130703308949
      ],
      [
        "ဗားရှင်း",
        -9.677884699075069
      ],
      [
        "ရှိကြောင်း",
        -9.679476682202058
      ],
      [
        "န္",
        -9.679538478857257
      ],
      [
        "▁လုံး",
        -9.679804512475467
      ],
      [
        "၍၊",
        -9.679830618680938
      ],
      [
        "▁အစ",
        -9.680924119090186
      ],
      [
        "နှုန်းထားများ",
        -9.681539641586713
      ],
      [
        "/index.php",
        -9.681790318781692
      ],
      [
        "၁၀",
        -9.682132828110586
      ],
      [
        "၅)",
        -9.68289683406563
      ],
      [
        "ကြ၏။",
        -9.683590428739095
      ],
      [
        "စာမျက်နှာ",
        -9.683748935498212
      ],
      [
        "လိုင်း",
        -9.684122785271807
      ],
      [
        "မထားပါ",
        -9.684139648586736
      ],
      [
        "၃၀",
        -9.685338687221256
      ],
      [
        "”ဟု",
        -9.685699444583523
      ],
      [
        "▁မဟာ",
        -9.686027003952315
      ],
      [
        "အိပ်",
        -9.686252715120826
      ],
      [
        "လောင်း",
        -9.686566891360098
      ],
      [
        "ကံ",
        -9.687468727231254
      ],
      [
        "▁အရေးယူ",
        -9.687509002928547
      ],
      [
        "▁တိုက်ခိုက်မှု",
        -9.688443734842632
      ],
      [
        "▁ထင်",
        -9.688800399772703
      ],
      [
        "တက်တူးထိုး",
        -9.68976151521968
      ],
      [
        "▁25",
        -9.690485623891243
      ],
      [
        "လု",
        -9.690670378181798
      ],
      [
        "▁ထောင်",
        -9.691136694664792
      ],
      [
        "▁စက်ရုံ",
        -9.691865305105427
      ],
      [
        "မ်း",
        -9.691961279435649
      ],
      [
        "ထဲတွင်",
        -9.692016469175693
      ],
      [
        "...။",
        -9.692799383296043
      ],
      [
        "▁ဝန်ဆောင်မှုများ",
        -9.692975945889021
      ],
      [
        "id",
        -9.693132691915338
      ],
      [
        "▁ရှာဖွေ",
        -9.693951315197198
      ],
      [
        "▁ဝိ",
        -9.69409426421148
      ],
      [
        "တံတား",
        -9.69479451624997
      ],
      [
        "ဂှ်",
        -9.694844801657151
      ],
      [
        "▁Posted",
        -9.695174781714883
      ],
      [
        "ဈေး",
        -9.695275688141681
      ],
      [
        "မေ",
        -9.695391357629507
      ],
      [
        "ပြီးသား",
        -9.695590363833638
      ],
      [
        "▁ေမ",
        -9.695799015054412
      ],
      [
        "▁အဲ့ဒီ",
        -9.696631380349572
      ],
      [
        "▁မူးယစ်ဆေးဝါး",
        -9.696787222610652
      ],
      [
        "ta",
        -9.697368400080524
      ],
      [
        "▁ဘာသာရေး",
        -9.69806455489735
      ],
      [
        "▁အောက်ပါအတိုင်း",
        -9.698478936529078
      ],
      [
        "ထားကြောင်း",
        -9.698766798184547
      ],
      [
        "နိုင်သည့်",
        -9.699090164508686
      ],
      [
        "▁ဆက်ဆံရေး",
        -9.699180614433264
      ],
      [
        "▁(၉)",
        -9.699318128469924
      ],
      [
        "▁၎င်းက",
        -9.699364288446409
      ],
      [
        "▁ဆုံးဖြတ်",
        -9.70044909085556
      ],
      [
        "▁slot",
        -9.701484353911521
      ],
      [
        "▁ဝယ်ယူ",
        -9.702118279560864
      ],
      [
        "▁သမိုင်း",
        -9.703971021681955
      ],
      [
        "လေ့ရှိ",
        -9.704344455104229
      ],
      [
        "မြစ်",
        -9.705288200219517
      ],
      [
        "tic",
        -9.706373876085284
      ],
      [
        "▁ဂိမ်း",
        -9.706384305196233
      ],
      [
        "ကုန်ကျစရိတ်",
        -9.706496605702949
      ],
      [
        "▁ဘာသာပြန်",
        -9.70656807047412
      ],
      [
        "့စွယ်စုံကျမ်း",
        -9.708108294025674
      ],
      [
        "ခင်း",
        -9.708838198174373
      ],
      [
        "▁(1)",
        -9.709470143498315
      ],
      [
        "နက်",
        -9.709709835653815
      ],
      [
        "▁ဝါ",
        -9.709757869567499
      ],
      [
        "▁ထုတ်လုပ်",
        -9.710636290881954
      ],
      [
        "ိုက်",
        -9.710702598745481
      ],
      [
        "▁၃၅",
        -9.710969468872419
      ],
      [
        "ထူး",
        -9.711179242247336
      ],
      [
        "son",
        -9.71150535333771
      ],
      [
        "ပိ",
        -9.71262435762478
      ],
      [
        "▁အချစ်",
        -9.712909848919843
      ],
      [
        "▁ကင်ဆာ",
        -9.713090781333575
      ],
      [
        "▁လူတွေ",
        -9.713562389718398
      ],
      [
        "ရပ်ကွက်၊",
        -9.713663279863361
      ],
      [
        "ies",
        -9.713852784819569
      ],
      [
        "ညီ",
        -9.714145970974347
      ],
      [
        "ဟန်",
        -9.714641640280657
      ],
      [
        "to",
        -9.716636921272901
      ],
      [
        "▁ဆက်သွယ်ရေး",
        -9.71713385180801
      ],
      [
        "▁$",
        -9.717248824707847
      ],
      [
        "ပုဒ်မ",
        -9.718086713318591
      ],
      [
        "MP",
        -9.71814469181447
      ],
      [
        "ကိုင်",
        -9.718485609535978
      ],
      [
        "ရွေးကောက်ပွဲ",
        -9.718865514766058
      ],
      [
        "တစ်ခုကို",
        -9.718902351836027
      ],
      [
        "ကြတယ်။",
        -9.71972464388898
      ],
      [
        "လုပ်ကိုင်",
        -9.719878258265982
      ],
      [
        "ေး",
        -9.719903654176232
      ],
      [
        "ပြား",
        -9.7199909432125
      ],
      [
        "▁အဲ",
        -9.720081080605514
      ],
      [
        "(၁)",
        -9.72047466498412
      ],
      [
        "အဖွဲ့ချုပ်",
        -9.72059606061541
      ],
      [
        "ပျော်ရွင်",
        -9.721620347637696
      ],
      [
        "▁MPT",
        -9.721729410897407
      ],
      [
        "ကြေး",
        -9.72192398088572
      ],
      [
        "▁နယ်စပ်",
        -9.722109650263622
      ],
      [
        "▁စောင့်ကြည့်",
        -9.723386622661408
      ],
      [
        "▁သက်",
        -9.723968461856678
      ],
      [
        "▁အခုတော့",
        -9.724093244814505
      ],
      [
        "ြပီး",
        -9.724146827583446
      ],
      [
        "▁ဝန်ကြီးဌာန",
        -9.724984908081506
      ],
      [
        "▁ကျင်းပပြုလုပ်",
        -9.725511461736264
      ],
      [
        "အပြီး",
        -9.725612322050114
      ],
      [
        "သီ",
        -9.725730431959718
      ],
      [
        "အာမခံ",
        -9.726366296274577
      ],
      [
        "ရို",
        -9.72703353443943
      ],
      [
        "▁ဆွေးနွေးပွဲ",
        -9.727119525076624
      ],
      [
        "ကျပ်",
        -9.727482134708579
      ],
      [
        "ရှေ့",
        -9.727523226913316
      ],
      [
        "တ္",
        -9.72806722179497
      ],
      [
        "▁ဖြစ်ပွား",
        -9.728523421957354
      ],
      [
        "လက်ခံ",
        -9.72928740331209
      ],
      [
        "ဆိုသည်။",
        -9.729447884542097
      ],
      [
        "▁အစီရင်ခံစာ",
        -9.730185224675145
      ],
      [
        "သောက်",
        -9.7311991217572
      ],
      [
        "ဘာသာဖြင့်",
        -9.731594747961626
      ],
      [
        "ခဲ့သည်",
        -9.732602022160087
      ],
      [
        "တစ်ရပ်",
        -9.73266126189728
      ],
      [
        "▁New",
        -9.732923404831341
      ],
      [
        "▁PC",
        -9.733343923792244
      ],
      [
        "အနည်းငယ်",
        -9.733994503785752
      ],
      [
        "▁ထ",
        -9.734550565480902
      ],
      [
        "▁အလွယ်တကူ",
        -9.734712730774065
      ],
      [
        "နေတယ်",
        -9.734987771000474
      ],
      [
        "ဖွဲ့စည်း",
        -9.735190254493027
      ],
      [
        "ဒေါ်လာ",
        -9.735278576350876
      ],
      [
        "▁Software",
        -9.735319454954155
      ],
      [
        "▁Web",
        -9.735418338573865
      ],
      [
        "ပေးခြင်း",
        -9.735441301680734
      ],
      [
        "ရသည်။",
        -9.735623229918264
      ],
      [
        "▁အတွင်းရေးမှူး",
        -9.73619925940088
      ],
      [
        "▁ရက်နေ့မှာ",
        -9.736556137842705
      ],
      [
        "ရှည်",
        -9.736723112153413
      ],
      [
        "▁မိန်းကလေး",
        -9.737166124575834
      ],
      [
        "▁One",
        -9.737231608469624
      ],
      [
        "▁Credit:",
        -9.737330637629395
      ],
      [
        "နိုင်မယ့်",
        -9.73825150291104
      ],
      [
        "ပေမဲ့",
        -9.73896619565204
      ],
      [
        "▁တယ်လီနော",
        -9.739208079857981
      ],
      [
        "နိုင်သော",
        -9.739418516199482
      ],
      [
        "လည်",
        -9.740249126212925
      ],
      [
        "မြ",
        -9.740579555002592
      ],
      [
        "▁ပြသ",
        -9.741246576007047
      ],
      [
        "▁အုပ်စု",
        -9.74132836607362
      ],
      [
        "ရုပ်",
        -9.741525141020787
      ],
      [
        "▁နှစ်နိုင်ငံ",
        -9.74258590760897
      ],
      [
        "ပေးအပ်",
        -9.74279588670564
      ],
      [
        "▁ကျောင်းသား",
        -9.7433751703709
      ],
      [
        "အမှု",
        -9.74357301217862
      ],
      [
        "ရ။",
        -9.743672953445023
      ],
      [
        "▁ဟိုတယ်",
        -9.744253058085416
      ],
      [
        "▁Page",
        -9.74429438611703
      ],
      [
        "ဝင်ငွေ",
        -9.74446157417374
      ],
      [
        "▁ခံ",
        -9.74496274545077
      ],
      [
        "▁ထွက်ပြေး",
        -9.745026193450325
      ],
      [
        "ဒီမိုကရေစီ",
        -9.74540063274189
      ],
      [
        "▁ကြိုတင်",
        -9.74542467325825
      ],
      [
        "ဆိုရင်တော့",
        -9.746017072462784
      ],
      [
        "▁လုပ်ကိုင်",
        -9.746846767715494
      ],
      [
        "တောင်း",
        -9.747150749913526
      ],
      [
        "ကောက်",
        -9.747590131976303
      ],
      [
        "▁သံ",
        -9.747593732341134
      ],
      [
        "▁ဟို",
        -9.748509076520222
      ],
      [
        "ထိန်းသိမ်း",
        -9.749250559564189
      ],
      [
        "▁(ဂ)",
        -9.749344620878773
      ],
      [
        "အောင်မြင်",
        -9.749348723798624
      ],
      [
        "▁အန္တရာယ်",
        -9.749469271699247
      ],
      [
        "▁အြမင်",
        -9.749684619040165
      ],
      [
        "လိ",
        -9.749955565439983
      ],
      [
        "ရစ်",
        -9.750065858905849
      ],
      [
        "၂၀",
        -9.75014205074326
      ],
      [
        "အဆိုပါ",
        -9.751000236143934
      ],
      [
        "▁ရက်က",
        -9.75115936193834
      ],
      [
        "တော့ဘူး",
        -9.751926991884623
      ],
      [
        "man",
        -9.752170822904912
      ],
      [
        "ဝ်",
        -9.752334772764954
      ],
      [
        "▁Plus",
        -9.752724414012018
      ],
      [
        "▁စမတ်ဖုန်း",
        -9.752861072272115
      ],
      [
        "mm",
        -9.75396451445071
      ],
      [
        "နံ",
        -9.754176907245142
      ],
      [
        "ကိုယ်ပိုင်",
        -9.754575915414426
      ],
      [
        "နေပြီ",
        -9.755073431447755
      ],
      [
        "အပ်",
        -9.756182342344086
      ],
      [
        "▁အခွန်",
        -9.75648271207699
      ],
      [
        "▁ဆင်",
        -9.756838888268
      ],
      [
        "အခန်း",
        -9.756849177420268
      ],
      [
        "▁၀၉",
        -9.756987904001566
      ],
      [
        "လာပြီး",
        -9.757469415053908
      ],
      [
        "စပ်",
        -9.758602187384064
      ],
      [
        "▁ပင်လယ်",
        -9.760088266133753
      ],
      [
        "နု",
        -9.760867582294281
      ],
      [
        "▁မျက်နှာ",
        -9.761952917975826
      ],
      [
        "တိုက်ရိုက်",
        -9.762030134291473
      ],
      [
        "တည်ဆောက်",
        -9.763497267718641
      ],
      [
        "▁ဥ",
        -9.764072609932535
      ],
      [
        "သမီး",
        -9.764214234042385
      ],
      [
        "''",
        -9.765060749004473
      ],
      [
        "▁ပြီးတော့",
        -9.765605000969092
      ],
      [
        "ယံ",
        -9.765944786376316
      ],
      [
        "▁၉။",
        -9.767252389491418
      ],
      [
        "▁ဂီတ",
        -9.767419000256332
      ],
      [
        "▁အသား",
        -9.767450355473908
      ],
      [
        "▁မလေးရှား",
        -9.768384134533097
      ],
      [
        "နိုင်ငံရေး",
        -9.769434483293374
      ],
      [
        "▁Server",
        -9.7698643603913
      ],
      [
        "တဲ့သူ",
        -9.770095494087949
      ],
      [
        "▁ရှင်းလင်း",
        -9.770266746233595
      ],
      [
        "ရောင်",
        -9.770298367609731
      ],
      [
        "▁၎င်း၏",
        -9.770702900993651
      ],
      [
        "▁လာမယ့်",
        -9.771390109796723
      ],
      [
        "နိုင်ကြောင်း",
        -9.772367547159861
      ],
      [
        "▁ထိပ်တန်း",
        -9.772447217607377
      ],
      [
        "လာတာ",
        -9.77276787194534
      ],
      [
        "▁ရပ်",
        -9.773230786234048
      ],
      [
        "စိ",
        -9.774865570368222
      ],
      [
        "သူကို",
        -9.77532740093795
      ],
      [
        "▁video",
        -9.775909719411974
      ],
      [
        "▁နံပါတ်",
        -9.776689979406054
      ],
      [
        "▁ဆောင်",
        -9.77745992517605
      ],
      [
        "ချမ်းမြေ့ကြပါစေ",
        -9.777580330661038
      ],
      [
        "(အရှေ့ပိုင်း)",
        -9.777593798651237
      ],
      [
        "▁ပတ်သက်လို့",
        -9.779292204667438
      ],
      [
        "နေဆဲ",
        -9.779421869281009
      ],
      [
        "▁လိင်",
        -9.779641308218237
      ],
      [
        "ရတယ်။",
        -9.780756206518754
      ],
      [
        "သမိုင်း",
        -9.780973034107063
      ],
      [
        "▁ဓါတ်ပုံ",
        -9.781046571681252
      ],
      [
        "▁သတ်",
        -9.781607289651575
      ],
      [
        "▁ထိန်းသိမ်း",
        -9.781753415250567
      ],
      [
        "ြက",
        -9.783174582905637
      ],
      [
        "ထုတ်လွှင့်",
        -9.78377770639905
      ],
      [
        "▁ရုံး",
        -9.783861682961202
      ],
      [
        "▁Group",
        -9.784150001980015
      ],
      [
        "ေတာ့",
        -9.784332219201335
      ],
      [
        "▁အရောင်",
        -9.785054655428256
      ],
      [
        "မှန်",
        -9.78546950779137
      ],
      [
        "▁အခါ",
        -9.786242805365518
      ],
      [
        "▁Bur",
        -9.78804234075704
      ],
      [
        "ဆက်သွယ်",
        -9.78846703035001
      ],
      [
        "▁ဒီဇိုင်း",
        -9.788687904196447
      ],
      [
        "▁၂၀၁၀",
        -9.789049518331932
      ],
      [
        "'s",
        -9.790455393587385
      ],
      [
        "ရိုက်ကူး",
        -9.791005133953014
      ],
      [
        "▁တစ်နေ့",
        -9.791257750907548
      ],
      [
        "▁တောင်",
        -9.79145783195738
      ],
      [
        "▁အရှေ့",
        -9.79155917993398
      ],
      [
        "is",
        -9.791585960262188
      ],
      [
        "▁SIM",
        -9.791910507961122
      ],
      [
        "ရှိသည်",
        -9.791942351433729
      ],
      [
        "▁တူ",
        -9.79201856445421
      ],
      [
        "▁Display",
        -9.792090960610544
      ],
      [
        "▁နားလည်",
        -9.792240275017875
      ],
      [
        "▁ရောက်ရှိ",
        -9.79224156466777
      ],
      [
        "▁You",
        -9.792326132942623
      ],
      [
        "▁ရှေ့",
        -9.79249237387889
      ],
      [
        "▁လိုက်",
        -9.792727564996149
      ],
      [
        "လေ။",
        -9.792781144509151
      ],
      [
        "▁ဖွင့်",
        -9.79391601669061
      ],
      [
        "▁ရှမ်း",
        -9.79429575107659
      ],
      [
        "အမိန့်",
        -9.794359915983478
      ],
      [
        "ie",
        -9.794420700386942
      ],
      [
        "il",
        -9.794489594026857
      ],
      [
        "တာဝန်",
        -9.795440193027382
      ],
      [
        "ြဖစ်",
        -9.795626037780222
      ],
      [
        "များဖြင့်",
        -9.796545402563684
      ],
      [
        "ရန်အတွက်",
        -9.797007504523279
      ],
      [
        "▁ဧရာ",
        -9.797628676998855
      ],
      [
        "ပါသေးတယ်။",
        -9.798522028794377
      ],
      [
        "ဆိုက်",
        -9.799769731381925
      ],
      [
        "▁ကိစ္စ",
        -9.800065558647823
      ],
      [
        "စက်မှုလုပ်ငန်း",
        -9.800463372391423
      ],
      [
        "ကစားသမား",
        -9.80094100126798
      ],
      [
        "ေတွ",
        -9.801039876387577
      ],
      [
        "အသက်တာ",
        -9.801457754004467
      ],
      [
        "▁ပြောင်း",
        -9.80149968117405
      ],
      [
        "▁ဇ",
        -9.80154942026454
      ],
      [
        "ချီ",
        -9.801656982199827
      ],
      [
        "lo",
        -9.802085984654354
      ],
      [
        "▁c",
        -9.80239899308243
      ],
      [
        "ညို",
        -9.802979362482134
      ],
      [
        "▁ရက်တွင်",
        -9.803469200197668
      ],
      [
        "▁၆၀",
        -9.804023128121823
      ],
      [
        "၎င်း",
        -9.804692907050296
      ],
      [
        "▁ခရိုင်",
        -9.805046156038678
      ],
      [
        "▁ပြင်",
        -9.805222811642203
      ],
      [
        "▁အဆီ",
        -9.805315402216984
      ],
      [
        "▁ဘာသာ",
        -9.805635394063575
      ],
      [
        "▁ပိုက်ဆံ",
        -9.805911435294671
      ],
      [
        "mywiki",
        -9.806812462067867
      ],
      [
        "သွားမယ်လို့",
        -9.806967416073324
      ],
      [
        "▁လျှပ်စစ်",
        -9.80781117423452
      ],
      [
        "စာပေ",
        -9.808034798658419
      ],
      [
        "မွေး",
        -9.808758348306252
      ],
      [
        "▁အထိမ်းအမှတ်",
        -9.808980116613082
      ],
      [
        "ခံစား",
        -9.809681211887947
      ],
      [
        "▁ဆိုင်",
        -9.809689496766488
      ],
      [
        "▁Y",
        -9.810423915666078
      ],
      [
        "▁တိုက်",
        -9.81122825838029
      ],
      [
        "အထက်",
        -9.811804207798573
      ],
      [
        "▁အထူးသဖြင့်",
        -9.81201636628813
      ],
      [
        "မှာလဲ",
        -9.812022392423081
      ],
      [
        "အခါ",
        -9.81203270903901
      ],
      [
        "▁ခရီးစဉ်",
        -9.812144056676397
      ],
      [
        "ဖြစ်၍",
        -9.812234951985037
      ],
      [
        "ကြိမ်",
        -9.812362708551905
      ],
      [
        "▁အို",
        -9.812798109257592
      ],
      [
        "▁မူပိုင်ခွင့်",
        -9.813509007226813
      ],
      [
        "လုံ",
        -9.813673296190093
      ],
      [
        "▁သိပ်",
        -9.814767877949112
      ],
      [
        "မျက်နှာ",
        -9.814920832385084
      ],
      [
        "ကွာ",
        -9.814948896704852
      ],
      [
        "▁နေထိုင်",
        -9.815113940243112
      ],
      [
        "ရောင်းချ",
        -9.815247081195412
      ],
      [
        "ပိတ်",
        -9.815799375756942
      ],
      [
        "နှစ်ခု",
        -9.81607056480588
      ],
      [
        "▁ထည့်",
        -9.816328032848528
      ],
      [
        "▁ကချင်ပြည်နယ်",
        -9.816478110248866
      ],
      [
        "▁Off",
        -9.816893727957616
      ],
      [
        "ခိုင်း",
        -9.81703435609022
      ],
      [
        "စီမံကိန်း",
        -9.817391968264634
      ],
      [
        "ပြောပါတယ်။",
        -9.817698933596745
      ],
      [
        "ခရီးစဉ်",
        -9.8178294619606
      ],
      [
        "တွေ့ဆုံ",
        -9.818551696463778
      ],
      [
        "▁စျေး",
        -9.819129755356748
      ],
      [
        "မြို့တော်",
        -9.819860132188609
      ],
      [
        "အဓိက",
        -9.819934830042811
      ],
      [
        "▁Code",
        -9.821424333640449
      ],
      [
        "▁(ဃ)",
        -9.821729607385539
      ],
      [
        "▁တောင်ကိုရီးယား",
        -9.821826024321014
      ],
      [
        "▁တက်",
        -9.821976305781298
      ],
      [
        "▁တော",
        -9.822415822615913
      ],
      [
        "ပျက်",
        -9.822499866759427
      ],
      [
        "▁1.",
        -9.823277129896175
      ],
      [
        "▁လူသား",
        -9.82386876568654
      ],
      [
        "အားကစား",
        -9.824357461129022
      ],
      [
        "အကျိုး",
        -9.824514037496453
      ],
      [
        "▁အကျဉ်းသား",
        -9.82470424080979
      ],
      [
        "ty",
        -9.825015493546228
      ],
      [
        "2)",
        -9.825221629230661
      ],
      [
        "မှတဆင့်",
        -9.82543604834325
      ],
      [
        "၁၁",
        -9.825781027924146
      ],
      [
        "သင့်တဲ့",
        -9.827103427642939
      ],
      [
        "▁အိန္ဒိယနိုင်ငံ",
        -9.827624721645691
      ],
      [
        "ယှဉ်ပြိုင်",
        -9.827751099349737
      ],
      [
        "ကွန်ပျူတာ",
        -9.827997770512365
      ],
      [
        "အရေအတွက်",
        -9.828056116335727
      ],
      [
        "▁ကျေးရွာ",
        -9.828613525961593
      ],
      [
        "EP",
        -9.82873759992026
      ],
      [
        "..!",
        -9.8288097915549
      ],
      [
        "ဥ",
        -9.829307497492605
      ],
      [
        "အိတ်",
        -9.829715571545652
      ],
      [
        "ော",
        -9.830562752185257
      ],
      [
        "▁အသင်းတော်",
        -9.830678041599349
      ],
      [
        "ထည့်သွင်း",
        -9.830700422385428
      ],
      [
        "လွှာ",
        -9.831269167220821
      ],
      [
        "▁ဖြေ",
        -9.832293198941507
      ],
      [
        "နယ်မြေ",
        -9.832938454621146
      ],
      [
        "▁ဧ",
        -9.833151542666764
      ],
      [
        "na",
        -9.834299011335762
      ],
      [
        "▁နည်းနည်း",
        -9.834361335064617
      ],
      [
        "ကာကွယ်",
        -9.834606788219768
      ],
      [
        "▁Credit",
        -9.834616995570732
      ],
      [
        "▁ချက်ချင်း",
        -9.834628547447196
      ],
      [
        "၁၉",
        -9.834978904590983
      ],
      [
        "▁ယေရှု",
        -9.835694088473248
      ],
      [
        "ရံ",
        -9.836180410621928
      ],
      [
        "▁သုံးသပ်",
        -9.836716412495019
      ],
      [
        "ထိန်းသိမ်းရေး",
        -9.83679730397364
      ],
      [
        "ဝေါဟာရ",
        -9.836884766829215
      ],
      [
        "ေတ",
        -9.83691596408893
      ],
      [
        "▁Key",
        -9.836995415386557
      ],
      [
        "▁ဒ",
        -9.837628207841036
      ],
      [
        "လံ",
        -9.837765143216938
      ],
      [
        "ခြေ",
        -9.83777418278152
      ],
      [
        "ထုတ်လုပ်သူ",
        -9.838152366280323
      ],
      [
        "တယ်ဆိုတာ",
        -9.838500361469912
      ],
      [
        "ချေ",
        -9.839084763988847
      ],
      [
        ".html",
        -9.839383041996879
      ],
      [
        "ယခု",
        -9.839411022211001
      ],
      [
        "▁အကြောင်းရင်း",
        -9.839591857780594
      ],
      [
        "▁ဘာမှ",
        -9.83978094588682
      ],
      [
        "နှစ်ဦး",
        -9.839855204862813
      ],
      [
        "အမှတ်စဉ်",
        -9.840324386386934
      ],
      [
        "ချိန်မှာ",
        -9.840913852509455
      ],
      [
        "နော်",
        -9.841826872719086
      ],
      [
        "▁သတင်းအချက်အလက်",
        -9.842393352288811
      ],
      [
        "ကြည့်ပါ။",
        -9.842503553259274
      ],
      [
        "▁သီချင်း",
        -9.842753114043544
      ],
      [
        "▁လေ",
        -9.84332716456597
      ],
      [
        "တာဟာ",
        -9.844911501594908
      ],
      [
        "မြန်မာနိုင်ငံ",
        -9.845282131693747
      ],
      [
        "ခိုင်",
        -9.84684520723249
      ],
      [
        "▁မိခင်",
        -9.84746669986754
      ],
      [
        "သွားတာ",
        -9.848645613249008
      ],
      [
        "▁ဖွဲ့",
        -9.849211766538811
      ],
      [
        "▁ရည်ရွယ်ချက်",
        -9.849288132464903
      ],
      [
        "ထဲသို့",
        -9.849447119246278
      ],
      [
        "မတ်",
        -9.849727139978103
      ],
      [
        "ဖြစ်သူ",
        -9.849792656832232
      ],
      [
        "နော်။",
        -9.850632388642499
      ],
      [
        "လေယာဉ်",
        -9.850875284455755
      ],
      [
        "စောင့်",
        -9.850901280202454
      ],
      [
        "▁မွန်ပြည်သစ်ပါတီ",
        -9.85093038098832
      ],
      [
        "အကြောင်းအရာ",
        -9.851425281772716
      ],
      [
        "▁အကောင်အထည်ဖော်",
        -9.851538833530132
      ],
      [
        "▁စည်းကြပ်နှစ်",
        -9.85224446914599
      ],
      [
        "ပြင်ဆင်",
        -9.852878900234916
      ],
      [
        "▁ပြည့်",
        -9.85329848265366
      ],
      [
        "တဲ့အခါမှာ",
        -9.853377956074146
      ],
      [
        "▁Dr.",
        -9.853385391126785
      ],
      [
        "နိုင်ပြီး",
        -9.85341910093439
      ],
      [
        "co",
        -9.854484461590232
      ],
      [
        "▁ထိန်းချုပ်",
        -9.854743201711981
      ],
      [
        "▁လက်နက်ကိုင်",
        -9.855851224012032
      ],
      [
        "▁ကြည့်ရန်",
        -9.856405965119286
      ],
      [
        "ပြောင်းလဲ",
        -9.85659918319287
      ],
      [
        "ပါပဲ",
        -9.856850077267323
      ],
      [
        "nd",
        -9.858052309880748
      ],
      [
        "18",
        -9.85901165741266
      ],
      [
        "တဲ",
        -9.85902531053613
      ],
      [
        "▁သူငယ်ချင်း",
        -9.859575171569194
      ],
      [
        "▁ခုနှစ်က",
        -9.859577106240685
      ],
      [
        "လိုက်ရ",
        -9.859796115587226
      ],
      [
        "▁မနက်",
        -9.860264356351465
      ],
      [
        "ရွက်",
        -9.862743242032005
      ],
      [
        "▁'",
        -9.863015954375648
      ],
      [
        "▁ရိုက်ကူး",
        -9.863179087027902
      ],
      [
        "▁22",
        -9.863423777392615
      ],
      [
        "၂)",
        -9.86434192121177
      ],
      [
        "ဂီတ",
        -9.864743132720054
      ],
      [
        "အရွယ်",
        -9.864816566952827
      ],
      [
        "ဘီ",
        -9.865422498781289
      ],
      [
        "▁စာရင်း",
        -9.865449694266367
      ],
      [
        "▁ဒုတိယသမ္မတ",
        -9.865829551835272
      ],
      [
        "▁မိုးလေဝသ",
        -9.865975634142542
      ],
      [
        "▁‘‘",
        -9.866115285038726
      ],
      [
        "ကွဲပြားမှု",
        -9.866596345352153
      ],
      [
        "▁ပမာဏ",
        -9.867187872366376
      ],
      [
        "▁စိုက်ပျိုး",
        -9.8674409848891
      ],
      [
        "ခြင်းဖြစ်သည်။",
        -9.86744577846288
      ],
      [
        "ဖြစ်အောင်",
        -9.867454645517878
      ],
      [
        "႕",
        -9.867480065773517
      ],
      [
        "▁with",
        -9.867851715590005
      ],
      [
        "လွင်",
        -9.86823903130103
      ],
      [
        "li",
        -9.868612542212464
      ],
      [
        "▁စိုက်ပျိုးရေး",
        -9.869516194195072
      ],
      [
        "Z",
        -9.86976389908514
      ],
      [
        "မန်",
        -9.870221302207309
      ],
      [
        "ကလ",
        -9.870252551468877
      ],
      [
        "▁အိပ်",
        -9.870456582410425
      ],
      [
        "မြောက်ပိုင်း",
        -9.870602535211415
      ],
      [
        "▁de",
        -9.871386194678777
      ],
      [
        "▁(သို့မဟုတ်)",
        -9.87147745020023
      ],
      [
        "ပေါင်းများစွာ",
        -9.871579997840282
      ],
      [
        "▁အာဆီယံ",
        -9.872508801554513
      ],
      [
        "ခြင်းဖြစ်ကြောင်း",
        -9.873593206053382
      ],
      [
        "ပါဘူး",
        -9.87383155325248
      ],
      [
        "▁အများအပြား",
        -9.874182606337094
      ],
      [
        "ကူ",
        -9.874977395077234
      ],
      [
        "▁Font",
        -9.875063209650008
      ],
      [
        "▁စမ်းသပ်",
        -9.875664304138686
      ],
      [
        "▁သေဆုံးသူ",
        -9.875696150723265
      ],
      [
        "▁ခင်ဗျား",
        -9.876302803446833
      ],
      [
        "စီမံခန့်ခွဲမှု",
        -9.876437484921647
      ],
      [
        "ိုင်",
        -9.876618269426531
      ],
      [
        "ol",
        -9.87678713243126
      ],
      [
        "▁ကျွန်တော့်",
        -9.877498565899392
      ],
      [
        "လှုပ်ရှားမှု",
        -9.87772077078193
      ],
      [
        "နီး",
        -9.87777039351528
      ],
      [
        "အရည်အသွေး",
        -9.8785920506099
      ],
      [
        "▁တဦး",
        -9.879097916476752
      ],
      [
        "အဖွဲ့အစည်းများ",
        -9.87968195071528
      ],
      [
        "▁ဈေး",
        -9.879741687628496
      ],
      [
        "▁မကွေး",
        -9.87992415934081
      ],
      [
        "▁17",
        -9.88008104056891
      ],
      [
        "လိုက်သည်။",
        -9.881913824307706
      ],
      [
        "ပြီးမှ",
        -9.882304789904715
      ],
      [
        "▁အရေးကြီး",
        -9.882967355655634
      ],
      [
        "▁အတိုင်ပင်ခံ",
        -9.8833211262391
      ],
      [
        "ဂွမ်မော်",
        -9.883736237724644
      ],
      [
        "ဝန်ကြီးဌာန၊",
        -9.885040177030419
      ],
      [
        "ဆောင်ရွက်မှု",
        -9.88516609037927
      ],
      [
        "စိန်",
        -9.885414245121172
      ],
      [
        "▁ပတ်သက်သော",
        -9.885433330257978
      ],
      [
        "ကျန်းမာရေး",
        -9.887056008125406
      ],
      [
        "▁သင်္ဘော",
        -9.88731964830629
      ],
      [
        "▁မဟုတ်ပါဘူး။",
        -9.887430326334494
      ],
      [
        "▁ကုန်",
        -9.887770964818747
      ],
      [
        "ခြင်းကြောင့်",
        -9.88788813663089
      ],
      [
        "မင်",
        -9.888480962316795
      ],
      [
        "▁သုံးစွဲ",
        -9.888565619096667
      ],
      [
        "▁အနည်းငယ်",
        -9.888655902695676
      ],
      [
        "▁တင်သွင်း",
        -9.888777032235339
      ],
      [
        "ve",
        -9.889436890560582
      ],
      [
        "▁အာမခံ",
        -9.890806702344687
      ],
      [
        "အပြည့်အဝ",
        -9.891221801838993
      ],
      [
        "ကျွန်တော်",
        -9.891448657385371
      ],
      [
        "as",
        -9.891750383686539
      ],
      [
        "▁ရိုက်",
        -9.892056005843944
      ],
      [
        "▁အနောက်",
        -9.893520725585784
      ],
      [
        "▁Co",
        -9.894388621574295
      ],
      [
        "ပ္",
        -9.895275684489222
      ],
      [
        "60",
        -9.895833796009892
      ],
      [
        "ကျောက်",
        -9.896402513024864
      ],
      [
        "me",
        -9.896835003008917
      ],
      [
        "▁ကရင်ပြည်နယ်",
        -9.897034159235172
      ],
      [
        "▁Tool",
        -9.897615339540694
      ],
      [
        "ပေးပြီး",
        -9.897755447077305
      ],
      [
        "▁သာမန်",
        -9.897999337850917
      ],
      [
        "ပီး",
        -9.898411271278228
      ],
      [
        "ခြောက်",
        -9.898424890630965
      ],
      [
        "ေတာ့်",
        -9.898725103609623
      ],
      [
        "▁မူလ",
        -9.899378297579581
      ],
      [
        "အနန္တတန်ခိုးရှင်",
        -9.899893784436522
      ],
      [
        "ပြဿနာ",
        -9.900788160172572
      ],
      [
        "▁ပြီးခဲ့သည့်",
        -9.900789599869002
      ],
      [
        "မှန်း",
        -9.901378816491665
      ],
      [
        "ပါသလဲ",
        -9.901540917841334
      ],
      [
        "ဖြစ်နေ",
        -9.902451378489134
      ],
      [
        "▁အစ္စရေး",
        -9.902584288688209
      ],
      [
        "သောင်း",
        -9.903569927852393
      ],
      [
        "▁နာမည်ကြီး",
        -9.903625472423137
      ],
      [
        "▁အတိုက်အခံ",
        -9.904040855737387
      ],
      [
        "▁အီရန်",
        -9.904747102390747
      ],
      [
        "▁တစ်နှစ်",
        -9.905669185385001
      ],
      [
        "တချို့",
        -9.90620520733226
      ],
      [
        "▁ထောက်ခံ",
        -9.906451203697934
      ],
      [
        "▁၎င်းတို့",
        -9.906533411650425
      ],
      [
        "ဇော်",
        -9.9083591948108
      ],
      [
        "▁ကြ",
        -9.908413249930998
      ],
      [
        "▁ဒါကို",
        -9.908937548164504
      ],
      [
        "▁ပေါ်မှာ",
        -9.909377780951859
      ],
      [
        "▁၁ဝ",
        -9.9097883366097
      ],
      [
        "မီဒီယာ",
        -9.910133473746239
      ],
      [
        "ဝန်ထမ်း",
        -9.910386985694341
      ],
      [
        "ပါလိမ့်မယ်",
        -9.910501620585185
      ],
      [
        "ca",
        -9.910661993758417
      ],
      [
        "အများကြီး",
        -9.910857843286081
      ],
      [
        "ဆိုပြီး",
        -9.911897885303688
      ],
      [
        "ဂ်",
        -9.912240979493854
      ],
      [
        "▁နိုင်ငံမှာ",
        -9.913061825953164
      ],
      [
        "ေရး",
        -9.913112895281046
      ],
      [
        "▁ဒုက္ခသည်",
        -9.913532485088368
      ],
      [
        "ဖြစ်ကြသည်။",
        -9.913546603747697
      ],
      [
        "▁download",
        -9.913833298222173
      ],
      [
        "ကျွန်တော်တို့ကို",
        -9.914035699459863
      ],
      [
        "▁အကြံပေး",
        -9.914280293444545
      ],
      [
        "▁ဝန်ထမ်း",
        -9.914522544332145
      ],
      [
        "နိုင်ရေး",
        -9.914732839371819
      ],
      [
        "ဖြစ်သည်",
        -9.91495056008931
      ],
      [
        "▁you",
        -9.915799442330087
      ],
      [
        "▁Storage",
        -9.916258717437692
      ],
      [
        "onverter",
        -9.916259863574275
      ],
      [
        "(KI",
        -9.91642476666946
      ],
      [
        "▁ကြားဖြတ်",
        -9.917111560535123
      ],
      [
        "အပိုင်း",
        -9.917201752421972
      ],
      [
        "လာပါတယ်။",
        -9.917835308723038
      ],
      [
        "၁)",
        -9.918824479438534
      ],
      [
        "▁ပဋိပက္ခ",
        -9.919548812804546
      ],
      [
        "ယောက်",
        -9.919857506724806
      ],
      [
        "▁ဂရိ",
        -9.920223336206277
      ],
      [
        "သိမ်း",
        -9.920397648631681
      ],
      [
        "တယောက်",
        -9.92069504303167
      ],
      [
        "▁၈၈",
        -9.921470106239644
      ],
      [
        "▁သိရှိရ",
        -9.923298515659184
      ],
      [
        "▁ဓာတ်",
        -9.923439914180136
      ],
      [
        "သွင်း",
        -9.923592299084621
      ],
      [
        "တွေထဲမှာ",
        -9.923764576902224
      ],
      [
        "▁ဝယ်",
        -9.925402615506076
      ],
      [
        "▁ထောင်ဒဏ်",
        -9.92653865443322
      ],
      [
        "ဝန်",
        -9.92668594251873
      ],
      [
        "▁တရားမဝင်",
        -9.927054490960415
      ],
      [
        "▁ဗီယက်နမ်",
        -9.927902156813282
      ],
      [
        "▁စသည့်",
        -9.929205381652526
      ],
      [
        "လံုး",
        -9.929502481860021
      ],
      [
        "▁အစာ",
        -9.930897512981073
      ],
      [
        "ပြီ။",
        -9.931162898127333
      ],
      [
        "ရေးသား",
        -9.932034059858891
      ],
      [
        "up",
        -9.932163968838793
      ],
      [
        "▁Free",
        -9.932753211229649
      ],
      [
        "ရာသီ",
        -9.932816780762977
      ],
      [
        "▁ဒီကနေ့",
        -9.93305915337642
      ],
      [
        "▁ယူဆ",
        -9.933364292552046
      ],
      [
        "ခတ်",
        -9.93398005499439
      ],
      [
        "သွားပြီး",
        -9.93414392296584
      ],
      [
        "▁ခန့်မှန်း",
        -9.935188565738533
      ],
      [
        "▁ပန်း",
        -9.93540422948767
      ],
      [
        "▁နာမည်",
        -9.935677577929187
      ],
      [
        "မှား",
        -9.936119430056667
      ],
      [
        "မိုင်",
        -9.936373074304774
      ],
      [
        "နေတယ်။",
        -9.936381633280414
      ],
      [
        "ဖြစ်စဉ်",
        -9.936435275715805
      ],
      [
        "ဖောက်သည်",
        -9.93648585039631
      ],
      [
        "▁ဒု",
        -9.93715011290039
      ],
      [
        "▁လက်တွေ့",
        -9.9371645963633
      ],
      [
        "ဃ",
        -9.93774389932809
      ],
      [
        "အစား",
        -9.939711415629986
      ],
      [
        "ပြုပြင်",
        -9.940955745094705
      ],
      [
        "▁at",
        -9.941228455151574
      ],
      [
        "▁De",
        -9.941378258108669
      ],
      [
        "▁p",
        -9.94149260153901
      ],
      [
        "▁နယ်မြေ",
        -9.94175888510008
      ],
      [
        "▁ဌာန",
        -9.941769880204761
      ],
      [
        "▁နိုင်ငံတော်၏",
        -9.9421516207922
      ],
      [
        "သတင်းအချက်အလက်",
        -9.943400277516453
      ],
      [
        "▁အလုပ်လုပ်",
        -9.943404566195184
      ],
      [
        "ရှာဖွေ",
        -9.943857425187474
      ],
      [
        "အစိတ်အပိုင်းများ",
        -9.944043901834565
      ],
      [
        "၃)",
        -9.94406680889989
      ],
      [
        "▁is",
        -9.9441433527296
      ],
      [
        "ရသော",
        -9.945089658965824
      ],
      [
        "▁သူတို့ကို",
        -9.945179434956424
      ],
      [
        "▁re",
        -9.945928891465948
      ],
      [
        "ရမည့်",
        -9.946063696350254
      ],
      [
        "တိုင်းဒေသကြီး၊",
        -9.94612277970763
      ],
      [
        "လွှတ်",
        -9.94613549519198
      ],
      [
        "▁ချ",
        -9.946303489608464
      ],
      [
        "ွ",
        -9.94658733400654
      ],
      [
        "▁လူတိုင်း",
        -9.947155726353184
      ],
      [
        "ဂါ",
        -9.947884867669227
      ],
      [
        "▁ဘယ်သူ",
        -9.948005253155781
      ],
      [
        "ချင်ရင်",
        -9.949691852635492
      ],
      [
        "▁RAM",
        -9.949917895215146
      ],
      [
        "▁comment",
        -9.950292121765266
      ],
      [
        "အတွင်းမှာ",
        -9.950639307441538
      ],
      [
        "စုစုပေါင်း",
        -9.951592326687695
      ],
      [
        "မှတ်တမ်း",
        -9.951635910262265
      ],
      [
        "▁Live",
        -9.95168165313568
      ],
      [
        "▁An",
        -9.951682280583043
      ],
      [
        "ပြါ",
        -9.951764813740283
      ],
      [
        "▁ဆန်",
        -9.952074491755283
      ],
      [
        "ထဲကို",
        -9.952502374638366
      ],
      [
        "အဖွဲ့ဝင်",
        -9.952688221362182
      ],
      [
        "agon",
        -9.952856615786299
      ],
      [
        "▁Next",
        -9.9529902730308
      ],
      [
        "၉)",
        -9.953080974639363
      ],
      [
        "အမေရိကန်",
        -9.953669951221816
      ],
      [
        "▁>>",
        -9.953976697099154
      ],
      [
        "▁ဈေးနှုန်း",
        -9.954017823035784
      ],
      [
        "ကြော",
        -9.954157922731948
      ],
      [
        "အတူ",
        -9.954174578551156
      ],
      [
        "▁Ltd",
        -9.954235473879844
      ],
      [
        "▁မြောက်ပိုင်း",
        -9.954258753513619
      ],
      [
        "▁လုပ်ဆောင်ချက်",
        -9.95502323622812
      ],
      [
        "▁သူတို့က",
        -9.955997246538963
      ],
      [
        "ဿ",
        -9.956005441583377
      ],
      [
        "ကြိမ်မြောက်",
        -9.95618090727687
      ],
      [
        "▁အရင်က",
        -9.956286563601127
      ],
      [
        "ပါပြီ",
        -9.956652082974454
      ],
      [
        "လိုက်တယ်။",
        -9.957120454146164
      ],
      [
        "▁ထို့အပြင်",
        -9.957290143502801
      ],
      [
        "ဖွင့်လှစ်",
        -9.957341775277902
      ],
      [
        "▁Phone",
        -9.957604879939352
      ],
      [
        "ဘယ်လောက်",
        -9.9579671016525
      ],
      [
        "able",
        -9.958010443267645
      ],
      [
        "ဖြေ",
        -9.958090348143795
      ],
      [
        "သူ့",
        -9.95825572211946
      ],
      [
        ".....",
        -9.95832401303031
      ],
      [
        "▁ကာကွယ်ရေး",
        -9.958446132683168
      ],
      [
        "စင်",
        -9.958640386631075
      ],
      [
        "ကြတဲ့",
        -9.959076180712287
      ],
      [
        "လိပ်",
        -9.959383607364133
      ],
      [
        "▁အရွယ်",
        -9.959694136742721
      ],
      [
        "▁ခုနှစ်မှာ",
        -9.959808695067727
      ],
      [
        "စမ်း",
        -9.962000697520727
      ],
      [
        "▁မိဘ",
        -9.963171014850353
      ],
      [
        "▁၇၀",
        -9.96340972966663
      ],
      [
        "▁အမြင်",
        -9.963510898238187
      ],
      [
        "တင်း",
        -9.965542574092517
      ],
      [
        "လတ်",
        -9.965761263279521
      ],
      [
        "▁ြဖစ်",
        -9.965842685177838
      ],
      [
        "▁ထုတ်",
        -9.96622825441875
      ],
      [
        "▁ပုဂ္ဂလိက",
        -9.966463334190061
      ],
      [
        "▁၁၀။",
        -9.96648262465417
      ],
      [
        "ခုံ",
        -9.96653318270565
      ],
      [
        "ကျောင်းသား",
        -9.966744981473267
      ],
      [
        "▁မော်လမြိုင်",
        -9.966906137554584
      ],
      [
        "▁hack",
        -9.967120252067854
      ],
      [
        "▁Myanmarload",
        -9.96727496047287
      ],
      [
        "ကင်မရာ",
        -9.96762757377627
      ],
      [
        "ရှိတယ်။",
        -9.968600440319848
      ],
      [
        "အနုပညာ",
        -9.968659343461592
      ],
      [
        "▁ဘင်္ဂလားဒေ့ရှ်",
        -9.968871540934401
      ],
      [
        "ge",
        -9.969089943979402
      ],
      [
        "တိုက်ခိုက်",
        -9.969180237459891
      ],
      [
        "▁ပေးပို့",
        -9.969440397315012
      ],
      [
        "▁ဒေါသ",
        -9.96970543944725
      ],
      [
        "▁ဘဏ္ဍာရေး",
        -9.969756999860216
      ],
      [
        "ur",
        -9.969851393771238
      ],
      [
        "ပိုက်",
        -9.969973092125112
      ],
      [
        "▁ဖြစ်နေ",
        -9.9700947660969
      ],
      [
        "▁...!",
        -9.970489759702478
      ],
      [
        "▁Bo",
        -9.971485795526544
      ],
      [
        "▁ဒေါ်အောင်ဆန်း",
        -9.972271591608733
      ],
      [
        "▁သဘောထား",
        -9.972660057270454
      ],
      [
        "ကြတာ",
        -9.97292045932032
      ],
      [
        "▁မြန်မာပြည်",
        -9.973336211829391
      ],
      [
        "မက်",
        -9.97339016962411
      ],
      [
        "ကောင်စီ",
        -9.973884985107567
      ],
      [
        "ံ၊",
        -9.974269156800457
      ],
      [
        "ချော",
        -9.974417638877084
      ],
      [
        "▁ယှဉ်ပြိုင်",
        -9.974542387395276
      ],
      [
        "▁စွမ်းအင်",
        -9.97466746915281
      ],
      [
        "▁စိတ်ကြိုက်",
        -9.974842770791504
      ],
      [
        "▁နှစ်ပေါင်း",
        -9.97560313525317
      ],
      [
        "ဖို",
        -9.976286748577552
      ],
      [
        "အတွေ့အကြုံ",
        -9.976949566816792
      ],
      [
        "ive",
        -9.97695359748703
      ],
      [
        "▁ရှင်",
        -9.976979517202865
      ],
      [
        "▁ညီလာခံ",
        -9.978031758480721
      ],
      [
        "▁Air",
        -9.978122024125211
      ],
      [
        "▁စာကြည့်တိုက်",
        -9.978259681794084
      ],
      [
        "ခွက်",
        -9.978462881692277
      ],
      [
        "၂၅",
        -9.978470442309767
      ],
      [
        "▁ခဲ့",
        -9.979087468713299
      ],
      [
        "▁https://",
        -9.979830155501457
      ],
      [
        "ေတာ",
        -9.979918723682191
      ],
      [
        "▁ဖွဲ့စည်းပုံ",
        -9.980410965483834
      ],
      [
        "▁ပထမအကြိမ်",
        -9.98101548912351
      ],
      [
        "▁လက်နက်",
        -9.981618455476111
      ],
      [
        "တု",
        -9.981745040198597
      ],
      [
        "စွဲ",
        -9.982432971871244
      ],
      [
        "ရှိရင်",
        -9.98252941055414
      ],
      [
        "ခုန်",
        -9.982559137431267
      ],
      [
        "▁ဘောလုံး",
        -9.983381627807045
      ],
      [
        "▁ဆီး",
        -9.983429123869143
      ],
      [
        "ကမ္ဘာ",
        -9.98421765971472
      ],
      [
        "·",
        -9.98465976522033
      ],
      [
        "မျိုးစုံ",
        -9.984994379976246
      ],
      [
        "လုံခြုံရေး",
        -9.985192067187882
      ],
      [
        "▁အမြင့်",
        -9.985206329270069
      ],
      [
        "▁အကြမ်းဖက်",
        -9.985335925537619
      ],
      [
        "▁စားသောက်ဆိုင်",
        -9.985848689245099
      ],
      [
        "▁တွေ့ရှိ",
        -9.985885646999705
      ],
      [
        "▁ရှိတယ်လို့",
        -9.986049802308685
      ],
      [
        "သည့်အခါ",
        -9.986487903504056
      ],
      [
        "အဖွဲ့က",
        -9.986573655144031
      ],
      [
        "▁၂၀၀",
        -9.986776248750726
      ],
      [
        "နဲ့ပတ်သက်ပြီး",
        -9.987027384186838
      ],
      [
        "▁ဖုန်းနံပါတ်",
        -9.987293714715065
      ],
      [
        "80",
        -9.987595850633102
      ],
      [
        "▁လူ့",
        -9.988370493305222
      ],
      [
        "စမ်းသပ်",
        -9.990710562391
      ],
      [
        "ဆိုသည်မှာ",
        -9.990800055386035
      ],
      [
        "▁စကားပြော",
        -9.991750054712774
      ],
      [
        "ဖြင့်သာ",
        -9.992608818711977
      ],
      [
        "မော်",
        -9.99268485802272
      ],
      [
        "အရမ်း",
        -9.992709238496923
      ],
      [
        "တို့မှ",
        -9.992972335138285
      ],
      [
        "ခရီး",
        -9.993459527349142
      ],
      [
        "စုံ",
        -9.993570108794597
      ],
      [
        "ကြောင်",
        -9.993587873021593
      ],
      [
        "▁အများ",
        -9.993612480177024
      ],
      [
        "▁2011",
        -9.993962373050948
      ],
      [
        "▁အဆင်သင့်",
        -9.994057031189127
      ],
      [
        "ချက်များ",
        -9.994534467616209
      ],
      [
        "အုပ်",
        -9.995041489149916
      ],
      [
        "▁ဘား",
        -9.995263130054337
      ],
      [
        "အစ",
        -9.995296993680604
      ],
      [
        "▁မှတ်ချက်များ",
        -9.995454027896287
      ],
      [
        "▁ဗိုလ်",
        -9.995632141233619
      ],
      [
        "တရုတ်",
        -9.995697179353048
      ],
      [
        "တပ်ဖွဲ့",
        -9.99681252594278
      ],
      [
        "▁လျှောက်",
        -9.996907114384209
      ],
      [
        "သေချာ",
        -9.997092503479307
      ],
      [
        "ထုပ်",
        -9.997823739189695
      ],
      [
        "▁အဖြေ",
        -9.997980954275217
      ],
      [
        "▁ဘုရားသခင်သည်",
        -9.998014289760217
      ],
      [
        "▁ပစ်ခတ်",
        -9.998433943086695
      ],
      [
        "ရှိနေပါတယ်။",
        -9.998827952655308
      ],
      [
        "ဗာ",
        -9.998851384203828
      ],
      [
        "ဝါဒ",
        -9.998924586383897
      ],
      [
        "လား?",
        -9.999046963323966
      ],
      [
        "▁(၂",
        -9.99911330327338
      ],
      [
        "▁ငါတို့",
        -9.999253969846853
      ],
      [
        "ဖြစ်ပါသည်",
        -9.999549350276592
      ],
      [
        "▁Co.",
        -10.000229539484142
      ],
      [
        "▁အဲဒါ",
        -10.000536406880574
      ],
      [
        "▁မိတ်ဆွေ",
        -10.00058823923101
      ],
      [
        "ရမလဲ",
        -10.0007226597827
      ],
      [
        "လင်",
        -10.000824722768268
      ],
      [
        "▁ေတွ",
        -10.00103746115574
      ],
      [
        "▁ရည်ရွယ်",
        -10.001382083059113
      ],
      [
        "ဖြစ်တယ်လို့",
        -10.001807011660095
      ],
      [
        "ဉာဏ်",
        -10.00188677253202
      ],
      [
        "▁Insight",
        -10.002517065335676
      ],
      [
        "▁Mizzima",
        -10.002537282068687
      ],
      [
        "ရာမှ",
        -10.002541096042908
      ],
      [
        "▁ဘီဘီစီကို",
        -10.00277494749723
      ],
      [
        "▁အင်",
        -10.002867557201219
      ],
      [
        "လုပ်ငန်းရှင်များ",
        -10.003088884979645
      ],
      [
        "နှင့်အညီ",
        -10.003676790271378
      ],
      [
        "တဲ့။",
        -10.00458113525166
      ],
      [
        "နားလည်",
        -10.004801376038074
      ],
      [
        "ri",
        -10.006053271417578
      ],
      [
        "▁ဝစ်ရှင်နရီ",
        -10.007506556603559
      ],
      [
        "တက်ရောက်",
        -10.007992141384271
      ],
      [
        "ကဲ",
        -10.008251635236448
      ],
      [
        "ကွဲ",
        -10.008429406623392
      ],
      [
        "my",
        -10.008630884623882
      ],
      [
        "▁နှစ်ဖက်",
        -10.009095313107355
      ],
      [
        "▁တွေ့ရပါတယ်။",
        -10.009312457439304
      ],
      [
        "ကြိုးစား",
        -10.009751235280394
      ],
      [
        "▁ဖ",
        -10.00979876915831
      ],
      [
        "ရှိတယ်",
        -10.009858844224901
      ],
      [
        "▁ဒီတော့",
        -10.009944005945705
      ],
      [
        "▁2.",
        -10.010722236202758
      ],
      [
        "▁ပထမဆုံးအကြိမ်",
        -10.01086212750428
      ],
      [
        "ဆွေ",
        -10.011216698079577
      ],
      [
        "▁ကယ်ဆယ်ရေး",
        -10.01156343886926
      ],
      [
        "အခြေစိုက်",
        -10.011760347960173
      ],
      [
        "da",
        -10.012028962830835
      ],
      [
        "▁လက်မှတ်ရေးထိုး",
        -10.012352718435519
      ],
      [
        "၀င်",
        -10.012374771802403
      ],
      [
        "▁23",
        -10.012634789885418
      ],
      [
        "ခဲ့တယ်",
        -10.012752376566684
      ],
      [
        "အများအပြား",
        -10.012756167142843
      ],
      [
        "ဖျက်",
        -10.013100986792438
      ],
      [
        "▁အရက်",
        -10.013317203158358
      ],
      [
        "၁၂",
        -10.014306163676988
      ],
      [
        "▁လျှပ်စစ်ဓာတ်အား",
        -10.014673698796901
      ],
      [
        "▁3.",
        -10.0149047983687
      ],
      [
        "Y",
        -10.01513300854607
      ],
      [
        "ပြတ်",
        -10.015842666174798
      ],
      [
        "▁ေဝ",
        -10.015907749101434
      ],
      [
        "ka",
        -10.016635525199376
      ],
      [
        "▁အကျိုး",
        -10.017228635869028
      ],
      [
        "၁၅",
        -10.017303200079091
      ],
      [
        "▁ခံစား",
        -10.017481709987628
      ],
      [
        "ချိန်းတွေ့",
        -10.017709045637943
      ],
      [
        "သူတို့ကို",
        -10.018280955900472
      ],
      [
        "ချိတ်ဆက်",
        -10.018817410736148
      ],
      [
        "de",
        -10.019252992769957
      ],
      [
        "၄)",
        -10.01925711594724
      ],
      [
        "တတ်ပါတယ်။",
        -10.020135990116538
      ],
      [
        "▁ရာထူး",
        -10.02027777560724
      ],
      [
        "အပြစ်",
        -10.02056958352257
      ],
      [
        "→",
        -10.020698726259292
      ],
      [
        "▁Wikimedia",
        -10.020698973441789
      ],
      [
        "''တိ။",
        -10.020745979669984
      ],
      [
        "▁May",
        -10.020766257760338
      ],
      [
        "▁သတိပေး",
        -10.020781763904502
      ],
      [
        "▁စုံစမ်း",
        -10.020993221243831
      ],
      [
        "▁2010",
        -10.021036846280305
      ],
      [
        "တုဲ",
        -10.021220544706196
      ],
      [
        "နိုင်ခြင်း",
        -10.021234516989487
      ],
      [
        "▁၅၀၀",
        -10.021386190937807
      ],
      [
        "ထိန်း",
        -10.02219580548065
      ],
      [
        "ယနေ့",
        -10.022311254489596
      ],
      [
        "▁တရားရုံး",
        -10.022413902451106
      ],
      [
        "▁ခရစ်တော်",
        -10.022433518751948
      ],
      [
        "▁‡",
        -10.022547248550698
      ],
      [
        "▁နောက်ပြီး",
        -10.023095202067722
      ],
      [
        "ကြပါ",
        -10.023466655463675
      ],
      [
        "▁ခရစ်တော်၏",
        -10.023698887494243
      ],
      [
        "ဘူးလို့",
        -10.024042536838177
      ],
      [
        "ီး",
        -10.02461650489187
      ],
      [
        "–",
        -10.025073537002914
      ],
      [
        "▁အုပ်ချုပ်ရေး",
        -10.025226804215807
      ],
      [
        "ပိုင်ရှင်",
        -10.025688097055742
      ],
      [
        "ကိုသာ",
        -10.026360610813132
      ],
      [
        "▁ကျမ်းစာ",
        -10.026749965983456
      ],
      [
        "ခဲ့သော်လည်း",
        -10.026990333566053
      ],
      [
        "▁နား",
        -10.027015611834715
      ],
      [
        "ႉ",
        -10.027193416121083
      ],
      [
        "၁၄",
        -10.027377201025228
      ],
      [
        "ယာဉ်",
        -10.027398187553226
      ],
      [
        "စိမ်း",
        -10.02785397545461
      ],
      [
        "၇)",
        -10.028185580033929
      ],
      [
        ")]",
        -10.028408040153511
      ],
      [
        "ဖော်",
        -10.029257558934507
      ],
      [
        "တုံး",
        -10.030582371859635
      ],
      [
        "ောက်",
        -10.031124175454398
      ],
      [
        "▁ဆန္ဒ",
        -10.031146167561289
      ],
      [
        "သမျှ",
        -10.031184811931901
      ],
      [
        "ညီလာခံ",
        -10.031195946781944
      ],
      [
        "နေသူ",
        -10.03167746514641
      ],
      [
        "လျ",
        -10.031720309772478
      ],
      [
        "ငျ",
        -10.031735189164959
      ],
      [
        "▁ဘက်က",
        -10.032241860072192
      ],
      [
        "မှုနှင့်",
        -10.033169712525243
      ],
      [
        "▁ST",
        -10.033244969693028
      ],
      [
        "▁၂၀၀၈",
        -10.033597159986371
      ],
      [
        "သို",
        -10.033722133193413
      ],
      [
        "▁ယာဉ်",
        -10.033775893758158
      ],
      [
        "▁ထိုအခါ",
        -10.034403936663857
      ],
      [
        "သိပ္ပံ",
        -10.034482586118601
      ],
      [
        "သက်တမ်း",
        -10.034619276829153
      ],
      [
        "ပေးထားပါတယ်။",
        -10.034868775852388
      ],
      [
        "▁သိရှိ",
        -10.035089042741207
      ],
      [
        "▁ညွှန်း",
        -10.035267568366894
      ],
      [
        "ရုပ်ရှင်",
        -10.036148766534975
      ],
      [
        "ႇ",
        -10.036178847650547
      ],
      [
        "▁IT",
        -10.03623876048253
      ],
      [
        "နိုင်ခဲ့",
        -10.036714656175295
      ],
      [
        "၎င်း၏",
        -10.037010572394307
      ],
      [
        "ဖိုး",
        -10.037356537589055
      ],
      [
        "၁၆",
        -10.0376275401715
      ],
      [
        "၂၁",
        -10.037696076096907
      ],
      [
        "vi",
        -10.038777144684083
      ],
      [
        "▁သု",
        -10.039124461434938
      ],
      [
        "▁[မူကြဲ-",
        -10.03913659933138
      ],
      [
        "▁အကယ်၍",
        -10.039218718348192
      ],
      [
        "▁said",
        -10.039237596793209
      ],
      [
        "▁အရေးမကြီး",
        -10.039270364753722
      ],
      [
        "▁2012",
        -10.039283972629216
      ],
      [
        "▁March",
        -10.03943294592631
      ],
      [
        "ုတ်",
        -10.039485410260841
      ],
      [
        "လောင်းကစားရုံ",
        -10.039634257835841
      ],
      [
        "ခဲ့ရ",
        -10.039677122276121
      ],
      [
        "ဆက်လက်",
        -10.039832300223537
      ],
      [
        "▁အစားအသောက်",
        -10.040084729920608
      ],
      [
        "ချက်အရ",
        -10.040814832457023
      ],
      [
        "မနေ",
        -10.041070855637962
      ],
      [
        "▁အထက်ပါ",
        -10.041232666450728
      ],
      [
        "ခြံ",
        -10.041744760818258
      ],
      [
        "သူတွေကို",
        -10.041992945016698
      ],
      [
        "ရပ်ကွက်",
        -10.042016113303205
      ],
      [
        "အထူးကိုယ်စားလှယ်",
        -10.0426982197975
      ],
      [
        "ကြိုက်",
        -10.043333280777823
      ],
      [
        "မှီ",
        -10.044072536951646
      ],
      [
        "အိုင်",
        -10.044621096183292
      ],
      [
        "▁ရင်းနှီး",
        -10.045132382117139
      ],
      [
        "▁are",
        -10.045298268115992
      ],
      [
        "သစ်ကို",
        -10.045860565460545
      ],
      [
        "ပေးထား",
        -10.045868080727253
      ],
      [
        "လူငယ်",
        -10.045948732763218
      ],
      [
        "▁အာဏာ",
        -10.046083812438964
      ],
      [
        "မောင်း",
        -10.046331053542778
      ],
      [
        "ad",
        -10.046902533142672
      ],
      [
        "▁ဒဏ်ရာ",
        -10.047175280200516
      ],
      [
        "▁မဲ",
        -10.04718951454199
      ],
      [
        "ဝတၳဳ",
        -10.047300893358154
      ],
      [
        "▁အဲ့",
        -10.047405059873988
      ],
      [
        "ပါသလား?",
        -10.04761598137747
      ],
      [
        "▁ယေရှုရဲ့",
        -10.047732432117403
      ],
      [
        "သွားပြီ",
        -10.048536444025917
      ],
      [
        "ကဵု",
        -10.049121194631294
      ],
      [
        "ုန်",
        -10.049206027188108
      ],
      [
        "▁သိမ်းဆည်း",
        -10.049380783655394
      ],
      [
        "တစ်မျိုး",
        -10.050982266504576
      ],
      [
        "ဝေး",
        -10.051142736576859
      ],
      [
        "ပါနဲ့။",
        -10.051415377886748
      ],
      [
        "ဆက်ဆံရေး",
        -10.051501468560659
      ],
      [
        "▁ခြေ",
        -10.051526863542236
      ],
      [
        "▁သမ္မာကျမ်းစာ",
        -10.051694360165571
      ],
      [
        "ခွန်",
        -10.052036637605706
      ],
      [
        "’’ဟု",
        -10.052823140368815
      ],
      [
        "လျှင်၊",
        -10.052950965127529
      ],
      [
        "ပါလိမ့်မည်",
        -10.053046164021055
      ],
      [
        "စာချုပ်",
        -10.053417170962932
      ],
      [
        "ရှား",
        -10.053591825233882
      ],
      [
        "▁ကမ္ဘာ့ဖလား",
        -10.053915204956628
      ],
      [
        "▁ဗုဒ္ဓ",
        -10.053939558453791
      ],
      [
        "▁အခက်အခဲ",
        -10.053962235159135
      ],
      [
        "ary",
        -10.054349546175683
      ],
      [
        "ဝယ်ယူ",
        -10.054352662521953
      ],
      [
        "အရေး",
        -10.054712105423238
      ],
      [
        "ခြစ်",
        -10.056074018681219
      ],
      [
        "▁ဝန်",
        -10.057457894928183
      ],
      [
        "ကင်",
        -10.057501562609843
      ],
      [
        "ရမယ်။",
        -10.057830948499127
      ],
      [
        "unicode",
        -10.05808517835626
      ],
      [
        "▁တူရကီ",
        -10.058085234215172
      ],
      [
        "▁Hymers",
        -10.058133454579988
      ],
      [
        "သိကၡာပဒံ",
        -10.05818304734845
      ],
      [
        "40",
        -10.058249602694051
      ],
      [
        "▁လွတ်လပ်ရေး",
        -10.058390591636652
      ],
      [
        "ပဲဖြစ်ပါတယ်။",
        -10.058401177883766
      ],
      [
        "ဓါတ်",
        -10.059024151733151
      ],
      [
        "ပေးပါ",
        -10.05914052288504
      ],
      [
        "▁လက်မှတ်",
        -10.059495545087593
      ],
      [
        "▁Internet",
        -10.059742481371137
      ],
      [
        "▁အဆိုတော်",
        -10.059875515928061
      ],
      [
        "▁အမြန်ဆုံး",
        -10.060020507773986
      ],
      [
        "သုတ်",
        -10.060336263113163
      ],
      [
        "▁ခရစ်ယာန်",
        -10.060435939252809
      ],
      [
        "▁ပို၍",
        -10.062459781325696
      ],
      [
        "▁မြ",
        -10.064055193135427
      ],
      [
        "နှစ်အရွယ်",
        -10.065290120229403
      ],
      [
        "▁ရှာ",
        -10.065435900457322
      ],
      [
        "ကု",
        -10.065512040524471
      ],
      [
        "▁ရဲစခန်း",
        -10.065532639464802
      ],
      [
        "ၾက",
        -10.065780164337871
      ],
      [
        "နွယ်",
        -10.065937583778197
      ],
      [
        "▁နှလုံး",
        -10.065978401471332
      ],
      [
        "ွန်သတင်းအေဂျင်စီ",
        -10.067097623328188
      ],
      [
        "▁လေ့ကျင့်ခန်း",
        -10.067465657251002
      ],
      [
        "▁La",
        -10.068286051391052
      ],
      [
        "▁ကြော်ငြာ",
        -10.068304835698777
      ],
      [
        "လက်ရှိ",
        -10.06830633013129
      ],
      [
        "▁လိပ်စာ",
        -10.06887688372078
      ],
      [
        "▁မေးမြန်း",
        -10.069074680765773
      ],
      [
        "mo",
        -10.069871073374522
      ],
      [
        "ထိုက်",
        -10.070707214464203
      ],
      [
        "▁စိစစ်",
        -10.07090276239444
      ],
      [
        "တ္တ",
        -10.071382455631896
      ],
      [
        "ကိရိယာ",
        -10.071595981344233
      ],
      [
        "▁လုပ်ဖို့",
        -10.071646220853989
      ],
      [
        "os",
        -10.072301422882171
      ],
      [
        "▁တော်တော်",
        -10.072592784987004
      ],
      [
        "၂၃",
        -10.072784261341729
      ],
      [
        "ုပ်",
        -10.072903293221312
      ],
      [
        "ကြမ်း",
        -10.07293050513313
      ],
      [
        "ကျနော်တို့",
        -10.07296501663879
      ],
      [
        "လယ်",
        -10.073068424449731
      ],
      [
        "သွားမည်",
        -10.07321833800913
      ],
      [
        "လိမ့်မည်",
        -10.073810954280152
      ],
      [
        "▁ဖြစ်ပါတယ်",
        -10.073916242662893
      ],
      [
        "▁အမှတ်စဉ်",
        -10.074540306724263
      ],
      [
        "လုံးဝ",
        -10.074788646250703
      ],
      [
        "၉၉",
        -10.075365007658691
      ],
      [
        "▁သိရ",
        -10.075775038362309
      ],
      [
        "by",
        -10.075943352674289
      ],
      [
        "ခံစားရ",
        -10.076577488654303
      ],
      [
        "▁September",
        -10.077315940881945
      ],
      [
        "▁Process",
        -10.077332578759936
      ],
      [
        "ပွဲတော်",
        -10.077455769499858
      ],
      [
        "▁SMS",
        -10.077722374002155
      ],
      [
        "ကာစီနို",
        -10.078014532522205
      ],
      [
        "▁လှူ",
        -10.07802327774744
      ],
      [
        "နှ",
        -10.07838551842801
      ],
      [
        "▁သတိ",
        -10.078508186485823
      ],
      [
        "ကောင်းသော",
        -10.078693430345385
      ],
      [
        "▁အပ",
        -10.079026156215702
      ],
      [
        "လိုု့",
        -10.079067812415042
      ],
      [
        "ပညာရေး",
        -10.079141041659724
      ],
      [
        "သူက",
        -10.079143280757513
      ],
      [
        "လျက်ရှိ",
        -10.079929322666967
      ],
      [
        "▁မော်တော်ယာဉ်",
        -10.08023329314649
      ],
      [
        "▁တွေက",
        -10.080237246551267
      ],
      [
        "အဆင်ပြေ",
        -10.080490137100076
      ],
      [
        "ခံရမှု",
        -10.080583247469091
      ],
      [
        "▁English",
        -10.080834602971974
      ],
      [
        "▁Yangon",
        -10.080867970227189
      ],
      [
        "▁တကယ်လို့",
        -10.081191614823226
      ],
      [
        "ဝန်း",
        -10.081325104942287
      ],
      [
        "(၄)",
        -10.08145512716074
      ],
      [
        "အင်တာနက်",
        -10.082457474070665
      ],
      [
        "ကလ်",
        -10.082490306786164
      ],
      [
        "ပုံမှန်",
        -10.083062386465908
      ],
      [
        "လိုက်ပြီး",
        -10.083732736195277
      ],
      [
        "စိုက်",
        -10.083926018291896
      ],
      [
        "တွေကိုလည်း",
        -10.084201137979878
      ],
      [
        "စောင့်ရှောက်မှု",
        -10.084747773149083
      ],
      [
        "▁ကျား",
        -10.08504138254613
      ],
      [
        "ပြာ",
        -10.087293141480702
      ],
      [
        "▁တယောက်",
        -10.087670982237313
      ],
      [
        "ချာ",
        -10.087717080301893
      ],
      [
        "▁(အ",
        -10.088100918931428
      ],
      [
        "ir",
        -10.088647377415771
      ],
      [
        "၁၈",
        -10.088823178386857
      ],
      [
        "▁အမှုဖွင့်",
        -10.088994542454959
      ],
      [
        "▁စခန်း",
        -10.089113587302338
      ],
      [
        "▁သူမရဲ့",
        -10.089550295425372
      ],
      [
        "▁အသေးစား",
        -10.08960059621677
      ],
      [
        "▁KNU",
        -10.089768428832551
      ],
      [
        "▁နီးပါး",
        -10.089988255572784
      ],
      [
        "အားလုံးအတွက်",
        -10.090149739982937
      ],
      [
        "▁ဖြစ်တယ်",
        -10.09065930853663
      ],
      [
        "ရေးနှင့်",
        -10.091358003429239
      ],
      [
        "▁တံတား",
        -10.091413264870093
      ],
      [
        "▁ပူးတွဲ",
        -10.091667272626768
      ],
      [
        "ရှာဖွေရန်",
        -10.09197857403469
      ],
      [
        "ေလ",
        -10.092123771955634
      ],
      [
        "တာ။",
        -10.092750207354733
      ],
      [
        "▁ပျမ်းမျှ",
        -10.093286354511376
      ],
      [
        "ြဖင့်",
        -10.093945143557889
      ],
      [
        "တစ်လုံး",
        -10.094505585132731
      ],
      [
        "ရှိသည့်",
        -10.094688417087507
      ],
      [
        "ba",
        -10.09533505351147
      ],
      [
        "လို့ရ",
        -10.095571996050904
      ],
      [
        "ခွင့်ရ",
        -10.096850185669496
      ],
      [
        "▁Snapdr",
        -10.096923781675516
      ],
      [
        "▁Forum",
        -10.096989600274403
      ],
      [
        "▁site",
        -10.097180675032796
      ],
      [
        "▁porn",
        -10.09737616109863
      ],
      [
        "(၃)",
        -10.097490877989308
      ],
      [
        "2.6.",
        -10.098053314635651
      ],
      [
        "န့်",
        -10.098444241078575
      ],
      [
        "ဝိုင်း",
        -10.098893850482874
      ],
      [
        "ဦးရေ",
        -10.099095126793467
      ],
      [
        "အစိုးရအဖွဲ့",
        -10.099561976540276
      ],
      [
        "▁အမှုဆောင်",
        -10.099968993906426
      ],
      [
        "▁ကရင်",
        -10.1001562970986
      ],
      [
        "ပွား",
        -10.100450969446845
      ],
      [
        "\"ဟု",
        -10.10082068314421
      ],
      [
        "▁(r",
        -10.100850212475521
      ],
      [
        "▁အလားတူ",
        -10.101327593943351
      ],
      [
        "90",
        -10.10196080501982
      ],
      [
        "ပွဲစဉ်",
        -10.102026803499278
      ],
      [
        "▁ကိုယ့်ရဲ့",
        -10.102585816105098
      ],
      [
        "▁သုတေသန",
        -10.10333991030104
      ],
      [
        "Q",
        -10.10338349370853
      ],
      [
        "▁အင်တာဗျူး",
        -10.103495876532566
      ],
      [
        "သောသူ",
        -10.104030894230975
      ],
      [
        "▁ပါကစ္စတန်",
        -10.104041265076674
      ],
      [
        "▁ပုဂ္ဂိုလ်",
        -10.105162442130002
      ],
      [
        "▁အဆင့်မြင့်",
        -10.105213533466172
      ],
      [
        "ကြော်ငြာ",
        -10.106182404128
      ],
      [
        "စခန်း",
        -10.106442581101643
      ],
      [
        "တယ်...",
        -10.106527543532756
      ],
      [
        "▁Video",
        -10.10655669365244
      ],
      [
        "▁အေ",
        -10.106573168268042
      ],
      [
        "ပွင့်",
        -10.106993079480315
      ],
      [
        "အလုပ်သမား",
        -10.107021067702064
      ],
      [
        "လွှဲပြောင်း",
        -10.107563945830735
      ],
      [
        "နို",
        -10.107705017775663
      ],
      [
        "ပါ၊",
        -10.107881017791444
      ],
      [
        "ine",
        -10.108595050482984
      ],
      [
        "▁file",
        -10.108918263821131
      ],
      [
        "မှသာ",
        -10.109094360874243
      ],
      [
        "13",
        -10.110121853700564
      ],
      [
        "MA",
        -10.110589076869118
      ],
      [
        "ထံသို့",
        -10.110950857731071
      ],
      [
        "ချို",
        -10.111849342086824
      ],
      [
        "▁မြေကြီး",
        -10.112383152960637
      ],
      [
        "▁၃၇",
        -10.112587570864465
      ],
      [
        "▁UNFC",
        -10.113374243828103
      ],
      [
        "ကွ",
        -10.113491383192853
      ],
      [
        "ကြီးကို",
        -10.113654829374253
      ],
      [
        "လာမယ့်",
        -10.113788445019054
      ],
      [
        "ဘယ်မှာ",
        -10.114017261855869
      ],
      [
        "ယု",
        -10.11431681450525
      ],
      [
        "အောင်၊",
        -10.11464191974639
      ],
      [
        "▁ကန့်ကွက်",
        -10.114921243588311
      ],
      [
        "ထူ",
        -10.11505459346391
      ],
      [
        "▁သံဃာ",
        -10.116385155440359
      ],
      [
        "▁သီးသန့်",
        -10.11655593263589
      ],
      [
        "ၵ",
        -10.116559349520767
      ],
      [
        "▁Tattoo",
        -10.116923782322953
      ],
      [
        "▁December",
        -10.116923788104863
      ],
      [
        "▁Project",
        -10.116947355325953
      ],
      [
        "▁ပွဲ",
        -10.118082210803397
      ],
      [
        "၁၃",
        -10.118256355906091
      ],
      [
        "▁လုပ်ငန်းများ",
        -10.118356761633379
      ],
      [
        "သင့်သည်",
        -10.120043050819568
      ],
      [
        "▁ရင်း",
        -10.120128397833964
      ],
      [
        "▁ဖြစ်ပွားခဲ့",
        -10.120623923791765
      ],
      [
        "▁ကိုရီးယား",
        -10.120633810825817
      ],
      [
        "ense",
        -10.120674771344481
      ],
      [
        "▁ကလည်း",
        -10.120743721992763
      ],
      [
        "စေခြင်းငှါ",
        -10.121247896669288
      ],
      [
        "▁သင်တို့",
        -10.121262621743393
      ],
      [
        "များနှင့်အတူ",
        -10.122243932830717
      ],
      [
        "စောင့်ရှောက်",
        -10.122350522736227
      ],
      [
        "လေ့ကျင့်ရေး",
        -10.122680593811344
      ],
      [
        "မိုဘိုင်း",
        -10.123138195194647
      ],
      [
        "ကယ်",
        -10.123370079448781
      ],
      [
        "စေခြင်း",
        -10.123439402297278
      ],
      [
        "▁(၁၂)",
        -10.123552054222046
      ],
      [
        "▁စနစ်တကျ",
        -10.123624153623055
      ],
      [
        "ဝိမာနံ",
        -10.124316504891606
      ],
      [
        "▁ေပး",
        -10.124392223909942
      ],
      [
        "▁သတင်းဌာန",
        -10.124508858224699
      ],
      [
        "၅၂",
        -10.124983905558425
      ],
      [
        "ကိုယ်စားလှယ်များ",
        -10.125055493558149
      ],
      [
        "ကြီးကြပ်ရေးနှင့်",
        -10.125781833749297
      ],
      [
        "ဘောင်",
        -10.125825780313132
      ],
      [
        "▁အနာဂတ်",
        -10.125911627553975
      ],
      [
        "လျှောက်ထား",
        -10.126234563990472
      ],
      [
        "ကြီးတွေ",
        -10.126394310032932
      ],
      [
        "ကုဒ်",
        -10.126444983102523
      ],
      [
        "▁For",
        -10.126742954833928
      ],
      [
        "▁ရောက်လာ",
        -10.127652412613811
      ],
      [
        "စေနိုင်",
        -10.127876665981102
      ],
      [
        "မှု၊",
        -10.128315862702868
      ],
      [
        "▁ကျမ",
        -10.129102454726965
      ],
      [
        "တော့မှာ",
        -10.129457442052763
      ],
      [
        "▁200",
        -10.129660126012785
      ],
      [
        "▁Asia",
        -10.129870705080558
      ],
      [
        "▁ကော်လံ",
        -10.129909384736559
      ],
      [
        "▁အကြိမ်",
        -10.129950912025691
      ],
      [
        "တာပဲ",
        -10.13016629170024
      ],
      [
        "▁လုပ်ပေး",
        -10.130643694069082
      ],
      [
        "▁TV",
        -10.130722115657177
      ],
      [
        "▁အီတလီ",
        -10.131107553608473
      ],
      [
        "သလဲ",
        -10.131161138042582
      ],
      [
        "ရေးအဖွဲ့",
        -10.131788591642543
      ],
      [
        "လွတ်",
        -10.1318545336872
      ],
      [
        "▁Mode",
        -10.132094518567335
      ],
      [
        "udson",
        -10.132113728146972
      ],
      [
        "ပြီး၊",
        -10.132448521807142
      ],
      [
        "▁ရွေး",
        -10.132658138389711
      ],
      [
        "▁လာမည့်",
        -10.132779276746955
      ],
      [
        "လိုပါတယ်။",
        -10.13306596944775
      ],
      [
        "သွားမှာ",
        -10.13316786078807
      ],
      [
        "..။",
        -10.13323681926292
      ],
      [
        "▁ဘယ်တော့မှ",
        -10.133360557756916
      ],
      [
        "သန်",
        -10.134480867073822
      ],
      [
        "▁ရှေးဟောင်း",
        -10.13507732579184
      ],
      [
        "ang",
        -10.135241958385938
      ],
      [
        "အားလုံးကို",
        -10.13603227045157
      ],
      [
        "၀၉",
        -10.136297713330176
      ],
      [
        "ဗျ",
        -10.136601475755695
      ],
      [
        "မူဝါဒ",
        -10.136743455418902
      ],
      [
        "လိုပဲ",
        -10.137019568804378
      ],
      [
        "ION",
        -10.137325815662837
      ],
      [
        "▁Company",
        -10.137332117546334
      ],
      [
        "ိမ်မွေးတိရစ္ဆာန်",
        -10.137388540824817
      ],
      [
        "▁ဝှက်ထားသော",
        -10.137396814789245
      ],
      [
        "ရောက်လာ",
        -10.137509655600951
      ],
      [
        "▁လိုက်နာ",
        -10.13837273923724
      ],
      [
        "im",
        -10.138407746654277
      ],
      [
        "▁ေရ",
        -10.138954998357288
      ],
      [
        "ချမ်းသာ",
        -10.138962545874337
      ],
      [
        "▁ကျွန်ုပ်",
        -10.139391702086208
      ],
      [
        "သုံးပြီး",
        -10.139648212347158
      ],
      [
        "ခဲ့ပေမယ့်",
        -10.139838402162793
      ],
      [
        "▁ခက်ခဲ",
        -10.140108722610007
      ],
      [
        "ပြောကြား",
        -10.140398530258869
      ],
      [
        "20",
        -10.14090210278503
      ],
      [
        "▁ဆိုု",
        -10.141333547366509
      ],
      [
        "▁Apps",
        -10.141396249138618
      ],
      [
        "အပေါ်တွင်",
        -10.14148720946186
      ],
      [
        "လိုက်ပါ",
        -10.141523858535251
      ],
      [
        "ခဲ့တာဖြစ်ပါတယ်။",
        -10.14183336476868
      ],
      [
        "▁Me",
        -10.141922130420525
      ],
      [
        "ပညာရှင်",
        -10.14224557701694
      ],
      [
        "▁နှုတ်ကပတ်တော်",
        -10.142469456517905
      ],
      [
        "▁ကပ်",
        -10.142489239220081
      ],
      [
        "▁ပတ်",
        -10.142621495112072
      ],
      [
        "▁ေတာ်",
        -10.14297561637381
      ],
      [
        "▁ပြီးရင်",
        -10.14301924541925
      ],
      [
        "▁ကလေးငယ်",
        -10.143214350596356
      ],
      [
        "▁အပင်",
        -10.143441979241782
      ],
      [
        "3D",
        -10.143944364199244
      ],
      [
        "ဆုံးဖြတ်",
        -10.143960297221167
      ],
      [
        "he",
        -10.144144572141338
      ],
      [
        "▁ဆရာမ",
        -10.144652090485152
      ],
      [
        "▁ဩဂုတ်",
        -10.144777631273634
      ],
      [
        "▁စစ်ကိုင်း",
        -10.144821767892278
      ],
      [
        "ဆက်သွယ်ရေး",
        -10.145267151678626
      ],
      [
        "အင်ဂျင်နီယာ",
        -10.145876339582308
      ],
      [
        "▁Tag",
        -10.145966912162905
      ],
      [
        "ရှိ၏။",
        -10.146034104352477
      ],
      [
        "▁....",
        -10.146152380055357
      ],
      [
        "▁ပျက်စီး",
        -10.146340654834738
      ],
      [
        "ႝု",
        -10.146569023853825
      ],
      [
        "▁31",
        -10.14694364086498
      ],
      [
        "မြန်မာနိုင်ငံမှာ",
        -10.148293661016554
      ],
      [
        "ကေ",
        -10.14852815147113
      ],
      [
        "ဠ",
        -10.14911214590228
      ],
      [
        "▁ကွယ်လွန်",
        -10.149273606137594
      ],
      [
        "အချက်အလက်များကို",
        -10.149317548924554
      ],
      [
        "နည်းလမ်းများ",
        -10.150065157680013
      ],
      [
        "စွမ်းရည်",
        -10.150352521544061
      ],
      [
        "▁အောင်မြင်မှု",
        -10.15074085792087
      ],
      [
        "အခမ်းအနား",
        -10.150862292074383
      ],
      [
        "▁တန်း",
        -10.15110840903091
      ],
      [
        "ပေါင်",
        -10.151336518910256
      ],
      [
        "အပေါ်မှာ",
        -10.151509166770385
      ],
      [
        "ရခြင်း",
        -10.151738629510412
      ],
      [
        "▁ကြိုဆို",
        -10.153218702143109
      ],
      [
        "▁မိုဘိုင်း",
        -10.154141593962462
      ],
      [
        "▁ဒုက္ခ",
        -10.154268213142021
      ],
      [
        "တပ်မတော်",
        -10.154618708861213
      ],
      [
        "▁View",
        -10.154748228526994
      ],
      [
        "▁27",
        -10.155195042734315
      ],
      [
        "▁(S",
        -10.155243684566596
      ],
      [
        "၁၇",
        -10.155300023684415
      ],
      [
        "▁အဖွဲ့ချုပ်",
        -10.155644805756724
      ],
      [
        "လိင်",
        -10.155847243334073
      ],
      [
        "▁ခိုင်",
        -10.15587724374894
      ],
      [
        "မော်ဒယ်",
        -10.155884126590028
      ],
      [
        "▁ပို့",
        -10.15592609775434
      ],
      [
        "ထားပါ။",
        -10.156131883120139
      ],
      [
        "ဘက်မှ",
        -10.156733470679624
      ],
      [
        "အကူအညီ",
        -10.156770687838574
      ],
      [
        "▁အမေ",
        -10.156957872683734
      ],
      [
        "တို့ဖြင့်",
        -10.157068364285095
      ],
      [
        "ပေးတဲ့",
        -10.157133814852767
      ],
      [
        "YANMAR",
        -10.157817663107322
      ],
      [
        "▁ဍေံဟွံကိတ်",
        -10.158165278272831
      ],
      [
        "▁Global",
        -10.158165283901452
      ],
      [
        "▁Center",
        -10.158165558011316
      ],
      [
        "ro:",
        -10.158171655501903
      ],
      [
        "စွမ်း",
        -10.158179749854002
      ],
      [
        "်ဟီုက",
        -10.158202417420584
      ],
      [
        "▁KIA",
        -10.158219936470916
      ],
      [
        "ဒ်ှ",
        -10.158399542012173
      ],
      [
        "▁ပိတ်ပင်",
        -10.158425211663637
      ],
      [
        "▁ဆုံးဖြတ်ချက်",
        -10.158483290025824
      ],
      [
        "▁တာဝန်ယူ",
        -10.158704119598093
      ],
      [
        "▁ကယားပြည်နယ်",
        -10.159274897157955
      ],
      [
        "စျေးနှုန်း",
        -10.15977632740921
      ],
      [
        "▁100",
        -10.159828424606001
      ],
      [
        "အရပ်",
        -10.159840438735841
      ],
      [
        "လည်းကောင်း",
        -10.161505059653631
      ],
      [
        "RY",
        -10.161588065321709
      ],
      [
        "SS",
        -10.161649947291348
      ],
      [
        "ၸ",
        -10.162838704994705
      ],
      [
        "Comments",
        -10.162868913008781
      ],
      [
        "ဖွား",
        -10.16310085915609
      ],
      [
        "▁Power",
        -10.163562191765209
      ],
      [
        "ous",
        -10.163627453560604
      ],
      [
        "06",
        -10.163734988215651
      ],
      [
        "▁www.",
        -10.163958098173747
      ],
      [
        "ity",
        -10.164010910883883
      ],
      [
        "24",
        -10.164055149535637
      ],
      [
        "▁Camera",
        -10.164194024570296
      ],
      [
        "▁(2)",
        -10.164498772752001
      ],
      [
        "▁ပရိသတ်",
        -10.164645360878614
      ],
      [
        "▁ထုတ်ပေး",
        -10.164722091794534
      ],
      [
        "အခွင့်အရေး",
        -10.164827899472309
      ],
      [
        "ရိှ",
        -10.164931873392355
      ],
      [
        "▁ပြည်သူ",
        -10.164993380476686
      ],
      [
        "ွေ",
        -10.165067212769944
      ],
      [
        "▁ဆိုတာကို",
        -10.165326035382346
      ],
      [
        "▁အကြား",
        -10.165413360530842
      ],
      [
        "▁http://",
        -10.166110797624398
      ],
      [
        "သည့်အတွက်",
[...]
