{
  "version": "1.0",
  "truncation": null,
  "padding": null,
  "added_tokens": [
    {
      "id": 0,
      "content": "[UNK]",
      "single_word": false,
      "lstrip": false,
      "rstrip": false,
      "normalized": false,
      "special": true
    },
    {
      "id": 1,
      "content": "[CLS]",
      "single_word": false,
      "lstrip": false,
      "rstrip": false,
      "normalized": false,
      "special": true
    },
    {
      "id": 2,
      "content": "[SEP]",
      "single_word": false,
      "lstrip": false,
      "rstrip": false,
      "normalized": false,
      "special": true
    },
    {
      "id": 3,
      "content": "[PAD]",
      "single_word": false,
      "lstrip": false,
      "rstrip": false,
      "normalized": false,
      "special": true
    },
    {
      "id": 4,
      "content": "[MASK]",
      "single_word": false,
      "lstrip": false,
      "rstrip": false,
      "normalized": false,
      "special": true
    }
  ],
  "normalizer": {
    "type": "Sequence",
    "normalizers": [
      {
        "type": "Nmt"
      },
      {
        "type": "NFKC"
      },
      {
        "type": "Replace",
        "pattern": {
          "Regex": " {2,}"
        },
        "content": " "
      }
    ]
  },
  "pre_tokenizer": {
    "type": "Metaspace",
    "replacement": "▁",
    "prepend_scheme": "always",
    "split": true
  },
  "post_processor": null,
  "decoder": {
    "type": "Metaspace",
    "replacement": "▁",
    "prepend_scheme": "always",
    "split": true
  },
  "model": {
    "type": "Unigram",
    "unk_id": null,
    "vocab": [
      [
        "[UNK]",
        0.0
      ],
      [
        "[CLS]",
        0.0
      ],
      [
        "[SEP]",
        0.0
      ],
      [
        "[PAD]",
        0.0
      ],
      [
        "[MASK]",
        0.0
      ],
      [
        "▁",
        -2.703037939062284
      ],
      [
        ",",
        -4.08999471878448
      ],
      [
        "ની",
        -4.356551760417004
      ],
      [
        "▁છે.",
        -4.372857798368722
      ],
      [
        "▁અને",
        -4.416810193588407
      ],
      [
        "માં",
        -4.629298343462684
      ],
      [
        "▁આ",
        -4.651157158588399
      ],
      [
        "▁છે",
        -4.690002373382274
      ],
      [
        "ના",
        -4.7158646459663185
      ],
      [
        "ને",
        -4.741902043542705
      ],
      [
        ".",
        -4.9492663571896145
      ],
      [
        "▁પણ",
        -5.002562546807198
      ],
      [
        "▁કે",
        -5.057764645237789
      ],
      [
        "▁માટે",
        -5.133853578935039
      ],
      [
        "નો",
        -5.141646498269074
      ],
      [
        "▁જ",
        -5.171358612884511
      ],
      [
        "▁તો",
        -5.291389856701755
      ],
      [
        "▁પર",
        -5.312699481657724
      ],
      [
        "▁એક",
        -5.332879460810327
      ],
      [
        "થી",
        -5.346593790344789
      ],
      [
        "નું",
        -5.468213771827685
      ],
      [
        "ે",
        -5.50290369154698
      ],
      [
        "▁એ",
        -5.5879961490993235
      ],
      [
        "▁કરી",
        -5.646379525447209
      ],
      [
        "▁તે",
        -5.656699532897704
      ],
      [
        "▁સાથે",
        -5.696472381257696
      ],
      [
        "એ",
        -5.7303733874273615
      ],
      [
        ")",
        -5.777028077962358
      ],
      [
        "-",
        -5.779712896100882
      ],
      [
        "▁-",
        -5.891429377974193
      ],
      [
        "...",
        -5.918174923636117
      ],
      [
        "ો",
        -5.959209509191442
      ],
      [
        "▁હોય",
        -5.971744992693441
      ],
      [
        "ી",
        -5.98259311224599
      ],
      [
        ":",
        -6.048672156519784
      ],
      [
        "▁જે",
        -6.1340990303650305
      ],
      [
        "▁–",
        -6.194059536972215
      ],
      [
        "▁કરો",
        -6.24035203704844
      ],
      [
        "▁છે,",
        -6.313288417944268
      ],
      [
        "▁તમે",
        -6.327091806333337
      ],
      [
        "▁(",
        -6.328857427977306
      ],
      [
        "▁ન",
        -6.345633469069714
      ],
      [
        "▁_",
        -6.361266758773995
      ],
      [
        "▁આવી",
        -6.392722716064755
      ],
      [
        "ં",
        -6.460993020261444
      ],
      [
        "▁:",
        -6.488063519076011
      ],
      [
        "▁નથી",
        -6.493706387697099
      ],
      [
        "▁હતી.",
        -6.508295817315055
      ],
      [
        "’",
        -6.521952092950643
      ],
      [
        "▁પછી",
        -6.532042342758814
      ],
      [
        "ા",
        -6.541053214462059
      ],
      [
        "▁કોઈ",
        -6.544644653098818
      ],
      [
        "▁રીતે",
        -6.572570850355856
      ],
      [
        "▁ગુજરાતી",
        -6.5740883483671535
      ],
      [
        "▁વધુ",
        -6.582882627277884
      ],
      [
        "▁કરવા",
        -6.593181972286578
      ],
      [
        "▁હું",
        -6.593696473276923
      ],
      [
        "▁થઈ",
        -6.628039478584851
      ],
      [
        "નાં",
        -6.652909579330988
      ],
      [
        "▁શું",
        -6.657736213249239
      ],
      [
        "▁‘",
        -6.667770733554052
      ],
      [
        "▁થાય",
        -6.680491790091487
      ],
      [
        "▁ના",
        -6.696820362590566
      ],
      [
        "▁જો",
        -6.69731285864234
      ],
      [
        "▁હવે",
        -6.708360343062491
      ],
      [
        "▁કરે",
        -6.742905403782123
      ],
      [
        "▁આવે",
        -6.747077130738219
      ],
      [
        "▁કરવામાં",
        -6.757704346561976
      ],
      [
        "▁વાત",
        -6.7679885581702806
      ],
      [
        "ર",
        -6.769157843179997
      ],
      [
        "▁શકે",
        -6.774863653206047
      ],
      [
        "▁ને",
        -6.777995709283566
      ],
      [
        "▁હતો.",
        -6.790672441471097
      ],
      [
        "▁દ્વારા",
        -6.799482006385356
      ],
      [
        "▁નથી.",
        -6.799664421573878
      ],
      [
        "▁સુધી",
        -6.806434850198118
      ],
      [
        "ન",
        -6.826677656285311
      ],
      [
        "▁ત્યારે",
        -6.832288143087018
      ],
      [
        "▁બે",
        -6.846539426024563
      ],
      [
        "▁મને",
        -6.899832527191148
      ],
      [
        "▁ગુજરાત",
        -6.903404961587285
      ],
      [
        "▁અન્ય",
        -6.923673678424375
      ],
      [
        "ક",
        -6.948383793071605
      ],
      [
        "▁હતા.",
        -6.963054807941324
      ],
      [
        "▁રહી",
        -6.972023451310005
      ],
      [
        "▁આજે",
        -6.980821033880414
      ],
      [
        "▁કામ",
        -7.000519862881664
      ],
      [
        "▁થઇ",
        -7.003920055464617
      ],
      [
        "▁સમાચાર",
        -7.007688656947378
      ],
      [
        "▁જાય",
        -7.02927199766021
      ],
      [
        "?",
        -7.029344880619172
      ],
      [
        "▁પરંતુ",
        -7.036253182667448
      ],
      [
        "લ",
        -7.05238509825354
      ],
      [
        "▁તેને",
        -7.052525703882457
      ],
      [
        "▁લોકો",
        -7.054481061868991
      ],
      [
        "▁તમારા",
        -7.056714207128039
      ],
      [
        "!",
        -7.070692011038027
      ],
      [
        "”",
        -7.077349202503836
      ],
      [
        "▁“",
        -7.1018675956025135
      ],
      [
        "▁એટલે",
        -7.115907833827789
      ],
      [
        "▁તેના",
        -7.1236609131433095
      ],
      [
        "▁મારી",
        -7.153016784738547
      ],
      [
        "▁?",
        -7.161244443928618
      ],
      [
        "▁હતું.",
        -7.16743808509881
      ],
      [
        "..",
        -7.172784614173155
      ],
      [
        "▁અહીં",
        -7.1831158816350555
      ],
      [
        "માંથી",
        -7.1857522388024755
      ],
      [
        "▁બાદ",
        -7.191782109177588
      ],
      [
        "તા",
        -7.192665325619222
      ],
      [
        "▁હતું",
        -7.194718329127284
      ],
      [
        "▁તેની",
        -7.2109309275491
      ],
      [
        "▁સૌથી",
        -7.2119257464662
      ],
      [
        "▁સમય",
        -7.214121009818728
      ],
      [
        "▁સામે",
        -7.2168039931863035
      ],
      [
        "▁નહીં",
        -7.216950190224539
      ],
      [
        "સ",
        -7.219125608160487
      ],
      [
        "ઓ",
        -7.232183106375853
      ],
      [
        "▁વર્ષ",
        -7.263799923992865
      ],
      [
        "▁મારા",
        -7.269317925943044
      ],
      [
        "મ",
        -7.271275904274239
      ],
      [
        "▁જ્યારે",
        -7.276832465238204
      ],
      [
        "▁»",
        -7.27732298855136
      ],
      [
        "▁કહ્યું",
        -7.285453115577091
      ],
      [
        "જ",
        -7.288928770501949
      ],
      [
        "્સ",
        -7.299412729328861
      ],
      [
        "▁હતી",
        -7.301849953304213
      ],
      [
        "▁!",
        -7.304088822212234
      ],
      [
        "▁તેઓ",
        -7.318912957418039
      ],
      [
        "'",
        -7.321328727924568
      ],
      [
        "▁તમને",
        -7.321747304823553
      ],
      [
        "▁દિવસ",
        -7.329568593334841
      ],
      [
        "s",
        -7.344736433792509
      ],
      [
        "▁કર્યો",
        -7.361405864129315
      ],
      [
        "▁મળી",
        -7.362570468895562
      ],
      [
        "▁બની",
        -7.363275260371962
      ],
      [
        "▁રહ્યા",
        -7.366936758328064
      ],
      [
        "▁ત્યાં",
        -7.367769979162345
      ],
      [
        "▁પાસે",
        -7.37016157417834
      ],
      [
        "▁કે,",
        -7.383408049336037
      ],
      [
        "▁કરીને",
        -7.386497437310503
      ],
      [
        "/",
        -7.389962370147703
      ],
      [
        "▁કારણે",
        -7.391416562326576
      ],
      [
        "▁કરતા",
        -7.396152731122667
      ],
      [
        "ઃ",
        -7.400161412345202
      ],
      [
        "▁પોતાના",
        -7.402099288859219
      ],
      [
        "▁નામ",
        -7.404783920820144
      ],
      [
        "▁તરીકે",
        -7.410158151041763
      ],
      [
        "▁જોવા",
        -7.4135798634269605
      ],
      [
        "▁ઉપર",
        -7.414030823309696
      ],
      [
        "▁ફિલ્મ",
        -7.416907864609119
      ],
      [
        "ય",
        -7.419033946704715
      ],
      [
        "▁ગયા",
        -7.422701337015525
      ],
      [
        "▁એમ",
        -7.422782128618172
      ],
      [
        "▁તમારી",
        -7.42810237902156
      ],
      [
        "▁અમે",
        -7.436540117335772
      ],
      [
        "▁અથવા",
        -7.438906396920492
      ],
      [
        "▁ખૂબ",
        -7.455151362872217
      ],
      [
        "▁\"",
        -7.456488728816225
      ],
      [
        "▁દરેક",
        -7.457865222962848
      ],
      [
        "▁આપી",
        -7.463123175558151
      ],
      [
        "▁વિશે",
        -7.465409258779282
      ],
      [
        "▁તેમના",
        -7.475189116689334
      ],
      [
        "▁આપણે",
        -7.475645024963438
      ],
      [
        "▁પહેલા",
        -7.48211724249745
      ],
      [
        "▁માત્ર",
        -7.504425413659
      ],
      [
        "▁કહે",
        -7.5113371205630255
      ],
      [
        "\"",
        -7.512202051698621
      ],
      [
        "▁તથા",
        -7.526387965074274
      ],
      [
        "▁કર્યું",
        -7.527869594020332
      ],
      [
        "▁બધા",
        -7.5316008114034645
      ],
      [
        "▁'",
        -7.5344584652731825
      ],
      [
        "▁રહે",
        -7.53865563357029
      ],
      [
        "▁કોઇ",
        -7.552346247586385
      ],
      [
        "▁હતો",
        -7.554478988903675
      ],
      [
        "મા",
        -7.556325816325094
      ],
      [
        "▁વચ્ચે",
        -7.5588473134571075
      ],
      [
        "▁છે?",
        -7.560089831545929
      ],
      [
        "▁તમામ",
        -7.560436535155366
      ],
      [
        "▁તેમણે",
        -7.576081216313657
      ],
      [
        "▁નવી",
        -7.5936737309521405
      ],
      [
        "▁એવું",
        -7.5939801842545265
      ],
      [
        "▁Gujarati",
        -7.59557252781935
      ],
      [
        "▁તેમને",
        -7.597455080334582
      ],
      [
        "▁શરૂ",
        -7.597910637204992
      ],
      [
        "▁કેમ",
        -7.608640257280303
      ],
      [
        "▁વધારે",
        -7.611639371552462
      ],
      [
        "▁પોતાની",
        -7.6159636509552975
      ],
      [
        "▁એવી",
        -7.6208409565759965
      ],
      [
        "▁છો",
        -7.621028338973913
      ],
      [
        "▁મોદી",
        -7.621906790257636
      ],
      [
        "▁મુખ્ય",
        -7.6284495487268416
      ],
      [
        "▁માહિતી",
        -7.629417801705991
      ],
      [
        "▁મળે",
        -7.629636230450599
      ],
      [
        "▁જાણો",
        -7.634773278732075
      ],
      [
        "▁સરકાર",
        -7.638227283400031
      ],
      [
        "▁રોજ",
        -7.658158116614269
      ],
      [
        "▁જેમ",
        -7.6621092963605175
      ],
      [
        "▁રહ્યો",
        -7.674452131237787
      ],
      [
        "ત",
        -7.677529095277308
      ],
      [
        "▁આવ્યો",
        -7.6833371892314215
      ],
      [
        "▁તેમની",
        -7.684147566650278
      ],
      [
        "▁કારણ",
        -7.684968388652928
      ],
      [
        "▁ઉપયોગ",
        -7.6862426106556825
      ],
      [
        "પ",
        -7.692730581627863
      ],
      [
        "▁કરતાં",
        -7.693371463351218
      ],
      [
        "▁જણાવ્યું",
        -7.69701057754172
      ],
      [
        "▁મેં",
        -7.705580655290872
      ],
      [
        "▁શ્રી",
        -7.70637561390293
      ],
      [
        "▁2018",
        -7.707268558025103
      ],
      [
        "▁થયો",
        -7.71727167874354
      ],
      [
        "▁આવ્યા",
        -7.7209125949960615
      ],
      [
        "ું",
        -7.728253686752161
      ],
      [
        "▁ભારત",
        -7.7363602308219
      ],
      [
        "▁શકો",
        -7.737142307670647
      ],
      [
        "▁News",
        -7.738110479563318
      ],
      [
        "ies",
        -7.746702575390454
      ],
      [
        "▁તેમ",
        -7.7473329375302775
      ],
      [
        "▁પસંદ",
        -7.751569618038147
      ],
      [
        "▁on",
        -7.751719844600709
      ],
      [
        "▁2",
        -7.751849271302895
      ],
      [
        "▁અ",
        -7.752012103470445
      ],
      [
        "▁હતા",
        -7.758075530468307
      ],
      [
        "▁(1)",
        -7.76103503531524
      ],
      [
        "▁ત્રણ",
        -7.764423819738102
      ],
      [
        "▁10",
        -7.7707778047254905
      ],
      [
        "▁બહાર",
        -7.77745001168879
      ],
      [
        "▁જીવન",
        -7.777626314087081
      ],
      [
        "▁...",
        -7.785013791876281
      ],
      [
        "▁1",
        -7.787196288570989
      ],
      [
        "▁કેવી",
        -7.788810579256623
      ],
      [
        "▁લાગે",
        -7.7891622398939155
      ],
      [
        "]",
        -7.78982168255617
      ],
      [
        "▁કર્યા",
        -7.79198201067368
      ],
      [
        "▁નવા",
        -7.798104945709438
      ],
      [
        "▁પડે",
        -7.798178016387395
      ],
      [
        "▁પડી",
        -7.802656550587779
      ],
      [
        "▁5",
        -7.804967061358827
      ],
      [
        "▁ક્લિક",
        -7.805747411138283
      ],
      [
        "▁ભારતીય",
        -7.809214338663731
      ],
      [
        "▁ગયો",
        -7.81069158541753
      ],
      [
        "તો",
        -7.816869132355851
      ],
      [
        "▁જરૂર",
        -7.81792461304968
      ],
      [
        "વા",
        -7.826235502071464
      ],
      [
        "▁બંધ",
        -7.828614176805406
      ],
      [
        "▁પાણી",
        -7.8289469727826475
      ],
      [
        "▁વ્યાખ્યાઓ",
        -7.829336881789308
      ],
      [
        "▁પટેલ",
        -7.830756632355483
      ],
      [
        "▁/",
        -7.832183122412303
      ],
      [
        "▁3",
        -7.83279869452887
      ],
      [
        "▁પ્રથમ",
        -7.83390832511097
      ],
      [
        "▁પ્રેમ",
        -7.835065036277342
      ],
      [
        "Oxford",
        -7.835925598124858
      ],
      [
        "ટ",
        -7.836037943479647
      ],
      [
        "▁Dictionar",
        -7.836147869740172
      ],
      [
        "▁Living",
        -7.837037732163282
      ],
      [
        "▁ખાસ",
        -7.837388441504018
      ],
      [
        "▁કરો.",
        -7.83875597122276
      ],
      [
        "▁થયા",
        -7.846829249286875
      ],
      [
        "આ",
        -7.848169309936402
      ],
      [
        "▁પહેલાં",
        -7.848661477295906
      ],
      [
        "▁કરવાની",
        -7.849870309576906
      ],
      [
        "▁છું",
        -7.850095853532661
      ],
      [
        "▁બીજા",
        -7.852442375750746
      ],
      [
        "▁લાખ",
        -7.853394122113343
      ],
      [
        "▁થયું",
        -7.854832769997731
      ],
      [
        "▁દૂર",
        -7.858075557476647
      ],
      [
        "▁શકાય",
        -7.8624832497668
      ],
      [
        "▁બહુ",
        -7.863917422531506
      ],
      [
        "▁જેમાં",
        -7.866276172445865
      ],
      [
        "▁ફરી",
        -7.870032480019779
      ],
      [
        "▁નીચે",
        -7.871770907101922
      ],
      [
        "▁ગઈ",
        -7.87182384004535
      ],
      [
        "▁ભાવ",
        -7.8745943231269155
      ],
      [
        "▁તેમાં",
        -7.875051020482482
      ],
      [
        "ઈ",
        -7.876019529752975
      ],
      [
        "શ",
        -7.881097836364566
      ],
      [
        "▁આપે",
        -7.885527322320568
      ],
      [
        "▁હાથ",
        -7.897131429446873
      ],
      [
        "▁આવ્યું",
        -7.908745019199516
      ],
      [
        "▁જુઓ",
        -7.914699113145733
      ],
      [
        "▁શેર",
        -7.915599494873362
      ],
      [
        "▁અનેક",
        -7.921850703738434
      ],
      [
        "▁આગળ",
        -7.92749895144579
      ],
      [
        "▁જવાબ",
        -7.930520496412141
      ],
      [
        "▁અંગે",
        -7.932889314638418
      ],
      [
        "ડ",
        -7.934569425604318
      ],
      [
        "▁ઓફ",
        -7.94315343957982
      ],
      [
        "▁જેવા",
        -7.943182043431646
      ],
      [
        "▁4",
        -7.951894708042856
      ],
      [
        "▁પોસ્ટ",
        -7.9534874992899685
      ],
      [
        ";",
        -7.966775625685456
      ],
      [
        "▁તરફ",
        -7.969404715260433
      ],
      [
        "▁પોલીસ",
        -7.9699563658539265
      ],
      [
        "લી",
        -7.97137184902933
      ],
      [
        "▁વખતે",
        -7.976798402710818
      ],
      [
        "▁કેટલાક",
        -7.977488897258413
      ],
      [
        "જી",
        -7.980590701522971
      ],
      [
        "▁દરમિયાન",
        -7.986487195676435
      ],
      [
        "▁મન",
        -7.986825091537034
      ],
      [
        "▁ભાગ",
        -7.988281552063505
      ],
      [
        "▁વાર",
        -7.990970825959
      ],
      [
        "▁ઘણા",
        -7.991017837741486
      ],
      [
        "▁IST",
        -7.997684733597536
      ],
      [
        "▁બંને",
        -8.006769117495054
      ],
      [
        "▁મા",
        -8.008528234095587
      ],
      [
        "▁સુંદર",
        -8.009538798464968
      ],
      [
        "▁access",
        -8.00977114372416
      ],
      [
        "_time",
        -8.009775962206326
      ],
      [
        "▁જેવી",
        -8.011472194453264
      ],
      [
        "તી",
        -8.01379701256859
      ],
      [
        "▁રહ્યું",
        -8.017892890289932
      ],
      [
        "▁બીજી",
        -8.019556946654498
      ],
      [
        "્",
        -8.019576459378815
      ],
      [
        "▁ટકા",
        -8.02125464997362
      ],
      [
        "▁આપ",
        -8.02150178270626
      ],
      [
        "▁ખબર",
        -8.023629695252346
      ],
      [
        "▁મેળવવા",
        -8.026015627743785
      ],
      [
        "▁તું",
        -8.02662944482509
      ],
      [
        "▁થશે",
        -8.02992245452662
      ],
      [
        "▁એવા",
        -8.030843526703165
      ],
      [
        "▁મોટી",
        -8.032750682523044
      ],
      [
        "▁છું.",
        -8.034531094473211
      ],
      [
        "વી",
        -8.036954664005666
      ],
      [
        "▁એને",
        -8.039784528118695
      ],
      [
        "▁મોટા",
        -8.04286436446177
      ],
      [
        "▁નહિ",
        -8.043677383560459
      ],
      [
        "▁યાદ",
        -8.048634736609607
      ],
      [
        "લા",
        -8.049731966929167
      ],
      [
        "▁લેખ",
        -8.05350705100016
      ],
      [
        "▁ચૂંટણી",
        -8.059487488883109
      ],
      [
        "▁લગ્ન",
        -8.060739550109025
      ],
      [
        "▁ખુબ",
        -8.06201813620249
      ],
      [
        "▁આમ",
        -8.063826804581286
      ],
      [
        "▁અમને",
        -8.066247353060511
      ],
      [
        "રી",
        -8.071839756440541
      ],
      [
        "....",
        -8.074604701025866
      ],
      [
        "▁લઈ",
        -8.077492765851044
      ],
      [
        "▁તૈયાર",
        -8.084845865258043
      ],
      [
        "▁છતાં",
        -8.085900504447375
      ],
      [
        "વ",
        -8.087398287778251
      ],
      [
        "▁મદદ",
        -8.091330049732763
      ],
      [
        "▁શિક્ષણ",
        -8.097865415149231
      ],
      [
        "▁મહિલા",
        -8.099961531535135
      ],
      [
        "▁ઉત્તર",
        -8.104321542528615
      ],
      [
        "▁ઘર",
        -8.106301043353668
      ],
      [
        "▁દિવસે",
        -8.109962267604365
      ],
      [
        "▁જ્યાં",
        -8.111299664505918
      ],
      [
        "▁છો.",
        -8.111837621471269
      ],
      [
        "▁મુજબ",
        -8.121078313442448
      ],
      [
        "▁ચાર",
        -8.121401536983068
      ],
      [
        "િંગ",
        -8.12331710383759
      ],
      [
        "▁અલગ",
        -8.12369648015541
      ],
      [
        "e",
        -8.12700202114516
      ],
      [
        "▁સમયે",
        -8.13386379938154
      ],
      [
        "▁પાંચ",
        -8.135655286338967
      ],
      [
        "▁આપણા",
        -8.139595359292668
      ],
      [
        "▁ફોન",
        -8.141076679224195
      ],
      [
        "▁અમારા",
        -8.148691295744149
      ],
      [
        "▁આવા",
        -8.153367273043512
      ],
      [
        "▁તેણે",
        -8.158275108297874
      ],
      [
        "ુ",
        -8.15862265595434
      ],
      [
        "▁તેનો",
        -8.159823100731778
      ],
      [
        "▁ઘણી",
        -8.161636794022117
      ],
      [
        "▁વખત",
        -8.16546291983647
      ],
      [
        "▁રમત",
        -8.166208621535288
      ],
      [
        "▁આપવામાં",
        -8.168168788267069
      ],
      [
        "▁તેમજ",
        -8.169740115931514
      ],
      [
        "▁સામગ્રી",
        -8.175372572362047
      ],
      [
        "ઝ",
        -8.179243210127042
      ],
      [
        "▁વિચાર",
        -8.185615233139345
      ],
      [
        "▁ખાતે",
        -8.188038932569942
      ],
      [
        "▁સામાન્ય",
        -8.194164385590145
      ],
      [
        "ed",
        -8.197771222815364
      ],
      [
        "▁જાહેર",
        -8.203831976442078
      ],
      [
        "(",
        -8.20388765276384
      ],
      [
        "▁6",
        -8.20666905968683
      ],
      [
        "▁વ્યક્તિ",
        -8.207708982487759
      ],
      [
        "▁કરોડ",
        -8.218558926049724
      ],
      [
        "ણ",
        -8.225631405392098
      ],
      [
        "િત",
        -8.225736791985325
      ],
      [
        "▁રૂપિયા",
        -8.236030616971412
      ],
      [
        "▁એની",
        -8.237371752452699
      ],
      [
        "ભાઈ",
        -8.238822191177654
      ],
      [
        "▁આનંદ",
        -8.243588449329419
      ],
      [
        "▁ધર્મ",
        -8.244061535832174
      ],
      [
        "▁કહી",
        -8.246398510670813
      ],
      [
        "▁હશે",
        -8.249697693252948
      ],
      [
        "િ",
        -8.254401373467838
      ],
      [
        "ડી",
        -8.255670017306798
      ],
      [
        "▁મેનેજમેન્ટ",
        -8.258926517625731
      ],
      [
        "▁લોકોને",
        -8.259284522047633
      ],
      [
        "▁જરૂરી",
        -8.26335754239702
      ],
      [
        "▁બ્લોગ",
        -8.264836403847745
      ],
      [
        "▁જોઈ",
        -8.264956302633264
      ],
      [
        "▁લઈને",
        -8.267058550063847
      ],
      [
        "▁ધ્યાન",
        -8.267773993622892
      ],
      [
        "▁ભગવાન",
        -8.268969589987192
      ],
      [
        "▁ડાઉનલોડ",
        -8.283703933422512
      ],
      [
        "▁સારી",
        -8.28458142858689
      ],
      [
        "▁ઉપરાંત",
        -8.28795550420989
      ],
      [
        "▁રૂ.",
        -8.290109747765374
      ],
      [
        "▁સાહિત્ય",
        -8.29205767606133
      ],
      [
        "▁આપો",
        -8.292826320967228
      ],
      [
        "▁તેવી",
        -8.297290132967174
      ],
      [
        "▁જોઈએ",
        -8.299802958030792
      ],
      [
        "▁જન્મ",
        -8.301979242619028
      ],
      [
        "▁આવશે.",
        -8.304189833417498
      ],
      [
        "▁કરવું",
        -8.305482731822348
      ],
      [
        "▁#",
        -8.307598552194905
      ],
      [
        "▁છેલ્લા",
        -8.308966557451035
      ],
      [
        "▁બધી",
        -8.314004320576174
      ],
      [
        "▁બસ",
        -8.314944072476564
      ],
      [
        "▁pm",
        -8.319855690794007
      ],
      [
        "▁સરસ",
        -8.321348754555427
      ],
      [
        "▁વાતો",
        -8.321423134432177
      ],
      [
        "▁વગર",
        -8.324097753605102
      ],
      [
        "દ",
        -8.324583586213588
      ],
      [
        "▁તા.",
        -8.325681376974481
      ],
      [
        "▁કોંગ્રેસ",
        -8.32902510082849
      ],
      [
        "▁બનાવી",
        -8.331236166737904
      ],
      [
        "▁8",
        -8.333105382988848
      ],
      [
        "ગ",
        -8.335133085527579
      ],
      [
        "▁જોઈએ.",
        -8.336935367123003
      ],
      [
        "મી",
        -8.340648351829126
      ],
      [
        "નુ",
        -8.341328989302333
      ],
      [
        "▁7",
        -8.34202628636222
      ],
      [
        "▁દક્ષિણ",
        -8.345313549019874
      ],
      [
        "▁આપવા",
        -8.346044079421246
      ],
      [
        "▁આજ",
        -8.35152205800972
      ],
      [
        "▁સેવા",
        -8.353252728289732
      ],
      [
        "▁બાળકો",
        -8.357816351094542
      ],
      [
        "▁એના",
        -8.358424704177153
      ],
      [
        "ઇ",
        -8.360742108642679
      ],
      [
        "▁ક્યાં",
        -8.362772421525131
      ],
      [
        "▁ગાંધી",
        -8.363898259833135
      ],
      [
        "▁વર્ષે",
        -8.364738103543335
      ],
      [
        "▁બધું",
        -8.366908062562786
      ],
      [
        "▁દેશ",
        -8.367781725863829
      ],
      [
        "્યા",
        -8.371736653167163
      ],
      [
        "▁ચાલુ",
        -8.37178487313507
      ],
      [
        "▁12",
        -8.381824862597599
      ],
      [
        "▁જાણવા",
        -8.38215766592602
      ],
      [
        "▁મે",
        -8.382333987567243
      ],
      [
        "▁પાછળ",
        -8.386195417154612
      ],
      [
        "[",
        -8.386237062027654
      ],
      [
        "▁ગયું",
        -8.38648041469611
      ],
      [
        "રા",
        -8.386879391158063
      ],
      [
        "યા",
        -8.392808113997278
      ],
      [
        "▁થશે.",
        -8.39315716980222
      ],
      [
        "▁મોત",
        -8.395337594015654
      ],
      [
        "▁તપાસ",
        -8.395677009350322
      ],
      [
        "▁લઇ",
        -8.397833398132601
      ],
      [
        "▁નરેન્દ્ર",
        -8.400131397745632
      ],
      [
        "▁૧",
        -8.400331007606507
      ],
      [
        "▁તમારો",
        -8.400543687888272
      ],
      [
        "▁નથી,",
        -8.401240748743371
      ],
      [
        "▁અમદાવાદ",
        -8.401929025313986
      ],
      [
        "▁કંપની",
        -8.403206933723222
      ],
      [
        "▁કાર",
        -8.404558836868873
      ],
      [
        "▁તેથી",
        -8.404771973701783
      ],
      [
        "વું",
        -8.405194119606623
      ],
      [
        "▁વિવિધ",
        -8.40562512601796
      ],
      [
        "▁માણસ",
        -8.405935754659552
      ],
      [
        "▁મુલાકાત",
        -8.41102260274442
      ],
      [
        "બ",
        -8.411943127780361
      ],
      [
        "▁અંદર",
        -8.412348415480464
      ],
      [
        "▁વાર્તા",
        -8.417125996809027
      ],
      [
        "▁છીએ",
        -8.417495382937721
      ],
      [
        "▁15",
        -8.419410813823497
      ],
      [
        "▁પ્રમાણે",
        -8.419733335365589
      ],
      [
        "▁બને",
        -8.420745574683353
      ],
      [
        "▁એવો",
        -8.42179483244242
      ],
      [
        "▁મારો",
        -8.423123548285151
      ],
      [
        "▁વર્ષની",
        -8.423570096214654
      ],
      [
        "▁ગમે",
        -8.429021823464385
      ],
      [
        "▁ઘરે",
        -8.429027427201522
      ],
      [
        "▁તેનું",
        -8.430804015381241
      ],
      [
        "▁આવતા",
        -8.434990923885866
      ],
      [
        "▁•",
        -8.437044519957173
      ],
      [
        "▁પૃષ્ઠ",
        -8.43732331877758
      ],
      [
        "▁યોગ્ય",
        -8.43759171192428
      ],
      [
        "▁નિર્ણય",
        -8.43791970286319
      ],
      [
        "▁સરળ",
        -8.440141302546023
      ],
      [
        "▁સતત",
        -8.44309028575222
      ],
      [
        "▁રાહુલ",
        -8.444069226010946
      ],
      [
        "▁।",
        -8.448025634264708
      ],
      [
        "સી",
        -8.448835326688307
      ],
      [
        "▁વિકાસ",
        -8.449968156206806
      ],
      [
        "▁સવારે",
        -8.450374780803202
      ],
      [
        "▁અમારી",
        -8.451242996470494
      ],
      [
        "▁કરવી",
        -8.453865331358257
      ],
      [
        "▁વડાપ્રધાન",
        -8.454392146367805
      ],
      [
        "▁મધ્ય",
        -8.457111586626864
      ],
      [
        "▁કઈ",
        -8.457211673636277
      ],
      [
        "▁પૈસા",
        -8.460554493731802
      ],
      [
        "▁ભાજપ",
        -8.460742621052084
      ],
      [
        "▁પહોંચી",
        -8.46414596339871
      ],
      [
        "▁ભારતમાં",
        -8.465310494676546
      ],
      [
        "▁વીડિયો",
        -8.465594864645933
      ],
      [
        "▁સહિત",
        -8.467028203734557
      ],
      [
        "▁લો",
        -8.467367993779392
      ],
      [
        "▁છે:",
        -8.467390545375693
      ],
      [
        "▁શા",
        -8.473033252270454
      ],
      [
        "▁ધ",
        -8.474876390133383
      ],
      [
        "▁વરસાદ",
        -8.475905344408527
      ],
      [
        "▁ઉપલબ્ધ",
        -8.477892715707451
      ],
      [
        "▁મારે",
        -8.478260269096312
      ],
      [
        "▁આવેલા",
        -8.479136783382366
      ],
      [
        "▁કરશે",
        -8.482941488966903
      ],
      [
        "▁નંબર",
        -8.483598511447255
      ],
      [
        "હ",
        -8.487906242052055
      ],
      [
        "_",
        -8.488037430189802
      ],
      [
        "▁હજુ",
        -8.490500364576807
      ],
      [
        "િક",
        -8.491562482007422
      ],
      [
        "▁લે",
        -8.491730231166567
      ],
      [
        "▁લેવા",
        -8.493493253364777
      ],
      [
        "▁હતાં.",
        -8.495191095738772
      ],
      [
        "▁ફક્ત",
        -8.495642507017877
      ],
      [
        "▁રાજ્ય",
        -8.496120227418256
      ],
      [
        "▁11",
        -8.496269885190248
      ],
      [
        "▁*",
        -8.498031986110835
      ],
      [
        "▁પુસ્તક",
        -8.499911217103199
      ],
      [
        "▁in",
        -8.500043932703406
      ],
      [
        "▁જાણે",
        -8.503822882549395
      ],
      [
        "▁તને",
        -8.5051327908687
      ],
      [
        "▁શબ્દ",
        -8.509801291781915
      ],
      [
        "▁કોણ",
        -8.510515595097969
      ],
      [
        "▁આપણી",
        -8.51214105911184
      ],
      [
        "▁વધી",
        -8.517673148280519
      ],
      [
        "ફ",
        -8.52009672935492
      ],
      [
        "▁9",
        -8.520578134806547
      ],
      [
        "▁નહીં.",
        -8.52328441854166
      ],
      [
        "▁કરવાનું",
        -8.523418870648513
      ],
      [
        "▁ગીત",
        -8.523578966862177
      ],
      [
        "▁પરથી",
        -8.523853343087211
      ],
      [
        "▁અસર",
        -8.524264939870394
      ],
      [
        "▁ઘટના",
        -8.525501877911044
      ],
      [
        "▁છ",
        -8.526793405318372
      ],
      [
        "▁શાહ",
        -8.527503094085525
      ],
      [
        "રો",
        -8.530197370311296
      ],
      [
        "▁સમાચારો",
        -8.531933078585158
      ],
      [
        "▁હેઠળ",
        -8.532746597258335
      ],
      [
        "ડા",
        -8.534170434936998
      ],
      [
        "▁કરવો",
        -8.536276246549352
      ],
      [
        "▁વગેરે",
        -8.537921771808021
      ],
      [
        "▁નજીક",
        -8.538480288628406
      ],
      [
        "▁વાંચો",
        -8.539127234908586
      ],
      [
        "▁જાહેરાત",
        -8.540214965928229
      ],
      [
        "▁લગભગ",
        -8.540218625650532
      ],
      [
        "▁દર",
        -8.54320703796331
      ],
      [
        "▁રહેશે.",
        -8.543298741250137
      ],
      [
        "▁ભારે",
        -8.543326844952205
      ],
      [
        "▁નક્કી",
        -8.543642934901284
      ],
      [
        "▁S",
        -8.543827125307669
      ],
      [
        "▁ડે",
        -8.544253248977588
      ],
      [
        "કા",
        -8.546396572235288
      ],
      [
        "▁હાર્દિક",
        -8.546602777454407
      ],
      [
        "▁જેને",
        -8.54736403326882
      ],
      [
        "▁હજાર",
        -8.550989948790686
      ],
      [
        "▁થવા",
        -8.552384335636406
      ],
      [
        "▁લાભ",
        -8.558649978566828
      ],
      [
        "▁ભાષા",
        -8.560710503821188
      ],
      [
        "▁થોડા",
        -8.561303906518457
      ],
      [
        "▁ભાઈ",
        -8.561498292388421
      ],
      [
        "▁વધારો",
        -8.564111846020015
      ],
      [
        "વો",
        -8.565414754965985
      ],
      [
        "▁ચર્ચા",
        -8.566987843115456
      ],
      [
        "▁મિત્રો",
        -8.567595524254916
      ],
      [
        "▁કરતી",
        -8.569640371652158
      ],
      [
        "▁નહી",
        -8.574443318788187
      ],
      [
        "▁જેવું",
        -8.577776234694277
      ],
      [
        "▁આગામી",
        -8.57826035136749
      ],
      [
        "▁અનુભવ",
        -8.579937688688908
      ],
      [
        "▁આવું",
        -8.581207625677514
      ],
      [
        "થ",
        -8.582383075733276
      ],
      [
        "▁પત્ની",
        -8.583034652710058
      ],
      [
        "▁&",
        -8.583850565145363
      ],
      [
        "d",
        -8.58450623191758
      ],
      [
        "▁કરવાનો",
        -8.585983509093275
      ],
      [
        "▁કદાચ",
        -8.586918480502355
      ],
      [
        "▁કાર્ય",
        -8.587742306119864
      ],
      [
        "▁નોકરી",
        -8.597496318996026
      ],
      [
        "▁ઘરમાં",
        -8.603190860698621
      ],
      [
        "▁જેથી",
        -8.603536318840153
      ],
      [
        "ટી",
        -8.605527623117425
      ],
      [
        "▁દે",
        -8.605868271975682
      ],
      [
        "તું",
        -8.606548096564335
      ],
      [
        "▁સંપર્ક",
        -8.608958260872042
      ],
      [
        "▁પૂર્વ",
        -8.611353739713646
      ],
      [
        "▁જશે",
        -8.612423178047276
      ],
      [
        "▁રહ્યાં",
        -8.613833552589323
      ],
      [
        "▁૧૦",
        -8.61634979090983
      ],
      [
        "▁સરકારે",
        -8.618594259650365
      ],
      [
        "▁હાલ",
        -8.619859571736662
      ],
      [
        "▁ટીમ",
        -8.620024257715766
      ],
      [
        "▁નજર",
        -8.621748245572764
      ],
      [
        "▁Home",
        -8.621809534345758
      ],
      [
        "▁મૃત્યુ",
        -8.62192595570264
      ],
      [
        "▁આવશે",
        -8.623531486613484
      ],
      [
        "▁કુલ",
        -8.623782490736328
      ],
      [
        "▁છે...",
        -8.626535065530486
      ],
      [
        "વાળા",
        -8.627711183365584
      ],
      [
        "કો",
        -8.628369526030411
      ],
      [
        "▁યોજના",
        -8.62884974510732
      ],
      [
        "▁સૌ",
        -8.63218680394257
      ],
      [
        "▁રામ",
        -8.632641728215152
      ],
      [
        "▁થતા",
        -8.634311741827256
      ],
      [
        "▁યુવા",
        -8.635190095162166
      ],
      [
        "વાર",
        -8.637232045771196
      ],
      [
        "▁બદલ",
        -8.640369849888092
      ],
      [
        "▁ફોટો",
        -8.641570279407699
      ],
      [
        "ફેરફાર",
        -8.641807646218794
      ],
      [
        "▁મોબાઇલ",
        -8.643168995661528
      ],
      [
        "▁મહિલાઓ",
        -8.643746322722395
      ],
      [
        "▁છીએ.",
        -8.647045678095019
      ],
      [
        "▁ચાલી",
        -8.649072397409528
      ],
      [
        "▁મેળવી",
        -8.64953483389231
      ],
      [
        "▁રહેવા",
        -8.651347350239389
      ],
      [
        "▁આપ્યો",
        -8.651864859201615
      ],
      [
        "▁આયોજન",
        -8.654656936632115
      ],
      [
        "કે",
        -8.655949003943363
      ],
      [
        "▁રસ",
        -8.656446298919745
      ],
      [
        "ભાઇ",
        -8.656986444757274
      ],
      [
        "▁20",
        -8.6583084637266
      ],
      [
        "▁ગુજરાતમાં",
        -8.658324322794751
      ],
      [
        "▁સારા",
        -8.658507809768121
      ],
      [
        "▁રોડ",
        -8.658859396270294
      ],
      [
        "▁જેના",
        -8.65910498388029
      ],
      [
        "▁સમગ્ર",
        -8.659486260590729
      ],
      [
        "▁રે",
        -8.660219283408264
      ],
      [
        "▁ગઝલ",
        -8.660301712471373
      ],
      [
        "▁મોટો",
        -8.665947891515902
      ],
      [
        "▁સમાજ",
        -8.666851995459602
      ],
      [
        "▁બનાવવા",
        -8.670538318427248
      ],
      [
        "▁ક્યારેય",
        -8.671103392761065
      ],
      [
        "▁વિષે",
        -8.674184663287118
      ],
      [
        "▁મીડિયા",
        -8.676198450965904
      ],
      [
        "▁મળશે",
        -8.676917840566983
      ],
      [
        "▁જવા",
        -8.676938830878917
      ],
      [
        "▁નીતિ",
        -8.678307868230881
      ],
      [
        "▁વિશ્વ",
        -8.679504883042641
      ],
      [
        "ળ",
        -8.683366145232114
      ],
      [
        "▁૨",
        -8.684248216065793
      ],
      [
        "▁વસ્તુઓ",
        -8.684306042324122
      ],
      [
        "▁વિજય",
        -8.684792369206345
      ],
      [
        "▁કરશે.",
        -8.685932330460556
      ],
      [
        "▁સમસ્યા",
        -8.688513986517279
      ],
      [
        "▁શબ્દો",
        -8.68857952812101
      ],
      [
        "▁રાખી",
        -8.68968975709668
      ],
      [
        "▁મંદિર",
        -8.690670683198439
      ],
      [
        "શે",
        -8.693543773373262
      ],
      [
        "▁તમારે",
        -8.6972045784455
      ],
      [
        "▁કેન્દ્ર",
        -8.698711199777298
      ],
      [
        "▁લાગી",
        -8.70003823443879
      ],
      [
        "▁પ્રાપ્ત",
        -8.700695378231526
      ],
      [
        "▁સ્ત્રી",
        -8.701446708735567
      ],
      [
        "▁ખરેખર",
        -8.704063397197778
      ],
      [
        "▁અભ્યાસ",
        -8.706408275544774
      ],
      [
        "▁Previous",
        -8.708020008953538
      ],
      [
        "▁Next",
        -8.708972238940241
      ],
      [
        "▁દર્શન",
        -8.709604741373605
      ],
      [
        "▁બનાવો",
        -8.712374250714692
      ],
      [
        "▁વિના",
        -8.719669302756763
      ],
      [
        "▁સુ",
        -8.720611524726433
      ],
      [
        "▁ઓનલાઇન",
        -8.720694742569473
      ],
      [
        "▁પોલીસે",
        -8.723569522950353
      ],
      [
        "▁સંબંધ",
        -8.724069037173166
      ],
      [
        "▁એન્ડ",
        -8.72548005049114
      ],
      [
        "▁નાના",
        -8.726582568815218
      ],
      [
        "▁જાઓ",
        -8.727564549468376
      ],
      [
        "▁છે!",
        -8.730169217544267
      ],
      [
        "i",
        -8.730586371017903
      ],
      [
        "ોને",
        -8.732104058448426
      ],
      [
        "▁જ્ઞાન",
        -8.732836360218592
      ],
      [
        "▁વેબસાઇટ",
        -8.733133124541018
      ],
      [
        "▁ફરિયાદ",
        -8.733245665865372
      ],
      [
        "▁આવેલ",
        -8.735169812453046
      ],
      [
        "▁પોતે",
        -8.736781517432252
      ],
      [
        "▁જમીન",
        -8.737751713794237
      ],
      [
        "લો",
        -8.738526284618668
      ],
      [
        "▁૩",
        -8.739366372721813
      ],
      [
        "▁am",
        -8.74154269333819
      ],
      [
        "▁પહેલી",
        -8.74159752041993
      ],
      [
        "▁ખાન",
        -8.742938447522167
      ],
      [
        "▁લીધે",
        -8.743204261466985
      ],
      [
        "ચ",
        -8.749189188744232
      ],
      [
        "િયા",
        -8.749276169549294
      ],
      [
        "▁જઈ",
        -8.751315619305528
      ],
      [
        "▁પાસેથી",
        -8.751390700793642
      ],
      [
        "▁પ્રમુખ",
        -8.752424123703964
      ],
      [
        "▁પાકિસ્તાન",
        -8.752814498742296
      ],
      [
        "▁માતા",
        -8.7539873419096
      ],
      [
        "▁શકે.",
        -8.75426851635685
      ],
      [
        "▁પ્રશ્ન",
        -8.758709574244335
      ],
      [
        "▁પૂરી",
        -8.761256359446289
      ],
      [
        "▁બાળક",
        -8.76177686186992
      ],
      [
        "▁શરૂઆત",
        -8.762547749353988
      ],
      [
        "▁રંગ",
        -8.763055565536478
      ],
      [
        "▁વિભાગ",
        -8.76451193490034
      ],
      [
        "▁બેઠક",
        -8.764788471903792
      ],
      [
        "▁સ",
        -8.765144460716737
      ],
      [
        "▁લેખો",
        -8.765608893605702
      ],
      [
        "▁કિંમત",
        -8.765913741741617
      ],
      [
        "▁પી",
        -8.767240331423908
      ],
      [
        "▁હેલ્થ",
        -8.767983792289519
      ],
      [
        "ાઈ",
        -8.76906995466603
      ],
      [
        "▁થતી",
        -8.76913320593641
      ],
      [
        "▁તારા",
        -8.769507590762508
      ],
      [
        "▁કંઈ",
        -8.77071041994854
      ],
      [
        "▁હશે.",
        -8.770885579886471
      ],
      [
        "▁રચના",
        -8.77205461148083
      ],
      [
        "▁હો",
        -8.77284187137867
      ],
      [
        "▁પતિ",
        -8.772879342988336
      ],
      [
        "▁પૂર્ણ",
        -8.774670150042887
      ],
      [
        "▁સુખ",
        -8.776661426982331
      ],
      [
        "▁શ્રેષ્ઠ",
        -8.777441317995113
      ],
      [
        "▁સ્થાન",
        -8.777506347936104
      ],
      [
        "▁વિસ્તારમાં",
        -8.77826785115443
      ],
      [
        "▁રજૂ",
        -8.778297820214629
      ],
      [
        "▁IPL",
        -8.778507193289524
      ],
      [
        "▁આપના",
        -8.779659597294899
      ],
      [
        "▁કચ્છ",
        -8.779973234774811
      ],
      [
        "▁બાકી",
        -8.78280882803845
      ],
      [
        "▁રહેશે",
        -8.78470782342431
      ],
      [
        "▁કલાક",
        -8.78528933513699
      ],
      [
        "▁સ્થિતિ",
        -8.785763267008743
      ],
      [
        "▁A",
        -8.786574763846332
      ],
      [
        "▁મહિના",
        -8.787960284390682
      ],
      [
        "▁વિશ્વના",
        -8.788863001488261
      ],
      [
        "▁તરફથી",
        -8.789072875231977
      ],
      [
        "▁સારું",
        -8.790005698898067
      ],
      [
        "▁ડો.",
        -8.790812845219504
      ],
      [
        "▁દેશમાં",
        -8.798156471831726
      ],
      [
        "કી",
        -8.803065596661119
      ],
      [
        "▁હજી",
        -8.803959491548913
      ],
      [
        "▁”",
        -8.806303961968347
      ],
      [
        "▁ઓછી",
        -8.80722852634326
      ],
      [
        "▁અર્થ",
        -8.807413201460804
      ],
      [
        "▁નેતા",
        -8.807785308973214
      ],
      [
        "▁ખરીદી",
        -8.808162536521447
      ],
      [
        "▁મુખ્યમંત્રી",
        -8.80963340921166
      ],
      [
        "▁બદલે",
        -8.809897514754315
      ],
      [
        "▁અમેરિકા",
        -8.810260469245602
      ],
      [
        "▁જશે.",
        -8.812521015263606
      ],
      [
        "રે",
        -8.812609829947029
      ],
      [
        "▁ઓછા",
        -8.812726261631148
      ],
      [
        "▁ઉલ્લેખ",
        -8.813095946907515
      ],
      [
        "▁ખર્ચ",
        -8.814183359449235
      ],
      [
        "▁વસ્તુ",
        -8.815457645850723
      ],
      [
        "▁જિલ્લા",
        -8.815799009490995
      ],
      [
        "▁તારી",
        -8.816463953578513
      ],
      [
        "▁અનુસાર",
        -8.818317231198003
      ],
      [
        "▁મારું",
        -8.818542800183536
      ],
      [
        "ીંગ",
        -8.819380376131443
      ],
      [
        "▁થતાં",
        -8.820360259579882
      ],
      [
        "▁જીવનમાં",
        -8.820678739070585
      ],
      [
        "▁હતી,",
        -8.82474668977085
      ],
      [
        "▁લેખક",
        -8.826481989040458
      ],
      [
        "▁સમયમાં",
        -8.828435191507674
      ],
      [
        "▁ફેશન",
        -8.829805151697183
      ],
      [
        "▁પ્રવેશ",
        -8.830192087396656
      ],
      [
        "▁દિલ્હી",
        -8.831005503145605
      ],
      [
        "▁જય",
        -8.831164534083632
      ],
      [
        "▁વિ",
        -8.831718482846705
      ],
      [
        "▁એમાં",
        -8.831924774252945
      ],
      [
        "▁article",
        -8.832072842210447
      ],
      [
        "a",
        -8.83281449348425
      ],
      [
        "▁પરીક્ષા",
        -8.833789985639328
      ],
      [
        "▁ગયો.",
        -8.834346865283738
      ],
      [
        "▁ખરાબ",
        -8.835810216074979
      ],
      [
        "▁વિચારો",
        -8.83619116156187
      ],
      [
        "▁સૌરાષ્ટ્ર",
        -8.839787389728667
      ],
      [
        "ખ",
        -8.840614700362291
      ],
      [
        "▁બન્ને",
        -8.840988937488797
      ],
      [
        "▁જતા",
        -8.841165952623783
      ],
      [
        "▁સૂચનાઓ",
        -8.841204972102673
      ],
      [
        "▁ડૉ.",
        -8.841396477311545
      ],
      [
        "▁હોવા",
        -8.841572973637135
      ],
      [
        "▁સમાવેશ",
        -8.841872591885998
      ],
      [
        "▁18",
        -8.8441394859096
      ],
      [
        "▁એટલું",
        -8.845269805230753
      ],
      [
        "▁જાણ",
        -8.84555302709537
      ],
      [
        "▁હોવાથી",
        -8.845665229101193
      ],
      [
        "▁સત્ય",
        -8.847398710154287
      ],
      [
        "▁વજન",
        -8.849929411209253
      ],
      [
        "▁સેટિંગ્સ",
        -8.854479027295366
      ],
      [
        "▁ફેરફાર",
        -8.85682896556813
      ],
      [
        "▁2017",
        -8.861393655982278
      ],
      [
        "▁આશા",
        -8.86173159156058
      ],
      [
        "્યો",
        -8.86689797830989
      ],
      [
        "▁સરકારી",
        -8.867490258472056
      ],
      [
        "▁પ્રયાસ",
        -8.867523405916486
      ],
      [
        "▁એમને",
        -8.869630340451437
      ],
      [
        "▁બાબત",
        -8.870123266108441
      ],
      [
        "▁સર્વ",
        -8.870512003744043
      ],
      [
        "▁રહેલા",
        -8.870913890333211
      ],
      [
        "▁૪",
        -8.870999549745427
      ],
      [
        "▁એમના",
        -8.871285003848701
      ],
      [
        "▁મજા",
        -8.87186301568837
      ],
      [
        "▁આવતી",
        -8.87316302193716
      ],
      [
        "▁by",
        -8.873291058842273
      ],
      [
        "▁આધાર",
        -8.873918765915283
      ],
      [
        "▁સેક્સ",
        -8.874195737995592
      ],
      [
        "▁આવો",
        -8.87578591103671
      ],
      [
        "▁નવું",
        -8.87606809736494
      ],
      [
        "▁કપ",
        -8.876738879415237
      ],
      [
        "▁ગામ",
        -8.879373629456348
      ],
      [
        "▁લીધી",
        -8.87943826099869
      ],
      [
        "્યું",
        -8.880231882378588
      ],
      [
        "▁થોડી",
        -8.881247160291622
      ],
      [
        "▁શરીર",
        -8.881496386750879
      ],
      [
        "બી",
        -8.881497636462473
      ],
      [
        "▁to",
        -8.88166703700426
      ],
      [
        "▁વિશેષ",
        -8.881864474975867
      ],
      [
        "▁હે",
        -8.882374430383555
      ],
      [
        "▁કેમેરા",
        -8.883673433884663
      ],
      [
        "▁પ",
        -8.883728276826417
      ],
      [
        "▁બ",
        -8.884138945618528
      ],
      [
        "▁આપને",
        -8.885402581866783
      ],
      [
        "▁ડિસેમ્બર",
        -8.886043804159497
      ],
      [
        "▁અમુક",
        -8.887939150167716
      ],
      [
        "▁કરનાર",
        -8.888553488881932
      ],
      [
        "▁શહેર",
        -8.888792332384682
      ],
      [
        "▁રદ",
        -8.88915321154932
      ],
      [
        "▁સિવાય",
        -8.890049762723814
      ],
      [
        "▁૫",
        -8.891256673234437
      ],
      [
        "▁કેસ",
        -8.892302255929945
      ],
      [
        "▁સફળતા",
        -8.89233443646047
      ],
      [
        "▁મૂળ",
        -8.892336454524088
      ],
      [
        "▁છોડી",
        -8.894481617458384
      ],
      [
        "vyabhaskar.co.in",
        -8.894885579835028
      ],
      [
        "▁હોઈ",
        -8.896480174214094
      ],
      [
        "▁કાર્યક્રમ",
        -8.897219430619279
      ],
      [
        "પર",
        -8.897256658683585
      ],
      [
        "▁કહેવાય",
        -8.899003698893626
      ],
      [
        "▁ગઇ",
        -8.900154658677465
      ],
      [
        "▁પિતા",
        -8.901756734247954
      ],
      [
        "–",
        -8.901838601136983
      ],
      [
        "▁વર્ષમાં",
        -8.902542886829679
      ],
      [
        "દા",
        -8.902755458250997
      ],
      [
        "▁ઇતિહાસ",
        -8.902854694823489
      ],
      [
        "▁સલમાન",
        -8.903711742995673
      ],
      [
        "▁મળશે.",
        -8.90403845710434
      ],
      [
        "▁જોકે",
        -8.904221966444071
      ],
      [
        "▁તારીખ",
        -8.904398387314604
      ],
      [
        "y",
        -8.906966003576368
      ],
      [
        "▁>",
        -8.907948234912865
      ],
      [
        "▁મુંબઈ",
        -8.90906201714396
      ],
      [
        "▁કરું",
        -8.910765874163772
      ],
      [
        "▁ભારતના",
        -8.913493045202113
      ],
      [
        "▁આપણને",
        -8.913666878156597
      ],
      [
        "▁તેવા",
        -8.915060295738051
      ],
      [
        "▁લઇને",
        -8.915224897374287
      ],
      [
        "▁દીધી",
        -8.915647651208495
      ],
      [
        "▁યોગ",
        -8.916013536686672
      ],
      [
        "▁એમની",
        -8.917040019685498
      ],
      [
        "▁આરોગ્ય",
        -8.917809084332156
      ],
      [
        "▁સુરક્ષા",
        -8.91940993227653
      ],
      [
        "▁વિરોધ",
        -8.921250913390088
      ],
      [
        "▁કેટલીક",
        -8.922696597766627
      ],
      [
        "તે",
        -8.924102787090817
      ],
      [
        "▁જગ્યા",
        -8.92420111441184
      ],
      [
        "▁સવાલ",
        -8.924363888238656
      ],
      [
        "▁ગુજરાતના",
        -8.925966955199392
      ],
      [
        "▁Post",
        -8.929298815051265
      ],
      [
        "ડો",
        -8.929725201066574
      ],
      [
        "▁સિંહ",
        -8.930396602494884
      ],
      [
        "▁શો",
        -8.931024973936758
      ],
      [
        "▁જયારે",
        -8.931332086712061
      ],
      [
        "▁શોધ",
        -8.931777535736035
      ],
      [
        "▁મળ્યો",
        -8.9346928435787
      ],
      [
        "▁છો,",
        -8.937844496661821
      ],
      [
        "▁પડશે.",
        -8.939631958581174
      ],
      [
        "▁જીવ",
        -8.939833499382154
      ],
      [
        "▁ફેસબુક",
        -8.940360744223526
      ],
      [
        "્યુ",
        -8.941252416939172
      ],
      [
        "મો",
        -8.941791836096602
      ],
      [
        "▁પગ",
        -8.94217898755878
      ],
      [
        "▁લોન્ચ",
        -8.942579131417084
      ],
      [
        "▁હાલમાં",
        -8.943561536810368
      ],
      [
        "▁તમારું",
        -8.943620352347722
      ],
      [
        "ાય",
        -8.945725946639092
      ],
      [
        "તાં",
        -8.946076042336703
      ],
      [
        "પી",
        -8.946840009164754
      ],
      [
        "▁સ્ટેશન",
        -8.947133336739522
      ],
      [
        "▁રન",
        -8.95129465994995
      ],
      [
        "▁રાષ્ટ્રીય",
        -8.95138591234375
      ],
      [
        "▁ઘણું",
        -8.95356106866728
      ],
      [
        "▁રાજ",
        -8.956166629981347
      ],
      [
        "▁દુનિયા",
        -8.957172646362391
      ],
      [
        "▁Gujarat",
        -8.958563073612446
      ],
      [
        "▁વ્યવસ્થા",
        -8.959829444678073
      ],
      [
        "▁યાદી",
        -8.961238038074402
      ],
      [
        "▁કરીએ",
        -8.961663455671063
      ],
      [
        "▁વળી",
        -8.965217931448297
      ],
      [
        "ણી",
        -8.966234500820295
      ],
      [
        "▁ગયા.",
        -8.96755250704364
      ],
      [
        "ંગ",
        -8.968303429393385
      ],
      [
        "▁પસાર",
        -8.968717474429658
      ],
      [
        "▁દાખલ",
        -8.969916138101784
      ],
      [
        ".’",
        -8.970006612645962
      ],
      [
        "▁મંત્રી",
        -8.970221059270363
      ],
      [
        "▁સંપૂર્ણ",
        -8.971987116373983
      ],
      [
        "ધ",
        -8.972139384415094
      ],
      [
        "▁ઉત્પાદન",
        -8.972561395508894
      ],
      [
        "▁અગાઉ",
        -8.97262275715758
      ],
      [
        "▁(2)",
        -8.972680903577412
      ],
      [
        "▁તરત",
        -8.973051377841372
      ],
      [
        "▁શક્તિ",
        -8.973980941959194
      ],
      [
        "▁પરિવાર",
        -8.974236542598941
      ],
      [
        "▁ચિંતા",
        -8.974568330386122
      ],
      [
        "▁19",
        -8.976515599007808
      ],
      [
        "r",
        -8.976527156980683
      ],
      [
        ".....",
        -8.977069022857474
      ],
      [
        "▁કવિતા",
        -8.97801372722543
      ],
      [
        "▁કોઈપણ",
        -8.980496627924522
      ],
      [
        "▁મૂકી",
        -8.980807722811711
      ],
      [
        "▁ચા",
        -8.980957623742547
      ],
      [
        "▁પાર",
        -8.981129667378449
      ],
      [
        "સા",
        -8.981139814388605
      ],
      [
        "જો",
        -8.981801282186641
      ],
      [
        "▁હત્યા",
        -8.981865829938595
      ],
      [
        "▁કરવાથી",
        -8.982802238431274
      ],
      [
        "▁ક્યારેક",
        -8.984659554333096
      ],
      [
        "▁વર્ષના",
        -8.984991124163205
      ],
      [
        "▁પાર્ટી",
        -8.985379368884956
      ],
      [
        "▁દેશના",
        -8.985652185027714
      ],
      [
        "▁બાજુ",
        -8.986283705833387
      ],
      [
        "▁થયેલા",
        -8.986392965713122
      ],
      [
        "▁અધિકારી",
        -8.987651429540847
      ],
      [
        "▁અત્યાર",
        -8.987673232815776
      ],
      [
        "▁નહીં,",
        -8.989133110144596
      ],
      [
        "▁લીધો",
        -8.99008826730508
      ],
      [
        "▁પ્રશ્નો",
        -8.99231934446095
      ],
      [
        "ોની",
        -8.992351902115951
      ],
      [
        "વે",
        -8.99501109914155
      ],
      [
        "▁હોવાનું",
        -8.995313287893069
      ],
      [
        "2",
        -8.995431500923715
      ],
      [
        "▁માર્ચ",
        -8.995460076095164
      ],
      [
        "▁કપૂર",
        -8.995693900345294
      ],
      [
        "▁સુરત",
        -8.99748637134859
      ],
      [
        "▁30",
        -8.997678305514347
      ],
      [
        "▁જાણી",
        -8.999976437336478
      ],
      [
        "▁રાત્રે",
        -9.003271534806883
      ],
      [
        "o",
        -9.003790968656375
      ],
      [
        "▁કરતો",
        -9.00449909476312
      ],
      [
        "▁માનવ",
        -9.005269024701892
      ],
      [
        "કર",
        -9.006206784445514
      ],
      [
        "▁પીએમ",
        -9.006441480677745
      ],
      [
        "▁અમારો",
        -9.006700273249795
      ],
      [
        "▁મૂવી",
        -9.006708570128145
      ],
      [
        "યો",
        -9.007354843266809
      ],
      [
        "▁તક",
        -9.008443983588966
      ],
      [
        "▁યાત્રા",
        -9.010629239297002
      ],
      [
        "▁મોદીએ",
        -9.011754856445618
      ],
      [
        "▁વિષય",
        -9.012306883919987
      ],
      [
        "▁India",
        -9.014799055799088
      ],
      [
        "▁રાખવા",
        -9.016287200065612
      ],
      [
        "▁ગંભીર",
        -9.016486923282304
      ],
      [
        "સ્",
        -9.016641379290938
      ],
      [
        "▁સફળ",
        -9.016952134686548
      ],
      [
        "▁ટિપ્પણીઓ",
        -9.017098767510118
      ],
      [
        "▁રોકાણ",
        -9.01730805282758
      ],
      [
        "▁પરવાનગી",
        -9.017392393626517
      ],
      [
        "▁જગ્યાએ",
        -9.019565074628302
      ],
      [
        "▁ભવિષ્ય",
        -9.019966434614243
      ],
      [
        "ાઇ",
        -9.023060545864203
      ],
      [
        "▁રાશિ",
        -9.02322982149408
      ],
      [
        "▁શાંતિ",
        -9.02416765151975
      ],
      [
        "▁એપ્રિલ",
        -9.02447398538428
      ],
      [
        "▁સોશિયલ",
        -9.025580775316435
      ],
      [
        "▁વિશ્વાસ",
        -9.025712600573756
      ],
      [
        "લે",
        -9.025789523425193
      ],
      [
        "▁ટેસ્ટ",
        -9.026423097308665
      ],
      [
        "▁આંખો",
        -9.027480212892815
      ],
      [
        "▁કંપનીઓ",
        -9.027820879684452
      ],
      [
        "અ",
        -9.028228900982402
      ],
      [
        "કાર",
        -9.028330337228024
      ],
      [
        "▁હંમેશા",
        -9.029034482851237
      ],
      [
        "▁આપ્યું",
        -9.03085581993507
      ],
      [
        "▁અત્યારે",
        -9.031268939386338
      ],
      [
        "▁દૂધ",
        -9.03292129824429
      ],
      [
        "▁આભાર",
        -9.033195303820007
      ],
      [
        "▁શરતો",
        -9.034196801744983
      ],
      [
        "▁હોય,",
        -9.03446650821419
      ],
      [
        "▁14",
        -9.034977560774921
      ],
      [
        "▁રાહ",
        -9.035423191565062
      ],
      [
        "▁હોય.",
        -9.038790718601586
      ],
      [
        "▁નાની",
        -9.039874159421618
      ],
      [
        "▁પરિણામ",
        -9.039880895103423
      ],
      [
        "▁મિત્ર",
        -9.040228014998618
      ],
      [
        "▁16",
        -9.042543882504503
      ],
      [
        "▁તૈયારી",
        -9.043299412464103
      ],
      [
        "▁મેચ",
        -9.044031927076386
      ],
      [
        "▁તેવું",
        -9.046999459263606
      ],
      [
        "▁પ્રકારની",
        -9.04766860835941
      ],
      [
        "▁25",
        -9.050978381830204
      ],
      [
        "▁>>",
        -9.05123658959053
      ],
      [
        "▁સાત",
        -9.05252187699644
      ],
      [
        "▁50",
        -9.052622574795347
      ],
      [
        "▁પ્રયત્ન",
        -9.055306283024482
      ],
      [
        "▁રહો",
        -9.055454027075477
      ],
      [
        "▁આર્થિક",
        -9.055495657676559
      ],
      [
        "ઓને",
        -9.055670678934955
      ],
      [
        "▁૬",
        -9.056112995842778
      ],
      [
        "▁લોકોએ",
        -9.057319353008863
      ],
      [
        "▁P",
        -9.05866573979635
      ],
      [
        "▁લાંબા",
        -9.059800917016132
      ],
      [
        "▁સલાહ",
        -9.060714195572064
      ],
      [
        "▁જોઇએ.",
        -9.062461497161763
      ],
      [
        "▁હતો,",
        -9.062756494058853
      ],
      [
        "▁ઝડપી",
        -9.063395565109296
      ],
      [
        "▁ઉપયોગી",
        -9.067398419423952
      ],
      [
        "▁ખુશ",
        -9.06841777849487
      ],
      [
        "▁અંગ્રેજી",
        -9.069344167190224
      ],
      [
        "▁બેંક",
        -9.07202289162633
      ],
      [
        "▁દેખાય",
        -9.072527079431495
      ],
      [
        "રૂપ",
        -9.072783259942954
      ],
      [
        "▁રહેતા",
        -9.073458024264978
      ],
      [
        "▁ભલે",
        -9.074172918424775
      ],
      [
        "▁કાવ્ય",
        -9.074904432314115
      ],
      [
        "▁મળ્યા",
        -9.076722194718439
      ],
      [
        "▁ગ્રામ",
        -9.07673115778219
      ],
      [
        "▁છોકરી",
        -9.07784107047823
      ],
      [
        "▁આવેલી",
        -9.078052055577903
      ],
      [
        "્ય",
        -9.07913152918966
      ],
      [
        "▁નવેમ્બર",
        -9.080135284968888
      ],
      [
        "▁ક્રિકેટ",
        -9.082930505263779
      ],
      [
        "▁કામગીરી",
        -9.083422314833252
      ],
      [
        "▁ક",
        -9.084245619414975
      ],
      [
        "3",
        -9.084288302223392
      ],
      [
        "▁સ્વામી",
        -9.084447709523742
      ],
      [
        "▁સપ્ટેમ્બર",
        -9.08641143035588
      ],
      [
        "▁રાજકોટ",
        -9.08696966877043
      ],
      [
        "▁કહેવું",
        -9.087697049676416
      ],
      [
        "▁બરાબર",
        -9.087912963063431
      ],
      [
        "1",
        -9.088058527212212
      ],
      [
        "પુર",
        -9.088244001167185
      ],
      [
        "▁તેનાથી",
        -9.089204544709576
      ],
      [
        "વિ",
        -9.089771380740299
      ],
      [
        "▁ફોલો",
        -9.089776022046895
      ],
      [
        "▁ગઈ.",
        -9.090303345013123
      ],
      [
        "▁ભૂલ",
        -9.090588764946734
      ],
      [
        "▁હા",
        -9.091005829565479
      ],
      [
        "▁વાંચવા",
        -9.091804421289643
      ],
      [
        "▁રિવ્યૂ",
        -9.09186407070126
      ],
      [
        "▁પ્રેરણાત્મક",
        -9.092652263698051
      ],
      [
        "▁દિવસો",
        -9.09446205324597
      ],
      [
        "▁એણે",
        -9.094692224471657
      ],
      [
        "▁ધરપકડ",
        -9.094987805105738
      ],
      [
        "▁ગુરુ",
        -9.095467933212515
      ],
      [
        "▁કી",
        -9.095728060292647
      ],
      [
        "▁ગરમ",
        -9.096742480046263
      ],
      [
        "▁સાંજે",
        -9.097364840182323
      ],
      [
        "▁સાઇટ",
        -9.099408577880446
      ],
      [
        "ન્સ",
        -9.10017059607037
      ],
      [
        "▁જૂન",
        -9.10037474803337
      ],
      [
        "▁કરેલ",
        -9.10065230326985
      ],
      [
        "▁સંગ્રહ",
        -9.101472551034597
      ],
      [
        "ોમાં",
        -9.101897358062136
      ],
      [
        "▁લાલ",
        -9.101934376514441
      ],
      [
        "જે",
        -9.102301779141605
      ],
      [
        "▁જુદા",
        -9.102517792215302
      ],
      [
        "▁કૃષ્ણ",
        -9.102759509838808
      ],
      [
        "▁વન",
        -9.10462015292554
      ],
      [
        "બા",
        -9.105451368168406
      ],
      [
        "▁માર્ગ",
        -9.105517151454103
      ],
      [
        "▁જોડાયેલા",
        -9.106080249566809
      ],
      [
        "▁પરિચય",
        -9.107875825958681
      ],
      [
        "▁શુભ",
        -9.108197844120575
      ],
      [
        "▁મોબાઈલ",
        -9.109788968741034
      ],
      [
        "▁મનમાં",
        -9.109900955652716
      ],
      [
        "▁ઇ",
        -9.110934551483169
      ],
      [
        ".com",
        -9.111172311095135
      ],
      [
        "▁પ્રવાસ",
        -9.111722430304626
      ],
      [
        "▁પડશે",
        -9.112003075405436
      ],
      [
        "▁કર",
        -9.112219234411576
      ],
      [
        "▁ઉજવણી",
        -9.11236709145704
      ],
      [
        "▁O",
        -9.112574193945392
      ],
      [
        "▁સો",
        -9.112964732729601
      ],
      [
        "▁દીકરી",
        -9.11366777364698
      ],
      [
        "▁આખી",
        -9.113785284953465
      ],
      [
        "ીય",
        -9.114137812648828
      ],
      [
        "▁કાર્ડ",
        -9.115022265250792
      ],
      [
        "▁[",
        -9.116106693267556
      ],
      [
        "t",
        -9.11639630830394
      ],
      [
        "▁સ્થળ",
        -9.116900724675396
      ],
      [
        "▁થવાની",
        -9.11814068663491
      ],
      [
        "▁સમજી",
        -9.1215721019095
      ],
      [
        "▁ચોક્કસ",
        -9.121660630971139
      ],
      [
        "▁થયો.",
        -9.123077231523652
      ],
      [
        "▁થતો",
        -9.125139069048089
      ],
      [
        "▁દેવ",
        -9.12543926912192
      ],
      [
        "▁કવિ",
        -9.12765786114242
      ],
      [
        "▁પાલન",
        -9.127765171964036
      ],
      [
        "▁સારવાર",
        -9.1292779912383
      ],
      [
        "▁અંત",
        -9.129825537802143
      ],
      [
        "▁વિજ્ઞાન",
        -9.129829975043464
      ],
      [
        "▁સી",
        -9.130166025737804
      ],
      [
        "▁જાન્યુઆરી",
        -9.130381615507016
      ],
      [
        "▁«",
        -9.131051273272156
      ],
      [
        "▁બા",
        -9.131148813804176
      ],
      [
        "▁રકમ",
        -9.131679309486646
      ],
      [
        "S",
        -9.132462306481035
      ],
      [
        "▁સાચી",
        -9.132856961076975
      ],
      [
        "▁રેકોર્ડ",
        -9.133250536156673
      ],
      [
        "▁કહ્યું,",
        -9.133897695520155
      ],
      [
        "▁પોતાનું",
        -9.134109664210989
      ],
      [
        "▁લેવામાં",
        -9.134308000327412
      ],
      [
        "▁ટીવી",
        -9.134381604861463
      ],
      [
        "▁મજબૂત",
        -9.134779772486882
      ],
      [
        "▁મફત",
        -9.13495957942457
      ],
      [
        "▁રાખે",
        -9.135184173317466
      ],
      [
        "▁મહા",
        -9.136624361670314
      ],
      [
        "▁એકદમ",
        -9.137539630296782
      ],
      [
        "જા",
        -9.137762318898542
      ],
      [
        "▁અહી",
        -9.138397938686488
      ],
      [
        "ર્સ",
        -9.138428043447885
      ],
      [
        "મે",
        -9.13852342391378
      ],
      [
        "▁એનો",
        -9.140402111969596
      ],
      [
        "▁13",
        -9.140573038899898
      ],
      [
        "u",
        -9.14222827682896
      ],
      [
        "▁મામલે",
        -9.142271815699996
      ],
      [
        "▁..",
        -9.143831834511566
      ],
      [
        "યે",
        -9.145245135105322
      ],
      [
        "▁શાળા",
        -9.145367737201404
      ],
      [
        "▁બોલ",
        -9.14561232391522
      ],
      [
        "▁ભારતની",
        -9.145820041568335
      ],
      [
        "▁લોકોની",
        -9.146675830945451
      ],
      [
        "▁લોન",
        -9.147238212020792
      ],
      [
        "▁શ્રેણી",
        -9.147772347740455
      ],
      [
        "▁પ્રદેશ",
        -9.147967841737039
      ],
      [
        "▁શક્ય",
        -9.148118450229848
      ],
      [
        "▁પોતાનો",
        -9.14835786368403
      ],
      [
        "▁દિવસમાં",
        -9.148852278844657
      ],
      [
        "▁હોમ",
        -9.150172327092807
      ],
      [
        "▁જાણકારી",
        -9.150203771266511
      ],
      [
        "▁B",
        -9.151187490008391
      ],
      [
        "▁બોર્ડ",
        -9.151883819994698
      ],
      [
        "▁કરી.",
        -9.152027342184297
      ],
      [
        "▁અવાજ",
        -9.152102361298112
      ],
      [
        ".”",
        -9.152948423668919
      ],
      [
        "▁ખાલી",
        -9.15305368574713
      ],
      [
        "▁સુપ્રીમ",
        -9.153859048257234
      ],
      [
        "▁મહેતા",
        -9.15390707684059
      ],
      [
        "▁K",
        -9.15589380993848
      ],
      [
        "▁જેવો",
        -9.156550278531807
      ],
      [
        "▁પુત્ર",
        -9.156709543790996
      ],
      [
        "▁પત્ર",
        -9.156750553825454
      ],
      [
        "▁માંગો",
        -9.156899912769731
      ],
      [
        "▁ચમચી",
        -9.157314970806716
      ],
      [
        "▁સામાજિક",
        -9.157760954794405
      ],
      [
        "▁શક્યતા",
        -9.158270942652823
      ],
      [
        "ાં",
        -9.159393293353553
      ],
      [
        "▁એડમિનિસ્ટ્રેશન",
        -9.159655800390738
      ],
      [
        "▁ધરાવે",
        -9.15970353565498
      ],
      [
        "▁કયા",
        -9.159830507356421
      ],
      [
        "A",
        -9.164474688282883
      ],
      [
        "▁મુદ્દે",
        -9.167199887949103
      ],
      [
        "▁રાહત",
        -9.168299343464778
      ],
      [
        "▁તાજું",
        -9.169813916316638
      ],
      [
        "▁સ્પષ્ટ",
        -9.169907821076665
      ],
      [
        "▁પ્રક્રિયા",
        -9.170227291049663
      ],
      [
        "▁સજા",
        -9.17032444399392
      ],
      [
        "▁કોલેજ",
        -9.170847448754277
      ],
      [
        "▁બીજું",
        -9.170936395895161
      ],
      [
        "▁પ્રકારના",
        -9.171258583164516
      ],
      [
        "▁મળ્યું",
        -9.171304549619729
      ],
      [
        "▁વેબસાઈટ",
        -9.171547866192645
      ],
      [
        "▁સંખ્યા",
        -9.171689221491622
      ],
      [
        "▁કાઢી",
        -9.172273660934236
      ],
      [
        "▁હાથમાં",
        -9.173378407547908
      ],
      [
        "▁થાય.",
        -9.173380157178073
      ],
      [
        "શો",
        -9.173446460409483
      ],
      [
        "▁ઓ",
        -9.173606652185534
      ],
      [
        "▁પાછા",
        -9.173685211439427
      ],
      [
        "▁લખ્યું",
        -9.174109037216974
      ],
      [
        "પણ",
        -9.174485677061098
      ],
      [
        "▁વેલ્થ",
        -9.174804199675807
      ],
      [
        "▁પ્રાર્થના",
        -9.175124649776201
      ],
      [
        "▁બ્લેક",
        -9.175316712509048
      ],
      [
        "▁સંગીત",
        -9.175411512333483
      ],
      [
        "▁હોત",
        -9.175696410762692
      ],
      [
        "▁24",
        -9.176162034616492
      ],
      [
        "▁શકાય.",
        -9.177525396984306
      ],
      [
        "8",
        -9.177771679202431
      ],
      [
        "▁પૂજા",
        -9.179124586576902
      ],
      [
        "▁નામે",
        -9.179883277533591
      ],
      [
        "▁અરજી",
        -9.180770002087437
      ],
      [
        "▁જેટલી",
        -9.181929489573946
      ],
      [
        "▁જોઈને",
        -9.18217757291593
      ],
      [
        "▁ડેટા",
        -9.183765140151502
      ],
      [
        "▁નવો",
        -9.184147046569255
      ],
      [
        "▁નિયમો",
        -9.184619717350593
      ],
      [
        "▁આવક",
        -9.185076385866335
      ],
      [
        "▁દસ",
        -9.185810698075356
      ],
      [
        "▁દિલ",
        -9.188000098866453
      ],
      [
        "ૂ",
        -9.188187994460694
      ],
      [
        "▁ભવિષ્યમાં",
        -9.190671461700797
      ],
      [
        "▁ટેક્સાસ",
        -9.19106838880882
      ],
      [
        "▁૧૨",
        -9.191467740577092
      ],
      [
        "▁કાર્યવાહી",
        -9.19191336443751
      ],
      [
        "▁of",
        -9.191982715994936
      ],
      [
        "▁વેબ",
        -9.192637532767252
      ],
      [
        "▁૮",
        -9.192714497738987
      ],
      [
        "શ્રી",
        -9.19275393308047
      ],
      [
        "▁૧૮",
        -9.193083509531144
      ],
      [
        "▁હુમલો",
        -9.194120127309803
      ],
      [
        "▁ફળ",
        -9.194320738845988
      ],
      [
        "▁કર્યુ",
        -9.194492911251526
      ],
      [
        "▁ફરીથી",
        -9.195878427544082
      ],
      [
        "▁જતાં",
        -9.19610368956208
      ],
      [
        "▁હાજર",
        -9.198054962887161
      ],
      [
        "▁કા",
        -9.19821613308335
      ],
      [
        "▁સિસ્ટમ",
        -9.198946190702262
      ],
      [
        "▁વિદ્યાર્થીઓ",
        -9.199231427339672
      ],
      [
        "▁કંઈક",
        -9.199233999642479
      ],
      [
        "▁વ્યક્ત",
        -9.199634650081396
      ],
      [
        "ર્",
        -9.200270337329624
      ],
      [
        "▁ફી",
        -9.200987205259436
      ],
      [
        "▁કાલે",
        -9.20100937741558
      ],
      [
        "▁આંખ",
        -9.20126337031789
      ],
      [
        "સ્ટ",
        -9.201281361291606
      ],
      [
        "▁અંતિમ",
        -9.204203035561738
      ],
      [
        "સિંહ",
        -9.207322660063355
      ],
      [
        "▁ચાલે",
        -9.207550104437994
      ],
      [
        "▁ફૂલ",
        -9.207735608698163
      ],
      [
        "▁ભોજન",
        -9.208328345271354
      ],
      [
        "▁૭",
        -9.208999682251422
      ],
      [
        "▁સ્માર્ટફોન",
        -9.209187775166292
      ],
      [
        "▁વાળ",
        -9.209364596460407
      ],
      [
        "▁થયેલ",
        -9.20995063181925
      ],
      [
        "▁પસંદગી",
        -9.210129173659574
      ],
      [
        "▁રહેલી",
        -9.210512077207515
      ],
      [
        "▁નવ",
        -9.210809768418553
      ],
      [
        "▁ફિલ્મો",
        -9.211398082624402
      ],
      [
        "▁હિન્દુ",
        -9.2115418689861
      ],
      [
        "▁તેમનો",
        -9.211935307227947
      ],
      [
        "▁સુધીમાં",
        -9.21210982066551
      ],
      [
        "▁એટલા",
        -9.212797481036414
      ],
      [
        "▁રસ્તા",
        -9.213085834716214
      ],
      [
        "https://www.di",
        -9.213699822065099
      ],
      [
        "▁PM",
        -9.213798234575414
      ],
      [
        "▁બેન્ક",
        -9.214201472802984
      ],
      [
        "▁કેટલી",
        -9.215197568759548
      ],
      [
        "સર",
        -9.216470404484793
      ],
      [
        "ન્",
        -9.21654071994238
      ],
      [
        "▁જોક્સ",
        -9.21723122386096
      ],
      [
        "▁●",
        -9.217710754792632
      ],
      [
        "▁I",
        -9.217910025047711
      ],
      [
        "▁સ્થાનિક",
        -9.217943097306565
      ],
      [
        "▁ભાજપના",
        -9.218151603429128
      ],
      [
        "▁જીત",
        -9.218851106814757
      ],
      [
        "ન્ટ",
        -9.220015341777199
      ],
      [
        "▁તસવીરો",
        -9.220968637794792
      ],
      [
        "વર",
        -9.221974555404207
      ],
      [
        "▁પ્ર",
        -9.222058016135634
      ],
      [
        "▁સ્",
        -9.222458563782027
      ],
      [
        "▁હતા,",
        -9.222527618765401
      ],
      [
        "યુ",
        -9.223401360180254
      ],
      [
        "▁પ્રતિ",
        -9.22423902602008
      ],
      [
        "▁મહારાજ",
        -9.224297718973869
      ],
      [
        "▁શહેરમાં",
        -9.225409008321904
      ],
      [
        "▁કોંગ્રેસના",
        -9.225563690551564
      ],
      [
        "5",
        -9.226515323431679
      ],
      [
        "▁લાગણી",
        -9.226928875402002
      ],
      [
        "▁કથા",
        -9.227152763614704
      ],
      [
        "▁ઉપાય",
        -9.227224079731274
      ],
      [
        "▁આગ",
        -9.2275201542889
      ],
      [
        "▁બાળકોને",
        -9.22761126690741
      ],
      [
        "4",
        -9.228460932262445
      ],
      [
        "▁મોટું",
        -9.230532754837647
      ],
      [
        "બેન",
        -9.231680022384285
      ],
      [
        "▁વિસ્તાર",
        -9.233016151089087
      ],
      [
        "▁સરદાર",
        -9.23334374506379
      ],
      [
        "▁આપની",
        -9.233536346629082
      ],
      [
        "▁ખેડૂતો",
        -9.2335382452709
      ],
      [
        "▁જિંદગી",
        -9.235459134241944
      ],
      [
        "▁એમણે",
        -9.235834656318042
      ],
      [
        "▁તેલ",
        -9.235887340695058
      ],
      [
        "▁જોઇ",
        -9.236985858569756
      ],
      [
        "▁અચાનક",
        -9.23878972257851
      ],
      [
        "▁મતદાન",
        -9.239632278579439
      ],
      [
        "▁સ્વાસ્થ્ય",
        -9.240928411753444
      ],
      [
        "▁સંચાલિત",
        -9.242313744185122
      ],
      [
        "▁લાગુ",
        -9.242804646443577
      ],
      [
        "▁સમાન",
        -9.244176280644673
      ],
      [
        "▁વિકલ્પ",
        -9.24440745501046
      ],
      [
        "▁અપડેટ",
        -9.244900791567463
      ],
      [
        "▁ત્યારબાદ",
        -9.24496038940887
      ],
      [
        "▁દરમ્યાન",
        -9.24503631692762
      ],
      [
        "▁વેચાણ",
        -9.245405652144758
      ],
      [
        "▁રાજા",
        -9.245718739380784
      ],
      [
        "▁જરા",
        -9.245862979169273
      ],
      [
        "▁Twitter",
        -9.248653419256645
      ],
      [
        "▁લોક",
        -9.249049596236087
      ],
      [
        "▁મહાન",
        -9.250105717984038
      ],
      [
        "▁ધન",
        -9.250428769356503
      ],
      [
        "▁ફિલ્મમાં",
        -9.25072946724411
      ],
      [
        "૨",
        -9.251336956349455
      ],
      [
        "▁સર",
        -9.251798576579535
      ],
      [
        "▁સભ્યો",
        -9.25215535396957
      ],
      [
        "▁થયેલી",
        -9.25226045067022
      ],
      [
        "▁દુર",
        -9.252646750895419
      ],
      [
        "▁કશું",
        -9.252928355220332
      ],
      [
        "▁રાખવામાં",
        -9.254749824656866
      ],
      [
        "▁ઇન્ડિયા",
        -9.255200131998334
      ],
      [
        "▁એટલી",
        -9.255409337167272
      ],
      [
        "▁નીકળી",
        -9.255867679833667
      ],
      [
        "▁સાવ",
        -9.255964974797575
      ],
      [
        "▁દેવામાં",
        -9.256434673512905
      ],
      [
        "▁અધિકાર",
        -9.257718882115597
      ],
      [
        "નીય",
        -9.257758162720531
      ],
      [
        "▁ઘણાં",
        -9.25792090312046
      ],
      [
        "▁પ્રધાન",
        -9.258042039567417
      ],
      [
        "▁પ્રાથમિક",
        -9.258093838172133
      ],
      [
        "▁જવું",
        -9.258587885683799
      ],
      [
        "▁આસપાસ",
        -9.260268107198787
      ],
      [
        "▁ઓફર",
        -9.260528655044194
      ],
      [
        "▁નદી",
        -9.261483459716601
      ],
      [
        "ડે",
        -9.264137649184411
      ],
      [
        "૩",
        -9.264193925468627
      ],
      [
        "▁રાજકીય",
        -9.265700152778825
      ],
      [
        "▁ટ્રેન",
        -9.265794618919553
      ],
      [
        "ing",
        -9.266853413657659
      ],
      [
        "▁વર્ણન",
        -9.26764901689188
      ],
      [
        "▁આદેશ",
        -9.271480355777317
      ],
      [
        "▁રાજ્યમાં",
        -9.272675607733143
      ],
      [
        "▁બનાવવામાં",
        -9.27368794641729
      ],
      [
        "હા",
        -9.274109444572938
      ],
      [
        "▁લખી",
        -9.274792191082815
      ],
      [
        "▁૧૯",
        -9.274845724931769
      ],
      [
        "▁મિનિટ",
        -9.275429403452188
      ],
      [
        "▁વ",
        -9.27737134791164
      ],
      [
        "▁સે",
        -9.277558819853878
      ],
      [
        "▁જોઇએ",
        -9.278909767478515
      ],
      [
        "▁કોઈને",
        -9.279265226515175
      ],
      [
        "▁પુસ્તકો",
        -9.279275502959209
      ],
      [
        "▁ગામમાં",
        -9.279783210069303
      ],
      [
        "▁૧૧",
        -9.279844453899859
      ],
      [
        "▁કદી",
        -9.279847767142659
      ],
      [
        "ેલા",
        -9.280258594303337
      ],
      [
        "▁પ્રભુ",
        -9.281261064963122
      ],
      [
        "▁આવૃત્તિ",
        -9.281661901948686
      ],
      [
        "▁છો?",
        -9.284027165781598
      ],
      [
        "▁૨૦",
        -9.284431533941003
      ],
      [
        "વાળી",
        -9.285748645623247
      ],
      [
        "▁આરોપ",
        -9.285794788216165
      ],
      [
        "▁સાબિત",
        -9.286845838462101
      ],
      [
        "▁દારૂ",
        -9.286899670806303
      ],
      [
        "▁આપનું",
        -9.28788271557367
      ],
      [
        "▁સંબંધિત",
        -9.29015189942022
      ],
      [
        "▁કો",
        -9.29051221097967
      ],
      [
        "▁યુનિવર્સિટી",
        -9.290830958646858
      ],
      [
        "▁Facebook",
        -9.292366204265456
      ],
      [
        "▁વાંચી",
        -9.292671814118707
      ],
      [
        "▁શરુ",
        -9.293440990345445
      ],
      [
        "▁આપતા",
        -9.295898047346316
      ],
      [
        "▁બી",
        -9.296113867137777
      ],
      [
        "▁નોંધ",
        -9.29711199353951
      ],
      [
        "▁બન્યા",
        -9.29771081977018
      ],
      [
        "▁તેમનું",
        -9.29828987418012
      ],
      [
        "▁અધિકારીઓ",
        -9.298663774407732
      ],
      [
        "▁ધોરણ",
        -9.30040339517112
      ],
      [
        "▁કરશો",
        -9.301351464395946
      ],
      [
        "▁અધ્યક્ષ",
        -9.301357133118401
      ],
      [
        "▁સાથ",
        -9.302106324329777
      ],
      [
        "▁ઘટાડો",
        -9.302280090514696
      ],
      [
        "▁આધારે",
        -9.302630368120091
      ],
      [
        "▁જેની",
        -9.303143413577708
      ],
      [
        "▁ક્યારે",
        -9.303623658227519
      ],
      [
        "▁નુકસાન",
        -9.305047350642187
      ],
      [
        "▁100",
        -9.305241900494755
      ],
      [
        "▁વર્ષથી",
        -9.30606046033084
      ],
      [
        "▁સાહેબ",
        -9.307744923827205
      ],
      [
        "▁સત્તા",
        -9.309761352746381
      ],
      [
        "સે",
        -9.310728509076135
      ],
      [
        "▁જગત",
        -9.311620563343848
      ],
      [
        "▁Chrome",
        -9.311790411510263
      ],
      [
        "લાલ",
        -9.312580901942027
      ],
      [
        "c",
        -9.312793168011636
      ],
      [
        "▁2011",
        -9.312835829272757
      ],
      [
        "▁કેટલા",
        -9.312932717731966
      ],
      [
        "▁ટેક્સ",
        -9.31302304350551
      ],
      [
        "▁નાખી",
        -9.313623977323628
      ],
      [
        "▁લો.",
        -9.31407643361431
      ],
      [
        "સો",
        -9.315041814200338
      ],
      [
        "▁રોગ",
        -9.315444539892283
      ],
      [
        "▁સારો",
        -9.318697248470247
      ],
      [
        "▁બાળ",
        -9.318703340080523
      ],
      [
        "▁પાડી",
        -9.31890754853417
      ],
      [
        "▁આઠ",
        -9.318917909107
      ],
      [
        "▁ઉચ્ચ",
        -9.319622434140182
      ],
      [
        "ઉ",
        -9.319623446551219
      ],
      [
        "ેલી",
        -9.319776987162184
      ],
      [
        "▁ઈશ્વર",
        -9.320606618342534
      ],
      [
        "▁રેલવે",
        -9.32075393175963
      ],
      [
        "▁ગીતો",
        -9.321210727113382
      ],
      [
        "▁17",
        -9.321710244294305
      ],
      [
        "▁દેખાવ",
        -9.322099366665789
      ],
      [
        "▁પ્લાન",
        -9.324033131692243
      ],
      [
        "▁રાત",
        -9.325116003586656
      ],
      [
        "▁નોટ",
        -9.325958628139528
      ],
      [
        "▁આખા",
        -9.326326009628083
      ],
      [
        "▁અંતે",
        -9.327563678727174
      ],
      [
        "▁નિ",
        -9.328298467140883
      ],
      [
        "▁વાગ્યે",
        -9.329449715714132
      ],
      [
        "▁ત્યાર",
        -9.330879037597366
      ],
      [
        "▁પંચાયત",
        -9.331164079242226
      ],
      [
        "▁વર્ષો",
        -9.331359720439712
      ],
      [
        "▁ફાયદો",
        -9.33142893713301
      ],
      [
        "▁કર્યું.",
        -9.3317768364886
      ],
      [
        "▁ચીન",
        -9.331955962273888
      ],
      [
        "▁કરાવી",
        -9.332225758871665
      ],
      [
        "▁વર્લ્ડ",
        -9.33282952889142
      ],
      [
        "▁૧૫",
        -9.333484664830692
      ],
      [
        "▁ચોરી",
        -9.336170045442618
      ],
      [
        "તિ",
        -9.336429447378844
      ],
      [
        "▁વડા",
        -9.336525054258203
      ],
      [
        "▁લાઈફ",
        -9.336685677605423
      ],
      [
        "▁જતી",
        -9.338498329096744
      ],
      [
        "▁મુક્ત",
        -9.338565189812595
      ],
      [
        "▁જનતા",
        -9.338580650308852
      ],
      [
        "▁પ્રકાશ",
        -9.338597292818644
      ],
      [
        "▁સેક્શન",
        -9.339408283645596
      ],
      [
        "▁અપ",
        -9.339801565285995
      ],
      [
        "▁જેટલા",
        -9.340199096235603
      ],
      [
        "▁ચાલો",
        -9.340271574649911
      ],
      [
        "▁જણાવ્યા",
        -9.340469837458823
      ],
      [
        "▁ધ્યાનમાં",
        -9.340518953807297
      ],
      [
        "▁બેસી",
        -9.34087437088549
      ],
      [
        "▁21",
        -9.341142025652315
      ],
      [
        "▁વર્તમાન",
        -9.342246964784689
      ],
      [
        "▁W",
        -9.342748075249736
      ],
      [
        "▁।।",
        -9.343625718070157
      ],
      [
        "▁લીધા",
        -9.344642525991494
      ],
      [
        "▁કોર્ટ",
        -9.345056928016184
      ],
      [
        "▁અત્યંત",
        -9.345231522402889
      ],
      [
        "▁ભટ્ટ",
        -9.345927680790725
      ],
      [
        "▁હવામાન",
        -9.346465961768164
      ],
      [
        "▁પ્રદર્શન",
        -9.348331575022426
      ],
      [
        "▁દેશની",
        -9.34866647128219
      ],
      [
        "▁પ્રત્યે",
        -9.349509454603734
      ],
      [
        "ણા",
        -9.351002299460253
      ],
      [
        "▁નવગુજરાત",
        -9.351488506605826
      ],
      [
        "ઠ",
        -9.35237164965585
      ],
      [
        "▁ચિત્ર",
        -9.35356824020035
      ],
      [
        "▁છું,",
        -9.354311877689952
      ],
      [
        "+",
        -9.355455786091708
      ],
      [
        "▁વિગતો",
        -9.356084011069601
      ],
      [
        "▁ઉ",
        -9.357323459970072
      ],
      [
        "▁વાચકો",
        -9.357374864876853
      ],
      [
        "▁ગત",
        -9.357413298343152
      ],
      [
        "▁સામેલ",
        -9.357952531718901
      ],
      [
        "▁લોકપ્રિય",
        -9.358427952568594
      ],
      [
        "▁બનાવે",
        -9.359069744870734
      ],
      [
        "▁બાબતે",
        -9.359105276020149
      ],
      [
        "▁એનું",
        -9.359608461745061
      ],
      [
        "▁સર્જન",
        -9.360513617658924
      ],
      [
        "▁નાણાં",
        -9.360616852112011
      ],
      [
        "▁હતું,",
        -9.361879974910035
      ],
      [
        "▁બજાર",
        -9.363679291032998
      ],
      [
        "ીક",
        -9.365194001433991
      ],
      [
        "▁દવા",
        -9.36539548240069
      ],
      [
        "▁માનવામાં",
        -9.36548333008156
      ],
      [
        "▁કર્યો.",
        -9.367110720102218
      ],
      [
        "n",
        -9.367765719311858
      ],
      [
        "▁બજારમાં",
        -9.36815476524535
      ],
      [
        "▁બીજો",
        -9.368956107723498
      ],
      [
        "▁પગલે",
        -9.37106114076358
      ],
      [
        "▁કરવાના",
        -9.37129036097976
      ],
      [
        "▁અમિત",
        -9.37252503978917
      ],
      [
        "▁D",
        -9.373355538269951
      ],
      [
        "▁આપેલા",
        -9.374652609697119
      ],
      [
        "▁નેશનલ",
        -9.374683553486127
      ],
      [
        "▁જોઇને",
        -9.37547465289626
      ],
      [
        "▁સ્ત્રીઓ",
        -9.375704749597174
      ],
      [
        "▁આટલું",
        -9.376399666394668
      ],
      [
        "ગા",
        -9.37776140438898
      ],
      [
        "▁આગાહી",
        -9.37811600243409
      ],
      [
        "▁ઈચ્છા",
        -9.378597978015401
      ],
      [
        "▁વિરુદ્ધ",
        -9.37875327796123
      ],
      [
        "▁જણાવી",
        -9.379464731966456
      ],
      [
        ").",
        -9.380677277605738
      ],
      [
        "▁શોધો",
        -9.380687541307356
      ],
      [
        "▁જવાબદારી",
        -9.381337604026768
      ],
      [
        "▁ઓછું",
        -9.382737975750945
      ],
      [
        "▁પાનું",
        -9.38399635645165
      ],
      [
        "▁નહિ.",
        -9.38411785541368
      ],
      [
        "▁(તા.",
        -9.384811050491447
      ],
      [
        "▁યુવાન",
        -9.385370006304974
      ],
      [
        "▁સ્ટાર",
        -9.385800804680894
      ],
      [
        "▁રીત",
        -9.387087207666733
      ],
      [
        "▁બોલી",
        -9.387095963975508
      ],
      [
        "▁સંબંધો",
        -9.387238191384121
      ],
      [
        "▁જોયું",
        -9.389023685795541
      ],
      [
        "▁રાખો",
        -9.38918412017966
      ],
      [
        "▁એકવાર",
        -9.39040439258501
      ],
      [
        "▁લક્ષણો",
        -9.390500450847718
      ],
      [
        "▁ઓળખ",
        -9.391786600900799
      ],
      [
        "▁નિર્માણ",
        -9.391915968978356
      ],
      [
        "શું",
        -9.392127551077735
      ],
      [
        "al",
        -9.392907834986548
      ],
      [
        "▁રાષ્ટ્રપતિ",
        -9.393055245544447
      ],
      [
        "▁!!",
        -9.393172115440805
      ],
      [
        "▁બિઝનેસ",
        -9.39318599771261
      ],
      [
        "g",
        -9.393258318656907
      ],
      [
        "▁a",
        -9.393442332399568
      ],
      [
        "▁મળવા",
        -9.395461144018986
      ],
      [
        "▁the",
        -9.39782375447263
      ],
      [
        "્ડ",
        -9.398242876147878
      ],
      [
        "▁દિવાળી",
        -9.398292779929555
      ],
      [
        "▁વી",
        -9.398967703500901
      ],
      [
        "▁વાહ",
        -9.399412951451442
      ],
      [
        "▁ટી",
        -9.400569640018755
      ],
      [
        "ભ",
        -9.400885562197141
      ],
      [
        "▁૯",
        -9.400957539229193
      ],
      [
        "▁પુરુષ",
        -9.40190492065042
      ],
      [
        "▁બાબતો",
        -9.402049233049468
      ],
      [
        "▁સમજ",
        -9.402629208350412
      ],
      [
        "▁પ્રોજેક્ટ",
        -9.403614804638803
      ],
      [
        "▁ખુશી",
        -9.403837121608785
      ],
      [
        "▁પાસ",
        -9.403977897391018
      ],
      [
        "ીયા",
        -9.405005742506948
      ],
      [
        "ીઓ",
        -9.406717219877137
      ],
      [
        "▁દો",
        -9.408966263836177
      ],
      [
        "▁મત",
        -9.409217112977604
      ],
      [
        "▁દીધો",
        -9.410050403253866
      ],
      [
        "▁શિક્ષક",
        -9.410476071541094
      ],
      [
        "▁ઝડપથી",
        -9.410716846311399
      ],
      [
        "%",
        -9.411134397522416
      ],
      [
        "▁મહેનત",
        -9.411174079161716
      ],
      [
        "▁યુ",
        -9.411266097267937
      ],
      [
        "▁જાય.",
        -9.411337110396893
      ],
      [
        "▁ન્યૂઝ",
        -9.41321539725934
      ],
      [
        "નિ",
        -9.41477532475805
      ],
      [
        "▁વિરાટ",
        -9.415130304969793
      ],
      [
        "▁મળતી",
        -9.416128122949985
      ],
      [
        "▁૨૦૧૮",
        -9.416314209504671
      ],
      [
        "▁કૃપા",
        -9.416651889312076
      ],
      [
        "▁શ્વાસ",
        -9.418643565104556
      ],
      [
        "▁કરોડની",
        -9.418934168871
      ],
      [
        "૫",
        -9.421508686432617
      ],
      [
        "▁આંદોલન",
        -9.422225497858893
      ],
      [
        "▁હુમલા",
        -9.422528370525244
      ],
      [
        "▁ધીમે",
        -9.42275150690586
      ],
      [
        "▁મ",
        -9.425666240989555
      ],
      [
        "▁મહિનામાં",
        -9.428060857557913
      ],
      [
        "▁Video",
        -9.428794275782067
      ],
      [
        "▁દીધું",
        -9.429233834196312
      ],
      [
        "▁ક્ષણ",
        -9.431216513898399
      ],
      [
        "▁યુદ્ધ",
        -9.431662633644061
      ],
      [
        "▁પ્રગટ",
        -9.431683598418608
      ],
      [
        "▁છે;",
        -9.431761511866519
      ],
      [
        "▁ધરાવતા",
        -9.432083867418257
      ],
      [
        "▁ઉત્તમ",
        -9.434180122205044
      ],
      [
        "▁હૈ",
        -9.435132021952615
      ],
      [
        "▁ચહેરા",
        -9.436143739299169
      ],
      [
        "▁આપ્યા",
        -9.437259091240513
      ],
      [
        "▁પરત",
        -9.437917452695714
      ],
      [
        "▁હર",
        -9.438056481769241
      ],
      [
        "▁આજના",
        -9.438162201467907
      ],
      [
        "▁કહેવા",
        -9.438284230271039
      ],
      [
        "▁વિધાનસભા",
        -9.438522442477083
      ],
      [
        "▁સહાય",
        -9.439726854922172
      ],
      [
        "▁જળ",
        -9.442327740890267
      ],
      [
        "▁તાજેતરમાં",
        -9.443725150282868
      ],
      [
        "▁ખાનગી",
        -9.444517343129613
      ],
      [
        "▁અહેવાલ",
        -9.444809990446672
      ],
      [
        "દી",
        -9.446128642610702
      ],
      [
        "પ્ર",
        -9.446494585978659
      ],
      [
        "▁વાયરલ",
        -9.44704164989135
      ],
      [
        "ટા",
        -9.44725234071331
      ],
      [
        "▁દાવો",
        -9.447698647310755
      ],
      [
        "▁ઉંમર",
        -9.447717042974105
      ],
      [
        "▁એર",
        -9.44903964273557
      ],
      [
        "▁પેજ",
        -9.449050514461625
      ],
      [
        "▁પ્રારંભ",
        -9.449067197550487
      ],
      [
        "▁માટેની",
        -9.453220404297578
      ],
      [
        "રામ",
        -9.453646951940275
      ],
      [
        "),",
        -9.453964026166876
      ],
      [
        "દાર",
        -9.454226404670663
      ],
      [
        "7",
        -9.457162646485866
      ],
      [
        "▁0",
        -9.457656864584731
      ],
      [
        "▁તકલીફ",
        -9.458428298258509
      ],
      [
        "▁આંતરરાષ્ટ્રીય",
        -9.458728449800523
      ],
      [
        "▁નેતાઓ",
        -9.45874825964658
      ],
      [
        "▁દિન",
        -9.459019401878518
      ],
      [
        "▁રિ",
        -9.460016585996765
      ],
      [
        "▁મમ્મી",
        -9.460162507727068
      ],
      [
        "▁પપ્પા",
        -9.460664598709112
      ],
      [
        "▁લોકોના",
        -9.460995533953064
      ],
      [
        "▁વિવાદ",
        -9.461257829972212
      ],
      [
        "▁ઉદ્યોગ",
        -9.462678823385911
      ],
      [
        "▁નેટવર્ક",
        -9.46466177216286
      ],
      [
        "▁ડિઝાઇન",
        -9.465353857627006
      ],
      [
        "▁સ્વાગત",
        -9.46619215311066
      ],
      [
        "▁ઓક્ટોબર",
        -9.466844989393149
      ],
      [
        "પૂર્વક",
        -9.468149628887112
      ],
      [
        "▁યુવક",
        -9.46900135646197
      ],
      [
        "▁આધારિત",
        -9.469972161265112
      ],
      [
        "▁બદલી",
        -9.470415746593613
      ],
      [
        "▁સાધનો",
        -9.470966451651147
      ],
      [
        "▁પોતાને",
        -9.471237770034413
      ],
      [
        "▁બધાં",
        -9.471474556637531
      ],
      [
        "P",
        -9.471678691320822
      ],
      [
        "▁કહેવામાં",
        -9.471966208311196
      ],
      [
        "તર",
        -9.472909739197066
      ],
      [
        "▁રમવા",
        -9.473032807560573
      ],
      [
        "▁બનાવ",
        -9.473890915756225
      ],
      [
        "▁એરપોર્ટ",
        -9.474014918567967
      ],
      [
        "▁દવે",
        -9.474689884481787
      ],
      [
        "▁દુઃખ",
        -9.474998893488916
      ],
      [
        "▁સુરેશ",
        -9.475876012766378
      ],
      [
        "▁આધુનિક",
        -9.476014603424783
      ],
      [
        "▁રશિયા",
        -9.476956458003311
      ],
      [
        "▁તંત્ર",
        -9.477173701709493
      ],
      [
        "▁વિદેશ",
        -9.477355034080912
      ],
      [
        "▁સંત",
        -9.477413926275759
      ],
      [
        "in",
        -9.477991738255376
      ],
      [
        "▁C",
        -9.478537642403545
      ],
      [
        "▁→",
        -9.481501806055824
      ],
      [
        "▁ઓગસ્ટ",
        -9.48157548946175
      ],
      [
        "▁ક્ષમતા",
        -9.48161154903352
      ],
      [
        "તુ",
        -9.48240866494723
      ],
      [
        "▁રહેવું",
        -9.483256534406326
      ],
      [
        "▁ભૂલી",
        -9.48397688847647
      ],
      [
        "▁કરેલા",
        -9.484230912261527
      ],
      [
        "▁રહે.",
        -9.485151991956778
      ],
      [
        "રાજ",
        -9.485661392200306
      ],
      [
        "▁કુમાર",
        -9.485747591718331
      ],
      [
        "▁વિડીયો",
        -9.487782719303997
      ],
      [
        "▁App",
        -9.488491856396209
      ],
      [
        "▁પ્રકાર",
        -9.488560139129955
      ],
      [
        "▁મી",
        -9.488652578701405
      ],
      [
        "▁સિ",
        -9.48919881600986
      ],
      [
        "▁સેટિંગ",
        -9.490862470975731
      ],
      [
        "▁સોફ્ટવેર",
        -9.491301889931588
      ],
      [
        "▁G",
        -9.492172821260741
      ],
      [
        "▁કમ",
        -9.4947307142276
      ],
      [
        "▁કરેલી",
        -9.4948800913095
      ],
      [
        "▁સુવિધા",
        -9.495444851358009
      ],
      [
        "▁હોવાની",
        -9.496269258978646
      ],
      [
        "?”",
        -9.496419424186952
      ],
      [
        "▁ક્યાંક",
        -9.497499465117086
      ],
      [
        "▁કોર્ટે",
        -9.498171500384515
      ],
      [
        "▁2016",
        -9.498173809583252
      ],
      [
        "▁T",
        -9.498689357624379
      ],
      [
        "▁લીલા",
        -9.499365651285387
      ],
      [
        "▁હાર",
        -9.499639673875688
      ],
      [
        "▁સેટ",
        -9.50026299142019
      ],
      [
        "▁વડે",
        -9.50029591344786
      ],
      [
        "▁થોડું",
        -9.502636001681278
      ],
      [
        "▁બિલ",
        -9.502859915010735
      ],
      [
        "▁તાલુકા",
        -9.502963829589143
      ],
      [
        "▁વ્યક્તિગત",
        -9.503155618801085
      ],
      [
        "▁માને",
        -9.503316846358405
      ],
      [
        "▁કેવો",
        -9.50383808290776
      ],
      [
        "▁મહત્વ",
        -9.503873440730183
      ],
      [
        "▁ઘણો",
        -9.504527985839431
      ],
      [
        "▁અમરેલી",
        -9.504673608868028
      ],
      [
        "નાર",
        -9.505291874659386
      ],
      [
        "▁રિલીઝ",
        -9.506538239166016
      ],
      [
        "ટર",
        -9.508047381542195
      ],
      [
        "▁પોઇન્ટ",
        -9.508614399476246
      ],
      [
        "▁સર્વે",
        -9.508749811366762
      ],
      [
        "▁સં",
        -9.508949713082854
      ],
      [
        "▁+",
        -9.509904547812727
      ],
      [
        "▁મંજૂરી",
        -9.510140423726753
      ],
      [
        "▁ભોગ",
        -9.510514851208505
      ],
      [
        "▁પડે.",
        -9.511186177843289
      ],
      [
        "▁સાફ",
        -9.511355383136475
      ],
      [
        "▁વડોદરા",
        -9.511356360800143
      ],
      [
        "9",
        -9.51184276064787
      ],
      [
        "▁બેસ્ટ",
        -9.511870704246139
      ],
      [
        "▁પાક",
        -9.511874924847838
      ],
      [
        "▁અભિયાન",
        -9.512321615651278
      ],
      [
        "મ્",
        -9.512377461248917
      ],
      [
        "▁અંતર્ગત",
        -9.512464192941618
      ],
      [
        "▁સામનો",
        -9.513121821844365
      ],
      [
        "▁ડોલર",
        -9.513737260261596
      ],
      [
        "શે.",
        -9.51404675207462
      ],
      [
        "▁લખાણ",
        -9.514329293570018
      ],
      [
        "▁મળતા",
        -9.514771853667476
      ],
      [
        "▁દરરોજ",
        -9.514878549493837
      ],
      [
        "▁આટલી",
        -9.515217908092438
      ],
      [
        "▁જવાનું",
        -9.515512775435294
      ],
      [
        "▁ચૂંટણીમાં",
        -9.515770428411805
      ],
      [
        "▁ફોર્મ",
        -9.516532421705705
      ],
      [
        "▁ભેટ",
        -9.51662559542142
      ],
      [
        "▁અલી",
        -9.518119077189299
      ],
      [
        "▁શોધી",
        -9.51885937554244
      ],
      [
        "▁2009",
        -9.519508738170686
      ],
      [
        "▁બેઠા",
        -9.519680418768417
      ],
      [
        "▁આખરે",
        -9.52078883326771
      ],
      [
        "▁વાંધો",
        -9.520815083426584
      ],
      [
        "▁22",
        -9.521026043126874
      ],
      [
        "▁છોકરીઓ",
        -9.521133313938025
      ],
      [
        "▁ડી",
        -9.521408784122123
      ],
      [
        "▁લવ",
        -9.521970268290493
      ],
      [
        "▁at",
        -9.522994587221024
      ],
      [
        "ફ્રેશ",
        -9.523289765753011
      ],
      [
        "▁૧૭",
        -9.523524051828442
      ],
      [
        "▁BBC",
        -9.524424465086888
      ],
      [
        "ખા",
        -9.52449535565242
      ],
      [
        "માન",
        -9.524496691319452
      ],
      [
        "?’",
        -9.524954089798857
      ],
      [
        "▁M",
        -9.525506697871972
      ],
      [
        ":44",
        -9.52730253760588
      ],
      [
        "▁દુનિયામાં",
        -9.52789092585404
      ],
      [
        "▁પડ્યો",
        -9.52813381756157
      ],
      [
        "▁રૂપ",
        -9.52876753115011
      ],
      [
        "th",
        -9.529221063279643
      ],
      [
        "p",
        -9.529323656219297
      ],
      [
        "m",
        -9.530031513009291
      ],
      [
        "▁થતું",
        -9.530391357851808
      ],
      [
        "neindia",
        -9.530813540906319
      ],
      [
        "▁[...",
        -9.53155126724866
      ],
      [
        "▁આપનો",
        -9.5319209526867
      ],
      [
        "પા",
        -9.532425572181653
      ],
      [
        "▁હૃદય",
        -9.534139601207764
      ],
      [
        "▁દેશો",
        -9.535159990810998
      ],
      [
        "er",
        -9.535288926034603
      ],
      [
        "▁બજેટ",
        -9.535407562858083
      ],
      [
        "▁આત્મા",
        -9.535551052588431
      ],
      [
        "▁ટોપ",
        -9.53575447046579
      ],
      [
        "▁?’",
        -9.53794900832045
      ],
      [
        "▁બાર",
        -9.539364840986487
      ],
      [
        "▁આરોપી",
        -9.539834047977228
      ],
      [
        "▁સુરક્ષિત",
        -9.54018787650078
      ],
      [
        "▁અકસ્માત",
        -9.540343555935241
      ],
      [
        "▁જિલ્લામાં",
        -9.540799045585034
      ],
      [
        "▁દેવા",
        -9.541499352716322
      ],
      [
        "▁સાંભળી",
        -9.542134719224528
      ],
      [
        "▁વધે",
        -9.542334819283433
      ],
      [
        "શન",
        -9.543585512960114
      ],
      [
        "▁એપ",
        -9.544519260670603
      ],
      [
        "▁ભક્તિ",
        -9.54460236753134
      ],
      [
        "▁ફોટા",
        -9.544940181985076
      ],
      [
        "▁પશ્ચિમ",
        -9.547719646573526
      ],
      [
        "▁ઘેર",
        -9.548154926280041
      ],
      [
        "▁F",
        -9.548431310451479
      ],
      [
        "▁પ્રતિભાવ",
        -9.548707007892514
      ],
      [
        "▁40",
        -9.54925726823
      ],
      [
        "▁શકતા",
        -9.549957804857653
      ],
      [
        "▁કોલ",
        -9.550429781205871
      ],
      [
        "▁છે.’",
        -9.550924875775085
      ],
      [
        "▁સમયથી",
        -9.551208342780477
      ],
      [
        "▁કંઇ",
        -9.551326436192365
      ],
      [
        "▁પેટ",
        -9.551476028613974
      ],
      [
        "▁મુશ્કેલી",
        -9.551550777789654
      ],
      [
        "▁જુલાઈ",
        -9.55171093236368
      ],
      [
        "k",
        -9.552164199101059
      ],
      [
        "▁સર્વિસ",
        -9.552295541802547
      ],
      [
        "▁શી",
        -9.553431694279801
      ],
      [
        "િસ",
        -9.553480538875302
      ],
      [
        "▁કોને",
        -9.553601527056644
      ],
      [
        "અને",
        -9.553839381762465
      ],
      [
        "▁ગાંધીનગર",
        -9.553847811673453
      ],
      [
        "▁હા,",
        -9.554682387004092
      ],
      [
        "▁રિપોર્ટ",
        -9.555031032996606
      ],
      [
        "▁જાત",
        -9.555536957624035
      ],
      [
        "▁ફેબ્રુઆરી",
        -9.556994249267024
      ],
      [
        "▁ફ",
        -9.55837839719505
      ],
      [
        "▁માંગ",
        -9.559501341507872
      ],
      [
        "▁એજ",
        -9.559807578435452
      ],
      [
        "▁પાર્ક",
        -9.559891809583414
      ],
      [
        "▁રસ્તો",
        -9.559926337228337
      ],
      [
        "▁પ્રિય",
        -9.561147143098342
      ],
      [
        "▁કલ્પના",
        -9.56168448520609
      ],
      [
        "▁ઇન્ટરનેટ",
        -9.562022370613636
      ],
      [
        "▁ન્યુઝ",
        -9.563444520925245
      ],
      [
        "▁પ્રતિસાદ",
        -9.5636708581813
      ],
      [
        "▁પ્રકાશિત",
        -9.565255065267362
      ],
      [
        "▁ચિંતન",
        -9.56537557807681
      ],
      [
        "▁પેટ્રોલ",
        -9.566361811798863
      ],
      [
        "▁એવોર્ડ",
        -9.566638462538322
      ],
      [
        "▁જૂની",
        -9.56778266343466
      ],
      [
        "▁જુદી",
        -9.56836106503142
      ],
      [
        "▁સ્વરૂપ",
        -9.568425185758691
      ],
      [
        "ેડ",
        -9.568857220423448
      ],
      [
        "▁સમસ્યાઓ",
        -9.56956652617215
      ],
      [
        "▁કેસમાં",
        -9.570430406247382
      ],
      [
        "x",
        -9.571197917385458
      ],
      [
        "▁વિદેશી",
        -9.571369334082021
      ],
      [
        "▁નિવેદન",
        -9.571945944747469
      ],
      [
        "▁ચ",
        -9.572061289257517
      ],
      [
        "▁મશીન",
        -9.5724854076674
      ],
      [
        "▁પક્ષ",
        -9.573200270796633
      ],
      [
        "▁થવું",
        -9.574067601944467
      ],
      [
        "▁પરિસ્થિતિ",
        -9.574167394236653
      ],
      [
        "▁પગલાં",
        -9.574260573987615
      ],
      [
        "▁આપવાની",
        -9.574892026631066
      ],
      [
        "▁પ્રકરણ",
        -9.574989406904141
      ],
      [
        "ઘ",
        -9.575004301483908
      ],
      [
        "▁૧૬",
        -9.575521548674168
      ],
      [
        "▁સવાર",
        -9.575650575141903
      ],
      [
        "▁રાખીને",
        -9.575888988423939
      ],
      [
        "▁દાન",
        -9.576086420947991
      ],
      [
        "વાની",
        -9.577632695798036
      ],
      [
        "▁હાસ્ય",
        -9.578027215202532
      ],
      [
        "C",
        -9.578828806862333
      ],
      [
        "▁અમેરિકન",
        -9.580312004524076
      ],
      [
        "▁હતાં",
        -9.581289568726937
      ],
      [
        "▁કંઇક",
        -9.582353895826227
      ],
      [
        "▁બુક",
        -9.583063384846955
      ],
      [
        "▁23",
        -9.583119003508735
      ],
      [
        "an",
        -9.583214491381272
      ],
      [
        "▁પદ",
        -9.583493814129682
      ],
      [
        "લુ",
        -9.583807300228008
      ],
      [
        "▁હમણાં",
        -9.583811105385454
      ],
      [
        "▁ભાવમાં",
        -9.58431670694755
      ],
      [
        "▁ફંડ",
        -9.584416509180967
      ],
      [
        "▁વર્ગ",
        -9.585257791713904
      ],
      [
        "▁વિશાળ",
        -9.585575350017404
      ],
      [
        "▁દિવ્ય",
        -9.585818447872954
      ],
      [
        "▁મનપસંદ",
        -9.586440204971941
      ],
      [
        "▁વરસ",
        -9.58740094113918
      ],
      [
        "▁2012",
        -9.587647981464515
      ],
      [
        "▁E",
        -9.5880557727614
      ],
      [
        "ષ",
        -9.58900696490973
      ],
      [
        "▁દો.",
        -9.589187154910325
      ],
      [
        "▁ગ",
        -9.589380869910224
      ],
      [
        "▁ભજન",
        -9.589453914620321
      ],
      [
        "B",
        -9.589868035537602
      ],
      [
        "મ્પ",
        -9.589961261063472
      ],
      [
        "▁તુ",
        -9.590142522881543
      ],
      [
        "▁અનામત",
        -9.59152589355265
      ],
      [
        "3\"",
        -9.591926361517515
      ],
      [
        "▁પુરુષો",
        -9.592680739378014
      ],
      [
        "▁સભ્ય",
        -9.592683944402904
      ],
      [
        "▁જોકે,",
        -9.593075289776332
      ],
      [
        "▁શર્મા",
        -9.594077132137095
      ],
      [
        "▁જઈને",
        -9.594119294583493
      ],
      [
        "▁મો",
        -9.594214634454715
      ],
      [
        "▁જોયા",
        -9.594258833462497
      ],
      [
        "▁સ્થળે",
        -9.594329391864587
      ],
      [
        "▁ડર",
        -9.594381617505627
      ],
      [
        "ઢ",
        -9.595179740275523
      ],
      [
        "▁ગેલેરી",
        -9.595467953681512
      ],
      [
        "▁આવે.",
        -9.595819810284016
      ],
      [
        "▁વાતચીત",
        -9.59609445798177
      ],
      [
        "છ",
        -9.596153412485773
      ],
      [
        "▁મુશ્કેલ",
        -9.596730318644195
      ],
      [
        "▁(રી",
        -9.598147241513507
      ],
      [
        "▁નામની",
        -9.598260191929008
      ],
      [
        "▁સરકારની",
        -9.598498604710835
      ],
      [
        "વામાં",
        -9.598631218754356
      ],
      [
        "▁ભાવનગર",
        -9.599930186612877
      ],
      [
        "▁ધાર્મિક",
        -9.60040790396138
      ],
      [
        "▁ડિજિટલ",
        -9.600472122141415
      ],
      [
        "▁ફરજ",
        -9.601360664835852
      ],
      [
        "▁ખ્યાલ",
        -9.601928102297734
      ],
      [
        "▁ગેસ",
        -9.603353935212759
      ],
      [
        "ીત",
        -9.603659273359941
      ],
      [
        "▁2010",
        -9.603747087202006
      ],
      [
        "▁બહેન",
        -9.603967778985002
      ],
      [
        "▁More",
        -9.604529033343304
      ],
      [
        "▁સમક્ષ",
        -9.604588077320246
      ],
      [
        "▁સ્માર્ટ",
        -9.605956442991022
      ],
      [
        "▁લેતા",
        -9.607256971977359
      ],
      [
        "▁અપવાદો",
        -9.608664872662459
      ],
      [
        "▁ફાયદા",
        -9.609215592432777
      ],
      [
        "f",
        -9.609815005565988
      ],
      [
        "▁અંગેની",
        -9.610874401744537
      ],
      [
        "▁(3)",
        -9.611308359476158
      ],
      [
        "▁એપ્લિકેશન",
        -9.612357423797638
      ],
      [
        "▁જવાબદાર",
        -9.612970428981232
      ],
      [
        "શી",
        -9.613167735276843
      ],
      [
        "▁માન",
        -9.613266719301787
      ],
      [
        "▁સન્માન",
        -9.614823927604547
      ],
      [
        "▁ઊભી",
        -9.615005974345577
      ],
      [
        "▁પ્રિયંકા",
        -9.615233760703887
      ],
      [
        "▁ઓફિસ",
        -9.61698877307809
      ],
      [
        "▁મનુષ્ય",
        -9.617998182032213
      ],
      [
        "▁દબાણ",
        -9.618257429144716
      ],
      [
        "▁અતિ",
        -9.6183025088746
      ],
      [
        "▁કલમ",
        -9.618461515418446
      ],
      [
        "▁ભૂમિકા",
        -9.618943891479892
      ],
      [
        "▁શુ",
        -9.619697002388431
      ],
      [
        "▁1.",
        -9.620060195439011
      ],
      [
        "▁વિશ્વની",
        -9.620342861456841
      ],
      [
        "▁પ્રયોગ",
        -9.620419407791701
      ],
      [
        "▁સૂર્ય",
        -9.620873517513134
      ],
      [
        "▁લાઈક",
        -9.620938002595034
      ],
      [
        "▁28",
        -9.621050191562736
      ],
      [
        "▁કેન્સર",
        -9.62132947382199
      ],
      [
        "▁પ્રમાણમાં",
        -9.621479966807104
      ],
      [
        "ટે",
        -9.62176585933765
      ],
      [
        "▁ભરતી",
        -9.622556710352516
      ],
      [
        "▁જાતે",
        -9.623815045151208
      ],
      [
        "▁મેસેજ",
        -9.623935828571973
      ],
      [
        "▁આવી.",
        -9.624223033512319
      ],
      [
        "▁શિવ",
        -9.624803422833622
      ],
      [
        "▁આજની",
        -9.62525887824617
      ],
      [
        "ક્ષ",
        -9.626141899039004
      ],
      [
        "▁થઈને",
        -9.62622818901502
      ],
      [
        "▁પાઠ",
        -9.626418221208233
      ],
      [
        "▁કહું",
        -9.627140554436043
      ],
      [
        "▁હ",
        -9.628218617540242
      ],
      [
        "▁લોટ",
        -9.630257967301414
      ],
      [
        "▁સંદેશ",
        -9.63115076807216
      ],
      [
        "▁ગયું.",
        -9.631507180138271
      ],
      [
        "▁તાલીમ",
        -9.632435481885619
      ],
      [
        "▁ગામે",
        -9.633505695878657
      ],
      [
        "←",
        -9.633591949480506
      ],
      [
        "▁હોસ્પિટલ",
        -9.633776179065965
      ],
      [
        "▁કરો)",
        -9.634247033900543
      ],
      [
        "▁રેડ",
        -9.635250693170846
      ],
      [
        "▁યુવાનો",
        -9.635679316603758
      ],
      [
        "▁અભિનેત્રી",
        -9.635869997823029
      ],
      [
        "▁નિયમ",
        -9.636300538798093
      ],
      [
        "▁રાજ્યના",
        -9.636316565199712
      ],
      [
        "▁માનસિક",
        -9.63684843808046
      ],
      [
        "▁સંસ્થા",
        -9.63877470280397
      ],
      [
        "b",
        -9.638944579690811
      ],
      [
        "▁ખાતરી",
        -9.639142094012783
      ],
      [
        "▁સુધારો",
        -9.639535698028158
      ],
      [
        "▁પાત્ર",
        -9.64047001146345
      ],
      [
        "▁તેવો",
        -9.642981700345883
      ],
      [
        "▁સુપર",
        -9.643087812678147
      ],
      [
        "▁નાટક",
        -9.643380631089471
      ],
      [
        "▁૧૪",
        -9.64449741192098
      ],
      [
        "▁પ્રતિબંધ",
        -9.644796077297098
      ],
      [
        "ભા",
        -9.645527637114583
      ],
      [
        "▁પકડી",
        -9.645712537532035
      ],
      [
        "▁પ્રેરણા",
        -9.646568674295818
      ],
      [
        "▁જોતા",
        -9.646657650096179
      ],
      [
        "▁and",
        -9.647149734328494
      ],
      [
        "▁બાળકને",
        -9.647916223987755
      ],
      [
        "▁હિન્દી",
        -9.648402195676628
      ],
      [
        "▁બનવા",
        -9.648818736839864
      ],
      [
        "▁આવ્યો.",
        -9.64944729938868
      ],
      [
        "▁વધારવા",
        -9.649542812611195
      ],
      [
        "▁શાંત",
        -9.649668974369966
      ],
      [
        "▁જમા",
        -9.649826953136913
      ],
      [
        "▁સફેદ",
        -9.650263784684894
      ],
      [
        "▁ગો",
        -9.650534003781825
      ],
      [
        "▁સાચું",
        -9.651452631904398
      ],
      [
        "▁ગેમ્સ",
        -9.651805774213896
      ],
      [
        "ચી",
        -9.652419107657263
      ],
      [
        "▁પહોંચ્યા",
        -9.653402991244512
      ],
      [
        "▁મદદથી",
        -9.653417252887834
      ],
      [
        "▁સાચા",
        -9.653986641238662
      ],
      [
        "▁માની",
        -9.654722159859997
      ],
      [
        "▁જવાનો",
        -9.654729953225177
      ],
      [
        "▁અમદાવાદમાં",
        -9.654958993181046
      ],
      [
        "▁એસ",
        -9.654967720708264
      ],
      [
        "▁2013",
        -9.655412301196263
      ],
      [
        "▁ભ",
        -9.656116564006929
      ],
      [
        "▁‘આ",
        -9.657024078470876
      ],
      [
        "▁ભરી",
        -9.657825557576201
      ],
      [
        "▁ઉભા",
        -9.65834547465041
      ],
      [
        "▁લાવવા",
        -9.659707190129367
      ],
      [
        "▁ટ્રાફિક",
        -9.661525039562779
      ],
      [
        "ગો",
        -9.662045361466028
      ],
      [
        "▁ઇચ્છા",
        -9.66209995534493
      ],
      [
        "▁વિનંતી",
        -9.662629780164185
      ],
      [
        "વુ",
        -9.66346756989586
      ],
      [
        "▁વાતાવરણ",
        -9.66348927653764
      ],
      [
        "▁હકીકત",
        -9.665083428974903
      ],
      [
        "▁મોકલી",
        -9.665398215512866
      ],
      [
        "▁ગેમ",
        -9.665514129951685
      ],
      [
        "▁આવીને",
        -9.66592432125163
      ],
      [
        "▁માફ",
        -9.666429290910845
      ],
      [
        "▁વારંવાર",
        -9.666641887331064
      ],
      [
        "▁પવિત્ર",
        -9.666904706838695
      ],
      [
        "▁વપરાશ",
        -9.66724014304505
      ],
      [
        "પો",
        -9.668106504700113
      ],
      [
        "▁જાણીને",
        -9.668206948028626
      ],
      [
        "▁ઘટનાઓ",
        -9.668432847599515
      ],
      [
        "▁અંક",
        -9.668945769362718
      ],
      [
        "ટો",
        -9.66897578247612
      ],
      [
        "િયો",
        -9.669535976891614
      ],
      [
        "▁વિદ્યાર્થી",
        -9.670536272693173
      ],
      [
        "▁હેતુ",
        -9.670565303724928
      ],
      [
        "▁ઇંચ",
        -9.6705958937522
      ],
      [
        "▁કોર્ટમાં",
        -9.670778925197723
      ],
      [
        "▁કાગળ",
        -9.6709771530506
      ],
      [
        "▁૧૩",
        -9.671898168498275
      ],
      [
        "''",
        -9.67288380392638
      ],
      [
        "▁મળીને",
        -9.673336188469653
      ],
      [
        "▁૩૦",
        -9.674062439353458
      ],
      [
        "l",
        -9.674205437441195
      ],
      [
        "▁આભાર.",
        -9.674775317993896
      ],
      [
        "▁બોલે",
        -9.675357751409727
      ],
      [
        "૦",
        -9.675590294733812
      ],
      [
        "યું",
        -9.676214736213467
      ],
      [
        "ક્સ",
        -9.67630334195588
      ],
      [
        "▁ભવ્ય",
        -9.676453755468495
      ],
      [
        "▁સરકારના",
        -9.676658625628768
      ],
      [
        "▁આટલા",
        -9.677116736259665
      ],
      [
        "▁ગાંધીજી",
        -9.677192698552776
      ],
      [
        "▁આપશે",
        -9.677310219864275
      ],
      [
        "▁ઘરની",
        -9.677906122334498
      ],
      [
        "▁જવાની",
        -9.67865587229187
      ],
      [
        "▁મંડળ",
        -9.678674270751817
      ],
      [
        "▁થોડો",
        -9.679705422305911
      ],
      [
        "▁હવા",
        -9.680441168292171
      ],
      [
        "ળી",
        -9.681909878648803
      ],
      [
        "▁સ્પર્ધા",
        -9.682232048116692
      ],
      [
        "▁રૂપાણી",
        -9.682733571154978
      ],
      [
        "▁ઉકેલ",
        -9.682946373577208
      ],
      [
        "▁પગાર",
        -9.683086900276958
      ],
      [
        "▁બાહ્ય",
        -9.683112952834215
      ],
      [
        "▁કાયદા",
        -9.683662228205787
      ],
      [
        "▁પટેલે",
        -9.683785912630832
      ],
      [
        "▁નામના",
        -9.683949109131508
      ],
      [
        "▁ચેક",
        -9.684123654716156
      ],
      [
        "h",
        -9.684124673648896
      ],
      [
        "▁આવવા",
        -9.684155671101554
      ],
      [
        "▁ચંદ્ર",
        -9.68416690643242
      ],
      [
        "▁માર્કેટ",
        -9.68449515084341
      ],
      [
        "▁આપીને",
        -9.684882275077534
      ],
      [
        "▁વ્યવસાય",
        -9.686148652450228
      ],
      [
        "વન",
        -9.687469952693728
      ],
      [
        "▁લીધું",
        -9.68764149930829
      ],
      [
        "▁ઘાયલ",
        -9.687898228275841
      ],
      [
        "▁ઇન",
        -9.688136983868244
      ],
      [
        "▁ભય",
        -9.688426051671696
      ],
      [
        "▁ક્યા",
        -9.688623014772205
      ],
      [
        "▁વેપાર",
        -9.688795645114197
      ],
      [
        "ૈ",
        -9.68902050877966
      ],
      [
        "▁કરનારા",
        -9.689053518908327
      ],
      [
        "▁સ્તર",
        -9.689714634866478
      ],
      [
        "▁ઊભા",
        -9.69009057455379
      ],
      [
        "▁માર્ગદર્શન",
        -9.690197817303979
      ],
      [
        "▁ખોરાક",
        -9.690306995248367
      ],
      [
        "▁ઉત્પાદનો",
        -9.690366506493227
      ],
      [
        "6",
        -9.691019687541091
      ],
      [
        "▁સંખ્યામાં",
        -9.691215090888663
      ],
      [
        "મેન્ટ",
        -9.691372583769407
      ],
      [
        "▁આખો",
        -9.691455051924805
      ],
      [
        "▁પરમ",
        -9.69172325534219
      ],
      [
        "▁જલ્દી",
        -9.692249274312434
      ],
      [
        "ઓની",
        -9.692705472520425
      ],
      [
        "on",
        -9.693044881642905
      ],
      [
        "ચા",
        -9.693519397812333
      ],
      [
        "K",
        -9.694399441265759
      ],
      [
        "▁પ્રમાણ",
        -9.694522930794403
      ],
      [
        "▁પડતી",
        -9.695012675533814
      ],
      [
        "▁પ્રો",
        -9.695202129345773
      ],
      [
        "▁જેનાથી",
        -9.695204623300404
      ],
      [
        "▁હોસ્પિટલમાં",
        -9.69544887198212
      ],
      [
        "એસ",
        -9.695478504172222
      ],
      [
        "▁હરિ",
        -9.696155568127246
      ],
      [
        "▁લક્ષ્મી",
        -9.696588266239225
      ],
      [
        "▁સક્રિય",
        -9.69873189998769
      ],
      [
        "▁ન્યુ",
        -9.699025879609646
      ],
      [
        "સુ",
        -9.699514132859047
      ],
      [
        "▁જી",
        -9.700296488157397
      ],
      [
        "▁ભાષામાં",
        -9.700445314583822
      ],
      [
        "▁બનશે",
        -9.700850473748115
      ],
      [
        "▁છેલ્લો",
        -9.703502105002844
      ],
      [
        "▁અંગત",
        -9.7038555867376
      ],
      [
        "▁લિંક",
        -9.704538821516365
      ],
      [
        "દેવ",
        -9.70493290934921
      ],
      [
        "▁ટેબલ",
        -9.70545846003683
      ],
      [
        "▁નજરે",
        -9.705624996447447
      ],
      [
        "▁પાવર",
        -9.705968004336778
      ],
      [
        "રુ",
        -9.70657231342334
      ],
      [
        "▁પડ્યા",
        -9.706642616595284
      ],
      [
        "▁અમેરિકામાં",
        -9.706983218611196
      ],
      [
        "▁પાન",
        -9.707714857741964
      ],
      [
        "નગર",
        -9.707890721000382
      ],
      [
        "▁લગાવી",
        -9.708055549002571
      ],
      [
        "▁કહો",
        -9.708080747560727
      ],
      [
        "▁સ્ટાઈલ",
        -9.708223433597665
      ],
      [
        "▁પૃથ્વી",
        -9.708894691514796
      ],
      [
        "▁પે",
        -9.709027859824555
      ],
      [
        "▁જઇ",
        -9.709695280166146
      ],
      [
        "▁કાળા",
        -9.710271690635274
      ],
      [
        "▁ફૂટ",
        -9.710772836084868
      ],
      [
        "▁સફર",
        -9.71163206356962
      ],
      [
        "▁ફ્રી",
        -9.71285012553901
      ],
      [
        "▁કોડ",
        -9.7129331890091
      ],
      [
        "▁views",
        -9.713135590869213
      ],
      [
        "▁ન્યાય",
        -9.713209215665854
      ],
      [
        "▁શરીરમાં",
        -9.713225784171968
      ],
      [
        "▁શોધવા",
        -9.714082181983459
      ],
      [
        "T",
        -9.714640775533692
      ],
      [
        "▁જૈન",
        -9.715026038341481
      ],
      [
        "▁27",
        -9.716004358296194
      ],
      [
        "બહેન",
        -9.716156781104969
      ],
      [
        "▁સ્થાપના",
        -9.716491366089816
      ],
      [
        "▁કમાણી",
        -9.7175525518035
      ],
      [
        "▁સેવન",
        -9.720152877850948
      ],
      [
        "કુમાર",
        -9.721736567727207
      ],
      [
        "▁દેવી",
        -9.721963573561968
      ],
      [
        "▁કેટલું",
        -9.722092988138407
      ],
      [
        "ઝા",
        -9.722137392793842
      ],
      [
        "▁આકાશ",
        -9.722548523255002
      ],
      [
        "▁લાગશે",
        -9.723471001259636
      ],
      [
        "મન",
        -9.724151049142744
      ],
      [
        "!!",
        -9.724263960431305
      ],
      [
        "▁—",
        -9.725362770971486
      ],
      [
        "▁પરિવર્તન",
        -9.726009247059945
      ],
      [
        "▁કૉમેન્ટ",
        -9.726326701024
      ],
      [
        "▁સંશોધન",
        -9.72636897231282
      ],
      [
        "રિ",
        -9.72661632744305
      ],
      [
        "v",
        -9.726818681925284
      ],
      [
        "૭",
        -9.729204826549552
      ],
      [
        "▁કિલો",
        -9.729352328455068
      ],
      [
        "▁જુઓ.",
        -9.730177440776515
      ],
      [
        "▁વાહન",
        -9.73023879866323
      ],
      [
        "▁જાણીતા",
        -9.73071021968807
      ],
      [
        "▁થયું.",
        -9.731442748866245
      ],
      [
        "▁કર્મ",
        -9.731501481678963
      ],
      [
        "શા",
        -9.733428897049551
      ],
      [
        "એમ",
        -9.733596972620127
      ],
      [
        "▁રસપ્રદ",
        -9.73371377660088
      ],
      [
        "...’",
        -9.733955983558559
      ],
      [
        "▁૨૫",
        -9.734188518468514
      ],
      [
        "▁જીતી",
        -9.734688036798719
      ],
      [
        "।",
        -9.734876348556835
      ],
      [
        "▁સંજય",
        -9.735040451586558
      ],
      [
        "▁વિકેટ",
        -9.735598279715255
      ],
      [
        "▁અભિપ્રાય",
        -9.735889525820651
      ],
      [
        "ક્",
        -9.737241440800034
      ],
      [
        "▁બન્યું",
        -9.737582094635876
      ],
      [
        "ઓમાં",
        -9.738140787198212
      ],
      [
        "▁વ્યક્તિને",
        -9.738315384736744
      ],
      [
        "▁દિવસોમાં",
        -9.739193902442718
      ],
      [
        "▁ઐતિહાસિક",
        -9.739375002180578
      ],
      [
        "▁ઠીક",
        -9.740189202489013
      ],
      [
        "▁મુકેશ",
        -9.740605521782424
      ],
      [
        "▁યુવતી",
        -9.741134282211153
      ],
      [
        "▁વિમાન",
        -9.74122228451742
      ],
      [
        "▁રમતો",
        -9.74132745487666
      ],
      [
        "▁©",
        -9.741598513501536
      ],
      [
        "▁રેખા",
        -9.741820959004631
      ],
      [
        "▁૧૦૦",
        -9.742038254823902
      ],
      [
        "▁જતો",
        -9.74207654536519
      ],
      [
        "▁અંતર",
        -9.742091534280812
      ],
      [
        "▁લાવી",
        -9.743472761090498
      ],
      [
        "▁સંતોષ",
        -9.744342413349724
      ],
      [
        "▁ઉદાહરણ",
        -9.744462423380899
      ],
      [
        "ેશ",
        -9.745496750960125
      ],
      [
        "▁આજથી",
        -9.746043061188175
      ],
      [
        "▁ધરતી",
        -9.746130024682156
      ],
      [
        "▁લેવી",
        -9.747880659288015
      ],
      [
        "▁Ch",
        -9.74926059363148
      ],
      [
        "▁વિકિપીડિયા",
        -9.749942972044494
      ],
      [
        "▁રજુ",
        -9.750746559787785
      ],
      [
        "▁સમ",
        -9.750758247672588
      ],
      [
        "▁સભા",
        -9.751330376738167
      ],
      [
        "▁ધારાસભ્ય",
        -9.751467010599848
      ],
      [
        "▁તાજા",
        -9.7514761326271
      ],
      [
        "▁વાર્તાઓ",
        -9.75323002735983
      ],
      [
        "▁માંગે",
        -9.753355856292368
      ],
      [
        "▁કારણો",
        -9.753630897771261
      ],
      [
        "▁ગૂગલ",
        -9.753728511920855
      ],
      [
        "▁જોડી",
        -9.753951836786818
      ],
      [
        "▁કહ્યુ",
        -9.754420285669372
      ],
      [
        "▁વાર્ષિક",
        -9.755147650293544
      ],
      [
        "મુ",
        -9.755595776349187
      ],
      [
        "▁અમેરિકાના",
        -9.755739649268882
      ],
      [
        "રસ",
        -9.756041955755657
      ],
      [
        "▁વાંચતા",
        -9.756162172851234
      ],
      [
        "▁પાછો",
        -9.756176957573114
      ],
      [
        "▁કલા",
        -9.756846003435712
      ],
      [
        "▁લેટેસ્ટ",
        -9.75770841853933
      ],
      [
        "ચર",
        -9.758412461213684
      ],
      [
        "▁એકાઉન્ટ",
        -9.758513408928152
      ],
      [
        "▁ઉમેદવાર",
        -9.758669512107033
      ],
      [
        "▁પેદા",
        -9.758987405992261
      ],
      [
        "▁આરતી",
        -9.759127159429019
      ],
      [
        "▁ઉમેરો",
        -9.759930030565855
      ],
      [
        "▁બાઈક",
        -9.760514516872245
      ],
      [
        "▁મેળવો",
        -9.761362657834718
      ],
      [
        "▁અપેક્ષા",
        -9.761829430482901
      ],
      [
        "▁રાષ્ટ્ર",
        -9.761864825498403
      ],
      [
        "▁માલ",
        -9.761995714779847
      ],
      [
        "▁સેવાઓ",
        -9.762563705513568
      ],
      [
        "M",
        -9.762722037867437
      ],
      [
        "▁છે.”",
        -9.763305068445266
      ],
      [
        "▁ગ્રાહક",
        -9.763471402895743
      ],
      [
        "▁ગરીબ",
        -9.763566471116018
      ],
      [
        "▁આવતો",
        -9.764487364101786
      ],
      [
        "▁માલિક",
        -9.764952022766497
      ],
      [
        "▁સ્થિત",
        -9.765086837873486
      ],
      [
        "ગી",
        -9.76581148847217
      ],
      [
        "▁કાંઈ",
        -9.767441269748854
      ],
      [
        "▁ટિપ્સ",
        -9.768437410254442
      ],
      [
        "N",
        -9.769291511459945
      ],
      [
        "▁જેઓ",
        -9.769292044582265
      ],
      [
        "▁નિયમિત",
        -9.7701945954059
      ],
      [
        "▁કેટલાંક",
        -9.770256354269037
      ],
      [
        "▁લખો",
        -9.770339642364462
      ],
      [
        "▁જિલ્લાના",
        -9.772156220738932
      ],
      [
        "U",
        -9.774226540343983
      ],
      [
        "▁ટ્રક",
        -9.774850014728225
      ],
      [
        "▁2.",
        -9.775337326535002
      ],
      [
        "▁ધરી",
        -9.77568163935699
      ],
      [
        "▁દીધા",
        -9.775700628242209
      ],
      [
        "▁મંદિરમાં",
        -9.775831786227899
      ],
      [
        "▁કૃષિ",
        -9.776074328340401
      ],
      [
        "▁શંકા",
        -9.777357468932315
      ],
      [
        "▁મુસ્લિમ",
        -9.777637773556142
      ],
      [
        "▁જશો",
        -9.778026032558941
      ],
      [
        "▁ગયેલા",
        -9.778202467046258
      ],
      [
        "▁રહેતી",
        -9.77884443898251
      ],
      [
        "▁ટેટૂ",
        -9.778901492754667
      ],
      [
        "▁મુ",
        -9.779112110988109
      ],
      [
        "૮",
        -9.780183854358336
      ],
      [
        "▁છેલ્લી",
        -9.780725202311363
      ],
      [
        "▁આશરે",
        -9.781045158583932
      ],
      [
        "▁....",
        -9.781243621604538
      ],
      [
        "▁2008",
        -9.781260783179775
      ],
      [
        "▁ભાષાઓમાં",
        -9.781382896985114
      ],
      [
        "બે",
        -9.781710898333092
      ],
      [
        "ૅ",
        -9.781720901009814
      ],
      [
        "...!",
        -9.781725719217093
      ],
      [
        "▁ક્ષેત્ર",
        -9.782011906773016
      ],
      [
        "D",
        -9.78208021905596
      ],
      [
        "▁માસ",
        -9.78221528752552
      ],
      [
        "▁સંપત્તિ",
        -9.783307563954484
      ],
      [
        "▁જેલ",
        -9.783657163382777
      ],
      [
        "▁કોઇપણ",
        -9.783690807211627
      ],
      [
        "▁જા",
        -9.783814237848432
      ],
      [
        "▁પૂરું",
        -9.78440772409431
      ],
      [
        "▁ગાડી",
        -9.784679228807855
      ],
      [
        "▁પુત્રી",
        -9.784685456204974
      ],
      [
        "▁રૂપે",
        -9.784885536084545
      ],
      [
        "૧",
        -9.785793151998849
      ],
      [
        "▁ઉપવાસ",
        -9.787280193185339
      ],
      [
        "▁ખેતી",
        -9.787337667815306
      ],
      [
        "O",
        -9.787485577226025
      ],
      [
        "▁મરી",
        -9.788483968858863
      ],
      [
        "▁લાગ્યા",
        -9.789524038450597
      ],
      [
        "▁રોલ",
        -9.789576812474689
      ],
      [
        "▁ભૂલથી",
        -9.79029855740961
      ],
      [
        "▁26",
        -9.790670579519904
      ],
      [
        "▁પોસ્ટ્સ",
        -9.792095324960098
      ],
      [
        "▁બટન",
        -9.792587618185188
      ],
      [
        "▁પ્રચાર",
        -9.793212400127365
      ],
      [
        "▁જોશી",
        -9.793606433686882
      ],
      [
        "▁બપોરે",
        -9.793825594395742
      ],
      [
        "▁તેઓએ",
        -9.793832070356288
      ],
      [
        "▁શું?",
        -9.793911709964496
      ],
      [
        "▁(જરૂરી",
        -9.79489545606928
      ],
      [
        "▁ટિપ્પણી",
        -9.795569916962291
      ],
      [
        "▁ગયાં",
        -9.796141064150575
      ],
      [
        "▁દિવસની",
        -9.79771720788046
      ],
      [
        "▁કરોડના",
        -9.798405146667886
      ],
      [
        "▁જેલમાં",
        -9.799275875172901
      ],
      [
        "▁લેવાની",
        -9.799598358045106
      ],
      [
        "▁ધમકી",
        -9.799632444400345
      ],
      [
        "▁શહેરના",
        -9.800624069761366
      ],
      [
        "▁ટેકનોલોજી",
        -9.801229927514905
      ],
      [
        "▁સેલ",
        -9.801831016150185
      ],
      [
        "▁કઇ",
        -9.801903038473105
      ],
      [
        "▁શકશે.",
        -9.80195592855783
      ],
      [
        "▁પાછી",
        -9.802739113947041
      ],
      [
        "▁મૂર્તિ",
        -9.802827633457692
      ],
      [
        "▁વિનોદ",
        -9.805131420954352
      ],
      [
        "z",
        -9.805172842142575
      ],
      [
        "▁મકાન",
        -9.805509535826646
      ],
      [
        "..!!",
        -9.805815885244405
      ],
      [
        "▁અંદાજ",
        -9.806866288413861
      ],
      [
        "‘",
        -9.807548240464476
      ],
      [
        "▁કુ",
        -9.807861365316992
      ],
      [
        "▁વિશ્વમાં",
        -9.808096877074998
      ],
      [
        "▁છોડ",
        -9.808252963895882
      ],
      [
        "▁ગણતરી",
        -9.808478593873328
      ],
      [
        "▁જુલાઇ",
        -9.808736655491764
      ],
      [
        "▁ગુણવત્તા",
        -9.808933321375715
      ],
      [
        "▁સંસ્કૃતિ",
        -9.808989303646317
      ],
      [
        "▁ગ્રાહકો",
        -9.80954680515784
      ],
      [
        "▁ઘટકો",
        -9.809626509305343
      ],
      [
        "▁રાખો.",
        -9.810459158023061
      ],
      [
        "▁મુકવા",
        -9.810650096624084
      ],
      [
        "▁You",
        -9.811008455527784
      ],
      [
        "en",
        -9.811516491814434
      ],
      [
        "▁આંકડા",
        -9.81168422045572
      ],
      [
        "▁મહિને",
        -9.812012525233202
      ],
      [
        "▁2014",
        -9.812289607608221
      ],
      [
        "▁આવ્યાં",
        -9.812368181758707
      ],
      [
        "▁ખેલાડી",
        -9.812743437944189
      ],
      [
        "▁રૂ",
        -9.814173472043866
      ],
      [
        "▁પહેલો",
        -9.81443012122579
      ],
      [
        "▁__",
        -9.814718351552031
      ],
      [
        "મેન",
        -9.815206093008774
      ],
      [
        "એક",
        -9.815376726144457
      ],
      [
        "▁શ્રદ્ધા",
        -9.815956990688417
      ],
      [
        "જન",
        -9.816266720073735
      ],
      [
        "▁સંઘ",
        -9.817481108257846
      ],
      [
        "▁લાખો",
        -9.818149797749214
      ],
      [
        "▁ગુણ",
        -9.818292232408698
      ],
      [
        "0",
        -9.819024128964347
      ],
      [
        "▁વે",
        -9.819336182607838
      ],
      [
        "▁સેન્ટર",
        -9.819784615033637
      ],
      [
        "▁આપણું",
        -9.81998032457657
      ],
      [
        "▁વાળા",
        -9.820351875511166
      ],
      [
        "▁દીકરા",
        -9.82037413106648
      ],
      [
        "▁કરાયો",
        -9.820407264877867
      ],
      [
        "▁નાશ",
        -9.820735207619862
      ],
      [
        "▁દંડ",
        -9.820824270093679
      ],
      [
        "▁ઘી",
        -9.820930186120354
      ],
      [
        "▁કોહલી",
        -9.821315090851067
      ],
      [
        "▁સ્વભાવ",
        -9.82212669822879
      ],
      [
        "▁ખ",
        -9.822628622065807
      ],
      [
        "▁અન",
        -9.82272596713682
      ],
      [
        "કાળ",
        -9.823723815231823
      ],
      [
        "▁ત્રીજા",
        -9.823743541386968
      ],
      [
        "▁દેહ",
        -9.824013875322589
      ],
      [
        "▁હજારો",
        -9.82505391478049
      ],
      [
        "▁નાણાકીય",
        -9.825225094798604
      ],
      [
        "▁ન્યૂ",
        -9.825589441560059
      ],
      [
        "વાદ",
        -9.827170635387443
      ],
      [
        "▁સ્કૂલ",
        -9.82717197357421
      ],
      [
        "સન",
        -9.827306560254668
      ],
      [
        "▁વા",
        -9.827464505755845
      ],
      [
        "▁ફેરફારો",
        -9.828473529306237
      ],
      [
        "▁જેટલું",
        -9.828593645272068
      ],
      [
        "▁ત્યાંથી",
        -9.82900964742262
      ],
      [
        "▁ગામના",
        -9.829908775741494
      ],
      [
        "▁તારો",
        -9.830210313248479
      ],
      [
        "▁Comments",
        -9.830966211382748
      ],
      [
        "▁કેટલો",
        -9.831004805946696
      ],
      [
        "▁આવેલું",
        -9.831026949780664
      ],
      [
        "▁સ્ટોરી",
        -9.831299301036236
      ],
      [
        "▁માર",
        -9.831365603607487
      ],
      [
        "▁ઓછો",
        -9.831773920549127
      ],
      [
        "▁બિન",
        -9.83194598396298
      ],
      [
        "▁શાસ્ત્ર",
        -9.832267425570489
      ],
      [
        "▁મેચમાં",
        -9.832359068305465
      ],
      [
        "▁શૂટ",
        -9.832861772704248
      ],
      [
        "▁સુરતઃ",
        -9.833240118609845
      ],
      [
        "▁ઓનલાઈન",
        -9.83338158151413
      ],
      [
        "▁ભાઇ",
        -9.833822857227275
      ],
      [
        "▁માથા",
        -9.834014033975324
      ],
      [
        "▁વિવેક",
        -9.834356733363627
      ],
      [
        "▁રાશિફળ",
        -9.835055063702846
      ],
      [
        "▁એકબીજા",
        -9.83540522219597
      ],
      [
        "▁તાજેતરની",
        -9.83595120096713
      ],
      [
        "▁ગૌરવ",
        -9.837094216533668
      ],
      [
        "▁હાથે",
        -9.837147781151117
      ],
      [
        "▁ધોની",
        -9.837408953688783
      ],
      [
        "re",
        -9.8374326397717
      ],
      [
        "ભાવ",
        -9.837999556645203
      ],
      [
        "▁પાણીમાં",
        -9.838105152032114
      ],
      [
        "▁સંઘર્ષ",
        -9.838314590376653
      ],
      [
        "▁પાડે",
        -9.83870134361836
      ],
      [
        "▁લાગ્યું",
        -9.839926532251717
      ],
      [
        "સિ",
        -9.840606667304936
      ],
      [
        "▁વિડિઓ",
        -9.84124166338109
      ],
      [
        "▁સંભાવના",
        -9.841316020785403
      ],
      [
        "▁લાંબી",
        -9.841596700053515
      ],
      [
        "▁પર્યાવરણ",
        -9.841785362506778
      ],
      [
        "▁કંપનીએ",
        -9.842102753570721
      ],
      [
        "▁બન્યો",
        -9.843882156491414
      ],
      [
        "▁હોવું",
        -9.844630322720699
      ],
      [
        "▁R",
        -9.845577183618632
      ],
      [
        "▁વિક્રમ",
        -9.845958752711015
      ],
      [
        "st",
        -9.846201857747888
      ],
      [
        "▁દીપિકા",
        -9.84657273479436
      ],
      [
        "▁આઇ",
        -9.84670253324088
      ],
      [
        "▁ટેક",
        -9.84680775178418
      ],
      [
        "▁શાખા",
        -9.84782619381856
      ],
      [
        "▁રજા",
        -9.84890258187014
      ],
      [
        "▁બેઠકો",
        -9.849070272529573
      ],
      [
        "▁ગાંધીએ",
        -9.849287293091248
      ],
      [
        "▁મિ",
        -9.849383817360273
      ],
      [
        "I",
        -9.849681237287477
      ],
      [
        "▁હોવી",
        -9.849980400106226
      ],
      [
        "▁સ્ક્રીન",
        -9.849990606469598
      ],
      [
        "▁કાન",
        -9.850041483117156
      ],
      [
        "▁વૃક્ષ",
        -9.850552045196077
      ],
      [
        "▁મીટર",
        -9.850744429318064
      ],
      [
        "▁ઈન્ટરનેટ",
        -9.850802721790338
      ],
      [
        "▁ઉપચાર",
        -9.851545987722698
      ],
      [
        "▁સરળતાથી",
        -9.851729103381617
      ],
      [
        "▁કડક",
        -9.853260516095915
      ],
      [
        "▁હુ",
        -9.853317326130089
      ],
      [
        "એલ",
        -9.853871247551627
      ],
      [
        "▁સેના",
        -9.854018152895248
      ],
      [
        "▁ડિ",
        -9.854226460942213
      ],
      [
        "▁તસવીર",
        -9.854755156086387
      ],
      [
        "▁બોલ્યા",
        -9.854821871028605
      ],
      [
        "▁આઈ",
        -9.854838233616553
      ],
      [
        "▁રો",
        -9.855666651874607
      ],
      [
        "▁પ્રજા",
        -9.856264588445681
      ],
      [
        "▁પ્રસ્તુત",
        -9.856408521931037
      ],
      [
        "▁ડોક્ટર",
        -9.856884796591329
      ],
      [
        "ેલું",
        -9.856962490915695
      ],
      [
        "હો",
        -9.857668657548105
      ],
      [
        "▁અભિનંદન",
        -9.858064008526313
      ],
      [
        "▁ક્યાંય",
        -9.858615249936605
      ],
      [
        "▁ફોર",
        -9.858896411721027
      ],
      [
        "▁તેમાંથી",
        -9.859352118175478
      ],
      [
        "▁ઉભી",
        -9.859970098859943
      ],
      [
        "હે",
        -9.859994398275877
      ],
      [
        "▁શીખ",
        -9.860064197573719
      ],
      [
        "▁ટ્વિટર",
        -9.860697040154788
      ],
      [
        "▁કહ્યું.",
        -9.86124831658029
      ],
      [
        "▁હાઇ",
        -9.861448273884129
      ],
      [
        "▁સહિતના",
        -9.862116403156652
      ],
      [
        "ંડ",
        -9.862352309403516
      ],
      [
        "▁31",
        -9.862682283024244
      ],
      [
        "▁૨૨",
        -9.863212499566682
      ],
      [
        "▁અમર",
        -9.863418403636146
      ],
      [
        "▁માધ્યમ",
        -9.863547999476072
      ],
      [
        "▁(4)",
        -9.864306640496556
      ],
      [
        "▁વહેલી",
        -9.865099208315208
      ],
      [
        "G",
        -9.865703300706475
      ],
      [
        "▁શકું",
        -9.86641444313469
      ],
      [
        "▁પ્રસંગ",
        -9.86709311281671
      ],
      [
        "▁કાર્યો",
        -9.867531715217947
      ],
      [
        "▁સ્થિર",
        -9.868484033972052
      ],
      [
        "▁પ્રધાનમંત્રી",
        -9.868951583104607
      ],
      [
        "▁ટુ",
        -9.869462178924007
      ],
      [
        "▁પેપર",
        -9.869713596254162
      ],
      [
        "▁અનુવાદ",
        -9.870216577904927
      ],
      [
        "▁પૂરો",
        -9.870980898600386
      ],
      [
        "▁દ",
        -9.872215862445865
      ],
      [
        "▁બાબા",
        -9.873004571832162
      ],
      [
        "▁છેલ્લે",
        -9.873069099389964
      ],
      [
        "▁અવસાન",
        -9.873477537627167
      ],
      [
        "▁એટલો",
        -9.873513926073048
      ],
      [
        "▁માણસો",
        -9.873591788541649
      ],
      [
        "રૂ",
        -9.87371834060397
      ],
      [
        "▁જાવ",
        -9.874786685045876
      ],
      [
        "▁રાતે",
        -9.875576656272301
      ],
      [
        "▁@",
        -9.876177750809054
      ],
      [
        "▁લોહી",
        -9.87623501224184
      ],
      [
        "▁ભાવે",
        -9.876263530521058
      ],
      [
        "▁વ્યાસ",
        -9.876998826739204
      ],
      [
        "ડિયા",
        -9.877314272056335
      ],
      [
        "▁સ્વાદ",
        -9.878200680794494
      ],
      [
        "▁બાપ",
        -9.878389869002703
      ],
      [
        "▁હતુ",
        -9.878529652675118
      ],
      [
        "▁ગુજરાતીમાં",
        -9.87943121309312
      ],
      [
        "▁પરિણામો",
        -9.879693409490741
      ],
      [
        "▁સ્વસ્થ",
        -9.880130231653002
      ],
      [
        "▁વપરાશકર્તા",
        -9.88111455265354
      ],
      [
        "▁રૂપિયાની",
        -9.881505326786879
      ],
      [
        "▁હાજરી",
        -9.881743089365052
      ],
      [
        "▁ખોટી",
        -9.88202208095662
      ],
      [
        "▁તેજ",
        -9.882220328200887
      ],
      [
        "દર",
        -9.882651229481556
      ],
      [
        "▁↑",
        -9.88375723680657
      ],
      [
        "ધી",
        -9.885130352811036
      ],
      [
        "▁આંસુ",
        -9.885773315180948
      ],
      [
        "▁પુરી",
        -9.886330794288199
      ],
      [
        "▁પૂર",
        -9.886347440094926
      ],
      [
        "▁સેન્ટ",
        -9.886703088586616
      ],
      [
        "▁ગાય",
        -9.887363748390968
      ],
      [
        "▁સંગઠન",
        -9.88766288873703
      ],
      [
        "10",
        -9.88785207115082
      ],
      [
        "▁વ્યક્તિઓ",
        -9.88811503929827
      ],
      [
        "▁પ્રગતિ",
        -9.88871645906891
      ],
      [
        "▁ગ્રુપ",
        -9.889274510591765
      ],
      [
        "▁કુટુંબ",
        -9.88995182126273
      ],
      [
        "▁સરકારને",
        -9.890483422930235
      ],
      [
        "......",
        -9.891088702217855
      ],
      [
        "વાન",
        -9.891593805144954
      ],
      [
        "કુ",
        -9.892019300737228
      ],
      [
        "ન્ડ",
        -9.89223191589072
      ],
      [
        "▁માંડ",
        -9.892497201950569
      ],
      [
        "▁યા",
        -9.893083030901446
      ],
      [
        "▁ભાર",
        -9.893191013133473
      ],
      [
        "▁ખેલાડીઓ",
        -9.893521014303609
      ],
      [
        "▁ગુજરાતની",
        -9.893984760354497
      ],
      [
        "▁પાટીદાર",
        -9.894102475541297
      ],
      [
        "▁શાનદાર",
        -9.894159096946218
      ],
      [
        "▁મળે.",
        -9.894432434728113
      ],
      [
        "▁ભાગે",
        -9.89549329089659
      ],
      [
        "િલ",
        -9.89566764458106
      ],
      [
        "▁જૂનાગઢ",
        -9.896201350896671
      ],
      [
        "▁મુંબઇ",
        -9.89622400381054
      ],
      [
        "▁સમીક્ષા",
        -9.896735167683328
      ],
      [
        "▁ખાંડ",
        -9.896832255802131
      ],
      [
        "▁શકશો.",
        -9.89726084081165
      ],
      [
        "R",
        -9.89790791633366
      ],
      [
        "▁કલ્યાણ",
        -9.898714757032838
      ],
      [
        "▁હોવાનો",
        -9.898882491804642
      ],
      [
        "▁મેનેજર",
        -9.899032655844902
      ],
      [
        "▁લાગ્યો",
        -9.899538564606065
      ],
      [
        "ar",
        -9.899545900890942
      ],
      [
        "▁દાહોદ",
        -9.899633311527055
      ],
      [
        "▁ઉતરી",
        -9.899671512922467
      ],
      [
        "▁કારણકે",
        -9.899940356775549
      ],
      [
        "▁ડિગ્રી",
        -9.901146113364462
      ],
      [
        "જુ",
        -9.901227366664937
      ],
      [
        "▁મીઠું",
        -9.901348054961863
      ],
      [
        "▁શૂટિંગ",
        -9.901474399498488
      ],
      [
        "▁સંસ્થાઓ",
        -9.902003962583674
      ],
      [
        "▁માન્યતા",
        -9.902255367177201
      ],
      [
        "▁ખુદ",
        -9.902997112665643
      ],
      [
        "▁ઉત્સવ",
        -9.903054286362664
      ],
      [
        "▁કાયમ",
        -9.903794313779175
      ],
      [
        "▁ભાગમાં",
        -9.903963549330737
      ],
      [
        "▁સોમવારે",
        -9.904862197303798
      ],
      [
        "▁ફૂડ",
        -9.90489195310547
      ],
      [
        "▁સહુ",
        -9.906471595038619
      ],
      [
        "▁ટૂંક",
        -9.906786076921898
      ],
      [
        "▁હોવ",
        -9.907082513829394
      ],
      [
        "▁રજૂઆત",
        -9.907393103257323
      ],
      [
        "▁રવિવારે",
        -9.908587292910344
      ],
      [
        "▁રૂમ",
        -9.908703421322123
      ],
      [
        "▁દાદા",
        -9.909042206574536
      ],
      [
        "ત્",
        -9.909339278905797
      ],
      [
        "▁ખોટું",
        -9.909817419683762
      ],
      [
        "▁મંત્રાલય",
        -9.909892050098392
      ],
      [
        "▁સમર્થન",
        -9.910645488981356
      ],
      [
        "▁કુદરતી",
        -9.9120543174459
      ],
      [
        "▁સદી",
        -9.912212185118356
      ],
      [
        "▁બચ્ચન",
        -9.912923996735955
      ],
      [
        "..!",
        -9.913188867901042
      ],
      [
        "▁are",
        -9.914382229090478
      ],
      [
        "▁ખરા",
        -9.914775212840706
      ],
      [
        "▁ત",
        -9.915325286136817
      ],
      [
        "▁શારીરિક",
        -9.915465405889034
      ],
      [
        "▁ચાર્જ",
        -9.915714000694908
      ],
      [
        "▁અંબાણી",
        -9.916155283706594
      ],
      [
        "w",
        -9.916556303281915
      ],
      [
        "▁દુનિયાના",
        -9.916703132246612
      ],
      [
        "▁સ્વીકાર",
        -9.917210415822836
      ],
      [
        "▁ઉતારી",
        -9.917872211227941
      ],
      [
        "▁આઉટ",
        -9.91865697552004
      ],
      [
        "▁ઉત્સાહ",
        -9.91880947726367
      ],
      [
        "▁ખાઈ",
        -9.919567290902926
      ],
      [
        "▁પડતા",
        -9.919635544870525
      ],
      [
        "▁હાઉસ",
        -9.92054315057501
      ],
      [
        "▁ભાસ્કર",
        -9.920597243665974
      ],
      [
        "▁V",
        -9.920612904915313
      ],
      [
        "▁માનવી",
        -9.920792229203734
      ],
      [
        "લિ",
        -9.921367737850048
      ],
      [
        "▁2019",
        -9.921721424100753
      ],
      [
        "▁તાલુકાના",
        -9.92180387024632
      ],
      [
        "▁મગજ",
        -9.921918685107563
      ],
      [
        "▁દિલ્હીમાં",
        -9.922034257907582
      ],
      [
        "’ના",
        -9.922056388716301
      ],
      [
        "▁જેનો",
        -9.922234101875445
      ],
      [
        "’ની",
        -9.922606947178105
      ],
      [
        "▁H",
        -9.922944962449023
      ],
      [
        "▁એન",
        -9.923938660699179
      ],
      [
        "ળા",
        -9.924669595059054
      ],
      [
        "▁સબ",
        -9.924785247513945
      ],
      [
        "▁આજકાલ",
        -9.924945175810937
      ],
      [
        "▁દિશા",
        -9.925915245980232
      ],
      [
        "▁સ્વપ્ન",
        -9.925983092080763
      ],
      [
        "▁વાળી",
        -9.927181351228562
      ],
      [
        "▁ઑફ",
        -9.927408870904642
      ],
      [
        "▁આવ્યા.",
        -9.927564001814854
      ],
      [
        "▁થકી",
        -9.927945609962684
      ],
      [
        "▁લગાવવા",
        -9.928390225537804
      ],
      [
        "▁ગુનો",
        -9.928457940998797
      ],
      [
        "▁સંકેત",
        -9.929701143162301
      ],
      [
        "▁ગરમી",
        -9.929890864116132
      ],
      [
        "▁અક્ષર",
        -9.930064271106101
      ],
      [
        "▁દિશામાં",
        -9.930365155318714
      ],
      [
        "▁પ્રસિદ્ધ",
        -9.93049377636279
      ],
      [
        "▁એજન્સી",
        -9.930956427032356
      ],
      [
        "▁દેસાઈ",
        -9.93108174395896
      ],
      [
        "▁આવતાં",
        -9.931280728508014
      ],
      [
        "▁બળ",
        -9.931313901610077
      ],
      [
        "▁ઊ",
        -9.93170942236813
      ],
      [
        "▁કરે.",
        -9.933174261122353
      ],
      [
        "▁કાલ",
        -9.933527428760607
      ],
      [
        "▁ડીલ",
        -9.933657539216973
      ],
      [
        "*",
        -9.934821307263617
      ],
      [
        "▁રિલાયન્સ",
        -9.935005186589503
      ],
      [
        "▁ખરી",
        -9.935184988441634
      ],
      [
        "▁શિ",
        -9.935274434490532
      ],
      [
        "▁પામી",
        -9.935455200704641
      ],
      [
        "▁અમલ",
        -9.93593048087455
      ],
      [
        "j",
        -9.935962405433283
      ],
      [
        "▁૫૦",
        -9.936411216102707
      ],
      [
        "▁પૂરા",
        -9.936426538289501
      ],
      [
        "▁જણાવવા",
        -9.937292089735216
      ],
      [
        "▁સોના",
        -9.938057069141479
      ],
      [
        "▁જનરલ",
        -9.938193859461515
      ],
      [
        "▁બાળકોના",
        -9.938218875242825
      ],
      [
        "▁કંપનીના",
        -9.939030844605284
      ],
      [
        "વાનું",
        -9.939666182293292
      ],
      [
        "▁નેટ",
        -9.939812444828668
      ],
      [
        "▁ક્ષેત્રમાં",
        -9.940037035490516
      ],
      [
        "▁નગર",
        -9.940135443645815
      ],
      [
        "▁બનાવવાની",
        -9.94067829545472
      ],
      [
        "▁વિદ્યાર્થીઓને",
        -9.940740366378794
      ],
      [
        "▁અરે",
        -9.940982058450512
      ],
      [
        "▁દલિત",
        -9.942491060672607
      ],
      [
        "▁ટોચ",
        -9.942597500673866
      ],
      [
        "▁ઈતિહાસ",
        -9.942840644180324
      ],
      [
        "▁નિશાન",
        -9.942964248297539
      ],
      [
        "▁હદ",
        -9.943111534812996
      ],
      [
        "▁મહત્વની",
        -9.943929241119838
      ],
      [
        "▁ભાવના",
        -9.944782456210994
      ],
      [
        "▁ફરવા",
        -9.94505000815764
      ],
      [
        "▁કેપ્ટન",
        -9.945162981135052
      ],
      [
        "્ર",
        -9.945176788292432
      ],
      [
        "▁બાળકી",
        -9.945396276231556
      ],
      [
        "▁અમિતાભ",
        -9.946086130221044
      ],
      [
        "▁૧.",
        -9.946106893256111
      ],
      [
        "▁Read",
        -9.946586094457066
      ],
      [
        "▁di",
        -9.94664068427026
      ],
      [
        "ેલ",
        -9.94726743075271
      ],
      [
        "▁પાર્ટનર",
        -9.947876024148805
      ],
      [
        "▁સ્વ",
        -9.948060341284968
      ],
      [
        "▁ખેડૂત",
        -9.949300544455381
      ],
      [
        "▁જૂના",
        -9.949348289619573
      ],
      [
        "▁ધીરે",
        -9.949635074746745
      ],
      [
        "▁પ્રભાવ",
        -9.950602784857523
      ],
      [
        "▁રાજસ્થાન",
        -9.950805926487154
      ],
      [
        "▁કોંગ્રેસે",
        -9.95193413544354
      ],
      [
        "▁કલાકમાં",
        -9.952523445830298
      ],
      [
        "▁ગતિ",
        -9.952563270414402
      ],
      [
        "ેશન",
        -9.953306743950414
      ],
      [
        "લ્",
        -9.953383726123409
      ],
      [
        "▁કાશ્મીર",
        -9.95375713028124
      ],
      [
        "▁ચાલ",
        -9.954064503442035
      ],
      [
        "▁કન્યા",
        -9.95423884192562
      ],
      [
        "મિ",
        -9.95425844735492
      ],
      [
        "▁ગણાય",
        -9.954266329834784
      ],
      [
        "▁ઝાડ",
        -9.954274594861985
      ],
      [
        "ંટ",
        -9.95428282717564
      ],
      [
        "કલ",
        -9.954735005509196
      ],
      [
        "▁વૈશ્વિક",
        -9.955075349994445
      ],
      [
        "▁પ્રસંગે",
        -9.955938559171958
      ],
      [
        "▁સંસ્કાર",
        -9.956007235036559
      ],
      [
        "દાસ",
        -9.956247596942221
      ],
      [
        "ri",
        -9.956320665812616
      ],
      [
        "▁વ્યાજ",
        -9.95677567386458
      ],
      [
        "▁અબજ",
        -9.95706259177069
      ],
      [
        "▁નહિ,",
        -9.957422026446897
      ],
      [
        "▁કરીશ",
        -9.958052906719285
      ],
      [
        "યર",
        -9.958272293390728
      ],
      [
        "▁જીવનની",
        -9.95961484952062
      ],
      [
        "▁ભારતે",
        -9.961519088738116
      ],
      [
        "▁યોગદાન",
        -9.961627928945763
      ],
      [
        "▁ભેગા",
        -9.962583509807498
      ],
      [
        "૯",
        -9.963031696157724
      ],
      [
        "▁ગણેશ",
        -9.963437040353583
      ],
      [
        "▁સાધન",
        -9.963687325485104
      ],
      [
        "મય",
        -9.964192927735727
      ],
      [
        "▁આપવાનો",
        -9.964374619175327
      ],
      [
        "▁કરોડો",
        -9.964396547211521
      ],
      [
        "▁યોજનાઓ",
        -9.964933876890925
      ],
      [
        "▁સુખી",
        -9.965334214328362
      ],
      [
        "▁હાઈ",
        -9.96646525483903
      ],
      [
        "કામ",
        -9.967188028960024
      ],
      [
        "▁વધુમાં",
        -9.967297293937296
      ],
      [
        "▁!!!",
        -9.967717053110087
      ],
      [
        "▁કેલેન્ડર",
        -9.968195264178348
      ],
      [
        "▁જોરદાર",
        -9.968229923234244
      ],
      [
        "ફા",
        -9.968504304984036
      ],
      [
        "▁=",
        -9.969033213292953
      ],
      [
        "▁ચૂકી",
        -9.969208143821799
      ],
      [
        "▁વર્ષનો",
        -9.969565673685363
      ],
      [
        "▁વૃદ્ધિ",
        -9.969571377280271
      ],
      [
        "▁બતાવી",
        -9.96958728994198
      ],
      [
        "▁બધુ",
        -9.970447536484224
      ],
      [
        "▁પાણીની",
        -9.970505085773617
      ],
      [
        "▁પેઢી",
        -9.970530205024735
      ],
      [
        "▁મોં",
        -9.970910091699142
      ],
      [
        "ત્વ",
        -9.971237885387634
      ],
      [
        "▁જીલ્લા",
        -9.971405292287429
      ],
      [
        "▁વર્ષોથી",
        -9.971798737686559
      ],
      [
        "▁કાવ્યો",
        -9.971823528233394
      ],
      [
        "રિયા",
        -9.971980963226512
      ],
      [
        "▁કેવું",
        -9.972039973977754
      ],
      [
        "▁સ્ટ્રીટ",
        -9.973834508418046
      ],
      [
        "▁ખરીદવા",
        -9.97452466406615
      ],
      [
        "it",
        -9.974818173490036
      ],
      [
        "am",
        -9.975414227573808
      ],
      [
        "▁સહન",
        -9.975657554832587
      ],
      [
        "▁જાની",
        -9.97623585842693
      ],
      [
        "▁જોડે",
        -9.977557733523144
      ],
      [
        "▁મુદ્દો",
        -9.977604822769283
      ],
      [
        "▁રસોઈ",
        -9.977608050029705
      ],
      [
        "▁ક્ષેત્રે",
        -9.977657001017871
      ],
      [
        "▁જેટલો",
        -9.977718301518586
      ],
      [
        "▁મર",
        -9.977948907529399
      ],
      [
        "▁બેઠકમાં",
        -9.978181129048092
      ],
      [
        "ેસ",
        -9.978531463030627
      ],
      [
        "▁વિસ્તારોમાં",
        -9.978653660048337
      ],
      [
        "પણે",
        -9.979018965845635
      ],
      [
        "▁રહ્યો.",
        -9.979111585129312
      ],
      [
        "▁ખાવા",
        -9.979146794797995
      ],
      [
        "ભર",
        -9.979549150143924
      ],
      [
        "▁60",
        -9.979561550410217
      ],
      [
        "▁આર.",
        -9.979855105870222
      ],
      [
        "▁પૂછ્યું",
        -9.980064155357201
      ],
      [
        "▁રહસ્ય",
        -9.9803707081416
      ],
      [
        "▁પેલા",
        -9.980885425006845
      ],
      [
        "▁29",
        -9.981715967166288
      ],
      [
        "▁બચાવ",
        -9.982135709992964
      ],
      [
        "▁આશ્ચર્ય",
        -9.982988934621112
      ],
      [
        "▁કૌભાંડ",
        -9.98319172879005
      ],
      [
        "▁હોઇ",
        -9.98364346198105
      ],
      [
        "▁પદ્ધતિ",
        -9.983917049020942
      ],
      [
        "બલ",
        -9.98436040187856
      ],
      [
        "ાવી",
        -9.98445944949031
      ],
      [
        "▁ટિકિટ",
        -9.985032859375398
      ],
      [
        "▁કરાઈ",
        -9.985655828117121
      ],
      [
        "▁રહીને",
        -9.985656884482275
      ],
      [
        "▁બધાને",
        -9.985786189097295
      ],
      [
        "▁કોઈક",
        -9.986101553268362
      ],
      [
        "▁કોશિશ",
        -9.987113100545852
      ],
      [
        "▁શુક્રવારે",
        -9.988736966821772
      ],
      [
        "▁હસી",
        -9.989242064010094
      ],
      [
        "▁દોસ્ત",
        -9.989506321533518
      ],
      [
        "▁ઓપરેશન",
        -9.989654185579916
      ],
      [
        "▁મિક્સ",
        -9.989717286041396
      ],
      [
        "▁ભ્રષ્ટાચાર",
        -9.989920746314809
      ],
      [
        "▁સીટ",
        -9.990041335548625
      ],
      [
        "▁કપડાં",
        -9.99041654096985
      ],
      [
        "▁૨.",
        -9.990827792802039
      ],
      [
        "▁કહેતા",
        -9.99087870276803
      ],
      [
        "▁મેડિકલ",
        -9.99088579232513
      ],
      [
        "'s",
        -9.991493500723681
      ],
      [
        "▁જોખમ",
        -9.991608907901767
      ],
      [
        "▁પ્રેસ",
        -9.991924479189095
      ],
      [
        "▁જણાય",
        -9.992172136558718
      ],
      [
        "▁રક્ષણ",
        -9.99232521264716
      ],
      [
        "▁કેવા",
        -9.992499290606183
      ],
      [
        "▁કારકિર્દી",
        -9.99285711682726
      ],
      [
        "▁અલ",
        -9.992879021992207
      ],
      [
        "▁સાધુ",
        -9.993402889827774
      ],
      [
        "’માં",
        -9.993597565039645
      ],
      [
        "▁પડ્યું",
        -9.993865220457689
      ],
      [
        "▁J",
        -9.994254560444555
      ],
      [
        "▁જણ",
        -9.994731379272537
      ],
      [
        "▁લક્ષ્ય",
        -9.995104461799425
      ],
      [
        "તમે",
        -9.995106680326273
      ],
      [
        "▁3.",
        -9.995882737230254
      ],
      [
        "▁ગીતા",
        -9.996834397159642
      ],
      [
        "▁પંચ",
        -9.997392995471687
      ],
      [
        "▁કળા",
        -9.997690365633797
      ],
      [
        "▁જાતને",
        -9.998848362031593
      ],
      [
        "▁બચાવવા",
        -9.998912641913556
      ],
      [
        "▁બાપુ",
        -9.998913615646574
      ],
      [
        "▁કાયદો",
        -9.998999551245598
      ],
      [
        "▁વધારાની",
        -9.99941032150762
      ],
      [
        "▁મોડી",
        -9.999700801766366
      ],
      [
        "▁હાલત",
        -10.000073135167742
      ],
      [
        "▁જેણે",
        -10.000383653847974
      ],
      [
        "બો",
        -10.000461066750034
      ],
      [
        "L",
        -10.000807263500466
      ],
      [
        "▁આકાર",
        -10.001729010548434
      ],
      [
        "ૃ",
        -10.002072814670793
      ],
      [
        "લું",
        -10.002427546075758
      ],
      [
        "▁ચહેરો",
        -10.002520227549168
      ],
      [
        "▁વળતર",
        -10.002858333600734
      ],
      [
        "▁મુંબઈમાં",
        -10.003181183528959
      ],
      [
        "▁વ્યવહાર",
        -10.003262539430796
      ],
      [
        "▁‘અ",
        -10.00345915559721
      ],
      [
        "ફી",
        -10.004001121782526
      ],
      [
        "▁મોદીના",
        -10.004307159932463
      ],
      [
        "ch",
        -10.004328767019285
      ],
      [
        "▁કર્મચારીઓ",
        -10.00469145944256
      ],
      [
        "▁હિંમત",
        -10.004955534616817
      ],
      [
        "▁વિગત",
        -10.005062609902572
      ],
      [
        "▁N",
        -10.00531937525676
      ],
      [
        "▁બ્રહ્મ",
        -10.005559615040736
      ],
      [
        "▁''",
        -10.005587984476556
      ],
      [
        "ઁ",
        -10.006359125390034
      ],
      [
        "ઓના",
        -10.007532306708987
      ],
      [
        "રણ",
        -10.007564429865724
      ],
      [
        "▁શૈક્ષણિક",
        -10.008423072895539
      ],
      [
        "▁જણાવે",
        -10.008536290014545
      ],
      [
        "▁કર્મચારી",
        -10.008791043053066
      ],
      [
        "▁પવન",
        -10.01032059412184
      ],
      [
        "▁કમ્પ્યુટર",
        -10.010492269140308
      ],
      [
        "F",
        -10.010692116724126
      ],
      [
        "▁પ્રવૃત્તિ",
        -10.011129900421437
      ],
      [
        "▁કરાવવા",
        -10.01120984755487
      ],
      [
        "▁દર્દ",
        -10.012218338706639
      ],
      [
        "▁Google",
        -10.012724566766472
      ],
      [
        "▁એક્સ",
        -10.012865128780922
      ],
      [
        "▁આચાર્ય",
        -10.014409872365345
      ],
      [
        "▁બાઇક",
        -10.014710428913329
      ],
      [
        "▁ખાતા",
        -10.015023339891732
      ],
      [
        "▁ટીકા",
        -10.015169879746523
      ],
      [
        "’,",
        -10.015490727626503
      ],
      [
        "▁બુધવારે",
        -10.015737984543945
      ],
      [
        "mber",
        -10.016340833523403
      ],
      [
        "વાળો",
        -10.017702733238648
      ],
      [
        "▁પરમાત્મા",
        -10.017808205202371
      ],
      [
        "▁દરવાજા",
        -10.018086838577902
      ],
      [
        "▁ધારણ",
        -10.01861844123326
      ],
      [
        "▁આખું",
        -10.018825268012392
      ],
      [
        "▁ઇચ્છો",
        -10.01922964465886
      ],
      [
        "▁૨૪",
        -10.02044417291965
      ],
      [
        "▁ઈન્ડિયા",
        -10.020561312295886
      ],
      [
        "▁સ્વતંત્રતા",
        -10.020597177041749
      ],
      [
        "ઠા",
        -10.021213761436261
      ],
      [
        "▁સચિન",
        -10.021216435948126
      ],
      [
        "▁શક્યા",
        -10.021623029138599
      ],
      [
        "▁મહત્વપૂર્ણ",
        -10.022161824766494
      ],
      [
        "▁શકીએ",
        -10.022195414687875
      ],
      [
        "W",
        -10.0223226544455
      ],
      [
        "▁૨૧",
        -10.022437790215644
      ],
      [
        "▁આપણો",
        -10.0225503235948
      ],
      [
        "▁સરખામણી",
        -10.022965192465582
      ],
      [
        "▁મૌન",
        -10.023245897143665
      ],
      [
        "▁અા",
        -10.024596367195713
      ],
      [
        "▁ઉપસ્થિત",
        -10.025566106361381
      ],
      [
        "▁સૌને",
        -10.025683036731676
      ],
      [
        "la",
        -10.026068328350123
      ],
      [
        "▁પ્રખ્યાત",
        -10.026090299215468
      ],
      [
        "▁તાજેતરના",
        -10.026496488381255
      ],
      [
        "18",
        -10.027251944712315
      ],
      [
        "▁ત્યારથી",
        -10.027740410205725
      ],
      [
        "▁પડકાર",
        -10.027937482717606
      ],
      [
        "▁સૂચના",
        -10.028388505318164
      ],
      [
        "▁મહાત્મા",
        -10.028646667082967
      ],
      [
        "▁એકલા",
        -10.029568396994746
      ],
      [
        "▁ગોલ્ડ",
        -10.029792823796422
      ],
      [
        "▁સીધી",
        -10.030184118550187
      ],
      [
        "▁સહ",
        -10.030280888375206
      ],
      [
        "▁Video:",
        -10.030365996202786
      ],
      [
        "▁મુસાફરી",
        -10.030468293468626
      ],
      [
        "૬",
        -10.03046845061295
      ],
      [
        "▁શકશે",
        -10.03064299185585
      ],
      [
        "મને",
        -10.031184814735035
      ],
      [
        "▁200",
        -10.031546628627925
      ],
      [
        "▁કાર્યક્રમો",
        -10.031761259343991
      ],
      [
        "H",
        -10.031897661508022
      ],
      [
        "▁લાગતું",
        -10.032168975599493
      ],
      [
        "▁કહીને",
        -10.032169793984378
      ],
      [
        "▁સંયુક્ત",
        -10.032309883991275
      ],
      [
        "...”",
        -10.033018007599383
      ],
      [
        "▁સમિતિ",
        -10.03315901996238
      ],
      [
        "na",
        -10.033279602320864
      ],
      [
        "ઓએ",
        -10.033329559793636
      ],
      [
        "▁વિષયો",
        -10.033447752555634
      ],
      [
        "્ઝ",
        -10.033875757052929
      ],
      [
        "▁રહી.",
        -10.033996638862437
      ],
      [
        "▁સિલેક્ટ",
        -10.03404795256007
      ],
      [
        "▁સપોર્ટ",
        -10.03412526382595
      ],
      [
        "શુ",
        -10.03489133956823
      ],
      [
        "▁વપરાશકર્તાઓ",
        -10.035160788776935
      ],
      [
        "▁રાખવું",
        -10.035340647601817
      ],
      [
        "▁શુદ્ધ",
        -10.035455192333043
      ],
      [
        "▁છૂટ",
        -10.035641914314471
      ],
      [
        "▁ગૃહ",
        -10.036238560367401
      ],
      [
        "▁ક્યાંથી",
        -10.036433932986228
      ],
      [
        "▁સાગર",
        -10.036942718789426
      ],
      [
        "▁પૈકી",
        -10.037124071828597
      ],
      [
        "▁મુદ્દા",
        -10.037125709915145
      ],
      [
        "▁રમી",
        -10.037380383943148
      ],
      [
        "▁માણી",
        -10.038024570063953
      ],
      [
        "▁હિસ્સો",
        -10.038055186970636
      ],
      [
        "દાન",
        -10.038080829577423
      ],
      [
        "▁સ્થાને",
        -10.0384557998062
      ],
      [
        "▁ઘરેલુ",
        -10.038498856046228
      ],
      [
        "▁ઝ",
        -10.038642139870625
      ],
      [
        "▁76",
        -10.03908176638445
      ],
      [
        "▁2007",
        -10.03970197901458
      ],
      [
        "▁દૈનિક",
        -10.040063510770674
      ],
      [
        "▁કરો!",
        -10.040283821309028
      ],
      [
        "▁gujarati",
        -10.040584342300663
      ],
      [
        "▁સંસાર",
        -10.040935688041639
      ],
      [
        "▁રોકવા",
        -10.040953091185036
      ],
      [
        "▁બદલાવ",
        -10.041227467909899
      ],
      [
        "▁શિકાર",
        -10.041277263307734
      ],
      [
        "▁અમદાવાદ:",
        -10.041361612943282
      ],
      [
        "▁ફુલ",
        -10.041572439776482
      ],
      [
        "▁પ્રયત્નો",
        -10.041835708905182
      ],
      [
        "▁બોલીવુડ",
        -10.04193497774138
      ],
      [
        "▁ઘટી",
        -10.042545588018982
      ],
      [
        "▁મહોત્સવ",
        -10.042888116247074
      ],
      [
        "ંદ",
        -10.043734537948492
      ],
      [
        "▁બારડોલી",
        -10.043747143652695
      ],
      [
        "▁ઈ-મેઈલ",
        -10.044101987645206
      ],
      [
        "ta",
        -10.044121062505173
      ],
      [
        "▁૨૦૧૭",
        -10.044332396194658
      ],
      [
        "▁ચાલતી",
        -10.044494989045457
      ],
      [
        "▁કાળ",
        -10.044536544255095
      ],
      [
        "▁નવરાત્રી",
        -10.04454072432582
      ],
      [
        "▁ઉમેરી",
        -10.0447236245419
      ],
      [
        "▁સમાજમાં",
        -10.045376578545925
      ],
      [
        "-૧",
        -10.045467082474477
      ],
      [
        "▁રોક",
        -10.04550205673261
      ],
      [
        "▁ઠક્કર",
        -10.04612770131116
      ],
      [
        "▁ગરબા",
        -10.04621602280817
      ],
      [
        "▁બો",
        -10.046537249167718
      ],
      [
        "▁અર્જુન",
        -10.047099466853764
      ],
      [
        "▁વેસ્ટ",
        -10.047157015534763
      ],
      [
        "▁નોટબંધી",
        -10.047196549037482
      ],
      [
        "ધા",
        -10.047848215288393
      ],
      [
        "▁પા",
        -10.047850846845138
      ],
      [
        "▁રાખવી",
        -10.048116304372392
      ],
      [
        "▁મોકલવા",
        -10.04952668204259
      ],
      [
        "▁મોદીને",
        -10.049612070797789
      ],
      [
        "▁ચૂક્યા",
        -10.049953451698002
      ],
      [
        "▁હતુ.",
        -10.05063128788995
      ],
      [
        "▁થઈ.",
        -10.051118836002896
      ],
      [
        "ગર",
        -10.05115888138369
      ],
      [
        "▁મારફતે",
        -10.051301044909154
      ],
      [
        "બર",
        -10.051446135175327
      ],
      [
        "▁સ્ટોર",
        -10.051565931681267
      ],
      [
        "▁thoughts",
        -10.051863547520341
      ],
      [
        "▁સ્મૃતિ",
        -10.052690033444588
      ],
      [
        "ત્ર",
        -10.053471727889796
      ],
      [
        "▁જીંદગી",
        -10.05353941441664
      ],
      [
        "▁૪૦",
        -10.05369008515504
      ],
      [
        "ડું",
        -10.053758615304632
      ],
      [
        "▁મેળવેલ",
        -10.053840317781205
      ],
      [
        "▁સાચો",
        -10.054319926496335
      ],
      [
        "▁ગુજરાતીઓ",
        -10.055914695113138
      ],
      [
        "▁જલ્સા",
        -10.056315139478068
      ],
      [
        "▁પાડવા",
        -10.056968847779324
      ],
      [
        "▁વિદ્યા",
        -10.057398542156413
      ],
      [
        "હી",
        -10.05751047950424
      ],
      [
        "▁કેન્દ્રીય",
        -10.05785189265972
      ],
      [
        "▁સમજવા",
        -10.05797268126603
      ],
      [
        "▁શનિવારે",
        -10.0583112759483
      ],
      [
        "▁પોઈન્ટ",
        -10.058759117984629
      ],
      [
        "▁માર્કેટિંગ",
        -10.05889311986374
      ],
      [
        "▁દેશોમાં",
        -10.059153829769134
      ],
      [
        "▁જરુર",
        -10.060521655563983
      ],
      [
        "▁કાર્યક્રમમાં",
        -10.060663241219771
      ],
      [
        "▁તૂટી",
        -10.061095665515847
      ],
      [
        "▁અશોક",
        -10.06110595577827
      ],
      [
        "▁વાણી",
        -10.061640932806876
      ],
      [
        "▁ઉપ",
        -10.061885803827055
      ],
      [
        "-અ",
        -10.061888651372273
      ],
      [
        "▁ચેરમેન",
        -10.062468388077559
      ],
      [
        "▁ઠાકોર",
        -10.062504942827346
      ],
      [
        "▁for",
        -10.06263475313196
      ],
      [
        "▁એકાદ",
        -10.062989678908071
      ],
      [
        "▁કરાયું",
        -10.06351986608409
      ],
      [
        "▁રહેલ",
        -10.063673243262716
      ],
      [
        "▁Live",
        -10.064282552235841
      ],
      [
        "▁જાણીએ",
        -10.064353674491546
      ],
      [
        "▁આમંત્રણ",
        -10.064530870155703
      ],
      [
        "▁અપીલ",
        -10.064540750582644
      ],
      [
        "▁સાંજ",
        -10.064870569975005
      ],
      [
        "▁હશે,",
        -10.065754893651423
      ],
      [
        "િય",
        -10.066092772839589
      ],
      [
        "▁નર્મદા",
        -10.066179699035965
      ],
      [
        "▁થયાં",
        -10.066415280272432
      ],
      [
        "વત",
        -10.066502286999212
      ],
      [
        "▁લોકસભા",
        -10.06677902742426
      ],
      [
        "▁બનીને",
        -10.067175081194716
      ],
      [
        "ગત",
        -10.067720833155104
      ],
      [
        "▁વિચિત્ર",
        -10.067910981975315
      ],
      [
        "▁છોડીને",
        -10.067983894552404
      ],
      [
        "▁દઈએ",
        -10.068019045633337
      ],
      [
        "િકા",
        -10.068238630909644
      ],
      [
        "▁આદર્શ",
        -10.068679220572992
      ],
      [
        "▁સાઉથ",
        -10.06889831064601
      ],
      [
        "▁સરનામું",
        -10.069477247908605
      ],
      [
        "▁🙂",
        -10.069632735136446
      ],
      [
        "▁કરાર",
        -10.069843135929199
      ],
      [
        "▁પરેશાન",
        -10.070003018406819
      ],
      [
        "▁થ",
        -10.070031265903873
      ],
      [
        "▁છબી",
        -10.070117601850843
      ],
      [
        "▁દોડી",
        -10.070961207391424
      ],
      [
        "▁ખાતું",
        -10.071124879752205
      ],
      [
        "▁નીચેના",
        -10.071191770067305
      ],
      [
        "▁500",
        -10.07173027658265
      ],
      [
        "▁મંગળવારે",
        -10.072371492190143
      ],
      [
        "▁વચન",
        -10.072753446063842
      ],
      [
        "▁જેંતીલાલ",
        -10.072827364210198
      ],
      [
        "▁ધરાવતી",
        -10.072841316986288
      ],
      [
        "▁2015",
        -10.073200835501728
      ],
      [
        "ગે",
        -10.073672088163377
      ],
      [
        "00",
        -10.07380607820247
      ],
      [
        "▁જામનગર",
        -10.074116697755121
      ],
      [
        "▁વરિષ્ઠ",
        -10.074915837551657
      ],
      [
        "▁લિસ્ટ",
        -10.074947332285186
      ],
      [
        "▁આપેલ",
        -10.075031513954832
      ],
      [
        "▁અમારે",
        -10.07509362886011
      ],
      [
        "ગાર",
        -10.075244144293247
      ],
      [
        "▁સાંભળવા",
        -10.075689797781301
      ],
      [
        "▁ઠંડી",
        -10.077663397225114
      ],
      [
        "▁ઇમેઇલ",
        -10.077849401244269
      ],
      [
        "▁લખવા",
        -10.078413641568803
      ],
      [
        "આઈ",
        -10.078809462107493
      ],
      [
        "▁ચિત્રો",
        -10.079782121490608
      ],
      [
        "▁ખાવાથી",
        -10.08018249248934
      ],
      [
        "ly",
        -10.080691377370506
      ],
      [
        "▁હોટ",
        -10.080874822579439
      ],
      [
        "ાયા",
        -10.081015388280665
      ],
      [
        "▁આત્મહત્યા",
        -10.081185611642386
      ],
      [
        "▁જૂથ",
        -10.081968748395505
      ],
      [
        "▁ઘા",
        -10.082559723171983
      ],
      [
        "▁દર્શાવે",
        -10.083106562136305
      ],
      [
        "▁શહેરોમાં",
        -10.083127959250623
      ],
      [
        "▁વાગ્યા",
        -10.083185827758719
      ],
      [
        "▁સીધા",
        -10.083409512577962
      ],
      [
        "▁વીજળી",
        -10.084037160979351
      ],
      [
        "▁ખાનની",
        -10.084423917789797
      ],
      [
        "▁છુ",
        -10.084432016385762
      ],
      [
        "▁રમેશ",
        -10.084950819267844
      ],
      [
        "▁સાંસદ",
        -10.085104607247539
      ],
      [
        "▁વ્યાપાર",
        -10.085326352671942
      ],
      [
        "ચાર",
        -10.085449029460495
      ],
      [
        "ાણી",
        -10.086142962360725
      ],
      [
        "▁પત્રકાર",
        -10.086944103380866
      ],
      [
        "▁કોમ",
        -10.088120094738091
      ],
      [
        "▁પંજાબ",
        -10.088493927165207
      ],
      [
        "▁નિષ્ફળ",
        -10.088772706421604
      ],
      [
        "▁(R",
        -10.088994248348623
      ],
      [
        "▁ઘરના",
        -10.089268661989575
      ],
      [
        "▁વિસ્તૃત",
        -10.089609249252227
      ],
      [
        "▁બુદ્ધિ",
        -10.08969243023018
      ],
      [
        "▁સંસ્કૃત",
        -10.08972373446198
      ],
      [
        "▁Off",
        -10.089854171298501
      ],
      [
        "▁નાખવા",
        -10.090574748225752
      ],
      [
        "▁એક્ટ્રેસ",
        -10.090968618741027
      ],
      [
        "▁મેનુ",
        -10.091274623604534
      ],
      [
        "▁ચિ",
        -10.091322373392197
      ],
      [
        "▁શોખ",
        -10.091453267244088
      ],
      [
        "▁સ્થળો",
        -10.091901100727338
      ],
      [
        "▁ગોળ",
        -10.092272920323872
      ],
      [
        "િન",
        -10.092824515204182
      ],
      [
        "નારા",
        -10.093116721954328
      ],
      [
        "▁એમ.",
        -10.093262672610438
      ],
      [
        "▁ઈકોમર્સ",
        -10.093819005030614
      ],
      [
        "▁હિંસા",
        -10.093854023812753
      ],
      [
        "▁મોહનદાસ",
        -10.093879734657627
      ],
      [
        "▁સ્વરૂપે",
        -10.094517367442716
      ],
      [
        "▁આશીર્વાદ",
        -10.094842584489527
      ],
      [
        "▁ભી",
        -10.09512756451414
      ],
      [
        "▁ગા",
        -10.095709418050141
      ],
      [
        "▁વધીને",
        -10.095741278203596
      ],
      [
        "▁સા",
        -10.095841435747605
      ],
      [
        "▁સત્ર",
        -10.095978469771284
      ],
      [
        "▁કેસિનો",
        -10.096058444433474
      ],
      [
        "▁પંડ્યા",
        -10.09615662049959
      ],
      [
        "▁ખુલાસો",
        -10.096194802724956
      ],
      [
        "▁સમુદ્ર",
        -10.096464470279479
      ],
      [
        "દે",
        -10.09680657202884
      ],
      [
        "▁મારાં",
        -10.097309630214422
      ],
      [
        "▁37",
        -10.097813307935187
      ],
      [
        "▁Tagged",
        -10.098110878294714
      ],
      [
        "▁સાંભળીને",
        -10.09841727158706
      ],
      [
        "▁બોડી",
        -10.098496324289535
      ],
      [
        "▁માફી",
        -10.098505151375509
      ],
      [
        "▁દુકાન",
        -10.098700672334353
      ],
      [
        "આઇ",
        -10.099435183420965
      ],
      [
        "▁પીડા",
        -10.09951882099525
      ],
      [
        "ur",
        -10.099992370349327
      ],
      [
        "▁કરમચંદ",
        -10.100251933686042
      ],
      [
        "▁32",
        -10.101465418863329
      ],
      [
        "▁સાયન્સ",
        -10.101809265103384
      ],
      [
        "or",
        -10.101960921869924
      ],
      [
        "▁under",
        -10.102395306306494
      ],
      [
        "▁જ્યોતિષ",
        -10.102711982463916
      ],
      [
        "▁મુક્તિ",
        -10.10288430791936
      ],
      [
        "▁(5)",
        -10.102935320193026
      ],
      [
        "▁તલ",
        -10.104023802312838
      ],
      [
        "▁બીમારી",
        -10.10433954966295
      ],
      [
        "es",
        -10.104388400970272
      ],
      [
        "▁ઘડી",
        -10.105727358566483
      ],
      [
        "▁તેનાં",
        -10.105753661507162
      ],
      [
        "▁મુશ્કેલીઓ",
        -10.106386883545568
      ],
      [
        "▁ત્વચા",
        -10.106515739633313
      ],
      [
        "▁વસ્તી",
        -10.106770325381046
      ],
      [
        "▁સ્થિતિમાં",
        -10.106904568490712
      ],
      [
        "િવ",
        -10.106916171180009
      ],
      [
        "▁પહોંચે",
        -10.106977814280278
      ],
      [
        "▁ફાઇલ",
        -10.107450298594788
      ],
      [
        "▁હોવાના",
        -10.108586826074191
      ],
      [
        "▁સમાધાન",
        -10.108847748932494
      ],
      [
        "▁વાંચન",
        -10.10893119785067
      ],
      [
        ",૦૦૦",
        -10.109695650428062
      ],
      [
        "▁માસિક",
        -10.109781473510493
      ],
      [
        "V",
        -10.109827816562472
      ],
      [
        "▁લાઈવ",
        -10.109953604698111
      ],
      [
        "▁બળાત્કાર",
        -10.110165290823208
      ],
      [
        "▁વલણ",
        -10.111194208011412
      ],
      [
        "▁મઝા",
        -10.11145755254178
      ],
      [
        "▁નાગરિક",
        -10.111769093864844
      ],
      [
        "▁ખોટા",
        -10.111978567687153
      ],
      [
        "▁રાજકોટમાં",
        -10.11208610898699
      ],
      [
        "▁·",
        -10.112319236432084
      ],
      [
        "▁મુકી",
        -10.112498865533365
      ],
      [
        "▁નોટિફિકેશન",
        -10.113170134827126
      ],
      [
        "▁સિનેમા",
        -10.113317424154904
      ],
      [
        "▁એસ.",
        -10.11380171001182
      ],
      [
        "20",
        -10.113932567956741
      ],
      [
        "▁થયા.",
        -10.114061698112053
      ],
      [
        "▁સંચાલન",
        -10.114487165172097
      ],
      [
        "▁આરામ",
        -10.114808612743865
      ],
      [
        "▁ઊભો",
        -10.115363919468434
      ],
      [
        "▁શિક્ષકો",
        -10.11559551357109
      ],
      [
        "▁જોડાય",
        -10.11560672273568
      ],
      [
        "▁is",
        -10.115738383972552
      ],
      [
        "▁લિ",
        -10.115839024071736
      ],
      [
        "▁મેઘાણી",
        -10.116099463320644
      ],
      [
        "▁હોલ",
        -10.116445005432631
      ],
      [
        "▁લાઈન",
        -10.11704132422943
      ],
      [
        "લ્ડ",
        -10.117123314277226
      ],
      [
        "▁કિલોમીટર",
        -10.117515152881897
      ],
      [
        "▁ઈન",
        -10.117938403658457
      ],
      [
        "્મ",
        -10.118000291102529
      ],
      [
        "▁અક્ષય",
        -10.11808492351422
      ],
      [
        "▁ભૂલો",
        -10.118427515813467
      ],
      [
        "▁ઉપરથી",
        -10.119177734824284
      ],
      [
        "▁પ્રોત્સાહન",
        -10.119182320581057
      ],
      [
        "▁80",
        -10.119505384278618
      ],
      [
        "▁દિલ્હી:",
        -10.119542085035766
      ],
      [
        "▁સ્ટાફ",
        -10.119610227541939
      ],
      [
        "▁આકર્ષક",
        -10.119772111129366
      ],
      [
        "▁ઍ",
        -10.119864441626195
      ],
      [
        "ંક",
        -10.12061576590653
      ],
      [
        "▁ખેલ",
        -10.1207678952101
      ],
      [
        "▁યોગી",
        -10.120856756705717
      ],
      [
        "-1",
        -10.121243459736393
      ],
      [
        "▁માર્કેટમાં",
        -10.121504449824084
      ],
      [
        "▁ફેર",
        -10.122619643260878
      ],
      [
        "▁ત્રણેય",
        -10.122886231532256
      ],
      [
        "▁સુવિધાઓ",
        -10.123029697719758
      ],
      [
        "▁ઓપન",
        -10.12351765759304
      ],
      [
        "ra",
        -10.123698723148642
      ],
      [
        "▁L",
        -10.124061873699054
      ],
      [
        "▁Septe",
        -10.12406333181338
      ],
      [
        "▁વર્તન",
        -10.124181787831809
      ],
      [
        "-૨",
        -10.124197971386636
      ],
      [
        "▁સ્ટેટ",
        -10.124275846381954
      ],
      [
        "▁પ્રોગ્રામ",
        -10.124604211341431
      ],
      [
        "▁કચેરી",
        -10.12476196102734
      ],
      [
        "▁આવતું",
        -10.125151628596576
      ],
      [
        "Read",
        -10.125408951818583
      ],
      [
        "▁પ્લેટફોર્મ",
        -10.126256653988879
      ],
      [
        "▁(૨)",
        -10.126761225493993
      ],
      [
        "િટ",
        -10.126855992068192
      ],
      [
        "▁રોગો",
        -10.126909863973172
      ],
      [
        "▁થવાનું",
        -10.126951056501087
      ],
      [
        "▁સ્વામિનારાયણ",
        -10.127441133745386
      ],
      [
        "▁અનિલ",
        -10.127751376661855
      ],
      [
        "▁ચલાવી",
        -10.127850227831901
      ],
      [
        "▁રાય",
        -10.128075326417363
      ],
      [
        "▁રાફેલ",
        -10.12845080710148
      ],
      [
        "▁જન્મદિવસ",
        -10.128809446460021
      ],
      [
        "▁સંવાદ",
        -10.12889033713932
      ],
      [
        "!’",
        -10.12895246630124
      ],
      [
        "▁ત્રીજી",
        -10.129369559522392
      ],
      [
        "▁દીકરો",
        -10.129655125233544
      ],
      [
        "▁વધારી",
        -10.129843395578492
      ],
      [
        "▁સપ્તાહ",
        -10.13161358203445
      ],
      [
        "▁રચે",
        -10.131628570332593
      ],
      [
        "▁રૂા.",
        -10.131833362002471
      ],
      [
        "▁પોતાનાં",
        -10.132857312014965
      ],
      [
        "▁this",
        -10.13288308872016
      ],
      [
        "▁જીએસટી",
        -10.132936816965742
      ],
      [
        "▁પી.",
        -10.133708124262508
      ],
      [
        "▁કેદ",
        -10.13394801875884
      ],
      [
        "▁બ્રાન્ડ",
        -10.134084405301778
      ],
      [
        "▁પર્વ",
        -10.134321456934542
      ],
      [
        "▁ને?",
        -10.134776364900372
      ],
      [
        "▁ago",
        -10.13510580949116
      ],
      [
        "▁દલાલ",
        -10.135276299545339
      ],
      [
        "▁ઊંઘ",
        -10.135444098934657
      ],
      [
        "▁શાક",
        -10.135660508405886
      ],
      [
        "▁ડાન્સ",
        -10.136421792325955
      ],
      [
        "▁રેલી",
        -10.136598710965334
      ],
      [
        "▁શાળામાં",
        -10.1368442844642
      ],
      [
        "▁Fil",
        -10.13685323002836
      ],
      [
        "નાથ",
        -10.137250256753482
      ],
      [
        "▁વાગે",
        -10.137376157384011
      ],
      [
        "▁પિ",
        -10.137566949172843
      ],
      [
        "▁ગ્રહ",
        -10.137739884271063
      ],
      [
        "▁બનેલી",
        -10.137905803574977
      ],
      [
        "▁35",
        -10.138058873604063
      ],
      [
        "▁લા",
        -10.138576784981819
      ],
      [
        "▁ગોપનીયતા",
        -10.139535762062343
      ],
      [
        "▁પરિષદ",
        -10.139611732605546
      ],
      [
        "▁આપણાં",
        -10.140266108713744
      ],
      [
        "▁ભરપૂર",
        -10.141755192188466
      ],
      [
        "▁જાળવી",
        -10.142399176003577
      ],
      [
        "▁પેસ્ટ",
        -10.142524312757391
      ],
      [
        "▁કોચ",
        -10.142887128163029
      ],
      [
        "▁દિવસથી",
        -10.143186211330423
      ],
      [
        "▁સાલ",
        -10.143795121284498
      ],
      [
        "ાત્મક",
        -10.14381178261231
      ],
      [
        "▁નીકળે",
        -10.145537469980066
      ],
      [
        "▁મુખ",
        -10.145739657693465
      ],
      [
        "▁અભિનેતા",
        -10.145782120468557
      ],
      [
        "▁કદ",
        -10.146059309916051
      ],
      [
        "▁તોડી",
        -10.146129972305122
      ],
      [
        "▁ગણિત",
        -10.146395616362152
      ],
      [
        "▁અનુભવી",
        -10.147155154622551
      ],
      [
        "▁રોકી",
        -10.14836991154193
      ],
      [
        "▁સહકાર",
        -10.14877481616197
      ],
      [
        "▁નહોતી",
        -10.148778553642897
      ],
      [
        "▁થીમ",
        -10.150088951051696
      ],
      [
        "▁‘એ",
        -10.150452604841874
      ],
      [
        "▁ઉનડકટ",
        -10.150696897768375
      ],
      [
        "▁તાપમાન",
        -10.150731711934597
      ],
      [
        "▁લંડન",
        -10.151002129101204
      ],
      [
        "▁દેવું",
        -10.151173945234628
      ],
      [
        "▁બોલિવૂડ",
        -10.151328943781026
      ],
      [
        "▁સોમનાથ",
        -10.152110333252033
      ],
      [
        "▁પહોંચાડવા",
        -10.152234776657718
      ],
      [
        "ોનો",
        -10.152358598827256
      ],
      [
        "▁આપશે.",
        -10.152810133856367
      ],
      [
        "ધર",
        -10.153236050636982
      ],
      [
        "▁સાઇટ્સ",
        -10.153419378174217
      ],
      [
        "▁સુનાવણી",
        -10.155206790660106
      ],
      [
        "▁તારે",
        -10.156373654588423
      ],
      [
        "▁નિયંત્રણ",
        -10.156404573414884
      ],
      [
        "▁સમાજના",
        -10.156483827926733
      ],
      [
        "▁ટીમે",
        -10.156515738134697
      ],
      [
        "▁વકીલ",
        -10.156603183849704
      ],
      [
        "▁વિધાનસભાની",
        -10.15662647812507
      ],
      [
        "▁જાણતા",
        -10.156768387163932
      ],
      [
        "▁પ્રેમી",
        -10.156809868206073
      ],
      [
        "▁In",
        -10.157118391952967
      ],
      [
        "▁પોલ",
        -10.157169197790036
      ],
      [
        "▁ગઝલ,",
        -10.157350588546347
      ],
      [
        "▁મૂલ્ય",
        -10.158025935212837
      ],
      [
        "▁4.",
        -10.158546160631346
      ],
      [
        "▁ભારતને",
        -10.158641868927067
      ],
      [
        "▁ગઝલો",
        -10.158976617408856
      ],
      [
        "▁નં.1",
        -10.1593295148977
      ],
      [
        "▁here",
        -10.159751056320095
      ],
      [
        "▁ભુજ",
        -10.159799405617765
      ],
      [
        "▁નહી.",
        -10.159805283523742
      ],
      [
        "▁બ્લૉગ",
        -10.15992301305759
      ],
      [
        "▁વર",
        -10.160170122753746
      ],
      [
        "▁કલર",
        -10.160231120259718
      ],
      [
        "▁સમજાય",
        -10.161174063571742
      ],
      [
        "▁લાખની",
        -10.161550742495777
      ],
      [
        "▁કપડા",
        -10.161709878685919
      ],
      [
        "▁હિંદુ",
        -10.162020056110837
      ],
      [
        "▁જાતિ",
        -10.16335110361085
      ],
      [
        "at",
        -10.163987980295923
      ],
      [
        "▁આફ્રિકા",
        -10.16418226225241
      ],
      [
        "▁ભાજપની",
        -10.164282002142853
      ],
      [
        "▁કેજરીવાલ",
        -10.164288027969972
      ],
      [
        "▁અગ્રણી",
        -10.164586442701538
      ],
      [
        "▁પરિવારના",
        -10.164630261732153
      ],
      [
        "▁સક્ષમ",
        -10.164630968351677
      ],
      [
        "▁સ્થાપિત",
        -10.165235364066245
      ],
      [
        "▁આધ્યાત્મિક",
        -10.165486271891066
      ],
      [
        "▁ત્રિવેદી",
        -10.165678946985434
      ],
      [
        "▁સંકલિત",
        -10.166005643708505
      ],
      [
        "▁પ્રતિમા",
        -10.166093181969487
      ],
      [
        "▁ક્રમ",
        -10.166430124298943
      ],
      [
        "▁જોતાં",
        -10.166556697145657
      ],
      [
        "▁`",
        -10.16671624572013
      ],
      [
        "▁ત્યાગ",
        -10.166952955209961
      ],
      [
        "▁ઘટાડવા",
        -10.167014417888153
      ],
      [
        "▁હનુમાન",
        -10.167458714926795
      ],
      [
        "▁વેપારી",
        -10.168318681916762
      ],
      [
        "▁પડી.",
        -10.168573270963085
      ],
      [
        "▁ક્રેડિટ",
        -10.169278920244597
      ],
      [
        "▁કેરી",
[...]
