{
  "version": "1.0",
  "truncation": null,
  "padding": null,
  "added_tokens": [
    {
      "id": 0,
      "content": "[UNK]",
      "single_word": false,
      "lstrip": false,
      "rstrip": false,
      "normalized": false,
      "special": true
    },
    {
      "id": 1,
      "content": "[CLS]",
      "single_word": false,
      "lstrip": false,
      "rstrip": false,
      "normalized": false,
      "special": true
    },
    {
      "id": 2,
      "content": "[SEP]",
      "single_word": false,
      "lstrip": false,
      "rstrip": false,
      "normalized": false,
      "special": true
    },
    {
      "id": 3,
      "content": "[PAD]",
      "single_word": false,
      "lstrip": false,
      "rstrip": false,
      "normalized": false,
      "special": true
    },
    {
      "id": 4,
      "content": "[MASK]",
      "single_word": false,
      "lstrip": false,
      "rstrip": false,
      "normalized": false,
      "special": true
    }
  ],
  "normalizer": {
    "type": "Sequence",
    "normalizers": [
      {
        "type": "Nmt"
      },
      {
        "type": "NFKC"
      },
      {
        "type": "Replace",
        "pattern": {
          "Regex": " {2,}"
        },
        "content": " "
      }
    ]
  },
  "pre_tokenizer": {
    "type": "Metaspace",
    "replacement": "▁",
    "prepend_scheme": "always",
    "split": true
  },
  "post_processor": null,
  "decoder": {
    "type": "Metaspace",
    "replacement": "▁",
    "prepend_scheme": "always",
    "split": true
  },
  "model": {
    "type": "Unigram",
    "unk_id": null,
    "vocab": [
      [
        "[UNK]",
        0.0
      ],
      [
        "[CLS]",
        0.0
      ],
      [
        "[SEP]",
        0.0
      ],
      [
        "[PAD]",
        0.0
      ],
      [
        "[MASK]",
        0.0
      ],
      [
        "▁",
        -2.86221497564539
      ],
      [
        ",",
        -4.542129401954936
      ],
      [
        ".",
        -4.588941859099082
      ],
      [
        "ට",
        -4.875058433386021
      ],
      [
        "▁ප්",
        -4.919940698796813
      ],
      [
        "▁මේ",
        -4.976701727678439
      ],
      [
        "▁ඒ",
        -5.1555407626454155
      ],
      [
        "ම",
        -5.326720879946873
      ],
      [
        "්",
        -5.332652250810854
      ],
      [
        "▁ය",
        -5.379203783350388
      ],
      [
        "ත්",
        -5.482491298322154
      ],
      [
        "...",
        -5.568554830701192
      ],
      [
        "ේ",
        -5.662308341983687
      ],
      [
        "▁එක",
        -5.68409371161216
      ],
      [
        "ක්",
        -5.731098879043673
      ],
      [
        "▁ඇති",
        -5.753510246658228
      ],
      [
        "▁ක්",
        -5.779176698367541
      ],
      [
        "▁මම",
        -5.794279368273751
      ],
      [
        "▁නම්",
        -5.865354073430442
      ],
      [
        "ද",
        -5.869578124331829
      ],
      [
        "▁සහ",
        -5.876880025206631
      ],
      [
        "▁හා",
        -5.895672151992892
      ],
      [
        "▁කර",
        -5.900916078906226
      ],
      [
        "▁බව",
        -5.92032956711115
      ],
      [
        "▁ගැන",
        -5.984046872418887
      ],
      [
        "..",
        -6.037550592032936
      ],
      [
        "▁-",
        -6.072731844120012
      ],
      [
        "ගේ",
        -6.072866557549927
      ],
      [
        "▁කරන",
        -6.0846523613755075
      ],
      [
        "ව",
        -6.090610397194965
      ],
      [
        "▁වන",
        -6.111732392455547
      ],
      [
        "▁රී",
        -6.1178633020123865
      ],
      [
        "▁මට",
        -6.140075208343706
      ],
      [
        "ය",
        -6.149488414751804
      ],
      [
        ")",
        -6.162623776414392
      ],
      [
        "▁අපි",
        -6.253120196346389
      ],
      [
        "▁ශ්",
        -6.254623705869841
      ],
      [
        "▁නිසා",
        -6.275604139606898
      ],
      [
        "ක",
        -6.333537900717898
      ],
      [
        "▁අතර",
        -6.340697305758518
      ],
      [
        "▁කළ",
        -6.344745202069646
      ],
      [
        "▁සඳහා",
        -6.355438651856877
      ],
      [
        "▁ද",
        -6.357806851273612
      ],
      [
        "▁කරන්න",
        -6.368539482756757
      ],
      [
        "ෙන්",
        -6.3745685797029275
      ],
      [
        "▁මෙම",
        -6.378971672476066
      ],
      [
        "▁වගේ",
        -6.397900552186156
      ],
      [
        "▁වූ",
        -6.422887155840762
      ],
      [
        "▁ලෙස",
        -6.424049240694503
      ],
      [
        "යි",
        -6.485987734458199
      ],
      [
        "▁අපේ",
        -6.494597190416055
      ],
      [
        "▁අද",
        -6.5022317711080415
      ],
      [
        "න්",
        -6.505957084854918
      ],
      [
        "▁කියලා",
        -6.5372866203156
      ],
      [
        "▁එකක්",
        -6.560035270025203
      ],
      [
        "▁මගේ",
        -6.59502891211746
      ],
      [
        "▁දැන්",
        -6.629226608451779
      ],
      [
        "▁එම",
        -6.630163180902311
      ],
      [
        "▁තමයි",
        -6.633344362044859
      ],
      [
        "▁(",
        -6.643995734281617
      ],
      [
        "▁විසින්",
        -6.663190711478023
      ],
      [
        "යි.",
        -6.675677457289515
      ],
      [
        "▁වී",
        -6.700346443893153
      ],
      [
        "▁හරි",
        -6.701747413402893
      ],
      [
        "▁ඔහු",
        -6.721383330421503
      ],
      [
        "▁ඇත.",
        -6.72311225513829
      ],
      [
        "▁යන",
        -6.723639514840489
      ],
      [
        "▁ඔය",
        -6.7507175529314285
      ],
      [
        "▁ර",
        -6.754313257823199
      ],
      [
        "▁ඔබ",
        -6.770197252088725
      ],
      [
        "▁\"",
        -6.788301577117389
      ],
      [
        "▁ගන්න",
        -6.791187947672345
      ],
      [
        "▁මහතා",
        -6.79545334534337
      ],
      [
        "!",
        -6.796024923209343
      ],
      [
        "▁එය",
        -6.80284514380986
      ],
      [
        "▁හෝ",
        -6.806408342774667
      ],
      [
        "▁කිරීම",
        -6.809204887056135
      ],
      [
        "▁නෑ",
        -6.811792794629362
      ],
      [
        "▁දී",
        -6.817279910635014
      ],
      [
        "▁කතා",
        -6.821611825069732
      ],
      [
        "▁කියන",
        -6.822957250746516
      ],
      [
        "\"",
        -6.830593394065591
      ],
      [
        "ය.",
        -6.831997208775697
      ],
      [
        "▁ප",
        -6.8509369898516255
      ],
      [
        "▁ව්",
        -6.851785802878258
      ],
      [
        "▁කිරීමට",
        -6.852417513525733
      ],
      [
        "▁නැති",
        -6.8579781753081175
      ],
      [
        "▁ඒක",
        -6.859955388329329
      ],
      [
        ":",
        -6.878090879751065
      ],
      [
        "ා",
        -6.892833757316996
      ],
      [
        "▁ලංකා",
        -6.939934490430662
      ],
      [
        "▁කියල",
        -6.944476386484487
      ],
      [
        "▁මා",
        -6.9446684657034705
      ],
      [
        "▁ලබා",
        -6.949263864783617
      ],
      [
        "▁විට",
        -6.951415340866319
      ],
      [
        "▁වෙලා",
        -6.970305365484721
      ],
      [
        "▁කටයුතු",
        -6.974969615648311
      ],
      [
        "කට",
        -6.977269082001229
      ],
      [
        "▁වෙන්න",
        -6.986389799650626
      ],
      [
        "▁එහෙම",
        -7.008959443724271
      ],
      [
        "▁ඉන්න",
        -7.018725608210509
      ],
      [
        "▁වල",
        -7.021259479375319
      ],
      [
        "▁යන්න",
        -7.031144206148923
      ],
      [
        "▁වැඩ",
        -7.033287421276
      ],
      [
        "ෙ",
        -7.035548238559727
      ],
      [
        "▁අය",
        -7.043971928541518
      ],
      [
        "▁හැකි",
        -7.045464850665006
      ],
      [
        "▁නෑ.",
        -7.065494311405059
      ],
      [
        "▁අමාත්",
        -7.066683056290724
      ],
      [
        "▁අප",
        -7.075447382568919
      ],
      [
        "▁වැඩි",
        -7.0835305654570515
      ],
      [
        "▁වෙන",
        -7.101890431314876
      ],
      [
        "▁වඩා",
        -7.103001978121002
      ],
      [
        "▁තවත්",
        -7.107878488223028
      ],
      [
        "කින්",
        -7.114545659272363
      ],
      [
        "▁ගෙන",
        -7.1190293996873795
      ],
      [
        "න",
        -7.131159538556187
      ],
      [
        "▁පත්",
        -7.146018858562398
      ],
      [
        "▁විද්",
        -7.146842433685938
      ],
      [
        "▁සිදු",
        -7.146981099625105
      ],
      [
        "▁මං",
        -7.158431000386125
      ],
      [
        "▁_",
        -7.164527337778274
      ],
      [
        "”",
        -7.171551848685736
      ],
      [
        "▁වලට",
        -7.172357659751123
      ],
      [
        "▁තිබේ.",
        -7.18311553072288
      ],
      [
        "▁සිට",
        -7.191423878675957
      ],
      [
        "▁දෙයක්",
        -7.199716601393401
      ],
      [
        "▁අනුව",
        -7.202058346843771
      ],
      [
        "▁–",
        -7.207431890392234
      ],
      [
        "▁මේක",
        -7.2101499298806715
      ],
      [
        "▁එක්ක",
        -7.221309100111359
      ],
      [
        "ු",
        -7.224293733735694
      ],
      [
        "▁ඉතින්",
        -7.228827463196707
      ],
      [
        "▁ජාතික",
        -7.228984357631685
      ],
      [
        "▁යුතු",
        -7.230410081049774
      ],
      [
        "....",
        -7.230876749547292
      ],
      [
        "▁අධ්",
        -7.250094290833953
      ],
      [
        "-",
        -7.250689210437855
      ],
      [
        "▁තියෙන",
        -7.251737645064967
      ],
      [
        "▁ඒත්",
        -7.258913615614535
      ],
      [
        "▁නැහැ.",
        -7.259003754324267
      ],
      [
        "ස්",
        -7.271459419619825
      ],
      [
        "▁එකේ",
        -7.286476538214748
      ],
      [
        "වත්",
        -7.289597498376628
      ],
      [
        "▁“",
        -7.297200802051838
      ],
      [
        "▁ය.",
        -7.298450452312508
      ],
      [
        "▁අවශ්",
        -7.3098996544175066
      ],
      [
        "▁කරලා",
        -7.314979832338475
      ],
      [
        "▁මාධ්",
        -7.316187731036193
      ],
      [
        "▁දින",
        -7.324108037960887
      ],
      [
        "▁නමුත්",
        -7.324366170782522
      ],
      [
        "▁කියන්නේ",
        -7.327720498617465
      ],
      [
        "▁බ්ලොග්",
        -7.332593308121259
      ],
      [
        "▁කල",
        -7.334236344383868
      ],
      [
        "▁ලංකාවේ",
        -7.338374445432171
      ],
      [
        "▁කියා",
        -7.33852273451633
      ],
      [
        "▁බවට",
        -7.346026596145716
      ],
      [
        "ල",
        -7.350537411618813
      ],
      [
        "▁වෙනුවෙන්",
        -7.352515542919665
      ],
      [
        "▁නව",
        -7.3546442774087435
      ],
      [
        "▁ම",
        -7.358950021706942
      ],
      [
        "▁ගත",
        -7.364396817801165
      ],
      [
        "▁සමග",
        -7.364809926573793
      ],
      [
        "▁තුළ",
        -7.369405618329912
      ],
      [
        "▁දේ",
        -7.3774084839477805
      ],
      [
        "යක්",
        -7.381493537365007
      ],
      [
        "▁ඔවුන්",
        -7.382855117597762
      ],
      [
        "▁එක්",
        -7.386439555912489
      ],
      [
        "▁තව",
        -7.3947933398147505
      ],
      [
        "▁එහි",
        -7.396902889011548
      ],
      [
        "▁ක",
        -7.402508051144892
      ],
      [
        "ලා",
        -7.405986803742058
      ],
      [
        "▁කියන්න",
        -7.406085678696712
      ],
      [
        "▁අර",
        -7.410480271109428
      ],
      [
        "▁සිංහල",
        -7.411257377074669
      ],
      [
        "▁ගිය",
        -7.414276414697541
      ],
      [
        "▁ගැනීමට",
        -7.433235229554233
      ],
      [
        "▁වෙනස්",
        -7.435490636365689
      ],
      [
        "▁මහ",
        -7.436737148411323
      ],
      [
        "▁පසු",
        -7.451207056663069
      ],
      [
        "▁බොහෝ",
        -7.463788882965588
      ],
      [
        "▁කතාව",
        -7.468507392392626
      ],
      [
        "▁තමා",
        -7.469447674355369
      ],
      [
        "▁විය",
        -7.469704092553734
      ],
      [
        "▁ජනාධිපති",
        -7.470426782266758
      ],
      [
        "වල",
        -7.47554420692871
      ],
      [
        "▁ටික",
        -7.477089109631629
      ],
      [
        "▁හොඳ",
        -7.4793216579297095
      ],
      [
        "▁පෙර",
        -7.4824299382464154
      ],
      [
        "▁ගොඩක්",
        -7.486308462206937
      ],
      [
        "▁චිත්",
        -7.489752237573457
      ],
      [
        "▁බවත්",
        -7.489787459976444
      ],
      [
        "▁වගේම",
        -7.490040251928688
      ],
      [
        "▁ඔබේ",
        -7.4930557065995185
      ],
      [
        "▁දේවල්",
        -7.497375975252284
      ],
      [
        "▁සිටින",
        -7.501560303820508
      ],
      [
        "▁රාජ්",
        -7.501705858981357
      ],
      [
        "▁රටේ",
        -7.503032969437255
      ],
      [
        "▁ඊට",
        -7.506980361851571
      ],
      [
        "?",
        -7.5091230320536635
      ],
      [
        "▁එකට",
        -7.511532878747243
      ],
      [
        "▁සඳහන්",
        -7.513393714359868
      ],
      [
        "▁අදහස්",
        -7.518378356975241
      ],
      [
        "ි",
        -7.518895807665762
      ],
      [
        "▁වෙත",
        -7.528407872114798
      ],
      [
        "▁කරන්නේ",
        -7.528993388092486
      ],
      [
        "▁මත",
        -7.535289356920401
      ],
      [
        "▁හිටපු",
        -7.538197450665102
      ],
      [
        "▁අපිට",
        -7.539269516622003
      ],
      [
        "▁කරමින්",
        -7.5436354393295435
      ],
      [
        "▁වාර්තා",
        -7.544049883357543
      ],
      [
        "▁තම",
        -7.546109720607744
      ],
      [
        "▁විය.",
        -7.552407990441505
      ],
      [
        "▁වේ.",
        -7.553516664146507
      ],
      [
        "▁වැනි",
        -7.5555805689929585
      ],
      [
        "▁ඇත්තේ",
        -7.555607926168177
      ],
      [
        "▁පුළුවන්",
        -7.562929120400952
      ],
      [
        "▁ඔබට",
        -7.565328312838297
      ],
      [
        "▁සම්බන්ධයෙන්",
        -7.5666408645600995
      ],
      [
        "ගෙන්",
        -7.568048123798471
      ],
      [
        "▁කොට",
        -7.568769401528835
      ],
      [
        "යේ",
        -7.570629769701572
      ],
      [
        "▁වසර",
        -7.577606512680308
      ],
      [
        "▁සිටි",
        -7.578228852192504
      ],
      [
        "▁වෛද්",
        -7.57909182715391
      ],
      [
        "▁පිළිබඳ",
        -7.588823470235068
      ],
      [
        "▁පොඩි",
        -7.590494236870967
      ],
      [
        "’",
        -7.591190646353503
      ],
      [
        "▁ඒවා",
        -7.593481287730379
      ],
      [
        "▁දෙන්න",
        -7.598020861622466
      ],
      [
        "▁වලින්",
        -7.605834225834981
      ],
      [
        "▁ලොකු",
        -7.605936624020664
      ],
      [
        "▁ඇය",
        -7.6081743261033115
      ],
      [
        "▁ඉදිරිපත්",
        -7.634460114936539
      ],
      [
        "▁ලද",
        -7.636476961034372
      ],
      [
        "s",
        -7.640478967629274
      ],
      [
        "▁?",
        -7.641742388501699
      ],
      [
        "▁ගමන්",
        -7.644243996621377
      ],
      [
        "▁නිදහස්",
        -7.647262554152547
      ],
      [
        "▁මුදල්",
        -7.653278883887921
      ],
      [
        "▁නැත.",
        -7.655349713955829
      ],
      [
        "වා",
        -7.657911250284814
      ],
      [
        "▁සමඟ",
        -7.658507592608423
      ],
      [
        "ද?",
        -7.660262184799398
      ],
      [
        "▁සිය",
        -7.667400760695511
      ],
      [
        "▁මහින්ද",
        -7.667740114290304
      ],
      [
        "▁ටිකක්",
        -7.670449376259251
      ],
      [
        "▁අවුරුදු",
        -7.670880740913663
      ],
      [
        "▁බලන්න",
        -7.6754520519503515
      ],
      [
        "▁පුවත්",
        -7.677414071226577
      ],
      [
        "▁තරම්",
        -7.682286676051678
      ],
      [
        "▁රධාන",
        -7.686479421510839
      ],
      [
        "ින්",
        -7.690236572991916
      ],
      [
        "▁ඕන",
        -7.694018587654272
      ],
      [
        "▁වශයෙන්",
        -7.695562403803837
      ],
      [
        "▁රට",
        -7.696141251627033
      ],
      [
        "▁ගැනීම",
        -7.69659828775788
      ],
      [
        "▁මෙය",
        -7.697440800064673
      ],
      [
        "ගෙ",
        -7.699075214949341
      ],
      [
        "'",
        -7.701145810165567
      ],
      [
        "▁‘",
        -7.707067081291296
      ],
      [
        "▁කියලා.",
        -7.710277348605329
      ],
      [
        "▁මහා",
        -7.711601185647478
      ],
      [
        "▁කලින්",
        -7.71383373114524
      ],
      [
        "▁වන්නේ",
        -7.7215745023621665
      ],
      [
        "▁බැරි",
        -7.723476236153358
      ],
      [
        "▁මන්ත්",
        -7.72946706990367
      ],
      [
        "▁ඉතා",
        -7.732481480850959
      ],
      [
        "▁හැම",
        -7.734460975934725
      ],
      [
        "▁අවසන්",
        -7.734999189649205
      ],
      [
        "▁තිබෙනවා.",
        -7.737340236735401
      ],
      [
        "▁දේශපාලන",
        -7.745133503871957
      ],
      [
        "▁දක්වා",
        -7.750451577511203
      ],
      [
        "කි.",
        -7.751168993561217
      ],
      [
        "▁පමණ",
        -7.75378890708828
      ],
      [
        "▁කෙනෙක්",
        -7.766174911567077
      ],
      [
        "නම්",
        -7.766266156796979
      ],
      [
        "▁කොළඹ",
        -7.767235782799821
      ],
      [
        "යා",
        -7.773003578923111
      ],
      [
        "▁පසුගිය",
        -7.778552672513957
      ],
      [
        "▁අපට",
        -7.782972447199947
      ],
      [
        "වලට",
        -7.788804840006552
      ],
      [
        "▁වීම",
        -7.7896969900707
      ],
      [
        "▁...",
        -7.790920553439335
      ],
      [
        "▁රිය",
        -7.793527659270072
      ],
      [
        "▁ගෙදර",
        -7.79671157563512
      ],
      [
        "▁අඩු",
        -7.803180667343279
      ],
      [
        "▁/",
        -7.805408147262465
      ],
      [
        "▁මෙන්න",
        -7.805901903213581
      ],
      [
        "▁යා",
        -7.807939920622468
      ],
      [
        "▁තියෙනවා.",
        -7.811060894059832
      ],
      [
        "▁නො",
        -7.815224739631676
      ],
      [
        "▁මොකද",
        -7.828839981693699
      ],
      [
        "▁පිළිබඳව",
        -7.830923484780204
      ],
      [
        "▁දෙන",
        -7.835141353325696
      ],
      [
        "▁වෙනවා.",
        -7.840493088780649
      ],
      [
        "▁එන",
        -7.840653955289051
      ],
      [
        "▁ගත්",
        -7.846032078874998
      ],
      [
        "▁News",
        -7.84811837366162
      ],
      [
        "▁විදියට",
        -7.851890073417172
      ],
      [
        "▁රිකට්",
        -7.854549815682402
      ],
      [
        "▁ගිහින්",
        -7.855594074447691
      ],
      [
        "▁නැහැ",
        -7.8561546233339925
      ],
      [
        "▁ඔන්න",
        -7.856625485957046
      ],
      [
        "▁රකාශ",
        -7.857445709281233
      ],
      [
        "▁ඔහුගේ",
        -7.865102760667169
      ],
      [
        "▁පටන්",
        -7.8658163632231854
      ],
      [
        "▁අලුත්",
        -7.870677874638934
      ],
      [
        "▁Lanka",
        -7.872119296956839
      ],
      [
        "▁තිබෙන",
        -7.873804361331146
      ],
      [
        "▁විශේෂ",
        -7.875746718420242
      ],
      [
        "▁පමණක්",
        -7.8824857211337545
      ],
      [
        "▁පස්සේ",
        -7.8933175930377875
      ],
      [
        "▁සමහර",
        -7.899393928246477
      ],
      [
        "▁පොලිස්",
        -7.902273151916567
      ],
      [
        "ත",
        -7.910263925616354
      ],
      [
        "ෝ",
        -7.9118047165406455
      ],
      [
        "▁ලබන",
        -7.9241205186477455
      ],
      [
        "යන්",
        -7.925050934428608
      ],
      [
        "▁මගින්",
        -7.926262833180074
      ],
      [
        "▁තියෙන්නේ",
        -7.935010759545209
      ],
      [
        "▁පසුව",
        -7.935918155744625
      ],
      [
        "▁තීරණය",
        -7.939520914280495
      ],
      [
        "▁කාලය",
        -7.944517988647897
      ],
      [
        "▁හැබැයි",
        -7.946695364511891
      ],
      [
        "▁බවයි.",
        -7.946943049005377
      ],
      [
        "▁එහෙත්",
        -7.947347485840849
      ],
      [
        "යට",
        -7.949928007416711
      ],
      [
        "▁එක්සත්",
        -7.951193322675666
      ],
      [
        "▁එපා",
        -7.952115545808372
      ],
      [
        "▁ඇතුළු",
        -7.956746356146324
      ],
      [
        "▁රියාත්මක",
        -7.957440253612525
      ],
      [
        "▁සදහා",
        -7.958721161670436
      ],
      [
        "▁රුපියල්",
        -7.959961286205402
      ],
      [
        "▁තමන්",
        -7.961689339480158
      ],
      [
        "▁තොරතුරු",
        -7.96666920355702
      ],
      [
        "ර",
        -7.970174888195649
      ],
      [
        "දී",
        -7.978997961467966
      ],
      [
        "▁ලංකාව",
        -7.984499197837007
      ],
      [
        "▁එන්න",
        -7.986635517259076
      ],
      [
        "▁රාජපක්ෂ",
        -7.987925376939275
      ],
      [
        "▁යම්",
        -7.988607825174359
      ],
      [
        "▁එකතු",
        -7.988608183362114
      ],
      [
        "▁නැවත",
        -7.991037765115166
      ],
      [
        "▁පළාත්",
        -7.992300507215967
      ],
      [
        "▁හරහා",
        -7.9931379037870816
      ],
      [
        "▁තුල",
        -7.997558640862152
      ],
      [
        "▁සමාජ",
        -7.998151762217873
      ],
      [
        "▁කිරීමේ",
        -8.000727090505405
      ],
      [
        "▁ගුවන්",
        -8.002247813365544
      ],
      [
        "▁ඉවත්",
        -8.002684849943027
      ],
      [
        "▁කළේ",
        -8.005073253994981
      ],
      [
        "▁'",
        -8.01124942883293
      ],
      [
        "▁ආරම්භ",
        -8.013133985016898
      ],
      [
        "▁විශාල",
        -8.014185758548654
      ],
      [
        "නේ",
        -8.015401948391833
      ],
      [
        "▁ඔයා",
        -8.015969442827329
      ],
      [
        "ං",
        -8.017158543505268
      ],
      [
        "▁කරපු",
        -8.021362259186528
      ],
      [
        "▁ඊයේ",
        -8.025734351774844
      ],
      [
        "▁සියලු",
        -8.026618074254293
      ],
      [
        "▁:",
        -8.029437529882156
      ],
      [
        "ේදී",
        -8.030589476006803
      ],
      [
        "▁අයට",
        -8.0313215838237
      ],
      [
        "▁විදිහට",
        -8.031361312691068
      ],
      [
        "▁ඇත්තටම",
        -8.037625811157387
      ],
      [
        "▁කරගෙන",
        -8.04269625165861
      ],
      [
        "▁ගේ",
        -8.044565694272572
      ],
      [
        "▁වෙනත්",
        -8.044966994124662
      ],
      [
        "යෙන්",
        -8.046753877254826
      ],
      [
        "▁නම",
        -8.046944455354502
      ],
      [
        "▁දෙකක්",
        -8.049695274167815
      ],
      [
        "▁සාමාන්",
        -8.05167716727738
      ],
      [
        "▁ජනතාව",
        -8.053134775978458
      ],
      [
        "▁යැයි",
        -8.05661975880138
      ],
      [
        "▁වෙබ්",
        -8.058056448356709
      ],
      [
        "▁වෙන්නේ",
        -8.058104159636239
      ],
      [
        "▁බලා",
        -8.060222087125458
      ],
      [
        "▁සොයා",
        -8.065401948307267
      ],
      [
        "▁වැඩක්",
        -8.065492365774332
      ],
      [
        "▁නැතුව",
        -8.068415441313705
      ],
      [
        "▁වැදගත්",
        -8.071648734231548
      ],
      [
        "▁සම්බන්ධ",
        -8.07246132144275
      ],
      [
        "▁කරනවා.",
        -8.07374055089949
      ],
      [
        "▁කාලයක්",
        -8.074849689403758
      ],
      [
        "▁මධ්",
        -8.075056869062163
      ],
      [
        "▁බොහොම",
        -8.075120134069016
      ],
      [
        "▁:)",
        -8.075857194047252
      ],
      [
        "▁පළමු",
        -8.078579224631563
      ],
      [
        "/",
        -8.079444646224044
      ],
      [
        "▁රශ්න",
        -8.081107646085284
      ],
      [
        "▁එකම",
        -8.086231670112015
      ],
      [
        "ී",
        -8.086289933761494
      ],
      [
        "වලින්",
        -8.0869749041075
      ],
      [
        "▁කියන්නෙ",
        -8.087266913970616
      ],
      [
        "▁ලියන්න",
        -8.089407481530456
      ],
      [
        "▁ලිපි",
        -8.09042817925385
      ],
      [
        "▁මෛත්",
        -8.091248963586976
      ],
      [
        "▁හි",
        -8.092055388782093
      ],
      [
        "▁යටතේ",
        -8.09511763214378
      ],
      [
        "▁බස්",
        -8.097089818473384
      ],
      [
        "▁මීට",
        -8.097242356102667
      ],
      [
        "▁ඇත්ත",
        -8.101970542903313
      ],
      [
        "▁තියෙනවා",
        -8.103927164315078
      ],
      [
        "▁2",
        -8.105557751366833
      ],
      [
        "▁කරයි.",
        -8.106120281716551
      ],
      [
        "ම්",
        -8.106339222383328
      ],
      [
        "▁විවිධ",
        -8.107818575097173
      ],
      [
        "▁මිනිස්සු",
        -8.107835848108328
      ],
      [
        "▁මිල",
        -8.108334711669348
      ],
      [
        "▁අදාළ",
        -8.111006847062049
      ],
      [
        "▁හිත",
        -8.118022051715093
      ],
      [
        "▁බ්",
        -8.118472318963613
      ],
      [
        "ස",
        -8.123361491742806
      ],
      [
        "▁ගොස්",
        -8.124334633587013
      ],
      [
        "▁කරනු",
        -8.124854596772002
      ],
      [
        "▁එසේ",
        -8.124989157467226
      ],
      [
        "▁රම",
        -8.128264183473155
      ],
      [
        "▁මුල්",
        -8.13372309103839
      ],
      [
        "▁කළේය.",
        -8.13383414134079
      ],
      [
        "▁නොවන",
        -8.134441441244286
      ],
      [
        "▁අනේ",
        -8.138922300798297
      ],
      [
        "වන",
        -8.139184800015162
      ],
      [
        "ටත්",
        -8.141184581912071
      ],
      [
        "▁ආ",
        -8.142188959820617
      ],
      [
        "▁උඹ",
        -8.14484428003182
      ],
      [
        "▁පවතින",
        -8.149179764780369
      ],
      [
        "▁රි",
        -8.15046991042799
      ],
      [
        "▁නිර්මාණය",
        -8.151101206188203
      ],
      [
        "▁මතක්",
        -8.15211668964057
      ],
      [
        "▁පිරිසක්",
        -8.15373263809756
      ],
      [
        "▁ඇයි",
        -8.153736417997434
      ],
      [
        "▁ඉතිං",
        -8.156435555766556
      ],
      [
        "▁ෂ",
        -8.157486767078323
      ],
      [
        "▁ගන්නා",
        -8.158407560291117
      ],
      [
        "▁කැමති",
        -8.159106701301674
      ],
      [
        "▁කරුණු",
        -8.159211974656507
      ],
      [
        "▁2018",
        -8.161156177603514
      ],
      [
        "▁මතක",
        -8.166176108615721
      ],
      [
        "ගෙන",
        -8.166245904590303
      ],
      [
        "▁මෙන්ම",
        -8.172427761437527
      ],
      [
        "▁රනිල්",
        -8.173078504444597
      ],
      [
        "▁ගොඩ",
        -8.175353620267364
      ],
      [
        "▁කාලේ",
        -8.180636631849424
      ],
      [
        "▁එදා",
        -8.186202455750097
      ],
      [
        "▁කෙසේ",
        -8.187039637609317
      ],
      [
        "▁අත්අඩංගුවට",
        -8.188528633564495
      ],
      [
        "▁ඇවිත්",
        -8.188619374250436
      ],
      [
        "▁ඉඩ",
        -8.190479460756924
      ],
      [
        ".....",
        -8.197033043419026
      ],
      [
        "▁උන්",
        -8.19903860757317
      ],
      [
        "▁එරෙහිව",
        -8.199050831717816
      ],
      [
        "▁නොහැකි",
        -8.200002342841147
      ],
      [
        "▁3",
        -8.201916294588651
      ],
      [
        "ෙහි",
        -8.202701244046509
      ],
      [
        "▁ලෝක",
        -8.203846167694042
      ],
      [
        "▁යනු",
        -8.210913866606612
      ],
      [
        "▁ග්",
        -8.213415526564782
      ],
      [
        "ල්",
        -8.214533106531773
      ],
      [
        "▁අත්",
        -8.21505641631477
      ],
      [
        "▁යන්තර",
        -8.215096281854105
      ],
      [
        "▁රජය",
        -8.216015041328179
      ],
      [
        "▁මෙහි",
        -8.216170700037164
      ],
      [
        "▁කළා.",
        -8.216915665454566
      ],
      [
        "▁අමතක",
        -8.21839452185999
      ],
      [
        "▁තිබූ",
        -8.218432338941872
      ],
      [
        "▁තමන්ගේ",
        -8.218528555521996
      ],
      [
        "▁එයා",
        -8.2193442758735
      ],
      [
        "▁විතර",
        -8.220758333680582
      ],
      [
        "▁රීඩා",
        -8.22077553700115
      ],
      [
        "▁කිසිම",
        -8.221217173497859
      ],
      [
        "▁හැටි",
        -8.23095700914099
      ],
      [
        "▁දෙක",
        -8.230965238902474
      ],
      [
        "▁ලකුණු",
        -8.233105484605392
      ],
      [
        "▁පුළුවන්.",
        -8.235211682846558
      ],
      [
        "▁ආණ්ඩුව",
        -8.235217421823222
      ],
      [
        "▁රාත්",
        -8.239004637690012
      ],
      [
        "▁දැන",
        -8.241871570213108
      ],
      [
        "▁රජයේ",
        -8.24531298060789
      ],
      [
        "▁යය",
        -8.245631695980043
      ],
      [
        "▁බවද",
        -8.246524593339657
      ],
      [
        "▁ලක්",
        -8.246787335472716
      ],
      [
        "▁විස්තර",
        -8.247939559431043
      ],
      [
        "▁වැඩේ",
        -8.248907514517189
      ],
      [
        "▁වෙනවා",
        -8.25472060073767
      ],
      [
        "▁තැන",
        -8.255061772966037
      ],
      [
        "▁5",
        -8.256797854656446
      ],
      [
        "▁භාවිතා",
        -8.259490752744334
      ],
      [
        "▁රය",
        -8.259624961262618
      ],
      [
        "▁1",
        -8.260312979932175
      ],
      [
        "▁පස්සෙ",
        -8.261454536492655
      ],
      [
        "▁මෙහෙම",
        -8.264758879374508
      ],
      [
        "▁පුංචි",
        -8.270281269274845
      ],
      [
        "▁කරනවා",
        -8.271260003461315
      ],
      [
        "නි",
        -8.276370940942261
      ],
      [
        "පු",
        -8.27773440311063
      ],
      [
        "▁හරිම",
        -8.284772862495625
      ],
      [
        "▁..",
        -8.286111667672722
      ],
      [
        "▁ඉහළ",
        -8.290119153676866
      ],
      [
        "▁යොමු",
        -8.291235633328409
      ],
      [
        "▁වික්",
        -8.292409166099073
      ],
      [
        "▁වීමට",
        -8.293344747083525
      ],
      [
        "දි",
        -8.29553630130099
      ],
      [
        "▁ලස්සන",
        -8.296005316443514
      ],
      [
        "▁පාර්ලිමේන්තු",
        -8.297847725525505
      ],
      [
        "▁නැත්නම්",
        -8.298965067396367
      ],
      [
        "▁පළ",
        -8.299095383624783
      ],
      [
        "▁නිකුත්",
        -8.302906609685252
      ],
      [
        "ප්",
        -8.303367743625406
      ],
      [
        "▁හේතුවෙන්",
        -8.304435574591176
      ],
      [
        "▁ඉල්ලා",
        -8.305838912435883
      ],
      [
        "▁පුලුවන්",
        -8.306173511715942
      ],
      [
        "▁මමත්",
        -8.30650168792058
      ],
      [
        "▁ඇතැයි",
        -8.310125258179024
      ],
      [
        "▁වසරේ",
        -8.311559284307034
      ],
      [
        "▁:D",
        -8.313289081488474
      ],
      [
        "▁Home",
        -8.315906320209487
      ],
      [
        "▁ට්",
        -8.316050680308846
      ],
      [
        "▁ඉන්",
        -8.316338733393035
      ],
      [
        "▁කට",
        -8.317006974594282
      ],
      [
        "▁සිරිසේන",
        -8.318737828406169
      ],
      [
        "▁හිමි",
        -8.319120445313084
      ],
      [
        "▁තියන",
        -8.320905983765867
      ],
      [
        "▁උනත්",
        -8.32233479559966
      ],
      [
        "▁ජාත්",
        -8.322680158807161
      ],
      [
        "▁අගමැති",
        -8.3260317359473
      ],
      [
        "▁එල්ල",
        -8.326716292800894
      ],
      [
        "▁පුරා",
        -8.327798343437374
      ],
      [
        "▁කතාවක්",
        -8.329973162384645
      ],
      [
        "▁ජනපති",
        -8.331955971688947
      ],
      [
        "▁රදේශයේ",
        -8.332089599638538
      ],
      [
        "▁කරල",
        -8.332310678090382
      ],
      [
        "▁ලේකම්",
        -8.33315804618468
      ],
      [
        "▁ඔහුට",
        -8.333646758007959
      ],
      [
        "▁පැවති",
        -8.334486650581399
      ],
      [
        "▁අත",
        -8.337549051467631
      ],
      [
        "▁අනිත්",
        -8.338025340807395
      ],
      [
        "▁නොව",
        -8.340585854314785
      ],
      [
        "▁වුණා.",
        -8.341653865293088
      ],
      [
        "▁පාර",
        -8.345039447226506
      ],
      [
        "▁දැඩි",
        -8.351241993056256
      ],
      [
        "කර",
        -8.353135133213799
      ],
      [
        "▁වූයේ",
        -8.363102441450446
      ],
      [
        "▁පාසල්",
        -8.363978869483198
      ],
      [
        "▁10",
        -8.364005686936233
      ],
      [
        "▁පවා",
        -8.364596417015434
      ],
      [
        "▁ජය",
        -8.365529135234004
      ],
      [
        "▁කොහොම",
        -8.365708151975806
      ],
      [
        "▁නොවේ.",
        -8.365812504115436
      ],
      [
        "▁බලය",
        -8.369611390118488
      ],
      [
        "▁ජීවත්",
        -8.371278946326163
      ],
      [
        "▁නියම",
        -8.371434083415256
      ],
      [
        "▁කල්",
        -8.372787654600796
      ],
      [
        "ට්",
        -8.373197624421737
      ],
      [
        "ර්",
        -8.375801873558407
      ],
      [
        "▁කරන්න.",
        -8.378768646719884
      ],
      [
        "▁ඔවුන්ගේ",
        -8.379475126667622
      ],
      [
        "▁ඔව්",
        -8.38262192591188
      ],
      [
        "▁එතකොට",
        -8.388171939549936
      ],
      [
        "▁දන්නේ",
        -8.388870185123729
      ],
      [
        "▁පවසයි.",
        -8.38890331671041
      ],
      [
        "▁ඇමති",
        -8.391307713135722
      ],
      [
        "▁කුඩා",
        -8.391958698856275
      ],
      [
        "▁කවි",
        -8.392146433378484
      ],
      [
        "ප",
        -8.392376734351728
      ],
      [
        "හ",
        -8.393493361438686
      ],
      [
        "▁කණ්ඩායම",
        -8.393878720487791
      ],
      [
        "▁ජීවිතය",
        -8.397623733045162
      ],
      [
        "(",
        -8.401308055601119
      ],
      [
        "▁බල",
        -8.402634075079105
      ],
      [
        "▁අයත්",
        -8.403878849467208
      ],
      [
        "▁මටත්",
        -8.404526670404003
      ],
      [
        "▁චෝදනා",
        -8.406390870010625
      ],
      [
        "▁සුබ",
        -8.408733762657224
      ],
      [
        "▁පොත්",
        -8.409202643176652
      ],
      [
        "▁විතරක්",
        -8.410974783010714
      ],
      [
        "▁නේද?",
        -8.411984536749511
      ],
      [
        "▁වෙයි.",
        -8.418505638585088
      ],
      [
        "▁ලංකාවට",
        -8.419100577258428
      ],
      [
        "▁මස",
        -8.422352711847761
      ],
      [
        "▁ව",
        -8.422677151644903
      ],
      [
        "වේ",
        -8.423356384937065
      ],
      [
        "▁පරිදි",
        -8.425399314518058
      ],
      [
        "▁Gossip",
        -8.425608828857767
      ],
      [
        "▁ලිපිය",
        -8.427866219327244
      ],
      [
        "▁නේද",
        -8.429922548066076
      ],
      [
        "▁මාස",
        -8.431575445856682
      ],
      [
        "▁ද?",
        -8.433138479287706
      ],
      [
        "▁කලා",
        -8.43334264765485
      ],
      [
        "▁සහිත",
        -8.433649431845739
      ],
      [
        "▁ජනප්",
        -8.435231495275898
      ],
      [
        "▁සල්ලි",
        -8.437166878562286
      ],
      [
        "වී",
        -8.439226711825189
      ],
      [
        "▁හමුදා",
        -8.439731738682664
      ],
      [
        "▁දෙමළ",
        -8.443779122337899
      ],
      [
        "යෝ",
        -8.444585998121374
      ],
      [
        "▁කරගන්න",
        -8.444598266926219
      ],
      [
        "▁ආහාර",
        -8.446205589441817
      ],
      [
        "▁හේතුව",
        -8.44653656221616
      ],
      [
        "▁සේවා",
        -8.449085040594236
      ],
      [
        "▁ආදරය",
        -8.449211627389214
      ],
      [
        "▁මාත්",
        -8.44954778548552
      ],
      [
        "▁දා",
        -8.45123117665936
      ],
      [
        "▁යුතුය.",
        -8.452148828354852
      ],
      [
        "▁පිට",
        -8.454482831591392
      ],
      [
        "▁පෝස්ට්",
        -8.455745035886121
      ],
      [
        "▁වෙලාවට",
        -8.457694267047403
      ],
      [
        "▁මල්",
        -8.459271924230288
      ],
      [
        "ලි",
        -8.466476534381565
      ],
      [
        "▁දුන්",
        -8.470181043930229
      ],
      [
        "▁ශ",
        -8.470813721200013
      ],
      [
        "▁කොහොමද",
        -8.470983281063338
      ],
      [
        "▁සුභ",
        -8.47172858850908
      ],
      [
        "▁නීති",
        -8.474078124981357
      ],
      [
        "▁මෙසේ",
        -8.474438171041134
      ],
      [
        "▁4",
        -8.474561902337989
      ],
      [
        "▁අරන්",
        -8.475222373924568
      ],
      [
        "▁යාපනය",
        -8.479229958416074
      ],
      [
        "▁මොන",
        -8.481687484889267
      ],
      [
        "▁සෞඛ්",
        -8.483734792915193
      ],
      [
        "▁වෙයි",
        -8.486063996796318
      ],
      [
        "ඒ",
        -8.48910703702414
      ],
      [
        "▁යාව",
        -8.48933449766919
      ],
      [
        "▁යන්නේ",
        -8.491899597015994
      ],
      [
        "▁Sri",
        -8.4923130198469
      ],
      [
        "හි",
        -8.494759643025592
      ],
      [
        "▁දවස්",
        -8.494796523904764
      ],
      [
        "▁ස්තුතියි",
        -8.49498106869532
      ],
      [
        "▁දාන්න",
        -8.495285636461045
      ],
      [
        "▁පාලනය",
        -8.495590844869927
      ],
      [
        "▁රමය",
        -8.495870500909835
      ],
      [
        "▁හොද",
        -8.496430190504839
      ],
      [
        "▁පාලන",
        -8.498289403596612
      ],
      [
        "▁සෑම",
        -8.501379625454085
      ],
      [
        "▁ලොව",
        -8.502017850342622
      ],
      [
        "▁ලැබෙන",
        -8.502414914615743
      ],
      [
        "▁මාව",
        -8.503564723399425
      ],
      [
        "▁සේවය",
        -8.503910743701496
      ],
      [
        "▁කියවන්න",
        -8.505457489963607
      ],
      [
        "නෙ",
        -8.507314851697554
      ],
      [
        "▁වැරදි",
        -8.510429238063264
      ],
      [
        "▁බෑ",
        -8.514555692731502
      ],
      [
        "නා",
        -8.515756457287171
      ],
      [
        "▁බවයි",
        -8.51708777161403
      ],
      [
        "▁දාලා",
        -8.518291084609759
      ],
      [
        "▁මගෙ",
        -8.518292575996616
      ],
      [
        "▁කිසිදු",
        -8.518835286688844
      ],
      [
        "▁දැනට",
        -8.52102393385683
      ],
      [
        "▁ලියන",
        -8.523003815480125
      ],
      [
        "▁ඔබගේ",
        -8.523183003494221
      ],
      [
        "▁ආර්ථික",
        -8.52403088414476
      ],
      [
        "▁කරන්නට",
        -8.524473820757429
      ],
      [
        "▁හෙට",
        -8.526516995243568
      ],
      [
        "▁ජනාධිපතිවරයා",
        -8.52659461133934
      ],
      [
        "▁යයි",
        -8.528160573989428
      ],
      [
        "▁දිගටම",
        -8.529003517406505
      ],
      [
        "▁එකෙන්",
        -8.530815296326573
      ],
      [
        "▁එහිදී",
        -8.532090133686308
      ],
      [
        "▁තේරුම්",
        -8.532809232312033
      ],
      [
        "▁නං",
        -8.532812017713939
      ],
      [
        "▁පක්ෂ",
        -8.535174513264401
      ],
      [
        "▁ඕක",
        -8.535868224331956
      ],
      [
        "▁නෑ..",
        -8.538604495987268
      ],
      [
        "▁සංවිධානය",
        -8.538937622992119
      ],
      [
        "▁කොටස",
        -8.539321626626938
      ],
      [
        "▁සත්",
        -8.539373813880415
      ],
      [
        "▁සුදු",
        -8.539582513560866
      ],
      [
        "▁ස්තූතියි",
        -8.543268056177354
      ],
      [
        "▁පෙන්වා",
        -8.544746485782118
      ],
      [
        "▁අප්",
        -8.545058389606417
      ],
      [
        "▁පැහැදිලි",
        -8.548885706100922
      ],
      [
        "▁දිය",
        -8.550110117792865
      ],
      [
        "▁මිලියන",
        -8.551137000374574
      ],
      [
        "▁තියෙන්නෙ",
        -8.55134034518126
      ],
      [
        "▁නැතිව",
        -8.551563884248484
      ],
      [
        "▁යවරයා",
        -8.553115771553703
      ],
      [
        "▁මෙන්",
        -8.55372177736205
      ],
      [
        "▁අම්මා",
        -8.555341585094103
      ],
      [
        "▁රා",
        -8.555411195719934
      ],
      [
        "▁මුහුණ",
        -8.55590973104903
      ],
      [
        "▁නොමැති",
        -8.55825858646175
      ],
      [
        "▁දරුවන්",
        -8.559125494377941
      ],
      [
        "▁පියවර",
        -8.55968276385886
      ],
      [
        "රි",
        -8.561299056995464
      ],
      [
        "▁අවස්ථාව",
        -8.561631207816111
      ],
      [
        "▁වහන්සේ",
        -8.562747325023045
      ],
      [
        "▁සංවර්ධන",
        -8.562969217682289
      ],
      [
        "▁කලේ",
        -8.563840354042897
      ],
      [
        "▁S",
        -8.56474381034489
      ],
      [
        "▁ඉන්නේ",
        -8.564897871678326
      ],
      [
        "ග",
        -8.566516478553527
      ],
      [
        "▁හරියට",
        -8.570223218286205
      ],
      [
        "▁සේ",
        -8.571420508871832
      ],
      [
        "▁දකුණු",
        -8.57257009215368
      ],
      [
        "▁නාට්",
        -8.572594674722932
      ],
      [
        "▁බං",
        -8.573675702881769
      ],
      [
        "▁රමසිංහ",
        -8.577177806340323
      ],
      [
        "වූ",
        -8.577988084725902
      ],
      [
        "▁ඔක්කොම",
        -8.580597401913352
      ],
      [
        "▁2017",
        -8.582474724462221
      ],
      [
        "▁අරගෙන",
        -8.582752340839686
      ],
      [
        "▁බලාපොරොත්තු",
        -8.584063017288978
      ],
      [
        "▁කිහිපයක්",
        -8.584301818169784
      ],
      [
        "▁තබා",
        -8.58484364556649
      ],
      [
        "▁මෙරට",
        -8.584950602238937
      ],
      [
        "▁ලෝකයේ",
        -8.585968522775836
      ],
      [
        "▁Sinhala",
        -8.587746921650858
      ],
      [
        "▁මෙවැනි",
        -8.589754481152744
      ],
      [
        "▁තත්ත්වය",
        -8.590152080036656
      ],
      [
        "▁නායක",
        -8.59178021352443
      ],
      [
        "▁සියල්ල",
        -8.5934156845185
      ],
      [
        "න්ට",
        -8.593645884268625
      ],
      [
        "▁සිටියේ",
        -8.59444032851971
      ],
      [
        "▁දෙනෙක්",
        -8.600242494694323
      ],
      [
        "ණ",
        -8.603734665080488
      ],
      [
        "▁රියා",
        -8.605332390754903
      ],
      [
        "▁යොදා",
        -8.61224418173397
      ],
      [
        "▁මානව",
        -8.6124490947813
      ],
      [
        "▁කී",
        -8.61555268327088
      ],
      [
        "▁අපරාධ",
        -8.617983869570091
      ],
      [
        "▁ඉන්නවා",
        -8.61806556681016
      ],
      [
        "▁ජන",
        -8.620590370522732
      ],
      [
        "▁දුම්රිය",
        -8.622638584535594
      ],
      [
        "▁යුතුයි.",
        -8.62301364200643
      ],
      [
        "▁ඇති.",
        -8.623943994475702
      ],
      [
        "▁මේවා",
        -8.625842156345195
      ],
      [
        "▁හැකිය.",
        -8.626171440931099
      ],
      [
        "▁සෙට්",
        -8.628948394235303
      ],
      [
        "▁එවැනි",
        -8.631202581970172
      ],
      [
        "ලු",
        -8.632119373027955
      ],
      [
        "▁වචන",
        -8.633715699617877
      ],
      [
        "▁ගියා",
        -8.634877640271553
      ],
      [
        "▁උසස්",
        -8.635009449461482
      ],
      [
        "▁ආදරේ",
        -8.637043672841006
      ],
      [
        "▁තරග",
        -8.637583482286466
      ],
      [
        "▁ගියේ",
        -8.638898089886867
      ],
      [
        "▁රව්",
        -8.640939610123166
      ],
      [
        "▁පෙළ",
        -8.642365488058994
      ],
      [
        "▁පොලිසිය",
        -8.643355789621447
      ],
      [
        "යෙක්",
        -8.64556344540053
      ],
      [
        "▁තවමත්",
        -8.647534338398117
      ],
      [
        "▁ආරක්ෂක",
        -8.648070932637001
      ],
      [
        "ඩ්",
        -8.651834407836677
      ],
      [
        "▁කාලෙ",
        -8.654871248325385
      ],
      [
        "▁අ",
        -8.658732056647057
      ],
      [
        "▁කාලයේ",
        -8.658914555249687
      ],
      [
        "▁විශ්ව",
        -8.659315789949778
      ],
      [
        "කුත්",
        -8.65932722196981
      ],
      [
        "▁ජනතා",
        -8.659555598007469
      ],
      [
        "රා",
        -8.661124304676331
      ],
      [
        "▁ගත්ත",
        -8.662637383691777
      ],
      [
        "▁පල",
        -8.664255790293964
      ],
      [
        "▁කෑම",
        -8.664382454605304
      ],
      [
        "▁20",
        -8.666263750258722
      ],
      [
        "▁කොටස්",
        -8.666568581344464
      ],
      [
        "▁මහතාගේ",
        -8.668884671969607
      ],
      [
        "▁හේතු",
        -8.669223268307011
      ],
      [
        "▁ඕනේ",
        -8.6692308264032
      ],
      [
        "ො",
        -8.669368427112882
      ],
      [
        "▁සමාගම",
        -8.669575656229
      ],
      [
        "]",
        -8.673894907089423
      ],
      [
        "▁ඇස්",
        -8.67419096868798
      ],
      [
        "▁විශ්වාස",
        -8.674732533708596
      ],
      [
        "▁හොඳම",
        -8.675414821378384
      ],
      [
        "▁යාපන",
        -8.6755304994183
      ],
      [
        "▁@",
        -8.675948811139671
      ],
      [
        "▁පැමිණි",
        -8.676245358374096
      ],
      [
        "දා",
        -8.677151342619307
      ],
      [
        "▁නීතිය",
        -8.678732138811139
      ],
      [
        "▁තාම",
        -8.680032630836735
      ],
      [
        "▁අතර,",
        -8.68173453373143
      ],
      [
        "වි",
        -8.682178614889082
      ],
      [
        "▁නිල",
        -8.683053116046292
      ],
      [
        "▁මුස්ලිම්",
        -8.68509786926014
      ],
      [
        "▁හැකියාව",
        -8.686127493051963
      ],
      [
        "▁දිනය",
        -8.686328481335195
      ],
      [
        "▁පැමිණ",
        -8.686488655589224
      ],
      [
        "▁පොදු",
        -8.687176062604266
      ],
      [
        "▁ඡන්ද",
        -8.68788953300528
      ],
      [
        "▁වෙන්නෙ",
        -8.688828274158684
      ],
      [
        "▁කියල.",
        -8.690246719546892
      ],
      [
        "▁වාහන",
        -8.690271262724519
      ],
      [
        "▁සභා",
        -8.69090312849056
      ],
      [
        "▁ඉවර",
        -8.691860841608907
      ],
      [
        "▁ඇතැම්",
        -8.692234124456526
      ],
      [
        "▁සටහන්",
        -8.69316546630575
      ],
      [
        "කි",
        -8.69339548580496
      ],
      [
        "▁ජීවිත",
        -8.696861445608832
      ],
      [
        "▁විදුලි",
        -8.698718340471265
      ],
      [
        "▁නෙවෙයි",
        -8.700384369898321
      ],
      [
        "▁ඉගෙන",
        -8.702825916179586
      ],
      [
        "▁වෙඩි",
        -8.702855160340041
      ],
      [
        "මේ",
        -8.705723066591318
      ],
      [
        "▁බර",
        -8.705845989091351
      ],
      [
        "▁වඩාත්",
        -8.707563277158563
      ],
      [
        "▁කොච්චර",
        -8.708288653621112
      ],
      [
        "▁මාර්ග",
        -8.70849386536601
      ],
      [
        "▁මෙහිදී",
        -8.708571599279614
      ],
      [
        "▁වත්",
        -8.709112387680033
      ],
      [
        "d",
        -8.709397071021286
      ],
      [
        "▁තමයි.",
        -8.710546717944963
      ],
      [
        "▁පැය",
        -8.711946355022718
      ],
      [
        "▁ඔහොම",
        -8.713322976130268
      ],
      [
        "▁මැතිවරණ",
        -8.715936467414998
      ],
      [
        "සි",
        -8.716244325532298
      ],
      [
        "▁දිස්ත්",
        -8.716458299097877
      ],
      [
        "▁දවසක්",
        -8.716538720367327
      ],
      [
        "▁කන්න",
        -8.71683700957222
      ],
      [
        "▁උපදෙස්",
        -8.7174854335665
      ],
      [
        "▁හැටියට",
        -8.718878399596694
      ],
      [
        "▁අධික",
        -8.718898542061396
      ],
      [
        "▁වැනිදා",
        -8.718929485914918
      ],
      [
        "▁ගල්",
        -8.719534658565857
      ],
      [
        "▁පෞද්ගලික",
        -8.721417861899935
      ],
      [
        "▁6",
        -8.722812567856714
      ],
      [
        "▁අතින්",
        -8.724392104767878
      ],
      [
        "▁බදු",
        -8.725762279024247
      ],
      [
        "▁නිලධාරීන්",
        -8.728939204330079
      ],
      [
        "▁ඒකට",
        -8.729371268623886
      ],
      [
        "▁රටවල්",
        -8.72973421166052
      ],
      [
        "▁දෙනා",
        -8.732764852122276
      ],
      [
        "▁7",
        -8.732985896694201
      ],
      [
        "▁8",
        -8.734019729432044
      ],
      [
        "▁මුලින්ම",
        -8.735778583765306
      ],
      [
        "▁උඩ",
        -8.737366859642378
      ],
      [
        "ිය",
        -8.737492016067716
      ],
      [
        "▁විදේශ",
        -8.738935477782135
      ],
      [
        "▁මිය",
        -8.740895981820888
      ],
      [
        "▁සංඛ්",
        -8.742125964099571
      ],
      [
        "▁තමන්ට",
        -8.742829021596208
      ],
      [
        "▁රස",
        -8.74284775704787
      ],
      [
        "▁උත්සාහ",
        -8.74364935600093
      ],
      [
        "▁කිසි",
        -8.74429968075376
      ],
      [
        "▁කියනවා",
        -8.744390970438559
      ],
      [
        "▁වයස",
        -8.745360505987621
      ],
      [
        "ළ",
        -8.745555642673724
      ],
      [
        "▁උතුරු",
        -8.745859927199087
      ],
      [
        "▁අනෙක්",
        -8.747910879563271
      ],
      [
        "▁දමා",
        -8.748210380596756
      ],
      [
        "ත්,",
        -8.748821004150864
      ],
      [
        "▁තරුණ",
        -8.748923589125377
      ],
      [
        "කම",
        -8.749099681939608
      ],
      [
        "වට",
        -8.749948974626522
      ],
      [
        "▁අපගේ",
        -8.751587901123155
      ],
      [
        "▁මොකක්ද",
        -8.753671533721754
      ],
      [
        "ෙත්",
        -8.753951028672244
      ],
      [
        "▁ඇගේ",
        -8.75420906755068
      ],
      [
        "▁වතුර",
        -8.754280699425685
      ],
      [
        "▁ඔයාට",
        -8.756153400652524
      ],
      [
        "▁හිමිකම්",
        -8.757013789617083
      ],
      [
        "▁හැර",
        -8.76194497228986
      ],
      [
        "▁නැ",
        -8.763447405750917
      ],
      [
        "▁සභාපති",
        -8.765505155163247
      ],
      [
        "▁ගත්තේ",
        -8.767972192005736
      ],
      [
        "▁පොත",
        -8.768134506062687
      ],
      [
        "▁»",
        -8.768405477148935
      ],
      [
        "▁සාකච්ඡා",
        -8.769232245499273
      ],
      [
        "▁උනේ",
        -8.770411549725136
      ],
      [
        "▁18",
        -8.770684555815006
      ],
      [
        "▁පාවිච්චි",
        -8.770727906700053
      ],
      [
        "▁දීමට",
        -8.772808703439548
      ],
      [
        "වක්",
        -8.772878069931092
      ],
      [
        "▁මිනිසුන්",
        -8.774046655178507
      ],
      [
        "▁යනවා",
        -8.774459537789744
      ],
      [
        "▁කෙටි",
        -8.774472628342387
      ],
      [
        "▁දිහා",
        -8.77487194406917
      ],
      [
        "▁පෙනී",
        -8.775101951679641
      ],
      [
        "▁පක්ෂය",
        -8.775272890843944
      ],
      [
        "▁ඉදිරියට",
        -8.776821370958551
      ],
      [
        "▁ස",
        -8.776880297478133
      ],
      [
        "▁අදාල",
        -8.778955961538163
      ],
      [
        "▁දේශීය",
        -8.778996499628402
      ],
      [
        "▁ඔවුන්ට",
        -8.780419735905177
      ],
      [
        "▁මූලික",
        -8.781259875125286
      ],
      [
        "▁ඉදිරි",
        -8.781578160488145
      ],
      [
        "▁අයියා",
        -8.781944206198752
      ],
      [
        "▁අඩවිය",
        -8.782057251696374
      ],
      [
        "නු",
        -8.78212359903571
      ],
      [
        "▁ගියා.",
        -8.78439793098399
      ],
      [
        "ති",
        -8.784510692176113
      ],
      [
        "▁පුදුම",
        -8.785685877120567
      ],
      [
        "කොට",
        -8.786740095436443
      ],
      [
        "▁මග",
        -8.787069666200072
      ],
      [
        "▁පැවැති",
        -8.787886109463873
      ],
      [
        "▁පක්",
        -8.789885856336717
      ],
      [
        "▁එක.",
        -8.78990977255504
      ],
      [
        "▁ආයතන",
        -8.790099051218908
      ],
      [
        "කා",
        -8.790943444719057
      ],
      [
        "▁බටහිර",
        -8.792375815872425
      ],
      [
        "▁බෞද්ධ",
        -8.795846006540188
      ],
      [
        "▁බුදු",
        -8.795850098069817
      ],
      [
        "▁නියමිත",
        -8.796112548860926
      ],
      [
        "▁යෝජනා",
        -8.797452500010777
      ],
      [
        "▁රටට",
        -8.798626538482509
      ],
      [
        "▁ඉස්සර",
        -8.79893588978667
      ],
      [
        "▁හමුවේ",
        -8.799725812694358
      ],
      [
        "▁එයට",
        -8.800505284967056
      ],
      [
        "▁ගීත",
        -8.801134273785765
      ],
      [
        "▁වුනත්",
        -8.804712186336182
      ],
      [
        "▁ඕනෑම",
        -8.806635041749932
      ],
      [
        "▁24",
        -8.808508943255696
      ],
      [
        "ූ",
        -8.809666183435919
      ],
      [
        "▁දැනුවත්",
        -8.811493616140542
      ],
      [
        "▁on",
        -8.812192306001688
      ],
      [
        "ගත",
        -8.812330999104383
      ],
      [
        "▁ජනතාවට",
        -8.812981274955913
      ],
      [
        "▁සූදානම්",
        -8.813332357637155
      ],
      [
        "▁සම",
        -8.814061330741872
      ],
      [
        "▁විදෙස්",
        -8.814467071971581
      ],
      [
        "▁2015",
        -8.81603959426149
      ],
      [
        "▁තිබුණා.",
        -8.817575538961064
      ],
      [
        "▁වෙච්ච",
        -8.81760249257005
      ],
      [
        "▁දුක",
        -8.818248021300178
      ],
      [
        "▁වීඩියෝ",
        -8.818681176308907
      ],
      [
        "▁ආපු",
        -8.820510028700603
      ],
      [
        "▁හැක.",
        -8.820965327334196
      ],
      [
        "▁වි",
        -8.821799065798121
      ],
      [
        "▁පවසා",
        -8.82220944680965
      ],
      [
        "▁කමෙන්ට්",
        -8.823814705488775
      ],
      [
        "▁M",
        -8.82417440595828
      ],
      [
        "▁අදහස",
        -8.824278081176402
      ],
      [
        "▁ජීවිතේ",
        -8.825541267153277
      ],
      [
        "▁ලැබූ",
        -8.826100371618377
      ],
      [
        "▁ශිෂ්",
        -8.828386522677224
      ],
      [
        "▁12",
        -8.830091802058561
      ],
      [
        "▁පහත",
        -8.831128578149114
      ],
      [
        "▁ජයග්",
        -8.832099783328783
      ],
      [
        "▁එහෙනම්",
        -8.83336319506829
      ],
      [
        "මා",
        -8.833533190972084
      ],
      [
        "y",
        -8.834785272718712
      ],
      [
        "▁පරීක්ෂණ",
        -8.834830843400429
      ],
      [
        "▁ඉන්දීය",
        -8.836171523818251
      ],
      [
        "▁කමක්",
        -8.836812393945085
      ],
      [
        "▁විනාශ",
        -8.837169980739073
      ],
      [
        "▁ඉංග්",
        -8.837294103452333
      ],
      [
        "▁දන්න",
        -8.838183588362583
      ],
      [
        "▁තාත්තා",
        -8.839702475216932
      ],
      [
        "▁හැමෝම",
        -8.840251100837085
      ],
      [
        "▁රතිචාර",
        -8.840342281310587
      ],
      [
        "▁කරයි",
        -8.841158263628774
      ],
      [
        "▁තහනම්",
        -8.841763727630209
      ],
      [
        "▁සිල්වා",
        -8.842360237226174
      ],
      [
        "▁විවාහ",
        -8.843894257751126
      ],
      [
        "▁තත්වය",
        -8.844525783744206
      ],
      [
        "▁දීම",
        -8.844616501732606
      ],
      [
        "▁ලක්ෂ",
        -8.845287093652992
      ],
      [
        "▁ආකාරය",
        -8.847292134316547
      ],
      [
        "▁කිරීමෙන්",
        -8.84801087372126
      ],
      [
        "▁සමත්",
        -8.849876617445613
      ],
      [
        "▁නියෝජ්",
        -8.853589053438144
      ],
      [
        "▁අනතුරුව",
        -8.855322543779835
      ],
      [
        "▁නිර්මාණ",
        -8.855831870282957
      ],
      [
        "▁වර්ග",
        -8.855960953408575
      ],
      [
        "▁බැවින්",
        -8.857044658116122
      ],
      [
        "▁තේ",
        -8.857046510444839
      ],
      [
        "▁එ",
        -8.85752602107867
      ],
      [
        "▁අමතරව",
        -8.85929888348517
      ],
      [
        "▁නෙමෙයි",
        -8.859564492996721
      ],
      [
        "▁රෝග",
        -8.861304531997611
      ],
      [
        "▁දෙනෙකු",
        -8.861438247530412
      ],
      [
        "▁යාම",
        -8.861565633095882
      ],
      [
        "▁මණ්ඩලය",
        -8.863144228578552
      ],
      [
        "▁කළා",
        -8.864893759666941
      ],
      [
        "▁හැමදාම",
        -8.86583851240302
      ],
      [
        "▁නෑ...",
        -8.866672297246438
      ],
      [
        "▁ගත්තා.",
        -8.8671138266069
      ],
      [
        "▁කිව්වා",
        -8.869823073781404
      ],
      [
        "▁ණය",
        -8.870218623694855
      ],
      [
        "▁බොරු",
        -8.871017784011059
      ],
      [
        "▁තෙල්",
        -8.87116222454465
      ],
      [
        "▁වෙන්",
        -8.87132619857788
      ],
      [
        "▁අග්",
        -8.872282846616997
      ],
      [
        "▁කි",
        -8.873083730855228
      ],
      [
        "▁රීපාල",
        -8.875769164467055
      ],
      [
        "▁ලිංගික",
        -8.875845562753542
      ],
      [
        "▁ගමන",
        -8.877252477673977
      ],
      [
        "▁එකත්",
        -8.877377270158044
      ],
      [
        "▁ගැනීමේ",
        -8.87858406294674
      ],
      [
        "කෝ",
        -8.878716202163083
      ],
      [
        "▁හට",
        -8.878745982980671
      ],
      [
        "▁Hiru",
        -8.879514668347836
      ],
      [
        "▁විවෘත",
        -8.882449364774033
      ],
      [
        "▁//",
        -8.883001218970831
      ],
      [
        "▁දාල",
        -8.883143991750593
      ],
      [
        "ශ්",
        -8.883988480737182
      ],
      [
        "“",
        -8.886042234389805
      ],
      [
        "▁වෙතත්",
        -8.886559687642126
      ],
      [
        "▁උනා",
        -8.888016265727053
      ],
      [
        "▁පහර",
        -8.888044197744206
      ],
      [
        "▁හිතන්නේ",
        -8.888102520413836
      ],
      [
        "▁බලාගෙන",
        -8.889812299231323
      ],
      [
        "▁ලදී.",
        -8.890231974774835
      ],
      [
        "▁මුළු",
        -8.890760261139587
      ],
      [
        "▁මෙ",
        -8.891858864018813
      ],
      [
        "▁කවුද",
        -8.893241798656707
      ],
      [
        "▁සිදුවන",
        -8.894234991504074
      ],
      [
        "▁පිරිස",
        -8.896808828315525
      ],
      [
        "▁Previous",
        -8.896909953834275
      ],
      [
        "▁සමාජය",
        -8.897805790248835
      ],
      [
        "▁ලෝකය",
        -8.898241173943891
      ],
      [
        "▁දන්නෙ",
        -8.898317032979312
      ],
      [
        "▁තිබ්බ",
        -8.898889694763504
      ],
      [
        "▁බය",
        -8.899052244354483
      ],
      [
        "▁at",
        -8.899303857926576
      ],
      [
        "▁ගන්නේ",
        -8.899441731267316
      ],
      [
        "▁වෙමින්",
        -8.90035361910481
      ],
      [
        "▁සුපිරි",
        -8.903157304403937
      ],
      [
        "▁විතරයි",
        -8.903744647775373
      ],
      [
        "▁පිහිටි",
        -8.904862307325061
      ],
      [
        "▁Next",
        -8.90488463412169
      ],
      [
        "▁වනු",
        -8.905786402403898
      ],
      [
        "▁ඈ",
        -8.906172926884341
      ],
      [
        "▁හිතේ",
        -8.906591850717867
      ],
      [
        "▁පරණ",
        -8.908076275009735
      ],
      [
        "▁සදහන්",
        -8.908449944109023
      ],
      [
        "▁තිබුණේ",
        -8.909665141017072
      ],
      [
        "▁වේ",
        -8.910241390944641
      ],
      [
        "▁වුනේ",
        -8.910661735046762
      ],
      [
        "▁කරන්නෙ",
        -8.913113178620119
      ],
      [
        "▁A",
        -8.913950122308115
      ],
      [
        "▁19",
        -8.917380705610595
      ],
      [
        "▁ඒකාබද්ධ",
        -8.917601379121527
      ],
      [
        "▁යම",
        -8.920885205300124
      ],
      [
        "▁ලේ",
        -8.921954348061526
      ],
      [
        "▁යුද",
        -8.922742955309936
      ],
      [
        "▁තවදුරටත්",
        -8.92282671832314
      ],
      [
        "▁ගණන්",
        -8.923834829571785
      ],
      [
        "▁අගය",
        -8.925184065373614
      ],
      [
        "▁රථ",
        -8.927115499796482
      ],
      [
        "▁ඝාතනය",
        -8.927265127411179
      ],
      [
        "▁සම්මාන",
        -8.927832313166267
      ],
      [
        "▁රපට",
        -8.928016590611136
      ],
      [
        "▁කැබිනට්",
        -8.928036468636234
      ],
      [
        "නේ.",
        -8.928658740418294
      ],
      [
        "▁පක්ෂයේ",
        -8.929272817116136
      ],
      [
        "▁ලිපියක්",
        -8.929792067020056
      ],
      [
        "▁මරණ",
        -8.930328651737643
      ],
      [
        "▁හිතන්න",
        -8.930871923176687
      ],
      [
        "▁සාර්ථක",
        -8.931249847871918
      ],
      [
        "▁වෙනුවට",
        -8.931474903766308
      ],
      [
        "වෙලා",
        -8.931961756832527
      ],
      [
        "▁(1)",
        -8.932446984518684
      ],
      [
        "▁අවස්ථා",
        -8.933286408829192
      ],
      [
        "රාමාත්",
        -8.93335162530532
      ],
      [
        "▁චන්ද්",
        -8.934997189327108
      ],
      [
        "▁ආයතනය",
        -8.936083965222082
      ],
      [
        "a",
        -8.936362201530057
      ],
      [
        "▁එසේම",
        -8.936466013399698
      ],
      [
        "▁ඉන්නවා.",
        -8.936478405483179
      ],
      [
        "▁රශ්නයක්",
        -8.939595380095383
      ],
      [
        "▁කට්ටිය",
        -8.940237299117376
      ],
      [
        "තා",
        -8.940298204452363
      ],
      [
        "▁මොනවා",
        -8.940418344527682
      ],
      [
        "▁පා",
        -8.940708368673317
      ],
      [
        "▁ඉහත",
        -8.94099011136712
      ],
      [
        "▁රෑ",
        -8.941745169188204
      ],
      [
        "මින්",
        -8.94183603541899
      ],
      [
        "▁නැද්ද",
        -8.945647890421728
      ],
      [
        "▁සැබෑ",
        -8.94741506683188
      ],
      [
        "▁අතට",
        -8.95132195932273
      ],
      [
        "▁නිවාස",
        -8.952545793064308
      ],
      [
        "▁ආණ්ඩුවේ",
        -8.953483139097235
      ],
      [
        "▁[",
        -8.953671887868477
      ],
      [
        "▁කියපු",
        -8.954013054310474
      ],
      [
        "▁ගිනි",
        -8.955675655161784
      ],
      [
        "▁වනවිට",
        -8.956744789932454
      ],
      [
        "සා",
        -8.95790304644854
      ],
      [
        "▁සුළු",
        -8.960172592547828
      ],
      [
        "▁වුණේ",
        -8.960380030818463
      ],
      [
        "▁අන්",
        -8.961149964100041
      ],
      [
        "කු",
        -8.961760223065536
      ],
      [
        "▁යාල",
        -8.962822155229691
      ],
      [
        "▁භාර",
        -8.963786991410188
      ],
      [
        "▁ද්",
        -8.965094740952587
      ],
      [
        "යි,",
        -8.966291950440972
      ],
      [
        "▁නේ",
        -8.967234354101874
      ],
      [
        "▁මෙතන",
        -8.96746253305524
      ],
      [
        "▁ගී",
        -8.968067160206516
      ],
      [
        "▁අහන්න",
        -8.968696847314638
      ],
      [
        "▁යුත්තේ",
        -8.96969025141346
      ],
      [
        "▁කිරි",
        -8.971405361468005
      ],
      [
        "▁යළි",
        -8.972734698191324
      ],
      [
        "වීම",
        -8.97352215817364
      ],
      [
        "▁උදේ",
        -8.97427192974185
      ],
      [
        "▁එකෙක්",
        -8.975884739399897
      ],
      [
        "වෙන",
        -8.976824476818548
      ],
      [
        "▁2016",
        -8.978001473537589
      ],
      [
        "යින්",
        -8.978153676612838
      ],
      [
        "▁ඉතිහාසය",
        -8.978718352038692
      ],
      [
        "▁සිද්ධිය",
        -8.97899594365464
      ],
      [
        "▁පාර්ලිමේන්තුව",
        -8.979970616696946
      ],
      [
        "▁රැගෙන",
        -8.980370192810183
      ],
      [
        "▁දියුණු",
        -8.980522049285039
      ],
      [
        "▁විශ්වවිද්",
        -8.980738962161968
      ],
      [
        "▁සහභාගී",
        -8.981497390370986
      ],
      [
        "නං",
        -8.982001272694212
      ],
      [
        "▁සිටියේය.",
        -8.98297943004647
      ],
      [
        "▁දුර",
        -8.983175935744445
      ],
      [
        "▁සිත",
        -8.984526250394797
      ],
      [
        "▁පට්ට",
        -8.98454507215267
      ],
      [
        "▁පාට",
        -8.985107965523966
      ],
      [
        "▁C",
        -8.985410602202677
      ],
      [
        "▁සකස්",
        -8.985696977140044
      ],
      [
        "▁යනවා.",
        -8.985809966604778
      ],
      [
        "▁ඔස්සේ",
        -8.986860809357479
      ],
      [
        "▁රථම",
        -8.987773036115591
      ],
      [
        "මි",
        -8.987878911492427
      ],
      [
        "▁හිතට",
        -8.988037940280714
      ],
      [
        "ඩ",
        -8.98896177729139
      ],
      [
        "▁රැකියා",
        -8.989195545465034
      ],
      [
        "▁සභාව",
        -8.989306227051358
      ],
      [
        "▁ජල",
        -8.991228841949757
      ],
      [
        "▁වාර්තාව",
        -8.991400492858208
      ],
      [
        "▁9",
        -8.991860725250323
      ],
      [
        "▁ඌ",
        -8.99278026204205
      ],
      [
        "▁දෙවන",
        -8.993490727138578
      ],
      [
        "▁අවධානය",
        -8.994366165020363
      ],
      [
        "▁11",
        -8.995316438501629
      ],
      [
        "කො",
        -8.995811214074948
      ],
      [
        "▁ඉතාම",
        -8.995865502545858
      ],
      [
        "▁කිව්වේ",
        -8.997973349154307
      ],
      [
        "▁ඡායාරූප",
        -8.998609656869608
      ],
      [
        "▁ගරු",
        -9.00069326954045
      ],
      [
        "▁පිළිතුරු",
        -9.001724228905816
      ],
      [
        "▁මැද",
        -9.008637782894711
      ],
      [
        "e",
        -9.0091359156084
      ],
      [
        "▁දීලා",
        -9.010002059945865
      ],
      [
        "▁හිනා",
        -9.010080323434291
      ],
      [
        "▁නිදහස",
        -9.010200577378402
      ],
      [
        "▁කවදාවත්",
        -9.010695968374348
      ],
      [
        "වා.",
        -9.012096057092348
      ],
      [
        "▁*",
        -9.012606153549337
      ],
      [
        "▁රැසක්",
        -9.013827136049272
      ],
      [
        "▁අංක",
        -9.01497700358014
      ],
      [
        "▁ක්ෂේත්",
        -9.01562458468868
      ],
      [
        "▁ඇතුළත්",
        -9.016427566326731
      ],
      [
        "▁දෙපාර්තමේන්තුව",
        -9.016465247704545
      ],
      [
        "▁රශ්නය",
        -9.016746149019752
      ],
      [
        "▁හිටියේ",
        -9.016994805459909
      ],
      [
        "▁ඇත",
        -9.017405344918323
      ],
      [
        "▁නඩු",
        -9.019197740903216
      ],
      [
        "▁විතරයි.",
        -9.019504614506939
      ],
      [
        "▁නිවැරදි",
        -9.020326292514321
      ],
      [
        "▁සටන්",
        -9.020813245022236
      ],
      [
        "▁රන්",
        -9.022698100547974
      ],
      [
        "▁දවස",
        -9.02323363212074
      ],
      [
        "▁රීසි",
        -9.023364754997875
      ],
      [
        "කම්",
        -9.023672711422716
      ],
      [
        "▁තුනක්",
        -9.023678201589508
      ],
      [
        "▁යමක්",
        -9.02425485321615
      ],
      [
        "▁නමින්",
        -9.027598573486799
      ],
      [
        "▁කාල",
        -9.030156464162571
      ],
      [
        "▁තියනවා",
        -9.030461128804681
      ],
      [
        "▁මතු",
        -9.030780385391225
      ],
      [
        "▁මාර",
        -9.033403563430022
      ],
      [
        "▁පිරිමි",
        -9.034799080054187
      ],
      [
        "▁තැන්",
        -9.035986760938869
      ],
      [
        "කදී",
        -9.037323508448948
      ],
      [
        "▁දැනුම",
        -9.03747004016569
      ],
      [
        "▁නතර",
        -9.037942553243376
      ],
      [
        "ගන්න",
        -9.03926747181016
      ],
      [
        "▁පැවසීය.",
        -9.03953750357985
      ],
      [
        "▁නගර",
        -9.039719013880381
      ],
      [
        "▁පුරුදු",
        -9.042845597149194
      ],
      [
        "▁ආවේ",
        -9.043836126528522
      ],
      [
        "▁හොඳින්",
        -9.044168558908574
      ],
      [
        "▁වගේ.",
        -9.044213754349961
      ],
      [
        "▁පවුලේ",
        -9.044758315852008
      ],
      [
        "▁දෙස",
        -9.045034034280896
      ],
      [
        "▁යාලයේ",
        -9.046918727845197
      ],
      [
        "▁සැලසුම්",
        -9.047085992439776
      ],
      [
        "ග්",
        -9.0475018179772
      ],
      [
        "▁ඉටු",
        -9.047880358156508
      ],
      [
        "▁බලන",
        -9.048589456185706
      ],
      [
        "▁15",
        -9.049094962249226
      ],
      [
        "▁පුතා",
        -9.049512244756503
      ],
      [
        "▁දැනුම්",
        -9.050219408170403
      ],
      [
        "▁ගමේ",
        -9.050486849009893
      ],
      [
        "▁පොඩ්ඩක්",
        -9.052099258960903
      ],
      [
        "▁සියලුම",
        -9.053913910546623
      ],
      [
        ";",
        -9.053976102729806
      ],
      [
        "▁දැක",
        -9.054036802341802
      ],
      [
        "▁හෙවත්",
        -9.054094621174976
      ],
      [
        "▁සම්පූර්ණ",
        -9.054804854940972
      ],
      [
        "▁පොලීසිය",
        -9.0552148126388
      ],
      [
        "▁යාමට",
        -9.055701805660412
      ],
      [
        "▁සහභාගි",
        -9.055797770498843
      ],
      [
        "▁නිසා.",
        -9.05611076931148
      ],
      [
        "......",
        -9.056565940797498
      ],
      [
        "▁අති",
        -9.058817898685803
      ],
      [
        "▁වුණත්",
        -9.059403690213532
      ],
      [
        "▁ආකාරයට",
        -9.059504291631258
      ],
      [
        "▁කඩා",
        -9.060902286926147
      ],
      [
        "▁අභ්",
        -9.062151647476991
      ],
      [
        "▁දෙන්නේ",
        -9.063979883829514
      ],
      [
        "▁බලන්න.",
        -9.064288626336484
      ],
      [
        "▁සිනමා",
        -9.06459626183145
      ],
      [
        "▁හොඳයි",
        -9.067950033662829
      ],
      [
        "▁නැවතත්",
        -9.06934889872143
      ],
      [
        "▁අහිමි",
        -9.069587181252642
      ],
      [
        "▁දිග",
        -9.069699651281274
      ],
      [
        "▁16",
        -9.07108824143441
      ],
      [
        "▁හිටිය",
        -9.071838516555392
      ],
      [
        "▁කොයි",
        -9.072386629733295
      ],
      [
        "▁කථා",
        -9.072590029174462
      ],
      [
        "▁ඇයට",
        -9.072753036389624
      ],
      [
        "▁වැඩිදුරට",
        -9.073357917715946
      ],
      [
        "▁විසි",
        -9.073612691531945
      ],
      [
        "▁වේවා",
        -9.07433505308843
      ],
      [
        "▁ඕනෙ",
        -9.075768675269178
      ],
      [
        "න්න",
        -9.076069136778926
      ],
      [
        "▁පෙරේරා",
        -9.076160500351055
      ],
      [
        "▁ඉතිරි",
        -9.0767946290459
      ],
      [
        "▁යයේ",
        -9.077161522282033
      ],
      [
        "▁තිබුනේ",
        -9.07806881091022
      ],
      [
        "▁ජනවාරි",
        -9.078108174244516
      ],
      [
        "▁හදන්න",
        -9.079266800675386
      ],
      [
        "▁අත්දැකීම්",
        -9.07945767812539
      ],
      [
        "▁පත්ව",
        -9.079763107286688
      ],
      [
        "▁තොරව",
        -9.08020284558367
      ],
      [
        "ුණු",
        -9.081275319198113
      ],
      [
        "▁සම්පත්",
        -9.08162983303945
      ],
      [
        "▁අවසාන",
        -9.081709631146026
      ],
      [
        "▁වර්ධනය",
        -9.081920244899848
      ],
      [
        "▁භාවිත",
        -9.083348856091565
      ],
      [
        "▁පිස්සු",
        -9.083431641412357
      ],
      [
        "▁ආදී",
        -9.083589612330176
      ],
      [
        "▁නුවර",
        -9.08432507204185
      ],
      [
        "▁තහවුරු",
        -9.085557573756898
      ],
      [
        "▁රතිකාර",
        -9.086307284642961
      ],
      [
        "▁රටවල",
        -9.086602064619388
      ],
      [
        "▁නිසි",
        -9.086684585494174
      ],
      [
        "▁ඩොලර්",
        -9.08740952725085
      ],
      [
        "▁වටිනා",
        -9.08874803661713
      ],
      [
        "▁කිව්ව",
        -9.091467368004231
      ],
      [
        "▁බැංකු",
        -9.09215535944137
      ],
      [
        "රු",
        -9.092479083460344
      ],
      [
        "▁බන්",
        -9.092719223459431
      ],
      [
        "▁නියෝජනය",
        -9.093158423236307
      ],
      [
        "▁ගන්න.",
        -9.09356236870661
      ],
      [
        "▁හොඳට",
        -9.093751705259244
      ],
      [
        "▁එපා.",
        -9.094304288835188
      ],
      [
        "ed",
        -9.095367171713454
      ],
      [
        "▁එල",
        -9.09719998674727
      ],
      [
        "▁එයින්",
        -9.097241901419729
      ],
      [
        "▁ගොඩාක්",
        -9.098418487777938
      ],
      [
        "අ",
        -9.099152628049788
      ],
      [
        "▁කාන්තා",
        -9.099460440691718
      ],
      [
        "▁එකක්.",
        -9.100098045893908
      ],
      [
        "▁news",
        -9.10112455241448
      ],
      [
        "▁මෙවර",
        -9.101165812808134
      ],
      [
        "▁තියෙන්නේ.",
        -9.102003791993116
      ],
      [
        "▁හම්බ",
        -9.102775791811741
      ],
      [
        "▁නොකර",
        -9.10290970084288
      ],
      [
        "▁ගීතය",
        -9.103915270841112
      ],
      [
        "▁දවසක",
        -9.105047773506023
      ],
      [
        "▁සුන්දර",
        -9.105460552419427
      ],
      [
        "ing",
        -9.105477449588395
      ],
      [
        "▁හතර",
        -9.105489696100111
      ],
      [
        "▁රමාණය",
        -9.105749879659736
      ],
      [
        "▁ළමා",
        -9.105928270052276
      ],
      [
        "▁ළඟ",
        -9.10661686711422
      ],
      [
        "▁පද",
        -9.109241825593944
      ],
      [
        "▁පැවැත්වෙන",
        -9.110127978960634
      ],
      [
        "▁රාදේශීය",
        -9.110571391021347
      ],
      [
        "▁කොහෙද",
        -9.111193777995007
      ],
      [
        "m",
        -9.111459025396016
      ],
      [
        "▁ළමයි",
        -9.111525551985025
      ],
      [
        "▁වෙනසක්",
        -9.112321478741226
      ],
      [
        "▁සර්",
        -9.11335860366976
      ],
      [
        "▁හරියටම",
        -9.114461738602394
      ],
      [
        "▁යට",
        -9.115330701241454
      ],
      [
        "▁පහසුකම්",
        -9.115881402055779
      ],
      [
        "▁article",
        -9.116128793295335
      ],
      [
        "▁එනම්",
        -9.117102269493294
      ],
      [
        "▁මෙතෙක්",
        -9.117318288515815
      ],
      [
        "▁යක්ෂ",
        -9.118109518731192
      ],
      [
        "▁රජාතන්ත්",
        -9.12074903011153
      ],
      [
        "▁හමු",
        -9.120995557599066
      ],
      [
        "බ",
        -9.121541067043315
      ],
      [
        "▁මහජන",
        -9.12158919845566
      ],
      [
        "▁වැඩිය",
        -9.123678511024405
      ],
      [
        "▁අයිතිය",
        -9.124120511672942
      ],
      [
        "▁ආපහු",
        -9.124862290836326
      ],
      [
        "▁කළු",
        -9.124982602927284
      ],
      [
        "▁තරගය",
        -9.125007527913564
      ],
      [
        "▁දෙවැනි",
        -9.125157540471633
      ],
      [
        "▁මංගල",
        -9.125520952612554
      ],
      [
        "▁ගනිමින්",
        -9.125918602525392
      ],
      [
        "▁කඩ",
        -9.1268681114475
      ],
      [
        "▁උණුසුම්",
        -9.129671073241703
      ],
      [
        "▁යුත්",
        -9.13025379372997
      ],
      [
        "▁අන්න",
        -9.131124322344943
      ],
      [
        "ත්වය",
        -9.131206627034693
      ],
      [
        "▁එන්නේ",
        -9.131917244315945
      ],
      [
        "▁මඟින්",
        -9.134666466496146
      ],
      [
        "▁රයේ",
        -9.134990135449614
      ],
      [
        "▁කාර්ය",
        -9.135432195989981
      ],
      [
        "▁මිත්",
        -9.136836032509635
      ],
      [
        "▁තුවාල",
        -9.139106245355503
      ],
      [
        "▁කරා",
        -9.140067575380186
      ],
      [
        "▁බිහි",
        -9.140098553731
      ],
      [
        "▁දකින",
        -9.141509429364746
      ],
      [
        "▁රහ",
        -9.142792838006073
      ],
      [
        "▁ෆිල්ම්",
        -9.142986574250052
      ],
      [
        "▁මුදලක්",
        -9.144037916439775
      ],
      [
        "▁ලියලා",
        -9.144528660012927
      ],
      [
        "▁අවම",
        -9.145441867438414
      ],
      [
        "▁තිබුණු",
        -9.145880955591437
      ],
      [
        "▁උනාට",
        -9.146354015919464
      ],
      [
        "▁ඇමැති",
        -9.14650572733805
      ],
      [
        "නය",
        -9.146660675719353
      ],
      [
        "▁ස්ථාන",
        -9.14685842766017
      ],
      [
        "▁ආචාර්ය",
        -9.148237820579578
      ],
      [
        "▁බෙදා",
        -9.148647575282887
      ],
      [
        "▁උදව්",
        -9.14926892706507
      ],
      [
        "▁හින්දා",
        -9.150609667723682
      ],
      [
        "▁13",
        -9.150651503878544
      ],
      [
        "▁දන්නවා",
        -9.150801145376557
      ],
      [
        "▁එක්ව",
        -9.152535240549714
      ],
      [
        "▁තිබුන",
        -9.153648948926119
      ],
      [
        "▁දන්නා",
        -9.15494869258444
      ],
      [
        "▁30",
        -9.155121291423814
      ],
      [
        "▁කල්පනා",
        -9.156696004238832
      ],
      [
        "▁සහතික",
        -9.157798371561535
      ],
      [
        "ශ",
        -9.158310960148263
      ],
      [
        "▁පරාජය",
        -9.158757642785563
      ],
      [
        "▁වත්මන්",
        -9.158810285302014
      ],
      [
        "▁අනික",
        -9.159594181031439
      ],
      [
        "යක",
        -9.161104286377288
      ],
      [
        "▁කන",
        -9.161385406492256
      ],
      [
        "▁කතන්දර",
        -9.161677862804034
      ],
      [
        "▁ඔයාගේ",
        -9.162884246836914
      ],
      [
        "▁කෙරෙන",
        -9.162886522520566
      ],
      [
        "▁රසිද්ධ",
        -9.163735612820968
      ],
      [
        "▁බෑ.",
        -9.163860870231975
      ],
      [
        "▁පැත්තේ",
        -9.163999890117271
      ],
      [
        "▁ජලය",
        -9.165009233040642
      ],
      [
        "▁රිතාන්",
        -9.165231638923538
      ],
      [
        "▁දුක්",
        -9.165317709426946
      ],
      [
        "▁තිබිණි.",
        -9.165602050087374
      ],
      [
        "▁ලැබී",
        -9.16571707036431
      ],
      [
        "▁අතරින්",
        -9.167061775697384
      ],
      [
        "▁චරිත",
        -9.167681101143952
      ],
      [
        "▁to",
        -9.167812785978143
      ],
      [
        "▁ටෙස්ට්",
        -9.167934308012338
      ],
      [
        "▁වු",
        -9.16986597016647
      ],
      [
        "▁දවස්වල",
        -9.171146807603597
      ],
      [
        "යකට",
        -9.171245321520477
      ],
      [
        "▁හිතෙන",
        -9.17220513167888
      ],
      [
        "▁රමාණයක්",
        -9.172514911182423
      ],
      [
        "▁පොල්",
        -9.173259632763347
      ],
      [
        "▁වුවත්",
        -9.17379919753796
      ],
      [
        "1",
        -9.174174885766844
      ],
      [
        "යි..",
        -9.174211712812347
      ],
      [
        "▁දිනවල",
        -9.174518649183355
      ],
      [
        "▁මූල්",
        -9.174551155029762
      ],
      [
        "▁රපටය",
        -9.177472218573957
      ],
      [
        "▁නාවික",
        -9.178009883236253
      ],
      [
        "▁සිදුවූ",
        -9.178924532341231
      ],
      [
        "▁පැත්තට",
        -9.179274011980539
      ],
      [
        "▁පැතුම්",
        -9.17933780898735
      ],
      [
        "▁තියනවා.",
        -9.179627623780554
      ],
      [
        "▁පැන",
        -9.179638135154125
      ],
      [
        "▁ඉඩම්",
        -9.17967543092129
      ],
      [
        "▁එකා",
        -9.180044202317724
      ],
      [
        "▁අන්තිමට",
        -9.181617379525816
      ],
      [
        "▁සති",
        -9.18175746049717
      ],
      [
        "▁ආසන්න",
        -9.182553537492254
      ],
      [
        "▁හෙළි",
        -9.183812148996136
      ],
      [
        "වන්",
        -9.18435820683786
      ],
      [
        "▁අපිත්",
        -9.184725146403306
      ],
      [
        "▁B",
        -9.185896459229742
      ],
      [
        "යෙකු",
        -9.18612796827678
      ],
      [
        "▁අලි",
        -9.187245001597235
      ],
      [
        "▁වැඩසටහන",
        -9.187386781012947
      ],
      [
        "▁ග",
        -9.18764783756188
      ],
      [
        "▁එනවා",
        -9.187677166226035
      ],
      [
        "ගම",
        -9.187727281812727
      ],
      [
        "▁සාහිත්",
        -9.189293766570382
      ],
      [
        "▁සමාන",
        -9.190372595369626
      ],
      [
        "▁මොකක්",
        -9.191026508356302
      ],
      [
        "▁සභාවේ",
        -9.19155245043121
      ],
      [
        "▁අදහසක්",
        -9.191775080828648
      ],
      [
        "යො",
        -9.196588114577475
      ],
      [
        "▁කෝ",
        -9.197009357472727
      ],
      [
        "▁කවුරුත්",
        -9.197267090782432
      ],
      [
        "▁වෘත්තීය",
        -9.198487093728946
      ],
      [
        "▁මාරු",
        -9.19896188617421
      ],
      [
        "▁උඹට",
        -9.19923956389297
      ],
      [
        "er",
        -9.200614407347649
      ],
      [
        "▁උපන්",
        -9.200758674367087
      ],
      [
        "▁දකින්න",
        -9.20117929004661
      ],
      [
        "▁කුමාර",
        -9.20159175716066
      ],
      [
        "මු",
        -9.202794150098812
      ],
      [
        "▁ඉන්නෙ",
        -9.203706987296904
      ],
      [
        "▁ස්",
        -9.204646636162606
      ],
      [
        "▁වන්න",
        -9.204706715898457
      ],
      [
        "ෙක්",
        -9.20492369669699
      ],
      [
        "▁උත්තර",
        -9.205780079480245
      ],
      [
        "▁මල්ලි",
        -9.206424567232311
      ],
      [
        "▁වුනා.",
        -9.206702512332324
      ],
      [
        "▁සිසුන්",
        -9.207209799829732
      ],
      [
        "▁ඉන්දියාවේ",
        -9.207600184115522
      ],
      [
        "▁නෙවෙයි.",
        -9.207697511018164
      ],
      [
        "▁තුළින්",
        -9.207787316172352
      ],
      [
        "▁හැකියි.",
        -9.207789842849515
      ],
      [
        "▁සුව",
        -9.208719399137344
      ],
      [
        "▁මුල",
        -9.209199187251075
      ],
      [
        "▁කාර්",
        -9.209673036338812
      ],
      [
        "▁උනා.",
        -9.210528186217754
      ],
      [
        "▁PM",
        -9.211566334394831
      ],
      [
        "▁බවත්,",
        -9.211721082089607
      ],
      [
        "▁පවත්වාගෙන",
        -9.21196821842021
      ],
      [
        "▁ජංගම",
        -9.211993651130875
      ],
      [
        "▁එයාට",
        -9.212575486146829
      ],
      [
        "▁තෝරා",
        -9.21282991068
      ],
      [
        "▁මහත්",
        -9.214654388028634
      ],
      [
        "▁රජ",
        -9.215027059280445
      ],
      [
        "▁වියදම්",
        -9.215405939326686
      ],
      [
        "▁සුදුසු",
        -9.2155267343198
      ],
      [
        "ජ",
        -9.216358371827624
      ],
      [
        "▁ගන්නට",
        -9.216643803324825
      ],
      [
        "▁පසුගියදා",
        -9.216691487994376
      ],
      [
        "▁කා",
        -9.217562951906041
      ],
      [
        "▁සු",
        -9.217779775123807
      ],
      [
        "▁එරෙහි",
        -9.218386271974877
      ],
      [
        "▁14",
        -9.21903002814692
      ],
      [
        "පි",
        -9.22060581862618
      ],
      [
        "▁පමණි.",
        -9.222928688391027
      ],
      [
        "▁කණ්ඩායමේ",
        -9.223120011097793
      ],
      [
        "▁ආගමික",
        -9.224596596722344
      ],
      [
        "▁දෙදෙනා",
        -9.224681050975683
      ],
      [
        "▁ඉඳන්",
        -9.224911159141545
      ],
      [
        "▁D",
        -9.225000476028043
      ],
      [
        "▁සියළු",
        -9.225568544580966
      ],
      [
        "▁ඉන්දියාව",
        -9.226325639931337
      ],
      [
        "බ්",
        -9.226680288674359
      ],
      [
        "▁අනාවරණය",
        -9.226916005163075
      ],
      [
        "විය",
        -9.227054628478038
      ],
      [
        "▁දුරකථන",
        -9.22712989998509
      ],
      [
        "▁යයෙන්",
        -9.228132573474891
      ],
      [
        "▁සරත්",
        -9.228903050557104
      ],
      [
        "▁රහණය",
        -9.229428788782915
      ],
      [
        "▁ෆේස්බුක්",
        -9.229576213240499
      ],
      [
        "▁එමෙන්ම",
        -9.230139653484423
      ],
      [
        "▁මහතාට",
        -9.23020999439545
      ],
      [
        "▁මහනුවර",
        -9.231080499700838
      ],
      [
        "▁හමුදාව",
        -9.231231208760391
      ],
      [
        "ික",
        -9.231240151191066
      ],
      [
        "▁තනි",
        -9.23212207665637
      ],
      [
        "▁සටහන",
        -9.232337512220703
      ],
      [
        "▁ඕන.",
        -9.233854614902484
      ],
      [
        "▁දාන",
        -9.234874670855323
      ],
      [
        "▁සතුට",
        -9.235157253142432
      ],
      [
        "▁රටක්",
        -9.236735195968482
      ],
      [
        "▁මෝටර්",
        -9.237654803265514
      ],
      [
        "▁තැනක්",
        -9.237898686778827
      ],
      [
        "▁මෙලෙස",
        -9.239723873394944
      ],
      [
        "▁ආව",
        -9.242567855128932
      ],
      [
        "▁වුණා",
        -9.243154024922992
      ],
      [
        "▁පිටුව",
        -9.24453082264844
      ],
      [
        "▁අඩවි",
        -9.244995205415634
      ],
      [
        "▁ආරක්ෂා",
        -9.245021106281039
      ],
      [
        "ව්",
        -9.245091018094941
      ],
      [
        "▁අළුත්",
        -9.245726002317104
      ],
      [
        "▁අධිකරණ",
        -9.24737718720932
      ],
      [
        "▁පියා",
        -9.247874461220714
      ],
      [
        "▁ලියා",
        -9.247907883761634
      ],
      [
        "▁ධර්ම",
        -9.24839642208237
      ],
      [
        "▁ආයෙත්",
        -9.248540724663895
      ],
      [
        "▁රික්",
        -9.249167987002178
      ],
      [
        "▁මරා",
        -9.249458570701147
      ],
      [
        "▁වරක්",
        -9.24962234527915
      ],
      [
        "▁පහළ",
        -9.250924186456166
      ],
      [
        "▁සීමා",
        -9.25101147095907
      ],
      [
        "▁සංගීත",
        -9.251096058069304
      ],
      [
        "ඩි",
        -9.253731234885528
      ],
      [
        "▁විධායක",
        -9.254563350036957
      ],
      [
        "▁මහත්තයා",
        -9.255042668089445
      ],
      [
        "▁ඉ",
        -9.255564006913122
      ],
      [
        "▁බැඳුම්කර",
        -9.2562969483693
      ],
      [
        "▁වෙනකොට",
        -9.256354308219596
      ],
      [
        "▁මිනිස්",
        -9.256489049512236
      ],
      [
        "▁අධිකරණය",
        -9.256715496198762
      ],
      [
        "▁හැමෝටම",
        -9.25689862904979
      ],
      [
        "▁සිටින්නේ",
        -9.257058122743842
      ],
      [
        "▁තිබුණි.",
        -9.257448467813134
      ],
      [
        "▁පිණිස",
        -9.25846499601446
      ],
      [
        "▁ඇද",
        -9.259987997939696
      ],
      [
        "▁දුන්නේ",
        -9.26006942523922
      ],
      [
        "▁යුතුයි",
        -9.260726964486839
      ],
      [
        "ද,",
        -9.261193304473457
      ],
      [
        "▁වුනා",
        -9.261387985446492
      ],
      [
        "▁සමාජයේ",
        -9.26153741454667
      ],
      [
        "▁නියෝග",
        -9.262320120349582
      ],
      [
        "නෙ.",
        -9.26261720182016
      ],
      [
        "▁දේශපාලනය",
        -9.263216584103269
      ],
      [
        "▁පාර්ලිමේන්තුවේ",
        -9.264493766714669
      ],
      [
        "▁චීන",
        -9.265222827121375
      ],
      [
        "▁ගහන්න",
        -9.265366713967687
      ],
      [
        "▁ස්ථානය",
        -9.266153551541038
      ],
      [
        "▁හේතුවක්",
        -9.266843020576687
      ],
      [
        "ච",
        -9.268020141147755
      ],
      [
        "▁වෙනම",
        -9.268158352669374
      ],
      [
        "▁මැයි",
        -9.268651098857593
      ],
      [
        "▁ඡන්දය",
        -9.268754731602055
      ],
      [
        "‘",
        -9.269523737574334
      ],
      [
        "▁ඊ",
        -9.269589220966465
      ],
      [
        "▁යාංශය",
        -9.270598724840344
      ],
      [
        "▁ජ්",
        -9.2711495446942
      ],
      [
        "▁කොටසක්",
        -9.272112902387954
      ],
      [
        "▁යාපාරික",
        -9.273052002929681
      ],
      [
        "▁අනෙකුත්",
        -9.273171351687184
      ],
      [
        "▁කාර්යාලය",
        -9.274055210263459
      ],
      [
        "▁මානසික",
        -9.274653246205231
      ],
      [
        "▁කෝටි",
        -9.27495732063764
      ],
      [
        "▁අංශ",
        -9.275954092014182
      ],
      [
        "▁එකක",
        -9.27775641510717
      ],
      [
        "▁පැවැත්වීමට",
        -9.27805671805304
      ],
      [
        "▁නම්,",
        -9.278559223558908
      ],
      [
        "2",
        -9.279218501127845
      ],
      [
        "▁රබල",
        -9.279589994137051
      ],
      [
        "▁කුමක්",
        -9.279888550756903
      ],
      [
        "▁ඉදිරියේ",
        -9.279952954507042
      ],
      [
        "ෂ",
        -9.28015428565681
      ],
      [
        "හු",
        -9.28223260687976
      ],
      [
        "▁ගත්තා",
        -9.283819847596828
      ],
      [
        "▁උන",
        -9.284960357865781
      ],
      [
        "▁පැරණි",
        -9.285583158873923
      ],
      [
        "▁සතු",
        -9.285620766712327
      ],
      [
        "ැ",
        -9.28609843533632
      ],
      [
        "▁නිතර",
        -9.286196796736618
      ],
      [
        "▁දරුවා",
        -9.2864315644292
      ],
      [
        "▁මාර්ගය",
        -9.287007752526225
      ],
      [
        "▁හිරු",
        -9.287128175444217
      ],
      [
        "▁යහපත්",
        -9.287443760357803
      ],
      [
        "▁රහස්",
        -9.2877012743917
      ],
      [
        "▁මහාචාර්ය",
        -9.288017975218661
      ],
      [
        "සී",
        -9.28811452758543
      ],
      [
        "▁කාන්තාවන්",
        -9.2884425642976
      ],
      [
        "▁බිලියන",
        -9.288717448626077
      ],
      [
        "▁අවුලක්",
        -9.28916146359817
      ],
      [
        "ෙන",
        -9.28917853231221
      ],
      [
        "▁අග",
        -9.29039414607857
      ],
      [
        "▁පෙරමුණ",
        -9.290592645298906
      ],
      [
        "▁හදන",
        -9.290887868860143
      ],
      [
        "▁සතුටු",
        -9.29146587271198
      ],
      [
        "▁කියයි",
        -9.292120608600044
      ],
      [
        "▁තුන්",
        -9.292337323459329
      ],
      [
        "▁හඬ",
        -9.294702894684722
      ],
      [
        "▁මොනවද",
        -9.295018690022632
      ],
      [
        "▁සංගමය",
        -9.295312883008595
      ],
      [
        "▁පුලුවන්.",
        -9.295440711557703
      ],
      [
        "▁කණ්ඩායම්",
        -9.295920515189543
      ],
      [
        "▁සැක",
        -9.296866416960501
      ],
      [
        "▁රමයක්",
        -9.29700439584187
      ],
      [
        "n",
        -9.299327975333727
      ],
      [
        "r",
        -9.29968907889019
      ],
      [
        "වල්",
        -9.299785587471108
      ],
      [
        "▁බැහැ.",
        -9.300005722609711
      ],
      [
        "▁පස්",
        -9.300326477051321
      ],
      [
        "▁කෑ",
        -9.302219436004775
      ],
      [
        "▁17",
        -9.302509292512143
      ],
      [
        "▁25",
        -9.30276930238351
      ],
      [
        "▁මිස",
        -9.303387007883593
      ],
      [
        "▁කියවන",
        -9.303708506000518
      ],
      [
        "▁රාජපක්",
        -9.304871873674756
      ],
      [
        "වු",
        -9.30717869964069
      ],
      [
        "▁අපූරු",
        -9.307475293791487
      ],
      [
        "▁ඉතුරු",
        -9.307881973457285
      ],
      [
        "▁ආරංචි",
        -9.307989434905924
      ],
      [
        "▁රණය",
        -9.30914383059432
      ],
      [
        "▁විරෝධී",
        -9.309237629178114
      ],
      [
        "▁කෙරෙහි",
        -9.309592016314966
      ],
      [
        "▁අවසානයේ",
        -9.30990990500159
      ],
      [
        "▁මහත්මිය",
        -9.310254131001589
      ],
      [
        "▁නෙමෙයි.",
        -9.310316481901568
      ],
      [
        "▁ගැනත්",
        -9.311454183153419
      ],
      [
        "▁මණ්ඩල",
        -9.311663912326786
      ],
      [
        "▁අවස්ථාවේ",
        -9.312781525405537
      ],
      [
        "▁යුතුව",
        -9.312800736436543
      ],
      [
        "▁විභාග",
        -9.313317335109858
      ],
      [
        "▁නිසාම",
        -9.31344658988791
      ],
      [
        "▁කිරීම්",
        -9.314237865427856
      ],
      [
        "▁යනුවෙන්",
        -9.314385399835468
      ],
      [
        "▁මන්",
        -9.31439337643095
      ],
      [
        "▁අන්තිම",
        -9.314602528464569
      ],
      [
        "i",
        -9.314805319035734
      ],
      [
        "▁රතු",
        -9.316378157781987
      ],
      [
        "▁සතියේ",
        -9.31722436265796
      ],
      [
        "ගත්",
        -9.317645951991372
      ],
      [
        "▁දායක",
        -9.318946092389645
      ],
      [
        "▁දවසේ",
        -9.319573134734984
      ],
      [
        "▁of",
        -9.322300047716318
      ],
      [
        "▁රටක",
        -9.322330453560356
      ],
      [
        "▁රනාන්දු",
        -9.322993181659815
      ],
      [
        "▁කොටි",
        -9.3236956631163
      ],
      [
        "▁දැනගන්න",
        -9.32370724573352
      ],
      [
        "▁නිරත",
        -9.323760477655522
      ],
      [
        "▁නි",
        -9.323959049214547
      ],
      [
        "▁ඉඳලා",
        -9.32609562175977
      ],
      [
        "දැයි",
        -9.326375185014818
      ],
      [
        "▁බවය.",
        -9.32687990789045
      ],
      [
        "▁ආශ්",
        -9.32716726645425
      ],
      [
        "▁හදිසි",
        -9.327593999621545
      ],
      [
        "▁බඩු",
        -9.327747637959654
      ],
      [
        "▁විමර්ශන",
        -9.330873751738352
      ],
      [
        "▁කම",
        -9.331629156439096
      ],
      [
        "▁ශක්තිය",
        -9.3324468117563
      ],
      [
        "▁ඉතාමත්",
        -9.334315054349043
      ],
      [
        "▁in",
        -9.335509684995982
      ],
      [
        "▁රූප",
        -9.335580683536975
      ],
      [
        "▁මල",
        -9.33641344085501
      ],
      [
        "▁සිද්ධ",
        -9.337153715105678
      ],
      [
        "▁උප",
        -9.338198302419908
      ],
      [
        "▁ඕනි",
        -9.338691520951174
      ],
      [
        "▁එතන",
        -9.339433834362232
      ],
      [
        "▁ජනතාවගේ",
        -9.340585549775732
      ],
      [
        "▁එජාප",
        -9.340586318626585
      ],
      [
        "▁හදා",
        -9.341151516751566
      ],
      [
        "▁රතිඵල",
        -9.341174903819743
      ],
      [
        "▁මිලදී",
        -9.343073597500817
      ],
      [
        "▁ආතල්",
        -9.343074062105314
      ],
      [
        "▁සංචාරක",
        -9.343205818801593
      ],
      [
        "පා",
        -9.344981075939923
      ],
      [
        "▁නැත",
        -9.345256079553817
      ],
      [
        "▁අනතුරු",
        -9.345497346901317
      ],
      [
        "▁මරු",
        -9.345784794677458
      ],
      [
        "▁භාණ්ඩ",
        -9.34730223259642
      ],
      [
        "▁පුද්ගලයන්",
        -9.347601879637502
      ],
      [
        "නී",
        -9.348792635283125
      ],
      [
        "▁සිදුවීම්",
        -9.350167666262955
      ],
      [
        "▁නගරයේ",
        -9.350399302507178
      ],
      [
        "▁ලැබුණු",
        -9.350850904796184
      ],
      [
        "▁පුහුණු",
        -9.350989227841039
      ],
      [
        "▁කුණු",
        -9.351621965052573
      ],
      [
        "▁ගියාම",
        -9.352718207458675
      ],
      [
        "▁ශක්තිමත්",
        -9.35318470483777
      ],
      [
        "▁වන්නට",
        -9.354312608728645
      ],
      [
        "▁වුවද",
        -9.354538656576036
      ],
      [
        "▁F",
        -9.354739906119395
      ],
      [
        "o",
        -9.354820852038173
      ],
      [
        "▁L",
        -9.35492365077176
      ],
      [
        "▁මන්ද",
        -9.356246692445714
      ],
      [
        "▁දුටු",
        -9.356274836684292
      ],
      [
        "▁පිලිබඳ",
        -9.357711214915927
      ],
      [
        "▁සිදුවීම",
        -9.3580451060042
      ],
      [
        "▁වැය",
        -9.359461442853217
      ],
      [
        "▁සම්මත",
        -9.360289295999351
      ],
      [
        "▁කෙනෙකුට",
        -9.361445600423647
      ],
      [
        "▁කවුරු",
        -9.361964461415731
      ],
      [
        "▁පුද්ගලයා",
        -9.362232720702133
      ],
      [
        "..!",
        -9.363084485782728
      ],
      [
        "▁රතික්ෂේප",
        -9.364120007017974
      ],
      [
        "▁දිවි",
        -9.364621213707856
      ],
      [
        "▁තවම",
        -9.364671708284686
      ],
      [
        "සු",
        -9.364841363867782
      ],
      [
        "▁ඇතුලත්",
        -9.3650456888887
      ],
      [
        "▁අතේ",
        -9.365392507690778
      ],
      [
        "▁තිබෙන්නේ",
        -9.366634774025108
      ],
      [
        "▁සී",
        -9.366908504027608
      ],
      [
        "▁මුදල",
        -9.367300060585361
      ],
      [
        "▁විරෝධය",
        -9.367657907247114
      ],
      [
        "▁කිව්වොත්",
        -9.367677291449084
      ],
      [
        "▁බලන්",
        -9.367861437308907
      ],
      [
        "▁වගෙ",
        -9.367956502383876
      ],
      [
        "▁නිෂ්පාදන",
        -9.368191951080348
      ],
      [
        "▁ඉහල",
        -9.368809925896064
      ],
      [
        "න්ගේ",
        -9.369450741784943
      ],
      [
        "▁සංවිධාන",
        -9.369820339379478
      ],
      [
        "▁රාම",
        -9.37014002999518
      ],
      [
        "තු",
        -9.370639584947083
      ],
      [
        "▁පන්දු",
        -9.371191896671363
      ],
      [
        "යකු",
        -9.371596339144777
      ],
      [
        "▁නැතිනම්",
        -9.371825923453507
      ],
      [
        "▁අහල",
        -9.37197630824869
      ],
      [
        "ගල",
        -9.372126977213021
      ],
      [
        "!!",
        -9.372318144649835
      ],
      [
        "//",
        -9.374716211585474
      ],
      [
        "▁Info",
        -9.374974658068723
      ],
      [
        "▁වහාම",
        -9.37537868839015
      ],
      [
        "▁සිවිල්",
        -9.377092862233898
      ],
      [
        "▁ගනු",
        -9.377582553009457
      ],
      [
        "▁අතරේ",
        -9.379142142503344
      ],
      [
        "_",
        -9.379675720023084
      ],
      [
        "▁ඕනෑ",
        -9.380072152322857
      ],
      [
        "▁සිරා",
        -9.380415300814196
      ],
      [
        "▁නරක",
        -9.38054334587828
      ],
      [
        "▁පර්යේෂණ",
        -9.382547066659079
      ],
      [
        "▁සම්බන්ධව",
        -9.38281588401048
      ],
      [
        "t",
        -9.382838614862983
      ],
      [
        "ලු.",
        -9.383383361283785
      ],
      [
        "▁තැනක",
        -9.38411109610157
      ],
      [
        "ටි",
        -9.384169645858803
      ],
      [
        "▁අහලා",
        -9.384701582773708
      ],
      [
        "▁පදිංචි",
        -9.384786829966368
      ],
      [
        "▁සහය",
        -9.385394363541778
      ],
      [
        "▁අරමුණ",
        -9.385797244437004
      ],
      [
        "▁සංවර්ධනය",
        -9.386604098408867
      ],
      [
        "▁මස්",
        -9.386754276448631
      ],
      [
        "▁ඒකත්",
        -9.387679466993166
      ],
      [
        "වර",
        -9.389030379338074
      ],
      [
        "▁....",
        -9.389186559838324
      ],
      [
        "ක්.",
        -9.38922666878602
      ],
      [
        "ෙයි",
        -9.38967376502879
      ],
      [
        "▁වරාය",
        -9.390480501882493
      ],
      [
        "▁මරණය",
        -9.39155923750972
      ],
      [
        "▁දෙන්නා",
        -9.392688894330433
      ],
      [
        "▁ලාංකික",
        -9.39283042135281
      ],
      [
        "▁පරිගණක",
        -9.393287032103201
      ],
      [
        "▁යාලය",
        -9.394053083210537
      ],
      [
        "▁විමල්",
        -9.394915712444366
      ],
      [
        "▁වෙළෙඳ",
        -9.395394654346756
      ],
      [
        "▁බැහැ",
        -9.396434635980757
      ],
      [
        "▁එකයි",
        -9.397002549098474
      ],
      [
        "▁පාරක්",
        -9.397858209280407
      ],
      [
        "▁හිතන",
        -9.398061900864022
      ],
      [
        "▁21",
        -9.398124831534792
      ],
      [
        "▁යයි.",
        -9.40018167058964
      ],
      [
        "3",
        -9.40041125056597
      ],
      [
        "▁පවුල්",
        -9.400682793478367
      ],
      [
        "▁හිස",
        -9.40173437505057
      ],
      [
        "▁රවෘත්ති",
        -9.402604532900643
      ],
      [
        "▁එලියට",
        -9.402728615559624
      ],
      [
        "මට",
        -9.4035860795466
      ],
      [
        "▁සහාය",
        -9.40601757067827
      ],
      [
        "▁අවස්ථාවක්",
        -9.406240102528795
      ],
      [
        "▁ලැබේ.",
        -9.407510013925801
      ],
      [
        "▁හැවිරිදි",
        -9.407856115040158
      ],
      [
        "▁ආණ්ඩුවට",
        -9.407928783445865
      ],
      [
        "▁හොයා",
        -9.408784513379857
      ],
      [
        "▁අයගේ",
        -9.40917464768043
      ],
      [
        "▁ගණනක්",
        -9.4092203709311
      ],
      [
        "▁සීන්",
        -9.410863425321388
      ],
      [
        "▁තෙක්",
        -9.411077311231747
      ],
      [
        "▁උන්ට",
        -9.411411289862514
      ],
      [
        "▁කිව්වෙ",
        -9.412280995508945
      ],
      [
        "▁වරදක්",
        -9.412356980712048
      ],
      [
        "▁නෙමේ",
        -9.412984383417507
      ],
      [
        "▁යුද්ධය",
        -9.41385616105827
      ],
      [
        "▁හානි",
        -9.413906209100345
      ],
      [
        "▁ගෙවල්",
        -9.414044230263375
      ],
      [
        "▁තීරණ",
        -9.41464264269101
      ],
      [
        "▁බලලා",
        -9.415388796954515
      ],
      [
        "▁විශේෂයෙන්",
        -9.416809812646825
      ],
      [
        "▁එළියට",
        -9.418526157157412
      ],
      [
        "ීය",
        -9.41957692361018
      ],
      [
        "▁විරුද්ධ",
        -9.419849807608227
      ],
      [
        "▁රිකා",
        -9.419952056184364
      ],
      [
        "▁2014",
        -9.420456711213234
      ],
      [
        "▁සමයේ",
        -9.420574008535489
      ],
      [
        "මයි",
        -9.422574688308979
      ],
      [
        "▁2012",
        -9.422962365953186
      ],
      [
        "වෙන්න",
        -9.423174123108826
      ],
      [
        "▁ඉදිරියේදී",
        -9.427319473630952
      ],
      [
        "▁දිසානායක",
        -9.42734811958121
      ],
      [
        "▁සමස්ත",
        -9.427573532428465
      ],
      [
        "▁දිනයේ",
        -9.428556663811648
      ],
      [
        "▁කීපයක්",
        -9.428876017162988
      ],
      [
        "▁පිළිබද",
        -9.430965520753853
      ],
      [
        "▁මුහුදු",
        -9.431010060167289
      ],
      [
        "▁රජයට",
        -9.431145492430515
      ],
      [
        "වීමට",
        -9.431711534317227
      ],
      [
        "▁විනාඩි",
        -9.43196917218878
      ],
      [
        "▁කියලයි",
        -9.432308386476308
      ],
      [
        "▁තිස්සේ",
        -9.432789699185943
      ],
      [
        "▁නැගෙනහිර",
        -9.433174733892844
      ],
      [
        "▁පුද්ගලික",
        -9.433493376953034
      ],
      [
        "▁ආරක්",
        -9.434087817466473
      ],
      [
        "▁ආවා",
        -9.434899979826076
      ],
      [
        "▁පොතක්",
        -9.435365322847723
      ],
      [
        "▁පනත",
        -9.436299596267176
      ],
      [
        "▁සිත්",
        -9.436504557602373
      ],
      [
        "▁ඒකෙ",
        -9.436645524887897
      ],
      [
        "▁මෙහෙ",
        -9.437974249886079
      ],
      [
        "▁ලියල",
        -9.438069992462939
      ],
      [
        "▁එත්",
        -9.439088063234685
      ],
      [
        "▁කෙල්ල",
        -9.43961308885618
      ],
      [
        "▁රණ",
        -9.439868068002715
      ],
      [
        "▁මෙච්චර",
        -9.44127073931822
      ],
      [
        "▁සිදුව",
        -9.442197376133226
      ],
      [
        "▁නිවස",
        -9.44269198440848
      ],
      [
        "▁ඉදි",
        -9.443394255703694
      ],
      [
        "l",
        -9.443435406776443
      ],
      [
        "▁තියා",
        -9.443621663976767
      ],
      [
        "▁නිෂ්පාදනය",
        -9.44368618139628
      ],
      [
        "▁ලංකාවෙ",
        -9.443775773403637
      ],
      [
        "▁දුන්න",
        -9.44435015931914
      ],
      [
        "▁ආරක්ෂාව",
        -9.444428955004106
      ],
      [
        "ෙට",
        -9.444742746343579
      ],
      [
        "▁ගස්",
        -9.445131133924676
      ],
      [
        "▁කොළ",
        -9.445652162824805
      ],
      [
        "▁පවත්වා",
        -9.446668505303375
      ],
      [
        "▁පොස්ට්",
        -9.44687257570353
      ],
      [
        "▁AM",
        -9.446927377007007
      ],
      [
        "▁බිම",
        -9.448005972934212
      ],
      [
        "▁රදේශ",
        -9.448278469016017
      ],
      [
        "▁මඩ",
        -9.448405257457587
      ],
      [
        "▁සිටී.",
        -9.448444782795654
      ],
      [
        "▁ආයේ",
        -9.449314958602544
      ],
      [
        "▁බාර",
        -9.452599719686582
      ],
      [
        "▁රැස්",
        -9.453569740502019
      ],
      [
        "▁දෙනවා",
        -9.454062700927079
      ],
      [
        "යන්ට",
        -9.456992907602142
      ],
      [
        "▁ත",
        -9.457720468186547
      ],
      [
        "▁පරිසර",
        -9.457770072643886
      ],
      [
        "▁මේකට",
        -9.458534170080918
      ],
      [
        "▁බවක්",
        -9.459329595052012
      ],
      [
        "▁මෙහෙයුම්",
        -9.459696022964328
      ],
      [
        "▁ටෙලි",
        -9.45990309747034
      ],
      [
        "▁මචං",
        -9.461536653270196
      ],
      [
        "▁වෙලාව",
        -9.462595341787662
      ],
      [
        "▁අකුරු",
        -9.463151610669028
      ],
      [
        "▁කිය",
        -9.464251044991142
      ],
      [
        "▁මඟ",
        -9.464365363990064
      ],
      [
        "▁පුද්ගලයින්",
        -9.464733592202306
      ],
      [
        "▁තාමත්",
        -9.4648222608149
      ],
      [
        "▁රෝහලේ",
        -9.464871924737093
      ],
      [
        "▁ඉක්මනින්",
        -9.465261826895018
      ],
      [
        "▁''",
        -9.465314772634432
      ],
      [
        "▁හීන",
        -9.465532712666485
      ],
      [
        "ෆ්",
        -9.46665732553138
      ],
      [
        "▁අසා",
        -9.466741412124424
      ],
      [
        "▁වැසි",
        -9.46741151031668
      ],
      [
        "සන්",
        -9.467681443285581
      ],
      [
        "▁රැක",
        -9.468010230970766
      ],
      [
        "▁වුන",
        -9.469174299877615
      ],
      [
        "▁දැකලා",
        -9.470070450484535
      ],
      [
        "▁කුඩු",
        -9.470102297960032
      ],
      [
        "▁වෙළඳ",
        -9.470515205203409
      ],
      [
        "▁කිසිවක්",
        -9.470538076752902
      ],
      [
        "▁නොවේ",
        -9.470670898783506
      ],
      [
        "▁Comments",
        -9.472175654492307
      ],
      [
        "▁පින්",
        -9.472306257210798
      ],
      [
        "▁අත්සන්",
        -9.472761936703618
      ],
      [
        "▁ලින්ක්",
        -9.474765172131427
      ],
      [
        "▁එකකට",
        -9.475303976000301
      ],
      [
        "▁පහල",
        -9.475353493138226
      ],
      [
        "▁සරල",
        -9.475632421379068
      ],
      [
        "▁රවී",
        -9.475779702332238
      ],
      [
        "▁උපරිම",
        -9.475786346304698
      ],
      [
        "▁ආවා.",
        -9.476726766773085
      ],
      [
        "▁ගුරු",
        -9.477342327628946
      ],
      [
        "▁තද",
        -9.477703932611231
      ],
      [
        "▁අමාරු",
        -9.478131535380172
      ],
      [
        "▁එවිට",
        -9.478162651489264
      ],
      [
        "▁කිව",
        -9.47892420279234
      ],
      [
        "▁උදා",
        -9.47928312723556
      ],
      [
        "▁ගන්නවා",
        -9.480247199547899
      ],
      [
        "▁උඹේ",
        -9.48104434987867
      ],
      [
        "රී",
        -9.481120661745411
      ],
      [
        "▁එවුන්",
        -9.482457940472969
      ],
      [
        "▁1.",
        -9.48270410854484
      ],
      [
        "▁බිරිඳ",
        -9.48363783718943
      ],
      [
        "හා",
        -9.484423580827228
      ],
      [
        "බා",
        -9.484669383275946
      ],
      [
        "▁වෙලාවක",
        -9.485071688522966
      ],
      [
        "▁ආයතනයේ",
        -9.485194024991898
      ],
      [
        "▁the",
        -9.485302634964402
      ],
      [
        "▁තරු",
        -9.486499302912627
      ],
      [
        "▁කර්මාන්ත",
        -9.487033452893616
      ],
      [
        "­",
        -9.48723846824904
      ],
      [
        "▁100",
        -9.487693742575818
      ],
      [
        "▁අවසර",
        -9.487835086540851
      ],
      [
        "▁අවි",
        -9.489383990777775
      ],
      [
        "▁සංවේදී",
        -9.490315949254466
      ],
      [
        "▁මාගේ",
        -9.49064617902387
      ],
      [
        "▁අහිංසක",
        -9.490868578443315
      ],
      [
        "▁උපසිරැසි",
        -9.491511346362435
      ],
      [
        "▁ඉරිදා",
        -9.492072625176096
      ],
      [
        "▁දෙකම",
        -9.492223031047384
      ],
      [
        "▁වැඩසටහන්",
        -9.492225454977925
      ],
      [
        "▁දරුවන්ට",
        -9.492709339062497
      ],
      [
        "▁බිඳ",
        -9.492938190182695
      ],
      [
        "▁සංස්කෘතික",
        -9.494078638100607
      ],
      [
        "▁කියවලා",
        -9.494295612530124
      ],
      [
        "▁ජනමාධ්",
        -9.495835424376452
      ],
      [
        "▁දක්නට",
        -9.496749797034253
      ],
      [
        "▁සංශෝධනය",
        -9.497482183923175
      ],
      [
        "▁යයක්",
        -9.497597106635052
      ],
      [
        "යකින්",
        -9.498706718550554
      ],
      [
        "▁ගන්නවා.",
        -9.498860909876225
      ],
      [
        "▁පොතේ",
        -9.498968257704146
      ],
      [
        "▁රේල්",
        -9.49980613415319
      ],
      [
        "▁මුද්",
        -9.500442601467022
      ],
      [
        "▁යන්නෙ",
        -9.500923162668556
      ],
      [
        "▁වසරක්",
        -9.500945182170494
      ],
      [
        "▁නොකරන",
        -9.501040489777564
      ],
      [
        "▁දෙසැම්බර්",
        -9.501076651577657
      ],
      [
        "▁පහසු",
        -9.501927029462518
      ],
      [
        "▁වෙනස",
        -9.502061953456193
      ],
      [
        "▁ලියපු",
        -9.502091519215742
      ],
      [
        "4",
        -9.50314394051862
      ],
      [
        "▁හම්බන්තොට",
        -9.50330663635746
      ],
      [
        "▁ආණ්ඩු",
        -9.50387425165398
      ],
      [
        "යි...",
        -9.50509905270817
      ],
      [
        "▁කිහිප",
        -9.505153276586583
      ],
      [
        "▁බැංකුව",
        -9.505397809028407
      ],
      [
        "▁නිසාය.",
        -9.506202087559064
      ],
      [
        "▁හිතන්නෙ",
        -9.50656463023848
      ],
      [
        "▁හ",
        -9.506805137804303
      ],
      [
        "▁රංගන",
        -9.507062012898594
      ],
      [
        "▁අධිකරණයට",
        -9.507068297990822
      ],
      [
        "▁පවතී.",
        -9.507513580462678
      ],
      [
        "▁තියෙන්න",
        -9.507821290148236
      ],
      [
        "▁ඇයි?",
        -9.508072304397002
      ],
      [
        "රේ",
        -9.508079115989077
      ],
      [
        "!!!",
        -9.508310513178568
      ],
      [
        "▁0",
        -9.509284319540598
      ],
      [
        "▁කොහොමත්",
        -9.510886206560379
      ],
      [
        "▁සමහරු",
        -9.511194332329627
      ],
      [
        "th",
        -9.511513413698871
      ],
      [
        "▁බලපෑම්",
        -9.511587456177537
      ],
      [
        "▁යාපෘතිය",
        -9.512321725321549
      ],
      [
        "▁තියෙනව",
        -9.512531046989952
      ],
      [
        "ලේ",
        -9.512625876912626
      ],
      [
        "▁මාර්තු",
        -9.512734843570394
      ],
      [
        "▁වෙලාවක්",
        -9.51294979235171
      ],
      [
        "▁2.",
        -9.514051719559722
      ],
      [
        "▁අයින්",
        -9.515118000830032
      ],
      [
        "▁නැද්ද?",
        -9.51622289801374
      ],
      [
        "▁දුන්නා.",
        -9.517043859516274
      ],
      [
        "▁කියයි.",
        -9.517121795566393
      ],
      [
        "කල",
        -9.51726147221364
      ],
      [
        "▁උදෑසන",
        -9.517922169367818
      ],
      [
        "▁වසා",
        -9.518251499642707
      ],
      [
        "ෑ",
        -9.51858020977106
      ],
      [
        "▁හඳුන්වා",
        -9.518630380399388
      ],
      [
        "▁තිබුණ",
        -9.51881898084281
      ],
      [
        "▁මන්ත",
        -9.518894394753442
      ],
      [
        "▁ජීවිතයේ",
        -9.519645899089966
      ],
      [
        "▁හිටියා.",
        -9.520177071667895
      ],
      [
        "▁වැඩිම",
        -9.520697765434852
      ],
      [
        "▁මී",
        -9.52077194148049
      ],
      [
        "▁මෙතනින්",
        -9.52112389120857
      ],
      [
        "▁2013",
        -9.52182432700302
      ],
      [
        "▁මව",
        -9.522539386647182
      ],
      [
        "▁බරපතල",
        -9.523173171017131
      ],
      [
        "▁හිටියා",
        -9.523267996941039
      ],
      [
        "▁තුරු",
        -9.524380972136832
      ],
      [
        "▁තුලින්",
        -9.526383802078396
      ],
      [
        "▁දත්ත",
        -9.527329790690802
      ],
      [
        "▁බලමු",
        -9.527722590783474
      ],
      [
        "▁පොර",
        -9.528797558613785
      ],
      [
        "▁යාපාරය",
        -9.529622902875705
      ],
      [
        "▁හිස්",
        -9.530321426527554
      ],
      [
        "▁පදනම්",
        -9.532841526815927
      ],
      [
        "සේ",
        -9.534566886077359
      ],
      [
        "▁අවධාරණය",
        -9.534717212733234
      ],
      [
        "▁යාපාර",
        -9.536221950380778
      ],
      [
        "▁හොර",
        -9.5364063249915
      ],
      [
        "▁නායකයා",
        -9.536594112758664
      ],
      [
        "▁කොමිසම",
        -9.536750139375481
      ],
      [
        "කාර",
        -9.537516584572268
      ],
      [
        "▁මෙයට",
        -9.538108321472322
      ],
      [
        "▁අසරණ",
        -9.539670520239046
      ],
      [
        "▁වග",
        -9.540940404155792
      ],
      [
        "▁බඩ",
        -9.540956518560737
      ],
      [
        "▁මැතිවරණය",
        -9.540988736255112
      ],
      [
        "▁විමුක්ති",
        -9.540995704400151
      ],
      [
        "▁යෝජනාව",
        -9.54113988469988
      ],
      [
        "▁කඩුලු",
        -9.541556207667032
      ],
      [
        "▁ඇයගේ",
        -9.54288392302533
      ],
      [
        "▁කො",
        -9.543726632291392
      ],
      [
        ".com",
        -9.543937861005576
      ],
      [
        "▁දෙවියන්",
        -9.544214015610017
      ],
      [
        "▁බී",
        -9.544351485899487
      ],
      [
        "▁දිගු",
        -9.544368171877826
      ],
      [
        "p",
        -9.544437470022379
      ],
      [
        "ැයි",
        -9.544460705090813
      ],
      [
        "▁වෙනි",
        -9.544476265314147
      ],
      [
        "▁අක්කා",
        -9.546033100829863
      ],
      [
        "▁සාක්ෂි",
        -9.548158852340183
      ],
      [
        "▁මතය",
        -9.548361748953283
      ],
      [
        "කරන",
        -9.548926631251204
      ],
      [
        "▁අමුතු",
        -9.549158356909757
      ],
      [
        "▁නිතරම",
        -9.549402419416904
      ],
      [
        "▁දූෂණ",
        -9.550864735279244
      ],
      [
        "▁හික්",
        -9.551367487154742
      ],
      [
        "▁අනික්",
        -9.551394345962347
      ],
      [
        "▁නිවසේ",
        -9.551755441777008
      ],
      [
        "b",
        -9.552042841647388
      ],
      [
        "▁අජිත්",
        -9.55224346632371
      ],
      [
        "▁නිකන්",
        -9.552248728971097
      ],
      [
        "▁දාගෙන",
        -9.55226497612028
      ],
      [
        "▁අවට",
        -9.552949074089579
      ],
      [
        "▁ආපසු",
        -9.55330434906969
      ],
      [
        "▁නගරය",
        -9.553568446095166
      ],
      [
        "▁ඇප",
        -9.554762151488305
      ],
      [
        "▁එක්කම",
        -9.554994986284374
      ],
      [
        "▁නොවී",
        -9.555820271070262
      ],
      [
        "▁සෑහෙන",
        -9.555833837454413
      ],
      [
        "▁අම්ම",
        -9.555906291411555
      ],
      [
        "▁එහා",
        -9.556461419179854
      ],
      [
        "▁ලස්සනට",
        -9.55664756059404
      ],
      [
        "▁එකඟ",
        -9.557321526361546
      ],
      [
        "▁ඔප්පු",
        -9.557387481236336
      ],
      [
        "▁ඇමරිකානු",
        -9.558327490959435
      ],
      [
        "▁දැක්ක",
        -9.558419770026207
      ],
      [
        "▁තරමට",
        -9.55920161901464
      ],
      [
        "▁තිබෙනවා",
        -9.559904126363701
      ],
      [
        "▁එතුමා",
        -9.560216854101725
      ],
      [
        "▁යවස්ථා",
        -9.560688852265425
      ],
      [
        "ෂ්",
        -9.560727818025406
      ],
      [
        "▁අයිති",
        -9.561766116020884
      ],
      [
        "▁P",
        -9.562519313215583
      ],
      [
        "▁බාහිර",
        -9.562651383970568
      ],
      [
        "▁දුරටත්",
        -9.563224627521187
      ],
      [
        "▁යනකොට",
        -9.563272957855059
      ],
      [
        "▁උදෙසා",
        -9.564179312215469
      ],
      [
        "▁දි",
        -9.564654176445142
      ],
      [
        "▁කැප",
        -9.565015497864625
      ],
      [
        "▁දුව",
        -9.565156208912404
      ],
      [
        "▁රෝහල",
        -9.56526890653807
      ],
      [
        "▁තත්ත්වයක්",
        -9.565375131863311
      ],
      [
        "▁කෙනා",
        -9.56543772407424
      ],
      [
        "ගොඩ",
        -9.565671292087485
      ],
      [
        "▁ඔ",
        -9.567490927310688
      ],
      [
        "▁රවාදය",
        -9.567811800579022
      ],
      [
        "▁තමන්ගෙ",
        -9.567973600665987
      ],
      [
        "▁පානය",
        -9.568709739385781
      ],
      [
        "▁කියලා..",
        -9.56938288426836
      ],
      [
        "▁වගකීම",
        -9.569498515884277
      ],
      [
        "▁හැකියාවක්",
        -9.570196252261319
      ],
      [
        "▁තිබිය",
        -9.570199922491543
      ],
      [
        "▁දැනෙන",
        -9.570550656154388
      ],
      [
        "▁දීල",
        -9.57102782365773
      ],
      [
        "▁පරීක්",
        -9.571425820446375
      ],
      [
        "▁මුලින්",
        -9.571615555158766
      ],
      [
        "c",
        -9.57374348718377
      ],
      [
        "▁ගහ",
        -9.574599517558354
      ],
      [
        "▁දරු",
        -9.575147958228175
      ],
      [
        "▁රෝ",
        -9.57525967207144
      ],
      [
        "▁ලබාදෙන",
        -9.576671395447953
      ],
      [
        "▁පව්",
        -9.577226363371732
      ],
      [
        "▁දීර්ඝ",
        -9.577257639125008
      ],
      [
        "ඳ",
        -9.577260536846365
      ],
      [
        "▁රධානත්වයෙන්",
        -9.577400515947271
      ],
      [
        "▁මාර්ගයේ",
        -9.577601088336646
      ],
      [
        "දු",
        -9.57778516461666
      ],
      [
        "ය,",
        -9.578230378112503
      ],
      [
        "▁රිපාල",
        -9.57839085844497
      ],
      [
        "in",
        -9.578989159357688
      ],
      [
        "▁දිනා",
        -9.580902905333687
      ],
      [
        "▁පණ",
        -9.58142945601493
      ],
      [
        "▁නිවාඩු",
        -9.582547467174715
      ],
      [
        "▁සමාගමේ",
        -9.582736684153154
      ],
      [
        "▁50",
        -9.583339288873946
      ],
      [
        "▁රු.",
        -9.5840703283681
      ],
      [
        "▁රත්නායක",
        -9.585923518864067
      ],
      [
        "▁ඇඳුම්",
        -9.586358857900784
      ],
      [
        "▁ආදිය",
        -9.587642291079288
      ],
      [
        "▁තියෙන්නෙ.",
        -9.588759227160129
      ],
      [
        "▁හිටියෙ",
        -9.588774939955037
      ],
      [
        "▁දෙයක්.",
        -9.58961732663985
      ],
      [
        "▁ඉතිහාසයේ",
        -9.589903081392196
      ],
      [
        "▁විරුද්ධව",
        -9.589973332571692
      ],
      [
        "▁දාපු",
        -9.590815927674546
      ],
      [
        "▁ෂය",
        -9.591549600160725
      ],
      [
        "▁ද,",
        -9.591795904111823
      ],
      [
        "▁වෙලා.",
        -9.592724804790976
      ],
      [
        "▁දර්ශන",
        -9.593026197563322
      ],
      [
        "▁ගහන",
        -9.593494486207852
      ],
      [
        "Labels",
        -9.593499067807604
      ],
      [
        "▁පිරිස්",
        -9.59365910126435
      ],
      [
        "වරු",
        -9.593735614009011
      ],
      [
        "▁කිරීමක්",
        -9.594266454772583
      ],
      [
        "▁දැක්වූ",
        -9.594307541483428
      ],
      [
        "▁ගණනාවක්",
        -9.595182775852994
      ],
      [
        "▁මාතර",
        -9.59555286289961
      ],
      [
        "▁නිවේදනය",
        -9.595594138847867
      ],
      [
        "▁රකාශය",
        -9.596295728396711
      ],
      [
        "▁ඔයාලට",
        -9.596566496048595
      ],
      [
        "ලී",
        -9.59713782369855
      ],
      [
        "▁තාක්ෂණය",
        -9.59771699295295
      ],
      [
        "▁වීමේ",
        -9.597873327041045
      ],
      [
        "▁කවිය",
        -9.598101174617913
      ],
      [
        "ඹ",
        -9.598200663958732
      ],
      [
        "▁දැවැන්ත",
        -9.598290679927658
      ],
      [
        "▁අනුමත",
        -9.598709249598535
      ],
      [
        "▁දැං",
        -9.598767606457859
      ],
      [
        "▁නොකළ",
        -9.598869932796582
      ],
      [
        "▁දක්වන",
        -9.599641873076978
      ],
      [
        "▁ඉන්ධන",
        -9.599942459664714
      ],
      [
        "▁22",
        -9.600053236759013
      ],
      [
        "▁ගුණ",
        -9.60009818957104
      ],
      [
        "▁හඳුනා",
        -9.60013508686368
      ],
      [
        "▁සිතා",
        -9.600737855441341
      ],
      [
        "▁අඩි",
        -9.60133677446742
      ],
      [
        "▁එරට",
        -9.602087004934596
      ],
      [
        "▁තිබුනා.",
        -9.602145536167711
      ],
      [
        "▁T",
        -9.603303603277702
      ],
      [
        "▁සූත්",
        -9.603475256996933
      ],
      [
        "▁ආගම",
        -9.60434545534694
      ],
      [
        "▁නියමිතය.",
        -9.605253915088014
      ],
      [
        "ද්",
        -9.605525268084751
      ],
      [
        "▁සිටිය",
        -9.606149534985343
      ],
      [
        "නවා",
        -9.606211604896817
      ],
      [
        "▁බලපත්",
        -9.606708385853114
      ],
      [
        "▁නමක්",
        -9.606769400431277
      ],
      [
        "▁කියනවා.",
        -9.606966335302408
      ],
      [
        "▁නංගි",
        -9.607215523982761
      ],
      [
        "▁වසරේදී",
        -9.607898801038484
      ],
      [
        "▁සිරි",
        -9.607973913885775
      ],
      [
        "බි",
        -9.608183765088889
      ],
      [
        "▁!!",
        -9.608481351592669
      ],
      [
        "▁නායකත්වය",
        -9.609503490749482
      ],
      [
        "▁කලාව",
        -9.609780640115694
      ],
      [
        "▁ජීවන",
        -9.609847354379886
      ],
      [
        "▁සිතුවිලි",
        -9.610056906415897
      ],
      [
        "▁අහෝසි",
        -9.610072482083705
      ],
      [
        "▁දොර",
        -9.610744803138019
      ],
      [
        "▁එච්චර",
        -9.611217253066583
      ],
      [
        "▁රික",
        -9.61125711704101
      ],
      [
        "▁The",
        -9.611336409369976
      ],
      [
        "▁අසල",
        -9.612044133659442
      ],
      [
        "▁රිත",
        -9.612277125108259
      ],
      [
        "▁දඬුවම්",
        -9.612318821400802
      ],
      [
        "▁සියයට",
        -9.612596092700425
      ],
      [
        "▁ජාතීන්ගේ",
        -9.613204888051081
      ],
      [
        "▁මිනිස්සුන්ට",
        -9.613312459258518
      ],
      [
        "ෙදි",
        -9.613337903287732
      ],
      [
        "▁යන්නට",
        -9.614136017463085
      ],
      [
        "▁දැන්වීම්",
        -9.614984276726148
      ],
      [
        "▁කියලා...",
        -9.615379006897925
      ],
      [
        "ඞ්",
        -9.615847510562409
      ],
      [
        "▁දැමීම",
        -9.616133370503787
      ],
      [
        "▁බොන්න",
        -9.616529017623055
      ],
      [
        "▁රතිපත්ති",
        -9.616589898460347
      ],
      [
        "▁විෂය",
        -9.61733860953635
      ],
      [
        "▁පත",
        -9.617423083962272
      ],
      [
        "▁රේමය",
        -9.617646383034963
      ],
      [
        "▁පහුගිය",
        -9.618129478133977
      ],
      [
        "▁ආධාර",
        -9.618337419943487
      ],
      [
        "▁ලබාදීම",
        -9.618363955753443
      ],
      [
        "▁අංශයේ",
        -9.61856995029505
      ],
      [
        "ීම",
        -9.618849840959186
      ],
      [
        "▁පැත්තෙ",
        -9.619320690975
      ],
      [
        "▁යකෝ",
        -9.619745308064477
      ],
      [
        "▁යුධ",
        -9.619892217497503
      ],
      [
        "▁කාලෙකට",
        -9.619974083010423
      ],
      [
        "▁බන්ධනාගාර",
        -9.620116523412689
      ],
      [
        "▁රකාශයක්",
        -9.620573772145939
      ],
      [
        "▁නොමිලේ",
        -9.620653183491356
      ],
      [
        "▁දෙකකට",
        -9.620992056497764
      ],
      [
        "▁මූ",
        -9.6211000817591
      ],
      [
        "▁ලස්සනයි",
        -9.621111594058746
      ],
      [
        "▁නොදන්නා",
        -9.621381657033972
      ],
      [
        "ආ",
        -9.621789785582887
      ],
      [
        "▁by",
        -9.623672647587611
      ],
      [
        "▁පාරේ",
        -9.623884029481882
      ],
      [
        "▁ඕස්ට්",
        -9.624346277050474
      ],
      [
        "▁23",
        -9.624356537989687
      ],
      [
        "▁පද්ධතිය",
        -9.624612866027935
      ],
      [
        "▁වංචා",
        -9.625632201335364
      ],
      [
        "▁අංශය",
        -9.625751456599044
      ],
      [
        "▁26",
        -9.62650429374772
      ],
      [
        "▁පැමිණෙන",
        -9.626676144939207
      ],
      [
        "▁අලෙවි",
        -9.626708092230338
      ],
      [
        "▁කරගත්",
        -9.627600741900281
      ],
      [
        "▁අට",
        -9.627815665312903
      ],
      [
        "▁උපකරණ",
        -9.627970852171183
      ],
      [
        "▁ගැටලු",
        -9.628340912033462
      ],
      [
        "▁සිටීම",
        -9.62842460174458
      ],
      [
        "▁යවස්ථාව",
        -9.629490235186921
      ],
      [
        "විට",
        -9.629837309874869
      ],
      [
        "▁ඖෂධ",
        -9.629870663289513
      ],
      [
        "ොත්",
        -9.63051813912406
      ],
      [
        "▁රයා",
        -9.630559950592883
      ],
      [
        "▁සිටියදී",
        -9.630778174405835
      ],
      [
        "යෙ",
        -9.631652645809758
      ],
      [
        "▁රයක්",
        -9.631697464669017
      ],
      [
        "▁බණ්ඩාර",
        -9.631855752996232
      ],
      [
        "▁විශ්වාසය",
        -9.631915614772101
      ],
      [
        "▁ස්ත්",
        -9.633663386940786
      ],
      [
        "▁වනදා",
        -9.634112413865058
      ],
      [
        "▁හිමියන්",
        -9.634423242568033
      ],
      [
        "▁සාමය",
        -9.634766109596548
      ],
      [
        "▁ලෙසින්",
        -9.635437433417685
      ],
      [
        "'s",
        -9.635489385470475
      ],
      [
        "▁තිබුනා",
        -9.635730205453775
      ],
      [
        "▁ආස",
        -9.636019812788984
      ],
      [
        "▁මණ්ඩලයේ",
        -9.636671268995098
      ],
      [
        "▁සිර",
        -9.637451067419935
      ],
      [
        "▁පි",
        -9.637940148977922
      ],
      [
        "▁‘‘",
        -9.638089062641624
      ],
      [
        "▁ෆොටෝ",
        -9.638319273037576
      ],
      [
        "▁මොනව",
        -9.638386110553672
      ],
      [
        "▁කිව්වා.",
        -9.638403996977722
      ],
      [
        "▁පිහිටා",
        -9.638516313710905
      ],
      [
        "▁නොවැම්බර්",
        -9.638736959800976
      ],
      [
        "▁බං.",
        -9.63881347141745
      ],
      [
        "▁සිංහලෙන්",
        -9.63882167357081
      ],
      [
        "▁තානාපති",
        -9.639003929484625
      ],
      [
        "▁චරිතය",
        -9.639383853723881
      ],
      [
        "▁කාරණා",
        -9.639728624070777
      ],
      [
        "▁තුන",
        -9.639746723638247
      ],
      [
        "▁හද",
        -9.63984148574599
      ],
      [
        "▁හිර",
        -9.640925531752462
      ],
      [
        "▁ඕ",
        -9.640937064529343
      ],
      [
        "▁තරමක්",
        -9.641202650607834
      ],
      [
        "▁ටු",
        -9.641597410939061
      ],
      [
        "වෙ",
        -9.641711994744774
      ],
      [
        "▁රෝහල්",
        -9.64173985310877
      ],
      [
        "යකි.",
        -9.642059828949547
      ],
      [
        "▁මළ",
        -9.64222628361652
      ],
      [
        "▁කඩේ",
        -9.643059454512336
      ],
      [
        "▁අඩංගු",
        -9.643490696067747
      ],
      [
        "7",
        -9.643996498419645
      ],
      [
        "▁බාල",
        -9.644048511813432
      ],
      [
        "▁Video",
        -9.644567347476354
      ],
      [
        "▁වුණු",
        -9.644833659320017
      ],
      [
        "▁ගානක්",
        -9.64497344135873
      ],
      [
        "▁මන්දා",
        -9.645383840561106
      ],
      [
        "▁සිහි",
        -9.645611826746292
      ],
      [
        "▁සම්ප්",
        -9.64601774009871
      ],
      [
        "▁ගම්",
        -9.646908162975418
      ],
      [
        "▁වුනාට",
        -9.646917984005832
      ],
      [
        "▁ෆොන්සේකා",
        -9.647037873776387
      ],
      [
        "▁පමණයි.",
        -9.647393555373148
      ],
      [
        "▁රවාහන",
        -9.647929123018145
      ],
      [
        "මන්",
        -9.647961360916202
      ],
      [
        "නො",
        -9.649111859102558
      ],
      [
        "al",
        -9.64979597361799
      ],
      [
        "▁වෙලාවේ",
        -9.650300470374372
      ],
      [
        "▁සිහින",
        -9.650485987821376
      ],
      [
        "▁අපිව",
        -9.651681059019593
      ],
      [
        "▁බත්",
        -9.652008563978498
      ],
      [
        "▁ලබාදීමට",
        -9.65226706540522
      ],
      [
        "▁සතුටින්",
        -9.652372991066164
      ],
      [
        "තම",
        -9.652437727571122
      ],
      [
        "▁රමුඛ",
        -9.65260368811555
      ],
      [
        "▁හිතාගෙන",
        -9.654298128001646
      ],
      [
        "ඟ",
        -9.6543039408652
      ],
      [
        "වරුන්",
        -9.654681917691263
      ],
      [
        "▁රසන්න",
        -9.654691018018326
      ],
      [
        ".ඒත්",
        -9.655003064831499
      ],
      [
        "▁නඩුව",
        -9.655847128526727
      ],
      [
        "▁ඉනිම",
        -9.65609574152954
      ],
      [
        "▁එතරම්",
        -9.656641336750544
      ],
      [
        "▁සැප",
        -9.656967619808636
      ],
      [
        "▁රීවරුන්",
        -9.657713513634198
      ],
      [
        "▁දරුණු",
        -9.658050524624057
      ],
      [
        "▁කිසියම්",
        -9.658225257196095
      ],
      [
        "▁ලිපිනය",
        -9.6585694373932
      ],
      [
        "▁ඕනේ.",
        -9.658725945214211
      ],
      [
        "▁රො",
        -9.658848124724589
      ],
      [
        "▁ජාතිය",
        -9.659262106932466
      ],
      [
        "▁නේ.",
        -9.659659119070465
      ],
      [
        "D",
        -9.661063133483362
      ],
      [
        "▁කලා.",
        -9.661133879004332
      ],
      [
        "▁ෆෝන්",
        -9.661231317777123
      ],
      [
        "▁ලක්ෂණ",
        -9.6612655881534
      ],
      [
        "▁අනුගමනය",
        -9.661434212945974
      ],
      [
        "එක්තරා",
        -9.662548410110379
      ],
      [
        "▁ගෙදරට",
        -9.662695515848533
      ],
      [
        "▁රකාශයට",
        -9.66290794878793
      ],
      [
        "▁ගිණුම",
        -9.663045423133529
      ],
      [
        "▁යාත්මක",
        -9.664564638396143
      ],
      [
        "▁යානය",
        -9.665339347323414
      ],
      [
        "රැ",
        -9.665524520249154
      ],
      [
        "▁කරන්නේ.",
        -9.66582539989303
      ],
      [
        "▁කාටවත්",
        -9.66589122985196
      ],
      [
        "▁යන්ත්",
        -9.665933621137615
      ],
      [
        "▁ගමනක්",
        -9.666651953894508
      ],
      [
        "▁රාජිත",
        -9.666990410809031
      ],
      [
        "▁කියලත්",
        -9.667531976661351
      ],
      [
        "▁නොමැත.",
        -9.667644255658729
      ],
      [
        "*",
        -9.668532827585551
      ],
      [
        "▁මිනිසා",
        -9.670115833443411
      ],
      [
        "▁බි",
        -9.670416073186688
      ],
      [
        "▁අයිතිවාසිකම්",
        -9.67052522250281
      ],
      [
        "▁අවුරුද්ද",
        -9.670613808836883
      ],
      [
        "▁කළේ.",
        -9.670754273831559
      ],
      [
        "▁එයාගේ",
        -9.670845502513071
      ],
      [
        "▁ආකාරයේ",
        -9.67165310881926
      ],
      [
        "▁සින්දු",
        -9.672963783481318
      ],
      [
        "▁ගාල්ල",
        -9.673610538906102
      ],
      [
        "▁මෙයා",
        -9.674036921632718
      ],
      [
        "▁භාෂාව",
        -9.67447740103653
      ],
      [
        "▁ඊළඟ",
        -9.675169662924501
      ],
      [
        "▁කොහොමද?",
        -9.675277587062048
      ],
      [
        "▁මියගිය",
        -9.675288693532163
      ],
      [
        "▁කිරිම",
        -9.675406575562313
      ],
      [
        "▁මීටර්",
        -9.67559078537984
      ],
      [
        "▁ඉක්මනට",
        -9.676219642447279
      ],
      [
        "▁ගහලා",
        -9.676455631021785
      ],
      [
        "▁කීවේ",
        -9.676984922781713
      ],
      [
        "▁නමැති",
        -9.677118029931924
      ],
      [
        "▁තිබීම",
        -9.677265923857316
      ],
      [
        "▁රජු",
        -9.677328408665222
      ],
      [
        "▁සමාගම්",
        -9.677376678696941
      ],
      [
        "වේ.",
        -9.67798268618515
      ],
      [
        "▁වටා",
        -9.678355993520261
      ],
      [
        "u",
        -9.679246132129528
      ],
      [
        "ගා",
        -9.679797285995978
      ],
      [
        "▁නියමයි",
        -9.68006023680752
      ],
      [
        "▁යාපෘති",
        -9.680723712916226
      ],
      [
        "▁මාසයේ",
        -9.681517694483496
      ],
      [
        "▁තරගාවලිය",
        -9.682022445819126
      ],
      [
        "▁කන්ද",
        -9.682145846282367
      ],
      [
        "▁පැත්ත",
        -9.683057620263877
      ],
      [
        "තේ",
        -9.683878012677862
      ],
      [
        "▁සෙල්ලම්",
        -9.683897152586166
      ],
      [
        "▁වැඩිපුර",
        -9.684089994690165
      ],
      [
        "▁සහයෝගය",
        -9.68456739318011
      ],
      [
        "▁කුමන්ත්",
        -9.684650813828803
      ],
      [
        "▁උළෙල",
        -9.684664716754067
      ],
      [
        "▁පෙරමුණේ",
        -9.684945131662365
      ],
      [
        "▁උපුටා",
        -9.684998375031956
      ],
      [
        "මයි.",
        -9.685049876699708
      ],
      [
        "▁දේව",
        -9.685360246792772
      ],
      [
        "▁රහය",
        -9.685880006985743
      ],
      [
        "▁ආයෙ",
        -9.686725503324663
      ],
      [
        "▁පෙනෙන",
        -9.688207860877835
      ],
      [
        "▁තාක්ෂණ",
        -9.688489264376832
      ],
      [
        "▁පිටු",
        -9.68863627734039
      ],
      [
        "ඩා",
        -9.688772218250623
      ],
      [
        "▁හොඳයි.",
        -9.689062218601158
      ],
      [
        "▁අවුරුද්දක්",
        -9.689828967165436
      ],
      [
        "▁බුද්ධ",
        -9.690410090983962
      ],
      [
        ").",
        -9.690538544619749
      ],
      [
        "ධ",
        -9.690634621767018
      ],
      [
        "▁රති",
        -9.690967515192824
      ],
      [
        "▁I",
        -9.69166837823527
      ],
      [
        "▁තැනට",
        -9.692572766380398
      ],
      [
        "▁කුමන",
        -9.69264806485206
      ],
      [
        "▁දෙයි.",
        -9.692721043394888
      ],
      [
        "▁අලුත්ම",
        -9.693212685750126
      ],
      [
        "වුණු",
        -9.694162131873885
      ],
      [
        "▁දරන",
        -9.694246893256658
      ],
      [
        "▁ආරාධනා",
        -9.69479388170527
      ],
      [
        "▁මදි",
        -9.695224232231606
      ],
      [
        "▁හෙළ",
        -9.696100826124574
      ],
      [
        "▁විදිය",
        -9.697184466267238
      ],
      [
        "▁අනන්",
        -9.697570231037549
      ],
      [
        "කළ",
        -9.697579441470051
      ],
      [
        "▁දැමීමට",
        -9.697690729690597
      ],
      [
        "වද",
        -9.697724465211667
      ],
      [
        "▁හින්ද",
        -9.698430597757376
      ],
      [
        "▁සලකා",
        -9.69866556050371
      ],
      [
        "▁තරගාවලියේ",
        -9.699214330398013
      ],
      [
        "...\"",
        -9.699384233123617
      ],
      [
        "▁හිතෙනවා",
        -9.700311506847447
      ],
      [
        "▁ඉන්දියානු",
        -9.700323110795395
      ],
      [
        "▁!!!",
        -9.700346126888512
      ],
      [
        "▁පින්තූර",
        -9.701098350152066
      ],
      [
        "▁ඉස්කෝලේ",
        -9.701457132870107
      ],
      [
        "▁කපා",
        -9.702509786278888
      ],
      [
        "▁දහස්",
        -9.702650328788934
      ],
      [
        "▁මගෙන්",
        -9.702805843950479
      ],
      [
        "f",
        -9.703466716023067
      ],
      [
        "▁පරිවර්තනය",
        -9.704018055625248
      ],
      [
        "▁වලදී",
        -9.704484915211609
      ],
      [
        "▁බිය",
        -9.704720430424356
      ],
      [
        "▁දෙනවා.",
        -9.7048577434271
      ],
      [
        "▁ගැටළු",
        -9.705188744474082
      ],
      [
        "▁යහපාලන",
        -9.706111218310717
      ],
      [
        "▁බෙහෙත්",
        -9.706359333071081
      ],
      [
        "▁හිතා",
        -9.70703097285313
      ],
      [
        "▁කාරක",
        -9.707182943890206
      ],
      [
        "වරයා",
        -9.707584341635904
      ],
      [
        "▁අන්තර්",
        -9.70795330796012
      ],
      [
        "▁ආදර",
        -9.70892570951375
      ],
      [
        "▁අයුරින්",
        -9.709629602971571
      ],
      [
        "▁ආණ්ඩුවක්",
        -9.710014916549948
      ],
      [
        "▁සංගීතය",
        -9.710289796280902
      ],
      [
        "▁ඉඳල",
        -9.710458200272766
      ],
      [
        "▁ඉස්සරහට",
        -9.710711277770049
      ],
      [
        "▁පෙබරවාරි",
        -9.710966838778731
      ],
      [
        "▁දක්ෂ",
        -9.711303093981076
      ],
      [
        "▁රදර්ශනය",
        -9.71151307080639
      ],
      [
        "▁පවසන්නේ",
        -9.71169946956638
      ],
      [
        "▁සැප්තැම්බර්",
        -9.711797131687142
      ],
      [
        "▁සහිතව",
        -9.712034662968996
      ],
      [
        "▁උත්සවය",
        -9.713094846718732
      ],
      [
        "▁වරට",
        -9.713912525262796
      ],
      [
        "▁තීරණයක්",
        -9.714340714682631
      ],
      [
        "▁ෂණ",
        -9.714403971606629
      ],
      [
        "▁අතුරු",
        -9.714638373039858
      ],
      [
        "යවශ්",
        -9.715281807957311
      ],
      [
        "▁කිරීමේදී",
        -9.715399250732204
      ],
      [
        "▁අල්ලා",
        -9.716495524033029
      ],
      [
        "0",
        -9.716539965936638
      ],
      [
        "▁27",
        -9.717271532229496
      ],
      [
        "▁පවත්වන",
        -9.717611233506052
      ],
      [
        "▁කරදර",
        -9.71799793900943
      ],
      [
        "▁හොයාගන්න",
        -9.71852726102652
      ],
      [
        "▁උතුරේ",
        -9.719493121761108
      ],
      [
        "▁නිල්",
        -9.719631948308216
      ],
      [
        "▁ගියොත්",
        -9.71974332501491
      ],
      [
        "ඉ",
        -9.719857865770308
      ],
      [
        "▁දෑ",
        -9.719912627218456
      ],
      [
        "▁වීමෙන්",
        -9.72018478321208
      ],
      [
        "▁හොදයි",
        -9.721443496131114
      ],
      [
        "A",
        -9.722045936283612
      ],
      [
        "▁ඉදන්",
        -9.722720513640533
      ],
      [
        "▁සිදුකරන",
        -9.723223800700817
      ],
      [
        "▁රවි",
        -9.72360113728422
      ],
      [
        "▁අනුමැතිය",
        -9.723737597547839
      ],
      [
        "▁සංස්කෘතිය",
        -9.724272563008073
      ],
      [
        "▁පරිසරය",
        -9.72430086397599
      ],
      [
        "▁සුනිල්",
        -9.725690896339342
      ],
      [
        "▁මුණ",
        -9.726178422317972
      ],
      [
        "▁ගම",
        -9.726208656867442
      ],
      [
        "▁තීන්දුව",
        -9.72785683265143
      ],
      [
        "▁තුමා",
        -9.729102647628423
      ],
      [
        "▁විපක්",
        -9.729357781178887
      ],
      [
        "▁සවස",
        -9.730586893715547
      ],
      [
        "දිය",
        -9.731029567898897
      ],
      [
        "▁ඉල්ලීම",
        -9.73187888216891
      ],
      [
        "▁සංචාරය",
        -9.732335105886207
      ],
      [
        "▁රෙදි",
        -9.73270434684066
      ],
      [
        "▁කන්",
        -9.732769524355737
      ],
      [
        ".......",
        -9.732985352767255
      ],
      [
        "▁රියේ",
        -9.733410213867614
      ],
      [
        "▁එළ",
        -9.733644873164092
      ],
      [
        "▁ජනාධිපතිතුමා",
        -9.733770694988308
      ],
      [
        "▁දක්වමින්",
        -9.734351515308653
      ],
      [
        "▁නෑ,",
        -9.734394835467924
      ],
      [
        "▁මනෝ",
        -9.73461934122972
      ],
      [
        "h",
        -9.734884738942156
      ],
      [
        "▁නවතම",
        -9.735045705829233
      ],
      [
        "▁තියාගෙන",
        -9.735150468014634
      ],
      [
        "▁නොවූ",
        -9.735560199365409
      ],
      [
        "යන්ගේ",
        -9.735706603913634
      ],
      [
        "▁කැමැත්ත",
        -9.737320105801857
      ],
      [
        "▁කථාව",
        -9.73759984753574
      ],
      [
        "▁අහස",
        -9.737826609456533
      ],
      [
        "ෙනි.",
        -9.737898332655302
      ],
      [
        "ජි",
        -9.738257467917524
      ],
      [
        "▁උස",
        -9.738410730888823
      ],
      [
        "▁කමිටුව",
        -9.73858864539693
      ],
      [
        "▁අදටත්",
        -9.739308830671172
      ],
      [
        "▁තැපැල්",
        -9.739993868991945
      ],
      [
        "''",
        -9.740157078300298
      ],
      [
        "▁බෝ",
        -9.740591266910258
      ],
      [
        "▁01",
        -9.740849063202981
      ],
      [
        "▁වෙන්නේ.",
        -9.74086899218424
      ],
      [
        "▁රථය",
        -9.741273604017714
      ],
      [
        "▁පාඩම්",
        -9.741434498130069
      ],
      [
        "▁සංවිධානයේ",
        -9.74174866551092
      ],
      [
        "▁එහෙමත්",
        -9.74222046807827
      ],
      [
        "▁බුද්ධි",
        -9.743740326421658
      ],
      [
        "▁දිගින්",
        -9.74478110346864
      ],
      [
        ".lk",
        -9.745212110834794
      ],
      [
        "▁ලබාදී",
        -9.745888723048617
      ],
      [
        "▁උබ",
        -9.745954690227201
      ],
      [
        "ලෝ",
        -9.74596140896658
      ],
      [
        "▁ටී",
        -9.746853330381091
      ],
      [
        "▁අදත්",
        -9.747267938139451
      ],
      [
        "▁සාධාරණ",
        -9.747507089295652
      ],
      [
        "▁නුඹ",
        -9.748047992728399
      ],
      [
        "රෝ",
        -9.748346199065837
      ],
      [
        "▁අගමැතිවරයා",
        -9.748579647930377
      ],
      [
        "▁රෝගය",
        -9.748599743497671
      ],
      [
        "▁එවන්",
        -9.74948369397525
      ],
      [
        "වෝ",
        -9.74971201998452
      ],
      [
        "▁අනුර",
        -9.750322211084482
      ],
      [
        "6",
        -9.751082502261891
      ],
      [
        "ල්ල",
        -9.751144215734174
      ],
      [
        "▁විශේෂයෙන්ම",
        -9.751763638907061
      ],
      [
        "▁වීඩියෝව",
        -9.75196547894274
      ],
      [
        "▁තිබුණා",
        -9.752524091264155
      ],
      [
        "▁පොලිසියට",
        -9.75286426469044
      ],
      [
        "▁2010",
        -9.754095827709937
      ],
      [
        "දා)",
        -9.75432185431365
      ],
      [
        "▁ලෝකේ",
        -9.754557649617011
      ],
      [
        "▁ගම්පහ",
        -9.754618982594591
      ],
      [
        "▁දැක්කම",
        -9.754746488852621
      ],
      [
        "..?",
        -9.75506008992225
      ],
      [
        "or",
        -9.755262182014533
      ],
      [
        "▁දක්",
        -9.7555753482176
      ],
      [
        "▁පුළුල්",
        -9.755841567900076
      ],
      [
        "▁[...]",
        -9.755907833634657
      ],
      [
        "▁සංගමයේ",
        -9.756445192441314
      ],
      [
        "▁තිබු",
        -9.75647913242962
      ],
      [
        "▁ගෙ",
        -9.756645429777105
      ],
      [
        "▁දහම",
        -9.756686895649509
      ],
      [
        "▁මිසක්",
        -9.757637957165034
      ],
      [
        "▁වැටුප්",
        -9.757908507573443
      ],
      [
        "▁(2)",
        -9.758960361046654
      ],
      [
        "▁ආණ්ඩුක්",
        -9.759178434322482
      ],
      [
        "▁ඇතුලේ",
        -9.759501129641814
      ],
      [
        "▁හුඟක්",
        -9.76014992846824
      ],
      [
        "▁අවස්ථාවේදී",
        -9.760711737787144
      ],
      [
        "▁හිතුවේ",
        -9.760965002361282
      ],
      [
        "▁දැවී",
        -9.761751406389816
      ],
      [
        "▁දුරට",
        -9.762139560548885
      ],
      [
        "▁උත්සහ",
        -9.76359440627516
      ],
      [
        "▁කිහිපයකට",
        -9.764389934515066
      ],
      [
        "▁G",
        -9.764770179470133
      ],
      [
        "▁වෙද්දී",
        -9.764938858543646
      ],
      [
        "▁මොකද්ද",
        -9.765137659637347
      ],
      [
        "▁2011",
        -9.765299561993086
      ],
      [
        "▁කිව්වට",
        -9.765303425823486
      ],
      [
        "▁Facebook",
        -9.766093817511289
      ],
      [
        "වෙන්",
        -9.766647949903387
      ],
      [
        "▁රහාර",
        -9.767158333693715
      ],
      [
        "▁කාන්තාවක්",
        -9.76736015227747
      ],
      [
        "තුමා",
        -9.767735359685197
      ],
      [
        "▁මොකෝ",
        -9.768262514165574
      ],
      [
        "▁නැතත්",
        -9.769039193196441
      ],
      [
        "▁ලැබෙන්නේ",
        -9.769168202437895
      ],
      [
        "▁අයුරු",
        -9.769510557868209
      ],
      [
        "▁යාය",
        -9.769986851791142
      ],
      [
        "▁දැනගෙන",
        -9.770474800544914
      ],
      [
        "▁පාර්ලිමේන්තුවට",
        -9.771031127852565
      ],
      [
        "▁බලයට",
        -9.771226359214028
      ],
      [
        "▁ඔහේ",
        -9.771663987557567
      ],
      [
        "▁තත්වයක්",
        -9.771998412993472
      ],
      [
        "▁භාවිතය",
        -9.772006843755111
      ],
      [
        "▁අගෝස්තු",
        -9.77286891809398
      ],
      [
        "▁සිදුකළ",
        -9.773166522697405
      ],
      [
        "▁පවසනවා.",
        -9.774333584619605
      ],
      [
        "▁මත්ද්",
        -9.775355961665163
      ],
      [
        "▁සැර",
        -9.776463616312462
      ],
      [
        "▁බලවත්",
        -9.778123357722409
      ],
      [
        "▁විශ්",
        -9.77875392383508
      ],
      [
        "▁කණ්ඩායමට",
        -9.778783046480534
      ],
      [
        "▁නිම",
        -9.778912587646746
      ],
      [
        "▁අයි",
        -9.779279506099453
      ],
      [
        "▁තරහ",
        -9.7796557470922
      ],
      [
        "▁මාළු",
        -9.779672649244555
      ],
      [
        "පුර",
        -9.780126156393223
      ],
      [
        "▁අනාගතය",
        -9.780180646844642
      ],
      [
        "▁බෝම්බ",
        -9.780750008772639
      ],
      [
        "▁කතාවේ",
        -9.781520090522735
      ],
      [
        "▁රයි",
        -9.78155298966753
      ],
      [
        "▁දෙන්නෙක්",
        -9.781589367736633
      ],
      [
        "▁නිකං",
        -9.781727494210559
      ],
      [
        "▁නිර්දේශ",
        -9.782446421263948
      ],
      [
        "▁සතුව",
        -9.78350447001343
      ],
      [
        "▁ෂක",
        -9.78380421611969
      ],
      [
        "▁පිළිබදව",
        -9.785287176732343
      ],
      [
        "▁හොඳටම",
        -9.78554706835515
      ],
      [
        "හ.",
        -9.785703695840485
      ],
      [
        "▁රීලනිප",
        -9.786543458683116
      ],
      [
        "▁07",
        -9.787193372217846
      ],
      [
        "on",
        -9.787504241036103
      ],
      [
        "▁කෑලි",
        -9.788052350227936
      ],
      [
        "▁කණ්ඩායමක්",
        -9.78814596282298
      ],
      [
        "▁සැකකරුවන්",
        -9.78838701367085
      ],
      [
        "▁වැටී",
        -9.788453645436801
      ],
      [
        "▁දිගට",
        -9.78947459450428
      ],
      [
        "▁කාඩ්",
        -9.789486559239686
      ],
      [
        "▁03",
        -9.79030856725053
      ],
      [
        "▁රේ",
        -9.790411275772122
      ],
      [
        "▁යයට",
        -9.792166677102848
      ],
      [
        "▁දෙන්නට",
        -9.792438678920146
      ],
      [
        "▁ආර්ථිකය",
        -9.79248600565094
      ],
      [
        "▁වට",
        -9.792491889140562
      ],
      [
        "▁ලැබීම",
        -9.79273558614347
      ],
      [
        "▁නෙ",
        -9.792773818805538
      ],
      [
        "▁ඇනෝ",
        -9.792843259604371
      ],
      [
        "▁සිටිති.",
        -9.792996704930635
      ],
      [
        "▁බස්නාහිර",
        -9.793221084143815
      ],
      [
        "▁උත්සව",
        -9.793630127762473
      ],
      [
        "▁රු",
        -9.793830261982409
      ],
      [
        "▁යතා",
        -9.794114410959606
      ],
      [
        "▁යවරුන්",
        -9.796635591313963
      ],
      [
        "▁ලැබ",
        -9.796713637041451
      ],
      [
        "▁මේකේ",
        -9.797209814573511
      ],
      [
        "▁සංග්",
        -9.798067820791696
      ],
      [
        "▁අඩුම",
        -9.798081876296541
      ],
      [
        "▁ගෑනු",
        -9.79857670332607
      ],
      [
        "▁ධාවනය",
        -9.798602240146256
      ],
      [
        "▁පවසන",
        -9.798961784268426
      ],
      [
        "▁පැමිණිලි",
        -9.799753939466243
      ],
      [
        "▁වෙසක්",
        -9.799783272220793
      ],
      [
        "▁රත්",
        -9.79981758365808
      ],
      [
        "▁දෙ",
        -9.799903044338006
      ],
      [
        "▁3.",
        -9.799909769313834
      ],
      [
        "▁එක්දින",
        -9.800049342436594
      ],
      [
        "▁හෙහ්",
        -9.800517741684747
      ],
      [
        "▁අන්තර්ජාලය",
        -9.800685618010753
      ],
      [
        "▁සුදුසුකම්",
        -9.800876450298224
      ],
      [
        "▁සිටියා.",
        -9.80103294671186
      ],
      [
        "▁කෝල්",
        -9.8010762360955
      ],
      [
        "▁යතාවය",
        -9.802424108317286
      ],
      [
        "▁නිවසට",
        -9.80289424695318
      ],
      [
        "▁යෙෂ්ඨ",
        -9.803113290448225
      ],
      [
        "▁වූහ.",
        -9.803148621625256
      ],
      [
        "▁පහසුවෙන්",
        -9.803774760909176
      ],
      [
        "▁රේම",
        -9.803859858115427
      ],
      [
        "▁පන්ති",
        -9.804950087785889
      ],
      [
        "▁තීන්දු",
        -9.805087371394393
      ],
      [
        "ස්ස",
        -9.805101527839096
      ],
      [
        "▁හදලා",
        -9.805563148618605
      ],
      [
        "▁පිරිසිදු",
        -9.806969107119642
      ],
      [
        "▁බලල",
        -9.807016423886694
      ],
      [
        "▁පරක්කු",
        -9.80731330515303
      ],
      [
        "▁ඩෙංගු",
        -9.807905438757636
      ],
      [
        "▁ගසා",
        -9.808370043366018
      ],
      [
        "▁සමිති",
        -9.808669632625122
      ],
      [
        "ළු",
        -9.809711972142129
      ],
      [
        "▁අවුල්",
        -9.80977962308204
      ],
      [
        "▁මහේස්ත්",
        -9.809813650807985
      ],
      [
        "5",
        -9.810541763835882
      ],
      [
        "▁මොහොතේ",
        -9.810565164670045
      ],
      [
        "▁කොල්ල",
        -9.810895464385101
      ],
      [
        "▁ජවිපෙ",
        -9.81156296840713
      ],
      [
        "▁රීවරයා",
        -9.811887349644707
      ],
      [
        "▁විදිහ",
        -9.813032872884754
      ],
      [
        "▁H",
        -9.81326041861012
      ],
      [
        "▁සිටිනවා.",
        -9.813263456809686
      ],
      [
        "▁W",
        -9.81360245913051
      ],
      [
        "▁ගාව",
        -9.814781592069302
      ],
      [
        "▁ඇතිවන",
        -9.815461781805901
      ],
      [
        "▁;)",
        -9.815719433896906
      ],
      [
        "▁ගැසට්",
        -9.815743930964903
      ],
      [
        "▁මනුෂ්",
        -9.81601750802985
      ],
      [
        "▁කුසලාන",
        -9.81609265811132
      ],
      [
        "සිය",
        -9.81622360931186
      ],
      [
        "▁පිය",
        -9.81636042714717
      ],
      [
        "▁හය",
        -9.818935480589563
      ],
      [
        "▁ඉර",
        -9.819084870262849
      ],
      [
        "▁පර",
        -9.819111871421125
      ],
      [
        "▁ගුණවර්ධන",
        -9.819401488459167
      ],
      [
        "▁ගණන",
        -9.819516151760233
      ],
      [
        "▁යමින්",
        -9.820036890890536
      ],
      [
        "▁සමන්විත",
        -9.820822904266347
      ],
      [
        "▁ඔයාගෙ",
        -9.821747795834769
      ],
      [
        "▁එස්",
        -9.822853955878934
      ],
      [
        "▁ඉස්කෝලෙ",
        -9.822867296427365
      ],
      [
        "▁සැකකරු",
        -9.823546040672852
      ],
      [
        "S",
        -9.823623849043202
      ],
      [
        "▁පාසලේ",
        -9.82373612521944
      ],
      [
        "▁අක්",
        -9.824088902308343
      ],
      [
        "▁සඳ",
        -9.824290060221863
      ],
      [
        "▁විකිපීඩියා",
        -9.82493357134825
      ],
      [
        "▁ඉලක්ක",
        -9.82518553996385
      ],
      [
        "▁වැඩියෙන්",
        -9.825638962133011
      ],
      [
        "▁ආසියානු",
        -9.82596972527137
      ],
      [
        "▁හොදම",
        -9.82605207305473
      ],
      [
        "▁වටිනාකම",
        -9.827392761803285
      ],
      [
        "▁කුමක්ද?",
        -9.828636293025463
      ],
      [
        "▁post:",
        -9.828803938330065
      ],
      [
        "▁ඩ්",
        -9.828827881396922
      ],
      [
        "▁කැමතියි",
        -9.829239157799794
      ],
      [
        "▁මෙවන්",
        -9.829413364626424
      ],
      [
        "▁දත්",
        -9.829531239129992
      ],
      [
        "▁කොමිෂන්",
        -9.830991570905047
      ],
      [
        "▁ඉල්ලීමක්",
        -9.83199794419645
      ],
      [
        "▁කියමින්",
        -9.83259853908811
      ],
      [
        "▁අනුරාධපුර",
        -9.833218453878946
      ],
      [
        "▁E",
        -9.833769766090253
      ],
      [
        "▁ඒකයි",
        -9.834193889164473
      ],
      [
        "▁ආදායම්",
        -9.834241140489276
      ],
      [
        "▁නා",
        -9.835272234452432
      ],
      [
        "▁තියන්න",
        -9.835640169827379
      ],
      [
        "▁BBC",
        -9.836210092605226
      ],
      [
        "▁ගැන.",
        -9.836447369133184
      ],
      [
        "▁රදේශවල",
        -9.836646644419746
      ],
      [
        "▁ජාල",
        -9.836935569351827
      ],
      [
        "▁ෂා",
        -9.838179716005339
      ],
      [
        "ලූ",
        -9.838275785520601
      ],
      [
        "▁දොස්තර",
        -9.838475281753562
      ],
      [
        "▁කාරණය",
        -9.83904445079458
      ],
      [
        "▁රීය",
        -9.839433025801146
      ],
      [
        "▁ඇස",
        -9.839775467381838
      ],
      [
        "▁මොනා",
        -9.840295646956097
      ],
      [
        "▁හිතෙන්නේ",
        -9.84048662369615
      ],
      [
        "▁පොලිස්පති",
        -9.840905213604138
      ],
      [
        "▁ගොනු",
        -9.842045936928738
      ],
      [
        ".\"",
        -9.84210025010826
      ],
      [
        "▁බේරා",
        -9.842485316921149
      ],
      [
        "▁තාක්ෂණික",
        -9.842558115678273
      ],
      [
        "තාව",
        -9.842819211430644
      ],
      [
        "▁ඉකුත්",
        -9.843076480216034
      ],
      [
        "▁කොමෙන්ට්",
        -9.843131673676481
      ],
      [
        "යාගේ",
        -9.843171587619102
      ],
      [
        "▁වගා",
        -9.843623522190587
      ],
      [
        "▁අම්මට",
        -9.844176845829104
      ],
      [
        "▁අපේක්ෂා",
        -9.844820771143226
      ],
      [
        "▁උඩින්",
        -9.845538543860627
      ],
      [
        "▁නාමල්",
        -9.845971673564687
      ],
      [
        "...!",
        -9.84670274369564
      ],
      [
        "▁ලග",
        -9.846769249635948
      ],
      [
        "9",
        -9.846879759563354
      ],
      [
        "▁සිදුකර",
        -9.847227181804183
      ],
      [
        "▁කාලයේදී",
        -9.84741633555891
      ],
      [
        "නෝ",
        -9.847488609667677
      ],
      [
        "▁සහෝදරයා",
        -9.847808918845606
      ],
      [
        "©",
        -9.848043775692814
      ],
      [
        "▁සමාව",
        -9.84858480932701
      ],
      [
        "▁තරඟ",
        -9.8486635351253
      ],
      [
        "▁කාන්තාව",
        -9.84914953973521
      ],
      [
        "▁වර්ණ",
        -9.849279699411873
      ],
      [
        "▁ලෙඩ",
        -9.84980891060091
      ],
      [
        "▁බොහෝම",
        -9.849905866882175
      ],
      [
        "▁කොල්ලෙක්",
        -9.850052386967935
      ],
      [
        "▁රසවත්",
        -9.850310528907904
      ],
      [
        "▁විභාගය",
        -9.850381502443541
      ],
      [
        "▁රදේශය",
        -9.850963668054561
      ],
      [
        "▁අවබෝධ",
        -9.851113174028143
      ],
      [
        "▁ගාස්තු",
        -9.851131044199093
      ],
      [
        "ණි",
        -9.851227669192056
      ],
      [
        "▁කොමසාරිස්",
        -9.851518096247005
      ],
      [
        "▁දෙමින්",
        -9.852076593217987
      ],
      [
        "▁සිරුර",
        -9.852258515841296
      ],
      [
        "▁දියණිය",
        -9.852489475077181
      ],
      [
        "▁පහතින්",
        -9.853462830824627
      ],
      [
        "▁පොරොන්දු",
        -9.853897376603264
      ],
      [
        "▁අඩවියේ",
        -9.854031669408865
      ],
      [
        "▁තමා.",
        -9.854150803557399
      ],
      [
        "▁ලබාගත්",
        -9.854626893306893
      ],
      [
        "▁ආනන්ද",
        -9.854704920926588
      ],
      [
        "▁කරමු.",
        -9.854893578605775
      ],
      [
        "▁හොයන්න",
        -9.854901762761791
      ],
      [
        "▁R",
        -9.855060204283056
      ],
      [
        "▁යෑම",
        -9.855206727307896
      ],
      [
        "▁and",
        -9.855442202095535
      ],
      [
        "▁කරමි.",
        -9.855548476723389
      ],
      [
        "▁නීතිඥ",
        -9.855737272003552
      ],
      [
        "▁ඇවිල්ලා",
        -9.855755009146566
      ],
      [
        "▁ධීවර",
        -9.855782236249144
      ],
      [
        "▁කොල",
        -9.855879256111368
      ],
      [
        "ලට",
        -9.856019532039877
      ],
      [
        "▁ඇතිව",
        -9.856094752215448
      ],
      [
        "▁අයියේ",
        -9.856128146488075
      ],
      [
        "▁දැයි",
        -9.856189601112803
      ],
      [
        "▁එනවා.",
        -9.856396445951793
      ],
      [
        "▁ලියාපදිංචි",
        -9.856914348077726
      ],
      [
        "▁රම්ප්",
        -9.857017513701685
      ],
      [
        "▁වර්තමාන",
        -9.85727895677886
      ],
      [
        "▁ඇ",
        -9.857508080172007
      ],
      [
        "▁හදාගන්න",
        -9.857996101207704
      ],
      [
        "▁අනතුර",
        -9.858005180760653
      ],
      [
        "▁අධි",
        -9.858353192625714
      ],
      [
        "▁එම්.",
        -9.858520064648177
      ],
      [
        "▁මිශ්",
        -9.859292604091763
      ],
      [
        "▁ක්ලික්",
        -9.859327052968304
      ],
      [
        "▁නොදන්න",
        -9.859925706359267
      ],
      [
        "කරණය",
        -9.860762944718356
      ],
      [
        "▁හොදට",
        -9.861635517556644
      ],
      [
        "▁රජා",
        -9.861751386757431
      ],
      [
        "කල්",
        -9.862133248870837
      ],
      [
        "▁අනිවා",
        -9.862895711738979
      ],
      [
        "▁දමන",
        -9.862952779667609
      ],
      [
        "▁කැම්පස්",
        -9.863193248519124
      ],
      [
        "තර",
        -9.863331393608778
      ],
      [
        "▁දැනටමත්",
        -9.863382040379093
      ],
      [
        "කරු",
        -9.864958477056678
      ],
      [
        "▁පුරාවිද්",
        -9.865510823251427
      ],
      [
        "▁දන්වා",
        -9.865739585298403
      ],
      [
        "▁ඉන්නව",
        -9.866421538394633
      ],
      [
        "▁මැදිහත්",
        -9.8665364653312
      ],
      [
        "▁දෙදෙනෙකු",
        -9.867080387030281
      ],
      [
        "▁දැකල",
        -9.867358499450756
      ],
      [
        "▁බාධා",
        -9.86785429593112
      ],
      [
        "▁උනොත්",
        -9.868217701825657
      ],
      [
        "▁කොන්දේසි",
        -9.868252295544131
      ],
      [
        "▁දෙවෙනි",
        -9.868267109150391
      ],
      [
        "▁මිනිහා",
        -9.86828846256427
      ],
      [
        "▁යුද්ධ",
        -9.868324909710434
      ],
      [
        "▁කඳු",
        -9.868546493326708
      ],
      [
        "▁කාලා",
        -9.869556263716778
      ],
      [
        "▁රමාණවත්",
        -9.869705238511
      ],
      [
        "▁කාලෙකින්",
        -9.869880973603854
      ],
      [
        "▁ඓතිහාසික",
        -9.870260677136727
      ],
      [
        "▁දිනේෂ්",
        -9.87083510255614
      ],
      [
        "▁සහන",
        -9.871226928012053
      ],
      [
        "▁වේවි.",
        -9.87290428103022
      ],
      [
        "▁රයට",
        -9.873602222754993
      ],
      [
        "▁~",
        -9.873972424886793
      ],
      [
        "▁වගකීමක්",
        -9.87440729190812
      ],
      [
        "▁කාර්යාලයේ",
        -9.87465496061558
      ],
      [
        "▁අවස්ථාවට",
        -9.875049427597352
      ],
      [
        "▁සි",
        -9.875142786143064
      ],
      [
        "▁ඒව",
        -9.875305422464592
      ],
      [
        "▁ජ",
        -9.876058883291291
      ],
      [
        "▁රෝහලට",
        -9.876081466133279
      ],
      [
        "▁පැත්තෙන්",
        -9.876252301800466
      ],
      [
        "▁දෙපාර්තමේන්තුවේ",
        -9.877542306453302
      ],
      [
        "▁රතිපත්තිය",
        -9.879398313708544
      ],
      [
        "▁හුරු",
        -9.879833630073955
      ],
      [
        "▁ගෑණු",
        -9.880074629092473
      ],
      [
        "▁සටන",
        -9.880881865951757
      ],
      [
        "▁ඉඩක්",
        -9.881421622624224
      ],
      [
        "සිරි",
        -9.88144271409514
      ],
      [
        "▁කොහේ",
        -9.881656296241639
      ],
      [
        "▁අනු",
        -9.882617236702927
      ],
      [
        "වාදී",
        -9.883170958198807
      ],
      [
        "වලදී",
        -9.883673182660402
      ],
      [
        "▁හදපු",
        -9.884207995797567
      ],
      [
        "▁අනවශ්",
        -9.884265105271965
      ],
      [
        "▁පහ",
        -9.884334313726818
      ],
      [
        "මත්",
        -9.884365763958408
      ],
      [
        "▁රාර්ථනා",
        -9.88442989172352
      ],
      [
        "▁ඒකෙන්",
        -9.884473927609015
      ],
      [
        "▁රකට",
        -9.884627320018307
      ],
      [
        "▁සේවක",
        -9.884867168177358
      ],
      [
        "▁පුවත්පත්",
        -9.884961605753137
      ],
      [
        "▁ජෝන්",
        -9.885042559286749
      ],
      [
        "▁ආකාරයෙන්",
        -9.885109876345913
      ],
      [
        "▁බැ",
        -9.885553662012853
      ],
      [
        "පන්",
        -9.885580543174644
      ],
      [
        "▁රාජ",
        -9.88582993704326
      ],
      [
        "▁සිටියහ.",
        -9.885890120391299
      ],
      [
        "▁නැත්තං",
        -9.886635150703516
      ],
      [
        "an",
        -9.886777987446653
      ],
      [
        "▁කිරීම,",
        -9.88713835116989
      ],
      [
        "▁මිතුරන්",
        -9.887795739489171
      ],
      [
        "▁වනවා.",
        -9.888190840741546
      ],
      [
        "▁දෙකක",
        -9.888599224691658
      ],
      [
        "▁කෙල්ලෙක්",
        -9.889165726880229
      ],
      [
        "▁විශේෂඥ",
        -9.889201055870258
      ],
      [
        "▁ඇමතිවරයා",
        -9.889204684586268
      ],
      [
        "▁පුද්ගලයෙකු",
        -9.889818290477201
      ],
      [
        "▁ෆ්",
        -9.890232047739293
      ],
      [
        "▁දෙනු",
        -9.890589687921736
      ],
      [
        "▁දක්වන්නේ",
        -9.890782551227373
      ],
      [
        "එ",
        -9.89203300657236
      ],
      [
        "▁ලඟ",
        -9.892667219072479
      ],
      [
        "▁බරපතළ",
        -9.89270614953585
      ],
      [
        "▁දුර්වල",
        -9.892974219004056
      ],
      [
        "..ඒ",
        -9.893537901780233
      ],
      [
        "▁පැවසුවේ",
        -9.89359533030225
      ],
      [
        "ෙකු",
        -9.894940756450794
      ],
      [
        "▁සීමාව",
        -9.89494960745542
      ],
      [
        "▁මහන්සි",
        -9.895211776236295
      ],
      [
        "ත්ත",
        -9.895511510719317
      ],
      [
        "▁කෙරේ.",
        -9.895847516838518
      ],
      [
        "▁සතුටක්",
        -9.897188687713555
      ],
      [
        "▁ඇට",
        -9.898336885825008
      ],
      [
        "▁අන්තර්ජාල",
        -9.898570010060505
      ],
      [
        "▁වැඩිදුර",
        -9.898883564328926
      ],
      [
        "▁තරගයේ",
        -9.900050649473199
      ],
      [
        "▁කම්කරු",
        -9.900798306891753
      ],
      [
        "▁:P",
        -9.901837771590941
      ],
      [
        "▁ගෝඨාභය",
        -9.902222233852537
      ],
      [
        "▁බොහොමයක්",
        -9.90262727377102
      ],
      [
        "▁වෙනව",
        -9.902672058553675
      ],
      [
        "▁හෙන",
        -9.902710486881404
      ],
      [
        "▁වැස්ස",
        -9.902780074161832
      ],
      [
        "▁08",
        -9.902912862446122
      ],
      [
        "▁රීඩක",
        -9.903331834221081
      ],
      [
        "▁දුකක්",
        -9.903723628921663
      ],
      [
        "▁ගත්තු",
        -9.903974082219172
      ],
      [
        "▁කලක්",
        -9.904150451842149
      ],
      [
        "▁අහු",
        -9.904562472242597
      ],
      [
        "▁පත්තර",
        -9.904800593586252
      ],
      [
        "▁දියත්",
        -9.904889124475021
      ],
      [
        "▁අකමැති",
        -9.905234764270833
      ],
      [
        "▁අවලංගු",
        -9.905241744228684
      ],
      [
        "x7",
        -9.905299329703695
      ],
      [
        "▁භාෂා",
        -9.905565232014894
      ],
      [
        "▁සාධක",
        -9.905735697833705
      ],
      [
        "▁වුණ",
        -9.90575951862707
      ],
      [
        "▁යංශය",
        -9.905829401762304
      ],
      [
        "▁එකී",
        -9.906146052004999
      ],
      [
        "▁නාම",
        -9.906276464718328
      ],
      [
        "▁එකකින්",
        -9.906724669430005
      ],
      [
        "හරි",
        -9.907512321980494
      ],
      [
        "ුනු",
        -9.907610336637049
      ],
      [
        "▁උනාම",
        -9.907678393300873
      ],
      [
        "▁හිතාගන්න",
        -9.907731892964147
      ],
      [
        "▁බ",
        -9.908111244087905
      ],
      [
        "යේදී",
        -9.908112026470192
      ],
      [
        "▁:(",
        -9.908369220523799
      ],
      [
        "▁සිටියි.",
        -9.908438263990504
      ],
      [
        "▁විපක්ෂයේ",
        -9.90914689583605
      ],
      [
        "▁තිබේ",
        -9.909246596750117
      ],
      [
        "▁මට්ටමේ",
        -9.909383358837882
      ],
      [
        "▁දර්ශනය",
        -9.909949386587172
      ],
      [
        "▁දුන්නා",
        -9.910001780542952
      ],
      [
        "▁පුරාම",
        -9.910362773132732
      ],
      [
        "දින",
        -9.910616045794999
      ],
      [
        "▁පරීක්ෂා",
        -9.91162189557782
      ],
      [
        "▁පැවැසීය.",
        -9.912275947844238
      ],
      [
        "හම",
        -9.912301093876511
      ],
      [
        "▁සං",
        -9.912693838223717
      ],
      [
        "▁a",
        -9.912697377793236
      ],
      [
        "▁ලොකුම",
        -9.912965176356831
      ],
      [
        "▁ෂයේ",
        -9.913105615500928
      ],
      [
        "▁වර",
        -9.913263478105797
      ],
      [
        "▁දෙනෙකුට",
        -9.913475912696278
      ],
      [
        "▁බීම",
        -9.913691422405615
      ],
      [
        "යන",
        -9.9137687957992
      ],
      [
        "▁කම්",
        -9.913801211949977
      ],
      [
        "▁ඉන්නේ.",
        -9.913938574077134
      ],
      [
        "▁සහගත",
        -9.913948221033781
      ],
      [
        "▁වරද",
        -9.913958666362333
      ],
      [
        "▁ශී",
        -9.914310230540421
      ],
      [
        "▁28",
        -9.914633826701118
      ],
      [
        "▁#",
        -9.915136712311918
      ],
      [
        "▁සේවයේ",
        -9.915964517281541
      ],
      [
        "▁රෝගීන්",
        -9.91609200997319
      ],
      [
        "ි.",
        -9.91611501186171
      ],
      [
        "▁අනාගත",
        -9.917176541115195
      ],
      [
        "▁නියමිතව",
        -9.917281439806
      ],
      [
        "▁නැත්තම්",
        -9.917549990568148
      ],
      [
        "▁සැමට",
        -9.917893336945486
      ],
      [
        "▁ති",
        -9.91796709996034
      ],
      [
        "පී",
        -9.918246678962163
      ],
      [
        "▁ගැනීමෙන්",
        -9.918578715153483
      ],
      [
        "▁දෙන්න.",
        -9.918791370000559
      ],
      [
        "▁දිවයින",
        -9.919384316897112
      ],
      [
        "රය",
        -9.919896732099314
      ],
      [
        "▁අලුතින්",
        -9.92054816511311
      ],
      [
        "▁කීප",
        -9.920862164543694
      ],
      [
        "▁සයිට්",
        -9.921010772319573
      ],
      [
        "?\"",
        -9.921317562283466
      ],
      [
        "▁පූර්ණ",
        -9.921591026723732
      ],
      [
        "▁දස",
        -9.921655002703325
      ],
      [
        "▁විපක්ෂය",
        -9.921953458704875
      ],
      [
        "ar",
        -9.922022569242905
      ],
      [
        "▁පූජා",
        -9.922041591640017
      ],
      [
        "▁දැරිය",
        -9.922065269539713
      ],
      [
        "වන්න",
        -9.92220500073983
      ],
      [
        "▁වේගයෙන්",
        -9.92254139060819
      ],
      [
        "▁පේ",
        -9.92351748862309
      ],
      [
        "▁ලිපියේ",
        -9.92365391560758
      ],
      [
        "▁කිලෝ",
        -9.923789050359304
      ],
      [
        "▁අමතර",
        -9.92395758279391
      ],
      [
        "▁යස්ථානය",
        -9.92455717860897
      ],
      [
        "(VIDEO)",
        -9.925062281992876
      ],
      [
        "▁කුරුණෑගල",
        -9.925224929557391
      ],
      [
        "වන්නේ",
        -9.926691411448868
      ],
      [
        "කී",
        -9.926932434840339
      ],
      [
        "▁එස්.",
        -9.926973216607085
      ],
      [
        "නේ..",
        -9.927344467482111
      ],
      [
        "මක්",
        -9.927784573453463
      ],
      [
        "▁පවුල",
        -9.928375729483935
      ],
      [
        "▁ලද්දේ",
        -9.928397633067956
      ],
      [
        "▁Web",
        -9.928549342963167
      ],
      [
        "▁පවරා",
        -9.928759432050505
      ],
      [
        "▁ඔක්තෝබර්",
        -9.930792533149589
      ],
      [
        "කරුවන්",
        -9.931400153690387
      ],
      [
        "▁පිං",
        -9.931598832911998
      ],
      [
        "▁පිටපත්",
        -9.933114920522247
      ],
      [
        "▁ඇඳ",
        -9.933271330589367
      ],
      [
        "▁ගිවිසුම",
        -9.933542671995392
      ],
      [
        "▁සමීප",
        -9.93372611111803
      ],
      [
        "▁සමන්",
        -9.934110127278
      ],
      [
        "▁කෙනෙක්.",
        -9.934395849079616
      ],
      [
        "▁රමයට",
        -9.934400935120204
      ],
      [
        "▁කොමිසමේ",
        -9.935212380237452
      ],
      [
        "▁කෙරේ",
        -9.93541946201721
      ],
      [
        "▁කතාවට",
        -9.935537005991566
      ],
      [
        "▁ගහල",
        -9.935562522167583
      ],
      [
        "▁කියවා",
        -9.936243341180912
      ],
      [
        "▁පිළිකා",
        -9.93659941657107
      ],
      [
        "▁පිරි",
        -9.937140622172524
      ],
      [
        "▁හැක්කේ",
        -9.938048372054524
      ],
      [
        "▁තනියම",
        -9.938084287179146
      ],
      [
        "ච්",
        -9.938171267953283
      ],
      [
        "▁ඔබත්",
        -9.938909120954687
      ],
      [
        "▁යටත්",
        -9.938976552395777
      ],
      [
        "▁එබැවින්",
        -9.939264889392895
      ],
      [
        "කාරී",
        -9.939561204666298
      ],
      [
        "▁කේන්ද්",
        -9.939763743308841
      ],
      [
        "▁බැලීම",
        -9.93997622656242
      ],
      [
        "▁වටේ",
        -9.940025318288662
      ],
      [
        "▁දිව",
        -9.9409006764463
      ],
      [
        "▁පූර්ව",
        -9.941054543765382
      ],
      [
        "වෙමින්",
        -9.94121425820066
      ],
      [
        "▁සම්මානය",
        -9.941391443951478
      ],
      [
        "▁අපහසු",
        -9.94149236931844
      ],
      [
        "▁විනිසුරු",
        -9.941622459492478
      ],
      [
        "▁ලබාගෙන",
        -9.94219597869842
      ],
      [
        "▁පත්කර",
        -9.942817899764087
      ],
      [
        "▁වර්ජනය",
        -9.943055139659903
      ],
      [
        "▁හැඩ",
        -9.944072742279056
      ],
      [
        "▁ඇතුළත",
        -9.944841050332315
      ],
      [
        "ෂි",
        -9.945132084489284
      ],
      [
        "▁මෝඩ",
        -9.945294616345416
      ],
      [
        "▁කාට",
        -9.946093126957278
      ],
      [
        "▁සටහනක්",
        -9.946140600937138
      ],
      [
        "▁කියවල",
        -9.94625730874001
      ],
      [
        "පත්",
        -9.946938791068291
      ],
      [
        "▁බැංකුවේ",
        -9.947155707605223
      ],
      [
        "වලා",
        -9.947325921748575
      ],
      [
        "▁අතරතුර",
        -9.947338262480622
      ],
      [
        "ිත",
        -9.948057152066717
      ],
      [
        "▁ඇත්ත.",
        -9.948539015409562
      ],
      [
        "▁තිබ්බේ",
        -9.949970474472087
      ],
      [
        "▁ඉංජිනේරු",
        -9.950063967351191
      ],
      [
        "▁රමණය",
        -9.950131324122568
      ],
      [
        "▁පළාතේ",
        -9.95030503187743
      ],
      [
        "▁එවකට",
        -9.95042981329635
      ],
      [
        "▁දෙය",
        -9.950597665921485
      ],
      [
        "k",
        -9.95074697230387
      ],
      [
        "▁රියාවලිය",
        -9.951029389098064
      ],
      [
        "▁සාමාජිකයන්",
        -9.95245454624944
      ],
      [
        "▁යතාව",
        -9.952663575800049
      ],
      [
        "▁සේවාව",
        -9.953181827326926
      ],
      [
        "▁වර්ෂ",
        -9.95350493484736
      ],
      [
        "▁ලැබීය.",
        -9.953568784158922
      ],
      [
        "▁වෙද්දි",
        -9.95396505407714
      ],
      [
        "▁බහුතරය",
        -9.954827286199958
      ],
      [
        "මී",
        -9.954832413490825
      ],
      [
        "▁05",
        -9.954910382967384
      ],
      [
        "▁බැසිල්",
        -9.954954628719221
      ],
      [
        "▁යානා",
        -9.954986606819265
      ],
      [
        "▁බණ්ඩාරනායක",
        -9.955577574389041
      ],
      [
        "8",
        -9.95596269402237
      ],
      [
        "දීම",
        -9.956243430968252
      ],
      [
        "▁හී",
        -9.956261898023392
      ],
      [
        "▁කිරිමට",
        -9.956400883724985
      ],
      [
        "▁යළිත්",
        -9.957791584501415
      ],
      [
        "▁යාත්",
        -9.957798236937798
      ],
      [
        "▁ගායනා",
        -9.957881477072867
      ],
      [
        "▁මැති",
        -9.958033181466979
      ],
      [
        "▁සියළුම",
        -9.958168481059237
      ],
      [
        "▁ගැහැණු",
        -9.958313425234042
      ],
      [
        "▁තියනව",
        -9.958399918773935
      ],
      [
        "▁සෑහෙන්න",
        -9.958654270659764
      ],
      [
        "වයි",
        -9.958963640158132
      ],
      [
        "▁උ",
        -9.959256355536677
      ],
      [
        "▁රෑම්",
        -9.960056053137198
      ],
      [
        "▁සැමියා",
        -9.960366464836328
      ],
      [
        "▁පහක්",
        -9.960455276034867
      ],
      [
        "▁පාරට",
        -9.960720990992462
      ],
      [
        "▁යාජ",
        -9.961315121622462
      ],
      [
        "▁මත්පැන්",
        -9.961601325679364
      ],
      [
        "▁යන්න.",
        -9.961613795894415
      ],
      [
        "▁කාලීන",
        -9.961816298817997
      ],
      [
        "▁ශාස්ත්",
        -9.962504552526063
      ],
      [
        "බව",
        -9.96290258116601
      ],
      [
        "▁දූෂණය",
        -9.962984911427334
      ],
      [
        "▁ආවෙ",
        -9.963361908388192
      ],
      [
        "▁තොර",
        -9.963423526245766
      ],
      [
        "▁දහම්",
        -9.963718906782216
      ],
      [
        "වරයෙකු",
        -9.96383286907259
      ],
      [
        "▁යාපනයේ",
        -9.963984055347899
      ],
      [
        "ලින්",
        -9.96419575889849
      ],
      [
        "▁පිළිතුර",
        -9.964380554261208
      ],
      [
        "▁ගැටුම්",
        -9.965044096678202
      ],
      [
        "බර",
        -9.966468021833364
      ],
      [
        "▁කහ",
        -9.96694426556146
      ],
      [
        "▁පදනම",
        -9.967086076662195
      ],
      [
        "▁ලදි.",
        -9.967690830754824
      ],
      [
        "▁31",
        -9.967728421368253
      ],
      [
        "ාව",
        -9.967734112457347
      ],
      [
        "▁කළමනාකරණ",
        -9.967735489931275
      ],
      [
        "▁ඔවුහු",
        -9.968946139912584
      ],
      [
        "▁දන්නවා.",
        -9.96969616304527
      ],
      [
        "▁ජාති",
        -9.9696970092794
      ],
      [
        "▁දෙනකු",
        -9.969953146640844
      ],
      [
        "දේ",
        -9.970506968848763
      ],
      [
        "▁මින්",
        -9.970794682502802
      ],
      [
        "රිය",
        -9.971291534740416
      ],
      [
        "▁ඔහුව",
        -9.971574415252903
      ],
      [
        "▁වෙයිද",
        -9.971782949389809
      ],
      [
        "▁චීනය",
        -9.972696811890835
      ],
      [
        "▁වල්",
        -9.973251587095598
      ],
      [
        "▁හිතුන",
        -9.973365880678305
      ],
      [
        "▁ආසන",
        -9.973453029852827
      ],
      [
        "▁කියන්නේ.",
        -9.973541603238173
      ],
      [
        "▁සෙ",
        -9.97363438777577
      ],
      [
        "ජ්",
        -9.973786513439904
      ],
      [
        "ෂා",
        -9.97440431732016
      ],
      [
        "▁02",
        -9.974819233174351
      ],
      [
        "▁40",
        -9.974840075652907
      ],
      [
        "▁චරිතයක්",
        -9.975374018739679
      ],
      [
        "▁ගියේය.",
        -9.975590788698817
      ],
      [
        "▁පේන්න",
        -9.975628467744304
      ],
      [
        "▁නොවෙයි.",
        -9.975846747406726
      ],
      [
        "▁එයාගෙ",
        -9.9769203633297
      ],
      [
        "▁ඉදලා",
        -9.977368964489692
      ],
      [
        "▁රල්",
        -9.977771141598986
      ],
      [
        "▁තමාගේ",
        -9.977994110670403
      ],
      [
        "▁ටිකත්",
        -9.97824500623651
      ],
      [
        "▁සින්දුව",
        -9.978310743212038
      ],
      [
        "▁රියාමාර්ග",
        -9.978363743175453
      ],
      [
        "▁එහෙ",
        -9.97867731736752
      ],
      [
        "g",
        -9.978687070965808
      ],
      [
        "▁ආසයි",
        -9.97907403254655
      ],
      [
        "▁ඇත්නම්",
        -9.979617641598992
      ],
      [
        "▁වෙනිදා",
        -9.979956068343972
      ],
      [
        "▁කරගත",
        -9.980039272600749
      ],
      [
        "▁අල්ලස්",
        -9.980387971928105
      ],
      [
        "▁ඇර",
        -9.980589563285221
      ],
      [
        "ුත්",
        -9.98066137326792
      ],
      [
        "▁කරති.",
        -9.981336948950824
      ],
      [
        "▁රික්කයේ",
        -9.981500334752699
      ],
      [
        "re",
        -9.98160314060069
      ],
      [
        "▁රසික",
        -9.981666275514435
      ],
      [
        "▁හිතනවා",
        -9.981872232998295
      ],
      [
        "▁ඇතුලු",
        -9.981953929909967
      ],
      [
        "▁පිල",
        -9.982288908974573
      ],
      [
        "වාදය",
        -9.9828315443815
      ],
      [
        ".මේ",
        -9.983925213767805
      ],
      [
        "▁වැටෙන",
        -9.98445168956463
      ],
      [
        "▁බහුතරයක්",
        -9.984640550387159
      ],
      [
        "▁කොල්ලෝ",
        -9.98467026241754
      ],
      [
        "▁විදුලිය",
        -9.985252405702646
      ],
      [
        "▁කැසිනෝ",
        -9.9854590309617
      ],
      [
        "තව",
        -9.986486349005064
      ],
      [
        "▁යද්දී",
        -9.986487256482892
      ],
      [
        "මි.",
        -9.986694164782712
      ],
      [
        "▁රථයක්",
        -9.986866388235903
      ],
      [
        "ිලා",
        -9.987107048440022
      ],
      [
        "▁විමසා",
        -9.98725564722259
      ],
      [
        "▁ගැට",
        -9.987307482003217
      ],
      [
        "▁අර්බුදය",
        -9.98755516307546
      ],
      [
        "▁රහාරයක්",
        -9.98756137011366
      ],
      [
        "▁වැලි",
        -9.987820952196072
      ],
      [
        "▁වෙතින්",
        -9.988037150586894
      ],
      [
        "▁නිසයි.",
        -9.988472570950641
      ],
      [
        "▁උදාහරණයක්",
        -9.988652284115147
      ],
      [
        "▁යූ",
        -9.989024041628447
      ],
      [
        "කමක්",
        -9.989270468625982
      ],
      [
        "▁අතිශය",
        -9.989586439047757
      ],
      [
        "▁ජූලි",
        -9.98967990941686
      ],
      [
        "▁ධර්මය",
        -9.990314799346404
      ],
      [
        "▁සිද්ද",
        -9.991060835308517
      ],
      [
        "▁අවුරුද්දේ",
        -9.991261254658571
      ],
      [
        "▁ස්ථානයේ",
        -9.991802699554363
      ],
      [
        "▁තියලා",
        -9.99268105262175
      ],
      [
        "▁මිලට",
        -9.992936368767403
      ],
      [
        "▁පෙම්",
        -9.992978159115102
      ],
      [
        "▁කොටුව",
        -9.993162611165346
      ],
      [
        "▁නැත්තේ",
        -9.99332433567126
      ],
      [
        "▁ඩි",
        -9.993586492806923
      ],
      [
        "▁අස්",
        -9.994389968203624
      ],
      [
        "▁වීරවංශ",
        -9.99447162501329
      ],
      [
        "ටර්",
        -9.99461234904619
      ],
      [
        "▁පළවෙනි",
        -9.994749626448861
      ],
      [
        "▁නිමල්",
        -9.995117397023115
      ],
      [
        "▁වර්ගයේ",
        -9.995275358099477
      ],
      [
        "▁සයිටම්",
        -9.99569045656958
      ],
      [
        "▁පුත්",
        -9.996044287868294
      ],
      [
        "▁විශ්වකෝෂය",
        -9.996146189200362
      ],
      [
        "▁කෙනෙකු",
        -9.996236871867975
      ],
      [
        "▁ලෝකෙ",
        -9.996262692267866
      ],
      [
        "▁අපහාස",
        -9.996381826302782
      ],
      [
        "▁ශාන්ත",
        -9.996607886755811
      ],
      [
        "▁බොන",
        -9.997424870867153
      ],
      [
        "▁ගෑ",
        -9.997693057598877
      ],
      [
        "කරන්න",
        -9.997845435219283
      ],
      [
        "▁හතරක්",
        -9.998685361000806
      ],
      [
        "▁ලබන්නේ",
        -9.998755749640528
      ],
      [
        "ණය",
        -9.999402990792175
      ],
      [
        "▁ගියත්",
        -9.999890562446945
      ],
      [
        "▁රැ",
        -10.000041812374587
      ],
      [
        "▁ලාංකීය",
        -10.000848865514307
      ],
      [
        "▁ජේ",
        -10.001292376711177
      ],
      [
        "▁රපටයේ",
        -10.001449035145338
      ],
      [
        "▁හොයාගෙන",
        -10.001539462837954
      ],
      [
        "▁ස්වභාවය",
        -10.001955127075643
      ],
      [
        "▁ඒවායේ",
        -10.002988534210274
      ],
      [
        "▁ලක්ව",
        -10.003685398013207
      ],
      [
        "▁මුකුත්",
        -10.004023498513433
      ],
      [
        "▁කළහ.",
        -10.004635872706539
      ],
      [
        "▁නායකයන්",
        -10.005082109456115
      ],
      [
        "න්නේ",
        -10.005202586042746
      ],
      [
        "▁ඔව්.",
        -10.005722256995156
      ],
      [
        "M",
        -10.006454921645503
      ],
      [
        "▁ලැබෙනවා.",
        -10.006482019301036
      ],
      [
        "▁අරමුණු",
        -10.006854009010544
      ],
      [
        "▁තැන්පත්",
        -10.007052044755433
      ],
      [
        "▁ලෙසට",
        -10.007086948684604
      ],
      [
        "▁ජයවර්ධන",
        -10.00709020652009
      ],
      [
        "යි!",
        -10.007510518151577
      ],
      [
        "▁කරමු",
        -10.007771458595844
      ],
      [
        "▁බලධාරීන්",
        -10.007990553092398
      ],
      [
        "▁කීය.",
        -10.008374853962186
      ],
      [
        "▁සා",
        -10.008819206185628
      ],
      [
        "▁බැලූ",
        -10.008992494002847
      ],
      [
        "▁වාඩි",
        -10.009064478018004
      ],
      [
        "▁පුද්ගල",
        -10.00921702469215
      ],
      [
        "▁බං..",
        -10.009745847007554
      ],
      [
        "▁නිවන්",
        -10.010540962806632
      ],
      [
        "▁පාපන්දු",
        -10.01078974510505
      ],
      [
        "▁බුදුන්",
        -10.010978268058912
      ],
      [
        "▁තියෙනවා..",
        -10.011036096994573
      ],
      [
        "..\"",
        -10.01110581879963
      ],
      [
        "▁වීමත්",
        -10.011177704934557
      ],
      [
        "▁සැලකිය",
        -10.011638306344636
      ],
      [
        "T",
        -10.01187650198126
      ],
      [
        "▁(4)",
        -10.011945163887534
      ],
      [
        "▁විවේචනය",
        -10.012262544970131
      ],
      [
        "P",
        -10.01253412670182
      ],
      [
        "▁සබඳතා",
        -10.012663750994136
      ],
      [
        "▁වචනය",
        -10.012784908644026
      ],
      [
        "▁මොහු",
        -10.012965811593512
      ],
      [
        "▁නොමැතිව",
        -10.013283181290868
      ],
      [
        "▁අර්ථ",
        -10.013677879258278
      ],
      [
        "▁(3)",
        -10.013679461207388
      ],
      [
        "▁ශරීර",
        -10.013869512322998
      ],
      [
        "▁කවුරුවත්",
        -10.014527324136582
      ],
      [
        "▁අමු",
        -10.014644181465119
      ],
      [
        "▁ගාන",
        -10.014764291632627
      ],
      [
        "▁වසන්ත",
        -10.014964627071091
      ],
      [
        "▁වාසි",
        -10.015693053094616
      ],
      [
        "▁සේනාරත්න",
        -10.016329129259148
      ],
      [
        "▁අධිකාරිය",
        -10.016394649224573
      ],
      [
        "▁වතාවක්",
        -10.016508961058953
      ],
      [
        "▁වටහා",
        -10.017643781274103
      ],
      [
        "▁එනකොට",
        -10.017680690750673
      ],
      [
        "▁කරුණානායක",
        -10.0178816654138
      ],
      [
        "▁කොල්ලො",
        -10.01795678856385
      ],
      [
        "▁රපටිය",
        -10.017996714656174
      ],
      [
        "තිය",
        -10.018799145343475
      ],
      [
        "▁වුව",
        -10.018907644572193
      ],
      [
        "▁කේ",
        -10.019056672743545
      ],
      [
        "▁ඈත",
        -10.01906789585996
      ],
      [
        "▁වියදම",
        -10.019131583281624
      ],
      [
        "න්ගෙන්",
        -10.019371208871824
      ],
      [
        "▁ලියූ",
        -10.019573881332136
      ],
      [
        "▁පැවැත්වූ",
        -10.019792918258087
      ],
      [
        "▁ලා",
        -10.020743802450887
      ],
      [
        "▁පාලක",
        -10.021315498500325
      ],
      [
        "▁පෑ",
        -10.021903746352315
      ],
      [
        "▁ලබයි.",
        -10.022161253912696
      ],
      [
        "▁හරක්",
        -10.023857222933447
      ],
      [
        "▁&",
        -10.023918745805691
      ],
      [
        "ප්ප",
        -10.024117786983625
      ],
      [
        "▁ආගම්",
        -10.024786148367516
      ],
      [
        "▁ඌව",
        -10.026125827024213
      ],
      [
        ".”",
        -10.026433652635546
      ],
      [
        "▁මතකයි",
        -10.026791221209521
      ],
      [
        "▁ඕවා",
        -10.027083732548878
      ],
      [
        "▁06",
        -10.027370002350683
      ],
      [
        "▁නිදහසේ",
        -10.027465284007487
      ],
      [
        "▁ඔස්ට්",
        -10.027492374531462
      ],
      [
        "▁රැඳී",
        -10.028172781806697
      ],
      [
        "▁දෙකට",
        -10.028178287591164
      ],
      [
        "▁හෙයින්",
        -10.02902457134201
      ],
      [
        "▁lanka",
        -10.02928250954958
      ],
      [
        "▁සැම",
        -10.029404755799149
      ],
      [
        "▁බැවිනි.",
        -10.0294353619133
      ],
      [
        "▁හමුදාවේ",
        -10.029685164515136
      ],
      [
        "▁මොවුන්",
        -10.029808264492882
      ],
      [
        "▁ඔයාලා",
        -10.029985530369114
      ],
      [
        "L",
        -10.031639473012703
      ],
      [
        "▁මුලු",
        -10.031727963827247
      ],
      [
        "▁අතුරුදහන්",
        -10.03226913070122
      ],
      [
        "▁නින්ද",
        -10.032519990879527
      ],
      [
        "▁කාර්යය",
        -10.03257830253756
      ],
      [
        "us",
        -10.032658349688418
      ],
      [
        "▁වේගය",
        -10.034090236436473
      ],
      [
        "▁ඔබටත්",
        -10.036048030812175
      ],
      [
        "▁ස්තුතියි.",
        -10.037352790985054
      ],
      [
        "▁29",
        -10.038498871263641
      ],
      [
        "▁තමාට",
        -10.038670257250892
      ],
      [
        "▁වාර්තාවක්",
        -10.03868179927304
      ],
      [
        "▁හවස",
        -10.038791900033303
      ],
      [
        "▁වැල",
        -10.03908348013729
      ],
      [
[...]
