{
  "version": "1.0",
  "truncation": null,
  "padding": null,
  "added_tokens": [
    {
      "id": 0,
      "content": "[UNK]",
      "single_word": false,
      "lstrip": false,
      "rstrip": false,
      "normalized": false,
      "special": true
    },
    {
      "id": 1,
      "content": "[CLS]",
      "single_word": false,
      "lstrip": false,
      "rstrip": false,
      "normalized": false,
      "special": true
    },
    {
      "id": 2,
      "content": "[SEP]",
      "single_word": false,
      "lstrip": false,
      "rstrip": false,
      "normalized": false,
      "special": true
    },
    {
      "id": 3,
      "content": "[PAD]",
      "single_word": false,
      "lstrip": false,
      "rstrip": false,
      "normalized": false,
      "special": true
    },
    {
      "id": 4,
      "content": "[MASK]",
      "single_word": false,
      "lstrip": false,
      "rstrip": false,
      "normalized": false,
      "special": true
    }
  ],
  "normalizer": {
    "type": "Sequence",
    "normalizers": [
      {
        "type": "Nmt"
      },
      {
        "type": "NFKC"
      },
      {
        "type": "Replace",
        "pattern": {
          "Regex": " {2,}"
        },
        "content": " "
      }
    ]
  },
  "pre_tokenizer": {
    "type": "Metaspace",
    "replacement": "▁",
    "prepend_scheme": "always",
    "split": true
  },
  "post_processor": null,
  "decoder": {
    "type": "Metaspace",
    "replacement": "▁",
    "prepend_scheme": "always",
    "split": true
  },
  "model": {
    "type": "Unigram",
    "unk_id": 0,
    "vocab": [
      [
        "[UNK]",
        0.0
      ],
      [
        "[CLS]",
        0.0
      ],
      [
        "[SEP]",
        0.0
      ],
      [
        "[PAD]",
        0.0
      ],
      [
        "[MASK]",
        0.0
      ],
      [
        "▁",
        -2.4043038272464603
      ],
      [
        ",",
        -3.4322508156027496
      ],
      [
        "▁di",
        -3.5283304940301843
      ],
      [
        "e",
        -3.7174936689806533
      ],
      [
        ".",
        -3.8581185281503085
      ],
      [
        "a",
        -4.202817188307844
      ],
      [
        "▁che",
        -4.35160143660762
      ],
      [
        "▁la",
        -4.435678233274192
      ],
      [
        "▁il",
        -4.4516494846473424
      ],
      [
        "▁in",
        -4.49249230326183
      ],
      [
        "i",
        -4.542239161239113
      ],
      [
        "▁per",
        -4.582912092608753
      ],
      [
        "▁un",
        -4.745571452462446
      ],
      [
        "▁del",
        -4.839055144231281
      ],
      [
        "è",
        -4.844731398254588
      ],
      [
        "o",
        -5.03787096381234
      ],
      [
        "▁con",
        -5.106551436668861
      ],
      [
        "▁non",
        -5.114594094929464
      ],
      [
        "▁le",
        -5.168200641558682
      ],
      [
        "▁una",
        -5.187037866419278
      ],
      [
        "▁della",
        -5.206357366156764
      ],
      [
        "▁da",
        -5.328989301122881
      ],
      [
        "▁si",
        -5.340743674661891
      ],
      [
        "▁al",
        -5.460531470131331
      ],
      [
        ":",
        -5.4658290903304465
      ],
      [
        "▁dei",
        -5.680970393337061
      ],
      [
        "▁sono",
        -5.692522431570831
      ],
      [
        "▁più",
        -5.789280072830371
      ],
      [
        "▁delle",
        -5.918962302948605
      ],
      [
        "▁nel",
        -5.936452699816892
      ],
      [
        "▁come",
        -5.975985093095186
      ],
      [
        "▁alla",
        -5.982936017627448
      ],
      [
        "▁ha",
        -5.993440658444985
      ],
      [
        "▁ma",
        -6.001940818348492
      ],
      [
        "▁anche",
        -6.004002170091139
      ],
      [
        "▁Il",
        -6.168013621598712
      ],
      [
        "re",
        -6.171496380256942
      ],
      [
        ")",
        -6.200328358289902
      ],
      [
        "▁La",
        -6.205652115975713
      ],
      [
        "▁gli",
        -6.249892874438411
      ],
      [
        "...",
        -6.25710096861623
      ],
      [
        "▁se",
        -6.300212841885251
      ],
      [
        "▁ad",
        -6.313122734734744
      ],
      [
        "▁questo",
        -6.362433923514832
      ],
      [
        "▁su",
        -6.375586759904371
      ],
      [
        "▁ed",
        -6.377274443481234
      ],
      [
        "?",
        -6.385835926890609
      ],
      [
        "▁dal",
        -6.394850488006069
      ],
      [
        "▁essere",
        -6.411518070038415
      ],
      [
        "▁lo",
        -6.4651974178759755
      ],
      [
        "no",
        -6.5081920099102035
      ],
      [
        "▁cui",
        -6.553278131478191
      ],
      [
        "▁mi",
        -6.558071365504405
      ],
      [
        "▁nella",
        -6.5706759796749346
      ],
      [
        "!",
        -6.578273384593487
      ],
      [
        "▁ci",
        -6.596008859008618
      ],
      [
        "▁-",
        -6.626849731989147
      ],
      [
        "s",
        -6.661263784151545
      ],
      [
        "te",
        -6.684426794301677
      ],
      [
        "▁alle",
        -6.7036725760077545
      ],
      [
        ";",
        -6.70466707160592
      ],
      [
        "▁ai",
        -6.714222538473324
      ],
      [
        "▁(",
        -6.718258691946152
      ],
      [
        "to",
        -6.744505510106322
      ],
      [
        "▁sul",
        -6.758992627820481
      ],
      [
        "ti",
        -6.769612849489398
      ],
      [
        "▁degli",
        -6.788763986080955
      ],
      [
        "▁tra",
        -6.793817660529635
      ],
      [
        "▁solo",
        -6.803122406226112
      ],
      [
        "▁tutti",
        -6.818014428758971
      ],
      [
        "”",
        -6.852188333499324
      ],
      [
        "▁In",
        -6.875093482305335
      ],
      [
        "▁dalla",
        -6.883707856480255
      ],
      [
        "ta",
        -6.89688064690449
      ],
      [
        "▁I",
        -6.900501173880892
      ],
      [
        "▁molto",
        -6.905450723543858
      ],
      [
        "-",
        -6.915986242145822
      ],
      [
        "▁ho",
        -6.919505004546993
      ],
      [
        "▁loro",
        -6.92615683501807
      ],
      [
        "▁parte",
        -6.932459080457939
      ],
      [
        "▁E",
        -6.936483722118398
      ],
      [
        "▁–",
        -6.936686288687447
      ],
      [
        "▁A",
        -6.9389432366110295
      ],
      [
        "▁sempre",
        -6.943098905799058
      ],
      [
        "▁hanno",
        -6.943511526539705
      ],
      [
        "▁“",
        -6.949695256372241
      ],
      [
        "▁Per",
        -6.954130441510616
      ],
      [
        "▁può",
        -6.966284304841993
      ],
      [
        "▁prima",
        -6.987704122805182
      ],
      [
        "▁tutto",
        -7.011173668163705
      ],
      [
        "▁questa",
        -7.023698907433062
      ],
      [
        "▁sia",
        -7.027083801514838
      ],
      [
        "▁due",
        -7.036964735998039
      ],
      [
        "n",
        -7.043304703703811
      ],
      [
        "l",
        -7.077825387466731
      ],
      [
        "▁stato",
        -7.082567824828189
      ],
      [
        "\"",
        -7.096779160318011
      ],
      [
        "▁fare",
        -7.110810377084944
      ],
      [
        "va",
        -7.117037231185462
      ],
      [
        "▁anni",
        -7.128852068002683
      ],
      [
        "▁sua",
        -7.140151107467135
      ],
      [
        "▁ogni",
        -7.145506666950414
      ],
      [
        "▁suo",
        -7.154770850932152
      ],
      [
        "le",
        -7.1590971644142805
      ],
      [
        "ndo",
        -7.159101012105632
      ],
      [
        "▁uno",
        -7.176460893582227
      ],
      [
        "▁sulla",
        -7.207127304206217
      ],
      [
        "▁Le",
        -7.213806171929853
      ],
      [
        "▁senza",
        -7.21724430489216
      ],
      [
        "▁Non",
        -7.2518437474811375
      ],
      [
        "▁quando",
        -7.252957343801921
      ],
      [
        "▁fatto",
        -7.258696439601904
      ],
      [
        "▁nei",
        -7.271009144946234
      ],
      [
        "▁modo",
        -7.279304481662619
      ],
      [
        ").",
        -7.29669417900141
      ],
      [
        "▁era",
        -7.303694239944935
      ],
      [
        "▁Ma",
        -7.310709957837588
      ],
      [
        "▁tempo",
        -7.31704284954405
      ],
      [
        "▁Se",
        -7.319509969529241
      ],
      [
        "▁perché",
        -7.325470416723226
      ],
      [
        "▁quello",
        -7.326175732536164
      ],
      [
        "▁dopo",
        -7.333089667655527
      ],
      [
        "▁ancora",
        -7.34162326160593
      ],
      [
        "▁quanto",
        -7.350820592843164
      ],
      [
        "▁fa",
        -7.370784771504409
      ],
      [
        "▁proprio",
        -7.382474001183082
      ],
      [
        "▁così",
        -7.389333047948769
      ],
      [
        "▁cosa",
        -7.404680823638056
      ],
      [
        "▁l’",
        -7.406280318491945
      ],
      [
        "▁\"",
        -7.410913474380875
      ],
      [
        "▁chi",
        -7.417710591899299
      ],
      [
        "si",
        -7.41868408435043
      ],
      [
        "▁poi",
        -7.42031358292887
      ],
      [
        "▁ne",
        -7.4266796792877265
      ],
      [
        "▁altri",
        -7.442368514876229
      ],
      [
        "ci",
        -7.451177605489518
      ],
      [
        "▁l'",
        -7.4529453154337855
      ],
      [
        "▁Si",
        -7.468832659875023
      ],
      [
        "▁dove",
        -7.487872930682286
      ],
      [
        "▁già",
        -7.4949863853617025
      ],
      [
        "▁ti",
        -7.50285051820731
      ],
      [
        "di",
        -7.527884337737417
      ],
      [
        "▁nelle",
        -7.5285654378715865
      ],
      [
        "▁caso",
        -7.540030385358609
      ],
      [
        "),",
        -7.542276762466917
      ],
      [
        "/",
        -7.546246403523586
      ],
      [
        "t",
        -7.551379454933329
      ],
      [
        "▁vi",
        -7.571378878895198
      ],
      [
        "▁2",
        -7.58085163024387
      ],
      [
        "d",
        -7.581946452176409
      ],
      [
        "▁Un",
        -7.598120472018026
      ],
      [
        "▁vita",
        -7.605458193234858
      ],
      [
        "▁tutte",
        -7.611375085356704
      ],
      [
        "▁quella",
        -7.63675074392857
      ],
      [
        "ri",
        -7.646705798843605
      ],
      [
        "ne",
        -7.652608723600395
      ],
      [
        "▁possono",
        -7.654162691511289
      ],
      [
        "▁nostro",
        -7.656207570854319
      ],
      [
        "▁grande",
        -7.658256206962228
      ],
      [
        "▁lavoro",
        -7.663562782568279
      ],
      [
        "▁mio",
        -7.6640970298316855
      ],
      [
        "r",
        -7.669622421460646
      ],
      [
        "▁mai",
        -7.677328324543511
      ],
      [
        "▁sarà",
        -7.685744160834599
      ],
      [
        "▁persone",
        -7.687731125393617
      ],
      [
        "▁volta",
        -7.689090314354349
      ],
      [
        "▁fino",
        -7.70578425491013
      ],
      [
        "▁questi",
        -7.711311013538193
      ],
      [
        "▁quindi",
        -7.719772940619624
      ],
      [
        "▁3",
        -7.7266215153868565
      ],
      [
        "la",
        -7.739463740154148
      ],
      [
        "▁dalle",
        -7.745669252751853
      ],
      [
        "▁1",
        -7.746229128899653
      ],
      [
        "▁quale",
        -7.753688414185426
      ],
      [
        "▁fine",
        -7.765652034173296
      ],
      [
        "▁primo",
        -7.771098193932156
      ],
      [
        "▁me",
        -7.771776951975728
      ],
      [
        "▁viene",
        -7.777632682922171
      ],
      [
        "▁secondo",
        -7.78025939006818
      ],
      [
        "▁stata",
        -7.782266301369743
      ],
      [
        "▁mondo",
        -7.7829384761308145
      ],
      [
        "▁tuo",
        -7.789353600017929
      ],
      [
        "▁n.",
        -7.7954599910043765
      ],
      [
        "▁dai",
        -7.809027863583616
      ],
      [
        "▁mia",
        -7.810597880537191
      ],
      [
        "▁dell’",
        -7.810856061810947
      ],
      [
        "▁possibile",
        -7.83381990007998
      ],
      [
        "”.",
        -7.834801652509187
      ],
      [
        "▁casa",
        -7.843603623719121
      ],
      [
        "▁qualche",
        -7.852116382093021
      ],
      [
        "▁deve",
        -7.855834134453048
      ],
      [
        "▁agli",
        -7.8667006572139755
      ],
      [
        "▁oltre",
        -7.869654889276239
      ],
      [
        "lo",
        -7.869879814384733
      ],
      [
        "▁stesso",
        -7.87133378215144
      ],
      [
        "▁dati",
        -7.8844776456708185
      ],
      [
        "▁nostra",
        -7.884974497118641
      ],
      [
        "▁punto",
        -7.885512840921157
      ],
      [
        "vi",
        -7.888616597159331
      ],
      [
        "rsi",
        -7.888749196852274
      ],
      [
        "▁giorni",
        -7.890292425507489
      ],
      [
        "▁meno",
        -7.890495194116923
      ],
      [
        "'",
        -7.89338700242701
      ],
      [
        "▁4",
        -7.899299949682197
      ],
      [
        "▁ore",
        -7.900158965199701
      ],
      [
        "▁avere",
        -7.900383026098201
      ],
      [
        "▁5",
        -7.901489219081995
      ],
      [
        "▁abbiamo",
        -7.902592423777643
      ],
      [
        "▁quali",
        -7.902940595932906
      ],
      [
        "▁giorno",
        -7.906761213258829
      ],
      [
        "▁nuovo",
        -7.909684918002661
      ],
      [
        "c",
        -7.910990935876692
      ],
      [
        "▁momento",
        -7.926513416095142
      ],
      [
        "dello",
        -7.92774598778319
      ],
      [
        "▁sito",
        -7.933407982450591
      ],
      [
        "▁noi",
        -7.938352401532086
      ],
      [
        "▁Nel",
        -7.9433729090869925
      ],
      [
        "▁altre",
        -7.944264179789586
      ],
      [
        "▁L’",
        -7.947486555733244
      ],
      [
        "m",
        -7.9508607032095195
      ],
      [
        "▁bene",
        -7.952243516638008
      ],
      [
        "mente",
        -7.953012797079488
      ],
      [
        "▁tre",
        -7.965274361818308
      ],
      [
        "che",
        -7.9670363845442935
      ],
      [
        "▁legge",
        -7.967338164116658
      ],
      [
        "▁base",
        -7.967687522412341
      ],
      [
        "▁Come",
        -7.971556324283478
      ],
      [
        "▁qui",
        -7.9822922382720165
      ],
      [
        "▁attività",
        -7.986245854188512
      ],
      [
        "▁sotto",
        -7.992582544889647
      ],
      [
        "È",
        -7.999911159469052
      ],
      [
        "▁suoi",
        -8.002678725497628
      ],
      [
        "mo",
        -8.010719687673053
      ],
      [
        "▁alcuni",
        -8.011632454740115
      ],
      [
        "▁via",
        -8.011979254033385
      ],
      [
        "▁Una",
        -8.013489288740608
      ],
      [
        "▁dell'",
        -8.017544975519565
      ],
      [
        "▁rispetto",
        -8.036214771777377
      ],
      [
        "▁sta",
        -8.03804553120243
      ],
      [
        "▁10",
        -8.053606030135876
      ],
      [
        "▁altro",
        -8.0564090341087
      ],
      [
        "▁sistema",
        -8.056611193136925
      ],
      [
        "▁oggi",
        -8.056804803551142
      ],
      [
        "▁Con",
        -8.05808109813239
      ],
      [
        "u",
        -8.062041831229864
      ],
      [
        "▁Mi",
        -8.072755230486608
      ],
      [
        "▁sui",
        -8.077186232008028
      ],
      [
        "▁sulle",
        -8.078234697062236
      ],
      [
        "gli",
        -8.079990214638086
      ],
      [
        "▁tanto",
        -8.08006397682274
      ],
      [
        "▁tua",
        -8.084458376688223
      ],
      [
        "▁prodotti",
        -8.090812225352654
      ],
      [
        "▁durante",
        -8.091369859020965
      ],
      [
        "▁ben",
        -8.093701859125776
      ],
      [
        "▁contro",
        -8.104980779932811
      ],
      [
        "▁circa",
        -8.107918619719753
      ],
      [
        "▁ciò",
        -8.11253155101275
      ],
      [
        "▁queste",
        -8.112825038837652
      ],
      [
        "mi",
        -8.113698322241566
      ],
      [
        "ro",
        -8.116296223063314
      ],
      [
        "▁quel",
        -8.11758864507514
      ],
      [
        "vo",
        -8.120605461456087
      ],
      [
        "p",
        -8.123741359783914
      ],
      [
        "▁siamo",
        -8.126540659846885
      ],
      [
        "▁aver",
        -8.128880364163344
      ],
      [
        "▁Di",
        -8.132764386815767
      ],
      [
        "▁L'",
        -8.133335839383234
      ],
      [
        "▁Questo",
        -8.140705904710085
      ],
      [
        "na",
        -8.14233655537756
      ],
      [
        "▁stati",
        -8.14359394714039
      ],
      [
        "▁attraverso",
        -8.149994384199651
      ],
      [
        "▁ora",
        -8.150033595534111
      ],
      [
        "▁far",
        -8.15047692270022
      ],
      [
        "”,",
        -8.151398247865107
      ],
      [
        "▁nostri",
        -8.155080184707996
      ],
      [
        "zione",
        -8.158805820178168
      ],
      [
        "▁Sono",
        -8.166954377918506
      ],
      [
        "▁soprattutto",
        -8.168723948985601
      ],
      [
        "▁grazie",
        -8.17087997816536
      ],
      [
        "▁li",
        -8.171558090886831
      ],
      [
        "▁servizio",
        -8.173132100586733
      ],
      [
        "▁S",
        -8.17422332090801
      ],
      [
        "▁informazioni",
        -8.184793126744264
      ],
      [
        "▁mentre",
        -8.18481453153655
      ],
      [
        "▁Lo",
        -8.191343775399128
      ],
      [
        "ma",
        -8.192077327385602
      ],
      [
        "O",
        -8.19476330579297
      ],
      [
        "▁meglio",
        -8.196611914202176
      ],
      [
        "▁Ci",
        -8.205629241832607
      ],
      [
        "▁servizi",
        -8.209957877536661
      ],
      [
        "▁cose",
        -8.21199601767531
      ],
      [
        "▁verso",
        -8.214712780348929
      ],
      [
        "▁poco",
        -8.215770220520264
      ],
      [
        "nte",
        -8.216104437013163
      ],
      [
        "▁DI",
        -8.218191121834694
      ],
      [
        "▁volte",
        -8.219935872184669
      ],
      [
        "▁ricerca",
        -8.226129392154876
      ],
      [
        "▁nuova",
        -8.226609694212671
      ],
      [
        "▁tipo",
        -8.22664366961941
      ],
      [
        "▁spesso",
        -8.237952538622654
      ],
      [
        "▁corso",
        -8.240776500043712
      ],
      [
        "▁quelli",
        -8.242232041422175
      ],
      [
        "co",
        -8.24233275808346
      ],
      [
        "ca",
        -8.24303190106434
      ],
      [
        "▁storia",
        -8.243927667193388
      ],
      [
        "▁6",
        -8.247487832841744
      ],
      [
        "▁numero",
        -8.248051580256742
      ],
      [
        "▁presente",
        -8.25321658011643
      ],
      [
        "▁visto",
        -8.256878644442484
      ],
      [
        "▁città",
        -8.25818969857617
      ],
      [
        "▁dire",
        -8.263822105659457
      ],
      [
        "▁hai",
        -8.266566051641094
      ],
      [
        "▁presso",
        -8.267105150129414
      ],
      [
        "▁negli",
        -8.270395924853453
      ],
      [
        "▁livello",
        -8.270519652026978
      ],
      [
        "▁aveva",
        -8.271202097546022
      ],
      [
        "▁invece",
        -8.272138337912207
      ],
      [
        "▁quasi",
        -8.277830766659022
      ],
      [
        "▁Gli",
        -8.28301949826739
      ],
      [
        "▁tutta",
        -8.28331445018264
      ],
      [
        "▁però",
        -8.283474889304301
      ],
      [
        "se",
        -8.286310107712422
      ],
      [
        "▁vedere",
        -8.291033246889796
      ],
      [
        "▁quelle",
        -8.292028160475788
      ],
      [
        "E",
        -8.29465491278966
      ],
      [
        "▁Al",
        -8.300673609452948
      ],
      [
        "▁particolare",
        -8.303506196621697
      ],
      [
        "▁allo",
        -8.304175619037283
      ],
      [
        "vano",
        -8.307595833302509
      ],
      [
        "nti",
        -8.311562661530099
      ],
      [
        "▁Ho",
        -8.312078413501387
      ],
      [
        "▁possibilità",
        -8.312541255493969
      ],
      [
        "▁davvero",
        -8.314640770080079
      ],
      [
        "▁sei",
        -8.315470958563784
      ],
      [
        "▁molti",
        -8.316052614758105
      ],
      [
        "in",
        -8.317274456322568
      ],
      [
        "A",
        -8.320057327386522
      ],
      [
        "▁posto",
        -8.321958488029669
      ],
      [
        "▁Da",
        -8.324875549854742
      ],
      [
        "▁«",
        -8.325673986440824
      ],
      [
        "’",
        -8.325991237643345
      ],
      [
        "▁...",
        -8.33359322945237
      ],
      [
        "▁tu",
        -8.33549403057134
      ],
      [
        "▁all’",
        -8.338885195760332
      ],
      [
        "\".",
        -8.339350117198101
      ],
      [
        "▁de",
        -8.347498328533632
      ],
      [
        "▁15",
        -8.35364907079601
      ],
      [
        "▁centro",
        -8.358710579353303
      ],
      [
        "▁seguito",
        -8.360148807935428
      ],
      [
        "▁anno",
        -8.362399216171498
      ],
      [
        "▁sarebbe",
        -8.368892165135751
      ],
      [
        "▁va",
        -8.376977843028772
      ],
      [
        "amo",
        -8.38332752838686
      ],
      [
        "▁nome",
        -8.384883408089564
      ],
      [
        "▁propria",
        -8.3859698904227
      ],
      [
        "ò",
        -8.390675998397745
      ],
      [
        "▁almeno",
        -8.392760390896264
      ],
      [
        "▁qualcosa",
        -8.394738759709442
      ],
      [
        "▁20",
        -8.400230118462007
      ],
      [
        "▁fu",
        -8.402243607856116
      ],
      [
        "▁piano",
        -8.402503339576029
      ],
      [
        "▁qualità",
        -8.403392036131825
      ],
      [
        "▁vista",
        -8.408806670347369
      ],
      [
        "▁fra",
        -8.409861534372821
      ],
      [
        "▁troppo",
        -8.410731233033834
      ],
      [
        "▁grado",
        -8.410996343006305
      ],
      [
        "▁18",
        -8.413047022735652
      ],
      [
        "▁trovare",
        -8.413088131954744
      ],
      [
        "g",
        -8.41352909173553
      ],
      [
        "▁diversi",
        -8.414217962613227
      ],
      [
        "▁30",
        -8.417894025309703
      ],
      [
        "▁potrebbe",
        -8.417980996266609
      ],
      [
        "▁qualsiasi",
        -8.419083070932997
      ],
      [
        "▁comunque",
        -8.421625566938614
      ],
      [
        "▁forma",
        -8.42300715904683
      ],
      [
        "▁Italia",
        -8.430265932181081
      ],
      [
        "»",
        -8.430486129147152
      ],
      [
        "▁periodo",
        -8.43090270178292
      ],
      [
        "▁progetto",
        -8.432337991985305
      ],
      [
        "▁tale",
        -8.434681354446445
      ],
      [
        "sta",
        -8.441483073141752
      ],
      [
        "▁vengono",
        -8.446483594835302
      ],
      [
        "▁perchè",
        -8.448427603018628
      ],
      [
        "▁tratta",
        -8.450867477830561
      ],
      [
        "▁fuori",
        -8.450901940996397
      ],
      [
        "da",
        -8.453926530680079
      ],
      [
        "▁7",
        -8.454700425197828
      ],
      [
        "▁persona",
        -8.46305052968922
      ],
      [
        "▁siano",
        -8.467360630458634
      ],
      [
        "ve",
        -8.46861493474805
      ],
      [
        "▁importante",
        -8.468683176125175
      ],
      [
        "▁grandi",
        -8.471994324289474
      ],
      [
        "▁E’",
        -8.477837756949757
      ],
      [
        "sse",
        -8.477857843061882
      ],
      [
        "▁sembra",
        -8.478346359665055
      ],
      [
        "▁c’è",
        -8.482058922695689
      ],
      [
        "▁stessa",
        -8.484076059624416
      ],
      [
        "▁saranno",
        -8.485723601027402
      ],
      [
        "▁insieme",
        -8.493466981874596
      ],
      [
        "▁Anche",
        -8.494536465065085
      ],
      [
        "sti",
        -8.502770736524
      ],
      [
        "▁poter",
        -8.504594140447464
      ],
      [
        "h",
        -8.50601542947176
      ],
      [
        "▁ri",
        -8.506218748729749
      ],
      [
        "I",
        -8.509150477090616
      ],
      [
        "▁mesi",
        -8.510865023381289
      ],
      [
        "▁foto",
        -8.510956907848449
      ],
      [
        "▁diritto",
        -8.5131638350431
      ],
      [
        "▁prodotto",
        -8.513454736361007
      ],
      [
        "rà",
        -8.514052132597913
      ],
      [
        "▁detto",
        -8.516255567682425
      ],
      [
        "▁erano",
        -8.516349273929151
      ],
      [
        "are",
        -8.522593147847385
      ],
      [
        "▁alcune",
        -8.524445058223515
      ],
      [
        "▁all'",
        -8.527377654552664
      ],
      [
        "▁programma",
        -8.529803053086592
      ],
      [
        "▁12",
        -8.530566183472159
      ],
      [
        "zioni",
        -8.531039582723153
      ],
      [
        "▁bambini",
        -8.531897989455926
      ],
      [
        "▁C",
        -8.53538748237797
      ],
      [
        "▁esempio",
        -8.540227879489896
      ],
      [
        "de",
        -8.5410990685312
      ],
      [
        "f",
        -8.541107719893747
      ],
      [
        "▁società",
        -8.542178335754024
      ],
      [
        "▁lui",
        -8.542227622571785
      ],
      [
        "▁forse",
        -8.542255709343463
      ],
      [
        "▁problema",
        -8.545170452047486
      ],
      [
        "▁data",
        -8.545900873357336
      ],
      [
        "▁euro",
        -8.550387378145524
      ],
      [
        "▁porta",
        -8.55960717647806
      ],
      [
        "▁diverse",
        -8.560920041542404
      ],
      [
        "▁dare",
        -8.562208104128455
      ],
      [
        "▁dato",
        -8.56471657030713
      ],
      [
        "▁E'",
        -8.564749140760615
      ],
      [
        "▁un’",
        -8.567009889698395
      ],
      [
        "▁bisogno",
        -8.567606619984831
      ],
      [
        "▁lungo",
        -8.573832155856019
      ],
      [
        "▁sicurezza",
        -8.576955994481349
      ],
      [
        "ra",
        -8.578493548813713
      ],
      [
        "▁andare",
        -8.581097838594767
      ],
      [
        "mento",
        -8.581132917770372
      ],
      [
        "▁vero",
        -8.582294023732947
      ],
      [
        "al",
        -8.584516664409785
      ],
      [
        "▁serie",
        -8.585135257281907
      ],
      [
        "▁fosse",
        -8.592940955209698
      ],
      [
        "rlo",
        -8.593309202260576
      ],
      [
        "▁necessario",
        -8.598737044935618
      ],
      [
        "▁seconda",
        -8.60129680062445
      ],
      [
        "▁Che",
        -8.604303232731457
      ],
      [
        "▁B",
        -8.605132895052202
      ],
      [
        "on",
        -8.607834918214722
      ],
      [
        "▁realtà",
        -8.613253179381497
      ],
      [
        "▁Io",
        -8.614811182983196
      ],
      [
        "▁avuto",
        -8.615640926503925
      ],
      [
        "▁gestione",
        -8.616098958326369
      ],
      [
        "▁subito",
        -8.618045525793491
      ],
      [
        "so",
        -8.61854924430332
      ],
      [
        "▁so",
        -8.622428984568923
      ],
      [
        "▁comma",
        -8.623333224294786
      ],
      [
        "▁sviluppo",
        -8.623655429181445
      ],
      [
        "▁scelta",
        -8.624548998471624
      ],
      [
        "▁settore",
        -8.626754664127867
      ],
      [
        "▁personale",
        -8.627771839158102
      ],
      [
        "▁condizioni",
        -8.628676070834336
      ],
      [
        "▁San",
        -8.631597920835246
      ],
      [
        "ato",
        -8.632999228494057
      ],
      [
        "▁Dopo",
        -8.634852564976795
      ],
      [
        "▁devono",
        -8.63791202218896
      ],
      [
        "▁8",
        -8.638101249675332
      ],
      [
        "▁causa",
        -8.639174733816361
      ],
      [
        "▁senso",
        -8.639455467013468
      ],
      [
        "▁buona",
        -8.640515936060197
      ],
      [
        "ce",
        -8.64128275213666
      ],
      [
        "▁gruppo",
        -8.643507528373464
      ],
      [
        "y",
        -8.64406931841221
      ],
      [
        "▁Quando",
        -8.649090212233535
      ],
      [
        "▁problemi",
        -8.649360097983706
      ],
      [
        "bile",
        -8.653063389149182
      ],
      [
        "▁vuole",
        -8.655512921414969
      ],
      [
        "▁donne",
        -8.656252168020556
      ],
      [
        "rci",
        -8.658315303670637
      ],
      [
        "rmi",
        -8.659243566297718
      ],
      [
        "▁conto",
        -8.66039684160107
      ],
      [
        "▁oppure",
        -8.662864683372739
      ],
      [
        "▁D",
        -8.669482184213978
      ],
      [
        "▁c'è",
        -8.672703245473675
      ],
      [
        "▁formazione",
        -8.673220620712307
      ],
      [
        "▁trova",
        -8.675126314793122
      ],
      [
        "▁dicembre",
        -8.675873279893585
      ],
      [
        "rti",
        -8.678506122458419
      ],
      [
        "▁nuove",
        -8.67989476450083
      ],
      [
        "▁fanno",
        -8.680415476609474
      ],
      [
        "▁Vi",
        -8.689566832672758
      ],
      [
        "▁nuovi",
        -8.691117667715272
      ],
      [
        "▁termine",
        -8.691948493926137
      ],
      [
        "▁te",
        -8.691960287932538
      ],
      [
        "\",",
        -8.693242793533273
      ],
      [
        "▁dagli",
        -8.693465002712811
      ],
      [
        "▁Questa",
        -8.693923041667988
      ],
      [
        "▁sa",
        -8.696070233360112
      ],
      [
        "▁luogo",
        -8.698170144830609
      ],
      [
        "▁presenza",
        -8.70763616563871
      ],
      [
        "▁zona",
        -8.717886936436892
      ],
      [
        "▁col",
        -8.718033312520456
      ],
      [
        "▁pubblico",
        -8.721912250840134
      ],
      [
        "▁24",
        -8.722825880551744
      ],
      [
        "▁entro",
        -8.722868539514007
      ],
      [
        "▁cura",
        -8.723035849125756
      ],
      [
        "▁possa",
        -8.723721430652322
      ],
      [
        "▁certo",
        -8.724293112544778
      ],
      [
        "▁po’",
        -8.724743668596082
      ],
      [
        "▁pochi",
        -8.726184226661259
      ],
      [
        "▁infatti",
        -8.726411721449846
      ],
      [
        "▁Grazie",
        -8.727938554916928
      ],
      [
        "▁trattamento",
        -8.728028144930844
      ],
      [
        "▁semplice",
        -8.732620457764876
      ],
      [
        "▁d’",
        -8.738245248770404
      ],
      [
        "▁state",
        -8.739749557073129
      ],
      [
        "▁milioni",
        -8.739961395370084
      ],
      [
        "▁corpo",
        -8.742925326304718
      ],
      [
        "x",
        -8.745513533341889
      ],
      [
        "▁controllo",
        -8.745720330182401
      ],
      [
        "▁letto",
        -8.746537584580565
      ],
      [
        "▁mercato",
        -8.747233080196114
      ],
      [
        "▁po'",
        -8.750730673904544
      ],
      [
        "▁presenti",
        -8.754337339150158
      ],
      [
        "▁primi",
        -8.758761479962695
      ],
      [
        "▁9",
        -8.76336146018619
      ],
      [
        "tà",
        -8.76517222547659
      ],
      [
        "tta",
        -8.767369498122452
      ],
      [
        "▁migliori",
        -8.767837524333148
      ],
      [
        "▁campo",
        -8.774245261559246
      ],
      [
        "▁tanti",
        -8.775466684488647
      ],
      [
        "▁mezzo",
        -8.77555754394704
      ],
      [
        "▁film",
        -8.776329554903729
      ],
      [
        "▁2018",
        -8.778618693504155
      ],
      [
        "».",
        -8.77926982679404
      ],
      [
        "▁libro",
        -8.783006165756682
      ],
      [
        "▁miei",
        -8.783285822709873
      ],
      [
        "▁Consiglio",
        -8.784387466908148
      ],
      [
        "▁video",
        -8.785350331435447
      ],
      [
        "▁16",
        -8.789862800904475
      ],
      [
        "▁casi",
        -8.790276093903573
      ],
      [
        "▁buon",
        -8.793273492214633
      ],
      [
        "▁inoltre",
        -8.793691805586699
      ],
      [
        "▁spazio",
        -8.793933821191422
      ],
      [
        "▁sapere",
        -8.79435012628173
      ],
      [
        "▁s",
        -8.795221602614388
      ],
      [
        "▁famiglia",
        -8.797761143898079
      ],
      [
        "▁studio",
        -8.798197747815724
      ],
      [
        "▁rapporto",
        -8.79916301392659
      ],
      [
        "▁un'",
        -8.799391152866198
      ],
      [
        "▁allora",
        -8.799708121779345
      ],
      [
        "▁dall’",
        -8.80004431260009
      ],
      [
        "!!!",
        -8.80068166564014
      ],
      [
        "▁migliore",
        -8.800851409993722
      ],
      [
        "▁bella",
        -8.80359676816869
      ],
      [
        "▁puoi",
        -8.803918122129053
      ],
      [
        "▁situazione",
        -8.804732789915356
      ],
      [
        "▁sopra",
        -8.80542697301726
      ],
      [
        "▁prendere",
        -8.806885130985906
      ],
      [
        "▁d'",
        -8.808097021064613
      ],
      [
        "▁giugno",
        -8.810671306387375
      ],
      [
        "▁parti",
        -8.811610288246252
      ],
      [
        "▁web",
        -8.814124076039743
      ],
      [
        "azione",
        -8.817760681876319
      ],
      [
        "▁capire",
        -8.818122563248693
      ],
      [
        "▁propri",
        -8.81881521639866
      ],
      [
        "▁14",
        -8.818917977146352
      ],
      [
        "▁riferimento",
        -8.820524044779978
      ],
      [
        "▁Tra",
        -8.82307509072427
      ],
      [
        "▁valore",
        -8.824732406400768
      ],
      [
        "▁punti",
        -8.827507359482995
      ],
      [
        "▁ultimi",
        -8.827541215438602
      ],
      [
        "▁scuola",
        -8.830140021124656
      ],
      [
        "me",
        -8.832143018487706
      ],
      [
        "▁parole",
        -8.832371388021304
      ],
      [
        "▁voi",
        -8.833103069994543
      ],
      [
        "!!",
        -8.834259984554269
      ],
      [
        "▁maggior",
        -8.834618349992647
      ],
      [
        "▁riguarda",
        -8.838106482778631
      ],
      [
        "▁direttamente",
        -8.841224924898107
      ],
      [
        "▁O",
        -8.841956904966207
      ],
      [
        "▁vari",
        -8.843686200016178
      ],
      [
        "ga",
        -8.84423552713286
      ],
      [
        "▁prezzo",
        -8.844677325635207
      ],
      [
        "▁17",
        -8.844742160836521
      ],
      [
        "▁territorio",
        -8.84517325575338
      ],
      [
        "▁ottobre",
        -8.847813421850406
      ],
      [
        "▁nostre",
        -8.848775344556428
      ],
      [
        "▁successo",
        -8.849321967041394
      ],
      [
        "▁richiesta",
        -8.84979620914449
      ],
      [
        "▁ormai",
        -8.849803170332768
      ],
      [
        "▁disposizione",
        -8.8507573817909
      ],
      [
        "▁mano",
        -8.85237384214182
      ],
      [
        "▁vostro",
        -8.852461139320688
      ],
      [
        "▁piccolo",
        -8.853099743597914
      ],
      [
        "▁forza",
        -8.854169560185998
      ],
      [
        "▁percorso",
        -8.854749087242313
      ],
      [
        "▁rischio",
        -8.855538908204691
      ],
      [
        "▁maggio",
        -8.857362068791213
      ],
      [
        "▁creare",
        -8.857434174789947
      ],
      [
        "▁mese",
        -8.860674768714741
      ],
      [
        "rne",
        -8.862029737252344
      ],
      [
        "▁capacità",
        -8.862440651552653
      ],
      [
        "▁ottenere",
        -8.863522264803716
      ],
      [
        "▁post",
        -8.866730913108574
      ],
      [
        "▁tramite",
        -8.86835473346308
      ],
      [
        "▁produzione",
        -8.870612039201943
      ],
      [
        "▁abbia",
        -8.873632123380892
      ],
      [
        "▁struttura",
        -8.875294663259297
      ],
      [
        "▁appena",
        -8.876654427462723
      ],
      [
        "▁risultati",
        -8.878987987425758
      ],
      [
        "▁processo",
        -8.881051368147562
      ],
      [
        "▁leggere",
        -8.881721738504638
      ],
      [
        "bili",
        -8.88283317340987
      ],
      [
        "ranno",
        -8.88293535271409
      ],
      [
        "v",
        -8.884882732332345
      ],
      [
        "▁gioco",
        -8.8854531244647
      ],
      [
        "▁partire",
        -8.88644292615386
      ],
      [
        "▁effetti",
        -8.887722748049027
      ],
      [
        "▁molte",
        -8.88806650739597
      ],
      [
        "▁tempi",
        -8.889106339754978
      ],
      [
        "go",
        -8.890570500258528
      ],
      [
        "▁prova",
        -8.890628759197044
      ],
      [
        "▁e'",
        -8.890754641103445
      ],
      [
        "▁forte",
        -8.892473983746603
      ],
      [
        "....",
        -8.893370986589117
      ],
      [
        "▁qualcuno",
        -8.898510272816416
      ],
      [
        "▁posizione",
        -8.899858011945994
      ],
      [
        "▁tuoi",
        -8.90010195051266
      ],
      [
        "▁cuore",
        -8.900609795315638
      ],
      [
        "▁13",
        -8.900952459516116
      ],
      [
        "▁cucina",
        -8.902694840784127
      ],
      [
        "▁strada",
        -8.902959132982438
      ],
      [
        "ssi",
        -8.904279282250556
      ],
      [
        "▁nulla",
        -8.907094805058334
      ],
      [
        "▁2017",
        -8.90722134271666
      ],
      [
        "▁posso",
        -8.908623793570825
      ],
      [
        "▁auto",
        -8.910472255444555
      ],
      [
        "▁fronte",
        -8.911675598325932
      ],
      [
        "1",
        -8.911956072463637
      ],
      [
        "▁25",
        -8.91507797226207
      ],
      [
        "▁Ti",
        -8.915411445404347
      ],
      [
        "▁dice",
        -8.91805135235378
      ],
      [
        "▁politica",
        -8.921916451113583
      ],
      [
        "tori",
        -8.922114843576148
      ],
      [
        "▁minuti",
        -8.922702243948185
      ],
      [
        "▁pagina",
        -8.922996691736103
      ],
      [
        "▁marzo",
        -8.923956243943817
      ],
      [
        "▁piace",
        -8.924117101549445
      ],
      [
        "▁donna",
        -8.924214211536022
      ],
      [
        "rono",
        -8.924970199690762
      ],
      [
        "chi",
        -8.926306307267653
      ],
      [
        "▁parlare",
        -8.926785922267811
      ],
      [
        "▁dovrebbe",
        -8.927642849509187
      ],
      [
        "▁generale",
        -8.933353676715369
      ],
      [
        "▁sede",
        -8.936560793611054
      ],
      [
        "▁settimana",
        -8.938000722003679
      ],
      [
        "▁scritto",
        -8.93841536956374
      ],
      [
        "zza",
        -8.940320605389905
      ],
      [
        "▁nell’",
        -8.941701606949925
      ],
      [
        "▁permette",
        -8.944295676956589
      ],
      [
        "▁domanda",
        -8.944550234996868
      ],
      [
        "con",
        -8.945576991329304
      ],
      [
        "▁luce",
        -8.94691111633082
      ],
      [
        "▁G",
        -8.948638528465926
      ],
      [
        "▁mettere",
        -8.952953341350984
      ],
      [
        "▁peso",
        -8.954198564234758
      ],
      [
        "per",
        -8.955323721784998
      ],
      [
        "▁ce",
        -8.955512837911677
      ],
      [
        "▁tema",
        -8.957124651000939
      ],
      [
        "▁giovani",
        -8.958922244152879
      ],
      [
        "é",
        -8.960086600361777
      ],
      [
        "2",
        -8.960368852224349
      ],
      [
        "▁uomini",
        -8.960487912490834
      ],
      [
        "▁quattro",
        -8.961785047446078
      ],
      [
        "▁titolo",
        -8.962080425026969
      ],
      [
        "▁Ecco",
        -8.9673224398976
      ],
      [
        "▁Stato",
        -8.96756318251118
      ],
      [
        "▁pratica",
        -8.970206792889758
      ],
      [
        "▁De",
        -8.970596619726255
      ],
      [
        "▁guida",
        -8.972662509455501
      ],
      [
        "iamo",
        -8.977685610501439
      ],
      [
        "▁21",
        -8.981650039752465
      ],
      [
        "▁Chi",
        -8.982028962874221
      ],
      [
        "▁gennaio",
        -8.986217663770294
      ],
      [
        "tte",
        -8.98926001850117
      ],
      [
        "▁aziende",
        -8.990167890458084
      ],
      [
        "▁settembre",
        -8.992343528218667
      ],
      [
        "▁materia",
        -8.993587518698153
      ],
      [
        "▁comune",
        -8.993710387464079
      ],
      [
        "tti",
        -8.995952579007389
      ],
      [
        "▁Roma",
        -8.997016418509785
      ],
      [
        "▁2016",
        -8.997820217609323
      ],
      [
        "rla",
        -8.999130737644641
      ],
      [
        "▁vendita",
        -8.999231176051314
      ],
      [
        "▁relazione",
        -9.004137830392445
      ],
      [
        "▁ruolo",
        -9.005189320695624
      ],
      [
        "▁maggiore",
        -9.00819846835833
      ],
      [
        "▁F",
        -9.008639536449282
      ],
      [
        "▁perdere",
        -9.00957766497243
      ],
      [
        "▁avrebbe",
        -9.010303806976466
      ],
      [
        "▁giornata",
        -9.012510117741668
      ],
      [
        "]",
        -9.014835624478483
      ],
      [
        "S",
        -9.015187411169414
      ],
      [
        "rvi",
        -9.015845491900526
      ],
      [
        "▁lavori",
        -9.016753949991694
      ],
      [
        "▁fase",
        -9.017438447176168
      ],
      [
        "▁credo",
        -9.017498227996324
      ],
      [
        "▁viaggio",
        -9.0176848435027
      ],
      [
        "▁paese",
        -9.018940617672055
      ],
      [
        "▁modalità",
        -9.025295951896924
      ],
      [
        "▁nello",
        -9.026147424074784
      ],
      [
        "RE",
        -9.027036959733916
      ],
      [
        "▁evitare",
        -9.030718287236231
      ],
      [
        "▁Nella",
        -9.033675361711175
      ],
      [
        "▁novembre",
        -9.03422155202789
      ],
      [
        "▁aprile",
        -9.034959950307481
      ],
      [
        "▁esperienza",
        -9.035247398551176
      ],
      [
        "▁luglio",
        -9.038329793551398
      ],
      [
        "▁facile",
        -9.03893991952207
      ],
      [
        "▁LA",
        -9.038951335692746
      ],
      [
        "▁maniera",
        -9.043093367699203
      ],
      [
        "▁eventi",
        -9.047100378641598
      ],
      [
        "▁Comune",
        -9.047128696163616
      ],
      [
        "▁nazionale",
        -9.047871123384628
      ],
      [
        "▁vostra",
        -9.048269922579511
      ],
      [
        "▁Re",
        -9.048460743025593
      ],
      [
        "▁imprese",
        -9.049109339145465
      ],
      [
        "▁parla",
        -9.049310369714778
      ],
      [
        "▁strumenti",
        -9.05014207884118
      ],
      [
        "▁Dio",
        -9.050827267078382
      ],
      [
        "▁sicuramente",
        -9.050912269198468
      ],
      [
        "rli",
        -9.053594660069518
      ],
      [
        "▁utilizzare",
        -9.053993234457064
      ],
      [
        "▁massimo",
        -9.054317462733689
      ],
      [
        "▁linea",
        -9.054558223906817
      ],
      [
        "▁vicino",
        -9.056638939266012
      ],
      [
        "▁governo",
        -9.057551761144774
      ],
      [
        "▁terra",
        -9.057783090542014
      ],
      [
        "▁all’interno",
        -9.05872956801337
      ],
      [
        "gi",
        -9.059895170906241
      ],
      [
        "k",
        -9.059974670224044
      ],
      [
        "▁occhi",
        -9.061601335381159
      ],
      [
        "ste",
        -9.061604092706872
      ],
      [
        "menti",
        -9.062419470855257
      ],
      [
        "sco",
        -9.063251117537643
      ],
      [
        "pi",
        -9.064288615958757
      ],
      [
        "▁difficile",
        -9.065089800360242
      ],
      [
        "▁natura",
        -9.065166419916514
      ],
      [
        "3",
        -9.065728907774691
      ],
      [
        "un",
        -9.066393387961408
      ],
      [
        "▁PER",
        -9.067666880446907
      ],
      [
        "▁sensi",
        -9.069274062571004
      ],
      [
        "▁importanti",
        -9.069901582139794
      ],
      [
        "▁testo",
        -9.070656215963734
      ],
      [
        "▁possiamo",
        -9.071482183341656
      ],
      [
        "▁personali",
        -9.072283797172298
      ],
      [
        "▁soluzione",
        -9.072820054396797
      ],
      [
        "▁media",
        -9.075982286191037
      ],
      [
        "▁Ri",
        -9.076843367494224
      ],
      [
        "▁facendo",
        -9.077482248655581
      ],
      [
        "▁offre",
        -9.07837577338691
      ],
      [
        "▁principali",
        -9.079197908109705
      ],
      [
        "b",
        -9.082819983811719
      ],
      [
        "▁significa",
        -9.087639707918132
      ],
      [
        "▁genere",
        -9.087978130059538
      ],
      [
        "▁pro",
        -9.088207944381214
      ],
      [
        "▁anni,",
        -9.088268837848707
      ],
      [
        "▁varie",
        -9.088378237249378
      ],
      [
        "▁rete",
        -9.089072230221557
      ],
      [
        "us",
        -9.089341306558346
      ],
      [
        "▁vivere",
        -9.091137686481598
      ],
      [
        "▁soggetti",
        -9.091773863884633
      ],
      [
        "né",
        -9.09257117070644
      ],
      [
        "▁blog",
        -9.092671366056296
      ],
      [
        "▁comunicazione",
        -9.094520065558427
      ],
      [
        "▁stile",
        -9.094828575770233
      ],
      [
        "▁L",
        -9.095613245253563
      ],
      [
        "▁Ha",
        -9.097147494567096
      ],
      [
        "▁risultato",
        -9.09978101725083
      ],
      [
        "▁11",
        -9.100237880400432
      ],
      [
        "▁continua",
        -9.100479992743535
      ],
      [
        "il",
        -9.100806673953915
      ],
      [
        "▁conoscenza",
        -9.102797485068404
      ],
      [
        "▁potrà",
        -9.107163274998749
      ],
      [
        "tore",
        -9.108337622299814
      ],
      [
        "▁carta",
        -9.108636463532157
      ],
      [
        "▁consiglio",
        -9.110201162386128
      ],
      [
        "▁22",
        -9.11058486358625
      ],
      [
        "ate",
        -9.11116409088719
      ],
      [
        "C",
        -9.111878843812562
      ],
      [
        "▁misura",
        -9.112835340613678
      ],
      [
        "▁T",
        -9.116269159022934
      ],
      [
        "▁diritti",
        -9.116776669326526
      ],
      [
        "▁pre",
        -9.120923804430554
      ],
      [
        "▁23",
        -9.124781615689205
      ],
      [
        "▁spese",
        -9.124926291912415
      ],
      [
        "▁termini",
        -9.128164934326758
      ],
      [
        "▁risposta",
        -9.128280921921712
      ],
      [
        "▁‘",
        -9.12995985321386
      ],
      [
        "▁italiano",
        -9.130160033479346
      ],
      [
        "▁piccoli",
        -9.130457141824305
      ],
      [
        "▁modello",
        -9.131059714887527
      ],
      [
        "▁completamente",
        -9.131211775845468
      ],
      [
        "▁regionale",
        -9.131521347472313
      ],
      [
        "▁amici",
        -9.133981792724315
      ],
      [
        "▁pur",
        -9.134439027596981
      ],
      [
        "▁giro",
        -9.135582488809021
      ],
      [
        "T",
        -9.141312808618927
      ],
      [
        "▁ovvero",
        -9.143047340402068
      ],
      [
        "▁attenzione",
        -9.143151920224383
      ],
      [
        "▁19",
        -9.143217009997512
      ],
      [
        "▁pure",
        -9.143666181481105
      ],
      [
        "▁test",
        -9.143760053046154
      ],
      [
        "▁colore",
        -9.145239616363359
      ],
      [
        "ver",
        -9.145600171117012
      ],
      [
        "▁online",
        -9.146512169764756
      ],
      [
        "▁costi",
        -9.147193057689076
      ],
      [
        "▁mare",
        -9.147811337847159
      ],
      [
        "▁pensare",
        -9.149049411210228
      ],
      [
        "▁futuro",
        -9.149362053461022
      ],
      [
        "▁•",
        -9.14939515344439
      ],
      [
        "▁uso",
        -9.151079900834135
      ],
      [
        "▁visita",
        -9.151454831250739
      ],
      [
        "▁portare",
        -9.151614019511987
      ],
      [
        "▁conoscere",
        -9.151653728604185
      ],
      [
        "▁[",
        -9.152927398553537
      ],
      [
        "▁clienti",
        -9.15307718018407
      ],
      [
        "tto",
        -9.15353641909405
      ],
      [
        "▁caratteristiche",
        -9.153685580731754
      ],
      [
        "F",
        -9.154464882007382
      ],
      [
        "▁uomo",
        -9.154579966480156
      ],
      [
        "▁scegliere",
        -9.154692173341582
      ],
      [
        "▁stessi",
        -9.155047670428115
      ],
      [
        "▁piccola",
        -9.155815181314278
      ],
      [
        "▁proprietà",
        -9.157330550891011
      ],
      [
        "▁avete",
        -9.157890324046683
      ],
      [
        "no,",
        -9.158146591696994
      ],
      [
        "▁fatti",
        -9.158898338637165
      ],
      [
        "▁veramente",
        -9.159073254956898
      ],
      [
        "▁motivo",
        -9.159193676906312
      ],
      [
        "▁breve",
        -9.159945383575138
      ],
      [
        "▁Stati",
        -9.159947310533806
      ],
      [
        "▁locali",
        -9.1603962976078
      ],
      [
        "▁utenti",
        -9.161599576639201
      ],
      [
        "▁cultura",
        -9.163356004722104
      ],
      [
        "▁seguenti",
        -9.164326471413656
      ],
      [
        "fi",
        -9.164625262237745
      ],
      [
        "▁fondo",
        -9.165416704470402
      ],
      [
        "R",
        -9.165830057913016
      ],
      [
        "▁Oggi",
        -9.166078920662226
      ],
      [
        "▁stanno",
        -9.166341988910101
      ],
      [
        "▁cittadini",
        -9.167703134284412
      ],
      [
        "▁acqua",
        -9.16790945808042
      ],
      [
        "▁l",
        -9.16796067672185
      ],
      [
        "▁presidente",
        -9.169408865317784
      ],
      [
        "▁pari",
        -9.170072996192793
      ],
      [
        "▁2015",
        -9.17045744522387
      ],
      [
        "tra",
        -9.171373915058773
      ],
      [
        "▁utile",
        -9.171415142234917
      ],
      [
        "P",
        -9.172173634597602
      ],
      [
        "▁proprie",
        -9.172437854866747
      ],
      [
        "▁gran",
        -9.173118658482029
      ],
      [
        "▁P",
        -9.173256825105945
      ],
      [
        "▁alto",
        -9.174104357817898
      ],
      [
        "▁trovato",
        -9.174270818529067
      ],
      [
        "▁dall'",
        -9.174934615034147
      ],
      [
        "▁nessuno",
        -9.175182617943241
      ],
      [
        "▁R",
        -9.176578194308394
      ],
      [
        "▁IL",
        -9.179592673031006
      ],
      [
        "▁voglia",
        -9.180561855292325
      ],
      [
        "▁risorse",
        -9.180793823262775
      ],
      [
        "▁100",
        -9.180980301929445
      ],
      [
        "▁necessità",
        -9.181332122619715
      ],
      [
        "▁M",
        -9.183542777942861
      ],
      [
        "▁Ad",
        -9.183815485096204
      ],
      [
        "▁davanti",
        -9.18494444194953
      ],
      [
        "▁ragazzi",
        -9.185109500708133
      ],
      [
        "▁Dal",
        -9.185324914694647
      ],
      [
        "D",
        -9.18576915846444
      ],
      [
        "▁vera",
        -9.186299289584795
      ],
      [
        "▁scopo",
        -9.18726415123714
      ],
      [
        "▁agosto",
        -9.188598251302324
      ],
      [
        "▁interventi",
        -9.189863563285918
      ],
      [
        "▁collaborazione",
        -9.189900035823609
      ],
      [
        "▁tante",
        -9.190647241352131
      ],
      [
        "▁gente",
        -9.192130008474141
      ],
      [
        "▁febbraio",
        -9.192168798894066
      ],
      [
        "▁parola",
        -9.192462712940333
      ],
      [
        "▁tali",
        -9.193086793466673
      ],
      [
        "▁IN",
        -9.194270641374459
      ],
      [
        "▁usare",
        -9.195097324472282
      ],
      [
        "e/o",
        -9.196512916430812
      ],
      [
        "sce",
        -9.199039471780878
      ],
      [
        "▁immagini",
        -9.199102031276196
      ],
      [
        "▁alta",
        -9.199612254614756
      ],
      [
        "▁bel",
        -9.200015731797956
      ],
      [
        "▁camera",
        -9.200047781940661
      ],
      [
        "▁deciso",
        -9.202062079416802
      ],
      [
        "▁Regione",
        -9.202961850631276
      ],
      [
        "▁magari",
        -9.20317201316399
      ],
      [
        "▁€",
        -9.204659553625305
      ],
      [
        "▁28",
        -9.204942372169846
      ],
      [
        "­",
        -9.20566540402071
      ],
      [
        "▁voce",
        -9.206067067181186
      ],
      [
        "▁tecniche",
        -9.207173349803002
      ],
      [
        "▁bisogna",
        -9.207362998401486
      ],
      [
        "▁salute",
        -9.208807492584109
      ],
      [
        "▁piuttosto",
        -9.209781952757865
      ],
      [
        "era",
        -9.210950228251075
      ],
      [
        "▁nell'",
        -9.211180488786585
      ],
      [
        "▁cioè",
        -9.212932145837883
      ],
      [
        "▁colori",
        -9.21309429424354
      ],
      [
        "sci",
        -9.213351694052555
      ],
      [
        "▁decreto",
        -9.213689615060794
      ],
      [
        "▁musica",
        -9.214492614907659
      ],
      [
        "▁sociale",
        -9.217580202261509
      ],
      [
        "▁niente",
        -9.217798018153665
      ],
      [
        "▁contratto",
        -9.218003217860947
      ],
      [
        "▁articolo",
        -9.218130140471015
      ],
      [
        "▁versione",
        -9.220608882762294
      ],
      [
        "▁realizzazione",
        -9.223001896178404
      ],
      [
        "rò",
        -9.22332310807267
      ],
      [
        "▁opere",
        -9.225165036110745
      ],
      [
        "▁guerra",
        -9.225478533493968
      ],
      [
        "▁progetti",
        -9.226110206690667
      ],
      [
        "▁mostra",
        -9.226639461530084
      ],
      [
        "▁Ora",
        -9.226979332635977
      ],
      [
        "ata",
        -9.227122340346732
      ],
      [
        "▁funzione",
        -9.22800914562452
      ],
      [
        "▁materiale",
        -9.229282358301951
      ],
      [
        "▁pelle",
        -9.231592331787564
      ],
      [
        "▁dovuto",
        -9.231895790334699
      ],
      [
        "▁semplicemente",
        -9.232089307014958
      ],
      [
        "▁passato",
        -9.233233167767645
      ],
      [
        "▁elementi",
        -9.233706666040082
      ],
      [
        "▁pubblica",
        -9.23460307663602
      ],
      [
        "▁prime",
        -9.235939736520198
      ],
      [
        "▁resto",
        -9.237422856227258
      ],
      [
        "▁raggiungere",
        -9.237461143533142
      ],
      [
        "▁italiani",
        -9.238416190139501
      ],
      [
        "B",
        -9.239413713970245
      ],
      [
        "▁50",
        -9.241793162879691
      ],
      [
        "▁italiana",
        -9.242072102569969
      ],
      [
        "▁costo",
        -9.242578833395772
      ],
      [
        ".it",
        -9.243710574426611
      ],
      [
        "▁abbastanza",
        -9.244173217928347
      ],
      [
        "▁totale",
        -9.24544079853301
      ],
      [
        "er",
        -9.2456911645472
      ],
      [
        "ria",
        -9.246477049118349
      ],
      [
        "▁questione",
        -9.247253622132257
      ],
      [
        "bi",
        -9.247564693061353
      ],
      [
        "▁vuoi",
        -9.247840953494915
      ],
      [
        "▁avevo",
        -9.248665604743024
      ],
      [
        "w",
        -9.249102250454158
      ],
      [
        "▁sistemi",
        -9.251079854714511
      ],
      [
        "▁studenti",
        -9.254247412685352
      ],
      [
        "▁posti",
        -9.254486422041143
      ],
      [
        "LE",
        -9.255702350738158
      ],
      [
        "▁fatta",
        -9.255916972585396
      ],
      [
        "▁previsto",
        -9.257537012396668
      ],
      [
        "▁Perché",
        -9.25874010891511
      ],
      [
        "▁crescita",
        -9.26084016664943
      ],
      [
        "▁mani",
        -9.261257126169614
      ],
      [
        "▁contatto",
        -9.262699946034754
      ],
      [
        "▁durata",
        -9.263735142252738
      ],
      [
        "▁messo",
        -9.265153436824221
      ],
      [
        "▁siti",
        -9.265666210267574
      ],
      [
        "tura",
        -9.265706604121682
      ],
      [
        "▁esigenze",
        -9.266028313680485
      ],
      [
        "▁devo",
        -9.266363573623831
      ],
      [
        "▁DEL",
        -9.26700653341472
      ],
      [
        "▁No",
        -9.268402995974157
      ],
      [
        "▁male",
        -9.26970289230998
      ],
      [
        "▁rende",
        -9.270042208201614
      ],
      [
        "▁verrà",
        -9.271115970276428
      ],
      [
        "▁sera",
        -9.272928506563835
      ],
      [
        "▁quei",
        -9.273001319939961
      ],
      [
        "▁vanno",
        -9.278216761917982
      ],
      [
        "▁occasione",
        -9.2786851949977
      ],
      [
        "▁1.",
        -9.280318406408512
      ],
      [
        "▁27",
        -9.280609820179198
      ],
      [
        "▁testa",
        -9.28345471186585
      ],
      [
        "▁tue",
        -9.284324791654509
      ],
      [
        "tu",
        -9.286625944578088
      ],
      [
        "▁31",
        -9.286816312932684
      ],
      [
        "▁rappresenta",
        -9.287548095625002
      ],
      [
        "▁unico",
        -9.287729826730216
      ],
      [
        "▁confronti",
        -9.288174231671505
      ],
      [
        "▁disponibile",
        -9.288502692871262
      ],
      [
        "▁infatti,",
        -9.288576812680015
      ],
      [
        "▁pieno",
        -9.290563319987191
      ],
      [
        "▁[...]",
        -9.290641389287746
      ],
      [
        "pe",
        -9.291596002179043
      ],
      [
        "▁cerca",
        -9.292413292305
      ],
      [
        "▁arrivare",
        -9.29343514682817
      ],
      [
        "▁metri",
        -9.293792987153843
      ],
      [
        "▁favore",
        -9.293939776674982
      ],
      [
        "nza",
        -9.295068181783721
      ],
      [
        "▁partecipazione",
        -9.295218064578538
      ],
      [
        "▁studi",
        -9.297718170300314
      ],
      [
        "▁superiore",
        -9.298384507484737
      ],
      [
        "▁notte",
        -9.298488863619855
      ],
      [
        "▁coloro",
        -9.299958869099314
      ],
      [
        "▁eventuali",
        -9.300161495884037
      ],
      [
        "▁lingua",
        -9.30057383639184
      ],
      [
        "▁Tutti",
        -9.301209142609153
      ],
      [
        "▁domenica",
        -9.304394612669551
      ],
      [
        "▁soltanto",
        -9.30472415550801
      ],
      [
        "▁rendere",
        -9.304781489613852
      ],
      [
        "z",
        -9.304844943770512
      ],
      [
        "▁utili",
        -9.304921521709659
      ],
      [
        "▁sola",
        -9.304945980758255
      ],
      [
        "▁difficoltà",
        -9.30793126750034
      ],
      [
        "▁Su",
        -9.308001474861175
      ],
      [
        "▁piacere",
        -9.308204516976389
      ],
      [
        "▁disponibili",
        -9.309685109865985
      ],
      [
        "▁finale",
        -9.310168168896313
      ],
      [
        "▁strumento",
        -9.310872195159899
      ],
      [
        "▁Presidente",
        -9.314561868711657
      ],
      [
        "▁migliorare",
        -9.315436948562377
      ],
      [
        "to,",
        -9.315659384849102
      ],
      [
        "▁sto",
        -9.31633039789223
      ],
      [
        "▁passo",
        -9.320092173820818
      ],
      [
        "▁presenta",
        -9.320603436748712
      ],
      [
        "▁realizzare",
        -9.32073240998623
      ],
      [
        "▁genitori",
        -9.321306508929325
      ],
      [
        "▁morte",
        -9.321723525572853
      ],
      [
        "ssimo",
        -9.322348817581963
      ],
      [
        "▁nota",
        -9.322618008655486
      ],
      [
        "▁prevede",
        -9.32266525328085
      ],
      [
        "▁pagamento",
        -9.324128561186093
      ],
      [
        "▁lettera",
        -9.324572747632736
      ],
      [
        "▁2014",
        -9.324899584066387
      ],
      [
        "▁basta",
        -9.32517307051872
      ],
      [
        "▁libri",
        -9.326557974475136
      ],
      [
        "▁link",
        -9.327870424803733
      ],
      [
        "4",
        -9.328121784914494
      ],
      [
        "▁Ogni",
        -9.329451486714383
      ],
      [
        "▁differenza",
        -9.329626275312819
      ],
      [
        "▁diventa",
        -9.329984271800946
      ],
      [
        "ati",
        -9.33004693820432
      ],
      [
        "▁Poi",
        -9.331358281782574
      ],
      [
        "▁composto",
        -9.332176676364117
      ],
      [
        "▁alcun",
        -9.33222131462901
      ],
      [
        "▁tecnica",
        -9.332603804985613
      ],
      [
        "▁Milano",
        -9.333240883299787
      ],
      [
        "te,",
        -9.33324672739993
      ],
      [
        "▁fin",
        -9.334186312356305
      ],
      [
        "▁Prima",
        -9.334437192103103
      ],
      [
        "lla",
        -9.334485159258545
      ],
      [
        "U",
        -9.334583921362658
      ],
      [
        "▁valutazione",
        -9.335974584198507
      ],
      [
        "▁materiali",
        -9.336048628700924
      ],
      [
        "▁26",
        -9.336179660643229
      ],
      [
        "▁passare",
        -9.336204004124804
      ],
      [
        "▁stagione",
        -9.336397098503523
      ],
      [
        "▁(e",
        -9.337613564873294
      ],
      [
        "▁metà",
        -9.337628252869766
      ],
      [
        "▁Secondo",
        -9.337824634363923
      ],
      [
        "▁scorso",
        -9.339416188462316
      ],
      [
        "▁stampa",
        -9.339524588514658
      ],
      [
        "▁prossimo",
        -9.339792679571453
      ],
      [
        "ndosi",
        -9.340215607613207
      ],
      [
        "▁2012",
        -9.341270410593815
      ],
      [
        "▁dentro",
        -9.342180317350667
      ],
      [
        "ssa",
        -9.34220658390224
      ],
      [
        "cchi",
        -9.343967170373986
      ],
      [
        "G",
        -9.347906452616321
      ],
      [
        "▁capo",
        -9.348233280918201
      ],
      [
        "▁fondamentale",
        -9.348287958547914
      ],
      [
        "▁seguire",
        -9.348957611345199
      ],
      [
        "▁stare",
        -9.349978435075776
      ],
      [
        "▁diventare",
        -9.351388955254512
      ],
      [
        "▁giusto",
        -9.354681222531601
      ],
      [
        "▁potere",
        -9.356490582813768
      ],
      [
        "▁lavorare",
        -9.35966146274264
      ],
      [
        "▁crisi",
        -9.36035380320152
      ],
      [
        "▁livelli",
        -9.36105510956056
      ],
      [
        "▁articoli",
        -9.361458889693267
      ],
      [
        "▁corsi",
        -9.361968394855872
      ],
      [
        "▁prezzi",
        -9.362118124980064
      ],
      [
        "ti,",
        -9.363910000977457
      ],
      [
        "▁paesi",
        -9.365733137243925
      ],
      [
        "▁sezione",
        -9.366281032639101
      ],
      [
        "▁codice",
        -9.367219282854037
      ],
      [
        "▁aspetti",
        -9.367536597961461
      ],
      [
        "▁Tutto",
        -9.367796225829654
      ],
      [
        "▁regole",
        -9.368758787836544
      ],
      [
        "▁preso",
        -9.369045011084683
      ],
      [
        "▁protezione",
        -9.369909260771044
      ],
      [
        "▁aree",
        -9.370627135227238
      ],
      [
        "▁cinque",
        -9.371203392049413
      ],
      [
        "▁bambino",
        -9.37205455648203
      ],
      [
        "ck",
        -9.372196315241286
      ],
      [
        "▁vede",
        -9.372256540107896
      ],
      [
        "▁sole",
        -9.37296507997668
      ],
      [
        "▁nonostante",
        -9.373222901364905
      ],
      [
        "▁idee",
        -9.373625819914938
      ],
      [
        "▁categoria",
        -9.373759741504239
      ],
      [
        "▁pare",
        -9.375596475016518
      ],
      [
        "▁nemmeno",
        -9.377832170063506
      ],
      [
        "▁relativi",
        -9.379177893835275
      ],
      [
        "▁esempio,",
        -9.379864496947578
      ],
      [
        "▁piedi",
        -9.380790319755235
      ],
      [
        "▁fini",
        -9.380823198316385
      ],
      [
        "▁scrivere",
        -9.381042660780746
      ],
      [
        "▁contenuti",
        -9.381544787440111
      ],
      [
        "▁cercare",
        -9.382002278478122
      ],
      [
        "▁bello",
        -9.383589224651999
      ],
      [
        "5",
        -9.385122723256975
      ],
      [
        "▁e’",
        -9.386396197531043
      ],
      [
        "▁29",
        -9.386472128920659
      ],
      [
        "oni",
        -9.387409068719435
      ],
      [
        "▁lunga",
        -9.387627384892657
      ],
      [
        "▁arriva",
        -9.38772418531033
      ],
      [
        "▁Cosa",
        -9.388163312737703
      ],
      [
        "▁motivi",
        -9.388230137995022
      ],
      [
        "▁locale",
        -9.38869762803192
      ],
      [
        "▁voglio",
        -9.391205143126655
      ],
      [
        "gg",
        -9.391300905140305
      ],
      [
        "▁pagine",
        -9.39252117081568
      ],
      [
        "▁lavoratori",
        -9.39365278932897
      ],
      [
        "▁nonché",
        -9.394377813927463
      ],
      [
        "▁responsabilità",
        -9.39635619371543
      ],
      [
        "▁principale",
        -9.397497295984103
      ],
      [
        "▁domande",
        -9.397795212599311
      ],
      [
        "▁Li",
        -9.398071371444535
      ],
      [
        "▁comunità",
        -9.398179249032502
      ],
      [
        "▁camere",
        -9.398482275539097
      ],
      [
        "▁medico",
        -9.399222190807196
      ],
      [
        "▁avanti",
        -9.39978005690291
      ],
      [
        "▁dovrà",
        -9.400889301137564
      ],
      [
        "▁quantità",
        -9.400994201588446
      ],
      [
        "(",
        -9.401465846899002
      ],
      [
        "▁comuni",
        -9.404692552998469
      ],
      [
        "▁tutela",
        -9.405408241552127
      ],
      [
        "▁luoghi",
        -9.40593677955793
      ],
      [
        "▁2013",
        -9.4076870379059
      ],
      [
        "erà",
        -9.408155460856477
      ],
      [
        "V",
        -9.40939322428532
      ],
      [
        "▁interesse",
        -9.41208436405695
      ],
      [
        "▁potrebbero",
        -9.413017200470305
      ],
      [
        "▁figli",
        -9.413085579348808
      ],
      [
        "▁farlo",
        -9.413294124296238
      ],
      [
        "▁esiste",
        -9.415445279585892
      ],
      [
        "anti",
        -9.416238495138405
      ],
      [
        "▁serve",
        -9.419100821128982
      ],
      [
        "▁soli",
        -9.420234279723543
      ],
      [
        "▁danno",
        -9.421094839690628
      ],
      [
        "▁animali",
        -9.421196361287121
      ],
      [
        "▁40",
        -9.42165262044142
      ],
      [
        "▁classe",
        -9.42243547195696
      ],
      [
        "▁strutture",
        -9.423129393235177
      ],
      [
        "▁Alla",
        -9.424312817105179
      ],
      [
        "smo",
        -9.424438944416849
      ],
      [
        "▁merito",
        -9.425228569335488
      ],
      [
        "▁ecco",
        -9.425272646100131
      ],
      [
        ");",
        -9.425651755830977
      ],
      [
        "rio",
        -9.428571869823125
      ],
      [
        "▁supporto",
        -9.428571945707688
      ],
      [
        "▁impianti",
        -9.428601213400178
      ],
      [
        "lli",
        -9.428603746297057
      ],
      [
        "man",
        -9.42889803180572
      ],
      [
        "▁Ne",
        -9.429014430947333
      ],
      [
        "▁probabilmente",
        -9.429438740575687
      ],
      [
        "mp",
        -9.429465022403974
      ],
      [
        "▁dietro",
        -9.429756379264385
      ],
      [
        "ing",
        -9.431484444036995
      ],
      [
        "▁anni.",
        -9.431949807218857
      ],
      [
        "▁norme",
        -9.43210057750031
      ],
      [
        "▁relative",
        -9.432967329338448
      ],
      [
        "▁po",
        -9.43338351861857
      ],
      [
        "ch",
        -9.433855955985237
      ],
      [
        "▁specie",
        -9.43571463906168
      ],
      [
        ".....",
        -9.435745134147657
      ],
      [
        "▁particolarmente",
        -9.438556538297979
      ],
      [
        "▁faccio",
        -9.438731903231005
      ],
      [
        "▁adesso",
        -9.44030991670845
      ],
      [
        "▁mezzi",
        -9.441054775179108
      ],
      [
        "▁potete",
        -9.441300249354931
      ],
      [
        "▁faccia",
        -9.44146243761545
      ],
      [
        "▁assolutamente",
        -9.444717742959767
      ],
      [
        "▁portato",
        -9.446766778176638
      ],
      [
        "th",
        -9.447270935052263
      ],
      [
        "▁partecipare",
        -9.448116176894871
      ],
      [
        "▁naturale",
        -9.449427634696754
      ],
      [
        "▁intorno",
        -9.449755238161469
      ],
      [
        "▁forme",
        -9.452158605056095
      ],
      [
        "▁maggiori",
        -9.452577750018563
      ],
      [
        "▁social",
        -9.452835150536771
      ],
      [
        "du",
        -9.452944641069486
      ],
      [
        "ter",
        -9.453111806493645
      ],
      [
        "▁case",
        -9.453184012872695
      ],
      [
        "▁basso",
        -9.45362889694529
      ],
      [
        "▁giovane",
        -9.454552085804563
      ],
      [
        "M",
        -9.455066186479472
      ],
      [
        "▁entrambi",
        -9.457034975865756
      ],
      [
        "▁famiglie",
        -9.457255011451213
      ],
      [
        "ano",
        -9.457318407087318
      ],
      [
        "▁dedicato",
        -9.457327138330857
      ],
      [
        "▁storico",
        -9.45797862471316
      ],
      [
        "▁funzioni",
        -9.458718023680785
      ],
      [
        "▁figlio",
        -9.45950305775462
      ],
      [
        "▁bagno",
        -9.459985079116418
      ],
      [
        "▁rapporti",
        -9.46098821449343
      ],
      [
        "▁ragione",
        -9.462369856908262
      ],
      [
        "▁Siamo",
        -9.46431110872366
      ],
      [
        "▁Abbiamo",
        -9.465532629194024
      ],
      [
        "▁d",
        -9.465972162709509
      ],
      [
        "▁riguardo",
        -9.46631116242485
      ],
      [
        "▁internazionale",
        -9.46915375914811
      ],
      [
        "▁chiaro",
        -9.471049411180655
      ],
      [
        "▁misure",
        -9.474161181226728
      ],
      [
        "▁oggetto",
        -9.474742116897271
      ],
      [
        "▁messaggio",
        -9.475180114876963
      ],
      [
        "▁gruppi",
        -9.47645609978706
      ],
      [
        "▁soggiorno",
        -9.477002922363312
      ],
      [
        "▁ero",
        -9.477291192712144
      ],
      [
        "▁completa",
        -9.477316602864146
      ],
      [
        "▁avevano",
        -9.479216527619506
      ],
      [
        "▁consigli",
        -9.480111644942465
      ],
      [
        "▁anti",
        -9.480938250373537
      ],
      [
        "cca",
        -9.48094283031485
      ],
      [
        "▁mette",
        -9.482338728983263
      ],
      [
        "▁nessun",
        -9.483235169422649
      ],
      [
        "▁siete",
        -9.484208102054074
      ],
      [
        "▁www.",
        -9.484815925516719
      ],
      [
        "▁(in",
        -9.485705594904674
      ],
      [
        "▁garantire",
        -9.48675047262036
      ],
      [
        "▁leggi",
        -9.488943940098082
      ],
      [
        "▁confronto",
        -9.4892385465629
      ],
      [
        "▁pubblicato",
        -9.49036210486824
      ],
      [
        "▁presto",
        -9.490925244129254
      ],
      [
        "▁sabato",
        -9.490989354618971
      ],
      [
        "zzazione",
        -9.491664325468074
      ],
      [
        "nze",
        -9.492044612599337
      ],
      [
        "▁carico",
        -9.492359995379019
      ],
      [
        "▁file",
        -9.495403214158365
      ],
      [
        "▁costruzione",
        -9.495418421003222
      ],
      [
        "▁devi",
        -9.496015691337888
      ],
      [
        "▁consente",
        -9.497873863686177
      ],
      [
        "▁U",
        -9.498968519657623
      ],
      [
        "▁vostri",
        -9.49923418218782
      ],
      [
        "▁proposta",
        -9.499826703593806
      ],
      [
        "▁squadra",
        -9.49989047235517
      ],
      [
        "▁pubblici",
        -9.50075449439162
      ],
      [
        "gno",
        -9.500761403576066
      ],
      [
        "▁interessi",
        -9.501707336194746
      ],
      [
        "▁sicuro",
        -9.503152572383941
      ],
      [
        "▁potranno",
        -9.504582741406551
      ],
      [
        "▁sesso",
        -9.504958978125494
      ],
      [
        "▁2.",
        -9.505054219683787
      ],
      [
        "▁tecnico",
        -9.505861379237505
      ],
      [
        "▁sé",
        -9.505936122195507
      ],
      [
        "▁campagna",
        -9.506337618710507
      ],
      [
        "▁paura",
        -9.507299306797801
      ],
      [
        "▁terzo",
        -9.508165410248356
      ],
      [
        "▁solito",
        -9.508178381797478
      ],
      [
        "ta,",
        -9.508372272777533
      ],
      [
        "▁Ciao",
        -9.508974187662801
      ],
      [
        "▁atto",
        -9.509259366678773
      ],
      [
        "▁modelli",
        -9.511130771227574
      ],
      [
        "▁politiche",
        -9.511325589123489
      ],
      [
        "▁richieste",
        -9.511698325141758
      ],
      [
        "bo",
        -9.512354528362494
      ],
      [
        "▁risulta",
        -9.513326355034685
      ],
      [
        "▁procedura",
        -9.515179116471153
      ],
      [
        "▁pazienti",
        -9.51589246640183
      ],
      [
        "▁provare",
        -9.516226211093446
      ],
      [
        "▁opera",
        -9.51633673949059
      ],
      [
        "cu",
        -9.51728930094287
      ],
      [
        "▁sentire",
        -9.518601812187566
      ],
      [
        "▁potuto",
        -9.518768485891167
      ],
      [
        "ssima",
        -9.519213860754407
      ],
      [
        "▁operazioni",
        -9.521556777883298
      ],
      [
        "▁atti",
        -9.5219664116143
      ],
      [
        "▁danni",
        -9.522329570716545
      ],
      [
        "▁sale",
        -9.52322318545438
      ],
      [
        "▁sull’",
        -9.52326038199679
      ],
      [
        "▁dunque",
        -9.52330832387216
      ],
      [
        "▁soldi",
        -9.523508541826118
      ],
      [
        "▁valori",
        -9.524132314002244
      ],
      [
        "▁macchina",
        -9.524335883066978
      ],
      [
        "▁documenti",
        -9.525550849366706
      ],
      [
        "▁cambiare",
        -9.525757036477296
      ],
      [
        "▁vale",
        -9.52676446011232
      ],
      [
        "▁Qui",
        -9.527024166621246
      ],
      [
        "▁tenere",
        -9.527718462392372
      ],
      [
        "▁metodo",
        -9.527955076156783
      ],
      [
        "▁capito",
        -9.528396656046567
      ],
      [
        "▁lettura",
        -9.52859065157073
      ],
      [
        "fa",
        -9.528822333321344
      ],
      [
        "▁cliente",
        -9.529228623728354
      ],
      [
        "▁piccole",
        -9.530891386049692
      ],
      [
        "▁soluzioni",
        -9.53162658180634
      ],
      [
        "▁fornire",
        -9.532565934988124
      ],
      [
        "▁ideale",
        -9.53441743467793
      ],
      [
        "▁effettuare",
        -9.534763485548375
      ],
      [
        "▁2011",
        -9.53519199817135
      ],
      [
        "▁ricetta",
        -9.535297052979397
      ],
      [
        "▁contenuto",
        -9.53680376239165
      ],
      [
        "▁decisione",
        -9.537817569298983
      ],
      [
        "▁ovviamente",
        -9.539739184557302
      ],
      [
        "▁resta",
        -9.541009690983929
      ],
      [
        "▁massima",
        -9.541776556836481
      ],
      [
        "qui",
        -9.542156643110989
      ],
      [
        "▁mantenere",
        -9.54236729164608
      ],
      [
        "llo",
        -9.54302669795652
      ],
      [
        "▁scuole",
        -9.545754618984857
      ],
      [
        "▁spesa",
        -9.546418129180843
      ],
      [
        "▁dieta",
        -9.548753596744675
      ],
      [
        "▁idea",
        -9.54945107812857
      ],
      [
        "▁penso",
        -9.551344915010507
      ],
      [
        "▁contributo",
        -9.551959936650452
      ],
      [
        "▁Chiesa",
        -9.552130193419117
      ],
      [
        "▁zone",
        -9.553940715120618
      ],
      [
        "▁gara",
        -9.553974870585467
      ],
      [
        "▁presentazione",
        -9.55611540375341
      ],
      [
        "▁lista",
        -9.556430016524544
      ],
      [
        "▁aperto",
        -9.557581934924567
      ],
      [
        "▁perdita",
        -9.558312532702576
      ],
      [
        "▁scelto",
        -9.558830821043617
      ],
      [
        "▁economico",
        -9.558900352130545
      ],
      [
        "▁obiettivi",
        -9.558979195400688
      ],
      [
        "▁documento",
        -9.560092852386443
      ],
      [
        "▁azioni",
        -9.562561537668248
      ],
      [
        "8",
        -9.563927073473247
      ],
      [
        "▁festa",
        -9.563975777647183
      ],
      [
        "▁ieri",
        -9.564338300314233
      ],
      [
        "▁novità",
        -9.56578052930227
      ],
      [
        "▁ricordo",
        -9.566070155331866
      ],
      [
        "trice",
        -9.56752247282061
      ],
      [
        "▁tuttavia",
        -9.567765883700655
      ],
      [
        "▁essa",
        -9.567882217041301
      ],
      [
        "▁affrontare",
        -9.568114849640773
      ],
      [
        "▁entrare",
        -9.571380463886092
      ],
      [
        "▁dimensioni",
        -9.57144560447811
      ],
      [
        "▁pensato",
        -9.57167368572361
      ],
      [
        "schi",
        -9.572756232376015
      ],
      [
        "▁chiedere",
        -9.573196900198862
      ],
      [
        "▁tal",
        -9.573230324370172
      ],
      [
        "▁minimo",
        -9.573452974823367
      ],
      [
        "▁scoprire",
        -9.573515471784354
      ],
      [
        "30",
        -9.573846504716222
      ],
      [
        "▁popolazione",
        -9.574036110164682
      ],
      [
        "▁ordine",
        -9.574300018525399
      ],
      [
        "▁considerazione",
        -9.574752269842428
      ],
      [
        "▁utilizzato",
        -9.575046717412057
      ],
      [
        "▁V",
        -9.575143797108336
      ],
      [
        "▁libera",
        -9.577465309608824
      ],
      [
        "▁trasporto",
        -9.577521689119848
      ],
      [
        "▁trovano",
        -9.578563246759538
      ],
      [
        "▁passi",
        -9.578992730517061
      ],
      [
        "▁poche",
        -9.579392760566257
      ],
      [
        "▁realizzato",
        -9.580060699092552
      ],
      [
        "L",
        -9.581577508198276
      ],
      [
        "▁Co",
        -9.581596731592931
      ],
      [
        "▁piazza",
        -9.582234103889899
      ],
      [
        "▁precedente",
        -9.584427041937499
      ],
      [
        "▁disposizioni",
        -9.584867549395746
      ],
      [
        "▁passione",
        -9.585949808329584
      ],
      [
        "▁rimane",
        -9.591574978581916
      ],
      [
        "zio",
        -9.592763574469588
      ],
      [
        "▁paio",
        -9.593076674598542
      ],
      [
        "▁essi",
        -9.595140063004198
      ],
      [
        "▁conferma",
        -9.595437405567633
      ],
      [
        "▁dallo",
        -9.596688758259218
      ],
      [
        "▁sala",
        -9.596707625719118
      ],
      [
        "ru",
        -9.596878156556368
      ],
      [
        "▁all'interno",
        -9.597190157486741
      ],
      [
        "▁movimento",
        -9.597518844051786
      ],
      [
        "▁Pro",
        -9.598856524389685
      ],
      [
        "▁Mo",
        -9.599387562766672
      ],
      [
        "▁disciplina",
        -9.600853219511237
      ],
      [
        "ur",
        -9.600900697594806
      ],
      [
        "▁Nazionale",
        -9.60109250916206
      ],
      [
        "▁provincia",
        -9.601320717763556
      ],
      [
        "▁norma",
        -9.6014248375171
      ],
      [
        "▁mondo.",
        -9.602648540049241
      ],
      [
        "▁(o",
        -9.603717937551174
      ],
      [
        "▁diverso",
        -9.603941373023343
      ],
      [
        "▁vorrei",
        -9.604028331077938
      ],
      [
        "▁visione",
        -9.605037169240768
      ],
      [
        "▁dolore",
        -9.605187686296553
      ],
      [
        "▁Ministero",
        -9.60548639195379
      ],
      [
        "▁prestazioni",
        -9.605747199501039
      ],
      [
        "▁madre",
        -9.607161943444801
      ],
      [
        "à",
        -9.607717563109485
      ],
      [
        "um",
        -9.607863354128662
      ],
      [
        "▁spazi",
        -9.608648010294303
      ],
      [
        "▁libero",
        -9.608861248975352
      ],
      [
        "▁esperti",
        -9.609373784459427
      ],
      [
        "▁speciale",
        -9.609885810035003
      ],
      [
        "▁raccolta",
        -9.610272420589192
      ],
      [
        "▁momenti",
        -9.610993950413121
      ],
      [
        "▁lì",
        -9.612141600504671
      ],
      [
        "▁incontro",
        -9.612255598802715
      ],
      [
        "sugli",
        -9.61231284110211
      ],
      [
        "▁1,",
        -9.614230057437528
      ],
      [
        "▁oggetti",
        -9.61423174062762
      ],
      [
        "7",
        -9.614539345162013
      ],
      [
        "▁richiede",
        -9.614803326442829
      ],
      [
        "▁particolari",
        -9.617143542784982
      ],
      [
        "▁ritorno",
        -9.617185542841135
      ],
      [
        "▁cercando",
        -9.61864743875943
      ],
      [
        "▁professionale",
        -9.61938025993182
      ],
      [
        "▁Così",
        -9.61952345534771
      ],
      [
        "lu",
        -9.619611019281937
      ],
      [
        "▁software",
        -9.620886210241018
      ],
      [
        "▁libertà",
        -9.621724271115365
      ],
      [
        "▁mediante",
        -9.623369875405821
      ],
      [
        "▁ridurre",
        -9.623509038978458
      ],
      [
        "▁N",
        -9.623620057766505
      ],
      [
        "▁stesse",
        -9.624237367334722
      ],
      [
        "▁mie",
        -9.624241495499696
      ],
      [
        "▁purtroppo",
        -9.625762841887218
      ],
      [
        "▁Ed",
        -9.62592241912892
      ],
      [
        "N",
        -9.626494395902608
      ],
      [
        "▁contesto",
        -9.626717408753802
      ],
      [
        "rai",
        -9.627027381569896
      ],
      [
        "sto",
        -9.62732124211955
      ],
      [
        "▁km",
        -9.627845341196988
      ],
      [
        "▁esperienze",
        -9.628249031846334
      ],
      [
        "▁finalmente",
        -9.628811579873645
      ],
      [
        "▁soggetto",
        -9.628966127796676
      ],
      [
        "▁mente",
        -9.629074695134584
      ],
      [
        "▁poteva",
        -9.629715471301811
      ],
      [
        "▁aspetto",
        -9.629979879824475
      ],
      [
        "▁edizione",
        -9.630314823890473
      ],
      [
        "▁cibo",
        -9.630884454206853
      ],
      [
        "▁ottimo",
        -9.631688655580948
      ],
      [
        "mm",
        -9.63174657452399
      ],
      [
        "▁tempo,",
        -9.631807584829277
      ],
      [
        "rebbe",
        -9.631947709233733
      ],
      [
        "▁appartamento",
        -9.632132236480214
      ],
      [
        "ggio",
        -9.632206401106323
      ],
      [
        "▁Quindi",
        -9.632230214931543
      ],
      [
        "▁accesso",
        -9.63249953299507
      ],
      [
        "▁prove",
        -9.633143591606373
      ],
      [
        "▁verde",
        -9.63348674995242
      ],
      [
        "▁dobbiamo",
        -9.633645743308449
      ],
      [
        "▁ambiente",
        -9.633664857595033
      ],
      [
        "▁intervento",
        -9.63560001165979
      ],
      [
        "▁2010",
        -9.635682281855225
      ],
      [
        "▁essendo",
        -9.636010350861204
      ],
      [
        "▁(che",
        -9.636025688727923
      ],
      [
        "▁quota",
        -9.63607513014671
      ],
      [
        "▁Repubblica",
        -9.636101345985644
      ],
      [
        "▁forze",
        -9.637048346428701
      ],
      [
        "▁aiuta",
        -9.637521395642988
      ],
      [
        "▁membri",
        -9.637742210114158
      ],
      [
        "ture",
        -9.638044346546215
      ],
      [
        "▁carattere",
        -9.63837768303792
      ],
      [
        "▁distanza",
        -9.639874639908967
      ],
      [
        "sca",
        -9.640164417466636
      ],
      [
        "▁Questi",
        -9.640187436336006
      ],
      [
        "▁facilmente",
        -9.640415567724094
      ],
      [
        "▁Corte",
        -9.642790623096658
      ],
      [
        "▁NON",
        -9.642864218001861
      ],
      [
        "▁tornare",
        -9.643332969714924
      ],
      [
        "▁inizia",
        -9.64333601545102
      ],
      [
        "▁beni",
        -9.643459207530183
      ],
      [
        "▁condizione",
        -9.643587214186743
      ],
      [
        "▁numerosi",
        -9.643872227311725
      ],
      [
        "▁passa",
        -9.645301116274442
      ],
      [
        "▁vedo",
        -9.646914952297418
      ],
      [
        "▁Gesù",
        -9.646985816326417
      ],
      [
        "▁vacanza",
        -9.647924103540785
      ],
      [
        "▁chiave",
        -9.64809621428168
      ],
      [
        "▁prende",
        -9.649809331268361
      ],
      [
        "▁posta",
        -9.651388254050316
      ],
      [
        "gna",
        -9.651742940782952
      ],
      [
        "ven",
        -9.652625195865406
      ],
      [
        "▁c",
        -9.652883644855331
      ],
      [
        "▁usato",
        -9.652951956080745
      ],
      [
        "▁incontri",
        -9.652995242794542
      ],
      [
        "▁però,",
        -9.653297121703574
      ],
      [
        "▁sostegno",
        -9.653431577812048
      ],
      [
        "▁partita",
        -9.653931592465359
      ],
      [
        "▁figura",
        -9.655970760234615
      ],
      [
        "▁effetto",
        -9.65599880231907
      ],
      [
        "▁riesce",
        -9.656881647157505
      ],
      [
        "▁poiché",
        -9.657133939574603
      ],
      [
        "▁Inoltre,",
        -9.659093257308545
      ],
      [
        "▁interessante",
        -9.659569178502664
      ],
      [
        "▁ulteriori",
        -9.659640111827766
      ],
      [
        "▁ex",
        -9.659710259091753
      ],
      [
        "fer",
        -9.659999296469522
      ],
      [
        "ero",
        -9.660345058222857
      ],
      [
        "▁mamma",
        -9.6605290419661
      ],
      [
        "▁Ca",
        -9.660694700224925
      ],
      [
        "▁iniziato",
        -9.661061919157111
      ],
      [
        "▁co",
        -9.661365426678525
      ],
      [
        "▁sociali",
        -9.66136904486787
      ],
      [
        "▁possibili",
        -9.661482530886122
      ],
      [
        "▁miglior",
        -9.662140972531011
      ],
      [
        "▁Facebook",
        -9.662312952579862
      ],
      [
        "▁memoria",
        -9.662825568601523
      ],
      [
        "▁iniziative",
        -9.66386799684547
      ],
      [
        "sso",
        -9.66399798624202
      ],
      [
        "ni,",
        -9.664166252414507
      ],
      [
        "▁dedicata",
        -9.6655234625859
      ],
      [
        "▁proposte",
        -9.66589928832487
      ],
      [
        "▁Centro",
        -9.665953151648807
      ],
      [
        "ty",
        -9.666104500720786
      ],
      [
        "▁età",
        -9.666279344697362
      ],
      [
        "▁messa",
        -9.666445220242775
      ],
      [
        "▁vita.",
        -9.66771214264318
      ],
      [
        "tivo",
        -9.668238848472347
      ],
      [
        "▁Fa",
        -9.669361449686878
      ],
      [
        "K",
        -9.67008960176408
      ],
      [
        "▁possano",
        -9.670526798246922
      ],
      [
        "▁pensiero",
        -9.67055343916137
      ],
      [
        "▁propone",
        -9.670595474205001
      ],
      [
        "▁vogliono",
        -9.67086160306982
      ],
      [
        "▁lavoro,",
        -9.670915171403536
      ],
      [
        "▁bar",
        -9.671210624620691
      ],
      [
        "▁pagare",
        -9.672050623885767
      ],
      [
        "oli",
        -9.672382262774633
      ],
      [
        "▁completo",
        -9.673602741981975
      ],
      [
        "▁centrale",
        -9.674503718869808
      ],
      [
        "▁fai",
        -9.674626121765481
      ],
      [
        "▁dell",
        -9.674981153827165
      ],
      [
        "▁pena",
        -9.675014419057941
      ],
      [
        "▁design",
        -9.67593535520075
      ],
      [
        "▁capelli",
        -9.676556083736617
      ],
      [
        "▁simile",
        -9.67780237751877
      ],
      [
        "▁Commissione",
        -9.677828996385593
      ],
      [
        "ster",
        -9.677913224632722
      ],
      [
        "▁modi",
        -9.679449908425653
      ],
      [
        "▁legno",
        -9.679708333631488
      ],
      [
        "▁2009",
        -9.680779550179526
      ],
      [
        "▁offrire",
        -9.680949801022932
      ],
      [
        "▁tecnologia",
        -9.681120027682741
      ],
      [
        "▁(per",
        -9.682645473557422
      ],
      [
        "▁tipi",
        -9.682667253657108
      ],
      [
        "▁esso",
        -9.682897705134533
      ],
      [
        "▁iniziare",
        -9.683611451516606
      ],
      [
        "▁mille",
        -9.68422529301955
      ],
      [
        "▁componenti",
        -9.685024834974463
      ],
      [
        "▁Uniti",
        -9.68618913845608
      ],
      [
        "one",
        -9.686696286143484
      ],
      [
        "▁energia",
        -9.687029062830483
      ],
      [
        "▁situazioni",
        -9.687762108734434
      ],
      [
        "▁capitale",
        -9.688332713311098
      ],
      [
        "▁principio",
        -9.68848673794597
      ],
      [
        "▁ampio",
        -9.688510293674023
      ],
      [
        "▁limiti",
        -9.688526766478368
      ],
      [
        "H",
        -9.688770150548688
      ],
      [
        "ana",
        -9.68897711586585
      ],
      [
        "▁difesa",
        -9.68905009347366
      ],
      [
        "▁K",
        -9.690140099615697
      ],
      [
        "▁giudizio",
        -9.690389971038456
      ],
      [
        "▁verifica",
        -9.690450842125433
      ],
      [
        "▁ragazza",
        -9.69061767204813
      ],
      [
        "eri",
        -9.690627054472719
      ],
      [
        "▁reale",
        -9.6912547898766
      ],
      [
        "▁passaggio",
        -9.691611577285087
      ],
      [
        "stra",
        -9.692651032094389
      ],
      [
        "▁pi",
        -9.693232201886925
      ],
      [
        "▁voluto",
        -9.694205210486375
      ],
      [
        "ba",
        -9.694612652692136
      ],
      [
        "▁credito",
        -9.694777766182224
      ],
      [
        "▁programmi",
        -9.694933269889646
      ],
      [
        "▁sport",
        -9.695539259628507
      ],
      [
        "▁super",
        -9.695670227486143
      ],
      [
        "▁ufficiale",
        -9.697102972312084
      ],
      [
        "▁aiutare",
        -9.697141549228096
      ],
      [
        "▁semplici",
        -9.698282596253616
      ],
      [
        "▁Paese",
        -9.698311909763152
      ],
      [
        "▁padre",
        -9.699404382748458
      ],
      [
        "▁responsabile",
        -9.700031525209129
      ],
      [
        "▁settimane",
        -9.700278100762002
      ],
      [
        "▁spiega",
        -9.700335247115248
      ],
      [
        "▁Pa",
        -9.700653698162325
      ],
      [
        "▁conseguenza",
        -9.700696955040458
      ],
      [
        "▁rispondere",
        -9.701328004275563
      ],
      [
        "stica",
        -9.701648347426993
      ],
      [
        "▁Google",
        -9.70196979218694
      ],
      [
        "▁aumentare",
        -9.70402708643433
      ],
      [
        "nto",
        -9.704117960947087
      ],
      [
        "▁commento",
        -9.704471096125413
      ],
      [
        "cor",
        -9.704843364756792
      ],
      [
        "▁giochi",
        -9.705343316346337
      ],
      [
        "▁rischi",
        -9.70624972646103
      ],
      [
        "▁specifico",
        -9.706473786722473
      ],
      [
        "tica",
        -9.706535546791716
      ],
      [
        "▁giusta",
        -9.707891080162657
      ],
      [
        "▁pensa",
        -9.708676732289995
      ],
      [
        "▁dubbio",
        -9.708831103777456
      ],
      [
        "▁recente",
        -9.709000180220471
      ],
      [
        "▁acquistare",
        -9.709289951993307
      ],
      [
        "▁nessuna",
        -9.709294367893168
      ],
      [
        "▁principi",
        -9.709800474950065
      ],
      [
        "▁lascia",
        -9.709882639612402
      ],
      [
        "▁Oltre",
        -9.709948236503491
      ],
      [
        "▁mancanza",
        -9.71018348547727
      ],
      [
        "▁bianco",
        -9.710593129743573
      ],
      [
        "tro",
        -9.71190836052082
      ],
      [
        "bu",
        -9.713356067262183
      ],
      [
        "▁diretto",
        -9.7144229048575
      ],
      [
        "ss",
        -9.715024982787194
      ],
      [
        "50",
        -9.715351726876467
      ],
      [
        "ghi",
        -9.71646067039932
      ],
      [
        "▁spettacolo",
        -9.716709118524925
      ],
      [
        "▁aggiungere",
        -9.71703190933398
      ],
      [
        "▁economica",
        -9.718332524472533
      ],
      [
        "▁nasce",
        -9.719126085042042
      ],
      [
        "▁dettagli",
        -9.72212034117319
      ],
      [
        "zze",
        -9.722149124897474
      ],
      [
        "▁vino",
        -9.72339278632262
      ],
      [
        "▁processi",
        -9.723903224137402
      ],
      [
        "▁addirittura",
        -9.725122191719123
      ],
      [
        "▁competenze",
        -9.725546956338366
      ],
      [
        "▁60",
        -9.72567662133109
      ],
      [
        "▁piena",
        -9.72591138152947
      ],
      [
        "▁invece,",
        -9.727014592430105
      ],
      [
        "▁titoli",
        -9.72702818187459
      ],
      [
        "▁giardino",
        -9.728000199360654
      ],
      [
        "son",
        -9.728092009223786
      ],
      [
        "▁piatto",
        -9.730032205296627
      ],
      [
        "▁esclusivamente",
        -9.730138820456734
      ],
      [
        "▁pasta",
        -9.730272228912327
      ],
      [
        "▁belle",
        -9.73082907346392
      ],
      [
        "▁bilancio",
        -9.731312396923393
      ],
      [
        "zi",
        -9.732443860641306
      ],
      [
        "NO",
        -9.733642941708206
      ],
      [
        "▁profilo",
        -9.733735336003992
      ],
      [
        "▁caso,",
        -9.735668332916738
      ],
      [
        "▁gestire",
        -9.736011761756558
      ],
      [
        "zia",
        -9.736647114683176
      ],
      [
        "ari",
        -9.736800079740114
      ],
      [
        "remo",
        -9.738562311202447
      ],
      [
        "▁ricevere",
        -9.739703811478291
      ],
      [
        "▁vive",
        -9.741199771204474
      ],
      [
        "▁Continua",
        -9.74121725312511
      ],
      [
        "▁l'ho",
        -9.741743049357915
      ],
      [
        "▁Durante",
        -9.741770123767353
      ],
      [
        "▁lasciare",
        -9.74206707770826
      ],
      [
        "▁dieci",
        -9.74254172328153
      ],
      [
        "▁preparazione",
        -9.743435693931872
      ],
      [
        "ha",
        -9.743990521722147
      ],
      [
        "▁scena",
        -9.74440783925267
      ],
      [
        "▁diretta",
        -9.744491404676834
      ],
      [
        "▁opportunità",
        -9.744902134519815
      ],
      [
        "▁adatta",
        -9.745262381756415
      ],
      [
        "▁concorso",
        -9.74531642088105
      ],
      [
        "▁violenza",
        -9.745354072900447
      ],
      [
        "_",
        -9.745578941759423
      ],
      [
        "zzo",
        -9.74705235453214
      ],
      [
        "▁New",
        -9.747102195195067
      ],
      [
        "▁ragazzo",
        -9.747251226051212
      ],
      [
        "▁avrà",
        -9.748008371869227
      ],
      [
        "ar",
        -9.748062792851918
      ],
      [
        "▁professionisti",
        -9.74878884283073
      ],
      [
        "▁fiducia",
        -9.750281828341524
      ],
      [
        "TO",
        -9.75125416025916
      ],
      [
        "▁mangiare",
        -9.751308714014126
      ],
      [
        "▁tradizione",
        -9.752291715934284
      ],
      [
        "▁consegna",
        -9.752568587039462
      ],
      [
        "▁CON",
        -9.752809504757582
      ],
      [
        "sh",
        -9.75330931395596
      ],
      [
        "6",
        -9.753959840262599
      ],
      [
        "▁costa",
        -9.75481674360944
      ],
      [
        "▁Fu",
        -9.754867313684834
      ],
      [
        "▁So",
        -9.757067323794876
      ],
      [
        "▁standard",
        -9.757152562377414
      ],
      [
        "▁velocità",
        -9.758022595608718
      ],
      [
        "▁chiesto",
        -9.758685255806535
      ],
      [
        "▁olio",
        -9.758795380437437
      ],
      [
        "▁sull'",
        -9.759426794133649
      ],
      [
        "▁Inoltre",
        -9.759433355716867
      ],
      [
        "▁perfetto",
        -9.760300284872876
      ],
      [
        "▁altra",
        -9.760312112963938
      ],
      [
        "▁notizia",
        -9.76099980532948
      ],
      [
        "▁uscire",
        -9.762062859804619
      ],
      [
        "▁direzione",
        -9.76303882490453
      ],
      [
        "▁Maria",
        -9.7634104128843
      ],
      [
        "▁complesso",
        -9.764808149154574
      ],
      [
        "▁temperatura",
        -9.765591873740412
      ],
      [
        "▁occorre",
        -9.765994132668201
      ],
      [
        "ta.",
        -9.76663131374596
      ],
      [
        "bilità",
        -9.767702718766287
      ],
      [
        "▁ecc.",
        -9.768210038858705
      ],
      [
        "▁culturale",
        -9.769079115952334
      ],
      [
        "▁fuoco",
        -9.76967971734663
      ],
      [
        "0",
        -9.770143825465858
      ],
      [
        "▁Solo",
        -9.770650315731439
      ],
      [
        "ante",
        -9.770985936848064
      ],
      [
        "▁fisica",
        -9.771394733925437
      ],
      [
        "▁mattina",
        -9.771606418251775
      ],
      [
        "▁strade",
        -9.771662184939293
      ],
      [
        "be",
        -9.772057616713134
      ],
      [
        "▁operatori",
        -9.772173068688385
      ],
      [
        "▁gas",
        -9.772253372727064
      ],
      [
        "▁offerte",
        -9.772539574861565
      ],
      [
        "▁Via",
        -9.772684182775105
      ],
      [
        "ente",
        -9.772975514512568
      ],
      [
        "▁sinistra",
        -9.773075631394466
      ],
      [
        "▁Te",
        -9.773215636892878
      ],
      [
        "▁verranno",
        -9.773342276067135
      ],
      [
        "▁app",
        -9.774315580948107
      ],
      [
        "▁compagnia",
        -9.774737458774787
      ],
      [
        "▁normativa",
        -9.77502263728055
      ],
      [
        "▁dispositivi",
        -9.775648388293115
      ],
      [
        "▁fattori",
        -9.77579749814097
      ],
      [
        "▁:)",
        -9.776012996952717
      ],
      [
        "▁lotta",
        -9.776650651123896
      ],
      [
        "st",
        -9.776817577021047
      ],
      [
        "to.",
        -9.776865967552993
      ],
      [
        "▁amico",
        -9.776873679841955
      ],
      [
        "▁ricevuto",
        -9.777206528145495
      ],
      [
        "▁internet",
        -9.777412704416122
      ],
      [
        "▁farsi",
        -9.777507112140544
      ],
      [
        "▁alcuna",
        -9.777996878345077
      ],
      [
        "▁quadro",
        -9.777997414810596
      ],
      [
        "▁serata",
        -9.778206053814449
      ],
      [
        "▁civile",
        -9.778798247478177
      ],
      [
        "▁bocca",
        -9.77899657459368
      ],
      [
        "▁riduzione",
        -9.779586056513725
      ],
      [
        "▁dà",
        -9.779697131655539
      ],
      [
        "▁UN",
        -9.779891271233392
      ],
      [
        "▁infine",
        -9.780210611352214
      ],
      [
        "▁previsti",
        -9.780330526813927
      ],
      [
        "ta'",
        -9.780539194763586
      ],
      [
        "▁inizio",
        -9.780694272906445
      ],
      [
        "▁verità",
        -9.780969291912623
      ],
      [
        "▁Va",
        -9.781504636777708
      ],
      [
        "▁evento",
        -9.78173727309554
      ],
      [
        "he",
        -9.782158965475123
      ],
      [
        "▁lontano",
        -9.783467636915114
      ],
      [
        "▁3.",
        -9.783670923516588
      ],
      [
        "▁giocare",
        -9.783844258359618
      ],
      [
        "▁specifiche",
        -9.784248810129675
      ],
      [
        "▁Uno",
        -9.786003572112527
      ],
      [
        "▁Natale",
        -9.786315614184314
      ],
      [
        "Ciò",
        -9.787176067545513
      ],
      [
        "ani",
        -9.78718130452524
      ],
      [
        "▁volontà",
        -9.788182964334494
      ],
      [
        "tico",
        -9.788762199078256
      ],
      [
        "▁utilizzati",
        -9.789322561939706
      ],
      [
        "▁chiede",
        -9.79015381281847
      ],
      [
        "▁relativa",
        -9.790194205288287
      ],
      [
        "▁necessari",
        -9.790435271355983
      ],
      [
        "▁mal",
        -9.791339640896734
      ],
      [
        "▁disponibilità",
        -9.791749928632544
      ],
      [
        "ì",
        -9.792351266102315
      ],
      [
        "▁personaggi",
        -9.792482793014305
      ],
      [
        "▁Tu",
        -9.793141049403594
      ],
      [
        "▁attesa",
        -9.79367262279773
      ],
      [
        "▁malattie",
        -9.793717008120396
      ],
      [
        "▁noto",
        -9.795459262261321
      ],
      [
        "▁linee",
        -9.795896744542857
      ],
      [
        "▁Legge",
        -9.796411845960769
      ],
      [
        "▁Napoli",
        -9.796676571239221
      ],
      [
        "▁fede",
        -9.797039850370242
      ],
      [
        "ti.",
        -9.79740007143437
      ],
      [
        "▁neanche",
        -9.797959370523856
      ],
      [
        "▁lasciato",
        -9.799118254549434
      ],
      [
        "▁concetto",
        -9.79929342397294
      ],
      [
        "▁regione",
        -9.799822377545004
      ],
      [
        "▁_",
        -9.801099385437364
      ],
      [
        "▁popolo",
        -9.80200534414655
      ],
      [
        "▁scelte",
        -9.802474570135416
      ],
      [
        "▁Forse",
        -9.802824569654899
      ],
      [
        "▁analisi",
        -9.80296789906993
      ],
      [
        "▁furono",
        -9.803023850683065
      ],
      [
        "▁Me",
        -9.803304915594499
      ],
      [
        ".com",
        -9.803509833637415
      ],
      [
        "▁bellezza",
        -9.803557836922202
      ],
      [
        "▁regolamento",
        -9.804327023326259
      ],
      [
        "▁partito",
        -9.806347117700101
      ],
      [
        "▁relazioni",
        -9.806481245394773
      ],
      [
        "▁Era",
        -9.807476017079798
      ],
      [
        "▁racconta",
        -9.807722326560647
      ],
      [
        "▁Casa",
        -9.808714641458856
      ],
      [
        "▁creato",
        -9.809959395564238
      ],
      [
        "▁continuare",
        -9.810706279599405
      ],
      [
        "▁là",
        -9.81081244215807
      ],
      [
        "▁funziona",
        -9.811211347767657
      ],
      [
        "▁discussione",
        -9.813739270792723
      ],
      [
        "ssero",
        -9.813773793098562
      ],
      [
        "▁pronto",
        -9.81548150797194
      ],
      [
        "▁stiamo",
        -9.81554824065331
      ],
      [
        "▁fortuna",
        -9.81613030335668
      ],
      [
        "▁azienda",
        -9.816188621488916
      ],
      [
        "▁politico",
        -9.816951125129899
      ],
      [
        "▁2007",
        -9.81716633365447
      ],
      [
        "po",
        -9.817282755492236
      ],
      [
        "▁́",
        -9.817784887059343
      ],
      [
        "▁chiama",
        -9.818535649468949
      ],
      [
        "▁guardare",
        -9.819070800549202
      ],
      [
        "▁vita,",
        -9.819749734929704
      ],
      [
        "▁impegno",
        -9.820179018376358
      ],
      [
        "▁commenti",
        -9.820408343502706
      ],
      [
        "▁imparare",
        -9.820505018572128
      ],
      [
        "▁creazione",
        -9.820536726666726
      ],
      [
        "▁presentato",
        -9.822997324147138
      ],
      [
        "tiva",
        -9.823403466894874
      ],
      [
        "▁H",
        -9.823648589842728
      ],
      [
        "su",
        -9.823703349464411
      ],
      [
        "▁perso",
        -9.824578964770136
      ],
      [
        "anno",
        -9.824812513052686
      ],
      [
        "▁terreno",
        -9.824980276697033
      ],
      [
        "▁tecnologie",
        -9.825249599949384
      ],
      [
        "▁cane",
        -9.825606228831361
      ],
      [
        "▁permesso",
        -9.82705166673848
      ],
      [
        "ed",
        -9.82725752674741
      ],
      [
        "▁assistenza",
        -9.82739049909354
      ],
      [
        "▁indicato",
        -9.827579086584034
      ],
      [
        "▁partner",
        -9.828397574921716
      ],
      [
        "▁fonti",
        -9.828453512398923
      ],
      [
        "▁venire",
        -9.829480637632983
      ],
      [
        "▁regola",
        -9.829992577394757
      ],
      [
        "▁qualunque",
        -9.83003994375586
      ],
      [
        "▁naturali",
        -9.830307720184326
      ],
      [
        "▁cena",
        -9.83054053793457
      ],
      [
        "▁Del",
        -9.830567232113834
      ],
      [
        "▁occupa",
        -9.830627340841914
      ],
      [
        "▁limite",
        -9.830919013737969
      ],
      [
        "▁costruire",
        -9.832029931391528
      ],
      [
        "▁sangue",
        -9.833264101255763
      ],
      [
        "▁pressione",
        -9.833341066289012
      ],
      [
        "▁guarda",
        -9.833453531404704
      ],
      [
        "▁utilizzo",
        -9.833579043869179
      ],
      [
        "▁provato",
        -9.833710286077288
      ],
      [
        "▁partenza",
        -9.834013529968733
      ],
      [
        "▁significato",
        -9.834216187790272
      ],
      [
        "▁verificare",
        -9.834912476104957
      ],
      [
        "▁malattia",
        -9.835452224813375
      ],
      [
        "▁ognuno",
        -9.835810854571182
      ],
      [
        "▁segue",
        -9.837086357618569
      ],
      [
        "ando",
        -9.838188206307969
      ],
      [
        "▁segno",
        -9.838826190719779
      ],
      [
        "▁inferiore",
        -9.839123410901315
      ],
      [
        "▁spirito",
        -9.839124143120793
      ],
      [
        "▁destra",
        -9.840986599306868
      ],
      [
        "▁intende",
        -9.841322248614302
      ],
      [
        "▁immediatamente",
        -9.84175083917053
      ],
      [
        "»,",
        -9.841773009969888
      ],
      [
        "▁centri",
        -9.842045289415179
      ],
      [
        "▁cielo",
        -9.843421866795545
      ],
      [
        "▁requisiti",
        -9.843722216423984
      ],
      [
        "▁ultimo",
        -9.844832833780293
      ],
      [
        "▁superficie",
        -9.84638245148852
      ],
      [
        "▁nomi",
        -9.846892250155216
      ],
      [
        "▁manifestazione",
        -9.84764306755432
      ],
      [
        "nta",
        -9.849221803710154
      ],
      [
        "▁patrimonio",
        -9.850227999077694
      ],
      [
        "▁*",
        -9.850752009066598
      ],
      [
        "▁ricorda",
        -9.85079996826289
      ],
      [
        "te.",
        -9.851048440746581
      ],
      [
        "▁europea",
        -9.851131713951554
      ],
      [
        "▁dolce",
        -9.851535023518831
      ],
      [
        "▁manutenzione",
        -9.851662966397601
      ],
      [
        "▁accedere",
        -9.85221830387772
      ],
      [
        "▁inter",
        -9.85243420721828
      ],
      [
        "ry",
        -9.853283993455697
      ],
      [
        "▁mondo,",
        -9.853384065964889
      ],
      [
        "▁amore",
        -9.854359347465063
      ],
      [
        "▁interno",
        -9.855408737115235
      ],
      [
        "osa",
        -9.855854862272842
      ],
      [
        "▁mail",
        -9.856235979741957
      ],
      [
        "▁promozione",
        -9.857600469358925
      ],
      [
        "▁spiaggia",
        -9.857829770855107
      ],
      [
        "▁formato",
        -9.858781451816604
      ],
      [
        "ng",
        -9.858933743430878
      ],
      [
        "▁200",
        -9.8591286392603
      ],
      [
        "▁aiuto",
        -9.860256400236263
      ],
      [
        "▁gusto",
        -9.861029804132716
      ],
      [
        "▁email",
        -9.86157610360025
      ],
      [
        "▁dovrebbero",
        -9.861705551399803
      ],
      [
        "▁perfetta",
        -9.862311660226721
      ],
      [
        "▁(a",
        -9.862635151848622
      ],
      [
        "▁indirizzo",
        -9.86362872745325
      ],
      [
        "▁storie",
        -9.863971878555107
      ],
      [
        "▁pace",
        -9.864243379030201
      ],
      [
        "mila",
        -9.865287917223437
      ],
      [
        "▁vostre",
        -9.866041887470702
      ],
      [
        "▁of",
        -9.866959307333211
      ],
      [
        "▁numeri",
        -9.867125396765227
      ],
      [
        "▁venne",
        -9.869256874166169
      ],
      [
        "▁LE",
        -9.869812318697546
      ],
      [
        "▁contiene",
        -9.872019888094325
      ],
      [
        "▁Na",
        -9.872318929661905
      ],
      [
        "▁nell’ambito",
        -9.872717788017024
      ],
      [
        "▁obiettivo",
        -9.872949371824655
      ],
      [
        "00",
        -9.87360105868629
      ],
      [
        "▁ospiti",
        -9.874036479228423
      ],
      [
        "▁pa",
        -9.8744256987491
      ],
      [
        "▁visitare",
        -9.874565930349233
      ],
      [
        "▁Noi",
        -9.874825864131655
      ],
      [
        "▁2000",
        -9.875811276001004
      ],
      [
        "▁gravi",
        -9.877059822636205
      ],
      [
        "▁previste",
        -9.877167012427957
      ],
      [
        "▁modulo",
        -9.878065626473862
      ],
      [
        "▁massa",
        -9.878082624125392
      ],
      [
        "▁#",
        -9.878317170426431
      ],
      [
        "▁II",
        -9.878779068223661
      ],
      [
        "▁tenuto",
        -9.87883978976599
      ],
      [
        "▁relativo",
        -9.87889187897779
      ],
      [
        "▁discorso",
        -9.878899955232388
      ],
      [
        "▁enti",
        -9.878996488072328
      ],
      [
        "▁fiori",
        -9.879714796584622
      ],
      [
        "▁piu'",
        -9.880033743281787
      ],
      [
        "▁polizia",
        -9.880649440936374
      ],
      [
        "▁costante",
        -9.880769321514922
      ],
      [
        "▁piatti",
        -9.881524977815566
      ],
      [
        "▁modifica",
        -9.882168407438673
      ],
      [
        "▁prevenzione",
        -9.882350522480971
      ],
      [
        "▁rifiuti",
        -9.882350640536693
      ],
      [
        "▁benessere",
        -9.882542411093926
      ],
      [
        "▁cambiamento",
        -9.882598189742481
      ],
      [
        "▁aperta",
        -9.882804085895367
      ],
      [
        "▁venerdì",
        -9.88315467173536
      ],
      [
        "%",
        -9.883532878107026
      ],
      [
        "▁carica",
        -9.885475436103931
      ],
      [
        "°",
        -9.885921565977096
      ],
      [
        "▁Ta",
        -9.88687083139282
      ],
      [
        "▁applicazione",
        -9.886925956685706
      ],
      [
        "▁mondiale",
        -9.886949517184906
      ],
      [
        "tri",
        -9.887583794627904
      ],
      [
        "▁criteri",
        -9.88801527743016
      ],
      [
        "▁grave",
        -9.888417992715176
      ],
      [
        "▁+",
        -9.888423005202021
      ],
      [
        "▁Governo",
        -9.888467048949654
      ],
      [
        "▁piani",
        -9.888683187159831
      ],
      [
        "▁x",
        -9.888806510611165
      ],
      [
        "▁farmaci",
        -9.889880480111657
      ],
      [
        "▁ragioni",
        -9.890336714724192
      ],
      [
        "▁temi",
        -9.890761504203738
      ],
      [
        "▁sarebbero",
        -9.890783715902545
      ],
      [
        "▁negozi",
        -9.891365935155648
      ],
      [
        "cal",
        -9.891548270023202
      ],
      [
        "▁sai",
        -9.89158996717601
      ],
      [
        "▁scrive",
        -9.892726579121494
      ],
      [
        "que",
        -9.893817397865437
      ],
      [
        "▁domani",
        -9.893970867566772
      ],
      [
        "avrei",
        -9.894569689816263
      ],
      [
        "▁consumo",
        -9.895202209322257
      ],
      [
        "▁sentenza",
        -9.895507461745524
      ],
      [
        "cco",
        -9.896148197524559
      ],
      [
        "▁fenomeno",
        -9.896306255600734
      ],
      [
        "▁secolo",
        -9.897064090916187
      ],
      [
        "▁considerato",
        -9.897781822342187
      ],
      [
        "▁vecchio",
        -9.89781283654513
      ],
      [
        "▁diversa",
        -9.898021181032544
      ],
      [
        "▁miliardi",
        -9.898079314774073
      ],
      [
        "▁“La",
        -9.89862514802531
      ],
      [
        "▁dipendenti",
        -9.898738121944833
      ],
      [
        "▁partecipanti",
        -9.898768442917694
      ],
      [
        "▁lavoro.",
        -9.89936874249103
      ],
      [
        "za",
        -9.899638302658403
      ],
      [
        "▁dovranno",
        -9.8998346528667
      ],
      [
        "▁attualmente",
        -9.899835119478965
      ],
      [
        "▁cani",
        -9.900189245996597
      ],
      [
        "ul",
        -9.902160241665186
      ],
      [
        "▁certa",
        -9.90331292647329
      ],
      [
        "):",
        -9.903661667958275
      ],
      [
        "▁Sa",
        -9.904123677516576
      ],
      [
        "▁efficace",
        -9.904339205813356
      ],
      [
        "▁seguente",
        -9.904863995536342
      ],
      [
        "▁vogliamo",
        -9.904934917430655
      ],
      [
        "▁Leggi",
        -9.905121820786025
      ],
      [
        "▁benefici",
        -9.905234437362354
      ],
      [
        "▁calcio",
        -9.905601536091783
      ],
      [
        "▁prevista",
        -9.90603445619633
      ],
      [
        "▁nero",
        -9.906161542961883
      ],
      [
        "sp",
        -9.906476621875447
      ],
      [
        "▁specifica",
        -9.90708826469338
      ],
      [
        "ke",
        -9.907863140849756
      ],
      [
        "▁ciclo",
        -9.908202878182934
      ],
      [
        "▁aumento",
        -9.90955584585926
      ],
      [
        "▁finalità",
        -9.909656559946953
      ],
      [
        "▁presa",
        -9.910470904213062
      ],
      [
        "10",
        -9.91069210652351
      ],
      [
        "W",
        -9.910692713852807
      ],
      [
        "▁informazione",
        -9.91073566344151
      ],
      [
        "▁utilizzando",
        -9.91082068408665
      ],
      [
        "▁parlato",
        -9.911379646614499
      ],
      [
        "▁necessaria",
        -9.9118268300593
      ],
      [
        "j",
        -9.913741859223975
      ],
      [
        "▁origine",
        -9.91573297658109
      ],
      [
        "▁dell’art.",
        -9.915824259783697
      ],
      [
        "▁caldo",
        -9.916309664476003
      ],
      [
        "▁Paesi",
        -9.917646112249155
      ],
      [
        "▁tempo.",
        -9.918147442254032
      ],
      [
        "▁piante",
        -9.918497224808434
      ],
      [
        "▁sento",
        -9.919212833354173
      ],
      [
        "▁notizie",
        -9.920319223959307
      ],
      [
        "▁Sul",
        -9.92104751929886
      ],
      [
        "▁avendo",
        -9.921163390326694
      ],
      [
        "▁fisico",
        -9.921221304615365
      ],
      [
        "▁maggioranza",
        -9.921288882310261
      ],
      [
        "▁pane",
        -9.92248209372582
      ],
      [
        "▁parere",
        -9.923087696761396
      ],
      [
        "▁comportamento",
        -9.923208790510635
      ],
      [
        "ssimi",
        -9.923773432604957
      ],
      [
        "▁prossima",
        -9.924097269357503
      ],
      [
        "▁Italia,",
        -9.92455851668403
      ],
      [
        "▁unica",
        -9.925074609303085
      ],
      [
        "▁casa,",
        -9.925265043591562
      ],
      [
        "▁associazioni",
        -9.925363556396498
      ],
      [
        "▁sguardo",
        -9.925720380655612
      ],
      [
        "▁Hai",
        -9.92634239618745
      ],
      [
        "▁testi",
        -9.927015462566695
      ],
      [
        "▁cambio",
        -9.928130458071958
      ],
      [
        "▁inserire",
        -9.928225967181204
      ],
      [
        "▁volo",
        -9.928493079033661
      ],
      [
        "▁commerciali",
        -9.928621785320377
      ],
      [
        "▁porte",
        -9.92874785290375
      ],
      [
        "▁nato",
        -9.930090771060865
      ],
      [
        "▁commercio",
        -9.930207354714977
      ],
      [
        "▁Paolo",
        -9.930385435956996
      ],
      [
        "▁precedenti",
        -9.931134631945444
      ],
      [
        "▁singolo",
        -9.931164663131014
      ],
      [
        "no.",
        -9.931796509799547
      ],
      [
        "▁esistono",
        -9.932072224478013
      ],
      [
        "▁riuscire",
        -9.932314509331706
      ],
      [
        "▁portata",
        -9.932335512575875
      ],
      [
        "▁potenza",
        -9.93285175307189
      ],
      [
        "TI",
        -9.933345427654583
      ],
      [
        "▁certi",
        -9.934444799766283
      ],
      [
        "▁DELLA",
        -9.934882660460566
      ],
      [
        "▁sufficiente",
        -9.935522040954663
      ],
      [
        "▁risolvere",
        -9.935639187214308
      ],
      [
        "▁fondamentali",
        -9.935772608014402
      ],
      [
        "nzi",
        -9.935863815274434
      ],
      [
        "▁funzionamento",
        -9.936904482379159
      ],
      [
        "▁perfettamente",
        -9.937032976487881
      ],
      [
        "▁vigore",
        -9.938471592648963
      ],
      [
        "▁abbiano",
        -9.939179763365047
      ],
      [
        "▁felice",
        -9.939324818173064
      ],
      [
        "▁garanzia",
        -9.939382659269729
      ],
      [
        "▁speranza",
        -9.939413691715849
      ],
      [
        "▁presentare",
        -9.939599321744764
      ],
      [
        "▁tecnici",
        -9.940632729166698
      ],
      [
        "▁condividere",
        -9.94150843197805
      ],
      [
        "fo",
        -9.942062170755278
      ],
      [
        "▁definizione",
        -9.943056340849317
      ],
      [
        "▁2005",
        -9.943101198438661
      ],
      [
        "▁torna",
        -9.943907135015266
      ],
      [
        "▁spero",
        -9.944732995558464
      ],
      [
        "▁sostenere",
        -9.945339070217404
      ],
      [
        "▁reso",
        -9.945822529129448
      ],
      [
        "ser",
        -9.94585502155686
      ],
      [
        "ho",
        -9.945902076252935
      ],
      [
        "▁risposte",
        -9.945916832794254
      ],
      [
        "▁indicazioni",
        -9.94599732042062
      ],
      [
        "▁lavora",
        -9.946151973289277
      ],
      [
        "ggia",
        -9.946330587939116
      ],
      [
        "▁CHE",
        -9.946442607918012
      ],
      [
        "▁pubblicazione",
        -9.94657552755332
      ],
      [
        "▁nascita",
        -9.946674710386164
      ],
      [
        "▁riconoscimento",
        -9.946766541122098
      ],
      [
        "▁bene,",
        -9.946838813873043
      ],
      [
        "der",
        -9.947026973583561
      ],
      [
        "▁normale",
        -9.948189346285266
      ],
      [
        "▁arrivato",
        -9.948286798660387
      ],
      [
        "▁sud",
        -9.948419190868025
      ],
      [
        "▁chiesa",
        -9.948567045101697
      ],
      [
        "▁capace",
        -9.948607219636404
      ],
      [
        "▁privati",
        -9.94878870014924
      ],
      [
        "ad",
        -9.948892629258973
      ],
      [
        "▁Nei",
        -9.948963148623267
      ],
      [
        "▁dura",
        -9.949059188219909
      ],
      [
        "▁corretta",
        -9.950082871854718
      ],
      [
        "▁Camera",
        -9.950171756236408
      ],
      [
        "▁regime",
        -9.950472405417013
      ],
      [
        "▁inglese",
        -9.950524768266156
      ],
      [
        "▁volume",
        -9.951437791329573
      ],
      [
        "▁sogno",
        -9.95168828731342
      ],
      [
        "nce",
        -9.952075418839154
      ],
      [
        "▁umano",
        -9.952396516865651
      ],
      [
        "▁fondi",
        -9.952810551040793
      ],
      [
        "▁protagonista",
        -9.9529879228471
      ],
      [
        "ger",
        -9.953636481784415
      ],
      [
        "▁valutare",
        -9.954153139769353
      ],
      [
        "▁avviene",
        -9.954165370901098
      ],
      [
        "▁cambia",
        -9.956002788099216
      ],
      [
        "▁Corso",
        -9.956224756694917
      ],
      [
        "▁frutta",
        -9.956505335330759
      ],
      [
        "▁W",
        -9.956970044081967
      ],
      [
        "col",
        -9.957350913734448
      ],
      [
        "tt",
        -9.957370878623118
      ],
      [
        "▁procedure",
        -9.957891987423277
      ],
      [
        "▁Pre",
        -9.958615154747381
      ],
      [
        "▁necessarie",
        -9.958737408869819
      ],
      [
        "▁stress",
        -9.959824399440464
      ],
      [
        "nda",
        -9.960608925716762
      ],
      [
        "▁recupero",
        -9.960725499384283
      ],
      [
        "▁and",
        -9.961398143242171
      ],
      [
        "▁forti",
        -9.961734978143213
      ],
      [
        "▁Santa",
        -9.96205659452566
      ],
      [
        "▁Giovanni",
        -9.962231788222145
      ],
      [
        "▁coppia",
        -9.962576741583788
      ],
      [
        "▁comunale",
        -9.962982551064027
      ],
      [
        "▁computer",
        -9.963946064171456
      ],
      [
        "▁terza",
        -9.964463421472644
      ],
      [
        "mmo",
        -9.965343602828582
      ],
      [
        "▁all",
        -9.965472821546136
      ],
      [
        "▁digitale",
        -9.965747342592593
      ],
      [
        "▁campi",
        -9.96713738519302
      ],
      [
        "▁ristorante",
        -9.967278101948187
      ],
      [
        "▁comprende",
        -9.96738318394153
      ],
      [
        "▁pomeriggio",
        -9.968278707254452
      ],
      [
        "▁parco",
        -9.968489691055957
      ],
      [
        "▁fossero",
        -9.968525026910964
      ],
      [
        "▁ultime",
        -9.969167344722896
      ],
      [
        "▁dispositivo",
        -9.969167843741978
      ],
      [
        "▁vento",
        -9.969646410702241
      ],
      [
        "etto",
        -9.969806460959427
      ],
      [
        "▁marketing",
        -9.96983988137538
      ],
      [
        "zzi",
        -9.970073701809635
      ],
      [
        "▁un’altra",
        -9.97016686588621
      ],
      [
        "▁stai",
        -9.970709929590377
      ],
      [
        "▁comprendere",
        -9.970816009011642
      ],
      [
        "▁competenza",
        -9.97106433865138
      ],
      [
        "▁latte",
        -9.97178936624811
      ],
      [
        "▁esattamente",
        -9.972052995861397
      ],
      [
        "▁consenso",
        -9.972083198595667
      ],
      [
        "▁(non",
        -9.972201482111164
      ],
      [
        "▁trovo",
        -9.97298611120973
      ],
      [
        "▁traffico",
        -9.973081111620536
      ],
      [
        "▁facciamo",
        -9.973386839660398
      ],
      [
        "▁provenient",
        -9.974227285477452
      ],
      [
        "▁originale",
        -9.97446544098899
      ],
      [
        "▁sentito",
        -9.97474940179941
      ],
      [
        "▁selezione",
        -9.974887481440177
      ],
      [
        "▁denaro",
        -9.97488906082158
      ],
      [
        "▁X",
        -9.976017687641018
      ],
      [
        "▁ingredienti",
        -9.976751572420316
      ],
      [
        "▁lato",
        -9.977481598730453
      ],
      [
        "▁&",
        -9.977836074821903
      ],
      [
        "▁p.",
        -9.978144878383278
      ],
      [
        "▁settori",
        -9.97855324505642
      ],
      [
        "▁simili",
        -9.97957200835927
      ],
      [
        "▁militari",
        -9.980388985092935
      ],
      [
        "▁ambito",
        -9.981735533171754
      ],
      [
        "▁cento",
        -9.981962837859584
      ],
      [
        "▁possesso",
        -9.982096732242816
      ],
      [
        "▁ricordare",
        -9.982971338184283
      ],
      [
        "@",
        -9.984351643930445
      ],
      [
        "▁soci",
        -9.984661912295795
      ],
      [
        "▁Fi",
        -9.984844449613508
      ],
      [
        "▁qua",
        -9.985084954336886
      ],
      [
        "nde",
        -9.985134377468482
      ],
      [
        "pp",
        -9.985358474211834
      ],
      [
        "▁venga",
        -9.986355614693952
      ],
      [
        "▁casa.",
        -9.98834844369283
      ],
      [
        "▁carne",
        -9.988799145808269
      ],
      [
        "▁ricorso",
        -9.989259470047461
      ],
      [
        "gen",
        -9.989582252271685
      ],
      [
        "ico",
        -9.989743377700126
      ],
      [
        "Queste",
        -9.990158314212621
      ],
      [
        "▁sintomi",
        -9.991135586181267
      ],
      [
        "▁vuol",
        -9.991943433392372
      ],
      [
        "▁sostanze",
        -9.992137730585231
      ],
      [
        "cci",
        -9.993143125408405
      ],
      [
        "▁voto",
        -9.993510012981666
      ],
      [
        "▁pubbliche",
        -9.993619662320562
      ],
      [
        "ccia",
        -9.993855631375748
      ],
      [
        "▁team",
        -9.99406819657038
      ],
      [
        "▁investimenti",
        -9.994674672468381
      ],
      [
        "▁desiderio",
        -9.996306838398844
      ],
      [
        "▁conosce",
        -9.996710315506704
      ],
      [
        "▁migliaia",
        -9.997944255797872
      ],
      [
        "▁l’anno",
        -9.998976364572256
      ],
      [
        "▁matrimonio",
        -9.999055649908914
      ],
      [
        "20",
        -10.000502655839492
      ],
      [
        "▁moglie",
        -10.001623613527265
      ],
      [
        "▁lunedì",
        -10.001813146975248
      ],
      [
        "▁(come",
        -10.002021771960086
      ],
      [
        "ze",
        -10.002142986836136
      ],
      [
        "▁compito",
        -10.002820717663143
      ],
      [
        "gio",
        -10.003439442843959
      ],
      [
        "▁Terra",
        -10.003446617723805
      ],
      [
        "▁500",
        -10.003496594741478
      ],
      [
        "▁tradizionale",
        -10.003767477055105
      ],
      [
        "▁pò",
        -10.00488070537577
      ],
      [
        "▁dico",
        -10.00498083990851
      ],
      [
        "▁potrete",
        -10.005736608420559
      ],
      [
        "▁unità",
        -10.005838475498383
      ],
      [
        "▁anzi",
        -10.006207835087645
      ],
      [
        "▁portano",
        -10.006336373721847
      ],
      [
        "▁trovi",
        -10.00660445458672
      ],
      [
        "▁edifici",
        -10.007154586975808
      ],
      [
        "▁pezzi",
        -10.00773064342597
      ],
      [
        "▁l’altro",
        -10.007992209174262
      ],
      [
        "▁terapia",
        -10.00864905821279
      ],
      [
        "▁appuntamento",
        -10.008669480209823
      ],
      [
        "▁corrente",
        -10.008912429975524
      ],
      [
        "▁dover",
        -10.009265612936973
      ],
      [
        "▁numerose",
        -10.009453431375446
      ],
      [
        "▁colazione",
        -10.009612761127375
      ],
      [
        "▁scoperto",
        -10.009652500911033
      ],
      [
        "▁istituzioni",
        -10.009713369848823
      ],
      [
        "▁ricco",
        -10.01094950699004
      ],
      [
        "▁stava",
        -10.011063814396884
      ],
      [
        "▁corsa",
        -10.011308044100655
      ],
      [
        "▁Pi",
        -10.011463869463777
      ],
      [
        "TA",
        -10.011537096015838
      ],
      [
        "▁aggiunto",
        -10.01162194202808
      ],
      [
        "▁fiscale",
        -10.011622447697025
      ],
      [
        "op",
        -10.011764535999447
      ],
      [
        "▁The",
        -10.012326857641515
      ],
      [
        "▁2004",
        -10.012344879508493
      ],
      [
        "▁rosso",
        -10.012390545721361
      ],
      [
        "▁privato",
        -10.013197470745776
      ],
      [
        "▁utilizza",
        -10.013425820075621
      ],
      [
        "cro",
        -10.013706852597466
      ],
      [
        "▁riforma",
        -10.013732774460918
      ],
      [
        "stro",
        -10.01449517505431
      ],
      [
        "▁fatica",
        -10.014501097872833
      ],
      [
        "▁Euro",
        -10.015540779176558
      ],
      [
        "▁estremamente",
        -10.016762551470705
      ],
      [
        "▁conosciuto",
        -10.01756664238939
      ],
      [
        "▁stanza",
        -10.01776300662203
      ],
      [
        "na,",
        -10.017824545005114
      ],
      [
        "▁1°",
        -10.017918402244675
      ],
      [
        "▁tratti",
        -10.018554118035837
      ],
      [
        "▁capi",
        -10.018924317036976
      ],
      [
        "▁leader",
        -10.021770562675604
      ],
      [
        "▁sette",
        -10.022308708557357
      ],
      [
        "▁S.",
        -10.023168587935892
      ],
      [
        "▁scoperta",
        -10.023520972365752
      ],
      [
        "min",
        -10.024137478957735
      ],
      [
        "▁speciali",
        -10.024236338187155
      ],
      [
        "▁aprire",
        -10.024719277032151
      ],
      [
        "ber",
        -10.025441399511461
      ],
      [
        "pro",
        -10.025641802391174
      ],
      [
        "▁veloce",
        -10.025663912410241
      ],
      [
        "tivi",
        -10.026074087489395
      ],
      [
        "▁sacco",
        -10.026949369470053
      ],
      [
        "▁accordo",
        -10.027222969308452
      ],
      [
        "▁vivo",
        -10.027340872952562
      ],
      [
        "endo",
        -10.027570437790274
      ],
      [
        "ner",
        -10.027642935936186
      ],
      [
        "▁stelle",
        -10.027845374174838
      ],
      [
        "eranno",
        -10.028477412912636
      ],
      [
        "▁documentazione",
        -10.028570385187372
      ],
      [
        "▁autorità",
        -10.02861319576109
      ],
      [
        "▁premio",
        -10.029697092385197
      ],
      [
        "▁fonte",
        -10.030380470945104
      ],
      [
        "▁2003",
        -10.030508754528764
      ],
      [
        "ka",
        -10.03115027559045
      ],
      [
        "▁piattaforma",
        -10.03153516453234
      ],
      [
        "▁Internet",
        -10.032019716114553
      ],
      [
        "▁sfida",
        -10.032495125618148
      ],
      [
        "▁Francesco",
        -10.032539031045314
      ],
      [
        "▁dipende",
        -10.033532967915649
      ],
      [
        "▁armi",
        -10.033774795371603
      ],
      [
        "▁“Il",
        -10.035380703747164
      ],
      [
        "▁Più",
        -10.035427797078189
      ],
      [
        "▁altrimenti",
        -10.03542995239109
      ],
      [
        "▁Servizio",
        -10.03642875950371
      ],
      [
        "▁quanti",
        -10.036497816679713
      ],
      [
        "▁sensazione",
        -10.036573515414613
      ],
      [
        "▁silenzio",
        -10.036825479608389
      ],
      [
        "▁forno",
        -10.036935568910259
      ],
      [
        "▁nazionali",
        -10.037020829367224
      ],
      [
        "▁gratuito",
        -10.03737229086811
      ],
      [
        "▁proposito",
        -10.0375707308806
      ],
      [
        "▁richiesto",
        -10.040623962328617
      ],
      [
        "▁Bo",
        -10.040723577064202
      ],
      [
        "▁procedere",
        -10.04131235349164
      ],
      [
        "▁Quello",
        -10.041660114209366
      ],
      [
        "ut",
        -10.042060247352609
      ],
      [
        "▁me,",
        -10.042495189912529
      ],
      [
        "▁pp.",
        -10.042677682832384
      ],
      [
        "9",
        -10.043627930042666
      ],
      [
        "▁vittime",
        -10.043673296427617
      ],
      [
        "▁tavolo",
        -10.043693682165523
      ],
      [
        "▁Europa",
        -10.043832481239132
      ],
      [
        "▁farà",
        -10.043993586836681
      ],
      [
        "▁singoli",
        -10.044693350593693
      ],
      [
        "▁alimenti",
        -10.044869192728116
      ],
      [
        "tive",
        -10.04642718881868
      ],
      [
        "▁contributi",
        -10.046638619198829
      ],
      [
        "▁interessati",
        -10.04737792766906
      ],
      [
        "▁Quali",
        -10.047505042365941
      ],
      [
        "▁Ra",
        -10.047700322128767
      ],
      [
        "▁progettazione",
        -10.048027547796018
      ],
      [
        "ris",
        -10.04860629607121
      ],
      [
        "▁successivo",
        -10.049494992876216
      ],
      [
        "▁controllare",
        -10.049820132311588
      ],
      [
        "▁comporta",
        -10.05065340936439
      ],
      [
        "▁TV",
        -10.050753652808577
      ],
      [
        "▁modifiche",
        -10.050823051234344
      ],
      [
        "▁scritta",
        -10.050823399069618
      ],
      [
        "▁errori",
        -10.051316036439971
      ],
      [
        "▁commerciale",
        -10.051974710847917
      ],
      [
        "▁(di",
        -10.052678336974864
      ],
      [
        "▁contratti",
        -10.052926060351588
      ],
      [
        "▁militare",
        -10.052944657683922
      ],
      [
        "▁rimanere",
        -10.053092342202508
      ],
      [
        "▁Due",
        -10.053332789783566
      ],
      [
        "▁promuovere",
        -10.053818690142188
      ],
      [
        "▁metodi",
        -10.054030905268725
      ],
      [
        "▁continuo",
        -10.054931819077579
      ],
      [
        "▁sorta",
        -10.055146790871145
      ],
      [
        "▁tratto",
        -10.05574148320297
      ],
      [
        "▁Val",
        -10.056316528568715
      ],
      [
        "▁radio",
        -10.056352754280894
      ],
      [
        "▁appare",
        -10.056465642059333
      ],
      [
        "▁chiamato",
        -10.056584236694748
      ],
      [
        "▁elettronica",
        -10.05682305837188
      ],
      [
        "▁decidere",
        -10.05725481642625
      ],
      [
        "▁alimentare",
        -10.057507414471033
      ],
      [
        "▁risponde",
        -10.058236256052385
      ],
      [
        "▁Roma,",
        -10.05891313701002
      ],
      [
        "▁riuscito",
        -10.059244801900793
      ],
      [
        "▁interessanti",
        -10.059823661666284
      ],
      [
        "▁(con",
        -10.059886128173428
      ],
      [
        "▁motore",
        -10.059972595859328
      ],
      [
        "▁bassa",
        -10.061174400238912
      ],
      [
        "▁Mar",
        -10.061884812492636
      ],
      [
        "▁dichiarato",
        -10.062235945073628
      ],
      [
        "▁2008",
        -10.06276283363135
      ],
      [
        "▁italiane",
        -10.062820349160152
      ],
      [
        "▁prese",
        -10.063060155126108
      ],
      [
        "▁vacanze",
        -10.063200748634806
      ],
      [
        "▁corretto",
        -10.063286664034216
      ],
      [
        "▁colpa",
        -10.063329682803156
      ],
      [
        "zo",
        -10.063462376846406
      ],
      [
        "▁legale",
        -10.06380687121321
      ],
      [
        "▁oggi,",
        -10.06389593918535
      ],
      [
        "▁sviluppare",
        -10.064314926806377
      ],
      [
        "▁crema",
        -10.064428582420872
      ],
      [
        "▁(il",
        -10.0658463136425
      ],
      [
        "▁avesse",
        -10.066025611219558
      ],
      [
        "▁nord",
        -10.066981237667234
      ],
      [
        "▁ama",
        -10.067097486983462
      ],
      [
        "▁strategia",
        -10.067368326514968
      ],
      [
        "▁filo",
        -10.067373941210125
      ],
      [
        "▁praticamente",
        -10.067399221481377
      ],
      [
        "▁ministro",
        -10.068425764344685
      ],
      [
        "▁dichiarazione",
        -10.068648222094383
      ],
      [
        "▁interna",
        -10.069051917805526
      ],
      [
        "▁pertanto",
        -10.069220579375413
      ],
      [
        "▁mobili",
        -10.069596752162155
      ],
      [
        "▁Ar",
        -10.069767246458834
      ],
      [
        "X",
        -10.069782128866272
      ],
      [
        "gia",
        -10.07001568255749
      ],
      [
        "▁evidente",
        -10.070210512540708
      ],
      [
        "▁copertura",
        -10.07049232538504
      ],
      [
        "▁lezioni",
        -10.07078870714374
      ],
      [
        "men",
        -10.071067710988832
      ],
      [
        "gni",
        -10.07132827538507
      ],
      [
        "▁hotel",
        -10.07158104751393
      ],
      [
        "▁richiedere",
        -10.071973026357982
      ],
      [
        "▁adatto",
        -10.072649376872963
      ],
      [
        "▁pranzo",
        -10.073096404555763
      ],
      [
        "▁Bar",
        -10.073126761101506
      ],
      [
        "▁sì",
        -10.073184311725827
      ],
      [
        "▁umana",
        -10.073516150411361
      ],
      [
        "ta’",
        -10.073524724213659
      ],
      [
        "▁chiunque",
        -10.073633744802297
      ],
      [
        "▁terzi",
        -10.074694431025563
      ],
      [
        "▁SI",
        -10.075261156459721
      ],
      [
        "nato",
        -10.076205044822927
      ],
      [
        "▁impossibile",
        -10.076644470007095
      ],
      [
        "▁elezioni",
        -10.076796070286795
      ],
      [
        "ghe",
        -10.077113895709699
      ],
      [
        "▁farina",
        -10.077730030748016
      ],
      [
        "enti",
        -10.078045887773824
      ],
      [
        "▁disse",
        -10.078337416553538
      ],
      [
        "io,",
        -10.078368526863914
      ],
      [
        "tici",
        -10.07857944974956
      ],
      [
        "▁negozio",
        -10.079420380466797
      ],
      [
        "▁pianta",
        -10.079652238737655
      ],
      [
        "▁prossimi",
        -10.079887219465508
      ],
      [
        "▁ricerche",
        -10.079946237738566
      ],
      [
        "▁carriera",
        -10.079961286876628
      ],
      [
        "▁volete",
        -10.080051133183385
      ],
      [
        "▁afferma",
        -10.080550335197294
      ],
      [
        "▁europeo",
        -10.08080002617848
      ],
      [
        "▁decisamente",
        -10.08212717053128
      ],
      [
        "▁funzionalità",
        -10.082213996593584
      ],
      [
        "▁ottenuto",
        -10.084177054993706
      ],
      [
        "▁pezzo",
        -10.084231086779287
      ],
      [
        "▁@",
        -10.084608355765216
      ],
      [
        "▁manca",
        -10.085123717523262
      ],
      [
        "▁molta",
        -10.085355205309938
      ],
      [
        "▁crea",
        -10.085571748376214
      ],
      [
        "▁politici",
        -10.085772294331175
      ],
      [
        "▁buoni",
        -10.085887536832098
      ],
      [
        "▁disco",
        -10.086671207774021
      ],
      [
        "pol",
        -10.086838643954621
      ],
      [
        "▁comincia",
        -10.087153495889122
      ],
      [
        "▁cottura",
        -10.087304787372247
      ],
      [
        "▁riesco",
        -10.087980870956605
      ],
      [
        "▁vantaggio",
        -10.088030788439113
      ],
      [
        "▁ambienti",
        -10.088044515228777
      ],
      [
        "▁organi",
        -10.088047768011823
      ],
      [
        "tre",
        -10.08835112005962
      ],
      [
        "▁differenti",
        -10.088445999290485
      ],
      [
        "▁gioia",
        -10.088522734875763
      ],
      [
        "▁(S",
        -10.089557211018853
      ],
      [
        "▁(19",
        -10.0900967848217
      ],
      [
        "▁dicono",
        -10.09015663213934
      ],
      [
        "▁aria",
        -10.0902567819488
      ],
      [
        "▁gradi",
        -10.090364349461774
      ],
      [
        "▁categorie",
        -10.090556325076427
      ],
      [
        "▁preparare",
        -10.090737681608871
      ],
      [
        "▁classifica",
        -10.091094567237757
      ],
      [
        "▁determinato",
        -10.09125372712555
      ],
      [
        "▁conseguenze",
        -10.091636273565602
      ],
      [
        "▁superare",
        -10.092884576893201
      ],
      [
        "com",
        -10.092969054681394
      ],
      [
        "▁zucchero",
        -10.093462521584277
      ],
      [
        "▁ragazze",
        -10.093764306643703
      ],
      [
        "▁critica",
        -10.094388505409722
      ],
      [
        "▁generali",
        -10.095086241349392
      ],
      [
        "▁sanno",
        -10.095153149710523
      ],
      [
        "amministrazione",
        -10.095627041561638
      ],
      [
        "ori",
        -10.096388156615138
      ],
      [
        "▁internazionali",
        -10.0964026151428
      ],
      [
        "▁effettuato",
        -10.096509401716474
      ],
      [
        "▁clima",
        -10.097488176468556
      ],
      [
        "▁attiva",
        -10.097491005008647
      ],
      [
        "▁crescere",
        -10.100672691735145
      ],
      [
        "etti",
        -10.100806274473676
      ],
      [
        "11",
        -10.101225606031122
      ],
      [
        "▁bene.",
        -10.101284602084824
      ],
      [
        "▁bellissimo",
        -10.101382325611041
      ],
      [
        "▁gamma",
        -10.102359395780441
      ],
      [
        "tevi",
        -10.103521120461439
      ],
      [
        "▁AL",
        -10.103850560459097
      ],
      [
        "▁artisti",
        -10.103895533291638
      ],
      [
        "▁dimensione",
        -10.104520892376218
      ],
      [
        "▁romanzo",
        -10.104538537929388
      ],
      [
        "▁art.",
        -10.106093982003376
      ],
      [
        "▁ingresso",
        -10.106122890034486
      ],
      [
        "▁Nord",
        -10.106191848479245
      ],
      [
        "▁York",
        -10.10638960032032
      ],
      [
        "▁Comuni",
        -10.107081918907692
      ],
      [
        "▁medio",
        -10.10812444140604
      ],
      [
        "▁racconto",
        -10.108856162135645
      ],
      [
        "▁ottima",
        -10.108957791426278
      ],
      [
        "▁autori",
        -10.109199755556439
      ],
      [
        "nni",
        -10.109366685784
      ],
      [
        "▁colpo",
        -10.109752875765828
      ],
      [
        "▁b)",
        -10.109838908529477
      ],
      [
        "▁(ma",
        -10.11006699977299
      ],
      [
        "▁organizzato",
        -10.110182924658162
      ],
      [
        "nt",
        -10.1103452274713
      ],
      [
        "▁punta",
        -10.110713234533172
      ],
      [
        "▁usa",
        -10.110829691361243
      ],
      [
        "▁svolta",
        -10.11111340379479
      ],
      [
        "▁g",
        -10.111597631831666
      ],
      [
        "▁Monte",
        -10.11317990080529
      ],
      [
        "▁abitanti",
        -10.113384147824302
      ],
      [
        "▁certamente",
        -10.113691259116301
      ],
      [
        "trici",
        -10.113780569557779
      ],
      [
        "▁accessori",
        -10.114121729406534
      ],
      [
        "▁MA",
        -10.114149419465477
      ],
      [
        "▁35",
        -10.114232380239283
      ],
      [
        "▁responsabili",
        -10.114469427241186
      ],
      [
        "▁Europea",
        -10.115043907592117
      ],
      [
        "ccio",
        -10.115521199616651
      ],
      [
        "▁adulti",
        -10.115603450269443
      ],
      [
        "▁particolare,",
        -10.115673883134875
      ],
      [
        "▁telefono",
        -10.115717532427201
      ],
      [
        "▁firma",
        -10.115869448269148
      ],
      [
        "zzare",
        -10.11674291136054
      ],
      [
        "▁andato",
        -10.117858355842106
      ],
      [
        "▁l'anno",
        -10.117944327611806
      ],
      [
        "▁Insomma",
        -10.118284542332507
      ],
      [
        ".”",
        -10.118394441964302
      ],
      [
        "▁buone",
        -10.119681965495799
      ],
      [
        "▁chiusura",
        -10.119842650018594
      ],
      [
        "▁Marco",
        -10.12050172298692
      ],
      [
        "▁e-mail",
        -10.120633902977056
      ],
      [
        "▁bellissima",
        -10.120957231085676
      ],
      [
        "▁tanta",
        -10.121190212525896
      ],
      [
        "▁diffusione",
        -10.122002833713408
      ],
      [
        "▁quest’anno",
        -10.123107629320742
      ],
      [
        "▁Ro",
        -10.123117794804365
      ],
      [
        "zzato",
        -10.123354153109652
      ],
      [
        "▁interessa",
        -10.123542154887168
      ],
      [
        "▁pericolo",
        -10.123547311849315
      ],
      [
        "▁cittadino",
        -10.124228756523877
      ],
      [
        "▁caccia",
        -10.124919930647234
      ],
      [
        "▁fasi",
        -10.125046631693587
      ],
      [
        "▁specifici",
        -10.125964791153674
      ],
      [
        "▁2006",
        -10.126042305476027
      ],
      [
        "▁4.",
        -10.126238072628144
      ],
      [
        "▁semi",
        -10.12653116359062
      ],
      [
        "▁Tutte",
        -10.126571364429967
      ],
      [
        "▁contrario",
        -10.126585830198596
      ],
      [
        "▁definire",
        -10.126649562668241
      ],
      [
        "▁DA",
        -10.127234998887069
      ],
      [
        "C’è",
        -10.127277714235657
      ],
      [
        "▁acque",
        -10.128289092327407
      ],
      [
        "▁cm",
        -10.128359565676888
      ],
      [
        "▁Milano,",
        -10.128446381848061
      ],
      [
        "▁marito",
        -10.128452081393423
      ],
      [
        "▁copia",
        -10.128550595793232
      ],
      [
        "▁giudice",
        -10.128613116011767
      ],
      [
        "▁regalo",
        -10.12861859839136
      ],
      [
        "▁conoscenze",
        -10.128690710207684
      ],
      [
        "▁parlando",
        -10.129069743872197
      ],
      [
        "▁entra",
        -10.129444244007548
      ],
      [
        "▁succede",
        -10.129976499223716
      ],
      [
        "▁svolgere",
        -10.130493587757755
      ],
      [
        "▁paziente",
        -10.130939619478788
      ],
      [
        "▁figlia",
        -10.131013147917553
      ],
      [
        "▁note",
        -10.131496138960905
      ],
      [
        "▁spalle",
        -10.133084517848705
      ],
      [
        "▁Però",
        -10.133132568342383
      ],
      [
        "▁regionali",
        -10.133858767993903
      ],
      [
        "▁dubbi",
        -10.133905824713583
      ],
      [
        "▁controlli",
        -10.134873472311025
      ],
      [
        "▁voler",
        -10.13503019415589
      ],
      [
        "▁cause",
        -10.135224050875834
      ],
      [
        "▁ricette",
        -10.135280821736089
      ],
      [
        "▁importanza",
        -10.13609613153442
      ],
      [
        "SI",
        -10.136231341130596
      ],
      [
        "▁dispone",
        -10.136414953177672
      ],
      [
        "▁Tuttavia,",
        -10.13671656108805
      ],
      [
        "▁viso",
        -10.136887342887093
      ],
      [
        "ino",
        -10.137427039212419
      ],
      [
        "gar",
        -10.137461129302189
      ],
      [
        "▁Molto",
        -10.137773777503917
      ],
      [
        "▁J",
        -10.137978639266937
      ],
      [
        "▁area",
        -10.138090140536786
      ],
      [
        "▁1)",
        -10.139054193748375
      ],
      [
        "▁frase",
        -10.139171185242066
      ],
      [
        "▁reali",
        -10.139192311505735
      ],
      [
        "▁Scuola",
        -10.139212737568222
      ],
      [
        "▁avrebbero",
        -10.139561523831286
      ],
      [
        "▁Po",
        -10.139761994894382
      ],
      [
        "▁bordo",
        -10.139834821266561
      ],
      [
        "...)",
        -10.14046895793762
      ],
      [
        "▁eseguire",
        -10.141394954019395
      ],
      [
        "▁emozioni",
        -10.141761157566577
      ],
      [
        "▁Ga",
        -10.14186897730518
      ],
      [
        "▁umani",
        -10.141905035371742
      ],
      [
        "▁un'altra",
        -10.142052978107644
      ],
      [
        "▁business",
        -10.142240831071518
      ],
      [
        "▁the",
        -10.142577816977958
      ],
      [
        "▁personaggio",
        -10.142588259668457
      ],
      [
        "▁inviare",
        -10.142813007135523
      ],
      [
        "▁pulizia",
        -10.143118310111706
      ],
      [
        "▁trovate",
        -10.143573638305934
      ],
      [
        "▁piacevole",
        -10.144339775370078
      ],
      [
        "▁Web",
        -10.144827573913641
      ],
      [
        "▁andata",
        -10.145334119684389
      ],
      [
        "▁consiste",
        -10.146005047157919
      ],
      [
        "▁vittoria",
        -10.146561638712459
      ],
      [
        "▁europei",
        -10.146698892069292
      ],
      [
        "▁Villa",
        -10.147529852638696
      ],
      [
        "▁accanto",
        -10.1475889756219
      ],
      [
        "▁raggiunto",
        -10.147620714768099
      ],
      [
        "▁resistenza",
        -10.147654024732917
      ],
      [
        "▁Fra",
        -10.148045120257983
      ],
      [
        "▁Bologna",
        -10.148099265599988
      ],
      [
        "▁acquisto",
        -10.149135165081507
      ],
      [
        "▁Lei",
        -10.149142304452587
      ],
      [
        "colo",
        -10.14920407028798
      ],
      [
        "▁Sud",
        -10.14978899189743
      ],
      [
        "▁calore",
        -10.1499699038377
      ],
      [
        "▁70",
        -10.150759888535337
      ],
      [
        "nti,",
        -10.151108159355699
      ],
      [
        "ssime",
        -10.15121830865182
      ],
      [
        "▁distribuzione",
        -10.151852631804676
      ],
      [
        "▁elemento",
        -10.152865536679549
      ],
      [
        "▁Mentre",
        -10.152990211592387
      ],
      [
        "acco",
        -10.15334595629869
      ],
      [
        "▁giocatori",
        -10.153695450912142
      ],
      [
        "▁a)",
        -10.154794795148868
      ],
      [
        "ità",
        -10.155963147006188
      ],
      [
        "▁stazione",
        -10.156112318817074
      ],
      [
        "▁dolci",
        -10.156808059032118
      ],
      [
        "▁sappiamo",
        -10.156823091444469
      ],
      [
        "▁tour",
        -10.15817324022086
      ],
      [
        "▁quindi,",
        -10.158174677712495
      ],
      [
        "40",
        -10.158211439400482
      ],
      [
        "mb",
        -10.158936342449838
      ],
      [
        "▁pratiche",
        -10.15907620812495
      ],
      [
        "▁l’uso",
        -10.159361204579671
      ],
      [
        "▁medici",
        -10.159383839290548
      ],
      [
        "!!!!",
        -10.15969474255401
      ],
      [
        "▁appunto",
        -10.161002014587414
      ],
      [
        "▁troviamo",
        -10.161535340867264
      ],
      [
        "▁decide",
        -10.161925239737819
      ],
      [
        "fica",
        -10.161997456002261
      ],
      [
        "▁nata",
        -10.162244640138983
      ],
      [
        "▁frutto",
        -10.162446828547274
      ],
      [
        "▁doveva",
        -10.163765392391241
      ],
      [
        "▁potrai",
        -10.164739834756094
      ],
      [
        "cce",
        -10.164808268832841
      ],
      [
        "▁Grande",
        -10.166834016715892
      ],
      [
        "▁Piazza",
        -10.166917403774619
      ],
      [
        "▁reddito",
        -10.16700599619439
      ],
      [
        "▁consapevolezza",
        -10.167108360623256
      ],
      [
        "▁organizzazione",
        -10.167271770363357
      ],
      [
        "▁Z",
        -10.167866376237296
      ],
      [
        "▁Venezia",
        -10.168158614852207
      ],
      [
        "▁legati",
        -10.168748033383658
      ],
      [
        "ps",
        -10.169012684389806
      ],
      [
        "▁esse",
        -10.169208041339534
      ],
      [
        "!)",
        -10.16945853263612
      ],
      [
        "▁vediamo",
        -10.169545500704618
      ],
      [
        "▁porto",
        -10.169800689733774
      ],
      [
        "▁sembrano",
        -10.170635835364077
      ],
      [
        "▁svolge",
        -10.171159481376673
      ],
      [
        "▁(anche",
        -10.171215020069521
      ],
      [
        "▁cinema",
        -10.171282813845785
      ],
      [
        "▁superiori",
        -10.171763794764358
      ],
      [
        "▁(P",
        -10.172569950838437
      ],
      [
        "nte,",
        -10.172744793447823
      ],
      [
        "▁percorsi",
        -10.172975915695009
      ],
      [
        "▁classico",
        -10.17307092456742
      ],
      [
        "cent",
        -10.17397196404446
      ],
      [
        "▁Regolamento",
        -10.174084011104757
      ],
      [
        "stri",
        -10.174505336132718
      ],
      [
        "TE",
        -10.174798283496457
      ],
      [
        "▁segreto",
        -10.176262238748413
      ],
      [
        "▁messaggi",
        -10.17765971918173
      ],
      [
        "▁privacy",
        -10.178446649007856
      ],
      [
        "▁indicati",
        -10.178572603226161
      ],
      [
        "▁compreso",
        -10.178588870263248
      ],
      [
        "▁miglioramento",
        -10.178753718583671
      ],
      [
        "▁rosa",
        -10.179963637473659
      ],
      [
        "▁scala",
        -10.18045372999446
      ],
      [
        "▁2)",
        -10.180977856748639
      ],
      [
        "▁esercizi",
        -10.181382376086647
      ],
      [
        "▁offerta",
        -10.1818531104995
      ],
      [
        "▁fate",
        -10.18205666530432
      ],
      [
        "▁considerare",
        -10.182211328296745
      ],
      [
        "lmente",
        -10.182581884580582
      ],
      [
        "▁l’Italia",
        -10.182679955140628
      ],
      [
        "▁uffici",
        -10.183573525970225
      ],
      [
        "▁orari",
        -10.184448129703146
      ],
      [
        "▁regioni",
        -10.184454673606536
      ],
      [
        "▁smartphone",
        -10.185604782776739
      ],
      [
        "▁Ministro",
        -10.18561396137189
      ],
      [
        "cri",
        -10.186153490834926
      ],
      [
        "▁chiuso",
        -10.18834766113438
      ],
      [
        "rico",
        -10.18881774567183
      ],
      [
        "▁applicazioni",
        -10.189318420435779
      ],
      [
        "▁piscina",
        -10.189654663076649
      ],
      [
        "▁network",
        -10.189654691978067
      ],
      [
        "▁doppio",
        -10.190569614375322
      ],
      [
        "▁Alcuni",
        -10.190578448044427
      ],
      [
        "▁Allora",
        -10.191413929031533
      ],
      [
        "ono",
        -10.19187678472017
      ],
      [
        "▁2002",
        -10.192488010167004
      ],
      [
        "ora",
        -10.193134996302703
      ],
      [
        "▁schermo",
        -10.193855372674903
      ],
      [
        "▁Museo",
        -10.193896684653438
      ],
      [
        "▁grassi",
        -10.193988839947675
      ],
      [
        "cer",
        -10.19476325631107
      ],
      [
        "▁Quanto",
        -10.19503719840278
      ],
      [
        "▁vantaggi",
        -10.195740162986809
      ],
      [
        "▁finito",
        -10.195854940099547
      ],
      [
        "▁Tre",
        -10.195897584938505
      ],
      [
        "▁alternativa",
        -10.196093663397189
      ],
      [
        "inter",
        -10.196293023114615
      ],
      [
        "▁diventato",
        -10.196762349459675
      ],
      [
        "▁sci",
        -10.197282740689474
      ],
      [
        "▁moto",
        -10.19756332832042
      ],
      [
        "spi",
        -10.197855001511591
      ],
      [
        "▁imp",
        -10.198176222793151
      ],
      [
        "▁Ka",
        -10.198530727447348
      ],
      [
        "▁giornate",
        -10.198587661068586
      ],
      [
        "▁pesce",
        -10.19867502737111
      ],
      [
        "▁sente",
        -10.199218564768248
      ],
      [
        "[",
        -10.19924618631472
      ],
      [
        "*",
        -10.199865034771351
      ],
      [
        "▁vetro",
        -10.199888323944815
      ],
      [
        "▁2018,",
        -10.199900673364594
      ],
      [
        "▁blu",
        -10.199953658349264
      ],
      [
        "▁m",
        -10.199955886319145
      ],
      [
        "▁arrivo",
        -10.200139388470472
      ],
      [
        "▁chiamata",
        -10.200344181320078
      ],
      [
        "▁periodi",
        -10.200511177714294
      ],
      [
        "▁somma",
        -10.20180862151386
      ],
      [
        "▁attivo",
        -10.2024142342587
      ],
      [
        "▁generazione",
        -10.202800580710505
      ],
      [
        "▁debba",
        -10.203430423802633
      ],
      [
        "▁Sarà",
        -10.203770592375992
      ],
      [
        "▁angolo",
        -10.203819275462466
      ],
      [
        "bri",
        -10.204011570096734
      ],
      [
        "▁giorno,",
        -10.204255396773402
      ],
      [
        "▁80",
        -10.204255675349723
      ],
      [
        "▁notare",
        -10.204869053937918
      ],
      [
        "▁Palazzo",
        -10.204903772823096
      ],
      [
        "▁laurea",
        -10.205034577997111
      ],
      [
        "▁veri",
        -10.205391271176147
      ],
      [
        "▁Russia",
        -10.20574434092531
      ],
      [
        "▁programmazione",
        -10.206506753956509
      ],
      [
        "azioni",
        -10.206898279068973
      ],
      [
        "▁debito",
        -10.207388381269618
      ],
      [
        "▁argomenti",
        -10.208139480253704
      ],
      [
        "▁sindaco",
        -10.208219937304321
      ],
      [
        "▁Ovviamente",
        -10.208539005145003
      ],
      [
        "▁gambe",
        -10.208553308253322
      ],
      [
        "▁ulteriore",
        -10.208657317619304
      ],
      [
        "▁manovra",
        -10.209373418431195
      ],
      [
        "▁finire",
        -10.209400811829777
      ],
      [
        "▁300",
        -10.211098170905206
      ],
      [
        "▁viaggi",
        -10.211220458340716
      ],
      [
        "Y",
        -10.21157325692825
      ],
      [
        "▁Tale",
        -10.212036827075236
      ],
      [
        "ura",
        -10.212436666561693
      ],
      [
        "▁noi,",
        -10.212907856205321
      ],
      [
        "ki",
        -10.212921276698388
      ],
      [
        "RI",
        -10.212982609586833
      ],
      [
        "▁cambiamenti",
        -10.213145855613236
      ],
      [
        "▁Comitato",
        -10.214059167276165
      ],
      [
        "▁bi",
        -10.214188507772867
      ],
      [
        "▁ambientale",
        -10.21483013172775
      ],
      [
        "▁immagine",
        -10.215496661043758
      ],
      [
        "▁organizzare",
        -10.215585263371475
      ],
      [
        "▁pubblicità",
        -10.21605989752258
      ],
      [
        "▁quartiere",
        -10.216526221094803
      ],
      [
        "▁carte",
        -10.216545111110564
      ],
      [
        "▁dimostra",
        -10.216720733282273
      ],
      [
        "▁euro.",
        -10.217177500714092
      ],
      [
        "▁popolare",
        -10.217468191618867
      ],
      [
        "▁positivo",
        -10.217726690942769
      ],
      [
        "▁vicenda",
        -10.21780326783861
      ],
      [
        "▁coraggio",
        -10.217861177017877
      ],
      [
        "▁fece",
        -10.218827047314583
      ],
      [
        "ARE",
        -10.219084091671622
      ],
      [
        "▁mq",
        -10.219101668478789
      ],
      [
        "▁bando",
        -10.219229984360972
      ],
      [
        "▁vissuto",
        -10.220123242022893
      ],
      [
        "▁qualora",
        -10.220247568621735
      ],
      [
        "▁fatte",
        -10.220288273479602
      ],
      [
        "▁Sta",
        -10.220561577641872
      ],
      [
        "▁pensieri",
        -10.220629173476512
      ],
      [
        "CO",
        -10.220970645390196
      ],
      [
        "▁Cor",
        -10.221806733226156
      ],
      [
        "▁industriale",
        -10.221808791887895
      ],
      [
        "▁Gu",
        -10.222109546888802
      ],
      [
        "▁disturbi",
        -10.222641135585327
      ],
      [
        "▁svolgimento",
        -10.222641145046682
      ],
      [
        "▁teatro",
        -10.223277799068214
      ],
      [
        "▁attuale",
        -10.2236835447953
      ],
      [
        "▁successivamente",
        -10.22421139442643
      ],
      [
        "19",
        -10.224351193655613
      ],
      [
        "▁giustizia",
        -10.224379977207022
      ],
      [
        "▁buono",
        -10.225855003255422
      ],
      [
        "stico",
        -10.226779709469778
      ],
      [
        "▁volto",
        -10.226926072297529
      ],
      [
        "▁turismo",
        -10.227123399376323
      ],
      [
        "▁storica",
        -10.22718065834811
      ],
      [
        "▁Fondazione",
        -10.22752221543319
      ],
      [
        "▁Piano",
        -10.228485043329755
      ],
      [
        "▁desideri",
        -10.22863354395198
      ],
      [
        "▁attorno",
        -10.228747784314374
      ],
      [
        "▁produrre",
        -10.228762972036385
      ],
      [
        "rendono",
        -10.22887579969396
      ],
      [
        "Puoi",
        -10.229092886868075
      ],
      [
        "▁ricca",
        -10.22929196700216
      ],
      [
        "▁paga",
        -10.229416419392354
      ],
      [
        "▁Do",
        -10.230705595742592
      ],
      [
        "▁vinto",
        -10.230976641922629
      ],
      [
        "▁laboratorio",
        -10.231182502429192
      ],
      [
        "▁Ba",
        -10.231974491502708
      ],
      [
        "▁ricordi",
        -10.232097329588557
      ],
      [
        "▁economici",
        -10.232267219759422
      ],
      [
        "▁battaglia",
        -10.232427585180222
      ],
      [
        "line",
        -10.232811782362308
      ],
      [
        "uti",
        -10.23301921866475
      ],
      [
        "▁scadenza",
        -10.233684754746992
      ],
      [
        "▁motori",
        -10.233792103172958
      ],
      [
        "▁ove",
        -10.233836605702823
      ],
      [
        "▁privata",
        -10.234646528392087
      ],
      [
        "tor",
        -10.234691881855582
      ],
      [
        "▁recensioni",
        -10.234904149959998
      ],
      [
        "▁tradizionali",
        -10.236122088806148
      ],
      [
        "▁spedizione",
        -10.236206703349517
      ],
      [
        "▁uscita",
        -10.236853181122292
      ],
      [
        "▁“A",
        -10.236902738660214
      ],
      [
        "▁favorire",
        -10.237021701102732
      ],
      [
        "▁Credo",
        -10.23736210074877
      ],
      [
        "🙂",
        -10.238592387465516
      ],
      [
        "▁2,",
        -10.239788698226217
      ],
      [
        "▁indica",
        -10.239792227730884
      ],
      [
        "▁complimenti",
        -10.240306534006626
      ],
      [
        "▁Purtroppo",
        -10.240347536571766
      ],
      [
        "▁permettono",
        -10.24054547614448
      ],
      [
        "stru",
        -10.240612109586507
      ],
      [
        "▁uova",
        -10.241073551297388
      ],
      [
        "▁salvo",
        -10.241095940326602
      ],
      [
        "▁straordinaria",
        -10.241260606920942
      ],
      [
        "ica",
        -10.241429515439759
      ],
      [
        "▁esami",
        -10.242557240731847
      ],
      [
        "▁DEI",
        -10.242595876687945
      ],
      [
        "▁(la",
        -10.242833468311304
      ],
      [
        "▁passati",
        -10.242893465947624
      ],
      [
        "▁basi",
        -10.243469509239725
      ],
      [
        "▁benissimo",
        -10.243880324551657
      ],
      [
        "▁grasso",
        -10.244955849981618
      ],
      [
        "▁Buon",
        -10.245427505902393
      ],
      [
        "▁l’in",
        -10.246024510966318
      ],
      [
        "▁materie",
        -10.246043735678244
      ],
      [
        "▁tipologia",
        -10.246186290606191
      ],
      [
        "non",
        -10.247046783410353
      ],
      [
        "▁riso",
        -10.2471329799192
      ],
      [
        "▁sessuale",
        -10.247142647840455
      ],
      [
        "▁energetica",
        -10.247288093340705
      ],
      [
        "▁comunicare",
        -10.248753751396244
      ],
      [
        "▁USA",
        -10.248838968817791
      ],
      [
        "▁pensi",
        -10.249273296904825
      ],
      [
        "▁Ai",
        -10.249561441234228
      ],
      [
        "▁linguaggio",
        -10.249999055433708
      ],
      [
        "▁morti",
        -10.25003383002974
      ],
      [
        "▁perde",
        -10.250222306359545
      ],
      [
        "▁N.",
        -10.25035699663966
      ],
      [
        "▁questioni",
        -10.250993952418838
      ],
      [
        "▁volevo",
        -10.251063083125462
      ],
      [
        "▁ferma",
        -10.251758186156417
      ],
      [
        "▁eliminare",
        -10.25188723000434
      ],
      [
        "▁pronti",
        -10.252217570175429
      ],
      [
        "▁l’ho",
        -10.253132249949672
      ],
      [
        "▁neve",
        -10.253146917657439
      ],
      [
        "NA",
        -10.25352619786866
      ],
      [
        "▁dettaglio",
        -10.25393106017993
      ],
      [
        "▁iscritti",
        -10.254884758005002
      ],
      [
        "▁Società",
        -10.254943637875478
      ],
      [
        "▁Signore",
        -10.255913666800145
      ],
      [
        "ly",
        -10.255989568383013
      ],
      [
        "▁l’utilizzo",
        -10.256140940483991
      ],
      [
        "▁reti",
        -10.256289651294235
      ],
      [
        "▁coscienza",
        -10.256316023502462
      ],
      [
        "▁brand",
        -10.256653108140096
      ],
      [
        "▁soddisfare",
        -10.256707587537969
      ],
      [
        "▁Germania",
        -10.25690003157445
      ],
      [
        "▁professionali",
        -10.25723982861764
      ],
      [
        "▁credere",
        -10.257788877635708
      ],
      [
        "▁fotografia",
        -10.257793964247423
      ],
      [
        "▁Sei",
        -10.257828788882291
      ],
      [
        "▁indietro",
        -10.258064113640213
      ],
      [
        "▁moda",
        -10.258228922196325
      ],
      [
        "▁cookie",
        -10.258530646222848
      ],
      [
        "▁partecipato",
        -10.259770951748138
      ],
      [
        "bra",
        -10.260410543854881
      ],
      [
        "lini",
        -10.260956896526782
      ],
      [
        "▁conformità",
        -10.261668758612423
      ],
      [
        "LI",
        -10.263060441176854
      ],
      [
        "▁Nonostante",
        -10.263288011122297
      ],
      [
        "ngo",
        -10.263531835296657
      ],
      [
        "▁pag.",
        -10.263664565842612
      ],
      [
        "▁poi,",
        -10.263937678669361
      ],
      [
        "▁culturali",
        -10.264392900579377
      ],
      [
        "▁femminile",
        -10.264677538768579
      ],
      [
        "▁disegno",
        -10.265041599492147
      ],
      [
        "li,",
        -10.26540367410486
      ],
      [
        "▁finanziaria",
        -10.26569332326978
      ],
      [
        "▁connessione",
        -10.266110942654024
      ],
      [
        "▁assieme",
        -10.266181578980717
      ],
      [
        "▁esame",
        -10.266868088317162
      ],
      [
        "▁moderna",
        -10.26718441254573
      ],
      [
        "▁trasmissione",
        -10.267452623698402
      ],
      [
        "▁totalmente",
        -10.26747127797007
      ],
      [
        "▁set",
        -10.26751326351399
      ],
      [
        "▁for",
        -10.267716013412446
      ],
      [
        "▁Senza",
        -10.267768309205026
      ],
      [
        "olo",
        -10.268119414300411
      ],
      [
        "▁procedimento",
        -10.268760887149146
      ],
      [
        "▁taglio",
        -10.268867622564528
      ],
      [
        "CA",
        -10.268947945626216
      ],
      [
        "▁direttore",
        -10.26901197352867
      ],
      [
        "▁chiedo",
        -10.269453181007096
      ],
      [
        "▁vini",
        -10.269485483139427
      ],
      [
        "▁voti",
        -10.269625307223883
      ],
      [
        "Può",
        -10.269916485071652
      ],
      [
        "▁macchine",
        -10.270018669443152
      ],
      [
        "▁2001",
        -10.270294189881335
      ],
      [
        "&",
        -10.270985123346403
      ],
      [
        "nata",
        -10.27107916348687
      ],
      [
        "▁movimenti",
        -10.271279191746181
      ],
      [
        "▁organizzazioni",
        -10.27145794671969
      ],
      [
        "▁canali",
        -10.27147692533662
      ],
      [
        "▁località",
        -10.271996225922361
      ],
      [
        "▁qual",
        -10.272078968415332
      ],
      [
        "▁trattamenti",
        -10.272179353717672
      ],
      [
        "▁secoli",
        -10.272513377309368
      ],
      [
        "▁principalmente",
        -10.272557912150956
      ],
      [
        "ismo",
        -10.273502902762939
      ],
      [
        "▁Can",
        -10.274765831448743
      ],
      [
        "▁fila",
        -10.274836517277803
      ],
      [
        "In",
        -10.275200185450204
      ],
      [
        "▁vincere",
        -10.275830517670876
      ],
      [
        "▁biglietto",
        -10.276404091038849
      ],
      [
        "▁svolto",
        -10.276404541203343
      ],
      [
        "mu",
        -10.27661576084051
      ],
      [
        "▁http://www.",
        -10.277087565611906
      ],
      [
        "▁regolare",
        -10.277142231995448
      ],
      [
        "eremo",
        -10.277605579674095
      ],
      [
        "▁simbolo",
        -10.27788516825899
      ],
      [
        "▁Art.",
        -10.280400880934796
      ],
      [
        "▁Italiana",
        -10.280631014735905
      ],
      [
        "pri",
        -10.280779628609078
      ],
      [
        "▁conti",
        -10.280919971725705
      ],
      [
        "▁tavola",
        -10.281593453660893
      ],
      [
        "▁contatti",
        -10.281740115468942
      ],
      [
        "▁voci",
        -10.282080114051318
      ],
      [
        "tion",
        -10.282115536413738
      ],
      [
        "▁bio",
        -10.282122047204922
      ],
      [
        "rica",
        -10.282523252665754
      ],
      [
        "▁forum",
        -10.28270684816041
      ],
      [
        "▁legislativo",
        -10.28284739057138
      ],
      [
        "▁teoria",
        -10.282863044410899
      ],
      [
        "▁sconto",
        -10.28286755110965
      ],
      [
        "▁riserva",
        -10.283257606871757
      ],
      [
        "▁ufficiali",
        -10.28369667582411
      ],
      [
        "▁faceva",
        -10.283996247281621
      ],
      [
        "▁·",
        -10.284058307928268
      ],
      [
        "▁marchio",
        -10.284060650669488
      ],
      [
        "▁registrazione",
        -10.284280245859684
      ],
      [
        "▁vecchia",
        -10.284382131064834
      ],
      [
        "€",
        -10.284620268344455
      ],
      [
        "▁banche",
        -10.285181463260907
      ],
      [
        "▁vedi",
        -10.285627601822117
      ],
      [
        "▁partiti",
        -10.285756424286674
      ],
      [
        "▁cioccolato",
        -10.285792006666032
      ],
      [
        "▁Torino",
        -10.286285099473805
      ],
      [
        "or",
        -10.286366469115194
      ],
      [
        "▁date",
        -10.28661718059176
      ],
      [
        "Negli",
        -10.286918379147517
      ],
      [
        "▁otto",
        -10.287129883544598
      ],
      [
        "▁RI",
        -10.28768989652405
      ],
      [
        "▁l'in",
        -10.288893882808152
      ],
      [
        "▁volta,",
        -10.288907370213012
      ],
      [
        "▁costituisce",
        -10.289347568191452
      ],
      [
        "▁familiare",
        -10.289490341638718
      ],
      [
        "▁alimentari",
        -10.290838850355051
      ],
      [
        "bol",
        -10.29100800587278
      ],
      [
        "mina",
        -10.29160035992503
      ],
      [
        "▁musicale",
        -10.292941430985376
      ],
      [
        "▁tentativo",
        -10.293276406500745
      ],
      [
        "▁precisa",
        -10.293528172461894
      ],
      [
        "oso",
        -10.29432668332251
      ],
      [
        "enne",
        -10.294429777183455
      ],
      [
        "▁trattati",
        -10.294571795759161
      ],
      [
        "▁caffè",
        -10.294836932227254
      ],
      [
        "▁errore",
        -10.294887685239125
      ],
      [
        "▁città,",
        -10.295390385160541
      ],
      [
        "▁chilometri",
        -10.295903898733496
      ],
      [
        "▁divertente",
        -10.295951383384589
      ],
      [
        "isti",
        -10.296066328489221
      ],
      [
        "▁composta",
        -10.29617186976943
      ],
      [
        "▁francese",
        -10.29723775696614
      ],
      [
        "poli",
        -10.297380479395624
      ],
      [
        "▁conservazione",
        -10.297454833866974
      ],
      [
        "▁argomento",
        -10.297738219113803
      ],
      [
        "lità",
        -10.298848631019212
      ],
      [
        "▁Lui",
        -10.299288318527502
      ],
      [
        "▁tri",
        -10.299774909795477
      ],
      [
        "▁basa",
        -10.299870816721938
      ],
      [
        "▁risparmio",
        -10.300244794253825
      ],
      [
        "▁solamente",
        -10.300793418643531
      ],
      [
        "▁freddo",
        -10.30102136914677
      ],
      [
        "▁conta",
        -10.30139678830692
      ],
      [
        "▁SE",
        -10.302370851948274
      ],
      [
        "▁scolastico",
        -10.302430272739516
      ],
      [
        "▁sapore",
        -10.302434580762888
      ],
      [
        "▁car",
        -10.302992074073924
      ],
      [
        "......",
        -10.303059970759442
      ],
      [
        "ppi",
        -10.303460815596164
      ],
      [
        "▁quotidiano",
        -10.303797418994613
      ],
      [
        "▁ultima",
        -10.304337637061032
      ],
      [
        "▁0",
        -10.304863750571116
      ],
      [
        "mbi",
        -10.30577207684799
      ],
      [
        "amente",
        -10.305860916989896
      ],
      [
        "▁tende",
        -10.30609326871689
      ],
      [
        "▁centinaia",
        -10.306393275796843
      ],
      [
        "▁scrittura",
        -10.306393284160704
      ],
      [
        "▁rimasto",
        -10.30641428662427
      ],
      [
        "▁effettivamente",
        -10.306489093062071
      ],
      [
        "▁consentire",
        -10.306588604522338
      ],
      [
        "▁personalità",
        -10.306589422965196
      ],
      [
        "▁quarto",
        -10.30780995290866
      ],
      [
        "▁traccia",
        -10.30807234495256
      ],
      [
        "▁Car",
        -10.308563363866988
      ],
      [
        "▁(da",
        -10.30905104842304
      ],
      [
        "▁tenuta",
        -10.309094346062313
      ],
      [
        "▁sogni",
        -10.3093878057371
      ],
      [
        "▁mercati",
        -10.309574991806947
      ],
      [
        "▁dimostrato",
        -10.309886445456092
      ],
      [
        "▁approccio",
        -10.310026145096792
      ],
      [
        "sal",
        -10.31019145632034
      ],
      [
        "▁giovedì",
        -10.31037208993346
      ],
      [
        "▁fiume",
        -10.310374196346176
      ],
      [
        "▁elettorale",
        -10.310381482770973
      ],
      [
        "▁ossia",
        -10.31112249159748
      ],
      [
        "▁Bi",
        -10.31124213154726
      ],
      [
        "▁opzioni",
        -10.311732636633408
      ],
      [
        "▁consiglia",
        -10.311955296520923
      ],
      [
        "▁Italia.",
        -10.31196147967795
      ],
      [
        "▁sino",
        -10.312075656492116
      ],
      [
        "▁tv",
        -10.312145787067518
      ],
      [
        "▁aspetta",
        -10.312943611306796
      ],
      [
        "▁Ce",
        -10.31369666322882
      ],
      [
        "▁aggiornamento",
        -10.3142121006513
      ],
      [
        "▁all’art.",
        -10.314497280352077
      ],
      [
        "▁ipotesi",
        -10.314794064114158
      ],
      [
        "▁Go",
        -10.315335468984475
      ],
      [
        "▁minori",
        -10.315387515985908
      ],
      [
        "▁aspettare",
        -10.316483908313703
      ],
      [
        "▁varietà",
        -10.316565195516773
      ],
      [
        "▁ritardo",
        -10.317040209976433
      ],
      [
        "▁belli",
        -10.31798915026367
      ],
      [
        "▁affinché",
        -10.318377444975555
      ],
      [
        "▁assoluto",
        -10.318377478084738
      ],
      [
        "▁consulenza",
        -10.318377549191796
      ],
      [
        "▁legato",
        -10.31879171924654
      ],
      [
        "25",
        -10.318989914316447
      ],
      [
        "▁raccontare",
        -10.319157405788971
      ],
      [
        "▁Gran",
        -10.319415497013729
      ],
      [
        "Z",
        -10.31946318487726
      ],
      [
        "▁martedì",
        -10.319717947363815
      ],
      [
        "▁aggiunge",
        -10.319909501971443
      ],
      [
        "▁interni",
        -10.320157623950095
      ],
      [
        "▁agenti",
        -10.320335208903948
      ],
      [
        "rlo.",
        -10.320560055689974
      ],
      [
        "▁(A",
        -10.320636771550276
      ],
      [
        "▁città.",
        -10.320673711301051
      ],
      [
        "▁apre",
        -10.32072256308312
      ],
      [
        "▁farci",
        -10.321268953849364
      ],
      [
        "▁cognome",
        -10.322404322176617
      ],
      [
        "▁ufficio",
        -10.323241989630908
      ],
      [
        "▁familiari",
        -10.323566590551106
      ],
      [
        "Amministrazione",
        -10.323593911184979
      ],
      [
        "▁fianco",
        -10.323756634239178
      ],
      [
        "▁rappresentano",
        -10.324166202030732
      ],
      [
        "▁band",
        -10.32455415621497
      ],
      [
        "▁servono",
        -10.325290160145876
      ],
      [
        "▁modificare",
        -10.325631087490521
      ],
      [
        "▁5.",
        -10.325660072455662
      ],
      [
        "▁fi",
        -10.326018974252786
      ],
      [
        "▁famoso",
        -10.3264505241348
      ],
      [
        "▁Israele",
        -10.327101896934952
      ],
      [
        "▁banca",
        -10.327701920480541
      ],
      [
        "▁Col",
        -10.328708513972437
      ],
      [
        "ZIONE",
        -10.328881395567564
      ],
      [
        "▁importa",
        -10.328883801181963
      ],
      [
        "▁esercizio",
        -10.33029364004777
      ],
      [
        "▁fascia",
        -10.3312923904533
      ],
      [
        "▁realizzati",
        -10.331788700355174
      ],
      [
        "▁frequenza",
        -10.331863817858427
      ],
      [
        "▁kg",
        -10.332278769328642
      ],
      [
        "▁para",
        -10.332777148308418
      ],
      [
        "uto",
        -10.332829901362192
      ],
      [
        "▁eventualmente",
        -10.333222513193832
      ],
      [
        "▁appuntamenti",
        -10.33322266669761
      ],
      [
        "▁90",
        -10.333359177011172
      ],
      [
        "▁soddisfazione",
        -10.333364484328872
      ],
      [
        "▁ca",
        -10.333572938868334
      ],
      [
        "pre",
        -10.33380006688601
      ],
      [
        "▁formula",
        -10.33393054608382
      ],
      [
        "▁manifestazioni",
        -10.334775747171491
      ],
      [
        "▁Andrea",
        -10.335059517365789
      ],
      [
        "▁splendida",
        -10.335945455198079
      ],
      [
        "▁provvedimento",
        -10.335953113733243
      ],
      [
        "▁morale",
        -10.336076667047454
      ],
      [
        "▁protagonisti",
        -10.337309711690345
      ],
      [
        "▁scarpe",
        -10.337505375281548
      ],
      [
        "▁attuali",
        -10.337844150482685
      ],
      [
        "▁scheda",
        -10.338677205981735
      ],
      [
        "▁pietra",
        -10.338681505978954
      ],
      [
        "▁concerto",
        -10.338697190004407
      ],
      [
        "▁visite",
        -10.338959563069402
      ],
      [
        "▁alberi",
        -10.340113180620136
      ],
      [
        "▁consumatori",
        -10.340127464036936
      ],
      [
        "▁\"La",
        -10.340431807626855
      ],
      [
        "▁feste",
        -10.340500751823033
      ],
      [
        "▁Inter",
        -10.340686254765025
      ],
      [
        "▁45",
        -10.341189057429837
      ],
      [
        "▁detta",
        -10.341754916826746
      ],
      [
        "▁mila",
        -10.34194165362143
      ],
      [
        "▁portale",
        -10.342000810546482
      ],
      [
        "▁l'altro",
        -10.342288894310427
      ],
      [
        "▁minuto",
        -10.342802384812394
      ],
      [
        "▁contrasto",
        -10.342818313498373
      ],
      [
        "▁cittadinanza",
        -10.34287448215434
      ],
      [
        "▁gravidanza",
        -10.344143230042881
      ],
      [
        "▁Londra",
        -10.344161620915541
      ],
      [
        "gre",
        -10.345044631510362
      ],
      [
        "▁dichiara",
        -10.345090717218039
      ],
      [
        "▁finestra",
        -10.345363554893506
      ],
      [
        "▁iniziale",
        -10.345904475693867
      ],
      [
        "▁iniziativa",
        -10.346106326972457
      ],
      [
        "▁Santo",
        -10.346665030084711
      ],
      [
        "▁Codice",
        -10.34685637385261
      ],
      [
        "▁esterni",
        -10.34691536493032
      ],
      [
        "▁Sull",
        -10.347125826824598
      ],
      [
        "▁comp",
        -10.347137294694807
      ],
      [
        "VI",
        -10.34751295259921
      ],
      [
        "▁insomma",
        -10.348291800169001
      ],
      [
        "▁terrà",
        -10.348343159352336
      ],
      [
        "mini",
        -10.348618648580642
      ],
      [
        "mer",
        -10.350407040740416
      ],
      [
        "▁dollari",
        -10.350758621604736
      ],
      [
        "▁(se",
        -10.350766099651246
      ],
      [
        "asso",
        -10.350892716700592
      ],
      [
        "▁opportuno",
        -10.351055639113994
      ],
      [
        "▁successivi",
        -10.3512024269899
      ],
      [
        "▁comportamenti",
        -10.351262000768296
      ],
      [
        "▁staff",
        -10.351784779177274
      ],
      [
        "ja",
        -10.352237394036738
      ],
      [
        "▁destinazione",
        -10.352440743258787
      ],
      [
        "▁circolazione",
        -10.352558822172465
      ],
      [
        "▁minore",
        -10.353783691928072
      ],
      [
        "▁Domenica",
        -10.353827781845983
      ],
      [
        "▁resa",
        -10.354730743348433
      ],
      [
        "uri",
        -10.35474963944117
      ],
      [
        "▁calda",
        -10.354795393451457
      ],
      [
        "▁deriva",
        -10.354860714582838
      ],
      [
        "▁messi",
        -10.355446110654068
      ],
      [
        "▁rapidamente",
        -10.35553248230035
      ],
      [
        "▁150",
        -10.35563224932641
      ],
      [
        "mmi",
        -10.355806114573554
      ],
      [
        "▁medicina",
        -10.356531060009845
      ],
      [
        "ff",
        -10.356800753389674
      ],
      [
        "▁posizioni",
        -10.356886387707329
      ],
      [
        "nese",
        -10.356933392263866
      ],
      [
        "▁finanziario",
        -10.357152234909158
      ],
      [
        "▁Papa",
        -10.35776411608467
      ],
      [
        "▁Ver",
        -10.358097056145544
      ],
      [
        "▁finanziamento",
        -10.35832574934501
      ],
      [
        "▁persino",
        -10.358480699742046
      ],
      [
        "▁visitatori",
        -10.358893886968257
      ],
      [
        "▁dotato",
        -10.359402420455488
      ],
      [
        "▁comprare",
        -10.359520823731764
      ],
      [
        "▁Comunque",
        -10.3597354977511
      ],
      [
        "RA",
        -10.35989383325953
      ],
      [
        "▁certe",
        -10.359928497190856
      ],
      [
        "▁essenziale",
        -10.360503163844655
      ],
      [
        "▁morto",
        -10.360946265054015
      ],
      [
        "▁riuscita",
        -10.361097179953223
      ],
      [
        "rato",
        -10.361462405852324
      ],
      [
        "▁cambiato",
        -10.361898392987555
      ],
      [
        "▁preventivo",
        -10.362190085449997
      ],
      [
        "▁prestito",
        -10.362441757180527
      ],
      [
        "▁penale",
        -10.362523976144125
      ],
      [
        "ore",
        -10.362915771642495
      ],
      [
        "▁assumere",
        -10.36338482292756
      ],
      [
        "▁veniva",
        -10.363563079568925
      ],
      [
        "▁mobile",
        -10.364033503548875
      ],
      [
        "Nelle",
        -10.3648615720738
      ],
      [
        "▁ascoltare",
        -10.365080972615962
      ],
      [
        "▁ciascuno",
        -10.365229392467644
      ],
      [
        "▁impatto",
        -10.365413196335503
      ],
      [
        "▁ponte",
        -10.366456999512277
      ],
      [
        "▁Cu",
        -10.36652059443647
      ],
      [
        "▁3,",
        -10.36745015934397
      ],
      [
        "▁lettori",
        -10.367669905068599
      ],
      [
        "▁perciò",
        -10.36795726398158
      ],
      [
        "▁\"Il",
        -10.368752107663529
      ],
      [
        "▁Sito",
        -10.368785336454785
      ],
      [
        "ton",
        -10.368843677313885
      ],
      [
        "▁Lu",
        -10.36897915211513
      ],
      [
        "▁proprietario",
        -10.369191175224742
      ],
      [
        "▁energetico",
        -10.36921255086483
      ],
      [
        "▁seduta",
[...]
