{
  "version": "1.0",
  "truncation": null,
  "padding": null,
  "added_tokens": [
    {
      "id": 0,
      "content": "[UNK]",
      "single_word": false,
      "lstrip": false,
      "rstrip": false,
      "normalized": false,
      "special": true
    },
    {
      "id": 1,
      "content": "[CLS]",
      "single_word": false,
      "lstrip": false,
      "rstrip": false,
      "normalized": false,
      "special": true
    },
    {
      "id": 2,
      "content": "[SEP]",
      "single_word": false,
      "lstrip": false,
      "rstrip": false,
      "normalized": false,
      "special": true
    },
    {
      "id": 3,
      "content": "[PAD]",
      "single_word": false,
      "lstrip": false,
      "rstrip": false,
      "normalized": false,
      "special": true
    },
    {
      "id": 4,
      "content": "[MASK]",
      "single_word": false,
      "lstrip": false,
      "rstrip": false,
      "normalized": false,
      "special": true
    }
  ],
  "normalizer": {
    "type": "Sequence",
    "normalizers": [
      {
        "type": "Nmt"
      },
      {
        "type": "NFKC"
      },
      {
        "type": "Replace",
        "pattern": {
          "Regex": " {2,}"
        },
        "content": " "
      }
    ]
  },
  "pre_tokenizer": {
    "type": "Metaspace",
    "replacement": "▁",
    "prepend_scheme": "always",
    "split": true
  },
  "post_processor": null,
  "decoder": {
    "type": "Metaspace",
    "replacement": "▁",
    "prepend_scheme": "always",
    "split": true
  },
  "model": {
    "type": "Unigram",
    "unk_id": 0,
    "vocab": [
      [
        "[UNK]",
        0.0
      ],
      [
        "[CLS]",
        0.0
      ],
      [
        "[SEP]",
        0.0
      ],
      [
        "[PAD]",
        0.0
      ],
      [
        "[MASK]",
        0.0
      ],
      [
        "▁",
        -2.9742951933999198
      ],
      [
        "▁de",
        -3.5149290333852132
      ],
      [
        ".",
        -3.588363353402899
      ],
      [
        ",",
        -3.724718333572092
      ],
      [
        "▁van",
        -3.98447563023044
      ],
      [
        "▁en",
        -4.0048878743347895
      ],
      [
        "▁een",
        -4.026184732545529
      ],
      [
        "▁het",
        -4.160471968648476
      ],
      [
        "▁in",
        -4.329759966183381
      ],
      [
        "▁is",
        -4.569994901820639
      ],
      [
        "▁op",
        -4.657266261057979
      ],
      [
        "▁te",
        -4.72279998198456
      ],
      [
        "▁met",
        -4.848804994916383
      ],
      [
        "▁voor",
        -4.866700555112036
      ],
      [
        "▁je",
        -4.871376842432413
      ],
      [
        "▁dat",
        -4.956566460218362
      ],
      [
        "s",
        -5.090771445937396
      ],
      [
        "e",
        -5.134913897941384
      ],
      [
        "▁zijn",
        -5.205623436895522
      ],
      [
        "▁niet",
        -5.2105571228645875
      ],
      [
        "en",
        -5.249438567791742
      ],
      [
        "▁die",
        -5.275548579301622
      ],
      [
        "▁ik",
        -5.286560764541951
      ],
      [
        "▁om",
        -5.396265331666843
      ],
      [
        "▁aan",
        -5.412985233192444
      ],
      [
        "▁De",
        -5.436371739213103
      ],
      [
        ":",
        -5.463882286547543
      ],
      [
        "▁ook",
        -5.549210230282286
      ],
      [
        "▁er",
        -5.576405670327999
      ],
      [
        "▁of",
        -5.623705292211854
      ],
      [
        "▁als",
        -5.70178076606925
      ],
      [
        "▁maar",
        -5.7276197548100605
      ],
      [
        "▁bij",
        -5.728696579423211
      ],
      [
        "▁dan",
        -5.818182123140884
      ],
      [
        "-",
        -5.846643370744651
      ],
      [
        "?",
        -5.887074318699039
      ],
      [
        "▁door",
        -5.912962687923706
      ],
      [
        "▁Het",
        -5.930360991682431
      ],
      [
        "!",
        -5.93621807513459
      ],
      [
        ")",
        -5.947175247977269
      ],
      [
        "▁naar",
        -5.948361452764509
      ],
      [
        "▁over",
        -6.021324269837416
      ],
      [
        "▁uit",
        -6.03799048664829
      ],
      [
        "▁nog",
        -6.0451932932552594
      ],
      [
        "▁deze",
        -6.077979026400465
      ],
      [
        "t",
        -6.08427140031875
      ],
      [
        "▁kan",
        -6.08653098425669
      ],
      [
        "▁wat",
        -6.098182381811929
      ],
      [
        "▁u",
        -6.111331149144489
      ],
      [
        "▁heeft",
        -6.144336923396056
      ],
      [
        "▁Ik",
        -6.162546200763851
      ],
      [
        "▁we",
        -6.164501439089255
      ],
      [
        "▁dit",
        -6.170463378421379
      ],
      [
        "▁ze",
        -6.208933221202743
      ],
      [
        "▁wel",
        -6.21983734334246
      ],
      [
        "▁meer",
        -6.223696080559426
      ],
      [
        "▁was",
        -6.29216231971683
      ],
      [
        "▁worden",
        -6.315362593461353
      ],
      [
        "▁al",
        -6.316456506031649
      ],
      [
        "...",
        -6.327054839257142
      ],
      [
        "▁wordt",
        -6.351858697127524
      ],
      [
        "▁hebben",
        -6.393420752268904
      ],
      [
        "▁(",
        -6.410451064251474
      ],
      [
        "▁tot",
        -6.428045234438001
      ],
      [
        "▁zo",
        -6.44240794032538
      ],
      [
        "d",
        -6.4763205780486395
      ],
      [
        "▁geen",
        -6.4823917463558605
      ],
      [
        "n",
        -6.5002977567150655
      ],
      [
        "▁mijn",
        -6.503067663406103
      ],
      [
        "▁veel",
        -6.528072746232061
      ],
      [
        "▁kunnen",
        -6.5390056497517435
      ],
      [
        "▁heb",
        -6.56832721953824
      ],
      [
        "de",
        -6.576211096560046
      ],
      [
        "▁In",
        -6.607667570784514
      ],
      [
        "▁-",
        -6.620926699661622
      ],
      [
        "er",
        -6.6433071570905895
      ],
      [
        "▁Een",
        -6.649912958372676
      ],
      [
        "▁hij",
        -6.672942147856782
      ],
      [
        "▁jaar",
        -6.678222326521192
      ],
      [
        "▁goed",
        -6.68172892044036
      ],
      [
        "▁nu",
        -6.731670069687814
      ],
      [
        "▁weer",
        -6.7531714486062775
      ],
      [
        "▁uw",
        -6.787631355588557
      ],
      [
        "▁ons",
        -6.7899560976483695
      ],
      [
        "▁En",
        -6.805719123736607
      ],
      [
        "▁moet",
        -6.82592383593288
      ],
      [
        "▁onze",
        -6.844616307093807
      ],
      [
        "▁waar",
        -6.867925407341401
      ],
      [
        "▁zich",
        -6.904260686603548
      ],
      [
        "▁andere",
        -6.911825815985988
      ],
      [
        "▁hun",
        -6.940618541833404
      ],
      [
        "▁heel",
        -6.954047923044172
      ],
      [
        "▁hier",
        -6.959126922468139
      ],
      [
        "▁alle",
        -6.9699217373415685
      ],
      [
        "▁dus",
        -6.978677322722863
      ],
      [
        "▁1",
        -6.997517164477804
      ],
      [
        "▁haar",
        -7.0091209290506935
      ],
      [
        "▁mensen",
        -7.010195181005322
      ],
      [
        "▁gaat",
        -7.019817483518885
      ],
      [
        "a",
        -7.02343401812273
      ],
      [
        "▁2",
        -7.027258871318457
      ],
      [
        "▁ben",
        -7.031209536518466
      ],
      [
        "▁zou",
        -7.03769692317878
      ],
      [
        "▁gaan",
        -7.05748522954954
      ],
      [
        "▁zal",
        -7.071860192807538
      ],
      [
        "▁Dit",
        -7.086714885797564
      ],
      [
        "▁na",
        -7.091753794383825
      ],
      [
        "▁mij",
        -7.113263984742927
      ],
      [
        "▁Maar",
        -7.114290497738304
      ],
      [
        ";",
        -7.117518725865846
      ],
      [
        "▁Je",
        -7.129839277894213
      ],
      [
        "▁Dat",
        -7.1519013393957955
      ],
      [
        "▁Als",
        -7.154666709452435
      ],
      [
        "▁kunt",
        -7.156562096503
      ],
      [
        "▁wij",
        -7.158989618201588
      ],
      [
        "▁onder",
        -7.169163975962711
      ],
      [
        "▁nieuwe",
        -7.170311335941179
      ],
      [
        "▁Op",
        -7.178427472067616
      ],
      [
        "▁daar",
        -7.189201879734469
      ],
      [
        "▁mee",
        -7.191137434848047
      ],
      [
        "▁hoe",
        -7.197008740348895
      ],
      [
        "▁We",
        -7.225765438036866
      ],
      [
        "▁alleen",
        -7.229982254163643
      ],
      [
        "▁toch",
        -7.232995861186611
      ],
      [
        "/",
        -7.237099000704122
      ],
      [
        "▁zelf",
        -7.239655391778868
      ],
      [
        "▁wil",
        -7.2478083807020965
      ],
      [
        "▁maken",
        -7.249268706308008
      ],
      [
        "▁me",
        -7.251465495140222
      ],
      [
        "▁Wat",
        -7.257972495644719
      ],
      [
        "▁tijd",
        -7.288455869389093
      ],
      [
        "’",
        -7.300592214638961
      ],
      [
        "▁af",
        -7.301897882853554
      ],
      [
        "▁werd",
        -7.304282423706313
      ],
      [
        "▁tegen",
        -7.305042001601716
      ],
      [
        "▁had",
        -7.31644109467465
      ],
      [
        "▁Deze",
        -7.322263406371366
      ],
      [
        "je",
        -7.347086764669431
      ],
      [
        "▁altijd",
        -7.351209624936136
      ],
      [
        "▁echt",
        -7.351282097609801
      ],
      [
        "▁3",
        -7.364441771215841
      ],
      [
        "'",
        -7.371295121440797
      ],
      [
        "▁Er",
        -7.374360896856352
      ],
      [
        "▁eerste",
        -7.388287293548734
      ],
      [
        "▁Voor",
        -7.389691699091015
      ],
      [
        "▁–",
        -7.398365619781664
      ],
      [
        "▁iets",
        -7.3988996491812955
      ],
      [
        "k",
        -7.399758539879073
      ],
      [
        "▁doen",
        -7.406791826744659
      ],
      [
        "▁eigen",
        -7.414127253357972
      ],
      [
        "▁zoals",
        -7.415705791846609
      ],
      [
        "▁staat",
        -7.428144313281537
      ],
      [
        "▁per",
        -7.433479197459798
      ],
      [
        "▁eens",
        -7.438391918151574
      ],
      [
        "▁twee",
        -7.448864584766696
      ],
      [
        "▁moeten",
        -7.4561801022767025
      ],
      [
        ").",
        -7.461037284400033
      ],
      [
        "▁grote",
        -7.49124744269581
      ],
      [
        "o",
        -7.506436767009703
      ],
      [
        "▁dag",
        -7.507314510283846
      ],
      [
        "▁‘",
        -7.5148136179253235
      ],
      [
        "ing",
        -7.53355750618757
      ],
      [
        "\"",
        -7.537684569058117
      ],
      [
        "”",
        -7.539010273981402
      ],
      [
        "▁komt",
        -7.544048457264497
      ],
      [
        "▁Met",
        -7.553439811540789
      ],
      [
        "▁even",
        -7.553485195045285
      ],
      [
        "▁erg",
        -7.562431118202607
      ],
      [
        "▁binnen",
        -7.570231822366043
      ],
      [
        "▁alles",
        -7.580758178784274
      ],
      [
        "▁Ook",
        -7.582142829469877
      ],
      [
        "▁hem",
        -7.582800444736868
      ],
      [
        "▁via",
        -7.595643883829284
      ],
      [
        "▁omdat",
        -7.6033952810687495
      ],
      [
        "▁zien",
        -7.618671115600408
      ],
      [
        "i",
        -7.624967903502114
      ],
      [
        "▁laten",
        -7.633504217976855
      ],
      [
        "▁goede",
        -7.63661464986658
      ],
      [
        "▁tussen",
        -7.647651894499399
      ],
      [
        "▁“",
        -7.648610446622412
      ],
      [
        "▁Wij",
        -7.666227333479094
      ],
      [
        "▁4",
        -7.667331737892326
      ],
      [
        "▁keer",
        -7.671757260549116
      ],
      [
        "▁uur",
        -7.671829082931749
      ],
      [
        "▁5",
        -7.673061076161961
      ],
      [
        "▁komen",
        -7.673342178257764
      ],
      [
        "in",
        -7.68433205033411
      ],
      [
        "r",
        -7.684570685293515
      ],
      [
        "▁ver",
        -7.689672442040004
      ],
      [
        "▁gebruik",
        -7.693773080914438
      ],
      [
        "▁vind",
        -7.695595868401099
      ],
      [
        "▁zeer",
        -7.696144514914623
      ],
      [
        "▁U",
        -7.703416235742877
      ],
      [
        "▁zij",
        -7.711410178351969
      ],
      [
        "▁Hij",
        -7.712556555091876
      ],
      [
        "▁mogelijk",
        -7.720180703497258
      ],
      [
        "▁snel",
        -7.727484559236045
      ],
      [
        "▁jij",
        -7.729055506676033
      ],
      [
        "▁zeker",
        -7.729636001153466
      ],
      [
        "▁zonder",
        -7.730099410454612
      ],
      [
        "▁steeds",
        -7.731025226314259
      ],
      [
        "u",
        -7.73149605803288
      ],
      [
        "▁toe",
        -7.73374507165696
      ],
      [
        "▁gewoon",
        -7.73447998408983
      ],
      [
        "▁10",
        -7.736721367394717
      ],
      [
        "▁weet",
        -7.7385161004402505
      ],
      [
        "▁\"",
        -7.740955638975722
      ],
      [
        "▁Bij",
        -7.744545816968122
      ],
      [
        "▁terug",
        -7.762887403091694
      ],
      [
        "te",
        -7.763661503149638
      ],
      [
        "▁jullie",
        -7.77491420072033
      ],
      [
        "▁willen",
        -7.779951445124576
      ],
      [
        "▁A",
        -7.781119560603999
      ],
      [
        "▁informatie",
        -7.787531393133088
      ],
      [
        "▁waren",
        -7.788303605675759
      ],
      [
        "▁mooie",
        -7.799448946453522
      ],
      [
        "f",
        -7.800043195694576
      ],
      [
        "▁Ze",
        -7.809947280900838
      ],
      [
        "▁Van",
        -7.8128804618953325
      ],
      [
        "▁Zo",
        -7.8176122382898185
      ],
      [
        "▁S",
        -7.818253601687767
      ],
      [
        "▁'",
        -7.820170533962635
      ],
      [
        "▁werk",
        -7.820189477222726
      ],
      [
        "▁weg",
        -7.822459986397353
      ],
      [
        "▁want",
        -7.828845641466211
      ],
      [
        "▁één",
        -7.83768817341851
      ],
      [
        "▁hebt",
        -7.8380904093307535
      ],
      [
        "▁graag",
        -7.8410324723593074
      ],
      [
        "▁ge",
        -7.84621602507247
      ],
      [
        "▁tijdens",
        -7.859019508283691
      ],
      [
        "▁leven",
        -7.863186412060687
      ],
      [
        "▁verschillende",
        -7.874901869112929
      ],
      [
        "▁verder",
        -7.875786030946184
      ],
      [
        "▁...",
        -7.884056236698411
      ],
      [
        "▁elkaar",
        -7.88706839953565
      ],
      [
        "▁hele",
        -7.895922425899345
      ],
      [
        "▁mooi",
        -7.90006629735541
      ],
      [
        "▁samen",
        -7.901391839655647
      ],
      [
        "▁nodig",
        -7.910423676562866
      ],
      [
        "▁aantal",
        -7.910873553749635
      ],
      [
        "▁vaak",
        -7.912716919591304
      ],
      [
        "▁kinderen",
        -7.916781315786597
      ],
      [
        "▁jouw",
        -7.917709092368279
      ],
      [
        "▁mag",
        -7.920876123371601
      ],
      [
        "▁zijn.",
        -7.933813731783024
      ],
      [
        "▁Na",
        -7.934943704980055
      ],
      [
        "▁nooit",
        -7.941543344678831
      ],
      [
        "▁Hoe",
        -7.947802785840798
      ],
      [
        "▁beste",
        -7.9515407305955215
      ],
      [
        "▁volgende",
        -7.958249387637
      ],
      [
        "▁beter",
        -7.968433562906869
      ],
      [
        "▁weten",
        -7.978365812072164
      ],
      [
        "▁net",
        -7.980915798223844
      ],
      [
        "▁natuurlijk",
        -7.9821414880729264
      ],
      [
        "▁minder",
        -7.984479563550513
      ],
      [
        "▁zit",
        -7.987459402979448
      ],
      [
        "▁gemaakt",
        -7.993133731010536
      ],
      [
        "▁Nederland",
        -7.994125679264943
      ],
      [
        "▁kun",
        -7.99883605196856
      ],
      [
        "▁6",
        -8.001231764909047
      ],
      [
        "▁boek",
        -8.004453416644925
      ],
      [
        "▁buurt",
        -8.007667648566601
      ],
      [
        "▁allemaal",
        -8.010758762319771
      ],
      [
        "▁staan",
        -8.01086954587011
      ],
      [
        "▁helemaal",
        -8.012678284613862
      ],
      [
        "▁zullen",
        -8.019696403887925
      ],
      [
        "▁leuk",
        -8.020336828103359
      ],
      [
        "▁laatste",
        -8.021664670102592
      ],
      [
        "▁anders",
        -8.024889527368716
      ],
      [
        "▁B",
        -8.02720036558373
      ],
      [
        "▁week",
        -8.02752363252528
      ],
      [
        "▁plaats",
        -8.027646439375564
      ],
      [
        "▁laat",
        -8.035346144561704
      ],
      [
        "▁groot",
        -8.040959918435792
      ],
      [
        "l",
        -8.041347311624014
      ],
      [
        "s,",
        -8.044256555910186
      ],
      [
        "m",
        -8.044412615241425
      ],
      [
        "▁iedereen",
        -8.045696401392497
      ],
      [
        "▁maakt",
        -8.046033812582346
      ],
      [
        "y",
        -8.046782753415743
      ],
      [
        "▁jaren",
        -8.046958407430976
      ],
      [
        "▁bent",
        -8.047929889723012
      ],
      [
        "▁ga",
        -8.060526971663705
      ],
      [
        "▁vinden",
        -8.063765912027915
      ],
      [
        "▁lang",
        -8.08119735336734
      ],
      [
        "▁huis",
        -8.088468377991216
      ],
      [
        "▁geboren",
        -8.089680146206772
      ],
      [
        "▁welke",
        -8.093835778566138
      ],
      [
        "heid",
        -8.094714236003208
      ],
      [
        "▁iemand",
        -8.102364312405776
      ],
      [
        "▁worden.",
        -8.111154708268797
      ],
      [
        "g",
        -8.112348097835488
      ],
      [
        "▁vanaf",
        -8.112957719729827
      ],
      [
        "▁dagen",
        -8.120150280100233
      ],
      [
        "▁manier",
        -8.120489798597465
      ],
      [
        "▁vooral",
        -8.14179550145417
      ],
      [
        "▁zelfs",
        -8.142011542433277
      ],
      [
        "▁website",
        -8.14328593978629
      ],
      [
        "▁geven",
        -8.144874881742405
      ],
      [
        "s.",
        -8.149834810097653
      ],
      [
        "jes",
        -8.153870140064594
      ],
      [
        "▁paar",
        -8.161616991206465
      ],
      [
        "▁vragen",
        -8.161789059500245
      ],
      [
        "den",
        -8.16304184819851
      ],
      [
        "▁elke",
        -8.171124505733177
      ],
      [
        "▁contact",
        -8.17396840001174
      ],
      [
        "▁&",
        -8.174837072427907
      ],
      [
        "'s",
        -8.1770924426919
      ],
      [
        "al",
        -8.177301816810107
      ],
      [
        "▁drie",
        -8.17778089832737
      ],
      [
        "▁wereld",
        -8.189572909420349
      ],
      [
        "▁achter",
        -8.19009311978874
      ],
      [
        "▁2018",
        -8.192536355848528
      ],
      [
        "▁7",
        -8.198547755165887
      ],
      [
        "▁20",
        -8.199312747352385
      ],
      [
        "ie",
        -8.200129111261518
      ],
      [
        "▁geeft",
        -8.200335379967207
      ],
      [
        "▁8",
        -8.202449324515015
      ],
      [
        "▁toen",
        -8.203697868689858
      ],
      [
        "▁men",
        -8.208387093897903
      ],
      [
        "▁Hier",
        -8.212691756972294
      ],
      [
        "▁wanneer",
        -8.215440281500557
      ],
      [
        "),",
        -8.215986328835744
      ],
      [
        "▁Dan",
        -8.21976381935636
      ],
      [
        "is",
        -8.220169305106644
      ],
      [
        "▁rond",
        -8.221273267577768
      ],
      [
        "▁lekker",
        -8.222239447167494
      ],
      [
        "▁deel",
        -8.225366456720858
      ],
      [
        "▁15",
        -8.22593693927268
      ],
      [
        "▁denk",
        -8.226098387732012
      ],
      [
        "▁Die",
        -8.226973038753162
      ],
      [
        "▁wie",
        -8.233402231681813
      ],
      [
        "▁doet",
        -8.234563014639061
      ],
      [
        "▁€",
        -8.23894420422385
      ],
      [
        "▁vraag",
        -8.243712312886458
      ],
      [
        "▁Door",
        -8.243944561338417
      ],
      [
        "▁bijvoorbeeld",
        -8.244245418752516
      ],
      [
        "▁P",
        -8.245960616059858
      ],
      [
        "▁kleine",
        -8.246650464701043
      ],
      [
        "▁werken",
        -8.25164109178757
      ],
      [
        "▁water",
        -8.257998138946288
      ],
      [
        "▁enkele",
        -8.263683770649397
      ],
      [
        "▁buiten",
        -8.265896541303697
      ],
      [
        "▁beetje",
        -8.269421456002688
      ],
      [
        "ge",
        -8.270978717400249
      ],
      [
        "▁man",
        -8.273551540118657
      ],
      [
        "▁geval",
        -8.276966471975198
      ],
      [
        "▁be",
        -8.2787338776023
      ],
      [
        "▁Om",
        -8.284143325477725
      ],
      [
        "▁zie",
        -8.289804166514887
      ],
      [
        "’s",
        -8.29739322239135
      ],
      [
        "▁E",
        -8.298224351546096
      ],
      [
        "▁Mijn",
        -8.299195807616426
      ],
      [
        "▁eerst",
        -8.305031438725148
      ],
      [
        "ste",
        -8.309854730806801
      ],
      [
        "h",
        -8.310125115476447
      ],
      [
        "ers",
        -8.312725118382115
      ],
      [
        "▁jou",
        -8.314062839582508
      ],
      [
        "▁zodat",
        -8.320523568746792
      ],
      [
        "]",
        -8.320580750975198
      ],
      [
        "tje",
        -8.32239313953539
      ],
      [
        "'n",
        -8.323184034058393
      ],
      [
        "▁krijgen",
        -8.323888038263812
      ],
      [
        "▁vindt",
        -8.32476131365951
      ],
      [
        "▁extra",
        -8.324936949615235
      ],
      [
        "re",
        -8.328429923350603
      ],
      [
        "▁geld",
        -8.329999308604101
      ],
      [
        "▁C",
        -8.33165637160379
      ],
      [
        "▁12",
        -8.341994520889138
      ],
      [
        "▁blijven",
        -8.344638554805003
      ],
      [
        ".”",
        -8.346201122240316
      ],
      [
        "▁zoek",
        -8.34938838062957
      ],
      [
        "▁gegevens",
        -8.350182363163347
      ],
      [
        "▁dingen",
        -8.35062497653865
      ],
      [
        "▁artikel",
        -8.351657889698394
      ],
      [
        "▁niets",
        -8.35298541598418
      ],
      [
        "▁krijgt",
        -8.356701749798471
      ],
      [
        "▁16",
        -8.356773827700556
      ],
      [
        "▁moment",
        -8.3569981410997
      ],
      [
        "▁nemen",
        -8.357205316132976
      ],
      [
        "le",
        -8.357610741221015
      ],
      [
        "▁kon",
        -8.360966157599506
      ],
      [
        "▁D",
        -8.36796644693832
      ],
      [
        "▁gebruikt",
        -8.372813726518261
      ],
      [
        "▁ten",
        -8.375235029025474
      ],
      [
        ".nl",
        -8.378076393249996
      ],
      [
        "▁wilt",
        -8.37896740101742
      ],
      [
        "▁der",
        -8.379984929904117
      ],
      [
        "▁lijkt",
        -8.383841915152827
      ],
      [
        "▁ligt",
        -8.383982479281205
      ],
      [
        "▁online",
        -8.387761907354724
      ],
      [
        "▁leuke",
        -8.38892099183981
      ],
      [
        "z",
        -8.395747154256492
      ],
      [
        "▁eigenlijk",
        -8.396669347999353
      ],
      [
        "▁kwam",
        -8.39817591591347
      ],
      [
        "▁blijft",
        -8.407107465621257
      ],
      [
        "▁bijna",
        -8.407205066075353
      ],
      [
        "▁hadden",
        -8.408056721390263
      ],
      [
        "▁[",
        -8.410441192470776
      ],
      [
        "▁naam",
        -8.42400988562632
      ],
      [
        "▁ander",
        -8.428436294517347
      ],
      [
        "▁30",
        -8.42970163120711
      ],
      [
        "▁misschien",
        -8.44001861486349
      ],
      [
        "p",
        -8.441222527831172
      ],
      [
        "▁maken.",
        -8.442869407667224
      ],
      [
        "▁Al",
        -8.448881328423925
      ],
      [
        "▁Of",
        -8.453114809122296
      ],
      [
        "▁ter",
        -8.459089296225486
      ],
      [
        "▁auto",
        -8.462723430989525
      ],
      [
        "▁direct",
        -8.465390701807925
      ],
      [
        "▁volgens",
        -8.46735285640461
      ],
      [
        "▁V",
        -8.468665751065592
      ],
      [
        "▁zegt",
        -8.472702508302214
      ],
      [
        "▁gratis",
        -8.47339937156689
      ],
      [
        "▁H",
        -8.474083461620687
      ],
      [
        "▁weinig",
        -8.477264626173021
      ],
      [
        "▁18",
        -8.478158491065248
      ],
      [
        "▁Nederlandse",
        -8.479059881040833
      ],
      [
        "▁werden",
        -8.482621937695908
      ],
      [
        "▁Nu",
        -8.485074157696312
      ],
      [
        "▁basis",
        -8.487481775334624
      ],
      [
        "▁vast",
        -8.488638565869065
      ],
      [
        "▁K",
        -8.506716869819888
      ],
      [
        "▁gebruiken",
        -8.511681476479938
      ],
      [
        "▁omgeving",
        -8.512324115121475
      ],
      [
        "▁waarin",
        -8.512805876118923
      ],
      [
        "▁vrij",
        -8.516383075272293
      ],
      [
        "▁14",
        -8.516839111447293
      ],
      [
        "▁bedrijf",
        -8.526877272356156
      ],
      [
        "▁werkt",
        -8.527412457206061
      ],
      [
        "▁zeggen",
        -8.528292187495515
      ],
      [
        "▁geleden",
        -8.52866137162796
      ],
      [
        "▁Is",
        -8.528788717403105
      ],
      [
        "▁best",
        -8.531610814091485
      ],
      [
        "▁recht",
        -8.532064251843373
      ],
      [
        "▁M",
        -8.534423284957974
      ],
      [
        "▁genoeg",
        -8.534657732226856
      ],
      [
        "▁houden",
        -8.53997906243082
      ],
      [
        "▁G",
        -8.541081384871871
      ],
      [
        "▁vol",
        -8.54173523139152
      ],
      [
        "▁euro",
        -8.542056080801162
      ],
      [
        "▁familie",
        -8.543570653655408
      ],
      [
        "▁ziet",
        -8.544452796802826
      ],
      [
        "v",
        -8.546998123545588
      ],
      [
        "▁ging",
        -8.547748077583442
      ],
      [
        "▁foto",
        -8.548511797275042
      ],
      [
        "▁echter",
        -8.549114034847253
      ],
      [
        "▁duidelijk",
        -8.551273476963747
      ],
      [
        "us",
        -8.554094880830428
      ],
      [
        "▁9",
        -8.55921841447674
      ],
      [
        "▁enige",
        -8.559404770017347
      ],
      [
        "▁onderzoek",
        -8.562817195286474
      ],
      [
        "▁later",
        -8.563639154495599
      ],
      [
        "▁_",
        -8.564144296519357
      ],
      [
        "▁kijken",
        -8.56582505448529
      ],
      [
        "▁17",
        -8.568782444032164
      ],
      [
        "▁zitten",
        -8.57035038142673
      ],
      [
        "▁vanuit",
        -8.571519404204688
      ],
      [
        "▁prijs",
        -8.572328874129779
      ],
      [
        "▁meest",
        -8.576055071049696
      ],
      [
        "▁hand",
        -8.57732545223239
      ],
      [
        "▁/",
        -8.577346083398266
      ],
      [
        "▁on",
        -8.5785162084217
      ],
      [
        "▁Daar",
        -8.583784713992797
      ],
      [
        "▁maand",
        -8.584850096847546
      ],
      [
        "▁boven",
        -8.585974091817025
      ],
      [
        "▁super",
        -8.587394910876585
      ],
      [
        "▁vele",
        -8.59142659724565
      ],
      [
        "▁eten",
        -8.594649610760696
      ],
      [
        "▁Ge",
        -8.594690034019441
      ],
      [
        "▁weken",
        -8.595317795600328
      ],
      [
        "▁soms",
        -8.596092480170045
      ],
      [
        "▁Dus",
        -8.596369257266446
      ],
      [
        "▁ervaring",
        -8.59747179230232
      ],
      [
        "▁doen.",
        -8.600406078608945
      ],
      [
        "▁waarbij",
        -8.601270627529665
      ],
      [
        "▁nieuw",
        -8.601961085093665
      ],
      [
        "▁prachtige",
        -8.602050223770238
      ],
      [
        "x",
        -8.60274001127183
      ],
      [
        "▁m",
        -8.604755546778325
      ],
      [
        "▁pas",
        -8.606076835401158
      ],
      [
        "▁Niet",
        -8.60710995661385
      ],
      [
        "▁verhaal",
        -8.607387127544749
      ],
      [
        "!!",
        -8.608240012363161
      ],
      [
        "▁vandaag",
        -8.608675961682714
      ],
      [
        "▁kennis",
        -8.609242060610818
      ],
      [
        "ten",
        -8.61014497006866
      ],
      [
        "▁Lees",
        -8.611761782849564
      ],
      [
        "▁slechts",
        -8.612928860611078
      ],
      [
        "▁soort",
        -8.61378727215201
      ],
      [
        "▁mei",
        -8.614216620369605
      ],
      [
        "on",
        -8.615720391095152
      ],
      [
        "▁thuis",
        -8.617380521712949
      ],
      [
        "▁tweede",
        -8.618247529641978
      ],
      [
        "▁oude",
        -8.618496587532025
      ],
      [
        "▁muziek",
        -8.618598301679015
      ],
      [
        "▁mogen",
        -8.621559011568444
      ],
      [
        "▁2017",
        -8.622824401228879
      ],
      [
        "▁ieder",
        -8.625717239796002
      ],
      [
        "▁land",
        -8.629211852024493
      ],
      [
        "ver",
        -8.631432739347517
      ],
      [
        "▁Wie",
        -8.631445290962152
      ],
      [
        "▁T",
        -8.635126791349746
      ],
      [
        "▁O",
        -8.641139552503017
      ],
      [
        "▁ongeveer",
        -8.642648860281453
      ],
      [
        "▁september",
        -8.64279159315063
      ],
      [
        "el",
        -8.642839233111875
      ],
      [
        "▁denken",
        -8.643497100861305
      ],
      [
        "▁helpen",
        -8.644301574030575
      ],
      [
        "st",
        -8.65014891938694
      ],
      [
        "▁zorgen",
        -8.652843755269098
      ],
      [
        "▁Ver",
        -8.656633025374948
      ],
      [
        "▁maanden",
        -8.657107433133872
      ],
      [
        "c",
        -8.659571729916717
      ],
      [
        "▁producten",
        -8.660338742557103
      ],
      [
        "▁waardoor",
        -8.66048298773131
      ],
      [
        "▁Ben",
        -8.661440725496563
      ],
      [
        "b",
        -8.662219543059637
      ],
      [
        "▁vrouwen",
        -8.662333910224532
      ],
      [
        "▁kosten",
        -8.664037671435256
      ],
      [
        "▁doe",
        -8.664476826042293
      ],
      [
        "▁volledig",
        -8.665710520002438
      ],
      [
        "▁zowel",
        -8.66858711056821
      ],
      [
        "▁elk",
        -8.66920984501175
      ],
      [
        "▁The",
        -8.67484478401541
      ],
      [
        "ig",
        -8.676498605237347
      ],
      [
        "▁Be",
        -8.676948377521516
      ],
      [
        "▁groep",
        -8.678028996053255
      ],
      [
        "▁hen",
        -8.68001438994729
      ],
      [
        "▁school",
        -8.683027414622375
      ],
      [
        "▁waarom",
        -8.683588306685088
      ],
      [
        "▁vrouw",
        -8.684868214474324
      ],
      [
        "▁bestaat",
        -8.686667385404096
      ],
      [
        "▁Zij",
        -8.690706406272248
      ],
      [
        "▁Onze",
        -8.691317347328972
      ],
      [
        "▁zoveel",
        -8.692234960885436
      ],
      [
        "▁eerder",
        -8.692542442575775
      ],
      [
        "2",
        -8.693637877474458
      ],
      [
        "▁licht",
        -8.699019562297684
      ],
      [
        "▁site",
        -8.701275548785055
      ],
      [
        "▁25",
        -8.7018671334361
      ],
      [
        "▁bekend",
        -8.702722958804438
      ],
      [
        "▁januari",
        -8.704061520441563
      ],
      [
        "▁Heb",
        -8.704597137251248
      ],
      [
        "▁minuten",
        -8.707302420948352
      ],
      [
        "▁zorg",
        -8.707686249547294
      ],
      [
        "▁biedt",
        -8.709578020138142
      ],
      [
        "▁11",
        -8.70970027576844
      ],
      [
        "▁kind",
        -8.717954207620618
      ],
      [
        "▁oktober",
        -8.718237925593154
      ],
      [
        "▁klein",
        -8.722278532897262
      ],
      [
        "▁blij",
        -8.723541466811904
      ],
      [
        "▁belangrijk",
        -8.725930763159482
      ],
      [
        "▁stad",
        -8.72603489235661
      ],
      [
        "▁hoofd",
        -8.727021856626456
      ],
      [
        "▁Aan",
        -8.731848681217436
      ],
      [
        "man",
        -8.732257888398852
      ],
      [
        "w",
        -8.737440637257817
      ],
      [
        "▁top",
        -8.738368720272359
      ],
      [
        "▁meeste",
        -8.739459877692124
      ],
      [
        "▁terwijl",
        -8.743294237368472
      ],
      [
        "▁december",
        -8.743922317738235
      ],
      [
        "▁Jan",
        -8.748417992435604
      ],
      [
        "▁begin",
        -8.749735032688257
      ],
      [
        "an",
        -8.750504546326201
      ],
      [
        "▁Alle",
        -8.750766952877118
      ],
      [
        "▁24",
        -8.751613717723306
      ],
      [
        "▁hoop",
        -8.752209694237273
      ],
      [
        "▁diverse",
        -8.753432749007553
      ],
      [
        "▁zouden",
        -8.754222715127508
      ],
      [
        "▁juist",
        -8.755470528638433
      ],
      [
        "▁afgelopen",
        -8.759671236308769
      ],
      [
        "▁november",
        -8.763667252926204
      ],
      [
        "▁zaken",
        -8.764187547235956
      ],
      [
        "▁kom",
        -8.767737533238389
      ],
      [
        "▁Meer",
        -8.768652781106937
      ],
      [
        "▁stuk",
        -8.769216321589969
      ],
      [
        "▁juiste",
        -8.769774108501824
      ],
      [
        "▁gezien",
        -8.76982851130385
      ],
      [
        "▁Wanneer",
        -8.773534387910944
      ],
      [
        "▁overleden",
        -8.775642927540503
      ],
      [
        "be",
        -8.775962027637677
      ],
      [
        "▁juni",
        -8.778881367973046
      ],
      [
        "▁lezen",
        -8.779067919975976
      ],
      [
        "▁W",
        -8.782055760745372
      ],
      [
        "at",
        -8.783836628339909
      ],
      [
        "▁namelijk",
        -8.78750340934305
      ],
      [
        "▁kwaliteit",
        -8.789205778883808
      ],
      [
        "ik",
        -8.789848971309908
      ],
      [
        "▁idee",
        -8.79238496930629
      ],
      [
        "▁F",
        -8.79284847823762
      ],
      [
        "▁moest",
        -8.793323733976765
      ],
      [
        "tjes",
        -8.794832929049157
      ],
      [
        "▁liefde",
        -8.796846072987531
      ],
      [
        "▁gebied",
        -8.801200700148838
      ],
      [
        "▁april",
        -8.802720673521115
      ],
      [
        "▁vond",
        -8.803998215110397
      ],
      [
        "▁I",
        -8.809185013519464
      ],
      [
        "▁daarom",
        -8.809451470389938
      ],
      [
        "▁ruimte",
        -8.809799085735673
      ],
      [
        "▁13",
        -8.809922126820608
      ],
      [
        "▁probleem",
        -8.81161409605401
      ],
      [
        "▁gedaan",
        -8.811964475323038
      ],
      [
        "▁product",
        -8.813744034593304
      ],
      [
        "▁zin",
        -8.813811592236558
      ],
      [
        "▁hebben.",
        -8.81555899628357
      ],
      [
        "▁krijg",
        -8.815952733003645
      ],
      [
        "▁21",
        -8.817364364729444
      ],
      [
        "▁energie",
        -8.8200115878426
      ],
      [
        "▁leren",
        -8.821221329916625
      ],
      [
        "▁•",
        -8.824130433589087
      ],
      [
        "▁plek",
        -8.832151657560361
      ],
      [
        "t.",
        -8.835854290767632
      ],
      [
        "▁vorm",
        -8.837214971501774
      ],
      [
        "der",
        -8.837287833818298
      ],
      [
        "▁kans",
        -8.838879671569934
      ],
      [
        "▁vakantie",
        -8.840255816992563
      ],
      [
        "▁geweest",
        -8.840278633311772
      ],
      [
        "▁langs",
        -8.840622788086895
      ],
      [
        "▁2016",
        -8.845940965260576
      ],
      [
        "▁hoog",
        -8.846096988418564
      ],
      [
        "▁bepaalde",
        -8.846712981109508
      ],
      [
        "▁klanten",
        -8.849894319573881
      ],
      [
        "▁bezig",
        -8.851872561831973
      ],
      [
        "▁heerlijk",
        -8.855327220061822
      ],
      [
        "▁echte",
        -8.859679157437796
      ],
      [
        "▁aandacht",
        -8.859772390686453
      ],
      [
        "▁oud",
        -8.860286395072134
      ],
      [
        "▁gemeente",
        -8.860562709470315
      ],
      [
        "▁film",
        -8.860677288707727
      ],
      [
        "▁dezelfde",
        -8.862658882429049
      ],
      [
        "▁vier",
        -8.864620399260797
      ],
      [
        "▁Veel",
        -8.869261771087103
      ],
      [
        "▁maart",
        -8.87019345729641
      ],
      [
        "S",
        -8.875108477723522
      ],
      [
        "▁Waar",
        -8.878640901232341
      ],
      [
        "▁*",
        -8.881563969368237
      ],
      [
        "na",
        -8.882691445358649
      ],
      [
        "▁totaal",
        -8.886412422577136
      ],
      [
        "uit",
        -8.887738149479873
      ],
      [
        "▁precies",
        -8.887931299229
      ],
      [
        "▁gelijk",
        -8.891145070911444
      ],
      [
        "▁programma",
        -8.891518600667114
      ],
      [
        "▁klaar",
        -8.892581910330637
      ],
      [
        "j",
        -8.89345665381327
      ],
      [
        "▁naast",
        -8.894413228654365
      ],
      [
        "▁kleur",
        -8.89504320772263
      ],
      [
        "▁problemen",
        -8.895418410723625
      ],
      [
        "▁N",
        -8.896858497424905
      ],
      [
        "▁en/of",
        -8.898756408514867
      ],
      [
        "▁L",
        -8.900573936200129
      ],
      [
        "▁lange",
        -8.900907723663073
      ],
      [
        "▁lid",
        -8.902474999466033
      ],
      [
        "1",
        -8.903583699530266
      ],
      [
        "▁valt",
        -8.904973753929564
      ],
      [
        "▁@",
        -8.90701937743325
      ],
      [
        "▁22",
        -8.907974302167162
      ],
      [
        "▁sinds",
        -8.909189774090283
      ],
      [
        "▁19",
        -8.909761704999994
      ],
      [
        "▁komen.",
        -8.909872207590388
      ],
      [
        "▁geheel",
        -8.910318316999629
      ],
      [
        "▁zei",
        -8.912497165789404
      ],
      [
        "werk",
        -8.913383911227552
      ],
      [
        "▁bieden",
        -8.913451033456994
      ],
      [
        "▁hoge",
        -8.913624060173412
      ],
      [
        "3",
        -8.915360965350335
      ],
      [
        "▁Zijn",
        -8.917575512570771
      ],
      [
        "▁foto's",
        -8.917664846201948
      ],
      [
        "▁internet",
        -8.918901790063654
      ],
      [
        "▁keuze",
        -8.919854484694428
      ],
      [
        "▁meerdere",
        -8.92042450106566
      ],
      [
        "▁hotel",
        -8.921650768613087
      ],
      [
        "▁zaterdag",
        -8.922341374342462
      ],
      [
        "▁bedrijven",
        -8.924727710516741
      ],
      [
        "▁kaart",
        -8.925676908588805
      ],
      [
        "▁druk",
        -8.927476828491763
      ],
      [
        "▁tuin",
        -8.928309320045983
      ],
      [
        "▁ervoor",
        -8.928720864124717
      ],
      [
        "▁Amsterdam",
        -8.928988709273249
      ],
      [
        "▁moeder",
        -8.929838794762114
      ],
      [
        "▁z",
        -8.929980101696941
      ],
      [
        "▁Wil",
        -8.934544681372088
      ],
      [
        "▁mannen",
        -8.93514583165997
      ],
      [
        "▁ooit",
        -8.936447401453655
      ],
      [
        "▁persoonlijke",
        -8.937559711269762
      ],
      [
        "▁ruim",
        -8.939084360931435
      ],
      [
        "▁enkel",
        -8.942806949206442
      ],
      [
        "▁prachtig",
        -8.943777116593255
      ],
      [
        "4",
        -8.94658925200856
      ],
      [
        "▁rekening",
        -8.951090303149577
      ],
      [
        "▁geschikt",
        -8.951399298869037
      ],
      [
        "▁hard",
        -8.951439704373678
      ],
      [
        "▁reis",
        -8.952041694210148
      ],
      [
        "▁juli",
        -8.954516649392136
      ],
      [
        "(",
        -8.961116353425307
      ],
      [
        "▁gevoel",
        -8.962526099651512
      ],
      [
        "zo’n",
        -8.962714100427071
      ],
      [
        "▁voorzien",
        -8.96412740204844
      ],
      [
        "▁spelen",
        -8.965248587485366
      ],
      [
        "ch",
        -8.966644795939807
      ],
      [
        "▁iedere",
        -8.968885497254742
      ],
      [
        "▁the",
        -8.96977206192657
      ],
      [
        "▁korte",
        -8.972712572169769
      ],
      [
        "▁hart",
        -8.974352148482327
      ],
      [
        "▁betekent",
        -8.975304533108243
      ],
      [
        "▁project",
        -8.97583797501894
      ],
      [
        "▁doel",
        -8.977116619897522
      ],
      [
        "▁team",
        -8.979695868870477
      ],
      [
        "▁Over",
        -8.981858375187521
      ],
      [
        "▁lopen",
        -8.98421803081723
      ],
      [
        "▁anderen",
        -8.984613587036526
      ],
      [
        "▁23",
        -8.985077453095371
      ],
      [
        "▁augustus",
        -8.98631594629507
      ],
      [
        "▁houdt",
        -8.986635560279826
      ],
      [
        "▁leeftijd",
        -8.986756410702737
      ],
      [
        "it",
        -8.986891403601994
      ],
      [
        "▁makkelijk",
        -8.986979237084938
      ],
      [
        "▁Geen",
        -8.98768134569362
      ],
      [
        "ter",
        -8.98979422289653
      ],
      [
        "▁organisatie",
        -8.990632748207265
      ],
      [
        "▁wilde",
        -8.992121120861224
      ],
      [
        "▁plaatsen",
        -8.99224794271387
      ],
      [
        "op",
        -8.992600534589407
      ],
      [
        "▁2015",
        -8.992979043882542
      ],
      [
        "▁x",
        -8.99568783816982
      ],
      [
        "▁stellen",
        -8.998768449715353
      ],
      [
        "▁R",
        -9.000225773444464
      ],
      [
        "▁zoon",
        -9.000302618925176
      ],
      [
        "▁blijkt",
        -9.002400466333143
      ],
      [
        "et",
        -9.00349030930123
      ],
      [
        "▁Z",
        -9.004056581498071
      ],
      [
        "▁inderdaad",
        -9.005735406026378
      ],
      [
        "▁februari",
        -9.010414661789104
      ],
      [
        "▁Daarnaast",
        -9.010866031748447
      ],
      [
        "▁eind",
        -9.010969734041101
      ],
      [
        "▁nou",
        -9.012553464976278
      ],
      [
        "▁meteen",
        -9.013794973647855
      ],
      [
        "▁moeilijk",
        -9.01413261530158
      ],
      [
        "▁Ga",
        -9.019365899181913
      ],
      [
        "▁kiezen",
        -9.021782086286128
      ],
      [
        "▁kreeg",
        -9.025187492030645
      ],
      [
        "▁Indien",
        -9.026230088384455
      ],
      [
        "▁klant",
        -9.026354250840289
      ],
      [
        "▁bericht",
        -9.028678981966685
      ],
      [
        "ken",
        -9.029315478798345
      ],
      [
        "▁grond",
        -9.029681072173124
      ],
      [
        "▁fijn",
        -9.031708416839585
      ],
      [
        "▁neemt",
        -9.033930657841989
      ],
      [
        "▁grootste",
        -9.03403646824329
      ],
      [
        "ster",
        -9.034575125740641
      ],
      [
        "▁prima",
        -9.034897853460183
      ],
      [
        "▁leden",
        -9.035700441524261
      ],
      [
        "▁persoon",
        -9.036815976065828
      ],
      [
        "▁vrienden",
        -9.037239736413042
      ],
      [
        "▁sterkte",
        -9.038004976798698
      ],
      [
        "▁hoogte",
        -9.038415806892829
      ],
      [
        "▁Bekijk",
        -9.038916675214551
      ],
      [
        "▁start",
        -9.038992515278597
      ],
      [
        "▁opnieuw",
        -9.03917984666612
      ],
      [
        "▁rol",
        -9.041527712684497
      ],
      [
        "ke",
        -9.042423517685776
      ],
      [
        "▁dochter",
        -9.043780033938281
      ],
      [
        "ve",
        -9.044582182480994
      ],
      [
        "▁beide",
        -9.04718586292988
      ],
      [
        "▁ouders",
        -9.04789917258152
      ],
      [
        "▁waarop",
        -9.050280061444251
      ],
      [
        "▁50",
        -9.050298048677375
      ],
      [
        "▁Waarom",
        -9.050492274485471
      ],
      [
        "▁Uit",
        -9.050742836404273
      ],
      [
        "▁dient",
        -9.052361344819086
      ],
      [
        "▁media",
        -9.053655862424328
      ],
      [
        "▁zondag",
        -9.057577721791745
      ],
      [
        "▁beeld",
        -9.059252575172387
      ],
      [
        "▁langer",
        -9.060775807035668
      ],
      [
        "▁reden",
        -9.063084041904585
      ],
      [
        "▁Den",
        -9.067742559559553
      ],
      [
        "▁kamer",
        -9.067861436039768
      ],
      [
        "▁daarna",
        -9.06817582080793
      ],
      [
        "▁kort",
        -9.071616590786428
      ],
      [
        "weg",
        -9.073899352759485
      ],
      [
        "▁(zie",
        -9.0750406040714
      ],
      [
        "▁voldoende",
        -9.076152523384923
      ],
      [
        "’.",
        -9.077509186871428
      ],
      [
        "▁jezelf",
        -9.077908899801315
      ],
      [
        "▁maak",
        -9.078735642207377
      ],
      [
        "▁schade",
        -9.079132464381413
      ],
      [
        "▁zorgt",
        -9.079446534913158
      ],
      [
        "▁Heel",
        -9.080152136301912
      ],
      [
        "▁zetten",
        -9.084874998980968
      ],
      [
        "▁zoeken",
        -9.08534202300059
      ],
      [
        "▁gelegen",
        -9.086384715692564
      ],
      [
        "▁woning",
        -9.086796098313474
      ],
      [
        "ze",
        -9.08891277669276
      ],
      [
        "▁blog",
        -9.089066228790756
      ],
      [
        "▁Ja",
        -9.0894480420285
      ],
      [
        "▁antwoord",
        -9.089677572425135
      ],
      [
        "▁hoeft",
        -9.089768732045538
      ],
      [
        "▁boeken",
        -9.091494925325591
      ],
      [
        "▁b",
        -9.092651661286588
      ],
      [
        "▁tips",
        -9.092664164634858
      ],
      [
        "▁beschikbaar",
        -9.093686715522093
      ],
      [
        "▁gaan.",
        -9.095274537019261
      ],
      [
        "▁wijze",
        -9.096030647763897
      ],
      [
        "▁gegeven",
        -9.096594541026393
      ],
      [
        "▁betreft",
        -9.098843274856119
      ],
      [
        "land",
        -9.099023334857547
      ],
      [
        "▁100",
        -9.10019557871955
      ],
      [
        "ige",
        -9.101124362303956
      ],
      [
        "▁delen",
        -9.104286930755858
      ],
      [
        "▁mogelijkheden",
        -9.104607211505652
      ],
      [
        "▁woord",
        -9.107635216794991
      ],
      [
        "....",
        -9.108254740493892
      ],
      [
        "▁indien",
        -9.110299455831989
      ],
      [
        "▁ont",
        -9.119259921238413
      ],
      [
        "▁genieten",
        -9.121478448661744
      ],
      [
        "▁hulp",
        -9.125394532992066
      ],
      [
        "▁sommige",
        -9.127974918939469
      ],
      [
        "▁2014",
        -9.12804554062378
      ],
      [
        "▁lees",
        -9.129435303077553
      ],
      [
        "▁rest",
        -9.129495049912393
      ],
      [
        "▁locatie",
        -9.130146210597516
      ],
      [
        "▁vijf",
        -9.132288770788254
      ],
      [
        "▁cm",
        -9.133760356883908
      ],
      [
        "▁uiteindelijk",
        -9.13439753768061
      ],
      [
        "▁God",
        -9.134610533962306
      ],
      [
        "▁nieuws",
        -9.135202172220641
      ],
      [
        "▁schreef",
        -9.135238741118599
      ],
      [
        "▁Want",
        -9.136971328081376
      ],
      [
        "dag",
        -9.138120489846145
      ],
      [
        "▁merk",
        -9.13847595258245
      ],
      [
        "▁kant",
        -9.139157697414372
      ],
      [
        "Neem",
        -9.14080141818128
      ],
      [
        "▁mens",
        -9.143036374803234
      ],
      [
        "T",
        -9.143083627590126
      ],
      [
        "▁zomer",
        -9.14470417520078
      ],
      [
        "verantwoordelijk",
        -9.144958347786076
      ],
      [
        "om",
        -9.14754660463012
      ],
      [
        "▁Laat",
        -9.14758197896052
      ],
      [
        "ren",
        -9.14758613893696
      ],
      [
        "▁niks",
        -9.148298616453335
      ],
      [
        "▁uitzicht",
        -9.148396893894565
      ],
      [
        "▁miljoen",
        -9.148712466390883
      ],
      [
        "▁ogen",
        -9.149304257771606
      ],
      [
        "▁terecht",
        -9.149530477927975
      ],
      [
        "▁stond",
        -9.151110858674206
      ],
      [
        "▁hetzelfde",
        -9.151313098332372
      ],
      [
        ".\"",
        -9.152386843332218
      ],
      [
        "▁waarvan",
        -9.152885846218037
      ],
      [
        "▁afstand",
        -9.152949524550504
      ],
      [
        "▁liggen",
        -9.15302812163621
      ],
      [
        "▁reactie",
        -9.153076230825565
      ],
      [
        "▁begint",
        -9.153543502709448
      ],
      [
        "▁keuken",
        -9.153934412764045
      ],
      [
        "▁27",
        -9.153935637383979
      ],
      [
        "▁Tijdens",
        -9.154387863201919
      ],
      [
        "▁Volgens",
        -9.1552695955866
      ],
      [
        "▁28",
        -9.155848038836325
      ],
      [
        "▁avond",
        -9.15601768602156
      ],
      [
        "▁activiteiten",
        -9.163920544772274
      ],
      [
        "▁markt",
        -9.164067714572155
      ],
      [
        "Omdat",
        -9.16450774435928
      ],
      [
        "▁einde",
        -9.16543118483283
      ],
      [
        "▁woorden",
        -9.168232324058604
      ],
      [
        "▁kijk",
        -9.170871344906619
      ],
      [
        "▁bijzonder",
        -9.173626912534939
      ],
      [
        "▁vervolgens",
        -9.173714374315466
      ],
      [
        "▁kleuren",
        -9.175531091124913
      ],
      [
        "▁Kan",
        -9.17692137473239
      ],
      [
        "▁word",
        -9.177754063485974
      ],
      [
        "▁relatie",
        -9.178671496588898
      ],
      [
        "▁www.",
        -9.17976668271135
      ],
      [
        "▁personen",
        -9.18071176638642
      ],
      [
        "▁kopen",
        -9.184872083888589
      ],
      [
        "!!!",
        -9.185987659587942
      ],
      [
        "▁proberen",
        -9.186913521030291
      ],
      [
        "▁waarschijnlijk",
        -9.18741773544781
      ],
      [
        "▁brengen",
        -9.187711916520367
      ],
      [
        "▁behandeling",
        -9.187964530262008
      ],
      [
        "▁sterk",
        -9.188014402757023
      ],
      [
        "▁tekst",
        -9.189467316209864
      ],
      [
        "▁26",
        -9.189569415835628
      ],
      [
        "baar",
        -9.189662907995654
      ],
      [
        "▁half",
        -9.191461999118767
      ],
      [
        "▁Wel",
        -9.192691601909106
      ],
      [
        "▁politie",
        -9.19355367877855
      ],
      [
        "▁jonge",
        -9.193615483233007
      ],
      [
        "huis",
        -9.195109070686648
      ],
      [
        "▁heen",
        -9.196908097658852
      ],
      [
        "men",
        -9.19699539199686
      ],
      [
        "ven",
        -9.20149762222961
      ],
      [
        "▁regelmatig",
        -9.202834628370614
      ],
      [
        "▁dood",
        -9.203573562382898
      ],
      [
        "▁advies",
        -9.203577150402083
      ],
      [
        "ma",
        -9.204505385670572
      ],
      [
        "▁lucht",
        -9.206949953608117
      ],
      [
        "▁vroeg",
        -9.207442207863874
      ],
      [
        "▁los",
        -9.207719219909269
      ],
      [
        "▁zichzelf",
        -9.210335274290847
      ],
      [
        "▁Daarom",
        -9.211767167826064
      ],
      [
        "▁Re",
        -9.212316535946446
      ],
      [
        "or",
        -9.212655345574358
      ],
      [
        "ar",
        -9.212924195117552
      ],
      [
        "▁horen",
        -9.213054383856525
      ],
      [
        "▁dienst",
        -9.213480932266545
      ],
      [
        "▁gehad",
        -9.213516351691192
      ],
      [
        "▁natuur",
        -9.216566931280937
      ],
      [
        "▁lichaam",
        -9.216651118613827
      ],
      [
        "▁combinatie",
        -9.216895032361645
      ],
      [
        "▁waarde",
        -9.217320273965358
      ],
      [
        "▁toekomst",
        -9.217373294671543
      ],
      [
        "▁appartement",
        -9.218295713809084
      ],
      [
        "▁kost",
        -9.218698340985013
      ],
      [
        "▁vorige",
        -9.219352039928925
      ],
      [
        "▁km",
        -9.220708694827355
      ],
      [
        "▁perfect",
        -9.221541018002426
      ],
      [
        "▁huidige",
        -9.223376198568557
      ],
      [
        "▁zag",
        -9.224438157905418
      ],
      [
        "▁zien.",
        -9.22763025209139
      ],
      [
        "▁beginnen",
        -9.229393445263188
      ],
      [
        "▁kunst",
        -9.229610966348385
      ],
      [
        "▁Misschien",
        -9.231413546228811
      ],
      [
        "▁sociale",
        -9.235726811016065
      ],
      [
        "▁inmiddels",
        -9.236340829445911
      ],
      [
        "▁periode",
        -9.237160292507856
      ],
      [
        "▁Verder",
        -9.237789510504285
      ],
      [
        "▁Toen",
        -9.238815543472418
      ],
      [
        "▁[...]",
        -9.24038965714973
      ],
      [
        "▁meestal",
        -9.240580538203686
      ],
      [
        "▁eenvoudig",
        -9.242824543522666
      ],
      [
        "▁ja",
        -9.24330091406076
      ],
      [
        "▁weekend",
        -9.245553771623678
      ],
      [
        "▁'t",
        -9.245841948997004
      ],
      [
        "▁pagina",
        -9.245854470866714
      ],
      [
        "▁meter",
        -9.248915361872475
      ],
      [
        "▁medewerkers",
        -9.248963013727089
      ],
      [
        "▁service",
        -9.250963072921998
      ],
      [
        "A",
        -9.252325572441102
      ],
      [
        "­",
        -9.252601238877041
      ],
      [
        "W",
        -9.254584331160043
      ],
      [
        "▁richting",
        -9.254599961487745
      ],
      [
        "▁nacht",
        -9.254937516813182
      ],
      [
        "ro",
        -9.255688586183325
      ],
      [
        "_",
        -9.256536890646876
      ],
      [
        "▁samenwerking",
        -9.257319224523796
      ],
      [
        "▁daarbij",
        -9.257374935288139
      ],
      [
        "ra",
        -9.258736455384996
      ],
      [
        "▁fiets",
        -9.259184915115474
      ],
      [
        "▁Kijk",
        -9.260720778794399
      ],
      [
        "▁plezier",
        -9.260933910456798
      ],
      [
        "▁plan",
        -9.261435546676076
      ],
      [
        "▁video",
        -9.268419565795327
      ],
      [
        "▁diensten",
        -9.271828877272654
      ],
      [
        "▁1.",
        -9.272638276440714
      ],
      [
        "▁data",
        -9.272840538121102
      ],
      [
        "▁derde",
        -9.272957569114858
      ],
      [
        "▁Hotel",
        -9.274766978170604
      ],
      [
        "▁waarmee",
        -9.275401403940815
      ],
      [
        "▁slecht",
        -9.276600245725858
      ],
      [
        "▁hond",
        -9.276835356136887
      ],
      [
        "▁links",
        -9.277496409866187
      ],
      [
        "▁handen",
        -9.27759876369503
      ],
      [
        "▁geldt",
        -9.280237668363798
      ],
      [
        "▁neem",
        -9.281904071228428
      ],
      [
        "▁Zie",
        -9.28193093644861
      ],
      [
        "▁allerlei",
        -9.282144532882679
      ],
      [
        "▁La",
        -9.28232605900568
      ],
      [
        "▁moeite",
        -9.282340499445361
      ],
      [
        "▁maakte",
        -9.284546709126264
      ],
      [
        "▁wedstrijd",
        -9.285215501957738
      ],
      [
        "aan",
        -9.285549383042316
      ],
      [
        "▁gemakkelijk",
        -9.285566497984078
      ],
      [
        "▁40",
        -9.287070393637823
      ],
      [
        "▁Europese",
        -9.28897689881391
      ],
      [
        "ij",
        -9.290452439592993
      ],
      [
        "▁29",
        -9.29088470349988
      ],
      [
        "▁aanwezig",
        -9.291442423829501
      ],
      [
        "▁dicht",
        -9.293372979980175
      ],
      [
        "▁bestaan",
        -9.296099865469934
      ],
      [
        "▁koffie",
        -9.29624466109978
      ],
      [
        "▁seizoen",
        -9.296706742020739
      ],
      [
        "▁wens",
        -9.29724016642615
      ],
      [
        "▁helaas",
        -9.298260587258426
      ],
      [
        "▁belangrijke",
        -9.29923422301173
      ],
      [
        "▁voordat",
        -9.299264096255126
      ],
      [
        "bare",
        -9.299592957420565
      ],
      [
        "▁toegang",
        -9.299925732689065
      ],
      [
        "▁Toch",
        -9.30005812700724
      ],
      [
        "▁systeem",
        -9.30011056089052
      ],
      [
        "▁geweldige",
        -9.300563303095498
      ],
      [
        "door",
        -9.301152442761794
      ],
      [
        "D",
        -9.301893781972064
      ],
      [
        "straat",
        -9.30398132939149
      ],
      [
        "▁vrijdag",
        -9.306302620059057
      ],
      [
        "▁nummer",
        -9.307267885673571
      ],
      [
        "▁actie",
        -9.307642037939
      ],
      [
        "Ik",
        -9.309118910128348
      ],
      [
        "▁2012",
        -9.310267612115974
      ],
      [
        "▁praktijk",
        -9.311069110047303
      ],
      [
        "▁standaard",
        -9.31126099870144
      ],
      [
        "▁Alles",
        -9.313403792863863
      ],
      [
        "▁wensen",
        -9.31460877429782
      ],
      [
        "▁bezoek",
        -9.314814114977018
      ],
      [
        "▁onderwijs",
        -9.319826279138939
      ],
      [
        "▁v",
        -9.321386045944239
      ],
      [
        "▁oplossing",
        -9.321774444620827
      ],
      [
        "▁mogelijkheid",
        -9.322280177689127
      ],
      [
        "▁warm",
        -9.322535066539096
      ],
      [
        "G",
        -9.322700495260525
      ],
      [
        "▁Nog",
        -9.323166357601803
      ],
      [
        "▁landen",
        -9.323500749298262
      ],
      [
        "▁prijzen",
        -9.324130405104682
      ],
      [
        "to",
        -9.324180458038803
      ],
      [
        "▁wachten",
        -9.325354202896264
      ],
      [
        "▁Rotterdam",
        -9.325424341304311
      ],
      [
        "▁bed",
        -9.326412768858646
      ],
      [
        "▁sport",
        -9.328403894086183
      ],
      [
        "atie",
        -9.328739994988883
      ],
      [
        "▁maat",
        -9.329180887981359
      ],
      [
        "▁niemand",
        -9.329396290226683
      ],
      [
        "▁ontvangen",
        -9.32975013704154
      ],
      [
        "▁zet",
        -9.33177126552496
      ],
      [
        "▁gek",
        -9.332283808993886
      ],
      [
        "▁ervan",
        -9.336632369356655
      ],
      [
        "▁2013",
        -9.338968690071642
      ],
      [
        "5",
        -9.33967522976323
      ],
      [
        "▁Onder",
        -9.340185201486577
      ],
      [
        "▁partijen",
        -9.340542950092786
      ],
      [
        "▁her",
        -9.342654051000697
      ],
      [
        "▁„",
        -9.342805207171141
      ],
      [
        "▁last",
        -9.348297118614344
      ],
      [
        "▁Europa",
        -9.352595466048447
      ],
      [
        "6",
        -9.35309458877343
      ],
      [
        "▁resultaat",
        -9.353298126596165
      ],
      [
        "▁oog",
        -9.353989395493059
      ],
      [
        "▁koop",
        -9.35533628296438
      ],
      [
        "af",
        -9.356579431737782
      ],
      [
        "▁rust",
        -9.356980300742123
      ],
      [
        "▁belang",
        -9.35846097329916
      ],
      [
        "▁vader",
        -9.358648114523225
      ],
      [
        "▁winkel",
        -9.358938700427888
      ],
      [
        "▁kracht",
        -9.35925385687454
      ],
      [
        "▁vanwege",
        -9.359268999035432
      ],
      [
        "▁Google",
        -9.360014738052286
      ],
      [
        "E",
        -9.364007061288232
      ],
      [
        "▁stap",
        -9.365417352157625
      ],
      [
        "8",
        -9.365719286903559
      ],
      [
        "▁persoonlijk",
        -9.366690309992737
      ],
      [
        "▁Le",
        -9.367325244859408
      ],
      [
        "▁centrum",
        -9.367588004417222
      ],
      [
        "gen",
        -9.368061715306688
      ],
      [
        "▁Zoals",
        -9.368074947784606
      ],
      [
        "▁versie",
        -9.36814109770338
      ],
      [
        "▁succes",
        -9.36904549404
      ],
      [
        "▁o.a.",
        -9.369127563058461
      ],
      [
        "▁0",
        -9.369293364237883
      ],
      [
        "’n",
        -9.369682685498466
      ],
      [
        "▁zat",
        -9.369982862817343
      ],
      [
        "▁vinden.",
        -9.37020481932722
      ],
      [
        "▁geweldig",
        -9.371176800688698
      ],
      [
        "▁Tot",
        -9.372096909679264
      ],
      [
        "▁verschil",
        -9.373903002446177
      ],
      [
        "▁geven.",
        -9.375166435966975
      ],
      [
        "▁tevreden",
        -9.376193523151295
      ],
      [
        "▁maandag",
        -9.377004488175924
      ],
      [
        "▁middel",
        -9.377368690031698
      ],
      [
        "▁mis",
        -9.378040528315248
      ],
      [
        "▁Klik",
        -9.378763290894227
      ],
      [
        "▁Heeft",
        -9.379602281204885
      ],
      [
        "▁overzicht",
        -9.381564198076749
      ],
      [
        "▁volgt",
        -9.381945354820322
      ],
      [
        "▁daarmee",
        -9.382626941053475
      ],
      [
        "▁konden",
        -9.382669634369414
      ],
      [
        "▁hoor",
        -9.382766407073337
      ],
      [
        "▁gezellig",
        -9.384903167753471
      ],
      [
        "▁voorbeeld",
        -9.385100639966625
      ],
      [
        "▁Vanaf",
        -9.386053256923903
      ],
      [
        "len",
        -9.38685699319537
      ],
      [
        "▁maximaal",
        -9.388884862546277
      ],
      [
        "▁geloof",
        -9.389766367985139
      ],
      [
        "▁feit",
        -9.390504213737524
      ],
      [
        "▁Alleen",
        -9.392174596063093
      ],
      [
        "▁partij",
        -9.392730765929372
      ],
      [
        "co",
        -9.395060476911375
      ],
      [
        "▁to",
        -9.395315555615316
      ],
      [
        "▁zaak",
        -9.396435099145005
      ],
      [
        "me",
        -9.396557156435552
      ],
      [
        "▁gelukkig",
        -9.397061633991775
      ],
      [
        "”,",
        -9.397817024073326
      ],
      [
        "▁huid",
        -9.397956464079005
      ],
      [
        "▁e-mail",
        -9.39921374890515
      ],
      [
        "▁spel",
        -9.399596267164354
      ],
      [
        "▁krijgen.",
        -9.401174898323262
      ],
      [
        "▁model",
        -9.401810153168801
      ],
      [
        "▁deed",
        -9.402740513906254
      ],
      [
        "▁foto’s",
        -9.403812424251122
      ],
      [
        "▁2.",
        -9.405213711329841
      ],
      [
        "▁bedrag",
        -9.405337207040542
      ],
      [
        "▁gevallen",
        -9.406695259706229
      ],
      [
        "▁komende",
        -9.407684076315062
      ],
      [
        "▁heerlijke",
        -9.408960885743213
      ],
      [
        "H",
        -9.412243673792577
      ],
      [
        "B",
        -9.412416170208914
      ],
      [
        "▁overeenkomst",
        -9.412575110071739
      ],
      [
        "”.",
        -9.413287403109841
      ],
      [
        "▁hotels",
        -9.413957719814475
      ],
      [
        "▁bouw",
        -9.414465274956004
      ],
      [
        "▁situatie",
        -9.414831472495457
      ],
      [
        "▁+",
        -9.415834725725537
      ],
      [
        "▁ergens",
        -9.415902094744677
      ],
      [
        "▁#",
        -9.416292878104462
      ],
      [
        "▁kwamen",
        -9.417133808211418
      ],
      [
        "▁stand",
        -9.418957742800885
      ],
      [
        "▁dacht",
        -9.419447648830552
      ],
      [
        "▁Nederlands",
        -9.419884381114938
      ],
      [
        "▁geschreven",
        -9.42096884165607
      ],
      [
        "▁voorwaarden",
        -9.422135563978088
      ],
      [
        "per",
        -9.4221604796587
      ],
      [
        "▁Uw",
        -9.42218542662928
      ],
      [
        "▁soorten",
        -9.423271062034805
      ],
      [
        "▁gebeurt",
        -9.423330882063631
      ],
      [
        "▁telefoon",
        -9.423760542974868
      ],
      [
        "▁loopt",
        -9.424157873049497
      ],
      [
        "▁ontwikkeling",
        -9.42425281234525
      ],
      [
        "▁wist",
        -9.424441745783778
      ],
      [
        "ia",
        -9.425329614736878
      ],
      [
        "lo",
        -9.425645209431874
      ],
      [
        "em",
        -9.426841764251396
      ],
      [
        "▁houden.",
        -9.428374020261241
      ],
      [
        "▁slag",
        -9.428440635443415
      ],
      [
        "▁Maak",
        -9.43038888748424
      ],
      [
        "▁uiteraard",
        -9.434205889675997
      ],
      [
        "▁onderdeel",
        -9.43547455719267
      ],
      [
        "7",
        -9.435741054604776
      ],
      [
        "▁actief",
        -9.4357765926217
      ],
      [
        "▁gezegd",
        -9.437957986942195
      ],
      [
        "▁mail",
        -9.438533025530283
      ],
      [
        "▁rustig",
        -9.438944588687608
      ],
      [
        "▁(en",
        -9.44111816222537
      ],
      [
        "▁Vandaag",
        -9.442139754433846
      ],
      [
        "▁veilig",
        -9.44368665938526
      ],
      [
        "▁staan.",
        -9.443930195510333
      ],
      [
        "persoonsgegevens",
        -9.444499630218708
      ],
      [
        "▁helpt",
        -9.445102788976143
      ],
      [
        "▁vormen",
        -9.445305589871118
      ],
      [
        "tijd",
        -9.44616676019783
      ],
      [
        "▁g",
        -9.446531930241306
      ],
      [
        "mo",
        -9.447596043428941
      ],
      [
        "▁zee",
        -9.447998027754533
      ],
      [
        "▁stelt",
        -9.448285389589412
      ],
      [
        "▁Facebook",
        -9.448930367699386
      ],
      [
        "▁bijzondere",
        -9.449988292324758
      ],
      [
        "voor",
        -9.45237803986079
      ],
      [
        "-19",
        -9.452985488518474
      ],
      [
        "▁midden",
        -9.453449228515222
      ],
      [
        "▁computer",
        -9.453478288279005
      ],
      [
        "▁opdracht",
        -9.453560057921798
      ],
      [
        "▁gehouden",
        -9.455614063471582
      ],
      [
        "▁risico",
        -9.45900860382412
      ],
      [
        "▁hiervoor",
        -9.459445492065923
      ],
      [
        "▁betalen",
        -9.459801069762197
      ],
      [
        "▁link",
        -9.460355511070201
      ],
      [
        "▁band",
        -9.460868811995423
      ],
      [
        "▁enorm",
        -9.461190243626714
      ],
      [
        "▁Amerikaanse",
        -9.462382747650551
      ],
      [
        "▁rechts",
        -9.462597645922148
      ],
      [
        "▁daarvan",
        -9.463039142059358
      ],
      [
        "pen",
        -9.463468184952234
      ],
      [
        "▁zon",
        -9.463724452055384
      ],
      [
        "\".",
        -9.463922703822297
      ],
      [
        "elijk",
        -9.463965246469646
      ],
      [
        "▁schrijven",
        -9.464471112403132
      ],
      [
        "ur",
        -9.466997914531902
      ],
      [
        "K",
        -9.469463503697629
      ],
      [
        "▁verkoop",
        -9.470856270158068
      ],
      [
        "ca",
        -9.47182822030808
      ],
      [
        "▁mee.",
        -9.472033077501717
      ],
      [
        "ingen",
        -9.472882629661703
      ],
      [
        "▁vallen",
        -9.474035490181183
      ],
      [
        "▁vertellen",
        -9.474647677692811
      ],
      [
        "▁31",
        -9.475162407206383
      ],
      [
        "▁gemaakt.",
        -9.476129933304854
      ],
      [
        "▁algemene",
        -9.477387730734911
      ],
      [
        "▁voorbij",
        -9.47807921080216
      ],
      [
        "▁zwarte",
        -9.478297908511998
      ],
      [
        "▁info",
        -9.479464264314828
      ],
      [
        "▁sfeer",
        -9.480950754335982
      ],
      [
        "▁hoger",
        -9.48108873625354
      ],
      [
        "▁gevonden",
        -9.483097719915229
      ],
      [
        "▁nemen.",
        -9.48360368414432
      ],
      [
        "▁termijn",
        -9.48362912732643
      ],
      [
        "F",
        -9.483779173132952
      ],
      [
        "▁handig",
        -9.48527670504248
      ],
      [
        "▁algemeen",
        -9.485532035662771
      ],
      [
        "▁bevat",
        -9.487092823470984
      ],
      [
        "▁woensdag",
        -9.487716478927739
      ],
      [
        "▁tien",
        -9.489223593294586
      ],
      [
        "▁Naast",
        -9.491129838265717
      ],
      [
        "▁opleiding",
        -9.491666063007125
      ],
      [
        "▁Hotels",
        -9.491823527924222
      ],
      [
        "’,",
        -9.492426288802998
      ],
      [
        "▁DE",
        -9.492601319922382
      ],
      [
        "▁gesprek",
        -9.492982396764418
      ],
      [
        "▁regels",
        -9.49375982581398
      ],
      [
        "am",
        -9.49419695916597
      ],
      [
        "▁liever",
        -9.495081013811191
      ],
      [
        "▁fijne",
        -9.49540663252366
      ],
      [
        "▁halen",
        -9.496957247132897
      ],
      [
        "▁dieren",
        -9.497147221099254
      ],
      [
        "▁rijden",
        -9.497433377645471
      ],
      [
        "ische",
        -9.497698461080937
      ],
      [
        "▁overal",
        -9.498591620185863
      ],
      [
        "▁mening",
        -9.500215138406217
      ],
      [
        "▁daarvoor",
        -9.50111300056821
      ],
      [
        "▁toepassing",
        -9.502264363271703
      ],
      [
        "▁jongens",
        -9.50246847403222
      ],
      [
        "▁vriend",
        -9.503351884916185
      ],
      [
        "V",
        -9.503771146131506
      ],
      [
        "▁witte",
        -9.50404114218772
      ],
      [
        "▁etc.",
        -9.504449488896233
      ],
      [
        "▁Super",
        -9.504607651823335
      ],
      [
        "▁re",
        -9.504981168688076
      ],
      [
        "▁Te",
        -9.505654378866819
      ],
      [
        "▁bedoeld",
        -9.506916695594487
      ],
      [
        "▁speciaal",
        -9.507157769172881
      ],
      [
        "▁strand",
        -9.507219106183893
      ],
      [
        "▁begon",
        -9.50968689439463
      ],
      [
        "▁speciale",
        -9.510197195592283
      ],
      [
        "▁vraagt",
        -9.51221417306792
      ],
      [
        "ja",
        -9.512226786110372
      ],
      [
        "▁loop",
        -9.512625470535855
      ],
      [
        "▁leer",
        -9.51345398787457
      ],
      [
        "▁bezoekers",
        -9.515116847532589
      ],
      [
        "▁punt",
        -9.516420994012226
      ],
      [
        "▁donderdag",
        -9.51732435990936
      ],
      [
        "▁winter",
        -9.51797432819163
      ],
      [
        "▁trouwens",
        -9.518081374482069
      ],
      [
        "N",
        -9.518499012346975
      ],
      [
        "um",
        -9.518966381657943
      ],
      [
        "▁én",
        -9.519209690577096
      ],
      [
        "▁volgen",
        -9.521418540486764
      ],
      [
        "ta",
        -9.523245900923126
      ],
      [
        "▁bank",
        -9.523317278909136
      ],
      [
        "no",
        -9.524311758427551
      ],
      [
        "▁geworden",
        -9.524834286869103
      ],
      [
        "▁Haag",
        -9.524836981525443
      ],
      [
        "▁software",
        -9.525256096341943
      ],
      [
        "'.",
        -9.525396354339861
      ],
      [
        "▁2010",
        -9.527544257314963
      ],
      [
        "▁serie",
        -9.52902992500322
      ],
      [
        "di",
        -9.530215696416107
      ],
      [
        "▁wet",
        -9.531418676405167
      ],
      [
        "▁Restaurants",
        -9.53230666915939
      ],
      [
        "▁deur",
        -9.532561655620317
      ],
      [
        "M",
        -9.53324593354354
      ],
      [
        "▁benieuwd",
        -9.535957002605278
      ],
      [
        "▁ruime",
        -9.538222288479743
      ],
      [
        "▁groter",
        -9.538255200714978
      ],
      [
        "▁reacties",
        -9.538502056053227
      ],
      [
        "C",
        -9.538611093306578
      ],
      [
        "▁past",
        -9.538933870595745
      ],
      [
        "▁belangrijkste",
        -9.542958682125853
      ],
      [
        "-18",
        -9.544718532782525
      ],
      [
        "▁taal",
        -9.544830992216502
      ],
      [
        "▁functie",
        -9.545592707048446
      ],
      [
        "▁2011",
        -9.546092845649063
      ],
      [
        "▁punten",
        -9.546338979061293
      ],
      [
        "▁denkt",
        -9.54689632883979
      ],
      [
        "▁volledige",
        -9.547101781275675
      ],
      [
        "▁voelt",
        -9.547393114248205
      ],
      [
        "▁leveren",
        -9.547599480634938
      ],
      [
        "▁geplaatst",
        -9.54854955963292
      ],
      [
        "▁Mooi",
        -9.549084988610725
      ],
      [
        "▁Goed",
        -9.549586115131113
      ],
      [
        "▁zeg",
        -9.549674065167636
      ],
      [
        "▁ontwerp",
        -9.550078205498604
      ],
      [
        "▁60",
        -9.550081507821023
      ],
      [
        "▁bepaald",
        -9.554754864305174
      ],
      [
        "▁bekende",
        -9.554791368580682
      ],
      [
        "▁feest",
        -9.555448028134379
      ],
      [
        "▁snelle",
        -9.555788255337546
      ],
      [
        "▁voorkomen",
        -9.556267238258346
      ],
      [
        "▁niveau",
        -9.556919931597394
      ],
      [
        "▁betrekking",
        -9.55708996965339
      ],
      [
        "▁liefst",
        -9.557526305030063
      ],
      [
        "▁cursus",
        -9.558034757200417
      ],
      [
        "▁dank",
        -9.5583927758792
      ],
      [
        "▁gasten",
        -9.560569688545602
      ],
      [
        "over",
        -9.560822549351013
      ],
      [
        "▁kerk",
        -9.560827270246433
      ],
      [
        "▁unieke",
        -9.563157807207443
      ],
      [
        "▁geef",
        -9.564539538271518
      ],
      [
        "▁Zorg",
        -9.56696309753757
      ],
      [
        "▁speelt",
        -9.568324589783387
      ],
      [
        "▁brengt",
        -9.568717543010049
      ],
      [
        "▁aanbod",
        -9.568859345014914
      ],
      [
        "▁invloed",
        -9.56906817012035
      ],
      [
        "▁lokale",
        -9.56925418551726
      ],
      [
        "▁mocht",
        -9.569262497896393
      ],
      [
        "ly",
        -9.571580158693006
      ],
      [
        "heden",
        -9.571797742832759
      ],
      [
        "▁stukje",
        -9.571827643406507
      ],
      [
        "▁Ja,",
        -9.571866401065014
      ],
      [
        "▁overheid",
        -9.571922372260396
      ],
      [
        "▁afspraak",
        -9.571975323465544
      ],
      [
        "▁België",
        -9.572102197102023
      ],
      [
        "▁korting",
        -9.572707242641666
      ],
      [
        "▁Bovendien",
        -9.57279055685292
      ],
      [
        "▁vaker",
        -9.574533117206155
      ],
      [
        "▁moderne",
        -9.574659041604686
      ],
      [
        "▁»",
        -9.575072311123595
      ],
      [
        "▁pijn",
        -9.575259102774899
      ],
      [
        "▁partner",
        -9.575420468451739
      ],
      [
        "▁X",
        -9.5788232232899
      ],
      [
        "▁Welke",
        -9.579092498590935
      ],
      [
        "▁ervaren",
        -9.579869537440812
      ],
      [
        "▁leerlingen",
        -9.580626845675512
      ],
      [
        "▁gekozen",
        -9.580898683394004
      ],
      [
        "▁lijst",
        -9.581605520196167
      ],
      [
        "▁verblijf",
        -9.581678352590831
      ],
      [
        "▁bestelling",
        -9.581873292296157
      ],
      [
        "▁vroeger",
        -9.581941484404862
      ],
      [
        "uw",
        -9.588590925934568
      ],
      [
        "▁gezond",
        -9.588707755333571
      ],
      [
        "▁uit.",
        -9.588933606856216
      ],
      [
        "▁post",
        -9.589633471085575
      ],
      [
        "▁artikelen",
        -9.59001620419395
      ],
      [
        "▁schoon",
        -9.590045869771703
      ],
      [
        "ri",
        -9.590124819834932
      ],
      [
        "▁Zeer",
        -9.590299697853332
      ],
      [
        "▁dagelijks",
        -9.59055005754408
      ],
      [
        "nadat",
        -9.59095846754262
      ],
      [
        "▁procent",
        -9.59526083771803
      ],
      [
        "▁mm",
        -9.595367247780736
      ],
      [
        "▁minimaal",
        -9.595612271952643
      ],
      [
        "▁100%",
        -9.59748945315609
      ],
      [
        "▁communicatie",
        -9.59772312751149
      ],
      [
        "▁hoeveel",
        -9.59795467171841
      ],
      [
        "▁perfecte",
        -9.598779829444918
      ],
      [
        "▁Co",
        -9.598860126386835
      ],
      [
        "▁wijn",
        -9.599659215900505
      ],
      [
        "▁gingen",
        -9.599922013701747
      ],
      [
        "▁Windows",
        -9.601323747508355
      ],
      [
        "▁name",
        -9.601627816285916
      ],
      [
        "▁stappen",
        -9.60249248247495
      ],
      [
        "▁ontstaan",
        -9.602493902203886
      ],
      [
        "▁politiek",
        -9.60532043934
      ],
      [
        "▁begonnen",
        -9.605706544871229
      ],
      [
        "▁gevolg",
        -9.605897197059857
      ],
      [
        "boek",
        -9.606489771340993
      ],
      [
        "il",
        -9.60680451191716
      ],
      [
        "▁kop",
        -9.609200185491092
      ],
      [
        "▁kennen",
        -9.609331324629483
      ],
      [
        "▁verwacht",
        -9.60935734248839
      ],
      [
        "▁laag",
        -9.6096638920246
      ],
      [
        "ga",
        -9.6097684113487
      ],
      [
        "▁Activiteiten",
        -9.610221732808284
      ],
      [
        "▁morgen",
        -9.610460431105398
      ],
      [
        "mm",
        -9.611899882894516
      ],
      [
        "▁uitvoering",
        -9.614007128946655
      ],
      [
        "▁ja,",
        -9.614677101977033
      ],
      [
        "▁resultaten",
        -9.615312276174507
      ],
      [
        "▁vlees",
        -9.615827586001597
      ],
      [
        "▁tafel",
        -9.61609200924237
      ],
      [
        "▁betrokken",
        -9.617789392879612
      ],
      [
        "▁verplicht",
        -9.617881823380428
      ],
      [
        "▁smaak",
        -9.61945730692791
      ],
      [
        "▁Utrecht",
        -9.619656904595553
      ],
      [
        "▁bleek",
        -9.620529647716959
      ],
      [
        "▁bloed",
        -9.620891231812118
      ],
      [
        "▁privacy",
        -9.621335109258583
      ],
      [
        "▁zover",
        -9.622091226779224
      ],
      [
        "▁app",
        -9.623481947609427
      ],
      [
        "▁kent",
        -9.623938981520181
      ],
      [
        "▁Net",
        -9.625024755925798
      ],
      [
        "▁studie",
        -9.627154938885052
      ],
      [
        "▁gekregen",
        -9.627387277260018
      ],
      [
        "▁daardoor",
        -9.627879768941558
      ],
      [
        "▁bestuur",
        -9.62811744483973
      ],
      [
        "▁inclusief",
        -9.628400620762445
      ],
      [
        "▁strijd",
        -9.628492497926453
      ],
      [
        "▁vis",
        -9.62935332138717
      ],
      [
        "▁vaste",
        -9.629571322932305
      ],
      [
        "▁duur",
        -9.630646793581551
      ],
      [
        "▁geschiedenis",
        -9.630925353774849
      ],
      [
        "▁doen,",
        -9.633292486965072
      ],
      [
        "▁bestaande",
        -9.635556172766147
      ],
      [
        "▁verlies",
        -9.63614159733292
      ],
      [
        "do",
        -9.637477239261479
      ],
      [
        "of",
        -9.63761426600692
      ],
      [
        "P",
        -9.638093175176078
      ],
      [
        "▁and",
        -9.639281440864096
      ],
      [
        "▁straat",
        -9.639495668251781
      ],
      [
        "▁mede",
        -9.63968138068783
      ],
      [
        "eerd",
        -9.640259535141574
      ],
      [
        "▁vertrouwen",
        -9.640410604618666
      ],
      [
        "▁immers",
        -9.641100593793313
      ],
      [
        "▁inhoud",
        -9.641279944748177
      ],
      [
        "▁Natuurlijk",
        -9.642776263444581
      ],
      [
        "▁overigens",
        -9.643629532911154
      ],
      [
        "▁stem",
        -9.643936144454008
      ],
      [
        "as",
        -9.644183425716117
      ],
      [
        "aar",
        -9.644509172088462
      ],
      [
        "▁leggen",
        -9.644567133198095
      ],
      [
        "▁gebruikers",
        -9.645123946709097
      ],
      [
        "▁adres",
        -9.64551393504989
      ],
      [
        "▁Leuk",
        -9.645591907644594
      ],
      [
        "▁neer",
        -9.646623581831241
      ],
      [
        "▁Peter",
        -9.647642382943513
      ],
      [
        "▁gebruiken.",
        -9.648927479689455
      ],
      [
        "ul",
        -9.651037985012994
      ],
      [
        "▁momenteel",
        -9.651064973686385
      ],
      [
        "▁Maria",
        -9.651573656986962
      ],
      [
        "os",
        -9.651748483537226
      ],
      [
        "ti",
        -9.651858391802762
      ],
      [
        "▁2009",
        -9.652496493773032
      ],
      [
        "▁hoort",
        -9.652563086269843
      ],
      [
        "▁namen",
        -9.653338697614899
      ],
      [
        "▁materiaal",
        -9.65341220580055
      ],
      [
        "pe",
        -9.653772286124358
      ],
      [
        "▁Nieuwe",
        -9.653879470360229
      ],
      [
        "▁publiek",
        -9.656315041876882
      ],
      [
        "▁Nou",
        -9.656366501670236
      ],
      [
        "▁bedrijfs",
        -9.656920824610237
      ],
      [
        "▁zwart",
        -9.658261749368055
      ],
      [
        "▁vorig",
        -9.659701769679598
      ],
      [
        "▁baby",
        -9.660735388791059
      ],
      [
        "▁Gebruik",
        -9.661806670980475
      ],
      [
        "▁ouder",
        -9.661914361940067
      ],
      [
        "▁di",
        -9.663183170659678
      ],
      [
        "▁allen",
        -9.663397182089449
      ],
      [
        "▁thema",
        -9.66352838461454
      ],
      [
        "▁betreffende",
        -9.663725988464522
      ],
      [
        "▁J",
        -9.663802959301119
      ],
      [
        "recht",
        -9.664443157063719
      ],
      [
        "▁betere",
        -9.665319800621702
      ],
      [
        "▁Elke",
        -9.665646162581815
      ],
      [
        "▁proces",
        -9.66656521742425
      ],
      [
        "▁financiële",
        -9.667303852592962
      ],
      [
        "%",
        -9.667457171466227
      ],
      [
        "▁bekijken",
        -9.667663258738258
      ],
      [
        "▁jaar.",
        -9.667686604855295
      ],
      [
        "▁genomen",
        -9.667875924070984
      ],
      [
        "▁steun",
        -9.668710583637477
      ],
      [
        "▁type",
        -9.668730184749345
      ],
      [
        "la",
        -9.669117449686924
      ],
      [
        "▁waaronder",
        -9.66954560806419
      ],
      [
        "▁personeel",
        -9.669572595056948
      ],
      [
        "▁zwaar",
        -9.670816991560665
      ],
      [
        "@",
        -9.671049870745009
      ],
      [
        ".....",
        -9.671511218066183
      ],
      [
        "▁jammer",
        -9.67305846087132
      ],
      [
        "▁controle",
        -9.673414612579396
      ],
      [
        "▁verhalen",
        -9.674825072062877
      ],
      [
        "▁belasting",
        -9.674853163502046
      ],
      [
        "▁klachten",
        -9.675034350262912
      ],
      [
        "▁deelnemers",
        -9.676037799917264
      ],
      [
        "▁3.",
        -9.677718335962613
      ],
      [
        "▁les",
        -9.677934884953725
      ],
      [
        "▁Gelukkig",
        -9.677942356287124
      ],
      [
        "▁milieu",
        -9.679770279359783
      ],
      [
        "▁Sinds",
        -9.681010173919972
      ],
      [
        "▁internationale",
        -9.681307620439508
      ],
      [
        "▁dinsdag",
        -9.68199829650547
      ],
      [
        "▁kamers",
        -9.683244056527295
      ],
      [
        "▁normaal",
        -9.683496710168546
      ],
      [
        "net",
        -9.684775364781618
      ],
      [
        "dat",
        -9.684998832721895
      ],
      [
        "▁p",
        -9.685668217712385
      ],
      [
        "ha",
        -9.686311654601543
      ],
      [
        "▁wellicht",
        -9.687092191654077
      ],
      [
        "▁werken.",
        -9.688613568788428
      ],
      [
        "▁netwerk",
        -9.689399674282972
      ],
      [
        "▁Mooie",
        -9.689911532964356
      ],
      [
        "▁Kamer",
        -9.69036132936071
      ],
      [
        "▁opdrachtgever",
        -9.6916089346478
      ],
      [
        "▁groen",
        -9.692496798024496
      ],
      [
        "▁Mo",
        -9.69374676558368
      ],
      [
        "▁ontzettend",
        -9.695225781807657
      ],
      [
        "▁regio",
        -9.695413285540912
      ],
      [
        "▁wit",
        -9.696036642094615
      ],
      [
        "▁luxe",
        -9.696776549131544
      ],
      [
        "▁sneller",
        -9.696910321512437
      ],
      [
        "▁brand",
        -9.697384259374505
      ],
      [
        "▁maken,",
        -9.697603984110506
      ],
      [
        "▁voet",
        -9.698817613308783
      ],
      [
        "▁vriendelijk",
        -9.699559948704575
      ],
      [
        "▁Iedereen",
        -9.700326896545832
      ],
      [
        "isch",
        -9.700938073816973
      ],
      [
        "▁stil",
        -9.701042874954204
      ],
      [
        "ad",
        -9.701062975187742
      ],
      [
        "tevens",
        -9.70129205046242
      ],
      [
        "▁gedurende",
        -9.701979281473957
      ],
      [
        "ir",
        -9.70213859472734
      ],
      [
        "▁Mar",
        -9.702165511908115
      ],
      [
        "9",
        -9.702329948727908
      ],
      [
        "▁marketing",
        -9.703375298986835
      ],
      [
        "▁vrije",
        -9.704379361122346
      ],
      [
        "▁gesteld",
        -9.704605525570056
      ],
      [
        "▁erop",
        -9.704995215968378
      ],
      [
        "▁jeugd",
        -9.70502361658649
      ],
      [
        "▁Denk",
        -9.70505182613095
      ],
      [
        "▁Helaas",
        -9.705098841428434
      ],
      [
        "ry",
        -9.705642191969623
      ],
      [
        "bouw",
        -9.707538601850736
      ],
      [
        "▁dames",
        -9.70767362076068
      ],
      [
        "▁sprake",
        -9.707904317780148
      ],
      [
        "▁baan",
        -9.708431837363936
      ],
      [
        "Z",
        -9.708806385300132
      ],
      [
        "▁vergeten",
        -9.709223044829034
      ],
      [
        "▁=",
        -9.709691547711618
      ],
      [
        "▁reeds",
        -9.70999949811191
      ],
      [
        "▁warme",
        -9.711045673471396
      ],
      [
        "▁worden,",
        -9.711244033067004
      ],
      [
        "▁Zou",
        -9.71243722900043
      ],
      [
        "▁beroep",
        -9.712441170504965
      ],
      [
        "ant",
        -9.712512003892376
      ],
      [
        "▁titel",
        -9.713736688591439
      ],
      [
        "▁cultuur",
        -9.713867039376979
      ],
      [
        "▁ervaringen",
        -9.714507581653638
      ],
      [
        "▁digitale",
        -9.715281267733506
      ],
      [
        "▁restaurant",
        -9.71636324873725
      ],
      [
        "tie",
        -9.716990439763157
      ],
      [
        "▁verzoek",
        -9.71711818017388
      ],
      [
        "▁stof",
        -9.717763289242338
      ],
      [
        "groep",
        -9.718523787555057
      ],
      [
        "▁honden",
        -9.718773149103033
      ],
      [
        "▁verband",
        -9.719064422488044
      ],
      [
        "▁gaf",
        -9.719625481589034
      ],
      [
        "zen",
        -9.720180397885573
      ],
      [
        "▁club",
        -9.720743525483117
      ],
      [
        "▁t/m",
        -9.723959764922352
      ],
      [
        "▁Nederland.",
        -9.724684038755598
      ],
      [
        "▁bedankt",
        -9.724984836771164
      ],
      [
        "▁eventueel",
        -9.725895975327159
      ],
      [
        "▁fout",
        -9.7267041825179
      ],
      [
        "ton",
        -9.727207455224551
      ],
      [
        "▁tegenwoordig",
        -9.727798826595714
      ],
      [
        "▁ondersteuning",
        -9.72781974733186
      ],
      [
        "li",
        -9.728750892692789
      ],
      [
        "▁jong",
        -9.729060493441951
      ],
      [
        "▁jongeren",
        -9.729951422583866
      ],
      [
        "▁gezin",
        -9.730153656386289
      ],
      [
        "▁welkom",
        -9.730276989682809
      ],
      [
        "▁Ons",
        -9.730404374299104
      ],
      [
        "▁hierbij",
        -9.730480659229496
      ],
      [
        "▁Pro",
        -9.730603132045784
      ],
      [
        "▁Daarna",
        -9.730644829605014
      ],
      [
        "▁glas",
        -9.73090340936983
      ],
      [
        "▁hieronder",
        -9.731502869792227
      ],
      [
        "ko",
        -9.732365920022254
      ],
      [
        "▁dragen",
        -9.732624299071565
      ],
      [
        "▁droog",
        -9.732631180051719
      ],
      [
        "▁rij",
        -9.734754842183381
      ],
      [
        "▁vervoer",
        -9.734983790942902
      ],
      [
        "*",
        -9.735319735108082
      ],
      [
        "▁enorme",
        -9.735986825485268
      ],
      [
        "▁helft",
        -9.73657488572606
      ],
      [
        "▁training",
        -9.73684128690872
      ],
      [
        "da",
        -9.737374120976373
      ],
      [
        "▁Via",
        -9.737385028311715
      ],
      [
        "centrum",
        -9.737776739492563
      ],
      [
        "▁Kom",
        -9.73853098885786
      ],
      [
        "▁eindelijk",
        -9.739185550635685
      ],
      [
        "▁acht",
        -9.739338615534633
      ],
      [
        "▁werkzaamheden",
        -9.739374829700145
      ],
      [
        "▁vervangen",
        -9.740074498018858
      ],
      [
        "▁Twee",
        -9.740573600607116
      ],
      [
        "les",
        -9.740675330786868
      ],
      [
        "▁gericht",
        -9.740715386344053
      ],
      [
        "▁erbij",
        -9.741940473387501
      ],
      [
        "EN",
        -9.743197302527609
      ],
      [
        "▁bar",
        -9.74362665881387
      ],
      [
        "▁gekomen",
        -9.74366289380141
      ],
      [
        "▁kantoor",
        -9.744411189372311
      ],
      [
        "▁hout",
        -9.744967194986273
      ],
      [
        "park",
        -9.745357099646226
      ],
      [
        "we",
        -9.745721400203985
      ],
      [
        "▁rode",
        -9.746099211310103
      ],
      [
        "▁vlak",
        -9.74677111831271
      ],
      [
        "punt",
        -9.749068776112484
      ],
      [
        "van",
        -9.74909217205161
      ],
      [
        "▁lastig",
        -9.749165393329243
      ],
      [
        "▁meisjes",
        -9.750532412288603
      ],
      [
        "▁passen",
        -9.751124782308551
      ],
      [
        "bedrijf",
        -9.75180998574331
      ],
      [
        "▁Dank",
        -9.75208916874833
      ],
      [
        "ings",
        -9.75287349424384
      ],
      [
        "▁gezellige",
        -9.753223629676018
      ],
      [
        "▁specifieke",
        -9.75452992198586
      ],
      [
        "sch",
        -9.755225357524083
      ],
      [
        "▁eeuw",
        -9.755339205135357
      ],
      [
        "▁gekocht",
        -9.755633118095421
      ],
      [
        "▁gevolgen",
        -9.755820926086756
      ],
      [
        "▁betaling",
        -9.758189757281148
      ],
      [
        "▁politieke",
        -9.758789546524454
      ],
      [
        "▁motor",
        -9.759487246401914
      ],
      [
        "▁leiden",
        -9.759500676922412
      ],
      [
        "lijk",
        -9.759838448996746
      ],
      [
        "▁onderhoud",
        -9.76040568262183
      ],
      [
        "▁compleet",
        -9.760868682553813
      ],
      [
        "▁qua",
        -9.761064612462613
      ],
      [
        "▁afhankelijk",
        -9.76127842093116
      ],
      [
        "▁'s",
        -9.761977896871562
      ],
      [
        "▁geweest.",
        -9.762184677824344
      ],
      [
        "▁merken",
        -9.762202013204124
      ],
      [
        "▁rechten",
        -9.762361130488706
      ],
      [
        "▁uitgebreid",
        -9.763340506239839
      ],
      [
        "▁kinder",
        -9.763592841506448
      ],
      [
        "▁meisje",
        -9.763833657819134
      ],
      [
        "▁volle",
        -9.764096210676714
      ],
      [
        "▁dienen",
        -9.764253494266281
      ],
      [
        "▁productie",
        -9.76463294297966
      ],
      [
        "lang",
        -9.765193129009432
      ],
      [
        "é",
        -9.766257056565198
      ],
      [
        "▁effect",
        -9.766432809479092
      ],
      [
        "▁natuurlijke",
        -9.768676915380649
      ],
      [
        "▁gedrag",
        -9.769245753921652
      ],
      [
        "▁alsof",
        -9.769443733601264
      ],
      [
        "▁toestemming",
        -9.769691979804943
      ],
      [
        "▁groene",
        -9.769722035647266
      ],
      [
        "0",
        -9.770026750547792
      ],
      [
        "▁onderdelen",
        -9.770067687205843
      ],
      [
        "▁levering",
        -9.772009524411166
      ],
      [
        "un",
        -9.772087799644638
      ],
      [
        "▁kilometer",
        -9.77251051801072
      ],
      [
        "go",
        -9.772800280817467
      ],
      [
        "10",
        -9.773816359329329
      ],
      [
        "▁2019",
        -9.773939207292633
      ],
      [
        "▁studenten",
        -9.774567369722138
      ],
      [
        "🙂",
        -9.774757001880886
      ],
      [
        "▁nodig.",
        -9.774776981403988
      ],
      [
        "▁brengen.",
        -9.774853543229025
      ],
      [
        "▁spreken",
        -9.775369438789262
      ],
      [
        "▁zetten.",
        -9.776431508795334
      ],
      [
        "▁Goede",
        -9.778464925229324
      ],
      [
        "▁mond",
        -9.778615394306904
      ],
      [
        "▁Samen",
        -9.778840305728608
      ],
      [
        "▁Mensen",
        -9.778867924729159
      ],
      [
        "▁professionele",
        -9.780038045790448
      ],
      [
        "▁Top",
        -9.780756093447927
      ],
      [
        "▁wind",
        -9.7815365441744
      ],
      [
        "eert",
        -9.781830914809795
      ],
      [
        "▁dak",
        -9.78266942425574
      ],
      [
        "▁groei",
        -9.783172577416153
      ],
      [
        "▁orde",
        -9.784882893036649
      ],
      [
        "▁zult",
        -9.784937064349503
      ],
      [
        "id",
        -9.785140664479771
      ],
      [
        "▁mogelijke",
        -9.785741301991854
      ],
      [
        "▁gedoopt",
        -9.786165985003638
      ],
      [
        "▁ontvangt",
        -9.787473223199296
      ],
      [
        ".’",
        -9.787527439758005
      ],
      [
        "▁he",
        -9.788625394552643
      ],
      [
        "▁Duitse",
        -9.788982924973675
      ],
      [
        "sel",
        -9.790158206557031
      ],
      [
        "▁Willem",
        -9.79062415608085
      ],
      [
        "▁duurt",
        -9.792278912086111
      ],
      [
        "\",",
        -9.792509002224614
      ],
      [
        "aal",
        -9.79284707188381
      ],
      [
        "▁Doe",
        -9.793168760082956
      ],
      [
        "▁test",
        -9.79326890185545
      ],
      [
        "▁Soms",
        -9.794183284728028
      ],
      [
        "▁ideaal",
        -9.794746172004674
      ],
      [
        "▁groepen",
        -9.795473535289638
      ],
      [
        "▁ziekte",
        -9.796589700249614
      ],
      [
        "val",
        -9.796640285999185
      ],
      [
        "▁automatisch",
        -9.797752133009073
      ],
      [
        "▁Zeker",
        -9.798023608161216
      ],
      [
        "▁gevraagd",
        -9.79992140481065
      ],
      [
        "▁zes",
        -9.799946194946672
      ],
      [
        "▁geluid",
        -9.800278023514316
      ],
      [
        "▁Beste",
        -9.80060170245195
      ],
      [
        "▁klik",
        -9.800690460907823
      ],
      [
        "▁onderwerp",
        -9.800724543741211
      ],
      [
        "▁>",
        -9.801306223349139
      ],
      [
        "▁(of",
        -9.803974943919357
      ],
      [
        "▁bereiken",
        -9.804825440915447
      ],
      [
        "▁bewust",
        -9.804950588946774
      ],
      [
        "schap",
        -9.805224820086785
      ],
      [
        "▁leven.",
        -9.805471837253165
      ],
      [
        "▁flink",
        -9.80570758374923
      ],
      [
        "▁beschikt",
        -9.806160195565113
      ],
      [
        "ling",
        -9.80622431158086
      ],
      [
        "▁sturen",
        -9.80623433221348
      ],
      [
        "▁levert",
        -9.806346237341995
      ],
      [
        "ler",
        -9.806681810796984
      ],
      [
        "▁eet",
        -9.806829079540826
      ],
      [
        "R",
        -9.807739929982542
      ],
      [
        "30",
        -9.809599825395855
      ],
      [
        "▁seks",
        -9.810149598822804
      ],
      [
        "mer",
        -9.810508591372784
      ],
      [
        "gehele",
        -9.810657964536198
      ],
      [
        "ion",
        -9.811336636940176
      ],
      [
        "▁mezelf",
        -9.811602099668843
      ],
      [
        "▁verleden",
        -9.811781035030073
      ],
      [
        "▁was.",
        -9.813451517238253
      ],
      [
        "▁gisteren",
        -9.813821869818266
      ],
      [
        "▁netjes",
        -9.813825726426705
      ],
      [
        "▁woon",
        -9.814675893357684
      ],
      [
        "▁inzicht",
        -9.816143803819429
      ],
      [
        "▁mooiste",
        -9.816919068327332
      ],
      [
        "▁ontbijt",
        -9.817384002350394
      ],
      [
        "▁Men",
        -9.817895101202568
      ],
      [
        "ker",
        -9.818163153134204
      ],
      [
        "▁kerst",
        -9.818194690096707
      ],
      [
        "▁dergelijke",
        -9.818941649002973
      ],
      [
        "▁kleding",
        -9.819735146739145
      ],
      [
        "▁Let",
        -9.819785644341469
      ],
      [
        "▁fruit",
        -9.820467843562714
      ],
      [
        "▁organisaties",
        -9.820694221796487
      ],
      [
        "eerde",
        -9.821689377528479
      ],
      [
        "Meer",
        -9.82414721119801
      ],
      [
        "▁rechter",
        -9.824655069431042
      ],
      [
        "▁stoppen",
        -9.825283597097648
      ],
      [
        "systeem",
        -9.826326534462297
      ],
      [
        "▁voelen",
        -9.826794942859355
      ],
      [
        "▁c",
        -9.82688699068141
      ],
      [
        "L",
        -9.82704366669099
      ],
      [
        "▁welk",
        -9.827539892298145
      ],
      [
        "▁camping",
        -9.827611554229398
      ],
      [
        "▁bloemen",
        -9.828516424646775
      ],
      [
        "▁badkamer",
        -9.828716587968707
      ],
      [
        "▁bus",
        -9.831247089304899
      ],
      [
        "▁dankzij",
        -9.83155632534766
      ],
      [
        "▁zwembad",
        -9.83177290568031
      ],
      [
        "09",
        -9.832725374286092
      ],
      [
        "▁sterke",
        -9.833701995711776
      ],
      [
        "▁ding",
        -9.833730868507315
      ],
      [
        "▁gemiddelde",
        -9.835074509876046
      ],
      [
        "▁levens",
        -9.835313308098566
      ],
      [
        "dra",
        -9.835364852663893
      ],
      [
        "▁min",
        -9.835426066942537
      ],
      [
        "▁interessant",
        -9.837027254220143
      ],
      [
        "▁lijn",
        -9.837791609303107
      ],
      [
        "▁olie",
        -9.839124392574014
      ],
      [
        "▁raad",
        -9.83914686875531
      ],
      [
        "▁Grote",
        -9.840028625243738
      ],
      [
        "▁slaap",
        -9.840283599343728
      ],
      [
        "▁:)",
        -9.840483199491793
      ],
      [
        "he",
        -9.841116793628562
      ],
      [
        "▁uitleg",
        -9.841280936878883
      ],
      [
        "ce",
        -9.842143911017885
      ],
      [
        "▁voetbal",
        -9.842199260124186
      ],
      [
        "▁liet",
        -9.842304068595046
      ],
      [
        "X",
        -9.842320669997537
      ],
      [
        "che",
        -9.842407813972532
      ],
      [
        "▁overleg",
        -9.843374447900217
      ],
      [
        "▁kregen",
        -9.843507291877113
      ],
      [
        "▁positieve",
        -9.843782094127587
      ],
      [
        "▁regering",
        -9.846022480157968
      ],
      [
        "▁heet",
        -9.847410283010342
      ],
      [
        "▁Park",
        -9.84751251423893
      ],
      [
        "zo",
        -9.848603928083076
      ],
      [
        "▁projecten",
        -9.848656579474177
      ],
      [
        "▁vers",
        -9.84958240378596
      ],
      [
        "▁kijkt",
        -9.849937852042228
      ],
      [
        "▁hiervan",
        -9.850011736791107
      ],
      [
        "▁hebben,",
        -9.85012455376518
      ],
      [
        "▁eventuele",
        -9.850125174254504
      ],
      [
        "▁Bedankt",
        -9.85037022306751
      ],
      [
        "▁(in",
        -9.85076476877527
      ],
      [
        "▁voordeel",
        -9.851547078461614
      ],
      [
        "▁slechte",
        -9.852905871280983
      ],
      [
        "▁geniet",
        -9.852991133975047
      ],
      [
        "▁eerlijk",
        -9.853009618465407
      ],
      [
        "lijn",
        -9.854703764985231
      ],
      [
        "▁Man",
        -9.85553104113918
      ],
      [
        "plaats",
        -9.855904702901597
      ],
      [
        "▁2008",
        -9.85604017259435
      ],
      [
        "▁reclame",
        -9.856601317904438
      ],
      [
        "▁toe.",
        -9.85687070146778
      ],
      [
        "▁papier",
        -9.85713668538898
      ],
      [
        "▁gebracht",
        -9.858500327724027
      ],
      [
        "▁Duitsland",
        -9.859158534262633
      ],
      [
        "▁onderstaande",
        -9.859462640688342
      ],
      [
        "▁80",
        -9.859514433230295
      ],
      [
        "▁gebaseerd",
        -9.860528731733066
      ],
      [
        "▁bang",
        -9.860861538654852
      ],
      [
        "▁gelezen",
        -9.861166817367629
      ],
      [
        "▁voorkeur",
        -9.861310242930049
      ],
      [
        "▁opnemen",
        -9.86197687002024
      ],
      [
        "▁rug",
        -9.862556502773495
      ],
      [
        "▁favoriete",
        -9.863970851904318
      ],
      [
        "▁gezet",
        -9.864370345532105
      ],
      [
        "▁aanvraag",
        -9.86463816789665
      ],
      [
        "▁vrijheid",
        -9.865005388728328
      ],
      [
        "▁design",
        -9.866163434233771
      ],
      [
        "▁redelijk",
        -9.867157091366426
      ],
      [
        "▁eenmaal",
        -9.867272583789148
      ],
      [
        "??",
        -9.868325933959333
      ],
      [
        "▁waard",
        -9.86839609445774
      ],
      [
        "▁overige",
        -9.868551310050979
      ],
      [
        "▁gedachten",
        -9.869093217512514
      ],
      [
        "▁nogal",
        -9.870526685628592
      ],
      [
        "ondanks",
        -9.870798132377775
      ],
      [
        "▁diep",
        -9.870898617151669
      ],
      [
        "▁zitten.",
        -9.872221791249359
      ],
      [
        "▁grotere",
        -9.872582743569959
      ],
      [
        "▁lage",
        -9.872597361973778
      ],
      [
        "▁discussie",
        -9.87324903730983
      ],
      [
        "sche",
        -9.874226010935946
      ],
      [
        "▁Nieuws",
        -9.874477383601189
      ],
      [
        "▁ronde",
        -9.875202481676029
      ],
      [
        "▁lekkere",
        -9.875975675096967
      ],
      [
        "▁Vooral",
        -9.876582343787884
      ],
      [
        "stand",
        -9.878227063717354
      ],
      [
        "veld",
        -9.878248022196928
      ],
      [
        "▁betaald",
        -9.879164502042165
      ],
      [
        "▁gerust",
        -9.879261375507623
      ],
      [
        "▁Echt",
        -9.881285165974365
      ],
      [
        "▁(19",
        -9.882031791260765
      ],
      [
        "▁opgenomen",
        -9.882109669841103
      ],
      [
        "▁Chris",
        -9.882463331618297
      ],
      [
        "s-",
        -9.883687295065794
      ],
      [
        "▁gelegenheid",
        -9.884169699333373
      ],
      [
        "loos",
        -9.884261515794098
      ],
      [
        "▁TV",
        -9.884262501453279
      ],
      [
        "wel",
        -9.884480439807025
      ],
      [
        "spel",
        -9.8858446360232
      ],
      [
        ".com",
        -9.886291291245465
      ],
      [
        "▁Hoewel",
        -9.886335472448057
      ],
      [
        "▁sta",
        -9.886501373170146
      ],
      [
        "▁vermogen",
        -9.88651211220155
      ],
      [
        "▁ideale",
        -9.886741702460569
      ],
      [
        "▁Was",
        -9.887426345834088
      ],
      [
        "ring",
        -9.88758035740757
      ],
      [
        "ina",
        -9.887747388909029
      ],
      [
        "▁bijdrage",
        -9.888735120682934
      ],
      [
        "▁Zelf",
        -9.8891669872311
      ],
      [
        "▁ideeën",
        -9.890094995680784
      ],
      [
        "▁kader",
        -9.890133023793183
      ],
      [
        "▁maatregelen",
        -9.890838000720247
      ],
      [
        "▁spelers",
        -9.892722640424022
      ],
      [
        "▁voel",
        -9.894173806126304
      ],
      [
        "▁dating",
        -9.895164387910437
      ],
      [
        "▁bovendien",
        -9.895229121632422
      ],
      [
        "son",
        -9.895756642803502
      ],
      [
        "▁route",
        -9.896391310840723
      ],
      [
        "▁volgende:",
        -9.897287446445084
      ],
      [
        "▁indruk",
        -9.897737085590608
      ],
      [
        "▁beperkt",
        -9.897873012198072
      ],
      [
        "▁Frankrijk",
        -9.898577318865687
      ],
      [
        "▁tenzij",
        -9.898605520556199
      ],
      [
        "▁gewicht",
        -9.898812042179305
      ],
      [
        "▁sex",
        -9.899138751508653
      ],
      [
        "▁slaapkamer",
        -9.900228756345776
      ],
      [
        "▁i",
        -9.900284216513246
      ],
      [
        "tische",
        -9.90147767543714
      ],
      [
        "▁besluit",
        -9.901548540466187
      ],
      [
        "▁af.",
        -9.901659786300176
      ],
      [
        "▁regen",
        -9.90174070798735
      ],
      [
        "▁brief",
        -9.90189927864363
      ],
      [
        "▁gedaan.",
        -9.90233469942589
      ],
      [
        "▁datum",
        -9.90234544805188
      ],
      [
        "▁oorlog",
        -9.902525644350085
      ],
      [
        "▁wonen",
        -9.903578202865335
      ],
      [
        "▁trots",
        -9.90416815353843
      ],
      [
        "▁minister",
        -9.904535919528925
      ],
      [
        "ba",
        -9.904792032479453
      ],
      [
        "▁winkels",
        -9.90505888182027
      ],
      [
        "▁verwachten",
        -9.905461114553685
      ],
      [
        "▁websites",
        -9.906580095770845
      ],
      [
        "▁verkopen",
        -9.906929443249844
      ],
      [
        "▁positief",
        -9.907114943351576
      ],
      [
        "▁nee",
        -9.908012598993178
      ],
      [
        "▁On",
        -9.908158361400337
      ],
      [
        "▁categorie",
        -9.908238690763561
      ],
      [
        "▁Ha",
        -9.908967833534343
      ],
      [
        "▁collectie",
        -9.909066210994016
      ],
      [
        "▁camera",
        -9.909170857824135
      ],
      [
        "▁plannen",
        -9.910304134466465
      ],
      [
        "▁stijl",
        -9.910705313221815
      ],
      [
        "ies",
        -9.911069302693354
      ],
      [
        "een",
        -9.911274585898784
      ],
      [
        "▁gezonde",
        -9.91183938184195
      ],
      [
        "▁rondom",
        -9.913175341375808
      ],
      [
        "▁voedsel",
        -9.913368709368287
      ],
      [
        "▁werking",
        -9.914108892612859
      ],
      [
        "50",
        -9.915556172340498
      ],
      [
        "▁alweer",
        -9.915711598130102
      ],
      [
        "▁bepalen",
        -9.916154887856244
      ],
      [
        "▁stel",
        -9.916920110929727
      ],
      [
        "▁planten",
        -9.91724486310531
      ],
      [
        "▁ontvangst",
        -9.917820271675726
      ],
      [
        "kamer",
        -9.918065824236965
      ],
      [
        "▁lief",
        -9.918084853765842
      ],
      [
        "gang",
        -9.919925574549454
      ],
      [
        "▁New",
        -9.919975509655902
      ],
      [
        "▁VS",
        -9.92047829327503
      ],
      [
        "kosten",
        -9.920811942434597
      ],
      [
        "▁huur",
        -9.921601601838569
      ],
      [
        "ft",
        -9.922160351390112
      ],
      [
        "▁Even",
        -9.922174039263199
      ],
      [
        "▁Hieronder",
        -9.922211095769843
      ],
      [
        "▁eigenaar",
        -9.923083484336772
      ],
      [
        "▁la",
        -9.923247516568203
      ],
      [
        "▁volk",
        -9.92349929979661
      ],
      [
        "▁Heerlijk",
        -9.924684845230598
      ],
      [
        "▁eisen",
        -9.925042737272005
      ],
      [
        "▁geleverd",
        -9.925436787319654
      ],
      [
        "▁vitamine",
        -9.925497350286944
      ],
      [
        "▁Wilt",
        -9.926422606670513
      ],
      [
        "prijs",
        -9.926875133270634
      ],
      [
        "▁vriendin",
        -9.928191082897484
      ],
      [
        "Mocht",
        -9.928477772018208
      ],
      [
        "▁werkelijk",
        -9.92853216961398
      ],
      [
        "tal",
        -9.928737283131271
      ],
      [
        "ale",
        -9.929865300229192
      ],
      [
        "▁trein",
        -9.929870598880036
      ],
      [
        "▁200",
        -9.930757531397793
      ],
      [
        "▁technische",
        -9.931928691105364
      ],
      [
        "▁zoekt",
        -9.932546493509463
      ],
      [
        "▁tijden",
        -9.932968076160837
      ],
      [
        "▁sluiten",
        -9.933665716771
      ],
      [
        "▁berichten",
        -9.935061095658671
      ],
      [
        "ka",
        -9.935575942367862
      ],
      [
        "▁geluk",
        -9.935649040680484
      ],
      [
        "leven",
        -9.935737266468072
      ],
      [
        "U",
        -9.93609143706255
      ],
      [
        "▁Stichting",
        -9.936203400498197
      ],
      [
        "▁uur.",
        -9.936611871324299
      ],
      [
        "▁Vraag",
        -9.936702582853364
      ],
      [
        "▁Binnen",
        -9.937443634313617
      ],
      [
        "▁jongen",
        -9.93856500124627
      ],
      [
        "uren",
        -9.938847826037234
      ],
      [
        "▁uitzending",
        -9.938891211034319
      ],
      [
        "▁gezicht",
        -9.939144323139544
      ],
      [
        "ber",
        -9.939156566396042
      ],
      [
        "elijke",
        -9.939468697400146
      ],
      [
        "20",
        -9.939606406766316
      ],
      [
        "▁hou",
        -9.940315623326718
      ],
      [
        "programma",
        -9.940954750785345
      ],
      [
        "▁aarde",
        -9.941324438356961
      ],
      [
        "▁hoogste",
        -9.941522912759524
      ],
      [
        "th",
        -9.941832929430102
      ],
      [
        "▁sneeuw",
        -9.942218306947911
      ],
      [
        "▁gebouw",
        -9.94228953164907
      ],
      [
        "▁houd",
        -9.943519813235056
      ],
      [
        "▁vooraf",
        -9.943868790482348
      ],
      [
        "a.",
        -9.94527979153533
      ],
      [
        "kaart",
        -9.945408659438142
      ],
      [
        "▁drinken",
        -9.945482672199223
      ],
      [
        "▁teveel",
        -9.946285932383143
      ],
      [
        "▁vrijwilligers",
        -9.946618743328528
      ],
      [
        "▁begeleiding",
        -9.94671779511027
      ],
      [
        "▁vertelt",
        -9.946990861313488
      ],
      [
        "▁gedeelte",
        -9.947651820008318
      ],
      [
        "markt",
        -9.94776629812079
      ],
      [
        "00",
        -9.947779657817023
      ],
      [
        "▁moesten",
        -9.947889149070463
      ],
      [
        "meer",
        -9.947895044406435
      ],
      [
        "+",
        -9.9482930430973
      ],
      [
        "▁schrijft",
        -9.94918065922245
      ],
      [
        "▁keren",
        -9.949207961528375
      ],
      [
        "▁gebeuren",
        -9.949352038149415
      ],
      [
        "▁originele",
        -9.949735615918957
      ],
      [
        "▁hopen",
        -9.950753419785823
      ],
      [
        "▁Af",
        -9.95100579320566
      ],
      [
        "▁Zoek",
        -9.951087876134956
      ],
      [
        "▁live",
        -9.95163403146691
      ],
      [
        "▁Haar",
        -9.952862975322311
      ],
      [
        "▁voeding",
        -9.953308166702078
      ],
      [
        "▁Hotels.com",
        -9.953386847412144
      ],
      [
        "▁macht",
        -9.953470544833372
      ],
      [
        "▁beelden",
        -9.953479847044552
      ],
      [
        "als",
        -9.954009822224819
      ],
      [
        "lijst",
        -9.95529074501488
      ],
      [
        "▁Trump",
        -9.95583668194122
      ],
      [
        "▁redenen",
        -9.956359383994075
      ],
      [
        "▁uitgebreide",
        -9.956881928619998
      ],
      [
        "▁vak",
        -9.956953177733114
      ],
      [
        "▁4.",
        -9.95722487285871
      ],
      [
        "▁verbinding",
        -9.958711011448763
      ],
      [
        "▁omstandigheden",
        -9.958731981608771
      ],
      [
        "▁Geef",
        -9.959448825811322
      ],
      [
        "▁straks",
        -9.959881868291028
      ],
      [
        "▁alvast",
        -9.96039448894223
      ],
      [
        "▁breed",
        -9.960833580736256
      ],
      [
        "▁EU",
        -9.960913341467744
      ],
      [
        "▁manieren",
        -9.961367181555108
      ],
      [
        "▁besloten",
        -9.961923813101052
      ],
      [
        "water",
        -9.96300641365481
      ],
      [
        "erd",
        -9.965464294839077
      ],
      [
        "▁wordt.",
        -9.96614313383143
      ],
      [
        "▁kaarten",
        -9.96622706345201
      ],
      [
        "▁behoefte",
        -9.96691255187717
      ],
      [
        "▁lijken",
        -9.967884610098753
      ],
      [
        "▁fantastisch",
        -9.968688786995736
      ],
      [
        "▁dorp",
        -9.96910105030792
      ],
      [
        "ering",
        -9.9714877410869
      ],
      [
        "▁binnenkort",
        -9.971923501455437
      ],
      [
        "▁waarvoor",
        -9.972307284753766
      ],
      [
        "▁bestellen",
        -9.972511412624481
      ],
      [
        "▁bak",
        -9.974140742654152
      ],
      [
        "▁thee",
        -9.974665966990845
      ],
      [
        "▁70",
        -9.974679726683846
      ],
      [
        "aat",
        -9.974812915775981
      ],
      [
        "▁voorbeelden",
        -9.974901699662283
      ],
      [
        "▁Car",
        -9.97493173991165
      ],
      [
        "vol",
        -9.976713258820926
      ],
      [
        "ment",
        -9.976752907460167
      ],
      [
        "▁lieve",
        -9.976963565295202
      ],
      [
        "▁beleid",
        -9.977118322493826
      ],
      [
        "loze",
        -9.978313345624468
      ],
      [
        "▁zomaar",
        -9.978937013254459
      ],
      [
        "▁bier",
        -9.979144016913303
      ],
      [
        "▁klimaat",
        -9.97949862987119
      ],
      [
        "▁Bar",
        -9.979635350137084
      ],
      [
        "▁middag",
        -9.980015250017304
      ],
      [
        "▁kern",
        -9.980636593871345
      ],
      [
        "▁w",
        -9.982270284630356
      ],
      [
        "▁noemen",
        -9.98278008197302
      ],
      [
        "▁ineens",
        -9.983049950508892
      ],
      [
        "▁bos",
        -9.983310812081882
      ],
      [
        "▁forum",
        -9.98523637667588
      ],
      [
        "▁voordelen",
        -9.98622480302329
      ],
      [
        "▁Ba",
        -9.986445955688037
      ],
      [
        "▁set",
        -9.987851987147051
      ],
      [
        "▁Ma",
        -9.987853344366414
      ],
      [
        "▁dikke",
        -9.987996967902873
      ],
      [
        "▁slot",
        -9.988084774628216
      ],
      [
        "▁gang",
        -9.989180137191049
      ],
      [
        "▁tv",
        -9.989976619719322
      ],
      [
        "▁goed.",
        -9.990314014214649
      ],
      [
        "▁viel",
        -9.991796674718014
      ],
      [
        "▁ondernemers",
        -9.993703566468625
      ],
      [
        "▁uitgevoerd",
        -9.993762140130695
      ],
      [
        "ex",
        -9.993894455949217
      ],
      [
        "▁openbaar",
        -9.994034798295655
      ],
      [
        "▁scherm",
        -9.994460086180446
      ],
      [
        "▁pro",
        -9.994515147453495
      ],
      [
        "▁grens",
        -9.994517946919764
      ],
      [
        "▁Per",
        -9.994735950701795
      ],
      [
        "▁trekken",
        -9.995121814183396
      ],
      [
        "▁voldoen",
        -9.995674656214236
      ],
      [
        "25",
        -9.995911893068818
      ],
      [
        "▁Jij",
        -9.996463236122416
      ],
      [
        "▁gewerkt",
        -9.99693303700981
      ],
      [
        "▁Di",
        -9.998002251905323
      ],
      [
        "▁middelen",
        -9.999799888220863
      ],
      [
        "90",
        -9.999897386133991
      ],
      [
        "▁huwelijk",
        -9.999943021346738
      ],
      [
        "▁geworden.",
        -10.000379358155012
      ],
      [
        "▁bron",
        -10.000617203988828
      ],
      [
        "▁aardig",
        -10.001137121941628
      ],
      [
        "▁prettig",
        -10.001371489880551
      ],
      [
        "O",
        -10.001617241727548
      ],
      [
        "▁ontwikkelen",
        -10.001917612166352
      ],
      [
        "▁privé",
        -10.001986632245188
      ],
      [
        "▁Nieuw",
        -10.003635766103516
      ],
      [
        "▁garantie",
        -10.003845521033787
      ],
      [
        "▁verwerken",
        -10.00428952240122
      ],
      [
        "15",
        -10.004304198689319
      ],
      [
        "▁workshop",
        -10.005469303927942
      ],
      [
        "▁Zelfs",
        -10.00631389250703
      ],
      [
        "▁gezondheid",
        -10.00643019476852
      ],
      [
        "▁bevindt",
        -10.007489115387372
      ],
      [
        "ci",
        -10.007577828969623
      ],
      [
        "▁vet",
        -10.00778418285212
      ],
      [
        "▁Vind",
        -10.008626759395712
      ],
      [
        "band",
        -10.009099456288174
      ],
      [
        "▁Belgische",
        -10.009111434399458
      ],
      [
        "▁(de",
        -10.009636939013731
      ],
      [
        "▁rustige",
        -10.009688433635073
      ],
      [
        "▁Nee,",
        -10.010006734165525
      ],
      [
        "▁schuld",
        -10.012227344728378
      ],
      [
        "▁cadeau",
        -10.012304390369726
      ],
      [
        "J",
        -10.012687859569578
      ],
      [
        "zorg",
        -10.013097774952296
      ],
      [
        "▁aankoop",
        -10.013546131711252
      ],
      [
        "▁for",
        -10.013583597502059
      ],
      [
        "vo",
        -10.0140072142804
      ],
      [
        "▁Brussel",
        -10.014337186934009
      ],
      [
        "▁bescherming",
        -10.014464531479799
      ],
      [
        "▁nam",
        -10.015671627895184
      ],
      [
        "▁angst",
        -10.015738997210672
      ],
      [
        "▁noodzakelijk",
        -10.015845869691859
      ],
      [
        "▁volgend",
        -10.016083749461359
      ],
      [
        "▁assortiment",
        -10.017598356934128
      ],
      [
        "▁hiermee",
        -10.017955008087654
      ],
      [
        "▁behoorlijk",
        -10.018274764535434
      ],
      [
        "▁Home",
        -10.018733156670773
      ],
      [
        "▁zware",
        -10.019104150661907
      ],
      [
        "▁voorraad",
        -10.019481071690281
      ],
      [
        "▁vóór",
        -10.019492676613769
      ],
      [
        "▁voorstellen",
        -10.019577529963007
      ],
      [
        "▁hebt.",
        -10.020960233374748
      ],
      [
        "▁tegenover",
        -10.021876313929086
      ],
      [
        "▁houten",
        -10.022266577605635
      ],
      [
        "▁uren",
        -10.022404574551594
      ],
      [
        "▁album",
        -10.022419686683227
      ],
      [
        "▁reizen",
        -10.022576051380124
      ],
      [
        "▁praten",
        -10.023075028495994
      ],
      [
        "▁El",
        -10.023107466179194
      ],
      [
        "▁serieus",
        -10.023233131519873
      ],
      [
        "ty",
        -10.024162669517139
      ],
      [
        "pa",
        -10.024684561614306
      ],
      [
        "▁comfortabel",
        -10.024772534153303
      ],
      [
        "▁georganiseerd",
        -10.02517790471001
      ],
      [
        "▁materialen",
        -10.025178600151667
      ],
      [
        "▁Spanje",
        -10.025415949895528
      ],
      [
        "winkel",
        -10.025843378585868
      ],
      [
        "▁bewijs",
        -10.0280004311992
      ],
      [
        "▁Li",
        -10.028306476508115
      ],
      [
        "ak",
        -10.029050186304058
      ],
      [
        "▁Me",
        -10.02924663878943
      ],
      [
        "▁apparaat",
        -10.029308863610707
      ],
      [
        "▁terras",
        -10.029464720289399
      ],
      [
        "▁onderneming",
        -10.029548198857974
      ],
      [
        "▁Ca",
        -10.029737988196342
      ],
      [
        "▁rood",
        -10.030638797647862
      ],
      [
        "▁vrijwel",
        -10.032307814494008
      ],
      [
        "▁optie",
        -10.0325090262054
      ],
      [
        "va",
        -10.03271584628585
      ],
      [
        "▁kijken.",
        -10.033064314389922
      ],
      [
        "▁blijf",
        -10.03470207227635
      ],
      [
        "▁“De",
        -10.035148254083685
      ],
      [
        "▁Nederlanders",
        -10.035552239463422
      ],
      [
        "▁plekken",
        -10.036084625571956
      ],
      [
        "▁klinkt",
        -10.036192949166484
      ],
      [
        "80",
        -10.036408485702545
      ],
      [
        "▁harte",
        -10.036521095326979
      ],
      [
        "▁aldus",
        -10.03798885589274
      ],
      [
        "▁scholen",
        -10.038135503378985
      ],
      [
        "▁Engels",
        -10.038183336060765
      ],
      [
        "▁geopend",
        -10.038434289204217
      ],
      [
        "▁begrijpen",
        -10.038652203455204
      ],
      [
        "▁zacht",
        -10.03868890647199
      ],
      [
        "▁kwijt",
        -10.039535751496459
      ],
      [
        "▁Kleur",
        -10.039807628105375
      ],
      [
        "▁geregeld",
        -10.039966684731372
      ],
      [
        "ruimte",
        -10.040746639544448
      ],
      [
        "▁aanpak",
        -10.041335680406043
      ],
      [
        "▁Y",
        -10.04141305061174
      ],
      [
        "▁voeren",
        -10.041432404929488
      ],
      [
        "▁derden",
        -10.042442549589058
      ],
      [
        "▁spreekt",
        -10.04335397912341
      ],
      [
        "▁genoten",
        -10.044104777943396
      ],
      [
        "▁gehoord",
        -10.044336724182685
      ],
      [
        "▁ontwikkeld",
        -10.04526066241168
      ],
      [
        "▁gegaan",
        -10.045271278450182
      ],
      [
        "😉",
        -10.045382140485302
      ],
      [
        "▁nauwelijks",
        -10.04541038547653
      ],
      [
        "▁geweld",
        -10.045924890011712
      ],
      [
        "▁Pe",
        -10.046028753402064
      ],
      [
        "▁Frans",
        -10.046030568627328
      ],
      [
        "▁interesse",
        -10.046194524041432
      ],
      [
        "▁Go",
        -10.046450462763694
      ],
      [
        "rie",
        -10.046995075397515
      ],
      [
        "▁schriftelijk",
        -10.047550058459663
      ],
      [
        "▁Uiteraard",
        -10.04806496500585
      ],
      [
        "▁absoluut",
        -10.048065676088639
      ],
      [
        "▁stukken",
        -10.048961059744155
      ],
      [
        "▁aard",
        -10.049141602346857
      ],
      [
        "▁Franse",
        -10.049794659272994
      ],
      [
        "▁90",
        -10.050476802399332
      ],
      [
        "▁zeven",
        -10.050606005361317
      ],
      [
        "bij",
        -10.050946652528445
      ],
      [
        "▁pakken",
        -10.0519563611657
      ],
      [
        "jaar",
        -10.052711533216568
      ],
      [
        "▁Do",
        -10.053201998836876
      ],
      [
        "▁:-)",
        -10.053614696203127
      ],
      [
        "▁teken",
        -10.053723766300223
      ],
      [
        "met",
        -10.053738528953565
      ],
      [
        "▁wacht",
        -10.0541660734173
      ],
      [
        "▁35",
        -10.054236218952346
      ],
      [
        "▁harde",
        -10.054330004116315
      ],
      [
        "▁veiligheid",
        -10.056795536611386
      ],
      [
        "▁hoef",
        -10.057012509313822
      ],
      [
        "▁Naar",
        -10.057418051807193
      ],
      [
        "▁provincie",
        -10.057435675277016
      ],
      [
        "▁halen.",
        -10.058572500066738
      ],
      [
        "▁veld",
        -10.058827794637615
      ],
      [
        "▁leidt",
        -10.058897143405929
      ],
      [
        "▁lunch",
        -10.059702220651577
      ],
      [
        "▁stress",
        -10.060169385389862
      ],
      [
        "▁lag",
        -10.060934187496633
      ],
      [
        "▁afspraken",
        -10.061234071062417
      ],
      [
        "▁bevolking",
        -10.061958428866099
      ],
      [
        "▁Ter",
        -10.061990547942962
      ],
      [
        "loop",
        -10.062090049643892
      ],
      [
        "▁Lo",
        -10.06240063174809
      ],
      [
        "▁lezen.",
        -10.062808685361643
      ],
      [
        "40",
        -10.06309755517644
      ],
      [
        "▁aangezien",
        -10.063726162670577
      ],
      [
        "▁Sport",
        -10.06407614039555
      ],
      [
        "▁bent.",
        -10.064166496561255
      ],
      [
        "-17",
        -10.064382101916758
      ],
      [
        "▁bouwen",
        -10.064967650091155
      ],
      [
        "s)",
        -10.065779116708898
      ],
      [
        "▁centraal",
        -10.066260119849797
      ],
      [
        "▁duurzame",
        -10.066312951464468
      ],
      [
        "▁stuur",
        -10.067982372208093
      ],
      [
        "▁account",
        -10.06840465465643
      ],
      [
        "staat",
        -10.06866866826882
      ],
      [
        "▁hangt",
        -10.069655009206555
      ],
      [
        "▁speel",
        -10.069705651667126
      ],
      [
        "▁heren",
        -10.069755511304788
      ],
      [
        ".nl.",
        -10.070956216822953
      ],
      [
        "▁eruit",
        -10.071411958587461
      ],
      [
        "▁behalve",
        -10.07188812970696
      ],
      [
        "ck",
        -10.072274253493442
      ],
      [
        "▁nergens",
        -10.0725393169171
      ],
      [
        "tel",
        -10.072602824789866
      ],
      [
        "▁achtergrond",
        -10.073335613346348
      ],
      [
        "▁oplossingen",
        -10.074515224128676
      ],
      [
        "▁Amsterdam.",
        -10.074773549621575
      ],
      [
        "▁gelden",
        -10.075960085856487
      ],
      [
        "▁tip",
        -10.077337053364845
      ],
      [
        "▁stemmen",
        -10.077996672256191
      ],
      [
        "wetenschappelijk",
        -10.078391671133158
      ],
      [
        "▁leest",
        -10.078431621560572
      ],
      [
        "▁hoek",
        -10.079198357488362
      ],
      [
        "▁bezoeken",
        -10.080033414072354
      ],
      [
        "werken",
        -10.080133415360892
      ],
      [
        "avond",
        -10.080408332820301
      ],
      [
        "▁China",
        -10.081650657469648
      ],
      [
        "▁warmte",
        -10.08208002260423
      ],
      [
        "▁uitsluitend",
        -10.082461017876142
      ],
      [
        "▁aanleiding",
        -10.08281480920413
      ],
      [
        "▁techniek",
        -10.083284123118187
      ],
      [
        "▁nodige",
        -10.083537816340861
      ],
      [
        "19",
        -10.083608343657804
      ],
      [
        "▁muur",
        -10.083729888795112
      ],
      [
        "▁teksten",
        -10.084078141229416
      ],
      [
        "▁gehad.",
        -10.08411301839928
      ],
      [
        "▁Jezus",
        -10.0841369211352
      ],
      [
        "▁ken",
        -10.084139917599105
      ],
      [
        "▁Staten",
        -10.08596387462238
      ],
      [
        "slag",
        -10.08656155140967
      ],
      [
        "▁Vlaamse",
        -10.086716403861356
      ],
      [
        "▁park",
        -10.088780191098952
      ],
      [
        "▁gewone",
        -10.089498249295296
      ],
      [
        "▁accommodatie",
        -10.089975112268355
      ],
      [
        "min",
        -10.09035421360489
      ],
      [
        "▁uiterlijk",
        -10.090551106897868
      ],
      [
        "▁(met",
        -10.090596080140948
      ],
      [
        "▁halve",
        -10.090618445418027
      ],
      [
        "dienst",
        -10.090711618879398
      ],
      [
        "▁hoeveelheid",
        -10.090952117909227
      ],
      [
        "▁gas",
        -10.091120106766986
      ],
      [
        "▁beweging",
        -10.092347102568473
      ],
      [
        "▁arbeids",
        -10.09265591652066
      ],
      [
        "▁vermeld",
        -10.09279685416086
      ],
      [
        "▁ochtend",
        -10.093226960226307
      ],
      [
        "▁daarin",
        -10.093263150351618
      ],
      [
        "▁bereid",
        -10.093588838227056
      ],
      [
        "▁No",
        -10.093852029042136
      ],
      [
        "▁San",
        -10.093946877283294
      ],
      [
        "school",
        -10.094237114810372
      ],
      [
        "▁zichtbaar",
        -10.094616803591446
      ],
      [
        "▁5.",
        -10.09483589207123
      ],
      [
        "▁gesloten",
        -10.094967795587626
      ],
      [
        "▁offerte",
        -10.095101579659936
      ],
      [
        "line",
        -10.095730628802434
      ],
      [
        "▁liep",
        -10.096625439956654
      ],
      [
        "▁tijdje",
        -10.09702469714203
      ],
      [
        "▁social",
        -10.097349225355572
      ],
      [
        "▁vereniging",
        -10.09773784635588
      ],
      [
        "▁Daarbij",
        -10.097823215117605
      ],
      [
        "▁500",
        -10.097883405707751
      ],
      [
        "raad",
        -10.098402249966902
      ],
      [
        "ol",
        -10.09846238317309
      ],
      [
        "▁Israël",
        -10.098923973713209
      ],
      [
        "▁verkocht",
        -10.099665922175406
      ],
      [
        "▁genoemd",
        -10.099966105260041
      ],
      [
        "-10",
        -10.10000305062185
      ],
      [
        "▁gast",
        -10.10003209668157
      ],
      [
        "▁contract",
        -10.100083436898295
      ],
      [
        "°",
        -10.100084793106898
      ],
      [
        "▁gebeurd",
        -10.100602628348515
      ],
      [
        "▁winst",
        -10.101265151768526
      ],
      [
        "▁eiland",
        -10.101622140514241
      ],
      [
        "▁onderzoeken",
        -10.10209172438896
      ],
      [
        "▁samenleving",
        -10.102288886261999
      ],
      [
        "▁ca.",
        -10.102325381240352
      ],
      [
        "▁starten",
        -10.102342105409292
      ],
      [
        "▁Tweede",
        -10.102367222284546
      ],
      [
        "het",
        -10.102401991373934
      ],
      [
        "▁verloren",
        -10.10240830605518
      ],
      [
        "▁vuur",
        -10.102545900539676
      ],
      [
        "▁optreden",
        -10.103310686990412
      ],
      [
        "▁selectie",
        -10.103318636192615
      ],
      [
        "▁Dag",
        -10.104233366415155
      ],
      [
        "▁simpel",
        -10.104669576225525
      ],
      [
        "doordat",
        -10.105668532051158
      ],
      [
        "ho",
        -10.107308185348675
      ],
      [
        "▁wijk",
        -10.108405963907504
      ],
      [
        "▁slapen",
        -10.108442454427315
      ],
      [
        "):",
        -10.10854057344066
      ],
      [
        "▁president",
        -10.108592012841118
      ],
      [
        "▁organiseren",
        -10.108705994283667
      ],
      [
        "Q",
        -10.10958517068007
      ],
      [
        "▁lessen",
        -10.10982942683257
      ],
      [
        "▁temperatuur",
        -10.110012711932125
      ],
      [
        "-11",
        -10.110016911732103
      ],
      [
        "▁St",
        -10.110154039697235
      ],
      [
        "▁content",
        -10.110761397416756
      ],
      [
        "▁gesproken",
        -10.111909670251174
      ],
      [
        "12",
        -10.112204011615678
      ],
      [
        "▁douche",
        -10.113097569677718
      ],
      [
        "▁Wilders",
        -10.11492915274319
      ],
      [
        "ger",
        -10.115079188645288
      ],
      [
        "▁werknemers",
        -10.116156938402682
      ],
      [
        "▁wakker",
        -10.11616584022456
      ],
      [
        "▁voren",
        -10.116306165293164
      ],
      [
        "▁antwoorden",
        -10.116390936733772
      ],
      [
        "▁West",
        -10.11660171531721
      ],
      [
        "',",
        -10.11684948049001
      ],
      [
        "▁web",
        -10.117100604593446
      ],
      [
        "eel",
        -10.117451035981468
      ],
      [
        "za",
        -10.118254237788788
      ],
      [
        "▁vonden",
        -10.118308858461265
      ],
      [
        "im",
        -10.118598290746228
      ],
      [
        "▁verbonden",
        -10.119002389656472
      ],
      [
        "▁veranderen",
        -10.119058860718072
      ],
      [
        "▁Sommige",
        -10.121602010564182
      ],
      [
        "▁komen,",
        -10.121915577533962
      ],
      [
        "▁no",
        -10.12237634690985
      ],
      [
        "02",
        -10.12241772247906
      ],
      [
        "▁droom",
        -10.122989662432131
      ],
      [
        "▁snelheid",
        -10.12327008993294
      ],
      [
        "Y",
        -10.124367111132603
      ],
      [
        "▁Geweldig",
        -10.124452778034623
      ],
      [
        "rij",
        -10.124725998917064
      ],
      [
        "▁recept",
        -10.125146897897416
      ],
      [
        "▁ontwikkelingen",
        -10.12529486989295
      ],
      [
        "▁respect",
        -10.125837940852104
      ],
      [
        "▁behulp",
        -10.125908012095785
      ],
      [
        "gebied",
        -10.125967658384555
      ],
      [
        "▁pad",
        -10.126244532010343
      ],
      [
        "▁Groot",
        -10.126345650580975
      ],
      [
        "▁ontspannen",
        -10.126961103436997
      ],
      [
        "▁ziekenhuis",
        -10.127282784803487
      ],
      [
        "▁pakket",
        -10.127382530903143
      ],
      [
        "▁uitstekende",
        -10.127672396272825
      ],
      [
        "stad",
        -10.128392625380533
      ],
      [
        "11",
        -10.128656014497103
      ],
      [
        "▁Paul",
        -10.130235898073032
      ],
      [
        "tocht",
        -10.13210186096756
      ],
      [
        "▁uitvoeren",
        -10.13260110935089
      ],
      [
        "▁bezit",
        -10.133206175936266
      ],
      [
        "▁Raad",
        -10.133698208461729
      ],
      [
        "▁Nee",
        -10.133702240985826
      ],
      [
        "▁films",
        -10.133704236358826
      ],
      [
        "▁45",
        -10.13502685827353
      ],
      [
        "▁vloer",
        -10.135032620377519
      ],
      [
        "ac",
        -10.135245629471713
      ],
      [
        "▁Ten",
        -10.13572431804222
      ],
      [
        "▁Apple",
        -10.136659593391544
      ],
      [
        "▁heer",
        -10.137210201326187
      ],
      [
        "▁stroom",
        -10.137567573048521
      ],
      [
        "▁bleef",
        -10.137687626406773
      ],
      [
        "ijn",
        -10.138067219810738
      ],
      [
        "▁draait",
        -10.138601688272917
      ],
      [
        "▁feiten",
        -10.13937339975681
      ],
      [
        "▁Algemene",
        -10.139443611195858
      ],
      [
        "▁brood",
        -10.139489110795889
      ],
      [
        "up",
        -10.139494451441925
      ],
      [
        "▁http://www.",
        -10.140182499734813
      ],
      [
        "bi",
        -10.140491876641928
      ],
      [
        "hoek",
        -10.140921020108852
      ],
      [
        "wet",
        -10.141388257974736
      ],
      [
        "▁normale",
        -10.141726049908403
      ],
      [
        "licht",
        -10.141744106425914
      ],
      [
        "▁2007",
        -10.141919926821126
      ],
      [
        "▁ex",
        -10.142314979778579
      ],
      [
        "▁lukt",
        -10.142506991769036
      ],
      [
        "▁II",
        -10.142742420647384
      ],
      [
        "▁huis.",
        -10.142751463481783
      ],
      [
        "rijk",
        -10.143044665989953
      ],
      [
        "Verenigde",
        -10.14315108976686
      ],
      [
        "▁ware",
        -10.143334982275594
      ],
      [
        "▁inspiratie",
        -10.143340004672067
      ],
      [
        "▁waarheid",
        -10.143654731120211
      ],
      [
        "▁radio",
        -10.143720113220077
      ],
      [
        "▁Water",
        -10.143883939127768
      ],
      [
        "ders",
        -10.144079119174211
      ],
      [
        "▁begrip",
        -10.145956431690927
      ],
      [
        "let",
        -10.146242717186041
      ],
      [
        "▁kat",
        -10.146320657667973
      ],
      [
        "▁veilige",
        -10.146714672712722
      ],
      [
        "▁leek",
        -10.14681991139908
      ],
      [
        "▁verandering",
        -10.147729435259432
      ],
      [
        "▁duidelijke",
        -10.14779874709896
      ],
      [
        "▁dagelijkse",
        -10.148173089753318
      ],
      [
        "▁mate",
        -10.148378261017882
      ],
      [
        "pakket",
        -10.149463252156373
      ],
      [
        "▁patiënten",
        -10.149591518108075
      ],
      [
        "▁uitstekend",
        -10.149931759152928
      ],
      [
        "▁gram",
        -10.15110450189411
      ],
      [
        "▁Parijs",
        -10.151271482173255
      ],
      [
        "▁vriendelijke",
        -10.151367854788028
      ],
      [
        "▁positie",
        -10.152101917928107
      ],
      [
        "kerk",
        -10.152173019104314
      ],
      [
        "ard",
        -10.152256416782613
      ],
      [
        "▁profiel",
        -10.152458536944554
      ],
      [
        "▁aanrader",
        -10.152833371787322
      ],
      [
        "▁ca",
        -10.153541940083574
      ],
      [
        "ok",
        -10.153760707074253
      ],
      [
        "▁Hans",
        -10.153861138583178
      ],
      [
        "▁Dankzij",
        -10.154305001329682
      ],
      [
        "▁buitenland",
        -10.15466097249766
      ],
      [
        "▁spannend",
        -10.155357784955761
      ],
      [
        "▁Open",
        -10.155389929861746
      ],
      [
        "▁filmpje",
        -10.155856307019098
      ],
      [
        "▁Huis",
        -10.157119188413485
      ],
      [
        "▁onlangs",
        -10.157240125279483
      ],
      [
        "▁Du",
        -10.157441971653268
      ],
      [
        "▁VAN",
        -10.15770389252879
      ],
      [
        "▁consument",
        -10.157726082947569
      ],
      [
        "age",
        -10.158055230276752
      ],
      [
        "▁probeer",
        -10.158288511648621
      ],
      [
        "wijk",
        -10.158888306171614
      ],
      [
        "▁enz.",
        -10.159767681718456
      ],
      [
        "▁Gratis",
        -10.159906652713666
      ],
      [
        "▁Boek",
        -10.162037446109004
      ],
      [
        "e)",
        -10.16230679966225
      ],
      [
        "▁luisteren",
        -10.162475006734425
      ],
      [
        "▁inzet",
        -10.162714149622904
      ],
      [
        "▁h",
        -10.163091513848201
      ],
      [
        "▁Kortom",
        -10.163298934181114
      ],
      [
        "bo",
        -10.164598237374435
      ],
      [
        "▁interessante",
        -10.165060185320153
      ],
      [
        "▁steden",
        -10.165868643621828
      ],
      [
        "▁Volg",
        -10.166189153150228
      ],
      [
        "▁ijs",
        -10.166599844591763
      ],
      [
        "▁complete",
        -10.166746566213066
      ],
      [
        "▁fantastische",
        -10.167034289661594
      ],
      [
        "▁Rusland",
        -10.167502131109902
      ],
      [
        "▁telkens",
        -10.167787790791632
      ],
      [
        "▁EN",
        -10.167811562785262
      ],
      [
        "▁reageren",
        -10.168403584755396
      ],
      [
        "hof",
        -10.168458880734839
      ],
      [
        "▁Groningen",
        -10.168569933182862
      ],
      [
        "isme",
        -10.168813048058286
      ],
      [
        "▁burgers",
        -10.169596468086915
      ],
      [
        "▁regel",
        -10.169811135746485
      ],
      [
        "▁principe",
        -10.170083033422003
      ],
      [
        "jo",
        -10.170710225771945
      ],
      [
        "▁To",
        -10.171475703069358
      ],
      [
        "▁helder",
        -10.172200651060214
      ],
      [
        "▁bewoners",
        -10.172411097561874
      ],
      [
        "ier",
        -10.172619879510853
      ],
      [
        "reis",
        -10.17325321198705
      ],
      [
        "▁blijkbaar",
        -10.173531138929492
      ],
      [
        "waarde",
        -10.173733728820476
      ],
      [
        "▁makkelijker",
        -10.17396134295338
      ],
      [
        "▁goederen",
        -10.174008878213767
      ],
      [
        "▁du",
        -10.17415064016533
      ],
      [
        "▁geur",
        -10.174357221998688
      ],
      [
        "▁historische",
        -10.174996335259998
      ],
      [
        "▁TOOS",
        -10.175379941306641
      ],
      [
        "streeks",
        -10.175803465403712
      ],
      [
        "▁balans",
        -10.175851851407916
      ],
      [
        "▁wandelen",
        -10.175936072949352
      ],
      [
        "▁Sch",
        -10.176227839644518
      ],
      [
        "▁fan",
        -10.176525140950599
      ],
      [
        "!)",
        -10.177132948477109
      ],
      [
        "▁zien,",
        -10.177371000792892
      ],
      [
        "▁boot",
        -10.177754904319709
      ],
      [
        "rs",
        -10.178124499183253
      ],
      [
        "rol",
        -10.178570848869466
      ],
      [
        "▁melk",
        -10.179325740283344
      ],
      [
        "▁geboorte",
        -10.179387544384149
      ],
      [
        "▁lager",
        -10.179525463642744
      ],
      [
        "▁traditionele",
        -10.17995612565904
      ],
      [
        "plan",
        -10.181499912952088
      ],
      [
        "▁voeten",
        -10.184025376309211
      ],
      [
        "ic",
        -10.184085319382863
      ],
      [
        "▁restaurants",
        -10.184127928399356
      ],
      [
        "▁passie",
        -10.18419232544454
      ],
      [
        "▁komt.",
        -10.184361284223815
      ],
      [
        "▁hoeven",
        -10.185130219389945
      ],
      [
        "▁schoenen",
        -10.185864782328963
      ],
      [
        "▁afdeling",
        -10.186003374905575
      ],
      [
        "▁langzaam",
        -10.186269330236236
      ],
      [
        "▁klacht",
        -10.187060620662905
      ],
      [
        "▁gemiddeld",
        -10.18723427053052
      ],
      [
        "▁Con",
        -10.18921789526766
      ],
      [
        "▁aangegeven",
        -10.189479720674953
      ],
      [
        "▁stoffen",
        -10.189813725547522
      ],
      [
        "▁Kies",
        -10.189948151207624
      ],
      [
        "▁fietsen",
        -10.190285571940223
      ],
      [
        "▁blauw",
        -10.190733334401685
      ],
      [
        "▁proef",
        -10.191102677862961
      ],
      [
        "▁agenda",
        -10.191913009622716
      ],
      [
        "▁uitspraak",
        -10.191919293457104
      ],
      [
        "▁recepten",
        -10.191932721404719
      ],
      [
        "▁reeks",
        -10.192290435543802
      ],
      [
        "ën",
        -10.192290466726753
      ],
      [
        "70",
        -10.192708487131913
      ],
      [
        "▁collega",
        -10.19307794708963
      ],
      [
        "▁kiest",
        -10.193299369751086
      ],
      [
        "▁zoo",
        -10.193583922774081
      ],
      [
        "ation",
        -10.193803840780882
      ],
      [
        "▁verschillen",
        -10.194116887386215
      ],
      [
        "▁pak",
        -10.194945554283684
      ],
      [
        "▁vreemd",
        -10.195746558362455
      ],
      [
        "▁klopt",
        -10.197051672527316
      ],
      [
        "▁vergoeding",
        -10.197186316234681
      ],
      [
        "▁editie",
        -10.197355345536934
      ],
      [
        "ag",
        -10.198483604375213
      ],
      [
        "▁suiker",
        -10.198782733960805
      ],
      [
        "▁gebruikt.",
        -10.198841362962419
      ],
      [
        "vers",
        -10.19890824884651
      ],
      [
        "q",
        -10.199525567430506
      ],
      [
        "▁alternatief",
        -10.200091109390812
      ],
      [
        "▁Jo",
        -10.200661245436354
      ],
      [
        "▁terrein",
        -10.20122167970364
      ],
      [
        "uur",
        -10.201836232758009
      ],
      [
        "▁verdieping",
        -10.202122405865435
      ],
      [
        "▁eten.",
        -10.20215008876293
      ],
      [
        "▁geloven",
        -10.203013510806205
      ],
      [
        "▁Zonder",
        -10.203676195013916
      ],
      [
        "▁Oh",
        -10.204464846599507
      ],
      [
        "sport",
        -10.204739258303475
      ],
      [
        "▁ontworpen",
        -10.204807715786252
      ],
      [
        "▁He",
        -10.205049470925921
      ],
      [
        "▁initiatief",
        -10.205144762723997
      ],
      [
        "▁bovenstaande",
        -10.205687349618671
      ],
      [
        "▁bellen",
        -10.20580196133595
      ],
      [
        "▁blauwe",
        -10.20581197495985
      ],
      [
        "▁mobiele",
        -10.206090224566356
      ],
      [
        "▁betekenis",
        -10.206171469800648
      ],
      [
        "▁draaien",
        -10.206213034151189
      ],
      [
        "▁Mag",
        -10.206322784767664
      ],
      [
        "▁enthousiast",
        -10.20634618652143
      ],
      [
        "▁beneden",
        -10.207017159348917
      ],
      [
        "▁raden",
        -10.207115585084445
      ],
      [
        "stel",
        -10.207452926125157
      ],
      [
        "▁Erg",
        -10.20788283868858
      ],
      [
        "▁vrijblijvend",
        -10.208596578208763
      ],
      [
        "▁spelen.",
        -10.208603872035507
      ],
      [
        "the",
        -10.208953418754774
      ],
      [
        "▁NL",
        -10.209072754051778
      ],
      [
        "▁apart",
        -10.209326936096899
      ],
      [
        "▁sluit",
        -10.20954676205633
      ],
      [
        "▁gebouwd",
        -10.209643732691335
      ],
      [
        "▁voormalige",
        -10.210423145321837
      ],
      [
        "geld",
        -10.210930900214215
      ],
      [
        "▁aangeboden",
        -10.21110471148438
      ],
      [
        "▁medische",
        -10.211670179463242
      ],
      [
        "▁station",
        -10.211756631101338
      ],
      [
        "▁villa",
        -10.212849813160638
      ],
      [
        "▁verkeerd",
        -10.212977465087368
      ],
      [
        "bar",
        -10.214048315867426
      ],
      [
        "▁hierover",
        -10.214520560055337
      ],
      [
        "▁oudere",
        -10.214838304098437
      ],
      [
        "▁oorzaak",
        -10.215064862965349
      ],
      [
        "▁nieuwste",
        -10.215216125639166
      ],
      [
        "▁Lekker",
        -10.21542708359579
      ],
      [
        "▁totale",
        -10.215464476284756
      ],
      [
        "▁boodschap",
        -10.21548447394844
      ],
      [
        "▁uitdaging",
        -10.215974828217657
      ],
      [
        ".nl/",
        -10.21662513602112
      ],
      [
        "▁Ro",
        -10.216858500342559
      ],
      [
        "▁Bel",
        -10.21688843815102
      ],
      [
        "▁beschikking",
        -10.217239763507873
      ],
      [
        "▁draagt",
        -10.218596197262453
      ],
      [
        "▁cijfers",
        -10.219029860900715
      ],
      [
        "▁Opdrachtgever",
        -10.219037289106474
      ],
      [
        "▁budget",
        -10.220086747026263
      ],
      [
        "▁miljard",
        -10.220217798701484
      ],
      [
        "▁onderwerpen",
        -10.220670061179845
      ],
      [
        "▁con",
        -10.220840181849344
      ],
      [
        "▁graden",
        -10.221403031159134
      ],
      [
        "▁Her",
        -10.221442121320038
      ],
      [
        "▁leeg",
        -10.221825586865329
      ],
      [
        "▁Moet",
        -10.222262218231052
      ],
      [
        "▁32",
        -10.222749870624817
      ],
      [
        "▁Q",
        -10.222921346994926
      ],
      [
        "vel",
        -10.22299553274474
      ],
      [
        "▁besteld",
        -10.22318858111355
      ],
      [
        "▁rijk",
        -10.223498940407959
      ],
      [
        "minstens",
        -10.22420062119888
      ],
      [
        "▁vierde",
        -10.224278081115791
      ],
      [
        "▁hogere",
        -10.224305353952685
      ],
      [
        "▁bestand",
        -10.224318355626842
      ],
      [
        "▁leert",
        -10.224734065517847
      ],
      [
        "▁menu",
        -10.224876016230011
      ],
      [
        "ab",
        -10.226231926432643
      ],
      [
        "pro",
        -10.227079454372946
      ],
      [
        "▁Bo",
        -10.227226126915266
      ],
      [
        "▁gaten",
        -10.227309406910482
      ],
      [
        "▁zoiets",
        -10.227518872933901
      ],
      [
        "rit",
        -10.22767053502411
      ],
      [
        "▁concept",
        -10.227780882734958
      ],
      [
        "▁gebruikte",
        -10.22860154194829
      ],
      [
        "▁tonen",
        -10.229779399287949
      ],
      [
        "beeld",
        -10.23032621518012
      ],
      [
        "gegevens",
        -10.23066360922424
      ],
      [
        "tro",
        -10.231346695442737
      ],
      [
        "▁praktische",
        -10.231676126712395
      ],
      [
        "▁toegestaan",
        -10.231887047525372
      ],
      [
        "iteit",
        -10.231934102900503
      ],
      [
        "▁Hierbij",
        -10.232189049824628
      ],
      [
        "▁goud",
        -10.232427654656595
      ],
      [
        "▁melden",
        -10.232755983764289
      ],
      [
        "▁verjaardag",
        -10.233313299545948
      ],
      [
        "▁Cor",
        -10.233453036768513
      ],
      [
        "▁arts",
        -10.234378406174365
      ],
      [
        "mans",
        -10.23463828663208
      ],
      [
        "sh",
        -10.234820498619792
      ],
      [
        "▁spullen",
        -10.234853455619742
      ],
      [
        "▁akkoord",
        -10.235258555830185
      ],
      [
        "▁ingericht",
        -10.235291742627618
      ],
      [
        "▁verwerkt",
        -10.2354769031052
      ],
      [
        "▁winnen",
        -10.235724310431031
      ],
      [
        "▁economie",
        -10.23579164754855
      ],
      [
        "▁opties",
        -10.236113677572293
      ],
      [
        "▁verslag",
        -10.236226411010401
      ],
      [
        "▁methode",
        -10.23633100741967
      ],
      [
        "▁;-)",
        -10.237296704983457
      ],
      [
        "▁Noord",
        -10.23736788201162
      ],
      [
        "▁karakter",
        -10.237468263689749
      ],
      [
        "po",
        -10.237831658028792
      ],
      [
        "▁zachte",
        -10.23819595368547
      ],
      [
        "lopen",
        -10.23850416527452
      ],
      [
        "▁oud.",
        -10.238822937921277
      ],
      [
        "▁leiding",
        -10.239852114649047
      ],
      [
        "▁moeilijke",
        -10.240056573201006
      ],
      [
        "▁Weet",
        -10.240206848949654
      ],
      [
        "35",
        -10.240236999338997
      ],
      [
        "▁Online",
        -10.241008707289062
      ],
      [
        "▁Frank",
        -10.241442450772151
      ],
      [
        "Nr.",
        -10.24148385606673
      ],
      [
        "▁vergelijken",
        -10.241534457482485
      ],
      [
        "▁theater",
        -10.241649629380023
      ],
      [
        "▁bad",
        -10.24169632691734
      ],
      [
        "▁ontstaat",
        -10.241728294680556
      ],
      [
        "▁visie",
        -10.242032687827123
      ],
      [
        "▁2006",
        -10.242213589051246
      ],
      [
        "▁wegens",
        -10.24229336746465
      ],
      [
        "die",
        -10.243010341368608
      ],
      [
        "▁voorzitter",
        -10.243783340865532
      ],
      [
        "▁centrale",
        -10.244131997868397
      ],
      [
        "&",
        -10.245177494804029
      ],
      [
        "▁hemel",
        -10.245561197048719
      ],
      [
        "▁dik",
        -10.2457287781686
      ],
      [
        "01",
        -10.245803775783006
      ],
      [
        "▁eenvoudige",
        -10.246338845326662
      ],
      [
        "▁ziek",
        -10.246374784433012
      ],
      [
        "▁afval",
        -10.246619943872687
      ],
      [
        "▁Stel",
        -10.247186284940835
      ],
      [
        "▁(S",
        -10.247706862810457
      ],
      [
        "▁woont",
        -10.24834446207084
      ],
      [
        "▁schrijf",
        -10.249178402997849
      ],
      [
        "▁snap",
        -10.250202730761643
      ],
      [
        "▁(B",
        -10.250295643334496
      ],
      [
        "▁hoewel",
        -10.250855467475404
      ],
      [
        "▁koud",
        -10.25185530879722
      ],
      [
        "▁stevig",
        -10.253269585620721
      ],
      [
        "▁game",
        -10.253442242377021
      ],
      [
        "▁verkrijgbaar",
        -10.253732926141451
      ],
      [
        "est",
        -10.253760289719505
      ],
      [
        "▁probeert",
        -10.253985519553638
      ],
      [
        "▁sites",
        -10.254091112064216
      ],
      [
        "dagen",
        -10.254276572542915
      ],
      [
        "▁groeien",
        -10.254693239150814
      ],
      [
        "Terwijl",
        -10.254776845765461
      ],
      [
        "▁sterren",
        -10.255076452661154
      ],
      [
        "▁Auto",
        -10.255214823103232
      ],
      [
        "▁Bent",
        -10.255633026946366
      ],
      [
        "▁elektrische",
        -10.255990262642396
      ],
      [
        "▁zicht",
        -10.256131057438417
      ],
      [
        "pel",
        -10.257540985783066
      ],
      [
        "▁weg.",
        -10.25792429496206
      ],
      [
        "▁laptop",
        -10.258294291663017
      ],
      [
        "▁Ra",
        -10.259163775041456
      ],
      [
        "▁PvdA",
        -10.259346681382187
      ],
      [
        "▁blik",
        -10.260043601479012
      ],
      [
        "ah",
        -10.260193059135807
      ],
      [
        "▁John",
        -10.261123154775397
      ],
      [
        "▁instellingen",
        -10.261238182902929
      ],
      [
        "▁Ar",
        -10.261649203480058
      ],
      [
        "pi",
        -10.261749558070997
      ],
      [
        "I",
        -10.26231154042304
      ],
      [
        "▁Amerika",
        -10.262331137454686
      ],
      [
        "▁Houd",
        -10.262489769880606
      ],
      [
        "▁omhoog",
        -10.262507423067056
      ],
      [
        "▁nummers",
        -10.26257955164142
      ],
      [
        "▁begrijp",
        -10.262731761666666
      ],
      [
        "▁berg",
        -10.263154257732264
      ],
      [
        "!\"",
        -10.263248934661085
      ],
      [
        "21",
        -10.26358471533495
      ],
      [
        "bel",
        -10.263888963600056
      ],
      [
        "▁cookies",
        -10.264128574953471
      ],
      [
        "▁inkomen",
        -10.264933837565955
      ],
      [
        "▁economische",
        -10.264978522607201
      ],
      [
        "▁Gewoon",
        -10.265118273472499
      ],
      [
        "▁aansprakelijk",
        -10.265627237651557
      ],
      [
        "▁onmogelijk",
        -10.266268966141553
      ],
      [
        "▁Piet",
        -10.266272748883807
      ],
      [
        "▁sociaal",
        -10.266410947771451
      ],
      [
        "▁https://t.co/",
        -10.266441153056636
      ],
      [
        "bal",
        -10.267337715520506
      ],
      [
        "box",
        -10.267991537794844
      ],
      [
        "▁cd",
        -10.268423056741167
      ],
      [
        "▁gebrek",
        -10.268649977621658
      ],
      [
        "▁uniek",
        -10.26902020878753
      ],
      [
        "wa",
        -10.269154612145915
      ],
      [
        "ip",
        -10.26973408778155
      ],
      [
        "dy",
        -10.269865845577378
      ],
      [
        "▁voelde",
        -10.27021364217039
      ],
      [
        "ron",
        -10.270368552354455
      ],
      [
        "▁kast",
        -10.271101386603586
      ],
      [
        "▁code",
        -10.27229772871473
      ],
      [
        "▁Johannes",
        -10.273088707466789
      ],
      [
        "▁installatie",
        -10.274056097990238
      ],
      [
        "▁2000",
        -10.274246199930367
      ],
      [
        "▁website.",
        -10.274943213531081
      ],
      [
        "▁06",
        -10.275522509890283
      ],
      [
        "▁voornamelijk",
        -10.275562382387019
      ],
      [
        "▁m2",
        -10.27575711010911
      ],
      [
        "▁televisie",
        -10.27601813545299
      ],
      [
        "▁lichte",
        -10.276084520759019
      ],
      [
        "del",
        -10.276291043884795
      ],
      [
        "▁klassieke",
        -10.277303374225543
      ],
      [
        "▁stonden",
        -10.277341614810702
      ],
      [
        "▁So",
        -10.277870825105719
      ],
      [
        "ps",
        -10.27790582167022
      ],
      [
        "▁inwoners",
        -10.27807125126524
      ],
      [
        "60",
        -10.27897093676679
      ],
      [
        "ië",
        -10.279492133174102
      ],
      [
        "33",
        -10.279841477436328
      ],
      [
        "materiaal",
        -10.279844615850655
      ],
      [
        "▁kies",
        -10.280719715805207
      ],
      [
        "▁pensioen",
        -10.280758343688913
      ],
      [
        "▁VVD",
        -10.281013474180781
      ],
      [
        "▁volwassenen",
        -10.281090984190946
      ],
      [
        "▁verdienen",
        -10.281554761760505
      ],
      [
        "con",
        -10.282088252232704
      ],
      [
        "▁technologie",
        -10.282178407524263
      ],
      [
        "isten",
        -10.283429270920767
      ],
      [
        "gel",
        -10.284372463013568
      ],
      [
        "▁verbeteren",
        -10.284511343658986
      ],
      [
        "io",
        -10.284947766904331
      ],
      [
        "▁Vaak",
        -10.28499154763048
      ],
      [
        "stelling",
        -10.285307051522011
      ],
      [
        "▁donker",
        -10.28609484917163
      ],
      [
        "▁kaartje",
        -10.286625077256065
      ],
      [
        "▁alcohol",
        -10.287074368496537
      ],
      [
        "▁nationale",
        -10.288489810021975
      ],
      [
        "▁2005",
        -10.288525795300572
      ],
      [
        "tisch",
        -10.288869907872407
      ],
      [
        "tuin",
        -10.289412073669618
      ],
      [
        "▁kabel",
        -10.289719586817451
      ],
      [
        "▁woonkamer",
        -10.289845640339603
      ],
      [
        "▁iPhone",
        -10.290026117039524
      ],
      [
        "druk",
        -10.290164018663544
      ],
      [
        "▁letterlijk",
        -10.290227054777633
      ],
      [
        "▁kansen",
        -10.29034552548449
      ],
      [
        "▁bedoeling",
        -10.290495760775345
      ],
      [
        "ook",
        -10.2905709115608
      ],
      [
        "handel",
        -10.290791249001211
      ],
      [
        "tre",
        -10.29138629720685
      ],
      [
        "▁schrijver",
        -10.29166630572804
      ],
      [
        "▁verwijderen",
        -10.291667565787062
      ],
      [
        "nummer",
        -10.29226019841527
      ],
      [
        "▁bodem",
        -10.293092266797252
      ],
      [
        "▁bel",
        -10.293151276816857
      ],
      [
        "▁negatieve",
        -10.293437626118687
      ],
      [
        "▁gevaar",
        -10.293873590992671
      ],
      [
        "14",
        -10.293901665669907
      ],
      [
        "▁zwangerschap",
        -10.293942597312213
      ],
      [
        "▁IN",
        -10.294166217196803
      ],
      [
        "goed",
        -10.294402775886537
      ],
      [
        "▁bal",
        -10.294568377940754
      ],
      [
        "→",
        -10.295166737053867
      ],
      [
        "▁overlijden",
        -10.29549688635463
      ],
      [
        "▁stellen.",
        -10.29573054747623
      ],
      [
        "-12",
        -10.296572503760498
      ],
      [
        "▁aangepast",
        -10.296989521034394
      ],
      [
        "▁onderhouden",
        -10.297677018845743
      ],
      [
        "bedrijven",
        -10.297778844715634
      ],
      [
        "▁individuele",
        -10.298651429415733
      ],
      [
        "▁eveneens",
        -10.298834311466312
      ],
      [
        "▁Zuid",
        -10.29889284111821
      ],
      [
        "res",
        -10.298986194445277
      ],
      [
        "bak",
        -10.299017483602539
      ],
      [
        "▁An",
        -10.299601932613408
      ],
      [
        "▁gerechten",
        -10.299660547316213
      ],
      [
        "tra",
        -10.299935293110067
      ],
      [
        "▁optimaal",
        -10.300339864910619
      ],
      [
        "▁dubbel",
        -10.300501657992879
      ],
      [
        "▁ondertussen",
        -10.300524583579646
      ],
      [
        "▁wetenschap",
        -10.301345997099002
      ],
      [
        "▁daarop",
        -10.301388875745614
      ],
      [
        "▁koper",
        -10.301663625500026
      ],
      [
        "▁bereikt",
        -10.301909824931766
      ],
      [
        "▁York",
        -10.302070567114765
      ],
      [
        "▁trap",
        -10.30293516937964
      ],
      [
        "ting",
        -10.303016014797358
      ],
      [
        "▁bord",
        -10.303067386974021
      ],
      [
        "▁relatief",
        -10.303479247799626
      ],
      [
        "▁woningen",
        -10.303494090310258
      ],
      [
        "?”",
        -10.303617599081754
      ],
      [
        "▁Prima",
        -10.304487268958336
      ],
      [
        "▁verse",
        -10.304869289295333
      ],
      [
        "▁tenminste",
        -10.305538558759228
      ],
      [
        "▁Krijg",
        -10.30554054289321
      ],
      [
        "▁Vlaanderen",
        -10.305567781924946
      ],
      [
        "leden",
        -10.305802150945983
      ],
      [
        "▁nabij",
        -10.306178768968419
      ],
      [
        "▁wedstrijden",
        -10.306217018113397
      ],
      [
        "▁situaties",
        -10.307117156497085
      ],
      [
        "▁rapport",
        -10.307202988995591
      ],
      [
        "bus",
        -10.307292524596976
      ],
      [
        "▁helpen.",
        -10.307338336808835
      ],
      [
        "▁trouwde",
        -10.307343186335011
      ],
      [
        "berg",
        -10.30757509033031
      ],
      [
        "▁twijfel",
        -10.308311115376641
      ],
      [
        "plein",
        -10.30832095031642
      ],
      [
        "toe",
        -10.308564322817329
      ],
      [
        "kast",
        -10.30862695250173
      ],
      [
        "▁wettelijke",
        -10.308775074259735
      ],
      [
        "▁noemt",
        -10.308887188424535
      ],
      [
        "naam",
        -10.308918094699578
      ],
      [
        "▁collega’s",
        -10.309407483589089
      ],
      [
        "▁details",
        -10.309584656602762
      ],
      [
        "ley",
        -10.309673919862444
      ],
      [
        "▁show",
        -10.310136683390091
      ],
      [
        "▁lengte",
        -10.310298545716826
      ],
      [
        "▁totdat",
        -10.310309434572085
      ],
      [
        "▁150",
        -10.310772829170507
      ],
      [
        "▁kabinet",
        -10.310848389286352
      ],
      [
        "▁gebruiker",
        -10.310930352670619
      ],
      [
        "▁daarnaast",
        -10.310976439293896
      ],
      [
        "▁management",
        -10.311679349950326
      ],
      [
        "▁update",
        -10.311847365385468
      ],
      [
        "vorm",
        -10.313098773807678
      ],
      [
        "lie",
        -10.313911685820699
      ],
      [
        "▁betalen.",
        -10.314373351207063
      ],
      [
        "=",
        -10.314793681699086
      ],
      [
        "▁zaal",
        -10.315214026821902
      ],
      [
        "▁rechtstreeks",
        -10.315604681656684
      ],
      [
        "▁Euro",
        -10.3160948542888
      ],
      [
        "▁openbare",
        -10.316165691846045
      ],
      [
        "▁kritiek",
        -10.3168019455541
      ],
      [
        "▁taak",
        -10.317067769086986
      ],
      [
        "▁Mac",
        -10.317249584186204
      ],
      [
        "▁geest",
        -10.317412637651524
      ],
      [
        "▁Jammer",
        -10.31767854914202
      ],
      [
        "▁verdere",
        -10.318346631898642
      ],
      [
        "▁hangen",
        -10.318358079365407
      ],
      [
        "▁wijzen",
        -10.318537664687899
      ],
      [
        "▁pand",
        -10.318773042168463
      ],
      [
        "so",
        -10.319133516397816
      ],
      [
        "feest",
        -10.31934091353337
      ],
      [
        "▁Had",
        -10.31955038174131
      ],
      [
        "onder",
        -10.320182859805143
      ],
      [
        "▁kwestie",
        -10.320486789784862
      ],
      [
        "zodra",
        -10.320931585840649
      ],
      [
        "▁PVV",
        -10.321356157088879
      ],
      [
        "▁beschermen",
        -10.321776479652694
      ],
      [
        "▁Zaterdag",
        -10.322254143292005
      ],
      [
        "▁terug.",
        -10.322940823702773
      ],
      [
        "Ondanks",
        -10.32306899921047
      ],
      [
        "▁do",
        -10.323191026089575
      ],
      [
        "▁klasse",
        -10.323238436576986
      ],
      [
        "▁gebracht.",
        -10.323960486524623
      ],
      [
        "▁arm",
        -10.32427832958974
      ],
      [
        "▁Werk",
        -10.32566406330788
      ],
      [
        "▁Rob",
        -10.325699658705167
      ],
      [
        "▁aanvragen",
        -10.326848447474188
      ],
      [
        "▁gedachte",
        -10.326991855284437
      ],
      [
        "vrij",
        -10.327111972192608
      ],
      [
        "▁Drie",
        -10.327902077278626
      ],
      [
        "▁stoel",
        -10.328254546358924
      ],
      [
        "▁vlucht",
        -10.328664478631378
      ],
      [
        "zet",
        -10.32875675236171
      ],
      [
        "▁wandeling",
        -10.32912100267203
      ],
      [
        "▁hierdoor",
        -10.329271023415373
      ],
      [
        "13",
        -10.32999522341252
      ],
      [
        "▁zout",
        -10.330509024765899
      ],
      [
        "▁werkte",
        -10.330767943445405
      ],
      [
        "???",
        -10.331002730529828
      ],
      [
        "▁Eerst",
        -10.3310226157171
      ],
      [
        "▁Dagen",
        -10.331440469889648
      ],
      [
        "▁email",
        -10.331541826776975
      ],
      [
        "▁transport",
        -10.331609462021346
      ],
      [
        "▁concert",
        -10.332650739578117
      ],
      [
        "▁documenten",
        -10.332686139297357
      ],
      [
        "▁bomen",
        -10.332690214649968
      ],
      [
        "delen",
        -10.332869045284644
      ],
      [
        "▁betaalt",
        -10.333071668772034
      ],
      [
        "▁Pas",
        -10.333241891686075
      ],
      [
        "▁velen",
        -10.333360044962948
      ],
      [
        "▁gewenste",
        -10.333544992183032
      ],
      [
        "▁Museum",
        -10.333631592023597
      ],
      [
        "▁Buiten",
        -10.333707448976636
      ],
      [
        "ium",
        -10.333821113778868
      ],
      [
        "▁bedacht",
        -10.333878140824215
      ],
      [
        "▁massage",
        -10.333983663378122
      ],
      [
        "zelf",
        -10.334095779074273
      ],
      [
        "▁\"De",
        -10.334542301926312
      ],
      [
        "diensten",
        -10.334671280518052
      ],
      [
        "pers",
        -10.334963602525704
      ],
      [
        "▁kinderen.",
        -10.334966285939192
      ],
      [
        "18",
        -10.335713471352026
      ],
      [
        "▁wereld.",
        -10.335921953657163
      ],
      [
        "▁modellen",
        -10.336399145129082
      ],
      [
        "▁gaat.",
        -10.337413258300426
      ],
      [
        "▁verkeerde",
        -10.33866972255748
      ],
      [
        "▁werkgever",
        -10.338706260456092
      ],
      [
        "▁burger",
        -10.33878215685279
      ],
      [
        "ana",
        -10.33903424884788
      ],
      [
        "▁dienstverlening",
        -10.339643001841178
      ],
      [
        "▁doelen",
        -10.33976878254765
      ],
      [
        "gebruik",
        -10.340095296738998
      ],
      [
        "▁Groen",
        -10.340109093378874
      ],
      [
        "hi",
        -10.340161205154082
      ],
      [
        "▁tegelijk",
        -10.340556441284448
      ],
      [
        "▁Anna",
        -10.34109523299859
      ],
      [
        "▁activiteit",
        -10.34140675991635
      ],
      [
        "▁geleerd",
        -10.3416551687401
      ],
      [
        "▁ondernemer",
        -10.34168940665127
      ],
      [
        "▁legt",
        -10.342011720720325
      ],
      [
        "▁tekort",
        -10.342541559700827
      ],
      [
        "set",
        -10.342809894479736
      ],
      [
        "tas",
        -10.342872744143351
      ],
      [
        "▁blijven.",
        -10.343419643182987
      ],
      [
        "▁katoen",
        -10.343862237027285
      ],
      [
        "▁doen?",
        -10.34395257382274
      ],
      [
        "▁banden",
        -10.34464514485516
      ],
      [
        "gi",
        -10.344856333885417
      ],
      [
        "▁webshop",
        -10.345059748648193
      ],
      [
        "▁maatschappij",
        -10.345550305122131
      ],
      [
        "▁neus",
        -10.345671606477215
      ],
      [
        "▁zand",
        -10.34593021869319
      ],
      [
        "▁interview",
        -10.347216090886661
      ],
      [
        "▁directe",
        -10.347283738311106
      ],
      [
        "▁evenement",
        -10.347284172927274
      ],
      [
        "▁deuren",
        -10.347340593146576
      ],
      [
        "▁kanten",
        -10.347383497411602
      ],
      [
        "maat",
        -10.347503384689398
      ],
      [
        "▁gevestigd",
        -10.347672117220963
      ],
      [
        "heid,",
        -10.348052315017123
      ],
      [
        "▁alsnog",
        -10.348927496320492
      ],
      [
        "baan",
        -10.349300478579153
      ],
      [
        "▁tijd.",
        -10.349411414673018
      ],
      [
        "acht",
        -10.349697719168308
      ],
      [
        "▁goed,",
        -10.349868107651623
      ],
      [
        "hand",
        -10.35035138528311
      ],
      [
        "▁wilden",
        -10.350437902640177
      ],
      [
        "bank",
        -10.351017847063416
      ],
      [
        "▁Ri",
        -10.35139719383462
      ],
      [
        "▁veroorzaakt",
        -10.35155226715548
      ],
      [
        "▁machine",
        -10.351614609695059
      ],
      [
        "middel",
        -10.351671260391335
      ],
      [
        "ont",
        -10.35171413187102
      ],
      [
        "▁beschreven",
        -10.353428330753278
      ],
      [
        "▁onmiddellijk",
        -10.35359053640584
      ],
      [
        "▁Media",
        -10.353738195603489
      ],
      [
        "▁museum",
        -10.35413598248564
      ],
      [
        "▁huisje",
        -10.354993739951563
      ],
      [
        "▁slachtoffer",
        -10.3551041924872
      ],
      [
        "▁erin",
        -10.35517785944227
      ],
      [
        "▁geïnteresseerd",
        -10.355415238332267
      ],
      [
        "▁boom",
        -10.355919988885324
      ],
      [
        "▁Leuke",
        -10.356076433554374
      ],
      [
        "’t",
        -10.356904310948412
      ],
      [
        "▁gemeenten",
        -10.357161994516083
      ],
      [
        "▁Twitter",
        -10.357244122239614
      ],
      [
        "“Het",
        -10.35730533325017
      ],
      [
        "vereniging",
        -10.357441069234795
      ],
      [
        "▁Ko",
        -10.357834151825635
      ],
      [
        "▁vandaan",
        -10.35840213959274
      ],
      [
        "▁wegen",
        -10.358711840884723
      ],
      [
        "▁instantie",
        -10.358941264819615
      ],
      [
        "▁circa",
        -10.35907489972531
      ],
      [
        "▁info@",
        -10.359506728549466
      ],
      [
        "zulke",
        -10.359653650010117
      ],
      [
        "▁topic",
        -10.360756246914569
      ],
      [
        "ging",
        -10.361446228600522
      ],
      [
        "▁Ne",
        -10.361490667400574
      ],
      [
        "mp",
        -10.361542668645674
      ],
      [
        "▁handige",
        -10.361766567145436
      ],
      [
        "▁verzamelen",
        -10.361975132658163
      ],
      [
        "▁krant",
        -10.362618196745181
      ],
      [
        "▁toestel",
        -10.362628923187607
      ],
      [
        "▁slaapkamers",
        -10.362906216953569
      ],
      [
        "▁interieur",
        -10.363157727246936
      ],
      [
        "▁Ka",
        -10.363610530432892
      ],
      [
        "▁zolang",
        -10.363750405439433
      ],
      [
        "▁creëren",
        -10.363943075005798
      ],
      [
        "▁ontdekken",
        -10.364066445168202
      ],
      [
        "▁minuut",
        -10.364176159630487
      ],
      [
        "▁tablet",
        -10.364281366565061
      ],
      [
        "▁staat.",
        -10.366742516107504
      ],
      [
        "▁beslissing",
        -10.36701510783346
      ],
      [
        "▁vooruit",
        -10.36705903884772
      ],
      [
        "▁Ta",
        -10.367246881030823
      ],
      [
        "▁Britse",
        -10.367308897238274
      ],
      [
        "▁verwerking",
        -10.36752563504701
      ],
      [
        "▁Commissie",
        -10.368287007251253
      ],
      [
        "ator",
        -10.369021710832524
      ],
      [
        "-B",
        -10.36902709305005
      ],
      [
        "De",
        -10.369058792488762
      ],
      [
        "fgelopen",
        -10.369315638109288
      ],
      [
        "▁tal",
        -10.369339656747197
      ],
      [
        "service",
        -10.36946085236885
      ],
      [
        "▁volop",
        -10.37091934669483
      ],
      [
        "▁grenzen",
        -10.37157202302131
      ],
      [
        "tor",
        -10.372038062613512
      ],
      [
        "▁kruiden",
        -10.372249036134246
      ],
      [
        "▁Ad",
        -10.372324355733653
      ],
      [
        "▁gespecialiseerd",
        -10.37236356574773
      ],
      [
        "▁vocht",
        -10.372409956923034
      ],
      [
        "▁Sa",
        -10.372505500683177
      ],
      [
        "punten",
        -10.373212078255683
      ],
      [
        "▁degelijk",
        -10.373321475079635
      ],
      [
        "ki",
        -10.373341784304497
      ],
      [
        "▁Prijs",
        -10.373417249190737
      ],
      [
        "▁openen",
        -10.373561080330958
      ],
      [
        "pas",
        -10.373625342838775
      ],
      [
        "▁ermee",
        -10.373819499647215
      ],
      [
        "▁modern",
        -10.373958356240268
      ],
      [
        "▁effecten",
        -10.373960445843062
      ],
      [
        "▁J.",
        -10.374205867864042
      ],
      [
        "▁hierboven",
        -10.374240786890319
      ],
      [
        "▁plus",
        -10.374556546734375
      ],
      [
        "▁platform",
        -10.374573700631265
      ],
      [
        "▁creatieve",
        -10.375309663548718
      ],
      [
        "▁afscheid",
        -10.375684266483653
      ],
      [
        "▁vergelijking",
        -10.375845075064426
      ],
      [
        "▁zekerheid",
        -10.376346066942919
      ],
      [
        "▁Berg",
        -10.376397828427468
      ],
      [
        "▁hield",
        -10.377440827971409
      ],
      [
        "▁Eerste",
        -10.37776656328312
      ],
      [
        ".be",
        -10.377814795947593
      ],
      [
        "▁weergegeven",
        -10.378117940168025
      ],
      [
        "▁bekijken.",
        -10.3790690477678
      ],
      [
        "▁toegevoegd",
        -10.379466913978312
      ],
      [
        "▁Prachtig",
        -10.379477728682922
      ],
      [
        "▁knop",
        -10.379535645789227
      ],
      [
        "▁officiële",
        -10.379769637061674
      ],
      [
        "ug",
        -10.379805869937286
      ],
      [
        "▁geholpen",
        -10.379953201230805
      ],
      [
        "?\"",
        -10.379997010361812
      ],
      [
        "▁Martin",
        -10.38061239146189
      ],
      [
        "▁stichting",
        -10.381014818904923
      ],
      [
        "▁klas",
        -10.381117451358264
      ],
      [
        "ica",
        -10.381974187402069
      ],
      [
        "tafel",
        -10.38263034440791
      ],
      [
        "▁betaal",
        -10.383084481338356
      ],
      [
        "▁(1",
        -10.383134383154056
      ],
      [
        "▁adviseren",
        -10.383194817654859
      ],
      [
        "▁nieuwsbrief",
        -10.383252817038004
      ],
      [
        "▁toilet",
        -10.383385676556374
      ],
      [
        "▁ontvang",
        -10.383515008950923
      ],
      [
        "▁goedkoop",
        -10.383692228047611
      ],
      [
        "▁uitkering",
        -10.38373359056736
      ],
      [
        "laag",
        -10.384100142519417
      ],
      [
        "▁beheer",
        -10.385072703796107
      ],
      [
        "▁speler",
        -10.38523865570393
      ],
      [
        "!”",
        -10.385248961535478
      ],
      [
        "▁advocaat",
        -10.385339506098319
      ],
      [
        "tig",
        -10.385845324687113
      ],
      [
        "▁broer",
        -10.385971240152138
      ],
      [
        "▁straf",
        -10.38648886661246
      ],
      [
        "bu",
        -10.386688626729166
      ],
      [
        "▁CD",
        -10.386790855817218
      ],
      [
        "▁momenten",
        -10.387111757269885
      ],
      [
        "▁raakt",
        -10.388414266098096
      ],
      [
        "au",
        -10.388669174944324
      ],
      [
        "▁aanbiedingen",
        -10.389103664897306
      ],
      [
        "06",
        -10.389633581470711
      ],
      [
        "pagina",
        -10.390305770229517
      ],
      [
        "▁daadwerkelijk",
        -10.390507362120728
      ],
      [
        "nes",
        -10.39065959740074
      ],
      [
        "▁generatie",
        -10.390732188295797
      ],
      [
        "·",
        -10.390734877748688
      ],
      [
        "Tevens",
        -10.390783353868091
      ],
      [
        "deel",
        -10.391332984333363
      ],
      [
        "▁300",
        -10.3916027869755
      ],
      [
        "75",
        -10.39181296307725
      ],
      [
        "▁verpakking",
        -10.391896403716355
      ],
      [
        "▁Microsoft",
        -10.392108233049242
      ],
      [
        "▁Kinderen",
        -10.392795320444815
      ],
      [
        "▁Gent",
        -10.393530758638477
      ],
      [
        "▁vliegen",
        -10.393785068321925
      ],
      [
        "▁eigenschappen",
        -10.39386945997003
      ],
      [
        "▁St.",
        -10.394153369235227
      ],
      [
        "eren.",
        -10.394443000205541
      ],
      [
        "▁Internet",
        -10.394984113143067
      ],
      [
        "36",
        -10.395404175395718
      ],
      [
        "▁acties",
        -10.395611552943352
      ],
      [
        "kom",
        -10.395725838649177
      ],
      [
        "▁groenten",
        -10.396285048434134
      ],
      [
        "▁jaarlijkse",
        -10.396616714416647
      ],
      [
        "▁partners",
        -10.396920478401753
      ],
      [
        "▁bijdragen",
        -10.396958545265237
      ],
      [
        "▁vertelde",
        -10.39709106614789
      ],
      [
        "▁dame",
        -10.39742275657932
      ],
      [
        "▁Albert",
        -10.39757836394886
      ],
      [
        "▁vrolijk",
        -10.397886386577412
      ],
      [
        "schreef:",
        -10.397941174566967
      ],
      [
        "▁genoemde",
        -10.398914130352603
      ],
      [
        "▁werkelijkheid",
        -10.401271358244777
      ],
      [
        "▁ondersteunen",
        -10.401367391356017
      ],
      [
        "▁Eindhoven",
        -10.401466448276157
      ],
      [
        "▁jaarlijks",
        -10.40177649369716
      ],
      [
        "▁ontvangen.",
        -10.401797469643757
      ],
      [
        "sp",
        -10.40186598674579
      ],
      [
        "▁onderweg",
        -10.401884091662218
      ],
      [
        "▁volgen.",
        -10.40211731818803
      ],
      [
        "▁Hendrik",
        -10.402181564731627
      ],
      [
        "▁uitgerust",
        -10.40242947099663
      ],
      [
        "▁afloop",
        -10.402462272051011
      ],
      [
        "▁Europees",
        -10.403004342768993
      ],
      [
        "▁consumenten",
        -10.403059578671368
      ],
      [
        "mar",
        -10.403120579743842
      ],
      [
        "ing.",
        -10.403169598178161
      ],
      [
        "post",
        -10.403320397754879
      ],
      [
        "▁zaten",
        -10.403640525049902
      ],
      [
        "▁hebt,",
        -10.403861694012729
      ],
      [
        "▁zagen",
        -10.403930778664815
      ],
      [
        "▁as",
        -10.404187909780841
      ],
      [
        "22",
        -10.404390634010145
      ],
      [
        "▁07",
        -10.404421472494992
      ],
      [
        "▁succesvolle",
        -10.40468125985646
      ],
      [
        "fer",
        -10.405136262051567
      ],
      [
        "▁oordeel",
        -10.405239185662964
      ],
      [
        "▁Pieter",
        -10.405921283760888
      ],
      [
        "▁gevolgd",
        -10.406005901182294
      ],
      [
        "▁Pi",
        -10.406322105462316
      ],
      [
        "▁goedkoper",
        -10.406391644495223
      ],
      [
        "▁verkeer",
        -10.406539237087205
      ],
      [
        "▁kanker",
        -10.406588994634031
      ],
      [
        "45",
        -10.406625662090907
      ],
      [
        "▁beurt",
        -10.406780397864607
      ],
      [
        "▁patiënt",
        -10.408023424773653
      ],
      [
        "▁co",
        -10.408121941192883
      ],
      [
        "▁val",
        -10.40812841647084
      ],
      [
        "▁avonds",
        -10.408158828954631
      ],
      [
        "▁01",
        -10.40835622744968
      ],
      [
        "▁omgeving.",
        -10.4084328724256
      ],
      [
        "ding",
        -10.408502970868657
      ],
      [
        "periode",
        -10.408598189137752
      ],
      [
        "kamp",
        -10.40864532697122
      ],
      [
        "vi",
        -10.408898095740621
      ],
      [
        "▁bv",
        -10.409057839302967
      ],
      [
        "▁steen",
        -10.409341685047476
      ],
      [
        "Zowel",
        -10.409441174005464
      ],
      [
        "mon",
        -10.40958490119401
      ],
      [
        "▁administratie",
        -10.410595361713682
      ],
      [
        "▁ontwerpen",
        -10.410721106445557
      ],
      [
        "kken",
        -10.41075040086248
      ],
      [
        "eur",
        -10.410950029664518
      ],
      [
        "▁duizenden",
        -10.411006112380367
      ],
      [
        "▁hoorde",
        -10.411098813448218
      ],
      [
        "▁presentatie",
        -10.41125200904348
      ],
      [
        "▁Bijvoorbeeld",
        -10.411843886693056
      ],
      [
        "31",
        -10.411851872228656
      ],
      [
        "▁verplichtingen",
        -10.412002575509245
      ],
      [
        "▁Heer",
        -10.412283521430549
      ],
      [
        "▁toevoegen",
        -10.412542628155006
      ],
      [
        "▁directeur",
        -10.412565878070403
      ],
      [
        "producten",
        -10.412750282350496
      ],
      [
        "▁veranderingen",
        -10.412976189772426
      ],
      [
        "Laatste",
        -10.413487653870142
      ],
      [
        "-03",
        -10.413733975174122
      ],
      [
        "heid.",
        -10.414252318092382
      ],
      [
        "▁kust",
        -10.414362204619126
      ],
      [
        "hout",
        -10.414713247244823
      ],
      [
        "elen",
        -10.414834266168238
      ],
      [
        "ap",
        -10.415158107204737
      ],
      [
        "▁zelfstandig",
        -10.415312369734353
      ],
      [
        "ian",
        -10.415344838125359
      ],
      [
        "▁Ho",
        -10.415497279028422
      ],
      [
        "▁aangesloten",
        -10.416652233989321
      ],
      [
        "▁dromen",
        -10.416684938458365
      ],
      [
        "▁trekt",
        -10.416927201369203
      ],
      [
        "▁dubbele",
        -10.417182338696897
      ],
      [
        "blad",
        -10.417422800780667
      ],
      [
        "▁relaties",
        -10.417990917213427
      ],
      [
        "▁Eén",
        -10.418382164275759
      ],
      [
        "▁Italië",
        -10.418423915377375
      ],
      [
        "▁verlichting",
        -10.419184897506023
      ],
      [
        "▁Overigens",
        -10.41972709843924
      ],
      [
[...]
