{
  "version": "1.0",
  "truncation": null,
  "padding": null,
  "added_tokens": [
    {
      "id": 0,
      "content": "[UNK]",
      "single_word": false,
      "lstrip": false,
      "rstrip": false,
      "normalized": false,
      "special": true
    },
    {
      "id": 1,
      "content": "[CLS]",
      "single_word": false,
      "lstrip": false,
      "rstrip": false,
      "normalized": false,
      "special": true
    },
    {
      "id": 2,
      "content": "[SEP]",
      "single_word": false,
      "lstrip": false,
      "rstrip": false,
      "normalized": false,
      "special": true
    },
    {
      "id": 3,
      "content": "[PAD]",
      "single_word": false,
      "lstrip": false,
      "rstrip": false,
      "normalized": false,
      "special": true
    },
    {
      "id": 4,
      "content": "[MASK]",
      "single_word": false,
      "lstrip": false,
      "rstrip": false,
      "normalized": false,
      "special": true
    }
  ],
  "normalizer": {
    "type": "Sequence",
    "normalizers": [
      {
        "type": "Nmt"
      },
      {
        "type": "NFKC"
      },
      {
        "type": "Replace",
        "pattern": {
          "Regex": " {2,}"
        },
        "content": " "
      }
    ]
  },
  "pre_tokenizer": {
    "type": "Metaspace",
    "replacement": "▁",
    "prepend_scheme": "always",
    "split": true
  },
  "post_processor": null,
  "decoder": {
    "type": "Metaspace",
    "replacement": "▁",
    "prepend_scheme": "always",
    "split": true
  },
  "model": {
    "type": "Unigram",
    "unk_id": 0,
    "vocab": [
      [
        "[UNK]",
        0.0
      ],
      [
        "[CLS]",
        0.0
      ],
      [
        "[SEP]",
        0.0
      ],
      [
        "[PAD]",
        0.0
      ],
      [
        "[MASK]",
        0.0
      ],
      [
        "▁",
        -3.059008629639729
      ],
      [
        ",",
        -4.033685910220203
      ],
      [
        "▁có",
        -4.63586835889404
      ],
      [
        "▁và",
        -4.661277075947011
      ],
      [
        "▁của",
        -4.665393502841679
      ],
      [
        ".",
        -4.737187502740319
      ],
      [
        "▁là",
        -4.7484913189891
      ],
      [
        "▁không",
        -4.874761347369086
      ],
      [
        "▁một",
        -5.033366151786856
      ],
      [
        "▁cho",
        -5.133326523235835
      ],
      [
        "▁được",
        -5.1596361685154175
      ],
      [
        "▁các",
        -5.161359624109293
      ],
      [
        "▁trong",
        -5.2290652525660235
      ],
      [
        "▁người",
        -5.239314965377208
      ],
      [
        "▁với",
        -5.315207396825686
      ],
      [
        "▁những",
        -5.481516574625347
      ],
      [
        "▁-",
        -5.516405021725513
      ],
      [
        "▁đã",
        -5.542708251164834
      ],
      [
        "▁thể",
        -5.5446332992542064
      ],
      [
        "▁để",
        -5.585004324089422
      ],
      [
        "▁như",
        -5.674268957269268
      ],
      [
        ":",
        -5.723424302772877
      ],
      [
        "▁làm",
        -5.7695027178250395
      ],
      [
        "▁về",
        -5.771322854146273
      ],
      [
        "▁đến",
        -5.772779725913198
      ],
      [
        "▁cũng",
        -5.783417101156683
      ],
      [
        "▁công",
        -5.78750210278408
      ],
      [
        "▁bạn",
        -5.797784069161192
      ],
      [
        "▁khi",
        -5.875384541508762
      ],
      [
        "ở",
        -5.88189175604608
      ],
      [
        "▁lại",
        -5.883691453405266
      ],
      [
        "▁ra",
        -5.891383100918082
      ],
      [
        "▁này",
        -5.901053537435079
      ],
      [
        "▁sẽ",
        -5.925805420350509
      ],
      [
        "▁vào",
        -5.956634543046642
      ],
      [
        "▁phải",
        -5.981476145561787
      ],
      [
        "▁tại",
        -5.996696865944811
      ],
      [
        "▁từ",
        -6.010739174534226
      ],
      [
        "▁sự",
        -6.046794882756066
      ],
      [
        "▁mà",
        -6.059605617252291
      ],
      [
        "▁trên",
        -6.078770999099428
      ],
      [
        "▁đầu",
        -6.097908599601084
      ],
      [
        "▁nhiều",
        -6.099216374055725
      ],
      [
        "▁nhà",
        -6.112387163413532
      ],
      [
        "▁bị",
        -6.115700530289358
      ],
      [
        "▁tôi",
        -6.1162582085007635
      ],
      [
        "▁chỉ",
        -6.119473409349878
      ],
      [
        "▁thì",
        -6.149405963268656
      ],
      [
        "▁thành",
        -6.156885830143569
      ],
      [
        "▁việc",
        -6.169382794832098
      ],
      [
        "▁động",
        -6.174146192860075
      ],
      [
        "▁đi",
        -6.186631269833471
      ],
      [
        "▁hiện",
        -6.190886666863566
      ],
      [
        "▁ta",
        -6.191613989034256
      ],
      [
        "▁hàng",
        -6.200721937864541
      ],
      [
        "▁học",
        -6.209771636987018
      ],
      [
        "▁dụng",
        -6.249638128667673
      ],
      [
        "▁chính",
        -6.2544880418876065
      ],
      [
        "▁năm",
        -6.272788936899897
      ],
      [
        "▁nhân",
        -6.301343151527885
      ],
      [
        "▁nhất",
        -6.303257657176681
      ],
      [
        "▁đó",
        -6.305698318930782
      ],
      [
        "▁quan",
        -6.306825069271932
      ],
      [
        "▁định",
        -6.314153513633977
      ],
      [
        "▁số",
        -6.314237432470543
      ],
      [
        "...",
        -6.317023917455778
      ],
      [
        "▁ngày",
        -6.3302429316353965
      ],
      [
        "▁thế",
        -6.330706207678116
      ],
      [
        "▁còn",
        -6.332481159586623
      ],
      [
        "▁con",
        -6.369918842268055
      ],
      [
        "▁nước",
        -6.38056576645927
      ],
      [
        "▁nói",
        -6.406733520765384
      ],
      [
        "▁rất",
        -6.4092371919247295
      ],
      [
        "▁theo",
        -6.4184197645507854
      ],
      [
        "▁nên",
        -6.420631626410611
      ],
      [
        "▁hợp",
        -6.433418031224649
      ],
      [
        "▁chúng",
        -6.446008185702654
      ],
      [
        "▁cách",
        -6.447569058855468
      ],
      [
        "▁mới",
        -6.448311393527657
      ],
      [
        "▁Việt",
        -6.449693716651643
      ],
      [
        "▁điều",
        -6.452441394529174
      ],
      [
        "▁tin",
        -6.46392679029084
      ],
      [
        "▁thực",
        -6.46484601058574
      ],
      [
        "▁giá",
        -6.465730875401915
      ],
      [
        "▁thời",
        -6.465979218759058
      ],
      [
        "▁anh",
        -6.470576083899639
      ],
      [
        "▁nhưng",
        -6.474137789671872
      ],
      [
        "▁sản",
        -6.4790840874214535
      ],
      [
        "▁mình",
        -6.4935220492729435
      ],
      [
        "▁gia",
        -6.501278504340492
      ],
      [
        "▁cả",
        -6.510871947526606
      ],
      [
        "▁thông",
        -6.513885159294599
      ],
      [
        "▁biết",
        -6.530060612809436
      ],
      [
        "▁–",
        -6.53816810268116
      ],
      [
        "▁cơ",
        -6.5388790859306685
      ],
      [
        "▁sinh",
        -6.549841142595861
      ],
      [
        "▁cùng",
        -6.5745568925022475
      ],
      [
        "▁đang",
        -6.5967227124898
      ],
      [
        "▁hình",
        -6.602922861522119
      ],
      [
        "▁sau",
        -6.6033974045551425
      ],
      [
        "▁Nam",
        -6.604777859881324
      ],
      [
        "▁thấy",
        -6.61059310055556
      ],
      [
        "▁cái",
        -6.61745184142956
      ],
      [
        "▁lý",
        -6.619380160588268
      ],
      [
        "▁hơn",
        -6.646267748668446
      ],
      [
        "▁cần",
        -6.654234937629726
      ],
      [
        "▁trường",
        -6.657506992424901
      ],
      [
        "▁đồng",
        -6.65928967293139
      ],
      [
        "▁vì",
        -6.6611947353687775
      ],
      [
        "▁phát",
        -6.663209601641819
      ],
      [
        "▁nào",
        -6.6673171917940195
      ],
      [
        ")",
        -6.6713761874047215
      ],
      [
        "▁sử",
        -6.672390669288372
      ],
      [
        "▁viên",
        -6.679056640390092
      ],
      [
        "▁nhận",
        -6.6849728587160815
      ],
      [
        "▁lên",
        -6.686359269814142
      ],
      [
        "▁hành",
        -6.688449014719824
      ],
      [
        "▁vụ",
        -6.69627690097383
      ],
      [
        "▁gì",
        -6.701059033748354
      ],
      [
        "▁trình",
        -6.716629489911734
      ],
      [
        "▁ông",
        -6.718717001290454
      ],
      [
        "▁tư",
        -6.7216813792609855
      ],
      [
        "▁cô",
        -6.725725857186115
      ],
      [
        "▁cao",
        -6.732244153731818
      ],
      [
        "▁kinh",
        -6.732717867206887
      ],
      [
        "▁mặt",
        -6.734667449278046
      ],
      [
        "▁đối",
        -6.741814083359619
      ],
      [
        "▁trước",
        -6.747937867857681
      ],
      [
        "▁hay",
        -6.749281275825924
      ],
      [
        "▁qua",
        -6.757349416766411
      ],
      [
        "▁cấp",
        -6.762317535701355
      ],
      [
        "▁năng",
        -6.76795362884722
      ],
      [
        "▁bản",
        -6.768684785538676
      ],
      [
        "▁tự",
        -6.774446410783597
      ],
      [
        "▁khác",
        -6.802967271902055
      ],
      [
        "▁muốn",
        -6.803057389448721
      ],
      [
        "▁khách",
        -6.804794787575927
      ],
      [
        "”",
        -6.8168276920136375
      ],
      [
        "ý",
        -6.825797804502637
      ],
      [
        "▁tình",
        -6.835084956300603
      ],
      [
        "▁phẩm",
        -6.8351137911559885
      ],
      [
        "▁kết",
        -6.8396761409014655
      ],
      [
        "▁bảo",
        -6.840665740530357
      ],
      [
        "▁dân",
        -6.848003656171585
      ],
      [
        "▁toàn",
        -6.849499200116416
      ],
      [
        "▁em",
        -6.850882913289469
      ],
      [
        "▁đây",
        -6.856403925936068
      ],
      [
        "▁tâm",
        -6.856516004641268
      ],
      [
        "▁bằng",
        -6.856940247690625
      ],
      [
        "▁bộ",
        -6.859035476073048
      ],
      [
        "▁hội",
        -6.864221989860718
      ],
      [
        "▁máy",
        -6.874115830335155
      ],
      [
        "▁nghiệp",
        -6.880322563064997
      ],
      [
        "▁hai",
        -6.884307741279569
      ],
      [
        "▁“",
        -6.886783836365446
      ],
      [
        "▁(",
        -6.888647653804512
      ],
      [
        "▁chủ",
        -6.890858464168518
      ],
      [
        "▁chất",
        -6.897291818858998
      ],
      [
        "▁tác",
        -6.897517983917073
      ],
      [
        "▁do",
        -6.899518717563907
      ],
      [
        "▁1",
        -6.899620410126516
      ],
      [
        "▁đề",
        -6.902078709706691
      ],
      [
        "▁gian",
        -6.914428429602477
      ],
      [
        "▁hiệu",
        -6.915677813681398
      ],
      [
        "▁cảm",
        -6.916935809808708
      ],
      [
        "▁phòng",
        -6.920821047897553
      ],
      [
        "▁lượng",
        -6.9286537940817805
      ],
      [
        "▁pháp",
        -6.933003170236912
      ],
      [
        "▁xuất",
        -6.936559974112452
      ],
      [
        "▁tiếp",
        -6.937252850839048
      ],
      [
        "▁hệ",
        -6.938597146585808
      ],
      [
        "▁độ",
        -6.948396064111213
      ],
      [
        "▁hoặc",
        -6.9526047412890986
      ],
      [
        "▁loại",
        -6.955115124149609
      ],
      [
        "▁tính",
        -6.95533893374135
      ],
      [
        "▁điểm",
        -6.957800595519192
      ],
      [
        "▁ăn",
        -6.968285513816012
      ],
      [
        "▁tới",
        -6.9714858830198665
      ],
      [
        "▁thiết",
        -6.981333987326357
      ],
      [
        "▁quả",
        -6.982284006971559
      ],
      [
        "▁nhìn",
        -6.989514100131634
      ],
      [
        "▁vẫn",
        -6.9904553872836885
      ],
      [
        "▁vị",
        -6.9950962612066405
      ],
      [
        "▁tế",
        -6.997260569363338
      ],
      [
        "▁phần",
        -6.997486031665808
      ],
      [
        "▁tài",
        -7.001425273915402
      ],
      [
        "▁chức",
        -7.001899218184535
      ],
      [
        "▁quá",
        -7.001952079095222
      ],
      [
        "▁tạo",
        -7.011549842224843
      ],
      [
        "?",
        -7.016321190858921
      ],
      [
        "▁giúp",
        -7.0163935972611675
      ],
      [
        "▁thức",
        -7.021328228088631
      ],
      [
        "▁kế",
        -7.023584652929673
      ],
      [
        "▁đại",
        -7.031078899552137
      ],
      [
        "▁trị",
        -7.036520875146945
      ],
      [
        "▁đều",
        -7.040133014878972
      ],
      [
        "▁tốt",
        -7.041369212019088
      ],
      [
        "▁yêu",
        -7.044823645492601
      ],
      [
        "▁doanh",
        -7.045630343005902
      ],
      [
        "▁2",
        -7.051494911888113
      ],
      [
        "▁thường",
        -7.051568239393042
      ],
      [
        "▁liên",
        -7.054936490851679
      ],
      [
        "▁đường",
        -7.055543836122453
      ],
      [
        "▁tháng",
        -7.056901333785296
      ],
      [
        "▁cầu",
        -7.0650788838713705
      ],
      [
        "▁sống",
        -7.0678708076046775
      ],
      [
        "▁tay",
        -7.068799710086031
      ],
      [
        "▁vấn",
        -7.069918417954856
      ],
      [
        "▁họ",
        -7.073883927604628
      ],
      [
        "▁Công",
        -7.089580665152834
      ],
      [
        "▁giới",
        -7.089596310737168
      ],
      [
        "▁sao",
        -7.091016710452839
      ],
      [
        "▁giải",
        -7.09212166038996
      ],
      [
        "▁điện",
        -7.098220391679284
      ],
      [
        "▁bài",
        -7.108505472581042
      ],
      [
        "▁trang",
        -7.110013826209418
      ],
      [
        "▁bên",
        -7.110715185696414
      ],
      [
        "▁trở",
        -7.114626517948409
      ],
      [
        "▁văn",
        -7.121207994071748
      ],
      [
        "▁xe",
        -7.127785565689855
      ],
      [
        "▁bệnh",
        -7.130474740388966
      ],
      [
        "!",
        -7.133558663303594
      ],
      [
        "▁dùng",
        -7.143083221791873
      ],
      [
        "▁Hà",
        -7.148490938180862
      ],
      [
        "▁nó",
        -7.156545440251916
      ],
      [
        "▁tiền",
        -7.157644688016022
      ],
      [
        "▁cuộc",
        -7.157675106800758
      ],
      [
        "▁giờ",
        -7.158049807377536
      ],
      [
        "▁Trung",
        -7.158170035195244
      ],
      [
        "▁thị",
        -7.159346748188566
      ],
      [
        "▁dự",
        -7.167091297932478
      ],
      [
        ";",
        -7.173205336240102
      ],
      [
        "▁bao",
        -7.173243528549207
      ],
      [
        "▁bất",
        -7.173901025180914
      ],
      [
        "▁\"",
        -7.181816318445771
      ],
      [
        "▁triển",
        -7.183471902962559
      ],
      [
        "▁lúc",
        -7.187639210751222
      ],
      [
        "▁lần",
        -7.187853383674227
      ],
      [
        "▁báo",
        -7.190555727032594
      ],
      [
        "▁thương",
        -7.197650935450007
      ],
      [
        "▁tìm",
        -7.198729230458309
      ],
      [
        "▁lớn",
        -7.199209277910114
      ],
      [
        "▁quy",
        -7.199994437693546
      ],
      [
        "▁Các",
        -7.201555762353587
      ],
      [
        "▁hoạt",
        -7.202336738728274
      ],
      [
        "▁tập",
        -7.20348945360341
      ],
      [
        "▁Quốc",
        -7.204329770688366
      ],
      [
        "▁ảnh",
        -7.205808083343838
      ],
      [
        "i",
        -7.206125530875521
      ],
      [
        "▁tiêu",
        -7.206467178126294
      ],
      [
        "▁quốc",
        -7.21967295568899
      ],
      [
        "▁thật",
        -7.2220186068901295
      ],
      [
        "▁xem",
        -7.2276516293327475
      ],
      [
        "▁tiếng",
        -7.229067915481368
      ],
      [
        "▁nhiên",
        -7.230737668675246
      ],
      [
        "▁mọi",
        -7.234950765883715
      ],
      [
        "▁dịch",
        -7.235960409944255
      ],
      [
        "▁thống",
        -7.237310847242695
      ],
      [
        "▁lực",
        -7.239679317929584
      ],
      [
        "▁chưa",
        -7.240741032014615
      ],
      [
        "▁mắt",
        -7.2499975974308075
      ],
      [
        "▁lịch",
        -7.258553266520623
      ],
      [
        "▁nội",
        -7.259931382879666
      ],
      [
        "▁chuyện",
        -7.261432396942862
      ],
      [
        "▁chọn",
        -7.262760600585432
      ],
      [
        "▁dẫn",
        -7.267440882222678
      ],
      [
        "▁án",
        -7.268970632255289
      ],
      [
        "▁nếu",
        -7.2690915309111865
      ],
      [
        "▁quyết",
        -7.276848629967716
      ],
      [
        "▁quyền",
        -7.282035821253082
      ],
      [
        "▁thân",
        -7.284555363429906
      ],
      [
        "▁lời",
        -7.286952406209229
      ],
      [
        "▁thứ",
        -7.2902259410470105
      ],
      [
        "▁tăng",
        -7.294563573121554
      ],
      [
        "▁rồi",
        -7.302379962768761
      ],
      [
        "▁hắn",
        -7.304119471880194
      ],
      [
        "▁mang",
        -7.309378814681329
      ],
      [
        "▁bán",
        -7.310690286058007
      ],
      [
        "n",
        -7.311476289534596
      ],
      [
        "▁vừa",
        -7.312240470289467
      ],
      [
        "▁hoàn",
        -7.312729705634757
      ],
      [
        "▁3",
        -7.312963251567885
      ],
      [
        "▁địa",
        -7.316295893606053
      ],
      [
        "m",
        -7.324481386698654
      ],
      [
        "▁Anh",
        -7.3282305373268795
      ],
      [
        "▁nay",
        -7.328564546592144
      ],
      [
        "▁phương",
        -7.331819659557839
      ],
      [
        "▁thu",
        -7.33200500202795
      ],
      [
        "▁hóa",
        -7.33494171867385
      ],
      [
        "▁nhập",
        -7.335664831250606
      ],
      [
        "▁mua",
        -7.337969686847911
      ],
      [
        "▁trọng",
        -7.340780672887568
      ],
      [
        "▁đẹp",
        -7.342105351520058
      ],
      [
        "▁ngoài",
        -7.344105335338854
      ],
      [
        "▁tổ",
        -7.345532119963902
      ],
      [
        "t",
        -7.346367505317282
      ],
      [
        "▁rằng",
        -7.347734276253458
      ],
      [
        "▁viết",
        -7.349032234886977
      ],
      [
        "▁sách",
        -7.349634071411755
      ],
      [
        "▁an",
        -7.350943952035502
      ],
      [
        "▁ty",
        -7.35682839159581
      ],
      [
        "▁đơn",
        -7.358362256779298
      ],
      [
        "▁lòng",
        -7.358579139101284
      ],
      [
        "▁tử",
        -7.365204714673228
      ],
      [
        "\"",
        -7.365538268777655
      ],
      [
        "▁vậy",
        -7.367014487920301
      ],
      [
        "▁đổi",
        -7.376292394557426
      ],
      [
        "▁liệu",
        -7.392999348297435
      ],
      [
        "-",
        -7.395473178715768
      ],
      [
        "▁bắt",
        -7.396271120522936
      ],
      [
        "▁Nội",
        -7.396396909411102
      ],
      [
        "▁sức",
        -7.396411878059732
      ],
      [
        "▁thêm",
        -7.397740928591999
      ],
      [
        "▁lập",
        -7.398132892527062
      ],
      [
        "▁chế",
        -7.402015863493377
      ],
      [
        "▁thích",
        -7.402052632793604
      ],
      [
        "▁trung",
        -7.4020835064406825
      ],
      [
        "▁sở",
        -7.4058287193166485
      ],
      [
        "▁đánh",
        -7.411260329761349
      ],
      [
        "▁chi",
        -7.411882103226386
      ],
      [
        "▁bình",
        -7.4127440089595655
      ],
      [
        "▁giáo",
        -7.413545291218085
      ],
      [
        "▁Văn",
        -7.415043602377509
      ],
      [
        "▁đất",
        -7.418469494711642
      ],
      [
        "▁trẻ",
        -7.420884725848113
      ],
      [
        "▁Trong",
        -7.421962664383887
      ],
      [
        "▁Những",
        -7.4219812624965
      ],
      [
        "▁tham",
        -7.422302741786936
      ],
      [
        "▁hướng",
        -7.4301310513821885
      ],
      [
        "▁trí",
        -7.4307586750655705
      ],
      [
        "▁giao",
        -7.433406182347204
      ],
      [
        "▁biệt",
        -7.437199432717394
      ],
      [
        "▁ký",
        -7.449765490270453
      ],
      [
        "▁Bạn",
        -7.454630957272169
      ],
      [
        "▁vật",
        -7.458031142139298
      ],
      [
        "▁ứng",
        -7.463229877719517
      ],
      [
        "y",
        -7.465509337569671
      ],
      [
        "▁quản",
        -7.466878407356804
      ],
      [
        "▁kỳ",
        -7.468208134943646
      ],
      [
        "▁xã",
        -7.468801648547293
      ],
      [
        "▁sáng",
        -7.471984245568564
      ],
      [
        "▁Một",
        -7.473729780825449
      ],
      [
        "▁chuyên",
        -7.477367467986429
      ],
      [
        "▁Không",
        -7.4807905239239005
      ],
      [
        "▁dựng",
        -7.483060156553224
      ],
      [
        "▁chuyển",
        -7.483115586884905
      ],
      [
        "▁thi",
        -7.48693987684862
      ],
      [
        "▁trợ",
        -7.493999462676461
      ],
      [
        "▁phụ",
        -7.495481504392124
      ],
      [
        "▁nơi",
        -7.497346589111299
      ],
      [
        "▁chứng",
        -7.506190098981454
      ],
      [
        "▁du",
        -7.50874349660616
      ],
      [
        "▁đặc",
        -7.509664737211169
      ],
      [
        "▁luôn",
        -7.509783948199614
      ],
      [
        "▁nghệ",
        -7.513345084097779
      ],
      [
        "▁Có",
        -7.513850365648391
      ],
      [
        "▁thay",
        -7.520775485336358
      ],
      [
        "▁nghĩ",
        -7.524400336727199
      ],
      [
        "▁ngay",
        -7.524500869663443
      ],
      [
        "▁nữ",
        -7.526450426941368
      ],
      [
        "▁khu",
        -7.527275235203955
      ],
      [
        "▁khó",
        -7.527395473129275
      ],
      [
        "▁kiến",
        -7.527635889362518
      ],
      [
        "▁vô",
        -7.5278267567607
      ],
      [
        "▁Nếu",
        -7.53146626246401
      ],
      [
        "▁Tôi",
        -7.531585808964945
      ],
      [
        "▁Bộ",
        -7.533401888043997
      ],
      [
        "▁gần",
        -7.539704909302143
      ],
      [
        "▁tục",
        -7.540973112124153
      ],
      [
        "▁ai",
        -7.541182404846275
      ],
      [
        "▁xây",
        -7.5433030013259454
      ],
      [
        "▁từng",
        -7.551730712638005
      ],
      [
        "▁đưa",
        -7.551972443597069
      ],
      [
        "▁biến",
        -7.5526433508368065
      ],
      [
        "▁đặt",
        -7.559702683231372
      ],
      [
        "▁nhanh",
        -7.5602423875225835
      ],
      [
        "▁chị",
        -7.561647811106321
      ],
      [
        "▁phí",
        -7.562417153448504
      ],
      [
        "▁chiến",
        -7.564209359938136
      ],
      [
        "▁tất",
        -7.569067609195969
      ],
      [
        "▁thanh",
        -7.570561974583141
      ],
      [
        "▁hết",
        -7.572160580306791
      ],
      [
        "▁nguyên",
        -7.5795857530499156
      ],
      [
        "▁đăng",
        -7.582281759899399
      ],
      [
        "▁tích",
        -7.584363981856502
      ],
      [
        "▁hiểu",
        -7.585460607463061
      ],
      [
        "▁đó,",
        -7.587054885511142
      ],
      [
        "▁phục",
        -7.589762070747216
      ],
      [
        "▁thuật",
        -7.590491740685847
      ],
      [
        "▁câu",
        -7.591612465728561
      ],
      [
        "▁cứ",
        -7.59475075001701
      ],
      [
        "▁mẹ",
        -7.595182525985026
      ],
      [
        "▁da",
        -7.596051291991385
      ],
      [
        "▁bỏ",
        -7.600076252995192
      ],
      [
        "▁bởi",
        -7.60143181038457
      ],
      [
        "▁đạo",
        -7.605123753696921
      ],
      [
        "▁phân",
        -7.606411973755964
      ],
      [
        "▁đồ",
        -7.607660565941156
      ],
      [
        "▁hỏi",
        -7.610944960389981
      ],
      [
        "▁tên",
        -7.612157853703954
      ],
      [
        "▁nhiệm",
        -7.613386192852664
      ],
      [
        "▁cá",
        -7.62196624994929
      ],
      [
        "▁giảm",
        -7.624879261997613
      ],
      [
        "▁lấy",
        -7.625207916669961
      ],
      [
        "▁trả",
        -7.625632062279667
      ],
      [
        "▁thuộc",
        -7.6292615368651315
      ],
      [
        "▁nhỏ",
        -7.630261154030068
      ],
      [
        "▁thủ",
        -7.631035707461267
      ],
      [
        "▁Nguyễn",
        -7.6313128683804905
      ],
      [
        "▁kiện",
        -7.639191646075856
      ],
      [
        "▁tiết",
        -7.639891675610903
      ],
      [
        "▁khiến",
        -7.64123139544019
      ],
      [
        "▁cứu",
        -7.641481489073515
      ],
      [
        "▁đủ",
        -7.6427253040570395
      ],
      [
        "▁mục",
        -7.643128509863088
      ],
      [
        "▁lợi",
        -7.6438672543492725
      ],
      [
        "▁nhau",
        -7.643929451186546
      ],
      [
        "▁gặp",
        -7.644062616072983
      ],
      [
        "▁sĩ",
        -7.645328701447264
      ],
      [
        "▁Chính",
        -7.647005300358559
      ],
      [
        "▁5",
        -7.6497249596222225
      ],
      [
        "▁căn",
        -7.653840825727427
      ],
      [
        "▁mỗi",
        -7.654144564699665
      ],
      [
        "▁rõ",
        -7.659663462901342
      ],
      [
        "▁cung",
        -7.66580298376098
      ],
      [
        "▁nghe",
        -7.666034653001347
      ],
      [
        "▁10",
        -7.6682729537203524
      ],
      [
        "▁cáo",
        -7.669581140739398
      ],
      [
        "▁càng",
        -7.672159899439421
      ],
      [
        "▁chung",
        -7.67329851045964
      ],
      [
        "▁mạnh",
        -7.674093635083597
      ],
      [
        "▁tức",
        -7.675067573791038
      ],
      [
        "▁truyền",
        -7.676953584984222
      ],
      [
        "▁tiên",
        -7.677642041365916
      ],
      [
        "▁nghiệm",
        -7.678817084617821
      ],
      [
        "▁hộ",
        -7.679243264013211
      ],
      [
        "▁gây",
        -7.679467494417516
      ],
      [
        "▁ấy",
        -7.679702172399638
      ],
      [
        "▁Nhưng",
        -7.681907212039448
      ],
      [
        "▁dung",
        -7.683271754755449
      ],
      [
        "▁ngươi",
        -7.684749883687781
      ],
      [
        "▁diện",
        -7.689306993685296
      ],
      [
        "▁dễ",
        -7.690645493818158
      ],
      [
        "▁nàng",
        -7.6908095352563866
      ],
      [
        "▁bà",
        -7.691342740585263
      ],
      [
        "▁Điều",
        -7.691937325428112
      ],
      [
        "▁đúng",
        -7.694996066915731
      ],
      [
        "▁dưới",
        -7.697951708613008
      ],
      [
        "▁Thông",
        -7.702382538023919
      ],
      [
        "▁cửa",
        -7.703246656558587
      ],
      [
        "▁trực",
        -7.703899923910676
      ],
      [
        "▁tuổi",
        -7.708501035953567
      ],
      [
        "▁đời",
        -7.710842389534422
      ],
      [
        "▁tinh",
        -7.718408362260353
      ],
      [
        "▁phố",
        -7.721454585901965
      ],
      [
        "▁cảnh",
        -7.7249655955289835
      ],
      [
        "▁ban",
        -7.726472564176756
      ],
      [
        "▁vệ",
        -7.727104423221929
      ],
      [
        "▁tiến",
        -7.7301623661736425
      ],
      [
        "▁gọi",
        -7.730284942726762
      ],
      [
        "▁Người",
        -7.741157237136434
      ],
      [
        "▁4",
        -7.743304191318927
      ],
      [
        "▁vực",
        -7.745157529687219
      ],
      [
        "▁mở",
        -7.746190921674618
      ],
      [
        "▁tượng",
        -7.746429477535775
      ],
      [
        "▁màu",
        -7.748699483600454
      ],
      [
        "▁mất",
        -7.750392784574384
      ],
      [
        "▁này,",
        -7.75298557645198
      ],
      [
        "▁Mỹ",
        -7.75300019476834
      ],
      [
        "▁đầy",
        -7.755693424271206
      ],
      [
        "▁giữa",
        -7.7562294533520255
      ],
      [
        "c",
        -7.758511474035437
      ],
      [
        "▁hữu",
        -7.761218913708785
      ],
      [
        "▁đình",
        -7.7620030856144115
      ],
      [
        "▁chuẩn",
        -7.7625980041131655
      ],
      [
        "▁chân",
        -7.7632591503069435
      ],
      [
        "/",
        -7.767765131923593
      ],
      [
        "▁nổi",
        -7.7699607345995005
      ],
      [
        "▁cổ",
        -7.77227600226837
      ],
      [
        "▁Đại",
        -7.77387994328074
      ],
      [
        "▁đàn",
        -7.778531066282518
      ],
      [
        "▁xác",
        -7.782918568446171
      ],
      [
        "▁bé",
        -7.7858289077024825
      ],
      [
        "▁diễn",
        -7.787469769097363
      ],
      [
        "▁chí",
        -7.797322866593603
      ],
      [
        "▁dù",
        -7.8009789834601975
      ],
      [
        "▁vui",
        -7.801587204999144
      ],
      [
        "▁tỉnh",
        -7.801829804127683
      ],
      [
        "▁Nhà",
        -7.802940163709479
      ],
      [
        "▁luật",
        -7.810826391999985
      ],
      [
        "▁Tin",
        -7.811763525808452
      ],
      [
        "▁chiếc",
        -7.812504140231393
      ],
      [
        "▁kiểm",
        -7.815664678883643
      ],
      [
        "▁khí",
        -7.816106387001087
      ],
      [
        "▁vi",
        -7.8171616376320845
      ],
      [
        "▁luận",
        -7.821610105495703
      ],
      [
        "▁kỹ",
        -7.825625029789132
      ],
      [
        "▁thư",
        -7.826100887580765
      ],
      [
        "▁trưởng",
        -7.8264624145446575
      ],
      [
        "▁nghĩa",
        -7.826803491481574
      ],
      [
        "▁Hội",
        -7.827390850525214
      ],
      [
        "▁tra",
        -7.830437690655041
      ],
      [
        "▁Thành",
        -7.8384467275942065
      ],
      [
        "▁khoản",
        -7.840360906460516
      ],
      [
        "▁bàn",
        -7.840899923823947
      ],
      [
        "▁toán",
        -7.845489469805921
      ],
      [
        "▁khai",
        -7.847234980285025
      ],
      [
        "▁Minh",
        -7.849062824003148
      ],
      [
        "▁khả",
        -7.851936892184993
      ],
      [
        "▁sát",
        -7.853971445576478
      ],
      [
        "▁dục",
        -7.854772189911694
      ],
      [
        "▁tưởng",
        -7.857716873191103
      ],
      [
        "▁Sau",
        -7.864196328155687
      ],
      [
        "▁thần",
        -7.864261928236594
      ],
      [
        "▁mức",
        -7.865411811001405
      ],
      [
        "▁xin",
        -7.865779090012747
      ],
      [
        "▁ít",
        -7.866973242044692
      ],
      [
        "▁phía",
        -7.868002718075795
      ],
      [
        "▁biểu",
        -7.868729278221789
      ],
      [
        "▁ba",
        -7.869882512916853
      ],
      [
        "▁Bình",
        -7.87264994028931
      ],
      [
        "▁triệu",
        -7.875327247358703
      ],
      [
        "▁chơi",
        -7.877275846466606
      ],
      [
        "▁khoảng",
        -7.883234035851958
      ],
      [
        "▁hồ",
        -7.8883849560335335
      ],
      [
        "▁tranh",
        -7.888440449348241
      ],
      [
        "▁bay",
        -7.889905990859946
      ],
      [
        "▁bố",
        -7.895983639080347
      ],
      [
        "▁Khi",
        -7.8987905511107535
      ],
      [
        "▁phong",
        -7.90160786770574
      ],
      [
        "▁xuống",
        -7.903312001846718
      ],
      [
        "▁tổng",
        -7.904740598304873
      ],
      [
        "▁này.",
        -7.909726126657292
      ],
      [
        "▁quý",
        -7.911308891063923
      ],
      [
        "▁chia",
        -7.912053887750991
      ],
      [
        "a",
        -7.912494392575248
      ],
      [
        "▁nữa",
        -7.913749753532928
      ],
      [
        "▁áp",
        -7.91478945330924
      ],
      [
        "▁tương",
        -7.914864714632701
      ],
      [
        "▁cố",
        -7.916105810776754
      ],
      [
        "▁chút",
        -7.919255224851071
      ],
      [
        "▁tỷ",
        -7.9193416231022375
      ],
      [
        "▁lưu",
        -7.9199789644280685
      ],
      [
        "▁vốn",
        -7.920539757610474
      ],
      [
        "▁chống",
        -7.9214589997362435
      ],
      [
        "▁tối",
        -7.923980716122374
      ],
      [
        "▁Bài",
        -7.9248956423916255
      ],
      [
        "▁hưởng",
        -7.925338039230892
      ],
      [
        "▁Tổng",
        -7.925715260375522
      ],
      [
        "▁giữ",
        -7.926650334660975
      ],
      [
        "▁phép",
        -7.929434564420298
      ],
      [
        "▁chịu",
        -7.93826362619428
      ],
      [
        "▁hãy",
        -7.938799440954714
      ],
      [
        "▁cuối",
        -7.943582638162061
      ],
      [
        "▁đáng",
        -7.945153054569872
      ],
      [
        "▁cậu",
        -7.945800499553002
      ],
      [
        "▁dài",
        -7.946439277558218
      ],
      [
        "▁yếu",
        -7.94677491342676
      ],
      [
        "▁sắc",
        -7.950146040116415
      ],
      [
        "▁mạng",
        -7.95136477371946
      ],
      [
        "▁nguồn",
        -7.959387447555665
      ],
      [
        "▁Đăng",
        -7.962117091583174
      ],
      [
        "▁quân",
        -7.966328975020945
      ],
      [
        "▁hạn",
        -7.971651473089626
      ],
      [
        "▁minh",
        -7.974778573865338
      ],
      [
        "▁Liên",
        -7.975353995024561
      ],
      [
        "s",
        -7.979853495587401
      ],
      [
        "▁giả",
        -7.982679232329424
      ],
      [
        "▁xử",
        -7.983200973395865
      ],
      [
        "▁kiếm",
        -7.985690095934887
      ],
      [
        "▁gái",
        -7.9875486254389845
      ],
      [
        "▁Tuy",
        -7.988843269933055
      ],
      [
        "▁danh",
        -7.990631720982865
      ],
      [
        "▁thuốc",
        -7.991469494453318
      ],
      [
        "▁độc",
        -7.993056605804458
      ],
      [
        "▁khoa",
        -7.996012848696978
      ],
      [
        "▁đoàn",
        -7.997120381306152
      ],
      [
        "▁đội",
        -7.997490602046803
      ],
      [
        "▁Chủ",
        -8.005366265193743
      ],
      [
        "▁cụ",
        -8.00618782168232
      ],
      [
        "▁hoạch",
        -8.0063958828565
      ],
      [
        "▁cực",
        -8.007212166710532
      ],
      [
        "▁Hồ",
        -8.007629846531378
      ],
      [
        "▁thuê",
        -8.010072826581117
      ],
      [
        "▁mật",
        -8.011197835252622
      ],
      [
        "▁hôm",
        -8.012111761988104
      ],
      [
        "▁chương",
        -8.01316761613581
      ],
      [
        "▁đứng",
        -8.013855795568775
      ],
      [
        "▁vậy,",
        -8.018386635106449
      ],
      [
        "▁bước",
        -8.021203638378331
      ],
      [
        "▁phạm",
        -8.02191105681609
      ],
      [
        ").",
        -8.027540064703512
      ],
      [
        "▁cười",
        -8.028385327724227
      ],
      [
        "▁giống",
        -8.029398550992184
      ],
      [
        "▁đau",
        -8.031315750986147
      ],
      [
        "▁sang",
        -8.035078379191232
      ],
      [
        "▁trách",
        -8.036217721561286
      ],
      [
        "▁chẳng",
        -8.03749188277205
      ],
      [
        "▁hoa",
        -8.038175544731901
      ],
      [
        "▁đảm",
        -8.040990559734395
      ],
      [
        "u",
        -8.043467746001811
      ],
      [
        "▁Thanh",
        -8.050114943639176
      ],
      [
        "▁cạnh",
        -8.050463769894398
      ],
      [
        "▁cư",
        -8.050725576533221
      ],
      [
        "▁lựa",
        -8.05111438200704
      ],
      [
        "▁Theo",
        -8.05433086782703
      ],
      [
        "▁chết",
        -8.054445296769098
      ],
      [
        "▁6",
        -8.05624422038991
      ],
      [
        "▁chắc",
        -8.058729763350446
      ],
      [
        "▁âm",
        -8.063742891692558
      ],
      [
        "▁chú",
        -8.068319018333053
      ],
      [
        "▁sơ",
        -8.0707850201447
      ],
      [
        "▁hỗ",
        -8.071659792486617
      ],
      [
        "▁đạt",
        -8.072332335929726
      ],
      [
        "▁thoại",
        -8.0726624916914
      ],
      [
        "▁đa",
        -8.073242812716634
      ],
      [
        "▁trạng",
        -8.074758089295651
      ],
      [
        "▁vẻ",
        -8.076012108466472
      ],
      [
        "▁khẩu",
        -8.080469592653252
      ],
      [
        "▁An",
        -8.080549721003925
      ],
      [
        "▁cây",
        -8.081623153857562
      ],
      [
        "▁khỏi",
        -8.083833725621853
      ],
      [
        "▁...",
        -8.084936088783397
      ],
      [
        "▁đâu",
        -8.085339058000143
      ],
      [
        "▁ngành",
        -8.085437722844906
      ],
      [
        "▁kia",
        -8.08645410806179
      ],
      [
        "▁nghị",
        -8.086802760792386
      ],
      [
        "▁thất",
        -8.090123061633031
      ],
      [
        "▁Cho",
        -8.09313444110772
      ],
      [
        "▁tiện",
        -8.102242719544185
      ],
      [
        "▁gửi",
        -8.104361343317555
      ],
      [
        "▁đọc",
        -8.105793805094208
      ],
      [
        "▁áo",
        -8.107761339499671
      ],
      [
        "▁Nhật",
        -8.108956791510542
      ],
      [
        "▁vận",
        -8.112196525637474
      ],
      [
        "▁nhiên,",
        -8.113588706823972
      ],
      [
        "▁dưỡng",
        -8.120308640325586
      ],
      [
        "▁Kinh",
        -8.122385138445193
      ],
      [
        "▁so",
        -8.123331243653945
      ],
      [
        "▁Với",
        -8.124776501056878
      ],
      [
        "▁khỏe",
        -8.12500136720553
      ],
      [
        "▁mẫu",
        -8.126328119562524
      ],
      [
        "▁phù",
        -8.127444215011968
      ],
      [
        "▁di",
        -8.128599227923676
      ],
      [
        "▁chạy",
        -8.128746917624056
      ],
      [
        "▁nam",
        -8.131367519492178
      ],
      [
        "▁ích",
        -8.13577251889989
      ],
      [
        "▁chỗ",
        -8.139216886431301
      ],
      [
        "▁kể",
        -8.139512541080666
      ],
      [
        "▁nhớ",
        -8.14168704364789
      ],
      [
        "▁lâu",
        -8.142863703472708
      ],
      [
        "▁C",
        -8.14749157650174
      ],
      [
        "▁2018",
        -8.149443557481744
      ],
      [
        "▁lo",
        -8.153126636188546
      ],
      [
        "▁liền",
        -8.155659839018261
      ],
      [
        "▁Đức",
        -8.155896348781123
      ],
      [
        "▁Từ",
        -8.15691879074379
      ],
      [
        "▁sẻ",
        -8.15915244552954
      ],
      [
        "▁Vì",
        -8.159685216677264
      ],
      [
        "▁mấy",
        -8.159948794755934
      ],
      [
        "▁hồi",
        -8.160105074926161
      ],
      [
        "▁phản",
        -8.160544384313923
      ],
      [
        "▁xa",
        -8.165234613247339
      ],
      [
        "▁Chương",
        -8.16776789962105
      ],
      [
        "▁thiếu",
        -8.169089498262801
      ],
      [
        "▁vùng",
        -8.169576066758781
      ],
      [
        "”.",
        -8.17030816646436
      ],
      [
        "▁tuyệt",
        -8.171281999148581
      ],
      [
        "▁phủ",
        -8.171543944141725
      ],
      [
        "▁Bản",
        -8.172079070817192
      ],
      [
        "▁tín",
        -8.17398139051341
      ],
      [
        "▁tố",
        -8.181524202796586
      ],
      [
        "▁rộng",
        -8.18494602237471
      ],
      [
        "▁7",
        -8.184962138465753
      ],
      [
        "▁Ông",
        -8.185479839192718
      ],
      [
        "▁viện",
        -8.186410016731674
      ],
      [
        "▁Và",
        -8.186412520480506
      ],
      [
        "▁đôi",
        -8.186929467327731
      ],
      [
        "▁Trang",
        -8.188705755510288
      ],
      [
        "▁vài",
        -8.190253615240382
      ],
      [
        "▁khá",
        -8.192245128001824
      ],
      [
        "▁Chúng",
        -8.195103789437933
      ],
      [
        "▁cập",
        -8.197045251648078
      ],
      [
        "▁Thiên",
        -8.198614488919663
      ],
      [
        "▁ánh",
        -8.199894191758396
      ],
      [
        "▁giác",
        -8.20054473506929
      ],
      [
        "▁môi",
        -8.200709095170877
      ],
      [
        "▁ngồi",
        -8.200795230092588
      ],
      [
        "▁Cô",
        -8.201072496690466
      ],
      [
        "▁bóng",
        -8.20381219224159
      ],
      [
        "▁dành",
        -8.203968716328696
      ],
      [
        "▁Thế",
        -8.207965046601295
      ],
      [
        "g",
        -8.208379853018661
      ],
      [
        "▁trái",
        -8.208534418990194
      ],
      [
        "▁bác",
        -8.210691323046769
      ],
      [
        "▁_",
        -8.213877761698148
      ],
      [
        "▁phá",
        -8.214357845285411
      ],
      [
        "▁uống",
        -8.216480822703875
      ],
      [
        "▁lớp",
        -8.222737053238344
      ],
      [
        "▁Hoàng",
        -8.22435472673382
      ],
      [
        "ng",
        -8.225153288984991
      ],
      [
        "▁riêng",
        -8.225773933139545
      ],
      [
        "▁đem",
        -8.229527145863306
      ],
      [
        "▁lao",
        -8.230540489496285
      ],
      [
        "▁nằm",
        -8.235666039666597
      ],
      [
        "▁mình.",
        -8.235889127466256
      ],
      [
        "▁Để",
        -8.237504029630056
      ],
      [
        "▁trò",
        -8.238018041893335
      ],
      [
        "▁lẽ",
        -8.239433733787623
      ],
      [
        "▁cộng",
        -8.241532132763417
      ],
      [
        "▁đá",
        -8.242603587057703
      ],
      [
        "▁ngủ",
        -8.244261821706646
      ],
      [
        "▁sợ",
        -8.257129402683963
      ],
      [
        "▁ngoại",
        -8.258317746705186
      ],
      [
        "▁đoạn",
        -8.263269461258075
      ],
      [
        "▁Đồng",
        -8.264652055179782
      ],
      [
        "▁Du",
        -8.265714657586797
      ],
      [
        "▁Chỉ",
        -8.268093065300251
      ],
      [
        "▁kích",
        -8.26839832874908
      ],
      [
        "▁Giáo",
        -8.270425318526916
      ],
      [
        "▁Trần",
        -8.27667490715517
      ],
      [
        "▁Chúa",
        -8.277199215756093
      ],
      [
        "▁sư",
        -8.278740522114012
      ],
      [
        "▁chữa",
        -8.280120923101984
      ],
      [
        "▁Đây",
        -8.281587213572838
      ],
      [
        "▁đấu",
        -8.281588607789246
      ],
      [
        "▁đáp",
        -8.285864590019646
      ],
      [
        "▁góp",
        -8.290588358703454
      ],
      [
        "▁Hoa",
        -8.290604667715352
      ],
      [
        "▁lãnh",
        -8.292243440128923
      ],
      [
        "▁nâng",
        -8.293099117761292
      ],
      [
        "▁Dương",
        -8.296970566507895
      ],
      [
        "▁+",
        -8.297931517747609
      ],
      [
        "▁mặc",
        -8.301603686690953
      ],
      [
        "▁nghiên",
        -8.301976824754995
      ],
      [
        "▁vợ",
        -8.303166178076232
      ],
      [
        "▁ngân",
        -8.303681430790702
      ],
      [
        "▁Thủ",
        -8.304215714173834
      ],
      [
        ".”",
        -8.305156044343256
      ],
      [
        "▁suy",
        -8.30673101913592
      ],
      [
        "▁Chí",
        -8.308847841647378
      ],
      [
        "▁món",
        -8.313965277022353
      ],
      [
        "▁sửa",
        -8.314584195832428
      ],
      [
        "▁ra,",
        -8.31485434966708
      ],
      [
        "▁Đông",
        -8.315227686721926
      ],
      [
        "▁Cách",
        -8.317305289158893
      ],
      [
        "in",
        -8.318687493751892
      ],
      [
        "▁không?",
        -8.320048650872517
      ],
      [
        "▁Trường",
        -8.323126462193319
      ],
      [
        "▁chồng",
        -8.325967164447276
      ],
      [
        "▁bổ",
        -8.330762273760667
      ],
      [
        "▁nguy",
        -8.330806943587527
      ],
      [
        "▁bọn",
        -8.332234801864901
      ],
      [
        "▁vọng",
        -8.336538479982782
      ],
      [
        "▁dạng",
        -8.341119848876678
      ],
      [
        "▁trời",
        -8.342299592844919
      ],
      [
        "▁đóng",
        -8.344326603174697
      ],
      [
        "▁Tư",
        -8.344346995344033
      ],
      [
        "▁Thiết",
        -8.346919464441056
      ],
      [
        "▁xét",
        -8.34826775157227
      ],
      [
        "o",
        -8.350225821352321
      ],
      [
        "▁hơn.",
        -8.35060630663486
      ],
      [
        "▁tiểu",
        -8.351297083760237
      ],
      [
        "▁hòa",
        -8.351906915896619
      ],
      [
        "▁Ban",
        -8.352445247880647
      ],
      [
        "▁Tài",
        -8.356297339305977
      ],
      [
        "▁Tây",
        -8.358345437824111
      ],
      [
        "▁biển",
        -8.362239357504736
      ],
      [
        "▁mô",
        -8.362509457615294
      ],
      [
        "▁thái",
        -8.37006127704606
      ],
      [
        "▁Tại",
        -8.37150636521878
      ],
      [
        "▁tuyến",
        -8.372811108257252
      ],
      [
        "▁vòng",
        -8.372980130884843
      ],
      [
        "▁hiểm",
        -8.37349342552551
      ],
      [
        "▁Bắc",
        -8.374635052434702
      ],
      [
        "▁nhu",
        -8.374897617739213
      ],
      [
        "▁Sở",
        -8.378400180669216
      ],
      [
        "▁gồm",
        -8.37921766495301
      ],
      [
        "▁rẻ",
        -8.381429967935123
      ],
      [
        "▁tịch",
        -8.387013485205463
      ],
      [
        "▁ca",
        -8.387424994504176
      ],
      [
        "▁tránh",
        -8.387707654937843
      ],
      [
        "▁ưu",
        -8.388135158120228
      ],
      [
        "▁quay",
        -8.390597540108645
      ],
      [
        "▁Phật",
        -8.39343920367678
      ],
      [
        "▁thiện",
        -8.393733484163887
      ],
      [
        "▁mềm",
        -8.396316203866645
      ],
      [
        "▁Ngày",
        -8.397340805722417
      ],
      [
        "▁thiên",
        -8.40053062324285
      ],
      [
        "▁Thời",
        -8.402733764711975
      ],
      [
        "▁nhóm",
        -8.405107950142765
      ],
      [
        "▁Học",
        -8.40782782094905
      ],
      [
        "▁hạ",
        -8.408071617725918
      ],
      [
        "▁Dịch",
        -8.408873021886938
      ],
      [
        "▁thẩm",
        -8.408879163019584
      ],
      [
        "▁chấp",
        -8.409089204558235
      ],
      [
        "▁vàng",
        -8.411791393316824
      ],
      [
        "▁thuận",
        -8.411919040169536
      ],
      [
        "▁môn",
        -8.412509455173034
      ],
      [
        "h",
        -8.416232443762327
      ],
      [
        "▁&",
        -8.417183705513077
      ],
      [
        "▁miễn",
        -8.418249778733681
      ],
      [
        "▁lễ",
        -8.421383176406025
      ],
      [
        "▁lệ",
        -8.421748150286376
      ],
      [
        "▁giấy",
        -8.422735946848505
      ],
      [
        "▁mong",
        -8.423145334719798
      ],
      [
        "▁Thái",
        -8.42373294217275
      ],
      [
        "▁hậu",
        -8.425796947463574
      ],
      [
        "ô",
        -8.425948896157148
      ],
      [
        "▁sâu",
        -8.4279383762487
      ],
      [
        "▁xảy",
        -8.428013401648153
      ],
      [
        "▁dấu",
        -8.428016881931987
      ],
      [
        "▁mại",
        -8.429515865313352
      ],
      [
        "▁nói:",
        -8.430052605731856
      ],
      [
        "▁thuế",
        -8.435610457824428
      ],
      [
        "▁lạnh",
        -8.436268338254912
      ],
      [
        "▁kéo",
        -8.438032371286662
      ],
      [
        "▁ơn",
        -8.439285789038347
      ],
      [
        "▁tướng",
        -8.439376707413906
      ],
      [
        "▁quảng",
        -8.439940496302789
      ],
      [
        "▁ghi",
        -8.442501304046086
      ],
      [
        "▁hơi",
        -8.443281312190667
      ],
      [
        "▁duy",
        -8.447694882212094
      ],
      [
        "▁đào",
        -8.448873695452969
      ],
      [
        "▁cân",
        -8.450126939079217
      ],
      [
        "▁lĩnh",
        -8.452377401569256
      ],
      [
        "▁cường",
        -8.45314607138532
      ],
      [
        "▁dòng",
        -8.455247709531426
      ],
      [
        "▁8",
        -8.45538064674282
      ],
      [
        "▁trắng",
        -8.456681877044419
      ],
      [
        "▁nền",
        -8.458275936568509
      ],
      [
        "▁tuyển",
        -8.458622664198769
      ],
      [
        "▁đông",
        -8.45916164215214
      ],
      [
        "▁Bảo",
        -8.459190983550908
      ],
      [
        "▁Số",
        -8.460320999288243
      ],
      [
        "▁chăm",
        -8.463020289007282
      ],
      [
        "▁cải",
        -8.464157706565803
      ],
      [
        "▁nhẹ",
        -8.46535615957213
      ],
      [
        "▁Hãy",
        -8.468040657192024
      ],
      [
        "▁Địa",
        -8.469268480681697
      ],
      [
        "▁mùa",
        -8.469542205279687
      ],
      [
        "▁dạy",
        -8.47200547861464
      ],
      [
        "▁sớm",
        -8.47421350942621
      ],
      [
        "▁chiều",
        -8.477156478907249
      ],
      [
        "▁Sự",
        -8.477821765787656
      ],
      [
        "▁Long",
        -8.477969869703784
      ],
      [
        "▁trai",
        -8.47905444473133
      ],
      [
        ".\"",
        -8.479134159675814
      ],
      [
        "▁truyện",
        -8.47976501049754
      ],
      [
        "),",
        -8.480412892447552
      ],
      [
        "▁đấy",
        -8.480904994841818
      ],
      [
        "▁giản",
        -8.482600236864055
      ],
      [
        "▁lộ",
        -8.48948024753238
      ],
      [
        "▁kỷ",
        -8.491536748431173
      ],
      [
        "▁Hàn",
        -8.499845617489779
      ],
      [
        "▁rồi,",
        -8.50050823994488
      ],
      [
        "▁tải",
        -8.500797613041444
      ],
      [
        "▁nhiệt",
        -8.504427847174432
      ],
      [
        "▁quần",
        -8.507528682105837
      ],
      [
        "▁buổi",
        -8.509355282416115
      ],
      [
        "▁nhật",
        -8.509859993296736
      ],
      [
        "▁nông",
        -8.511029001236677
      ],
      [
        "▁cha",
        -8.51144488196497
      ],
      [
        "▁Ngoài",
        -8.512174238950129
      ],
      [
        "▁tận",
        -8.517050606517428
      ],
      [
        "▁nhất.",
        -8.519220947961566
      ],
      [
        "▁nghỉ",
        -8.521227684375665
      ],
      [
        "▁Pháp",
        -8.523938944846398
      ],
      [
        "▁hại",
        -8.524878960569316
      ],
      [
        "▁B",
        -8.525134249997134
      ],
      [
        "▁đêm",
        -8.52588509815436
      ],
      [
        "▁tuần",
        -8.527032852253962
      ],
      [
        "▁bật",
        -8.527233144013962
      ],
      [
        "▁đích",
        -8.528356803640078
      ],
      [
        "▁hút",
        -8.530880247647703
      ],
      [
        "▁Thị",
        -8.53297485114843
      ],
      [
        "▁thử",
        -8.533214968028407
      ],
      [
        "▁mỹ",
        -8.533268715072092
      ],
      [
        "▁tầng",
        -8.533360408167805
      ],
      [
        "▁đừng",
        -8.5339023360268
      ],
      [
        "▁kẻ",
        -8.535170324934933
      ],
      [
        "▁chờ",
        -8.535590772789137
      ],
      [
        "▁12",
        -8.538331014799374
      ],
      [
        "▁niệm",
        -8.538955105491372
      ],
      [
        "p",
        -8.542035401166878
      ],
      [
        "▁phối",
        -8.54434994871933
      ],
      [
        "▁sai",
        -8.547691192511879
      ],
      [
        "▁lỗi",
        -8.549623598022016
      ],
      [
        "▁Quy",
        -8.549716211627816
      ],
      [
        "▁Phương",
        -8.550392360285384
      ],
      [
        "▁thú",
        -8.55275007451021
      ],
      [
        "▁Hướng",
        -8.553995436260882
      ],
      [
        "▁Luật",
        -8.555807420125024
      ],
      [
        "▁quen",
        -8.556221559267405
      ],
      [
        "▁sân",
        -8.55685480847751
      ],
      [
        "▁đô",
        -8.558118186210448
      ],
      [
        "▁trì",
        -8.561263295097131
      ],
      [
        "▁mắc",
        -8.56210457909519
      ],
      [
        "▁nghề",
        -8.562378708431886
      ],
      [
        "▁nhằm",
        -8.567226734267146
      ],
      [
        "▁Em",
        -8.568574083128285
      ],
      [
        "▁thiệu",
        -8.572625098954832
      ],
      [
        "▁ngờ",
        -8.574781487528112
      ],
      [
        "▁Hải",
        -8.575459774737517
      ],
      [
        "▁linh",
        -8.575873757755698
      ],
      [
        "▁thảo",
        -8.576608515792316
      ],
      [
        "▁Quận",
        -8.578836092542101
      ],
      [
        "▁khám",
        -8.579648228866725
      ],
      [
        "▁trận",
        -8.579916078987416
      ],
      [
        "▁khóa",
        -8.581103848170375
      ],
      [
        "▁Phòng",
        -8.582054732653953
      ],
      [
        "▁phim",
        -8.584368313795931
      ],
      [
        "▁Làm",
        -8.58733627593014
      ],
      [
        "▁Nhân",
        -8.587582070064782
      ],
      [
        "▁mình,",
        -8.588293871520392
      ],
      [
        "▁hấp",
        -8.588333721619119
      ],
      [
        "▁sóc",
        -8.591340769609955
      ],
      [
        "▁quanh",
        -8.592530909973528
      ],
      [
        "▁phút",
        -8.596125399423013
      ],
      [
        "▁bí",
        -8.597288079617371
      ],
      [
        "▁coi",
        -8.598376188348725
      ],
      [
        "▁Lê",
        -8.598712564860264
      ],
      [
        "▁Xem",
        -8.60135553726636
      ],
      [
        "▁máu",
        -8.604060435615443
      ],
      [
        "▁Đà",
        -8.605854932745649
      ],
      [
        "▁Cơ",
        -8.60687525038924
      ],
      [
        "▁bây",
        -8.60836279855177
      ],
      [
        "▁giám",
        -8.610412137424209
      ],
      [
        "▁đó.",
        -8.612075821566485
      ],
      [
        "▁Nguyên",
        -8.613585104154836
      ],
      [
        "▁thăm",
        -8.616368454927366
      ],
      [
        "▁Báo",
        -8.620992207473925
      ],
      [
        "▁9",
        -8.621482610133777
      ],
      [
        "▁dầu",
        -8.623204297725072
      ],
      [
        "▁Máy",
        -8.623381096651217
      ],
      [
        "▁website",
        -8.623577243100394
      ],
      [
        "▁trải",
        -8.624350731576495
      ],
      [
        "uy",
        -8.624564536879673
      ],
      [
        "▁đột",
        -8.625252382315416
      ],
      [
        "▁dàng",
        -8.625564716325632
      ],
      [
        "▁xanh",
        -8.627353246016966
      ],
      [
        "▁nay,",
        -8.629198697820746
      ],
      [
        "”,",
        -8.629231644566714
      ],
      [
        "▁xuyên",
        -8.633424268006237
      ],
      [
        "▁Điện",
        -8.635857344913012
      ],
      [
        "▁khắc",
        -8.639734877673984
      ],
      [
        "▁Y",
        -8.644228861034199
      ],
      [
        "▁hôn",
        -8.647765568345852
      ],
      [
        "▁xúc",
        -8.649201558570907
      ],
      [
        "▁nuôi",
        -8.652645479519041
      ],
      [
        "▁Ta",
        -8.653182319959177
      ],
      [
        "▁Đối",
        -8.656268553947415
      ],
      [
        "▁khởi",
        -8.658562740008936
      ],
      [
        "▁miền",
        -8.65896452903236
      ],
      [
        "▁lạc",
        -8.659611214333403
      ],
      [
        "▁chỉnh",
        -8.659820482462946
      ],
      [
        "▁cầm",
        -8.66041449394564
      ],
      [
        "▁tóc",
        -8.660561164456263
      ],
      [
        "▁đẩy",
        -8.661275971190568
      ],
      [
        "▁Tìm",
        -8.661894428595003
      ],
      [
        "▁nhạc",
        -8.663068855005214
      ],
      [
        "▁chóng",
        -8.663464100476363
      ],
      [
        "▁Lý",
        -8.667590948922868
      ],
      [
        "▁Việc",
        -8.66979447868435
      ],
      [
        "▁Giá",
        -8.67013548980155
      ],
      [
        "▁tội",
        -8.671229378436017
      ],
      [
        "▁nóng",
        -8.671699181117724
      ],
      [
        "▁Phong",
        -8.672690284103158
      ],
      [
        "▁kiểu",
        -8.67344877910526
      ],
      [
        "▁tai",
        -8.677563240689773
      ],
      [
        "▁khảo",
        -8.678023957606275
      ],
      [
        "▁vượt",
        -8.678088651502305
      ],
      [
        "▁vai",
        -8.67908267702134
      ],
      [
        "▁Sản",
        -8.68175823872913
      ],
      [
        "▁Quảng",
        -8.682190677433187
      ],
      [
        "▁Lâm",
        -8.682396279436546
      ],
      [
        "▁Linh",
        -8.684714275217178
      ],
      [
        "▁Kỳ",
        -8.686290644648924
      ],
      [
        "▁thưởng",
        -8.686369271169891
      ],
      [
        "▁đảo",
        -8.687051690388508
      ],
      [
        "▁chắn",
        -8.689102298902572
      ],
      [
        "▁dữ",
        -8.690141663278242
      ],
      [
        "▁Con",
        -8.691498982836642
      ],
      [
        "▁chữ",
        -8.693260109876098
      ],
      [
        "▁to",
        -8.696756512656613
      ],
      [
        "▁huyện",
        -8.700630376149343
      ],
      [
        "▁1.",
        -8.70185760497035
      ],
      [
        "▁hạnh",
        -8.70268395092087
      ],
      [
        "▁dây",
        -8.706024349522991
      ],
      [
        "▁nói,",
        -8.706353009631625
      ],
      [
        "▁lạ",
        -8.707511967923079
      ],
      [
        "▁kính",
        -8.709456592727902
      ],
      [
        "▁lão",
        -8.712138956913448
      ],
      [
        "▁Thực",
        -8.712171365494969
      ],
      [
        "▁yên",
        -8.715815001730215
      ],
      [
        "hẳng",
        -8.716366436335255
      ],
      [
        "▁tộc",
        -8.717321732163926
      ],
      [
        "▁thủy",
        -8.717942860512851
      ],
      [
        "▁phổ",
        -8.718005724728137
      ],
      [
        "▁20",
        -8.718125574092648
      ],
      [
        "▁thúc",
        -8.718261477594718
      ],
      [
        "▁Vũ",
        -8.71830617751149
      ],
      [
        "▁luyện",
        -8.719996065828976
      ],
      [
        "▁Gia",
        -8.721788030327088
      ],
      [
        "▁suất",
        -8.722367104897273
      ],
      [
        "▁Như",
        -8.724262667251725
      ],
      [
        "▁nối",
        -8.724410964415037
      ],
      [
        "▁bức",
        -8.725037831809724
      ],
      [
        "▁nhờ",
        -8.725229268659282
      ],
      [
        "▁Hai",
        -8.725609805571024
      ],
      [
        "▁nữa,",
        -8.726452980811525
      ],
      [
        "▁màn",
        -8.72703549132357
      ],
      [
        "▁Hiện",
        -8.727198984530805
      ],
      [
        "▁ngữ",
        -8.728805789416286
      ],
      [
        "▁niên",
        -8.729268127676479
      ],
      [
        "▁gì?",
        -8.729477390178433
      ],
      [
        "▁ngôi",
        -8.730802377813546
      ],
      [
        "Ở",
        -8.731745424753289
      ],
      [
        "▁truy",
        -8.731853660788333
      ],
      [
        "▁sắp",
        -8.73326706474372
      ],
      [
        "▁Đường",
        -8.733513031441612
      ],
      [
        "▁may",
        -8.73522596234658
      ],
      [
        "▁Tân",
        -8.737233670774927
      ],
      [
        "▁khăn",
        -8.737480226896249
      ],
      [
        "▁đỏ",
        -8.739739219101699
      ],
      [
        "▁nữa.",
        -8.742899829518825
      ],
      [
        "▁sung",
        -8.743468548514176
      ],
      [
        "▁khác.",
        -8.744229646794322
      ],
      [
        "▁nghi",
        -8.745700591115929
      ],
      [
        "▁Bà",
        -8.74699948275884
      ],
      [
        "▁mã",
        -8.748466529811619
      ],
      [
        "▁Do",
        -8.748631339644087
      ],
      [
        "▁chứ",
        -8.749995551030242
      ],
      [
        "▁sạch",
        -8.750132429809808
      ],
      [
        "▁lại,",
        -8.752481687511446
      ],
      [
        "▁Về",
        -8.752678841045094
      ],
      [
        "▁đây,",
        -8.753988133724262
      ],
      [
        "▁giai",
        -8.754075616752827
      ],
      [
        "▁phận",
        -8.75558383639497
      ],
      [
        "▁bánh",
        -8.759363445629008
      ],
      [
        "'",
        -8.765643707156375
      ],
      [
        "▁cấu",
        -8.768557217756367
      ],
      [
        "▁nghiêm",
        -8.771251575568103
      ],
      [
        "▁thai",
        -8.771432116407475
      ],
      [
        "e",
        -8.771912604546992
      ],
      [
        "▁xếp",
        -8.772309309478786
      ],
      [
        "▁tuy",
        -8.773400035497865
      ],
      [
        "▁quán",
        -8.77386459181161
      ],
      [
        "▁2017",
        -8.773908010493864
      ],
      [
        "▁Năm",
        -8.774644672227772
      ],
      [
        "▁Tiểu",
        -8.778419070003846
      ],
      [
        "▁tim",
        -8.778670710328717
      ],
      [
        "▁răng",
        -8.779688836516062
      ],
      [
        "▁»",
        -8.780138657713993
      ],
      [
        "▁nắm",
        -8.780156895578132
      ],
      [
        "▁cán",
        -8.780549969300044
      ],
      [
        "▁M",
        -8.781939640735423
      ],
      [
        "▁tầm",
        -8.783174273165317
      ],
      [
        "▁sao?",
        -8.785962672981972
      ],
      [
        "▁sẵn",
        -8.78611282404596
      ],
      [
        "▁hoàng",
        -8.788798905962992
      ],
      [
        "▁phúc",
        -8.789679492808467
      ],
      [
        "▁tặng",
        -8.791413267366748
      ],
      [
        "▁ấn",
        -8.791790886039376
      ],
      [
        "▁Sơn",
        -8.79429043054823
      ],
      [
        "▁bầu",
        -8.795104127091577
      ],
      [
        "▁thấp",
        -8.797294015837123
      ],
      [
        "▁phê",
        -8.798337837773861
      ],
      [
        "▁2.",
        -8.798747606565493
      ],
      [
        "▁dần",
        -8.802079323048705
      ],
      [
        "▁đốc",
        -8.802811266345962
      ],
      [
        "▁30",
        -8.80669436308799
      ],
      [
        "▁mãi",
        -8.806993261800525
      ],
      [
        "▁lượt",
        -8.808549350609479
      ],
      [
        "▁ngăn",
        -8.808611105064927
      ],
      [
        "▁*",
        -8.809375636739796
      ],
      [
        "▁Tổ",
        -8.80948524834239
      ],
      [
        "▁nặng",
        -8.810495816278046
      ],
      [
        "▁15",
        -8.811364123435379
      ],
      [
        "▁quên",
        -8.811939431457773
      ],
      [
        "▁đứa",
        -8.814002647500923
      ],
      [
        "▁rồi.",
        -8.815723741323001
      ],
      [
        "▁Đó",
        -8.818444808004479
      ],
      [
        "▁Được",
        -8.818594427119287
      ],
      [
        "▁cánh",
        -8.819132902580591
      ],
      [
        "▁hài",
        -8.82700305083179
      ],
      [
        "▁Dự",
        -8.827445372889022
      ],
      [
        "▁suốt",
        -8.829177991860972
      ],
      [
        "▁Châu",
        -8.830426134752805
      ],
      [
        "▁cũ",
        -8.830874405612828
      ],
      [
        "▁tốc",
        -8.831024689745043
      ],
      [
        "▁Cộng",
        -8.837144528666336
      ],
      [
        "▁đen",
        -8.837628447312067
      ],
      [
        "▁siêu",
        -8.838806049897057
      ],
      [
        "▁Ba",
        -8.839599560315271
      ],
      [
        "▁mái",
        -8.840336548684842
      ],
      [
        "▁miệng",
        -8.840378450107709
      ],
      [
        "▁ước",
        -8.841505766831208
      ],
      [
        "▁Còn",
        -8.84309535202669
      ],
      [
        "▁thầy",
        -8.844203945913915
      ],
      [
        "▁biên",
        -8.845030685629666
      ],
      [
        "▁T",
        -8.850061888333132
      ],
      [
        "▁Giới",
        -8.850300532401482
      ],
      [
        "▁mối",
        -8.8512294834353
      ],
      [
        "▁ngắn",
        -8.852566184200185
      ],
      [
        "▁nhiêu",
        -8.854086196916215
      ],
      [
        "▁thẳng",
        -8.854093294537853
      ],
      [
        "▁chứa",
        -8.854562989167643
      ],
      [
        "▁thắng",
        -8.855414072580858
      ],
      [
        "▁Tháng",
        -8.856623039319352
      ],
      [
        "▁Phú",
        -8.856633883856901
      ],
      [
        "▁'",
        -8.858218262873825
      ],
      [
        "▁sữa",
        -8.861181726437133
      ],
      [
        "▁đám",
        -8.862758939919393
      ],
      [
        "▁Giải",
        -8.864550433300233
      ],
      [
        "▁vũ",
        -8.866618160978906
      ],
      [
        "▁k",
        -8.87030039992944
      ],
      [
        "▁Giấy",
        -8.871664869026668
      ],
      [
        "▁sạn",
        -8.874036929828817
      ],
      [
        "▁Trước",
        -8.874248153696234
      ],
      [
        "▁xong",
        -8.876309488088534
      ],
      [
        "▁quận",
        -8.876527292525994
      ],
      [
        "▁phi",
        -8.877208443421502
      ],
      [
        "▁chiếu",
        -8.878138688059096
      ],
      [
        "▁thao",
        -8.87848424712282
      ],
      [
        "▁tôn",
        -8.879002138829392
      ],
      [
        "▁tấn",
        -8.879828742016016
      ],
      [
        "▁tô",
        -8.88191587218062
      ],
      [
        "▁được.",
        -8.88210600134265
      ],
      [
        "▁cử",
        -8.883177451060321
      ],
      [
        "▁xấu",
        -8.884685043915018
      ],
      [
        "▁buồn",
        -8.885154029515661
      ],
      [
        "▁dáng",
        -8.88594487458962
      ],
      [
        "▁khổ",
        -8.88637118103356
      ],
      [
        "▁nguyện",
        -8.887939436805397
      ],
      [
        "▁N",
        -8.89005786650875
      ],
      [
        "▁viêm",
        -8.892260971226523
      ],
      [
        "▁mời",
        -8.892785618473084
      ],
      [
        "▁Bán",
        -8.894567099622074
      ],
      [
        "▁Chi",
        -8.896612997148058
      ],
      [
        "▁nạn",
        -8.89851935825492
      ],
      [
        "▁trao",
        -8.898693831719804
      ],
      [
        "▁lá",
        -8.899943416329636
      ],
      [
        "▁Họ",
        -8.90277048897371
      ],
      [
        "▁dám",
        -8.903038681857357
      ],
      [
        "l",
        -8.90397643110853
      ],
      [
        "▁thơ",
        -8.903988208141616
      ],
      [
        "▁Ngân",
        -8.904282186678925
      ],
      [
        "▁hãng",
        -8.908650573047495
      ],
      [
        "▁châu",
        -8.910885636003815
      ],
      [
        "▁nhau.",
        -8.910946758188484
      ],
      [
        "▁ổn",
        -8.91504012503798
      ],
      [
        "▁trừ",
        -8.916718317657882
      ],
      [
        "▁A",
        -8.91812597800931
      ],
      [
        "▁S",
        -8.918397051642632
      ],
      [
        "▁hơn,",
        -8.92127757685596
      ],
      [
        "▁Hình",
        -8.922243628285909
      ],
      [
        "▁Vậy",
        -8.922310646605416
      ],
      [
        "▁nào?",
        -8.922497057970947
      ],
      [
        "▁Khoa",
        -8.92279368297346
      ],
      [
        "▁Sài",
        -8.923464388877612
      ],
      [
        "▁Quản",
        -8.925677271253969
      ],
      [
        "▁ma",
        -8.926220218361856
      ],
      [
        "▁Quý",
        -8.929112332867966
      ],
      [
        "▁thôi",
        -8.9295014972264
      ],
      [
        "▁sau:",
        -8.930891401155213
      ],
      [
        "▁web",
        -8.932812156355752
      ],
      [
        "▁đón",
        -8.934272217550067
      ],
      [
        "▁mơ",
        -8.937428179785503
      ],
      [
        "▁buộc",
        -8.937756839875625
      ],
      [
        "▁thuyết",
        -8.937885957211417
      ],
      [
        "▁Tất",
        -8.93821710553389
      ],
      [
        "▁nhiễm",
        -8.938745301031378
      ],
      [
        "▁Kết",
        -8.939897788765819
      ],
      [
        "▁Thánh",
        -8.940548140918374
      ],
      [
        "▁Lan",
        -8.94176655637298
      ],
      [
        "▁giảng",
        -8.94287011874236
      ],
      [
        "▁Cao",
        -8.943334204747654
      ],
      [
        "▁Bệnh",
        -8.943522543559647
      ],
      [
        "▁kim",
        -8.943756698499666
      ],
      [
        "▁bày",
        -8.943954478722512
      ],
      [
        "▁thế,",
        -8.944492675145483
      ],
      [
        "▁Hàng",
        -8.94610743032683
      ],
      [
        "▁Bên",
        -8.9465086885865
      ],
      [
        "▁tái",
        -8.947944817887889
      ],
      [
        "▁đèn",
        -8.948087297583866
      ],
      [
        "▁đoán",
        -8.948993124794717
      ],
      [
        "▁Nó",
        -8.950120170797772
      ],
      [
        "▁phiên",
        -8.950193267162433
      ],
      [
        "▁chàng",
        -8.950209176905119
      ],
      [
        "▁thậm",
        -8.95458813180407
      ],
      [
        "▁tắc",
        -8.95525697087088
      ],
      [
        "▁Nam.",
        -8.956205942805028
      ],
      [
        "▁cắt",
        -8.957323191828673
      ],
      [
        "▁ngôn",
        -8.959266900121218
      ],
      [
        "▁Câu",
        -8.960314490726086
      ],
      [
        "▁ràng",
        -8.960942500762929
      ],
      [
        "▁Phát",
        -8.961156001581703
      ],
      [
        "▁trúc",
        -8.963033204796526
      ],
      [
        "▁mừng",
        -8.964600865814981
      ],
      [
        "▁lương",
        -8.965816092155949
      ],
      [
        "▁đi,",
        -8.966979146817629
      ],
      [
        "▁nửa",
        -8.967703558194348
      ],
      [
        "▁hề",
        -8.968393081135968
      ],
      [
        "▁Ngài",
        -8.968412595084732
      ],
      [
        "▁niềm",
        -8.970245712725102
      ],
      [
        "▁11",
        -8.971453840466442
      ],
      [
        "▁tồn",
        -8.972475064366755
      ],
      [
        "▁Phần",
        -8.975831924823407
      ],
      [
        "▁ngũ",
        -8.976315208287625
      ],
      [
        "▁bạn.",
        -8.97650258431548
      ],
      [
        "▁cuốn",
        -8.97730971658125
      ],
      [
        "▁Tình",
        -8.977336216675415
      ],
      [
        "▁đẳng",
        -8.978158190941773
      ],
      [
        "▁khuyến",
        -8.978221571442681
      ],
      [
        "▁lắng",
        -8.979711395788273
      ],
      [
        "▁Tử",
        -8.980224818015405
      ],
      [
        "▁lại.",
        -8.982197680786632
      ],
      [
        "▁ngon",
        -8.982292245939316
      ],
      [
        "▁đợi",
        -8.983473405488926
      ],
      [
        "▁cháu",
        -8.984425399911267
      ],
      [
        "▁Sinh",
        -8.984556382721763
      ],
      [
        "▁tỏ",
        -8.9847447738703
      ],
      [
        "▁Khu",
        -8.98538723548847
      ],
      [
        "▁huy",
        -8.986035073168853
      ],
      [
        "▁Kim",
        -8.986428159840834
      ],
      [
        "▁dương",
        -8.989144487313098
      ],
      [
        "▁Đảng",
        -8.991364267982268
      ],
      [
        "▁Xuân",
        -8.992927670922786
      ],
      [
        "▁mũi",
        -8.993247114685092
      ],
      [
        "▁thừa",
        -8.993547707479348
      ],
      [
        "▁thoát",
        -8.994512689917688
      ],
      [
        "▁nhắc",
        -8.994740440885092
      ],
      [
        "▁đổ",
        -8.996266526136134
      ],
      [
        "▁Là",
        -8.996900944478556
      ],
      [
        "▁Đầu",
        -8.997028436987371
      ],
      [
        "▁Lưu",
        -8.997075153941244
      ],
      [
        "▁lược",
        -8.997989384553309
      ],
      [
        "▁khác,",
        -8.998736743861887
      ],
      [
        "▁Danh",
        -8.999988758767287
      ],
      [
        "▁tươi",
        -9.000028124990461
      ],
      [
        "▁rơi",
        -9.000111693313503
      ],
      [
        "▁hầu",
        -9.000184552230085
      ],
      [
        "▁biện",
        -9.002064526721716
      ],
      [
        "▁chiếm",
        -9.005326478000814
      ],
      [
        "k",
        -9.006111767920782
      ],
      [
        "▁soát",
        -9.009681903483717
      ],
      [
        "▁vay",
        -9.01112670117446
      ],
      [
        "▁chuyến",
        -9.012075932036375
      ],
      [
        "▁dựa",
        -9.013436026653293
      ],
      [
        "▁Bất",
        -9.01349074728073
      ],
      [
        "▁Nim",
        -9.015096106858119
      ],
      [
        "▁cục",
        -9.017207477979376
      ],
      [
        "▁tờ",
        -9.020642690549272
      ],
      [
        "▁khối",
        -9.02125118499357
      ],
      [
        "▁Nghị",
        -9.02332977347481
      ],
      [
        "▁tùy",
        -9.0241829745355
      ],
      [
        "▁tòa",
        -9.02654994171058
      ],
      [
        "▁Quân",
        -9.02777951406657
      ],
      [
        "▁thở",
        -9.029138330094614
      ],
      [
        "▁đức",
        -9.02988937401328
      ],
      [
        "▁Mẹ",
        -9.031914415996386
      ],
      [
        "▁quà",
        -9.03296537853166
      ],
      [
        "▁xung",
        -9.034114878610906
      ],
      [
        "▁Nhiều",
        -9.034490721715041
      ],
      [
        "▁tàu",
        -9.034799751090427
      ],
      [
        "▁chặt",
        -9.035361992083608
      ],
      [
        "▁vậy.",
        -9.036537073951644
      ],
      [
        "▁trăm",
        -9.038078644166369
      ],
      [
        "▁mười",
        -9.03848232499417
      ],
      [
        "▁dõi",
        -9.042537900098846
      ],
      [
        "▁Thương",
        -9.043730078711615
      ],
      [
        "▁phóng",
        -9.04397344407878
      ],
      [
        "▁thịt",
        -9.045337671232055
      ],
      [
        "▁gắng",
        -9.046111689819984
      ],
      [
        "▁Trên",
        -9.04616674108038
      ],
      [
        "d",
        -9.04698161740302
      ],
      [
        "▁họp",
        -9.04792699696058
      ],
      [
        "▁lắm",
        -9.048858263518659
      ],
      [
        "▁3.",
        -9.049102503863278
      ],
      [
        "▁giết",
        -9.050070591985502
      ],
      [
        "▁giàu",
        -9.050253930094918
      ],
      [
        "▁hương",
        -9.055898598449296
      ],
      [
        "▁vững",
        -9.05819233792123
      ],
      [
        "▁tuyên",
        -9.061322063874865
      ],
      [
        "▁hạng",
        -9.062885437209694
      ],
      [
        "▁kém",
        -9.064109366342446
      ],
      [
        "▁tu",
        -9.065327781723507
      ],
      [
        "▁rời",
        -9.065353237149194
      ],
      [
        "▁lên,",
        -9.066157453888732
      ],
      [
        "▁Hệ",
        -9.069958650943207
      ],
      [
        "▁Vương",
        -9.070849666612649
      ],
      [
        "▁nước,",
        -9.07098191950877
      ],
      [
        "▁hát",
        -9.07132099931287
      ],
      [
        "▁Ngọc",
        -9.071730783656413
      ],
      [
        "▁rút",
        -9.072347072243502
      ],
      [
        "▁nỗi",
        -9.072835614629422
      ],
      [
        "▁bảng",
        -9.073341688614569
      ],
      [
        "▁kiệm",
        -9.074186713565659
      ],
      [
        "▁gốc",
        -9.07481295226329
      ],
      [
        "▁Nghệ",
        -9.075184260060778
      ],
      [
        "▁Nói",
        -9.076210546810152
      ],
      [
        "▁huyết",
        -9.076658270929942
      ],
      [
        "▁Nam,",
        -9.07745813708391
      ],
      [
        "ung",
        -9.077953247239384
      ],
      [
        "▁ngược",
        -9.078537691857095
      ],
      [
        "▁Phó",
        -9.078683347222308
      ],
      [
        "▁tấm",
        -9.079270450769087
      ],
      [
        "▁cà",
        -9.081575710965959
      ],
      [
        "▁nhau,",
        -9.08233947969093
      ],
      [
        "▁lắp",
        -9.083970664586758
      ],
      [
        "▁nhé.",
        -9.087372830272447
      ],
      [
        "▁hải",
        -9.090223779599157
      ],
      [
        "\".",
        -9.090463915152862
      ],
      [
        "▁ninh",
        -9.090742670237765
      ],
      [
        "▁binh",
        -9.0917398645178
      ],
      [
        "▁Đặc",
        -9.091853778434505
      ],
      [
        "▁Giám",
        -9.092450362212663
      ],
      [
        "▁Đến",
        -9.092907298997778
      ],
      [
        "▁mạch",
        -9.093960254806902
      ],
      [
        "▁kèm",
        -9.093982480321255
      ],
      [
        "▁Bí",
        -9.094535490359236
      ],
      [
        "▁Hồng",
        -9.095665533116193
      ],
      [
        "▁hạt",
        -9.095821726810408
      ],
      [
        "▁biết,",
        -9.096233820584771
      ],
      [
        "▁ra.",
        -9.096391847612495
      ],
      [
        "▁TP",
        -9.097934971205714
      ],
      [
        "▁giọng",
        -9.098257850187988
      ],
      [
        "▁gì,",
        -9.100661745172221
      ],
      [
        "▁đỡ",
        -9.10121343160028
      ],
      [
        "▁Á",
        -9.101698859440248
      ],
      [
        "▁vé",
        -9.102325234602851
      ],
      [
        "▁đương",
        -9.102596731029287
      ],
      [
        "▁hoá",
        -9.102661060185078
      ],
      [
        "▁thụ",
        -9.10342510751444
      ],
      [
        "▁Cần",
        -9.103542214119116
      ],
      [
        "▁khắp",
        -9.105455117301176
      ],
      [
        "▁Vân",
        -9.105776833024619
      ],
      [
        "▁tế,",
        -9.108220686178061
      ],
      [
        "▁loạn",
        -9.108434663757105
      ],
      [
        "▁Lúc",
        -9.109742401888294
      ],
      [
        "▁ôm",
        -9.110599796276148
      ],
      [
        "▁khuôn",
        -9.110997265799561
      ],
      [
        "▁Nhất",
        -9.111059053426434
      ],
      [
        "▁kịp",
        -9.111160771884906
      ],
      [
        "▁thôi.",
        -9.111695190448188
      ],
      [
        "▁Thu",
        -9.111849667444915
      ],
      [
        "▁Hòa",
        -9.11240164248981
      ],
      [
        "▁Tâm",
        -9.113132095063456
      ],
      [
        "▁Thần",
        -9.114315752313008
      ],
      [
        "▁vết",
        -9.114910279119272
      ],
      [
        "▁động,",
        -9.114962224613931
      ],
      [
        "▁Giang",
        -9.117598193382799
      ],
      [
        "▁Ý",
        -9.117635464037527
      ],
      [
        "▁gỗ",
        -9.119126755336474
      ],
      [
        "▁Hỗ",
        -9.123658595824827
      ],
      [
        "▁Doanh",
        -9.125040723088128
      ],
      [
        "▁bào",
        -9.125481747797497
      ],
      [
        "▁Âu",
        -9.126717304576726
      ],
      [
        "▁Lịch",
        -9.128995180347875
      ],
      [
        "▁Thứ",
        -9.129299193229935
      ],
      [
        "▁mê",
        -9.130995113599102
      ],
      [
        "▁Quang",
        -9.131804817573894
      ],
      [
        "▁hồng",
        -9.132554764040705
      ],
      [
        "▁chậm",
        -9.136797985124588
      ],
      [
        "▁Xin",
        -9.137757555348246
      ],
      [
        "▁ngừng",
        -9.13858670336925
      ],
      [
        "▁Diễn",
        -9.141503341233163
      ],
      [
        "▁nhất,",
        -9.142825955356411
      ],
      [
        "▁Phụ",
        -9.143511125154673
      ],
      [
        "▁lẫn",
        -9.1456333403993
      ],
      [
        "▁D",
        -9.146149539682517
      ],
      [
        "▁học,",
        -9.147562395476479
      ],
      [
        "▁chụp",
        -9.148930486737006
      ],
      [
        "▁kêu",
        -9.150073301039454
      ],
      [
        "▁Đào",
        -9.150894967150489
      ],
      [
        "▁nào.",
        -9.151578828037675
      ],
      [
        "▁sông",
        -9.152268410282085
      ],
      [
        "▁Căn",
        -9.153381159107177
      ],
      [
        "▁thác",
        -9.154313069283692
      ],
      [
        "▁Ủy",
        -9.157139037150667
      ],
      [
        "▁phiếu",
        -9.157561282779556
      ],
      [
        "▁Khách",
        -9.157884696620787
      ],
      [
        "▁Tập",
        -9.15798879977212
      ],
      [
        "▁nghiệp,",
        -9.159596234254185
      ],
      [
        "▁dừng",
        -9.160422692250169
      ],
      [
        "▁đòi",
        -9.161146263607861
      ],
      [
        "▁La",
        -9.161188296608188
      ],
      [
        "▁kê",
        -9.162249468192918
      ],
      [
        "▁sổ",
        -9.162768250922138
      ],
      [
        "▁lai",
        -9.163507998264794
      ],
      [
        "▁Cái",
        -9.163649447422753
      ],
      [
        "▁cam",
        -9.163910261247427
      ],
      [
        "▁VÀ",
        -9.165777135805904
      ],
      [
        "▁Nga",
        -9.16585718726152
      ],
      [
        "▁bữa",
        -9.167852647422002
      ],
      [
        "▁sàng",
        -9.168285930512724
      ],
      [
        "▁hẳn",
        -9.168901776786782
      ],
      [
        "▁thôn",
        -9.169073073996781
      ],
      [
        "▁làn",
        -9.169378577392212
      ],
      [
        "▁bếp",
        -9.169481167888055
      ],
      [
        "▁Cũng",
        -9.172123239087965
      ],
      [
        "]",
        -9.172559470650304
      ],
      [
        "▁qua,",
        -9.172640383135167
      ],
      [
        "▁Kế",
        -9.173453887694613
      ],
      [
        "▁Chị",
        -9.173820829625353
      ],
      [
        "!\"",
        -9.175251522942165
      ],
      [
        "▁hồn",
        -9.17612264539885
      ],
      [
        "▁sứ",
        -9.176872137330855
      ],
      [
        "▁nói.",
        -9.17701495971589
      ],
      [
        "▁trồng",
        -9.177666784279854
      ],
      [
        "▁0",
        -9.178833820052269
      ],
      [
        "▁nét",
        -9.179114714859372
      ],
      [
        "▁trùng",
        -9.179420192209205
      ],
      [
        "▁thí",
        -9.179669855125706
      ],
      [
        "▁Gòn",
        -9.18052141064154
      ],
      [
        "▁Nha",
        -9.18072903159128
      ],
      [
        "▁mày",
        -9.181138557376983
      ],
      [
        "▁Nẵng",
        -9.18229364050097
      ],
      [
        "▁Xe",
        -9.182919928770527
      ],
      [
        "▁lưng",
        -9.183196019608417
      ],
      [
        "▁lớn,",
        -9.183317174041308
      ],
      [
        "▁ngại",
        -9.184192613496602
      ],
      [
        "▁ly",
        -9.184469681328254
      ],
      [
        "▁Dân",
        -9.185549140861585
      ],
      [
        "▁già",
        -9.189572670988964
      ],
      [
        "▁[",
        -9.19096066298971
      ],
      [
        "▁cao,",
        -9.191819056364569
      ],
      [
        "▁duyệt",
        -9.193079060616467
      ],
      [
        "▁rối",
        -9.193958511171214
      ],
      [
        "▁núi",
        -9.19654619306202
      ],
      [
        "▁gió",
        -9.198146228261823
      ],
      [
        "▁rửa",
        -9.201999310753553
      ],
      [
        "▁gắn",
        -9.201999375741355
      ],
      [
        "▁‘",
        -9.202894660835547
      ],
      [
        "▁kì",
        -9.203539468146802
      ],
      [
        "▁Phạm",
        -9.20355599000245
      ],
      [
        "▁thoải",
        -9.203716635480898
      ],
      [
        "▁cơn",
        -9.204878025523302
      ],
      [
        "▁Cổ",
        -9.205569539796915
      ],
      [
        "▁Mọi",
        -9.206311544552548
      ],
      [
        "▁bền",
        -9.207938926197468
      ],
      [
        "▁Bởi",
        -9.207940036039325
      ],
      [
        "▁ấm",
        -9.208063308993115
      ],
      [
        "▁Truyền",
        -9.208844438174255
      ],
      [
        "▁người.",
        -9.210622102615918
      ],
      [
        "▁dịp",
        -9.215082834683844
      ],
      [
        "▁cận",
        -9.215184297845626
      ],
      [
        "▁Tên",
        -9.215620414505914
      ],
      [
        "▁nhấn",
        -9.215683646636668
      ],
      [
        "▁trông",
        -9.216114218467101
      ],
      [
        "▁nước.",
        -9.218288626291473
      ],
      [
        "▁Thư",
        -9.219448362688567
      ],
      [
        "▁tạm",
        -9.219731891242008
      ],
      [
        "▁Ninh",
        -9.220241195495085
      ],
      [
        "▁thận",
        -9.220835996547208
      ],
      [
        "▁lành",
        -9.221878156502523
      ],
      [
        "▁ngàn",
        -9.222787941319991
      ],
      [
        "▁túi",
        -9.223965360620172
      ],
      [
        "▁lửa",
        -9.224211219406726
      ],
      [
        "▁xinh",
        -9.22505253847829
      ],
      [
        "▁giận",
        -9.226031783114877
      ],
      [
        "▁ngài",
        -9.226227441845273
      ],
      [
        "▁Bác",
        -9.227651196635236
      ],
      [
        "▁Mặc",
        -9.22840773355934
      ],
      [
        "▁dị",
        -9.228779260441152
      ],
      [
        "▁Mặt",
        -9.229924396402648
      ],
      [
        "▁bậc",
        -9.234369633592355
      ],
      [
        "▁gói",
        -9.234990643022144
      ],
      [
        "▁bạc",
        -9.236005168142047
      ],
      [
        "▁Bạch",
        -9.239578410155731
      ],
      [
        "▁ương",
        -9.240429660171436
      ],
      [
        "▁khoán",
        -9.242110195731614
      ],
      [
        "▁lệnh",
        -9.242837220890866
      ],
      [
        "▁bè",
        -9.243409608668948
      ],
      [
        "▁rượu",
        -9.243908125034014
      ],
      [
        "▁rằng,",
        -9.24438539418562
      ],
      [
        "▁gấp",
        -9.244517766367892
      ],
      [
        "▁cháy",
        -9.244589452733141
      ],
      [
        "▁Hắn",
        -9.244740402516149
      ],
      [
        "▁khủng",
        -9.24499274125148
      ],
      [
        "▁Dù",
        -9.246254946763369
      ],
      [
        "▁lối",
        -9.247108911581265
      ],
      [
        "▁tả",
        -9.247486960340087
      ],
      [
        "▁ẩn",
        -9.248010369490839
      ],
      [
        "▁đi.",
        -9.249719620580095
      ],
      [
        "▁lái",
        -9.252618478744154
      ],
      [
        "▁Giao",
        -9.253489315050182
      ],
      [
        "▁Tiêu",
        -9.253637482689856
      ],
      [
        "▁2016",
        -9.254681246664983
      ],
      [
        "▁họa",
        -9.255050607146813
      ],
      [
        "▁cưới",
        -9.256370290337658
      ],
      [
        "▁chảy",
        -9.25738780148502
      ],
      [
        "▁dậy",
        -9.257440714519948
      ],
      [
        "▁mưa",
        -9.257998413384625
      ],
      [
        "▁Mỗ",
        -9.258599541473583
      ],
      [
        "▁V",
        -9.258650390128427
      ],
      [
        "▁đây.",
        -9.260957834745714
      ],
      [
        "▁ghế",
        -9.262513629737569
      ],
      [
        "▁chào",
        -9.262760482114771
      ],
      [
        "▁liệt",
        -9.263329840534967
      ],
      [
        "▁Đình",
        -9.263794992609848
      ],
      [
        "▁xu",
        -9.269414118082747
      ],
      [
        "▁lặng",
        -9.269664726820615
      ],
      [
        "▁đệ",
        -9.271353951115206
      ],
      [
        "’",
        -9.27206913627857
      ],
      [
        "▁Quan",
        -9.27285635828337
      ],
      [
        "▁sóng",
        -9.275836274277008
      ],
      [
        "▁đảng",
        -9.278677099747412
      ],
      [
        "▁thù",
        -9.279773139101566
      ],
      [
        "▁tường",
        -9.285545826841883
      ],
      [
        "▁thỏa",
        -9.288435557226062
      ],
      [
        "▁trứng",
        -9.291807619398554
      ],
      [
        "▁cứng",
        -9.29220842095761
      ],
      [
        "▁Đề",
        -9.292888801381338
      ],
      [
        "▁nắng",
        -9.29348858999118
      ],
      [
        "▁phái",
        -9.297607909328239
      ],
      [
        "▁hy",
        -9.298257177146862
      ],
      [
        "▁che",
        -9.298729135576213
      ],
      [
        "▁Sư",
        -9.299559177552647
      ],
      [
        "▁mụn",
        -9.299993131026483
      ],
      [
        "▁thước",
        -9.300384451934386
      ],
      [
        "▁nợ",
        -9.300646425633898
      ],
      [
        "▁Đ",
        -9.30320879503179
      ],
      [
        "▁Sử",
        -9.303873684158898
      ],
      [
        "▁Hạ",
        -9.304112445389006
      ],
      [
        "▁vời",
        -9.3054342922517
      ],
      [
        "▁dinh",
        -9.305987516962379
      ],
      [
        "▁Xây",
        -9.31086979186562
      ],
      [
        "▁bụng",
        -9.313858580983473
      ],
      [
        "▁thẻ",
        -9.31583781135673
      ],
      [
        "▁tốt,",
        -9.316868387630551
      ],
      [
        "▁quê",
        -9.317669065886582
      ],
      [
        "▁khô",
        -9.318566481970139
      ],
      [
        "▁hiển",
        -9.322544988704767
      ],
      [
        "▁Cuộc",
        -9.322611200564708
      ],
      [
        "▁tựu",
        -9.323250528544756
      ],
      [
        "▁cơm",
        -9.323634123652884
      ],
      [
        "▁tổn",
        -9.324209994652533
      ],
      [
        "▁tĩnh",
        -9.327537544973223
      ],
      [
        "▁nào,",
        -9.32938967067952
      ],
      [
        "▁kháng",
        -9.330246402806612
      ],
      [
        "▁song",
        -9.33053655454691
      ],
      [
        "▁Đoàn",
        -9.331908762418763
      ],
      [
        "▁loạt",
        -9.332632681053914
      ],
      [
        "▁góc",
        -9.333132072639835
      ],
      [
        "▁Vé",
        -9.334428495603925
      ],
      [
        "▁pha",
        -9.334509171529891
      ],
      [
        "▁thải",
        -9.33521190780558
      ],
      [
        "▁ko",
        -9.33538737962729
      ],
      [
        "r",
        -9.33563990772596
      ],
      [
        "▁người,",
        -9.335719505021892
      ],
      [
        "▁©",
        -9.336459310751946
      ],
      [
        "▁gương",
        -9.337170582821408
      ],
      [
        "▁vội",
        -9.337279916550663
      ],
      [
        "▁Ai",
        -9.339417581094569
      ],
      [
        "▁tắm",
        -9.341769829910131
      ],
      [
        "▁mai",
        -9.34211843404929
      ],
      [
        "▁16",
        -9.342782405955184
      ],
      [
        "▁Bước",
        -9.344864510003141
      ],
      [
        "▁tôi.",
        -9.345109897821205
      ],
      [
        "▁mệt",
        -9.346390938338196
      ],
      [
        "▁chỉ:",
        -9.348127038227252
      ],
      [
        "▁làng",
        -9.348498402694464
      ],
      [
        "▁Triệu",
        -9.349012727107883
      ],
      [
        "▁mát",
        -9.349843311510165
      ],
      [
        "▁100",
        -9.350289531834063
      ],
      [
        "▁Kỹ",
        -9.350824433089704
      ],
      [
        "▁phạt",
        -9.351694446210734
      ],
      [
        "▁nộp",
        -9.352058162995327
      ],
      [
        "▁Nàng",
        -9.352366825217441
      ],
      [
        "▁ngực",
        -9.352672846362228
      ],
      [
        "▁Độ",
        -9.353235134747333
      ],
      [
        "▁18",
        -9.353543414217548
      ],
      [
        "▁nấu",
        -9.355754974504901
      ],
      [
        "▁đẹp,",
        -9.357474227818194
      ],
      [
        "▁lông",
        -9.358302313976123
      ],
      [
        "▁lọc",
        -9.358656563355849
      ],
      [
        "▁Viên",
        -9.359816328908883
      ],
      [
        "▁mùi",
        -9.360789201677372
      ],
      [
        "▁Đang",
        -9.360968386410555
      ],
      [
        "▁xương",
        -9.36123639643925
      ],
      [
        "▁ẩm",
        -9.36141774207567
      ],
      [
        "▁bốn",
        -9.361432857457466
      ],
      [
        "▁Mua",
        -9.367696236149953
      ],
      [
        "▁đài",
        -9.369939852924377
      ],
      [
        "M",
        -9.370152044017082
      ],
      [
        "▁tôi,",
        -9.371746254007245
      ],
      [
        "▁căng",
        -9.37212618628315
      ],
      [
        "▁như:",
        -9.372578559734865
      ],
      [
        "▁Phan",
        -9.372863963759613
      ],
      [
        "▁Tòa",
        -9.374843054625973
      ],
      [
        "▁Mới",
        -9.375009060598128
      ],
      [
        "▁lý,",
        -9.37651005112317
      ],
      [
        "▁Cầu",
        -9.376660917920294
      ],
      [
        "▁Vụ",
        -9.37700321595528
      ],
      [
        "▁CÔNG",
        -9.377099165032629
      ],
      [
        "▁hào",
        -9.377997230075753
      ],
      [
        "▁Tiếng",
        -9.37802142316267
      ],
      [
        "▁đầu,",
        -9.37807032924731
      ],
      [
        "▁4.",
        -9.378762239621407
      ],
      [
        "▁tràn",
        -9.37962541538321
      ],
      [
        "▁đãi",
        -9.379648315945595
      ],
      [
        "▁hảo",
        -9.382117831535533
      ],
      [
        "▁bồi",
        -9.382917479639948
      ],
      [
        "▁H",
        -9.383248216333492
      ],
      [
        "▁ủy",
        -9.38349802658859
      ],
      [
        "▁mệnh",
        -9.3847067049324
      ],
      [
        "▁thập",
        -9.384721921939427
      ],
      [
        "▁chúc",
        -9.38645538166426
      ],
      [
        "▁rừng",
        -9.386681759926494
      ],
      [
        "▁nay.",
        -9.388737889740234
      ],
      [
        "▁Viện",
        -9.388757927557588
      ],
      [
        "▁TP.",
        -9.389282195769557
      ],
      [
        "▁thánh",
        -9.390760518815991
      ],
      [
        "▁dược",
        -9.39125639044079
      ],
      [
        "▁dụ",
        -9.391259710880268
      ],
      [
        "▁UBND",
        -9.391376221234172
      ],
      [
        "▁khiển",
        -9.39146934766896
      ],
      [
        "▁thượng",
        -9.391735081042713
      ],
      [
        "▁lầm",
        -9.392068728079403
      ],
      [
        "T",
        -9.394531210479048
      ],
      [
        "▁Phường",
        -9.396211912912877
      ],
      [
        "▁Yêu",
        -9.396625621062274
      ],
      [
        "▁Ma",
        -9.399144017178163
      ],
      [
        "▁Thay",
        -9.399446355408156
      ],
      [
        "▁tệ",
        -9.400972016016528
      ],
      [
        "▁Nhận",
        -9.404759678294326
      ],
      [
        "▁ngang",
        -9.407750346100812
      ],
      [
        "▁Thượng",
        -9.409237159743832
      ],
      [
        "▁Chia",
        -9.41097568812241
      ],
      [
        "▁Mình",
        -9.412324905541428
      ],
      [
        "▁rau",
        -9.412841348973028
      ],
      [
        "▁khóc",
        -9.413859686864395
      ],
      [
        "▁tắt",
        -9.416230093449279
      ],
      [
        "▁Hôm",
        -9.417067374658004
      ],
      [
        "▁đo",
        -9.41868351884215
      ],
      [
        "▁phó",
        -9.41869006959185
      ],
      [
        "▁Cảnh",
        -9.419230019778634
      ],
      [
        "ác",
        -9.419598377857476
      ],
      [
        "▁sàn",
        -9.42123324847045
      ],
      [
        "▁trầm",
        -9.421803359102372
      ],
      [
        "▁game",
        -9.422438477088944
      ],
      [
        "▁iPhone",
        -9.422605117941885
      ],
      [
        "▁sau,",
        -9.424518995933402
      ],
      [
        "▁CỦA",
        -9.425217172837554
      ],
      [
        "▁Nước",
        -9.425328639173802
      ],
      [
        "▁mẽ",
        -9.426162580585311
      ],
      [
        "▁Thật",
        -9.42691823060823
      ],
      [
        "▁Hơn",
        -9.427854842194037
      ],
      [
        "C",
        -9.427987198111097
      ],
      [
        "▁Cùng",
        -9.428837961094548
      ],
      [
        "▁tủ",
        -9.429076405554683
      ],
      [
        "▁hộp",
        -9.430559547722986
      ],
      [
        "▁sánh",
        -9.433364767499896
      ],
      [
        "▁Mục",
        -9.433984994870288
      ],
      [
        "▁thờ",
        -9.434321148843708
      ],
      [
        "▁Hoạt",
        -9.434610511269213
      ],
      [
        "▁Điểm",
        -9.434846513139167
      ],
      [
        "1",
        -9.435972637366218
      ],
      [
        "▁cẩn",
        -9.436126419577604
      ],
      [
        "▁khuyên",
        -9.436133346737652
      ],
      [
        "▁Yên",
        -9.437202815924996
      ],
      [
        "▁Tiếp",
        -9.43830870896132
      ],
      [
        "▁lí",
        -9.438324098871307
      ],
      [
        "▁khúc",
        -9.439602591967118
      ],
      [
        "▁vua",
        -9.440939539134135
      ],
      [
        "▁lục",
        -9.442027403816127
      ],
      [
        "▁hàng.",
        -9.444000626983847
      ],
      [
        "▁loài",
        -9.444820399162477
      ],
      [
        "▁Chuyên",
        -9.445133527883005
      ],
      [
        "▁điển",
        -9.44637147013086
      ],
      [
        "▁nhàng",
        -9.44689166547877
      ],
      [
        "▁chừng",
        -9.447526219979029
      ],
      [
        "▁USD",
        -9.447668782039212
      ],
      [
        "▁cặp",
        -9.45017171047331
      ],
      [
        "▁Tiên",
        -9.45017798938096
      ],
      [
        "▁Đừng",
        -9.450412147569264
      ],
      [
        "\",",
        -9.450530977505935
      ],
      [
        "▁L",
        -9.450751623357588
      ],
      [
        "▁dày",
        -9.452119724962312
      ],
      [
        "▁online",
        -9.452256218638064
      ],
      [
        "▁Đã",
        -9.452349210877376
      ],
      [
        "▁nhân,",
        -9.453206669648186
      ],
      [
        "▁hè",
        -9.454363611197698
      ],
      [
        "▁13",
        -9.455528219133207
      ],
      [
        "▁nghèo",
        -9.455960077759578
      ],
      [
        "▁Tự",
        -9.456798588583398
      ],
      [
        "▁ta,",
        -9.457331307043969
      ],
      [
        "▁giường",
        -9.457692497778451
      ],
      [
        "▁G",
        -9.45784683541334
      ],
      [
        "▁tạp",
        -9.458154414794851
      ],
      [
        "▁tan",
        -9.458818842722744
      ],
      [
        "▁tỉ",
        -9.459976671772623
      ],
      [
        "▁gà",
        -9.460837705542726
      ],
      [
        "▁K",
        -9.46270475397986
      ],
      [
        "▁trưng",
        -9.464043349032053
      ],
      [
        "▁nổ",
        -9.464837396390944
      ],
      [
        "▁Cảm",
        -9.467821670707181
      ],
      [
        "▁Xã",
        -9.469239813330848
      ],
      [
        "▁Lạc",
        -9.46937929706711
      ],
      [
        "▁Facebook",
        -9.469577905733267
      ],
      [
        "▁Quyết",
        -9.47074613428131
      ],
      [
        "▁ủng",
        -9.472444047111818
      ],
      [
        "▁lên.",
        -9.47326580257517
      ],
      [
        "▁trữ",
        -9.474262170988512
      ],
      [
        "▁nụ",
        -9.474994899468184
      ],
      [
        "▁14",
        -9.475446545747774
      ],
      [
        "▁đuổi",
        -9.47614586632246
      ],
      [
        "N",
        -9.477645596986923
      ],
      [
        "▁cao.",
        -9.478320351795881
      ],
      [
        "▁bại",
        -9.47869240384313
      ],
      [
        "▁TP.HCM",
        -9.47889543913965
      ],
      [
        "▁nêu",
        -9.47978700392402
      ],
      [
        "▁Thường",
        -9.479811169104307
      ],
      [
        "▁trào",
        -9.480194358868115
      ],
      [
        "▁thoáng",
        -9.480202452869433
      ],
      [
        "▁lỗ",
        -9.481428623098765
      ],
      [
        "▁mộ",
        -9.481762023780457
      ],
      [
        "▁Ngay",
        -9.482169823391423
      ],
      [
        "▁giới.",
        -9.482203832821693
      ],
      [
        "▁bãi",
        -9.48229667669757
      ],
      [
        "▁thự",
        -9.482534010228065
      ],
      [
        "▁Thể",
        -9.483398640722616
      ],
      [
        "▁•",
        -9.48377311578892
      ],
      [
        "▁email",
        -9.483866810618565
      ],
      [
        "!”",
        -9.485279614376564
      ],
      [
        "▁trương",
        -9.485988820095407
      ],
      [
        "▁dứt",
        -9.486487370342035
      ],
      [
        "▁thiểu",
        -9.486511754532525
      ],
      [
        "▁tha",
        -9.48703522978985
      ],
      [
        "▁thằng",
        -9.487047242804396
      ],
      [
        "▁50",
        -9.487243947934958
      ],
      [
        "▁trụ",
        -9.488930535173237
      ],
      [
        "▁dường",
        -9.490088460869124
      ],
      [
        "▁xứ",
        -9.490482539463816
      ],
      [
        "▁vườn",
        -9.491450516660528
      ],
      [
        "▁tàn",
        -9.491608374999227
      ],
      [
        "▁băng",
        -9.49324871164809
      ],
      [
        "▁vẽ",
        -9.493477280206442
      ],
      [
        "▁dư",
        -9.49384702738792
      ],
      [
        "▁ngạc",
        -9.494339777760992
      ],
      [
        "▁Tết",
        -9.494540183936035
      ],
      [
        "▁Gửi",
        -9.498067250478014
      ],
      [
        "▁Nhìn",
        -9.49814144246309
      ],
      [
        "▁kiên",
        -9.498726040685789
      ],
      [
        "2",
        -9.499171430100928
      ],
      [
        "▁Thủy",
        -9.500267145472918
      ],
      [
        "▁TIN",
        -9.501022859650895
      ],
      [
        "▁quang",
        -9.5020374077855
      ],
      [
        "▁huynh",
        -9.50234203976241
      ],
      [
        "▁Hiệp",
        -9.502885997794031
      ],
      [
        "▁Biên",
        -9.502911602942017
      ],
      [
        "▁Tính",
        -9.503611564621721
      ],
      [
        "▁đáo",
        -9.5040541887
      ],
      [
        "▁phú",
        -9.506082552762702
      ],
      [
        "A",
        -9.506516123008241
      ],
      [
        "▁Thi",
        -9.509206732895144
      ],
      [
        "▁hàm",
        -9.509562285210237
      ],
      [
        "▁thang",
        -9.512090885425586
      ],
      [
        "▁nhắn",
        -9.512665508909894
      ],
      [
        "▁xưa",
        -9.512878601626054
      ],
      [
        "▁lâm",
        -9.5165741869858
      ],
      [
        "▁Duy",
        -9.516586914058024
      ],
      [
        "▁25",
        -9.51753706041623
      ],
      [
        "▁phẫu",
        -9.518502928348319
      ],
      [
        "▁chấm",
        -9.518507412194012
      ],
      [
        "▁nhé!",
        -9.519415473658288
      ],
      [
        "▁trà",
        -9.519422882878686
      ],
      [
        "▁Nữ",
        -9.521860071960752
      ],
      [
        "▁gật",
        -9.524790546649223
      ],
      [
        "▁hóa,",
        -9.525007343363125
      ],
      [
        "▁thiệt",
        -9.5250471848302
      ],
      [
        "▁phức",
        -9.52669398052329
      ],
      [
        "▁bối",
        -9.52732130344494
      ],
      [
        "▁bộ,",
        -9.528062304248259
      ],
      [
        "▁diệt",
        -9.528251762026592
      ],
      [
        "▁xâm",
        -9.529065753383996
      ],
      [
        "▁Cung",
        -9.52926010998106
      ],
      [
        "▁Website",
        -9.52939084180441
      ],
      [
        "▁can",
        -9.530090810660324
      ],
      [
        "▁giây",
        -9.530318279570448
      ],
      [
        "▁ống",
        -9.531570401777248
      ],
      [
        "▁Đánh",
        -9.532814358852873
      ],
      [
        "▁Mai",
        -9.534547868945419
      ],
      [
        "▁Phi",
        -9.53473924446277
      ],
      [
        "▁kịch",
        -9.534817415788995
      ],
      [
        "▁vang",
        -9.535671530627607
      ],
      [
        "▁gì.",
        -9.537947863312262
      ],
      [
        "▁Hành",
        -9.538001864678968
      ],
      [
        "▁Lễ",
        -9.538204151253598
      ],
      [
        "?\"",
        -9.539043120624012
      ],
      [
        "▁tri",
        -9.540356412300378
      ],
      [
        "▁mãn",
        -9.540949009538897
      ],
      [
        "▁tuổi,",
        -9.542148356640158
      ],
      [
        "▁hứng",
        -9.543113431913234
      ],
      [
        "▁Hợp",
        -9.543373080035588
      ],
      [
        "▁Kiểm",
        -9.543604642367836
      ],
      [
        "I",
        -9.543862541296033
      ],
      [
        "▁sơn",
        -9.545307117939867
      ],
      [
        "▁bột",
        -9.549597498400711
      ],
      [
        "▁trọn",
        -9.551234032553577
      ],
      [
        "▁Phải",
        -9.552014078785543
      ],
      [
        "▁hẹn",
        -9.552091872017504
      ],
      [
        "▁Mã",
        -9.552921048522872
      ],
      [
        "▁Thống",
        -9.553723260351742
      ],
      [
        "▁cài",
        -9.55905072882967
      ],
      [
        "▁huống",
        -9.56129842602823
      ],
      [
        "▁Vi",
        -9.561858148739262
      ],
      [
        "▁tựa",
        -9.56306301574664
      ],
      [
        "▁Tham",
        -9.563206526698915
      ],
      [
        "▁nhảy",
        -9.5634085454902
      ],
      [
        "▁Hương",
        -9.563839908656968
      ],
      [
        "▁năm,",
        -9.56480154139095
      ],
      [
        "▁ta.",
        -9.565082575784096
      ],
      [
        "▁40",
        -9.56590287017288
      ],
      [
        "ức",
        -9.566476933214748
      ],
      [
        "▁Sao",
        -9.567618983307206
      ],
      [
        "▁gọn",
        -9.568014069176506
      ],
      [
        "▁ngã",
        -9.568182985381956
      ],
      [
        "▁bờ",
        -9.568595096445053
      ],
      [
        "▁Toàn",
        -9.569286935590071
      ],
      [
        "▁Chiến",
        -9.569623548081736
      ],
      [
        "▁Định",
        -9.57088658361167
      ],
      [
        "▁nhuận",
        -9.571152731977367
      ],
      [
        "▁Đất",
        -9.572290510522073
      ],
      [
        "▁trấn",
        -9.572436400894802
      ],
      [
        "▁giấc",
        -9.573053499010452
      ],
      [
        "▁ngọt",
        -9.573103424544644
      ],
      [
        "▁hoảng",
        -9.573810795486915
      ],
      [
        "▁100%",
        -9.575077964749903
      ],
      [
        "(",
        -9.576408259052979
      ],
      [
        "▁Vị",
        -9.579164621301459
      ],
      [
        "▁lan",
        -9.58041403290089
      ],
      [
        "▁đấy,",
        -9.5826397698095
      ],
      [
        "▁kín",
        -9.583025799254067
      ],
      [
        "▁tù",
        -9.585117702035838
      ],
      [
        "▁Đạo",
        -9.585682289582174
      ],
      [
        "b",
        -9.586211826042344
      ],
      [
        "▁đỉnh",
        -9.586354151041641
      ],
      [
        "▁trước,",
        -9.586768042144595
      ],
      [
        "▁Ngoại",
        -9.587553989548102
      ],
      [
        "▁Google",
        -9.587817564143505
      ],
      [
        "hư",
        -9.588145107168714
      ],
      [
        "▁Kiến",
        -9.588845749199251
      ],
      [
        "▁trú",
        -9.588877040894825
      ],
      [
        "▁dĩ",
        -9.591257460049304
      ],
      [
        "_",
        -9.59126055049608
      ],
      [
        "▁chợ",
        -9.592409986229105
      ],
      [
        "▁mắt,",
        -9.592547878749581
      ],
      [
        "▁Hóa",
        -9.595398375356924
      ],
      [
        "▁não",
        -9.596306983664713
      ],
      [
        "▁hủy",
        -9.599058852403484
      ],
      [
        "▁bắn",
        -9.600524065081604
      ],
      [
        "▁Tiền",
        -9.600702801721706
      ],
      [
        "▁giày",
        -9.601826407156357
      ],
      [
        "à",
        -9.601908521396966
      ],
      [
        "▁Tăng",
        -9.60199542223901
      ],
      [
        "▁béo",
        -9.603550579448925
      ],
      [
        "▁Đọc",
        -9.603567689251182
      ],
      [
        "▁rãi",
        -9.604073648873623
      ],
      [
        "▁thắc",
        -9.604861719053979
      ],
      [
        "▁Tiến",
        -9.604988112895942
      ],
      [
        "▁Đài",
        -9.605511941867768
      ],
      [
        "▁thói",
        -9.60554954297615
      ],
      [
        "▁Lời",
        -9.60919802158233
      ],
      [
        "▁Trưởng",
        -9.609547833215306
      ],
      [
        "▁►",
        -9.610425364293555
      ],
      [
        "▁Lương",
        -9.610763346707836
      ],
      [
        "▁hàng,",
        -9.610871102756144
      ],
      [
        "▁tốn",
        -9.61244538995194
      ],
      [
        "▁Đi",
        -9.614057424947507
      ],
      [
        "▁trường.",
        -9.614560081916938
      ],
      [
        "▁thầm",
        -9.614951373032596
      ],
      [
        "▁vương",
        -9.615464926709189
      ],
      [
        "▁hiệp",
        -9.617025471440986
      ],
      [
        "▁động.",
        -9.61702706093878
      ],
      [
        "▁phường",
        -9.617141479253672
      ],
      [
        "▁Nhập",
        -9.617239639953809
      ],
      [
        "▁Cố",
        -9.6186363181407
      ],
      [
        "▁ví",
        -9.61877768953413
      ],
      [
        "▁ấy,",
        -9.618998953755797
      ],
      [
        "▁ép",
        -9.620029243630528
      ],
      [
        "▁Chất",
        -9.62136146943083
      ],
      [
        "▁Khánh",
        -9.623108291385073
      ],
      [
        "▁tụ",
        -9.623766927413765
      ],
      [
        "▁Lục",
        -9.625911369167358
      ],
      [
        "▁lớn.",
        -9.626059004982565
      ],
      [
        "▁Nội.",
        -9.626818084055746
      ],
      [
        "▁2015",
        -9.62784467876953
      ],
      [
        "▁tiềm",
        -9.629766325211568
      ],
      [
        "▁Devil",
        -9.630374131347132
      ],
      [
        "▁17",
        -9.633093488487596
      ],
      [
        "▁lãi",
        -9.633321112044452
      ],
      [
        "▁dụng.",
        -9.633898943340325
      ],
      [
        "▁kem",
        -9.634202558609914
      ],
      [
        "▁chục",
        -9.63680429145586
      ],
      [
        "▁cương",
        -9.636825831730278
      ],
      [
        "▁khung",
        -9.636905908957417
      ],
      [
        "▁Trọng",
        -9.636990079446662
      ],
      [
        "▁Sức",
        -9.6371810275704
      ],
      [
        "▁nhi",
        -9.63735548495475
      ],
      [
        "▁lắc",
        -9.638210792437327
      ],
      [
        "▁vặt",
        -9.638604488846266
      ],
      [
        "▁Phúc",
        -9.639123303911253
      ],
      [
        "▁dạ",
        -9.63933415010201
      ],
      [
        "▁Thầy",
        -9.639378699744967
      ],
      [
        "▁tân",
        -9.640015664346503
      ],
      [
        "▁trần",
        -9.641053485450506
      ],
      [
        "▁hội,",
        -9.64543364873924
      ],
      [
        "▁Mà",
        -9.647246804315985
      ],
      [
        "▁mực",
        -9.64736540825758
      ],
      [
        "▁kho",
        -9.647784152285148
      ],
      [
        "▁lãng",
        -9.649855653727949
      ],
      [
        "▁sắt",
        -9.649899604218394
      ],
      [
        "▁tán",
        -9.650042155313292
      ],
      [
        "▁địch",
        -9.650852610947078
      ],
      [
        "▁chu",
        -9.651765469555516
      ],
      [
        "▁Phân",
        -9.653414704832564
      ],
      [
        "▁x",
        -9.656259694972391
      ],
      [
        "▁HỌC",
        -9.65650761222809
      ],
      [
        "G",
        -9.656579725459705
      ],
      [
        "▁hắn,",
        -9.657000892944371
      ],
      [
        "▁giỏi",
        -9.658090514660426
      ],
      [
        "▁Cậu",
        -9.658898966908271
      ],
      [
        "▁Vào",
        -9.659916697624054
      ],
      [
        "▁định,",
        -9.660033685035625
      ],
      [
        "▁01",
        -9.660364484432312
      ],
      [
        "▁nhỏ,",
        -9.660507723421608
      ],
      [
        "▁họ.",
        -9.66079989763477
      ],
      [
        "▁đua",
        -9.661803681406846
      ],
      [
        "▁chạm",
        -9.662012264589059
      ],
      [
        "▁24",
        -9.662898317842169
      ],
      [
        "▁đấy.",
        -9.663804250452309
      ],
      [
        "▁giật",
        -9.664043293465284
      ],
      [
        "▁Vĩnh",
        -9.664339545808982
      ],
      [
        "▁Ấn",
        -9.66443720052703
      ],
      [
        "▁Cha",
        -9.665066297912325
      ],
      [
        "▁Chứng",
        -9.665166342582282
      ],
      [
        "▁thường,",
        -9.666695816249987
      ],
      [
        "▁HCM",
        -9.667874536201474
      ],
      [
        "▁đậu",
        -9.668325202198016
      ],
      [
        "3",
        -9.668733986308906
      ],
      [
        "▁21",
        -9.669301305767188
      ],
      [
        "▁hô",
        -9.670028326649703
      ],
      [
        "▁giành",
        -9.670171930800635
      ],
      [
        "▁nhãn",
        -9.67122584556686
      ],
      [
        "▁chức,",
        -9.671650313381933
      ],
      [
        "▁Bảng",
        -9.67170050540571
      ],
      [
        "▁Cả",
        -9.671875841457933
      ],
      [
        "▁nghiệp.",
        -9.673112965298913
      ],
      [
        "▁mươi",
        -9.673437275581485
      ],
      [
        "▁mắn",
        -9.673843384272738
      ],
      [
        "▁Chung",
        -9.673846585707064
      ],
      [
        "▁Hưng",
        -9.674073038217324
      ],
      [
        "▁thôi,",
        -9.67471440135546
      ],
      [
        "▁Huy",
        -9.67516989353198
      ],
      [
        "▁Tác",
        -9.676519585900866
      ],
      [
        "▁tốt.",
        -9.678626820255399
      ],
      [
        "▁súng",
        -9.679908034400977
      ],
      [
        "▁phán",
        -9.68161487669714
      ],
      [
        "▁vong",
        -9.681615535490419
      ],
      [
        "▁thảm",
        -9.683669479360947
      ],
      [
        "▁bề",
        -9.683756252282066
      ],
      [
        "▁hùng",
        -9.683978162572405
      ],
      [
        "▁Top",
        -9.684125766033013
      ],
      [
        "?”",
        -9.684185870721766
      ],
      [
        "▁mới,",
        -9.686412892749079
      ],
      [
        "▁viên,",
        -9.687123639395931
      ],
      [
        "▁Động",
        -9.688559824401352
      ],
      [
        "ân",
        -9.690136996377902
      ],
      [
        "▁tung",
        -9.69120683390554
      ],
      [
        "▁bỗng",
        -9.694269342079085
      ],
      [
        "▁ngày,",
        -9.696452820080234
      ],
      [
        "▁hối",
        -9.697895540958857
      ],
      [
        "▁CÁC",
        -9.698089306702668
      ],
      [
        "▁P",
        -9.698682106212836
      ],
      [
        "▁Chúc",
        -9.699060908920053
      ],
      [
        "v",
        -9.699802943922183
      ],
      [
        "▁Trump",
        -9.700468161000618
      ],
      [
        "▁la",
        -9.701437441867817
      ],
      [
        "▁phiền",
        -9.701697822157065
      ],
      [
        "▁Vui",
        -9.702330818021128
      ],
      [
        "▁chó",
        -9.70446883398684
      ],
      [
        "▁Trình",
        -9.705017894215079
      ],
      [
        "▁Sáng",
        -9.705360262536027
      ],
      [
        "▁Hoàn",
        -9.705745857596842
      ],
      [
        "▁phòng,",
        -9.71203174698619
      ],
      [
        "▁khích",
        -9.713002878784359
      ],
      [
        "▁VN",
        -9.713412581528102
      ],
      [
        "▁nở",
        -9.713486998859679
      ],
      [
        "▁Cục",
        -9.713680761683149
      ],
      [
        "▁cấm",
        -9.714355936638613
      ],
      [
        "▁Lập",
        -9.714705060232209
      ],
      [
        "▁đập",
        -9.714807476864127
      ],
      [
        "▁sốt",
        -9.7152409918775
      ],
      [
        "Bây",
        -9.715809891766687
      ],
      [
        "▁trường,",
        -9.716757197322396
      ],
      [
        "▁Vấn",
        -9.717787259935514
      ],
      [
        "▁Tuấn",
        -9.719105640762074
      ],
      [
        "▁nỗ",
        -9.720663278924473
      ],
      [
        "▁đắc",
        -9.720926854237378
      ],
      [
        "▁ngày.",
        -9.721701658361974
      ],
      [
        "▁quái",
        -9.722586656873892
      ],
      [
        "▁Thảo",
        -9.725880921841295
      ],
      [
        "▁nhượng",
        -9.72761615163348
      ],
      [
        "▁bò",
        -9.727896928760433
      ],
      [
        "▁mỡ",
        -9.72895585155078
      ],
      [
        "▁thả",
        -9.729334733269521
      ],
      [
        "▁nó.",
        -9.729714906516657
      ],
      [
        "▁trọng,",
        -9.72996209289725
      ],
      [
        "▁1,",
        -9.729964810255625
      ],
      [
        "▁video",
        -9.729991329719198
      ],
      [
        "▁vạn",
        -9.73051933338428
      ],
      [
        "▁Nghiên",
        -9.730527404047468
      ],
      [
        "▁đổi,",
        -9.730694537864697
      ],
      [
        "▁X",
        -9.730864670436702
      ],
      [
        "▁thầu",
        -9.732205815323349
      ],
      [
        "▁VIỆT",
        -9.73412766255029
      ],
      [
        "▁Đa",
        -9.734672964228505
      ],
      [
        "4",
        -9.736033638902562
      ],
      [
        "▁Bằng",
        -9.73611725738628
      ],
      [
        "▁hoang",
        -9.736938845027222
      ],
      [
        "▁bang",
        -9.737144179958722
      ],
      [
        "▁Chọn",
        -9.737539016879238
      ],
      [
        "▁chặn",
        -9.738165888669545
      ],
      [
        "▁tay,",
        -9.738496350645415
      ],
      [
        "▁thâm",
        -9.739147991019008
      ],
      [
        "▁cản",
        -9.739340211433397
      ],
      [
        "▁5.",
        -9.740517929914684
      ],
      [
        "▁giáp",
        -9.74165995063673
      ],
      [
        "▁Hiểu",
        -9.74195994933258
      ],
      [
        "▁Đồ",
        -9.742248370888621
      ],
      [
        "▁vỡ",
        -9.742269452705441
      ],
      [
        "▁kênh",
        -9.742850074290338
      ],
      [
        "▁NAM",
        -9.743190094227163
      ],
      [
        "▁THÔNG",
        -9.74366376325732
      ],
      [
        "ái",
        -9.743804961618878
      ],
      [
        "▁cột",
        -9.743972001396022
      ],
      [
        "▁khen",
        -9.74545464406054
      ],
      [
        "▁phỏng",
        -9.745492747385265
      ],
      [
        "▁thơm",
        -9.746019737409942
      ],
      [
        "▁chùa",
        -9.747371167376945
      ],
      [
        "▁đồng.",
        -9.74771167975178
      ],
      [
        "▁ngừa",
        -9.74917115255303
      ],
      [
        "▁huấn",
        -9.74995694395093
      ],
      [
        "▁đầu.",
        -9.752173468546943
      ],
      [
        "▁lừa",
        -9.754986219719786
      ],
      [
        "▁Đúng",
        -9.756374896492511
      ],
      [
        "▁Mật",
        -9.756409020159785
      ],
      [
        "▁đạp",
        -9.756627976629723
      ],
      [
        "▁biệt,",
        -9.759347950124829
      ],
      [
        "▁mạc",
        -9.76127007099272
      ],
      [
        "▁cười,",
        -9.764117458030197
      ],
      [
        "▁nghìn",
        -9.7647656445247
      ],
      [
        "▁Hiệu",
        -9.7654648748479
      ],
      [
        "▁anh.",
        -9.766911916783673
      ],
      [
        "▁tròn",
        -9.768356898291618
      ],
      [
        "▁định.",
        -9.769254987678174
      ],
      [
        "▁>",
        -9.769814125136534
      ],
      [
        "x",
        -9.770163104309525
      ],
      [
        "▁Rấ",
        -9.770737001263221
      ],
      [
        "nh",
        -9.770794717416084
      ],
      [
        "▁Di",
        -9.771446833714057
      ],
      [
        "▁đế",
        -9.772683757630944
      ],
      [
        "ong",
        -9.773014682871505
      ],
      [
        "▁tảng",
        -9.773955788557352
      ],
      [
        "▁tiếc",
        -9.77485829122136
      ],
      [
        "▁bạo",
        -9.77567237988195
      ],
      [
        "▁Nên",
        -9.778288476355318
      ],
      [
        "▁anh,",
        -9.779836085260381
      ],
      [
        "▁Triều",
        -9.78067508117662
      ],
      [
        "▁mảnh",
        -9.780717516311357
      ],
      [
        "▁(1)",
        -9.781976078049794
      ],
      [
        "▁cốt",
        -9.782235465688089
      ],
      [
        "▁nương",
        -9.783508256149476
      ],
      [
        "▁đựng",
        -9.785080622774373
      ],
      [
        "▁Sách",
        -9.785207919151851
      ],
      [
        "▁sắm",
        -9.785661787805154
      ],
      [
        "▁xóa",
        -9.787712067548902
      ],
      [
        "▁Nông",
        -9.788237389537132
      ],
      [
        "▁ngoài,",
        -9.788338476591104
      ],
      [
        "▁cả.",
        -9.78862284176277
      ],
      [
        "▁Đơn",
        -9.79064737279387
      ],
      [
        "▁treo",
        -9.791424191550178
      ],
      [
        "▁thua",
        -9.791987959406615
      ],
      [
        "▁ưa",
        -9.79323329173981
      ],
      [
        "▁im",
        -9.793926078071763
      ],
      [
        "▁thách",
        -9.794890592363096
      ],
      [
        "▁Ngô",
        -9.795750237148884
      ],
      [
        "▁nhà.",
        -9.796392387248863
      ],
      [
        "▁ngộ",
        -9.796881357206875
      ],
      [
        "▁phấn",
        -9.797263771400022
      ],
      [
        "▁Âm",
        -9.797990203597925
      ],
      [
        "▁xuống,",
        -9.79951371957782
      ],
      [
        "▁Cuối",
        -9.80048072087375
      ],
      [
        "▁trốn",
        -9.803551394887645
      ],
      [
        "▁hiếm",
        -9.803602626633193
      ],
      [
        "▁ngập",
        -9.803788383636515
      ],
      [
        "▁sinh,",
        -9.804305746344097
      ],
      [
        "▁nhánh",
        -9.804577230960096
      ],
      [
        "▁Chuyện",
        -9.80478175549625
      ],
      [
        "▁tông",
        -9.805088119050312
      ],
      [
        "▁Chân",
        -9.805391250052608
      ],
      [
        "▁mưu",
        -9.805455634705261
      ],
      [
        "▁(2)",
        -9.806200897506388
      ],
      [
        "▁tật",
        -9.80645209529473
      ],
      [
        "▁ngoài.",
        -9.80778154644798
      ],
      [
        "▁gồm:",
        -9.808208005002513
      ],
      [
        "▁thường.",
        -9.809376241979933
      ],
      [
        "▁vỏ",
        -9.809644055860845
      ],
      [
        "▁The",
        -9.810455577009858
      ],
      [
        "▁tế.",
        -9.811447098478133
      ],
      [
        "▁Mẫu",
        -9.811788712535302
      ],
      [
        "▁điệu",
        -9.812046129113714
      ],
      [
        "▁bận",
        -9.81384151732578
      ],
      [
        "▁Trời",
        -9.813921566577987
      ],
      [
        "5",
        -9.815893347933201
      ],
      [
        "▁giờ,",
        -9.816624220549286
      ],
      [
        "▁nhà,",
        -9.817433035879553
      ],
      [
        "▁vitamin",
        -9.817832102824703
      ],
      [
        "▁chuột",
        -9.81796505925643
      ],
      [
        "▁Trương",
        -9.818007469547014
      ],
      [
        "▁Tôn",
        -9.818292398034552
      ],
      [
        "▁Diệp",
        -9.819468820979424
      ],
      [
        "▁trại",
        -9.820252972212113
      ],
      [
        "▁thép",
        -9.822082897815728
      ],
      [
        "▁khuẩn",
        -9.822295794434996
      ],
      [
        "▁60",
        -9.822598977293962
      ],
      [
        "▁quả.",
        -9.823438817622975
      ],
      [
        "▁hằng",
        -9.824023610949649
      ],
      [
        "▁tớ",
        -9.824752735301466
      ],
      [
        "▁R",
        -9.824916960346973
      ],
      [
        "▁Rồi",
        -9.825267005160939
      ],
      [
        "▁nha",
        -9.825573115540124
      ],
      [
        "▁kĩ",
        -9.825733822155033
      ],
      [
        "▁Chu",
        -9.82702999480822
      ],
      [
        "▁“Tôi",
        -9.827732283514013
      ],
      [
        "▁điên",
        -9.828953847231718
      ],
      [
        "▁rủi",
        -9.82929549880927
      ],
      [
        "▁Tần",
        -9.829707634229253
      ],
      [
        "▁đĩa",
        -9.830098790186074
      ],
      [
        "▁nhựa",
        -9.83014143955734
      ],
      [
        "▁túc",
        -9.830743235434346
      ],
      [
        "▁hôi",
        -9.83078347231562
      ],
      [
        "▁gợi",
        -9.832950022705763
      ],
      [
        "▁Sa",
        -9.833062738647024
      ],
      [
        "▁Chưa",
        -9.833261649411952
      ],
      [
        "▁hứa",
        -9.8335000391826
      ],
      [
        "▁Ghi",
        -9.83422385537732
      ],
      [
        "▁ngắm",
        -9.834659790916302
      ],
      [
        "▁chăn",
        -9.835693311400975
      ],
      [
        "▁Biển",
        -9.837704052143845
      ],
      [
        "▁bụi",
        -9.837827938009932
      ],
      [
        "▁nút",
        -9.838317337337529
      ],
      [
        "▁Chăm",
        -9.838990597725434
      ],
      [
        "▁Lam",
        -9.841650259858195
      ],
      [
        "▁non",
        -9.841892906885526
      ],
      [
        "▁thổ",
        -9.842421938512944
      ],
      [
        "▁trọng.",
        -9.842905448023906
      ],
      [
        "▁sỹ",
        -9.843181026952742
      ],
      [
        "▁cỡ",
        -9.84354791648472
      ],
      [
        "...”",
        -9.844280571325397
      ],
      [
        "▁sùng",
        -9.844633600129887
      ],
      [
        "▁19",
        -9.844995593936902
      ],
      [
        "▁Võ",
        -9.845115518107374
      ],
      [
        "▁cổng",
        -9.845710248585652
      ],
      [
        "▁Viết",
        -9.84571585090939
      ],
      [
        "▁dâu",
        -9.845724539355896
      ],
      [
        "▁chở",
        -9.846360794358691
      ],
      [
        "▁mới.",
        -9.84844212062654
      ],
      [
        "▁xoay",
        -9.848747156160261
      ],
      [
        "▁mi",
        -9.848936575412804
      ],
      [
        "▁Lần",
        -9.849981073062722
      ],
      [
        "▁đốt",
        -9.85115737558137
      ],
      [
        "▁Ngươi",
        -9.852272955503043
      ],
      [
        "▁chép",
        -9.853347369062348
      ],
      [
        "▁San",
        -9.85367110257028
      ],
      [
        "▁trích",
        -9.854571265243175
      ],
      [
        "▁dao",
        -9.854751394555528
      ],
      [
        "▁lưới",
        -9.855091204645575
      ],
      [
        "▁mỏi",
        -9.857552612372185
      ],
      [
        "▁xong,",
        -9.85758524597356
      ],
      [
        "▁camera",
        -9.858086670650255
      ],
      [
        "▁ngón",
        -9.858094827817208
      ],
      [
        "▁Môi",
        -9.858297616245899
      ],
      [
        "▁Xuất",
        -9.85949828493057
      ],
      [
        "▁Thêm",
        -9.859778172937116
      ],
      [
        "▁Tạo",
        -9.860461157560492
      ],
      [
        "▁bớt",
        -9.861310804650921
      ],
      [
        "▁lẻ",
        -9.861464449375742
      ],
      [
        "▁tra,",
        -9.861932389096749
      ],
      [
        "▁Thẩm",
        -9.863652692089076
      ],
      [
        "▁Trị",
        -9.864912141682964
      ],
      [
        "▁lính",
        -9.864988040110575
      ],
      [
        "▁nhiều.",
        -9.865162166680431
      ],
      [
        "▁quỹ",
        -9.866574391365711
      ],
      [
        "▁VỀ",
        -9.866576139560518
      ],
      [
        "▁chán",
        -9.866894063814648
      ],
      [
        "▁nầy",
        -9.8692548469868
      ],
      [
        "▁vinh",
        -9.86957831985387
      ],
      [
        "▁Quyền",
        -9.869748480273977
      ],
      [
        "▁Sửa",
        -9.870098974311636
      ],
      [
        "▁Tam",
        -9.870415522725676
      ],
      [
        "▁ro",
        -9.87106254842298
      ],
      [
        "▁hổ",
        -9.872204815630127
      ],
      [
        "▁Qua",
        -9.872319065646636
      ],
      [
        "▁ngưỡng",
        -9.872808779855863
      ],
      [
        "▁Song",
        -9.874529061142091
      ],
      [
        "on",
        -9.874551409729312
      ],
      [
        "▁viễn",
        -9.875312787812051
      ],
      [
        "▁quan,",
        -9.875516003119024
      ],
      [
        "▁tiệc",
        -9.875666474937269
      ],
      [
        "▁gỡ",
        -9.876275746520491
      ],
      [
        "▁vậy?",
        -9.877345720938695
      ],
      [
        "▁đất,",
        -9.877349620016416
      ],
      [
        "▁buôn",
        -9.87860703487005
      ],
      [
        "▁22",
        -9.878921647291557
      ],
      [
        "▁là:",
        -9.879373880630052
      ],
      [
        "▁New",
        -9.87946731169448
      ],
      [
        "▁Ăn",
        -9.880773151324256
      ],
      [
        "▁Ảnh",
        -9.880815500361471
      ],
      [
        "▁lực,",
        -9.880925919045499
      ],
      [
        "▁Hùng",
        -9.880960649952248
      ],
      [
        "▁xuân",
        -9.880991697891243
      ],
      [
        "▁Trẻ",
        -9.881578900601946
      ],
      [
        "▁canh",
        -9.88165401592018
      ],
      [
        "▁Hậu",
        -9.882170518185127
      ],
      [
        "▁sa",
        -9.883420177667471
      ],
      [
        "▁trôi",
        -9.883589083563475
      ],
      [
        "▁soạn",
        -9.884563448676552
      ],
      [
        "▁gan",
        -9.885646942486247
      ],
      [
        "▁cờ",
        -9.88721832429313
      ],
      [
        "▁đai",
        -9.887231320894784
      ],
      [
        "▁chín",
        -9.887929171733441
      ],
      [
        "▁ảo",
        -9.888071498363137
      ],
      [
        "▁nhẫn",
        -9.889781456698358
      ],
      [
        "▁thế.",
        -9.889892404073455
      ],
      [
        "▁HÀNG",
        -9.890300257165908
      ],
      [
        "▁Dưới",
        -9.891337840635494
      ],
      [
        "▁cướp",
        -9.894607872471312
      ],
      [
        "▁mờ",
        -9.896158519127132
      ],
      [
        "▁qua.",
        -9.897186168647696
      ],
      [
        "ổ",
        -9.898519143241447
      ],
      [
        "▁cấp,",
        -9.898893777225183
      ],
      [
        "▁mau",
        -9.898997433900426
      ],
      [
        "8",
        -9.899055964466196
      ],
      [
        "▁dân,",
        -9.9002844694215
      ],
      [
        "▁tây",
        -9.9016271492523
      ],
      [
        "▁trước.",
        -9.901678478282735
      ],
      [
        "▁Tỉnh",
        -9.902585110564875
      ],
      [
        "▁co",
        -9.90363880072465
      ],
      [
        "▁trống",
        -9.904294465826291
      ],
      [
        "▁Đặt",
        -9.90467053465865
      ],
      [
        "▁Hữu",
        -9.906016232054252
      ],
      [
        "▁khớp",
        -9.906111924108366
      ],
      [
        "▁say",
        -9.90613583893846
      ],
      [
        "▁năm.",
        -9.909286399202145
      ],
      [
        "▁Loại",
        -9.910252927579709
      ],
      [
        "▁đ",
        -9.911940476910289
      ],
      [
        "▁giấu",
        -9.912707238066679
      ],
      [
        "▁Của",
        -9.913082051382075
      ],
      [
        "▁chim",
        -9.913969250529956
      ],
      [
        "▁dịu",
        -9.91409355493731
      ],
      [
        "▁Chuyển",
        -9.9149594344699
      ],
      [
        "▁lắm,",
        -9.915668852834454
      ],
      [
        "▁miếng",
        -9.916191197546432
      ],
      [
        "▁giới,",
        -9.916713650186754
      ],
      [
        "▁đâu.",
        -9.916915615324868
      ],
      [
        "▁file",
        -9.917664219971122
      ],
      [
        "▁thuyền",
        -9.917691567879084
      ],
      [
        "▁Nghe",
        -9.918004576744814
      ],
      [
        "▁tách",
        -9.918414014944897
      ],
      [
        "▁chối",
        -9.9192283458881
      ],
      [
        "▁ngọn",
        -9.919839417533364
      ],
      [
        "▁Lăng",
        -9.920398548122403
      ],
      [
        "▁Tuyển",
        -9.923133497555646
      ],
      [
        "▁cất",
        -9.923195525163418
      ],
      [
        "▁Tế",
        -9.923416792007291
      ],
      [
        "▁trúng",
        -9.923561132563105
      ],
      [
        "▁hỗn",
        -9.924107998607937
      ],
      [
        "▁phu",
        -9.924533605316459
      ],
      [
        "▁bạch",
        -9.924978835528883
      ],
      [
        "▁run",
        -9.925115060450963
      ],
      [
        "▁Sống",
        -9.925993049781027
      ],
      [
        "▁sôi",
        -9.926255534844898
      ],
      [
        "▁Tuyết",
        -9.928348059560301
      ],
      [
        "▁Tra",
        -9.931413307942437
      ],
      [
        "▁Nội,",
        -9.931458901031966
      ],
      [
        "▁vĩ",
        -9.931628342002313
      ],
      [
        "▁đình,",
        -9.932350420705806
      ],
      [
        "▁thăng",
        -9.93262983708893
      ],
      [
        "▁bông",
        -9.932979551255073
      ],
      [
        "▁Cửa",
        -9.934080212833745
      ],
      [
        "▁ăn,",
        -9.934925557126178
      ],
      [
        "▁Giờ",
        -9.935921591125126
      ],
      [
        "▁trộm",
        -9.937714366867304
      ],
      [
        "▁Tầng",
        -9.938299375322988
      ],
      [
        "▁săn",
        -9.93889194304154
      ],
      [
        "▁chúa",
        -9.939927971976052
      ],
      [
        "▁Email",
        -9.939981803977773
      ],
      [
        "óc",
        -9.940298651557203
      ],
      [
        "Nếu",
        -9.940329244869691
      ],
      [
        "▁I",
        -9.940842155351705
      ],
      [
        ".com",
        -9.941165352232602
      ],
      [
        "▁sống.",
        -9.94301772221226
      ],
      [
        "▁khán",
        -9.943584885539295
      ],
      [
        "▁rằng:",
        -9.943760932224556
      ],
      [
        "▁bi",
        -9.94397049082458
      ],
      [
        "▁bá",
        -9.94447224234028
      ],
      [
        "▁Tô",
        -9.944892954273975
      ],
      [
        "▁ấy.",
        -9.945018320540063
      ],
      [
        "▁dò",
        -9.946022783469429
      ],
      [
        "▁a)",
        -9.946823475516226
      ],
      [
        "▁tuệ",
        -9.947836363530687
      ],
      [
        "▁Tinh",
        -9.948732467135919
      ],
      [
        "▁Lao",
        -9.948963095206796
      ],
      [
        "▁Trả",
        -9.949675000088298
      ],
      [
        "▁bão",
        -9.949787633372559
      ],
      [
        "▁hỏng",
        -9.950069773893189
      ],
      [
        "▁Chào",
        -9.950348440628254
      ],
      [
        "▁sống,",
        -9.952195183075878
      ],
      [
        "▁quỷ",
        -9.95266318004368
      ],
      [
        "▁1:",
        -9.952865127083719
      ],
      [
        "▁tháo",
        -9.953102216710773
      ],
      [
        "▁mỉm",
        -9.954279726000518
      ],
      [
        "▁tao",
        -9.955038274214642
      ],
      [
        "▁tin,",
        -9.956505183709584
      ],
      [
        "▁xứng",
        -9.958022385698257
      ],
      [
        "▁chút,",
        -9.95835015137797
      ],
      [
        "▁hội.",
        -9.958951041386785
      ],
      [
        "▁bổng",
        -9.96002005147782
      ],
      [
        "▁việt",
        -9.96105985738604
      ],
      [
        "▁THPT",
        -9.962472358841438
      ],
      [
        "▁ám",
        -9.962581612453665
      ],
      [
        "▁Diện",
        -9.964579155092718
      ],
      [
        "▁kia,",
        -9.964836214474214
      ],
      [
        "▁Ô",
        -9.964912298039557
      ],
      [
        "▁nạ",
        -9.968221271831442
      ],
      [
        "▁phẩm,",
        -9.968657526351704
      ],
      [
        "▁200",
        -9.968672152502116
      ],
      [
        "▁mạo",
        -9.969403870784
      ],
      [
        "▁Hạnh",
        -9.97007142796419
      ],
      [
        "▁b)",
        -9.970619103595213
      ],
      [
        "▁nhắm",
        -9.971295336634924
      ],
      [
        "▁tới,",
        -9.971915586952335
      ],
      [
        "▁nhé",
        -9.972002624206809
      ],
      [
        "▁lượng,",
        -9.973825742134306
      ],
      [
        "▁Ứng",
        -9.97386082775088
      ],
      [
        "▁hà",
        -9.974688363744901
      ],
      [
        "▁học.",
        -9.974727091354087
      ],
      [
        "▁Mỹ,",
        -9.975431115820303
      ],
      [
        "▁bó",
        -9.97590645292748
      ],
      [
        "▁mạnh,",
        -9.97740023773418
      ],
      [
        "▁chấn",
        -9.97822063501815
      ],
      [
        "▁đợt",
        -9.978981996460007
      ],
      [
        "▁trộn",
        -9.979218722963264
      ],
      [
        "▁xăng",
        -9.97922593757724
      ],
      [
        "▁mặt,",
        -9.980544434096156
      ],
      [
        "▁TẠI",
        -9.981201505244867
      ],
      [
        "▁Quốc,",
        -9.981611124195922
      ],
      [
        "D",
        -9.981830516810746
      ],
      [
        "▁chằm",
        -9.98220250689504
      ],
      [
        "▁Cụ",
        -9.983238838201117
      ],
      [
        "▁sáu",
        -9.983525134106372
      ],
      [
        "▁hận",
        -9.984204743639996
      ],
      [
        "▁Chức",
        -9.984818408884944
      ],
      [
        "▁điệp",
        -9.98519209505723
      ],
      [
        "▁đâu,",
        -9.985701461509198
      ],
      [
        "▁Thân",
        -9.985854368464684
      ],
      [
        "▁rao",
        -9.986350400904318
      ],
      [
        "▁khẩn",
        -9.98719226304641
      ],
      [
        "▁CHÍNH",
        -9.988196031033404
      ],
      [
        "▁Cup",
        -9.989362936852887
      ],
      [
        "▁nhóc",
        -9.991445079177819
      ],
      [
        "▁ý,",
        -9.992724238915294
      ],
      [
        "▁hiến",
        -9.994620399791625
      ],
      [
        "▁sim",
        -9.99555817663912
      ],
      [
        "▁Thiếu",
        -9.995901486598692
      ],
      [
        "▁thọ",
        -9.997263741006392
      ],
      [
        "▁táo",
        -9.99759835208788
      ],
      [
        "▁Ca",
        -9.999283315256505
      ],
      [
        "S",
        -9.999313206857511
      ],
      [
        "▁hi",
        -9.999392689680466
      ],
      [
        "▁váy",
        -9.999915822637906
      ],
      [
        "▁cám",
        -10.000044343172888
      ],
      [
        "▁2,",
        -10.000284527051033
      ],
      [
        "▁SEO",
        -10.001242560056745
      ],
      [
        "▁vải",
        -10.001302629369391
      ],
      [
        "▁buông",
        -10.001625794356237
      ],
      [
        "ra",
        -10.00181206197762
      ],
      [
        "▁TƯ",
        -10.002270655388124
      ],
      [
        "▁bảy",
        -10.002782494811253
      ],
      [
        "▁2:",
        -10.002835821522615
      ],
      [
        "▁rác",
        -10.00339798804519
      ],
      [
        "▁ruột",
        -10.005867016942304
      ],
      [
        "▁Nguyệt",
        -10.006686199497423
      ],
      [
        "▁mồ",
        -10.008146992992684
      ],
      [
        "▁Hay",
        -10.0084501412163
      ],
      [
        "▁duyên",
        -10.00860079848195
      ],
      [
        "▁6.",
        -10.009530983734347
      ],
      [
        "▁trị,",
        -10.009597400913433
      ],
      [
        "▁đâu?",
        -10.010144837128083
      ],
      [
        "▁23",
        -10.01060386084203
      ],
      [
        "▁chợt",
        -10.011477576719683
      ],
      [
        "▁Ví",
        -10.012361185399552
      ],
      [
        "▁Đội",
        -10.012391321174077
      ],
      [
        "▁lắm.",
        -10.013355811668344
      ],
      [
        "▁dài,",
        -10.013965903758535
      ],
      [
        "▁Lai",
        -10.014210083654243
      ],
      [
        "▁triệt",
        -10.0146042176873
      ],
      [
        "▁hỏi:",
        -10.014704003499588
      ],
      [
        "B",
        -10.015352821269424
      ],
      [
        "▁tới.",
        -10.015565928436445
      ],
      [
        "▁TNHH",
        -10.015633695330909
      ],
      [
        "....",
        -10.015697335330518
      ],
      [
        "▁tâm,",
        -10.01614806816866
      ],
      [
        "▁pin",
        -10.016318579623025
      ],
      [
        "▁rốt",
        -10.016861384683661
      ],
      [
        "ch",
        -10.017146206852107
      ],
      [
        "▁Sơ",
        -10.017887476839222
      ],
      [
        "▁dọa",
        -10.018008398376645
      ],
      [
        "▁màng",
        -10.018699618532482
      ],
      [
        "▁chua",
        -10.019477000376401
      ],
      [
        "▁khấu",
        -10.020043524582984
      ],
      [
        "▁đàm",
        -10.020286351653446
      ],
      [
        "Nơi",
        -10.020560071365125
      ],
      [
        "▁lô",
        -10.022132685693137
      ],
      [
        "▁TPHCM",
        -10.022494543609488
      ],
      [
        "7",
        -10.025617647708243
      ],
      [
        "▁lang",
        -10.025943706339891
      ],
      [
        "▁Bị",
        -10.026469017522443
      ],
      [
        "▁võ",
        -10.027808901196902
      ],
      [
        "8)",
        -10.028711884539138
      ],
      [
        "▁Vinh",
        -10.03022311979242
      ],
      [
        "▁tỏa",
        -10.030599179836504
      ],
      [
        "▁Mười",
        -10.030762738887987
      ],
      [
        "▁dính",
        -10.031218277102678
      ],
      [
        "▁thuần",
        -10.03171142338853
      ],
      [
        "▁tẩy",
        -10.03279967338722
      ],
      [
        "▁Vừa",
        -10.033870783185513
      ],
      [
        "▁Nhi",
        -10.034514296616207
      ],
      [
        "▁ghé",
        -10.03492944422614
      ],
      [
        "▁tư,",
        -10.035151338484653
      ],
      [
        "▁đậm",
        -10.03625204315067
      ],
      [
        "▁thạch",
        -10.036679523739927
      ],
      [
        "▁dâng",
        -10.036756302397936
      ],
      [
        "▁dâm",
        -10.037439467963267
      ],
      [
        "▁gian,",
        -10.038859505975967
      ],
      [
        "▁giãn",
        -10.04035413707583
      ],
      [
        "▁cúi",
        -10.041289665487312
      ],
      [
        "▁ha",
        -10.041485561236591
      ],
      [
        "▁cỏ",
        -10.042046346358624
      ],
      [
        "▁vẹn",
        -10.042055604304577
      ],
      [
        "▁E",
        -10.04246801108721
      ],
      [
        "Chúng",
        -10.043104889082352
      ],
      [
        "▁khái",
        -10.04329338283417
      ],
      [
        "▁CHO",
        -10.044947487706654
      ],
      [
        "▁đại,",
        -10.045552637871792
      ],
      [
        "er",
        -10.046115239276492
      ],
      [
        "▁móc",
        -10.046433279901649
      ],
      [
        "▁Dược",
        -10.046731465709723
      ],
      [
        "▁cô.",
        -10.046778828752643
      ],
      [
        "▁cựu",
        -10.046863956835164
      ],
      [
        "▁khiếu",
        -10.047153324782261
      ],
      [
        "▁GIÁ",
        -10.047481132605293
      ],
      [
        "▁nhạy",
        -10.048055259210656
      ],
      [
        "▁cô,",
        -10.048079592084708
      ],
      [
        "▁Dung",
        -10.048307173233649
      ],
      [
        "▁gia,",
        -10.048360186041357
      ],
      [
        "▁giặt",
        -10.049394319429753
      ],
      [
        "▁Tích",
        -10.04997170789877
      ],
      [
        "▁Tour",
        -10.050316811958524
      ],
      [
        "▁Dũng",
        -10.05126252959761
      ],
      [
        "▁HỘI",
        -10.05131779616813
      ],
      [
        "▁Email:",
        -10.05174980936609
      ],
      [
        "▁Muốn",
        -10.052695624272012
      ],
      [
        "▁tia",
        -10.052740411008227
      ],
      [
        "▁lý.",
        -10.053070926213488
      ],
      [
        "▁Nghĩa",
        -10.053745573534073
      ],
      [
        "▁khuyết",
        -10.054507381392625
      ],
      [
        "▁Trí",
        -10.055563459734824
      ],
      [
        "▁khoáng",
        -10.059162977864215
      ],
      [
        "▁đồng,",
        -10.059784851861966
      ],
      [
        "▁loa",
        -10.060023605412553
      ],
      [
        "▁sưu",
        -10.060121218022733
      ],
      [
        "▁triều",
        -10.060955787311045
      ],
      [
        "▁Online",
        -10.065123073732428
      ],
      [
        "▁da,",
        -10.066092244632252
      ],
      [
        "▁Vô",
        -10.066498841428935
      ],
      [
        "▁lôi",
        -10.067145276125453
      ],
      [
        "▁sáng,",
        -10.069262438681434
      ],
      [
        "▁nướng",
        -10.069297613485604
      ],
      [
        "▁\"Ta",
        -10.069819317845461
      ],
      [
        "▁Video",
        -10.07007052800125
      ],
      [
        "▁biết.",
        -10.070167972292136
      ],
      [
        "▁sướng",
        -10.071002203651913
      ],
      [
        "▁lũ",
        -10.073370377557517
      ],
      [
        "▁2013",
        -10.075219357321192
      ],
      [
        "▁“Không",
        -10.075673069553691
      ],
      [
        "▁bê",
        -10.076038933765025
      ],
      [
        ".vn",
        -10.07738870898963
      ],
      [
        "▁lát",
        -10.079194414280389
      ],
      [
        "▁hỏa",
        -10.079423942076792
      ],
      [
        "▁rắn",
        -10.08102842887898
      ],
      [
        "▁sợi",
        -10.081851122708446
      ],
      [
        "▁Lãnh",
        -10.08231480613465
      ],
      [
        "▁má",
        -10.08455005789806
      ],
      [
        "P",
        -10.085813686135266
      ],
      [
        "▁Internet",
        -10.086046838434932
      ],
      [
        "▁Tàu",
        -10.086321411006512
      ],
      [
        "▁ĐH",
        -10.087533884472712
      ],
      [
        "▁bọc",
        -10.090567153865116
      ],
      [
        "▁Phố",
        -10.091015901496906
      ],
      [
        "▁Hy",
        -10.092958773414122
      ],
      [
        "▁đùa",
        -10.093077670242025
      ],
      [
        "▁tiếng,",
        -10.09381638631071
      ],
      [
        "▁liều",
        -10.094356207762244
      ],
      [
        "▁sót",
        -10.094641576159137
      ],
      [
        "▁Bùi",
        -10.096483716953935
      ],
      [
        "▁Ký",
        -10.097038775811562
      ],
      [
        "▁trật",
        -10.097181873239965
      ],
      [
        "▁trục",
        -10.097262112256322
      ],
      [
        "▁đeo",
        -10.097438749665976
      ],
      [
        "▁điểm,",
        -10.09806140366198
      ],
      [
        "▁Thuận",
        -10.099984150803138
      ],
      [
        "▁lò",
        -10.100401768662753
      ],
      [
        "▁3,",
        -10.100491925306404
      ],
      [
        "▁Dạ",
        -10.100536738387428
      ],
      [
        "▁khẽ",
        -10.103093066006256
      ],
      [
        "6",
        -10.104497677202776
      ],
      [
        "▁Vật",
        -10.104603865885796
      ],
      [
        "...\"",
        -10.105566323552154
      ],
      [
        "▁lùi",
        -10.106531958417458
      ],
      [
        "▁Cập",
        -10.107541975995613
      ],
      [
        "▁VĂN",
        -10.107814954565967
      ],
      [
        "▁2014",
        -10.108618802005928
      ],
      [
        "▁đề:",
        -10.10875233097575
      ],
      [
        "▁tử,",
        -10.108892839029465
      ],
      [
        "▁tuân",
        -10.10973138149291
      ],
      [
        "▁khát",
        -10.111550971914927
      ],
      [
        "▁chủng",
        -10.11172750793029
      ],
      [
        "▁đắt",
        -10.112378375093382
      ],
      [
        "▁củ",
        -10.113303597201206
      ],
      [
        "▁Lại",
        -10.113615771298324
      ],
      [
        "▁than",
        -10.113964752365643
      ],
      [
        "▁Huế",
        -10.115281850254604
      ],
      [
        "▁tiễn",
        -10.115544353451128
      ],
      [
        "▁Truyện",
        -10.117076021330764
      ],
      [
        "▁SẢN",
        -10.117573307887067
      ],
      [
        "▁QUỐC",
        -10.118649892903278
      ],
      [
        "▁mọc",
        -10.11866706002386
      ],
      [
        "an",
        -10.119483429758183
      ],
      [
        "▁ĐỘNG",
        -10.11979620144591
      ],
      [
        "▁đằng",
        -10.119798423767712
      ],
      [
        "▁bát",
        -10.120820798063022
      ],
      [
        "▁đói",
        -10.122214034332426
      ],
      [
        "▁Kính",
        -10.123003096906096
      ],
      [
        "ốc",
        -10.123420094255305
      ],
      [
        "▁Dùng",
        -10.124907374541362
      ],
      [
        "H",
        -10.126061195086363
      ],
      [
        "▁Lộ",
        -10.12638664413107
      ],
      [
        "▁lùng",
        -10.12652624867257
      ],
      [
        "▁tết",
        -10.126740303103746
      ],
      [
        "K",
        -10.12678023101692
      ],
      [
        "▁mì",
        -10.12736078880674
      ],
      [
        "▁Hỏi",
        -10.127702619547389
      ],
      [
        "▁khổng",
        -10.128137309754202
      ],
      [
        "▁vĩnh",
        -10.128269630398592
      ],
      [
        "▁Chế",
        -10.129193931629121
      ],
      [
        "▁nại",
        -10.129336825478322
      ],
      [
        "▁Liệu",
        -10.13018705894401
      ],
      [
        "▁Phước",
        -10.130693225862586
      ],
      [
        "▁chìm",
        -10.130709435150052
      ],
      [
        "▁Da",
        -10.130871161722013
      ],
      [
        "▁nhịp",
        -10.131804641418213
      ],
      [
        "▁nàng,",
        -10.133663640138812
      ],
      [
        "▁Khám",
        -10.133886453061733
      ],
      [
        "▁of",
        -10.133936141281712
      ],
      [
        "hiếp",
        -10.13397892123849
      ],
      [
        "▁Thích",
        -10.13408310570862
      ],
      [
        "▁khẩu?",
        -10.13415561107779
      ],
      [
        "▁trưa",
        -10.134412829895872
      ],
      [
        "▁NỘI",
        -10.135935760922585
      ],
      [
        "▁ghét",
        -10.136125742193524
      ],
      [
        "▁nhân.",
        -10.136971258322738
      ],
      [
        "▁Thụy",
        -10.138047934044376
      ],
      [
        "▁\"Không",
        -10.138207063321532
      ],
      [
        "▁mầm",
        -10.138283169097338
      ],
      [
        "▁ngủ,",
        -10.138337943436635
      ],
      [
        "▁LIÊN",
        -10.13897693731034
      ],
      [
        "▁mạn",
        -10.139955917202247
      ],
      [
        "▁muối",
        -10.141101286167872
      ],
      [
        "▁09",
        -10.141113953980234
      ],
      [
        "▁xách",
        -10.141115585441131
      ],
      [
        "▁Thơ",
        -10.142444704930405
      ],
      [
        "▁500",
        -10.14277929481559
      ],
      [
        "▁em,",
        -10.143305736550165
      ],
      [
        "▁đe",
        -10.143359586993434
      ],
      [
        "▁nấm",
        -10.144869624911031
      ],
      [
        "▁dán",
        -10.145246352303438
      ],
      [
        "▁su",
        -10.14572443609691
      ],
      [
        "▁đam",
        -10.145869712768425
      ],
      [
        "▁thùng",
        -10.146697168443925
      ],
      [
        "▁tá",
        -10.147057600861547
      ],
      [
        "▁Tuyên",
        -10.148609363061672
      ],
      [
        "▁Miền",
        -10.149236074157134
      ],
      [
        "▁Úc",
        -10.149434570245376
      ],
      [
        "▁nhỏ.",
        -10.149938358111088
      ],
      [
        "▁Lạt",
        -10.152267972780198
      ],
      [
        "▁cắn",
        -10.152758388084528
      ],
      [
        "▁mắt.",
        -10.152804536932186
      ],
      [
        "▁Đàn",
        -10.15288622606617
      ],
      [
        "L",
        -10.154444787088572
      ],
      [
        "▁mộng",
        -10.157361753193001
      ],
      [
        "▁đình.",
        -10.157842350562444
      ],
      [
        "▁Đỗ",
        -10.158150676217002
      ],
      [
        "▁đường,",
        -10.15863749040711
      ],
      [
        "▁sao,",
        -10.158639228444372
      ],
      [
        "▁27",
        -10.15872877978588
      ],
      [
        "▁phím",
        -10.161283238042593
      ],
      [
        "▁tám",
        -10.161310669663656
      ],
      [
        "▁NHẤT",
        -10.161837005435366
      ],
      [
        "▁b",
        -10.162227511409522
      ],
      [
        "▁CÓ",
        -10.163666280868355
      ],
      [
        "▁Chắc",
        -10.164080198589222
      ],
      [
        "▁rung",
        -10.16463162801848
      ],
      [
        "▁ôn",
        -10.166566944388741
      ],
      [
        "▁em.",
        -10.167123033277289
      ],
      [
        "▁Toán",
        -10.167813679294614
      ],
      [
        "▁đành",
        -10.169086679694374
      ],
      [
        "▁Thuốc",
        -10.171765688908735
      ],
      [
        "▁xưởng",
        -10.172923196905149
      ],
      [
        "▁World",
        -10.173082399377506
      ],
      [
        "▁Thuật",
        -10.17383852962763
      ],
      [
        "▁quyến",
        -10.1764090511072
      ],
      [
        "▁Lợi",
        -10.176466767786867
      ],
      [
        "▁đẹp.",
        -10.177841137050788
      ],
      [
        "▁DN",
        -10.178429007942825
      ],
      [
        "▁Ảnh:",
        -10.179438916196446
      ],
      [
        "):",
        -10.179916818140391
      ],
      [
        "▁In",
        -10.180687637958469
      ],
      [
        "▁Năng",
        -10.180793407746297
      ],
      [
        "▁quyển",
        -10.181546646228863
      ],
      [
        "▁bấm",
        -10.182978029456685
      ],
      [
        "▁City",
        -10.183901307103671
      ],
      [
        "▁ngõ",
        -10.184222076573198
      ],
      [
        "▁đây:",
        -10.184239196956804
      ],
      [
        "▁Đôi",
        -10.184957023759804
      ],
      [
        "▁Biết",
        -10.18525432158184
      ],
      [
        "▁không?”",
        -10.187871662058953
      ],
      [
        "▁Bóng",
        -10.188120106620545
      ],
      [
        "▁Kiều",
        -10.188841290049018
      ],
      [
        "▁kí",
        -10.189622193408148
      ],
      [
        "▁chết,",
        -10.19006448840547
      ],
      [
        "▁chứ?",
        -10.190105105296713
      ],
      [
        "▁hẹp",
        -10.19020093412967
      ],
      [
        "▁phun",
        -10.190245013083063
      ],
      [
        "▁nang",
        -10.190499742595769
      ],
      [
        "▁cậy",
        -10.192455503820554
      ],
      [
        "▁thấu",
        -10.194571037331373
      ],
      [
        "▁thèm",
        -10.19639211310642
      ],
      [
        "▁ngơi",
        -10.19656522904993
      ],
      [
        "▁xuất,",
        -10.197389189538454
      ],
      [
        "▁lệch",
        -10.197998833228565
      ],
      [
        "▁Đời",
        -10.199011392309172
      ],
      [
        "▁hàn",
        -10.199249415265493
      ],
      [
        "▁thuật,",
        -10.199521461981007
      ],
      [
        "▁Mô",
        -10.201010311436754
      ],
      [
        "▁vụ,",
        -10.201565481135045
      ],
      [
        "▁dọc",
        -10.201622975165545
      ],
      [
        "▁gạo",
        -10.20204731965466
      ],
      [
        "▁dụng,",
        -10.202075785611443
      ],
      [
        "▁mí",
        -10.203889088637695
      ],
      [
        "▁nguyệt",
        -10.2048308213501
      ],
      [
        "Bạn",
        -10.205147244094995
      ],
      [
        "▁02",
        -10.206145491441685
      ],
      [
        "▁chuỗi",
        -10.206252968638468
      ],
      [
        "▁Tĩnh",
        -10.206616419425218
      ],
      [
        "▁28",
        -10.206961411292323
      ],
      [
        "▁Ánh",
        -10.207396222805265
      ],
      [
        "▁NHÂN",
        -10.20821264382958
      ],
      [
        "▁quát",
        -10.208306927682282
      ],
      [
        "▁chiêu",
        -10.2083218914396
      ],
      [
        "▁v",
        -10.20922348747254
      ],
      [
        "▁Bồ",
        -10.210086889199566
      ],
      [
        "▁hỏi,",
        -10.210153358504426
      ],
      [
        "▁đạo,",
        -10.21143256075392
      ],
      [
        "▁ý.",
        -10.21216297232613
      ],
      [
        "▁trọ",
        -10.212539984578614
      ],
      [
        "▁d",
        -10.212552348945646
      ],
      [
        "▁rực",
        -10.21306392231267
      ],
      [
        "▁thiệp",
        -10.213420167373322
      ],
      [
        "▁lăng",
        -10.213536265522396
      ],
      [
        "▁bám",
        -10.21408612491519
      ],
      [
        "▁nhạt",
        -10.214856379869616
      ],
      [
        "▁đền",
        -10.21522901890085
      ],
      [
        "▁Chú",
        -10.215901721017332
      ],
      [
        "▁.\"",
        -10.21652012827013
      ],
      [
        "▁Cát",
        -10.216766440541775
      ],
      [
        "▁dọn",
        -10.216806679617214
      ],
      [
        "▁Windows",
        -10.217647722794311
      ],
      [
        "▁rỡ",
        -10.217706845071731
      ],
      [
        "▁chả",
        -10.217737241942968
      ],
      [
        "▁nhịn",
        -10.217873366179013
      ],
      [
        "▁U",
        -10.218040562797993
      ],
      [
        "▁Vận",
        -10.218200245775826
      ],
      [
        "▁long",
        -10.218802018322997
      ],
      [
        "▁Dầu",
        -10.221560852491645
      ],
      [
        "▁tứ",
        -10.221750741873942
      ],
      [
        "▁Singapore",
        -10.221871069226705
      ],
      [
        "▁chăng",
        -10.222049744019337
      ],
      [
        "▁đoạt",
        -10.222055276907422
      ],
      [
        "▁Độc",
        -10.222643967494534
      ],
      [
        "▁Thục",
        -10.22338928583953
      ],
      [
        "▁Hồi",
        -10.224158752650714
      ],
      [
        "▁dối",
        -10.224177821664142
      ],
      [
        "▁29",
        -10.224561054728948
      ],
      [
        "▁thợ",
        -10.224585090951294
      ],
      [
        "▁2012",
        -10.227403387118105
      ],
      [
        "▁va",
        -10.22908146000519
      ],
      [
        "▁26",
        -10.229149626983418
      ],
      [
        "▁4,",
        -10.229278405203283
      ],
      [
        "▁việc,",
        -10.229481693040286
      ],
      [
        "▁cú",
        -10.229963788859505
      ],
      [
        "▁khoác",
        -10.230446728197936
      ],
      [
        "▁lui",
        -10.23094792189378
      ],
      [
        "▁BẠN",
        -10.230961960241396
      ],
      [
        "▁hoà",
        -10.231825615854355
      ],
      [
        "▁ga",
        -10.232336568026945
      ],
      [
        "▁bút",
        -10.232496548985933
      ],
      [
        "▁Bình,",
        -10.232624540488072
      ],
      [
        "▁Phim",
        -10.232895471716198
      ],
      [
        "▁Mùa",
        -10.234568076605026
      ],
      [
        "▁đạn",
        -10.234627235991148
      ],
      [
        "▁Hiển",
        -10.234799885413008
      ],
      [
        "▁vây",
        -10.234800375977553
      ],
      [
        "▁Cẩm",
        -10.235558295632847
      ],
      [
        "▁hãi",
        -10.236184120454915
      ],
      [
        "▁7.",
        -10.236670606089536
      ],
      [
        "▁lau",
        -10.236807909914983
      ],
      [
        "▁xe,",
        -10.23801949329532
      ],
      [
        "▁đâm",
        -10.238678194790996
      ],
      [
        "▁ý:",
        -10.239440041578066
      ],
      [
        "▁Apple",
        -10.239821952337994
      ],
      [
        "▁thấm",
        -10.239948284577766
      ],
      [
        "▁khôn",
        -10.2405672609171
      ],
      [
        "▁300",
        -10.240786088868255
      ],
      [
        "▁lâu,",
        -10.241162797861685
      ],
      [
        "▁cuồng",
        -10.241562070136428
      ],
      [
        "am",
        -10.241647913073578
      ],
      [
        "▁Giảm",
        -10.24232102093262
      ],
      [
        "▁muộn",
        -10.243091284174696
      ],
      [
        "ấp",
        -10.243836947328802
      ],
      [
        "▁bơi",
        -10.243884352611111
      ],
      [
        "▁hoài",
        -10.2441988170545
      ],
      [
        "▁Tải",
        -10.244649308884888
      ],
      [
        "▁mù",
        -10.245494471447355
      ],
      [
        "▁Hoan",
        -10.245561497037324
      ],
      [
        "▁dã",
        -10.24606913245173
      ],
      [
        "▁nám",
        -10.246132296305156
      ],
      [
        "▁kệ",
        -10.24829972119622
      ],
      [
        "▁Giêsu",
        -10.248537308803915
      ],
      [
        "▁TY",
        -10.248839838616776
      ],
      [
        "▁cốc",
        -10.249066337105589
      ],
      [
        "▁gã",
        -10.249706696232042
      ],
      [
        "▁Cá",
        -10.252094282195094
      ],
      [
        "7)",
        -10.252295010528062
      ],
      [
        "▁đắp",
        -10.252924006136304
      ],
      [
        "▁đà",
        -10.252933422598709
      ],
      [
        "▁Cấp",
        -10.25409162743118
      ],
      [
        "▁tỉnh,",
        -10.254137303021396
      ],
      [
        "▁VỤ",
        -10.254229819265788
      ],
      [
        "▁Tối",
        -10.254235053017496
      ],
      [
        "▁PHÁP",
        -10.25445485664942
      ],
      [
        "▁Copyright",
        -10.255531878333866
      ],
      [
        "▁trình,",
        -10.255640256628887
      ],
      [
        "▁mịn",
        -10.255789213464515
      ],
      [
        "▁Nghiệp",
        -10.256027972261798
      ],
      [
        "▁nếp",
        -10.25684245053013
      ],
      [
        "▁lãm",
        -10.25697780505676
      ],
      [
        "▁thân,",
        -10.25783274103016
      ],
      [
        "▁giam",
        -10.26020125015922
      ],
      [
        "▁2011",
        -10.26120229121953
      ],
      [
        "▁tàng",
        -10.261545287493128
      ],
      [
        "▁Lão",
        -10.261978687740772
      ],
      [
        "▁Trái",
        -10.2633018485927
      ],
      [
        "▁trội",
        -10.26407971162642
      ],
      [
        "▁hung",
        -10.265238520896627
      ],
      [
        "▁ngọc",
        -10.265573888142093
      ],
      [
        "▁dài.",
        -10.26584991575572
      ],
      [
        "▁hoan",
        -10.26766696578806
      ],
      [
        "▁bù",
        -10.267724323458264
      ],
      [
        "▁Hoặc",
        -10.268627056020767
      ],
      [
        "▁nghiện",
        -10.268853735277371
      ],
      [
        "▁xông",
        -10.268932339516875
      ],
      [
        "▁tour",
        -10.269011876397087
      ],
      [
        "......",
        -10.269888044019583
      ],
      [
        "▁ném",
        -10.270260152248834
      ],
      [
        "▁tuổi.",
        -10.27079545384624
      ],
      [
        "▁MỚI",
        -10.271376164354205
      ],
      [
        "▁cảng",
        -10.2713828632936
      ],
      [
        "▁hầm",
        -10.27152602892976
      ],
      [
        "▁hỏi.",
        -10.27159566976079
      ],
      [
        "▁70",
        -10.271698081416192
      ],
      [
        "▁2010",
        -10.272322573708689
      ],
      [
        "▁Tấn",
        -10.27237971424023
      ],
      [
        "▁bể",
        -10.272746697754922
      ],
      [
        "▁tạo,",
        -10.272798911648163
      ],
      [
        "▁mò",
        -10.273093759832808
      ],
      [
        "▁tính,",
        -10.273486803322573
      ],
      [
        "▁Mỹ.",
        -10.274100520627005
      ],
      [
        "▁viên.",
        -10.27452454642529
      ],
      [
        "▁nhiên.",
        -10.275704368119973
      ],
      [
        "▁45",
        -10.27597986429122
      ],
      [
        "ta",
        -10.276463134270177
      ],
      [
        "▁vỗ",
        -10.276736395221974
      ],
      [
        "▁P.",
        -10.276826237832857
      ],
      [
        "▁II",
        -10.277057615044042
      ],
      [
        "▁thoái",
        -10.277829383995442
      ],
      [
        "▁Cam",
        -10.278934364214749
      ],
      [
        "▁Park",
        -10.278956029692164
      ],
      [
        "▁dạo",
        -10.279492743009975
      ],
      [
        "▁Viêm",
        -10.280271464820592
      ],
      [
        "ể",
        -10.281211357784784
      ],
      [
        "a,",
        -10.281542618469889
      ],
      [
        "▁khôi",
        -10.281763058326671
      ],
      [
        "▁Quả",
        -10.281955143350082
      ],
      [
        "▁ghép",
        -10.282572103379348
      ],
      [
        "▁túy",
        -10.28320427585712
      ],
      [
        "▁thể.",
        -10.284223576598164
      ],
      [
        "▁hâm",
        -10.284363385744001
      ],
      [
        "▁quét",
        -10.284770548261989
      ],
      [
        "▁Mộc",
        -10.285336816876582
      ],
      [
        "c)",
        -10.285622927370351
      ],
      [
        "▁>>",
        -10.285628796127105
      ],
      [
        "▁trừng",
        -10.285827883795195
      ],
      [
        "▁Cứ",
        -10.285970938946448
      ],
      [
        "▁sao?”",
        -10.286008606341728
      ],
      [
        "▁mây",
        -10.286593674888937
      ],
      [
        "▁Bế",
        -10.286966362477074
      ],
      [
        "▁thắt",
        -10.287022075379477
      ],
      [
        "▁ngu",
        -10.287520878992508
      ],
      [
        "▁cáp",
        -10.287935426898516
      ],
      [
        "▁hết.",
        -10.288321679383834
      ],
      [
        "▁bắc",
        -10.288606847500862
      ],
      [
        "▁Hầu",
        -10.28882556727536
      ],
      [
        "▁Bao",
        -10.289365404149189
      ],
      [
        "ĂNG",
        -10.289928694140801
      ],
      [
        "▁TRONG",
        -10.290183998889098
      ],
      [
        "▁Nhờ",
        -10.290997756475694
      ],
      [
        "▁cãi",
        -10.29134201367595
      ],
      [
        "▁hiền",
        -10.29163924257651
      ],
      [
        "▁tình,",
        -10.291898472016012
      ],
      [
        "▁lồ",
        -10.292013898482733
      ],
      [
        "▁Ly",
        -10.292997603362952
      ],
      [
        "▁Khác",
        -10.294257405841087
      ],
      [
        "▁khéo",
        -10.294259685707178
      ],
      [
        "▁nồng",
        -10.294262786182713
      ],
      [
        "▁Đinh",
        -10.294377240590343
      ],
      [
        "▁Lên",
        -10.295705935936592
      ],
      [
        "▁Chuẩn",
        -10.296845201566054
      ],
      [
        "▁Áo",
        -10.296970022266123
      ],
      [
        "▁đồn",
        -10.297906049093456
      ],
      [
        "▁nhầm",
        -10.298360236515832
      ],
      [
        "Y",
        -10.299186657904096
      ],
      [
        "▁sau.",
        -10.299575952048434
      ],
      [
        "▁Loan",
        -10.29970594440158
      ],
      [
        "▁THÀNH",
        -10.299722668574994
      ],
      [
        "▁Quên",
        -10.300026299800251
      ],
      [
        "▁So",
        -10.301952940431734
      ],
      [
        "▁đời.",
        -10.302985187899171
      ],
      [
        "▁Cường",
        -10.303950182224657
      ],
      [
        "▁giản,",
        -10.30399494449195
      ],
      [
        "▁quả,",
        -10.30498808077019
      ],
      [
        "▁QUAN",
        -10.305127009849912
      ],
      [
        "▁Khai",
        -10.305849135226156
      ],
      [
        "▁SỰ",
        -10.306052761393452
      ],
      [
        "▁chốt",
        -10.306409684178309
      ],
      [
        "▁sẹo",
        -10.306488335829648
      ],
      [
        "▁xoa",
        -10.30649864454527
      ],
      [
        "▁bom",
        -10.307431771007986
      ],
      [
        "▁ngựa",
        -10.307631111835928
      ],
      [
        "▁thô",
        -10.307748347910062
      ],
      [
        "▁cát",
        -10.30797657157001
      ],
      [
        "▁gánh",
        -10.307995815397994
      ],
      [
        "▁Quá",
        -10.308353192443075
      ],
      [
        "▁dân.",
        -10.308482973455776
      ],
      [
        "▁bôi",
        -10.30884858380673
      ],
      [
        "▁nhị",
        -10.309525294526999
      ],
      [
        "▁nạp",
        -10.31101317191451
      ],
      [
        "▁Gần",
        -10.31206170514378
      ],
      [
        "▁3:",
        -10.31400893182688
      ],
      [
        "▁Thất",
        -10.314109812623972
      ],
      [
        "▁trân",
        -10.314917083191492
      ],
      [
        "▁Cà",
        -10.314941851733773
      ],
      [
        "▁“Anh",
        -10.315077835584631
      ],
      [
        "▁Ngôn",
        -10.31511652493835
      ],
      [
        "▁lạnh,",
        -10.315923166464367
      ],
      [
        "▁giọt",
        -10.316279242668536
      ],
      [
        "▁đụng",
        -10.31630216672925
      ],
      [
        "▁Đảng,",
        -10.317062505612062
      ],
      [
        "▁tôm",
        -10.317300415943901
      ],
      [
        "▁NHÀ",
        -10.317309366917405
      ],
      [
        "▁cưỡng",
        -10.317327895954138
      ],
      [
        "▁cười.",
        -10.317868724842008
      ],
      [
        "▁Nguồn",
        -10.318381726320673
      ],
      [
        "▁tang",
        -10.319900255406981
      ],
      [
        "▁Samsung",
        -10.320303890647892
      ],
      [
        "▁lê",
        -10.321804726525476
      ],
      [
        "▁bơm",
        -10.324110055647068
      ],
      [
        "▁sinh.",
        -10.325268316759129
      ],
      [
        "▁Bàn",
        -10.325910253536886
      ],
      [
        "▁Dụng",
        -10.326099066302405
      ],
      [
        "▁gõ",
        -10.327477021115982
      ],
      [
        "▁Trở",
        -10.327490426101383
      ],
      [
        "▁ngoan",
        -10.328048847765356
      ],
      [
        "▁the",
        -10.328145014546854
      ],
      [
        "▁Anh,",
        -10.328596530352485
      ],
      [
        "▁xế",
        -10.328643550642855
      ],
      [
        "▁cúng",
        -10.32908845484831
      ],
      [
        "▁thưa",
        -10.330142390462964
      ],
      [
        "▁thoảng",
        -10.330448499378285
      ],
      [
        "▁Khóa",
        -10.333089779383975
      ],
      [
        "▁vạch",
        -10.333843824710055
      ],
      [
        "▁việc.",
        -10.33415860706906
      ],
      [
        "▁Hoài",
        -10.334307635998623
      ],
      [
        "▁BÀI",
        -10.334566472390518
      ],
      [
        "▁Re",
        -10.334676018494545
      ],
      [
        "▁nén",
        -10.334751888341149
      ],
      [
        "▁hắn.",
        -10.335459249028057
      ],
      [
        "▁Tông",
        -10.335622803000097
      ],
      [
        "▁xả",
        -10.336658307976462
      ],
      [
        "▁\"Ngươi",
        -10.339200203012247
      ],
      [
        "▁vân",
        -10.339276055717704
      ],
      [
        "▁Màn",
        -10.339637810414544
      ],
      [
        "▁Tùy",
        -10.339840298478066
      ],
      [
        "▁Tạp",
        -10.341184539998867
      ],
      [
        "▁soi",
        -10.34136313830225
      ],
      [
        "▁8.",
        -10.34147718803797
      ],
      [
        "▁gối",
        -10.341547336641622
      ],
      [
        "▁khói",
        -10.34171146626873
      ],
      [
        "▁dừa",
        -10.342421431627823
      ],
      [
        "U",
        -10.343050983805373
      ],
      [
        "▁tráng",
        -10.343458657497017
      ],
      [
        "▁thoại,",
        -10.34436635186282
      ],
      [
        "âu",
        -10.345058150960973
      ],
      [
        "▁Đế",
        -10.346015601729174
      ],
      [
        "▁leo",
        -10.346023491728626
      ],
      [
        "▁Chánh",
        -10.34638072862619
      ],
      [
        "▁F",
        -10.347190012719283
      ],
      [
        "▁tiệm",
        -10.348815670635243
      ],
      [
        "▁Hằng",
        -10.349808587095884
      ],
      [
        "▁muội",
        -10.350044527125851
      ],
      [
        "▁Quốc.",
        -10.35006691233926
      ],
      [
        "▁7,",
        -10.350145947251892
      ],
      [
        "▁thiền",
        -10.3508063549511
      ],
      [
        "▁Khởi",
        -10.352418513318613
      ],
      [
        "▁Mở",
        -10.352445206035831
      ],
      [
        "▁Blog",
        -10.352635969302884
      ],
      [
        "▁bì",
        -10.353626977204282
      ],
      [
        "▁Chiều",
        -10.35468784744064
      ],
      [
        "▁2019",
        -10.355744039974837
      ],
      [
        "ầm",
        -10.35596360678376
      ],
      [
        "▁=",
        -10.3563492620308
      ],
      [
        "▁xa,",
        -10.356898833788991
      ],
      [
        "▁LUẬT",
        -10.35747824301239
      ],
      [
        "▁Minh,",
        -10.357725655122033
      ],
      [
        "▁ngầm",
        -10.358158273493842
      ],
      [
        "▁Cây",
        -10.359468813551807
      ],
      [
        "▁Mạnh",
        -10.360443614228739
      ],
      [
        "O",
        -10.362873866682737
      ],
      [
        "▁mạnh.",
        -10.362955783146692
      ],
      [
        "▁Android",
        -10.36303443727161
      ],
      [
        "▁Nhóm",
        -10.36312315311745
      ],
      [
        "▁châm",
        -10.364780344496452
      ],
      [
        "▁Trà",
        -10.365645508045827
      ],
      [
        "▁link",
        -10.365809519629437
      ],
      [
        "▁Phẩm",
        -10.36623557258924
      ],
      [
        "▁lăn",
        -10.366714824296631
      ],
      [
        "á",
        -10.367209701425994
      ],
      [
        "▁thương,",
        -10.367534654188473
      ],
      [
        "▁lây",
        -10.367696821726373
      ],
      [
        "▁họ,",
        -10.367880371689502
      ],
      [
        "▁cắm",
        -10.369152093714456
      ],
      [
        "▁dục,",
        -10.370348889437466
      ],
      [
        "▁lấp",
        -10.370658264603584
      ],
      [
        "▁thổi",
        -10.371880882275955
      ],
      [
        "▁Món",
        -10.373733663189121
      ],
      [
        "▁kề",
        -10.373831864776609
      ],
      [
        "▁bia",
        -10.37425907456841
      ],
      [
        "▁đời,",
        -10.374427952244734
      ],
      [
        "▁đáy",
        -10.374591927476354
      ],
      [
        "▁Khang",
        -10.375633101218856
      ],
      [
        "▁Tuổi",
        -10.377720950183368
      ],
      [
        "▁khoá",
        -10.379440522131123
      ],
      [
        "▁xuống.",
        -10.379717255016256
      ],
      [
        "▁cai",
        -10.381164235205876
      ],
      [
        "▁TR",
        -10.382003020188868
      ],
      [
        "▁vả",
        -10.382813890483494
      ],
      [
        "▁nhanh,",
        -10.383152854426507
      ],
      [
        "▁tần",
        -10.383652047251541
      ],
      [
        "▁03",
        -10.38396048020211
      ],
      [
        "▁Sĩ",
        -10.383987345174743
      ],
      [
        "▁minh,",
        -10.385477303042169
      ],
      [
        "▁thỉnh",
        -10.386189966872623
      ],
      [
        "9",
        -10.386248615645185
      ],
      [
        "▁cấp.",
        -10.386458047785286
      ],
      [
        "▁Chịu",
        -10.386504751813014
      ],
      [
        "▁nó,",
        -10.386659691623638
      ],
      [
        "▁Màu",
        -10.387268306605215
      ],
      [
        "▁sờ",
        -10.387317199485942
      ],
      [
        "▁nghiệm,",
        -10.388989690541205
      ],
      [
        "▁Thăng",
        -10.38903794439869
      ],
      [
        "▁sao?\"",
        -10.389176539689421
      ],
      [
        ");",
        -10.390819739140674
      ],
      [
        "▁dì",
        -10.390882318659585
      ],
      [
        "▁KINH",
        -10.391412490372108
      ],
      [
        "▁Tùng",
        -10.39145242887097
      ],
      [
        "▁Q.",
        -10.391887525599609
      ],
      [
        "▁Tốt",
        -10.391997793936097
      ],
      [
        "▁TT",
        -10.393363986233233
      ],
      [
        "▁dại",
        -10.393837054664505
      ],
      [
        "▁sĩ,",
        -10.394496538445804
      ],
      [
        "▁cong",
        -10.395411342155231
      ],
      [
        "▁TẾ",
        -10.395846328086645
      ],
      [
        "▁hét",
        -10.395953735268204
      ],
      [
        "▁quá,",
        -10.396494657284347
      ],
      [
        "ê",
        -10.397465679795125
      ],
      [
        "▁BẢN",
        -10.398870678769066
      ],
      [
        "▁trạm",
        -10.399792101958795
      ],
      [
        "▁Thấy",
        -10.399881401148948
      ],
      [
        "▁lỡ",
        -10.399897950981654
      ],
      [
        "▁lưỡi",
        -10.400236809424193
      ],
      [
        "ồn",
        -10.40057761785739
      ],
      [
        "▁Thiệu",
        -10.403518276651866
      ],
      [
        "▁rèn",
        -10.405097485225618
      ],
      [
        "▁Tiết",
        -10.405156935137807
      ],
      [
        "▁smartphone",
        -10.405563550997554
      ],
      [
        "▁khứ",
        -10.405649826417278
      ],
      [
        "▁mặt.",
        -10.406134430873411
      ],
      [
        "▁DÂN",
        -10.406541544894182
      ],
      [
        "▁thức,",
        -10.407246457821433
      ],
      [
        "▁Tỷ",
        -10.407845551703414
      ],
      [
        "Sẽ",
        -10.408354045336383
      ],
      [
        "▁rồi?",
        -10.408835132343183
      ],
      [
        "▁HỆ",
        -10.409577522161065
      ],
      [
        "▁khí,",
        -10.409710168777117
      ],
      [
        "▁Tuần",
        -10.41009566250737
      ],
      [
        "▁Giúp",
        -10.411133190479745
      ],
      [
        "▁Húc",
        -10.41122308345819
      ],
      [
        "▁CH",
        -10.411374122360398
      ],
      [
        "▁doanh,",
        -10.4124859934184
      ],
      [
        "▁Bé",
        -10.412864099979082
      ],
      [
        "▁Chiếc",
        -10.413006038298924
      ],
      [
        "▁Tú",
        -10.413907421132375
      ],
      [
        "▁chuộng",
        -10.413950033980363
      ],
      [
        "ao",
        -10.414229896040366
      ],
      [
        "▁Niên",
        -10.41434034110922
      ],
      [
        "▁Khoáng",
        -10.414628119532217
      ],
      [
        "▁Galaxy",
        -10.414735286724142
      ],
      [
        "▁hiếu",
        -10.414751374912015
      ],
      [
        "▁mến",
        -10.416522305390327
      ],
      [
        "▁khống",
        -10.416562098039574
      ],
      [
        "▁liệu,",
        -10.417112392692118
      ],
      [
        "▁khăn,",
        -10.417655356515496
      ],
      [
        "V",
        -10.417666272509326
      ],
      [
        "▁khoẻ",
        -10.417827074287873
      ],
      [
        "▁lung",
        -10.418968408938596
      ],
      [
        "ưng",
        -10.419803655209373
      ],
      [
        "▁hết,",
        -10.419966230960894
      ],
      [
        "▁Kiếm",
        -10.420881645429226
      ],
      [
        "▁nhăn",
        -10.422574868918854
      ],
      [
        "▁rồi!",
        -10.422854151246966
      ],
      [
        "▁80",
        -10.423487392439888
      ],
      [
        "▁hao",
        -10.424749359446789
      ],
      [
        "▁TÀI",
        -10.424987611072371
      ],
      [
        "▁đệm",
        -10.425499598359334
      ],
      [
        "▁35",
        -10.425971888361666
      ],
      [
        "▁90",
        -10.426711014375833
      ],
      [
        "▁CHỦ",
        -10.426956398528684
      ],
      [
        "▁Đô",
        -10.427050826156385
      ],
      [
        "a.",
        -10.427323105444483
      ],
      [
        "▁Khoản",
        -10.42735955448758
      ],
      [
        "▁huyền",
        -10.429378048034996
      ],
      [
        "▁nghĩ,",
        -10.430015956811571
      ],
      [
        "▁KHÔNG",
        -10.430266602924963
      ],
      [
        "▁da.",
        -10.430506490164062
      ],
      [
        "▁chuyền",
        -10.430549818803119
      ],
      [
        "▁Trúc",
        -10.432210418081343
      ],
      [
        "▁cởi",
        -10.432759720969973
      ],
      [
        "▁ngây",
        -10.432764622496983
      ],
      [
        "6)",
        -10.432864826004526
      ],
      [
        "▁internet",
        -10.433023116126506
      ],
      [
        "▁Thôi",
        -10.433492892911627
      ],
      [
        "▁Ty",
        -10.434163177172067
      ],
      [
        "▁lời,",
        -10.434314410369254
      ],
      [
        "▁click",
        -10.435366933958454
      ],
      [
        "▁chết.",
        -10.436589456315673
      ],
      [
        "▁giờ.",
        -10.4370938936544
      ],
      [
        "▁Ha",
        -10.43870630961078
      ],
      [
        "▁trời,",
        -10.43943416832665
      ],
      [
        "▁vắng",
        -10.439549453738593
      ],
      [
        "▁rũ",
        -10.439557499870102
      ],
      [
        "▁năng,",
        -10.440722767889834
      ],
      [
        "▁tháp",
        -10.44153168969346
      ],
      [
        "▁hiệp,",
        -10.44456992038417
      ],
      [
        "▁nháy",
        -10.445440539241794
      ],
      [
        "▁tọa",
        -10.44693177021826
      ],
      [
        "▁qui",
        -10.446941186696073
      ],
      [
        "▁Trụ",
        -10.447138238107625
      ],
      [
        "▁tụng",
        -10.448423360212214
      ],
      [
        "▁móng",
        -10.449470625260973
      ],
      [
        "▁Web",
        -10.450166800577007
      ],
      [
        "▁Bố",
        -10.450404225405068
      ],
      [
        "▁pháo",
        -10.450727150168321
      ],
      [
        "▁BÁO",
        -10.451711632355899
      ],
      [
        "▁Xác",
        -10.451772248325504
      ],
      [
        "▁Miễn",
        -10.45227662348573
      ],
      [
        "▁vật,",
        -10.452557781254821
      ],
      [
        "▁rụng",
        -10.452724797214916
      ],
      [
        "▁bực",
        -10.453346124425561
      ],
      [
        "▁triết",
        -10.454130196957667
      ],
      [
        "▁Mạng",
        -10.454717141749065
      ],
      [
        "▁ngâm",
        -10.454896168127036
      ],
      [
        "▁khoan",
        -10.457983900784736
      ],
      [
        "▁Doãn",
        -10.458348153092132
      ],
      [
        "▁Đẹp",
        -10.459911459061043
      ],
      [
        "êm",
        -10.460359959903503
      ],
      [
        "▁Phục",
        -10.4610262260357
      ],
      [
        "▁liếc",
        -10.461311025889124
      ],
      [
        "▁mổ",
        -10.461731310504717
      ],
      [
        "▁khoái",
        -10.462603330014971
      ],
      [
        "▁cước",
        -10.462921994161714
      ],
      [
        "▁O",
        -10.463931258965147
      ],
      [
        "▁ho",
        -10.464192658145528
      ],
      [
        "▁vất",
        -10.464547964744963
      ],
      [
        "▁tiêm",
        -10.464558712228895
      ],
      [
        "▁Nghi",
        -10.46706114329028
      ],
      [
        "▁DỊCH",
        -10.467774824833786
      ],
      [
        "▁chanh",
        -10.467916351696624
      ],
      [
        "▁Đống",
        -10.46813589445521
      ],
      [
        "▁Mi",
        -10.468305260080626
      ],
      [
        "▁đỗ",
        -10.468648259669415
      ],
      [
        "▁Canada",
        -10.468652785290075
      ],
      [
        "▁nàng.",
        -10.468914660150034
      ],
      [
        "▁Viễn",
        -10.470092177816657
      ],
      [
        "▁lật",
        -10.47038856899238
      ],
      [
        "▁Thắng",
        -10.47045110383231
      ],
      [
        "▁May",
        -10.470749306866962
      ],
      [
        "▁mẹ,",
        -10.471358036457032
      ],
      [
        "▁31",
        -10.471940615739722
      ],
      [
        "▁Ngữ",
        -10.472018328369067
      ],
      [
        "▁rào",
        -10.47286952228825
      ],
      [
        "▁Uỷ",
        -10.47326779242833
      ],
      [
        "▁Tướng",
        -10.473735692645239
      ],
      [
        "▁VẤN",
        -10.47426999706173
      ],
      [
        "▁Bắt",
        -10.474859778029632
      ],
      [
        "▁nghiêng",
        -10.47503494303041
      ],
      [
        "▁24h",
        -10.475912793677065
      ],
      [
        "▁bấy",
        -10.475977875402632
      ],
      [
        "▁bốc",
        -10.476081892032727
      ],
      [
        "▁vuốt",
        -10.476583337636653
      ],
      [
        "▁Tp.",
        -10.476761153667084
      ],
      [
        "▁thân.",
        -10.477362861943835
      ],
      [
        "▁tâm.",
        -10.477441052908093
      ],
      [
        "▁Vệ",
        -10.477574957199199
      ],
      [
        "▁Vâng,",
        -10.477965986588355
      ],
      [
        "▁trăng",
        -10.478147678625806
      ],
      [
        "▁con.",
        -10.478157690688676
      ],
      [
        "▁05",
        -10.478209608945182
      ],
      [
        "▁họng",
        -10.478882926519601
      ],
      [
        "▁ơi,",
        -10.479008883808474
      ],
      [
        "▁ĐỊNH",
        -10.479166622584271
      ],
      [
        "▁bẩn",
        -10.479451096790273
      ],
      [
        "▁phẩm.",
        -10.480910044804833
      ],
      [
        "▁Đạt",
        -10.48145237768335
      ],
      [
        "▁nãy",
        -10.481620945480653
      ],
      [
        "▁lần,",
        -10.481850967115783
      ],
      [
        "▁chay",
        -10.483237872321359
      ],
      [
        "▁ngươi,",
        -10.483884714037368
      ],
      [
        "▁lồng",
        -10.48452736196708
      ],
      [
        "▁Ra",
        -10.48533032052776
      ],
      [
        "▁ràng,",
        -10.485765894470562
      ],
      [
        "▁[...]",
        -10.485814866692632
      ],
      [
        "▁nhan",
        -10.485867155487206
      ],
      [
        "▁rộn",
        -10.486519449374919
      ],
      [
        "en",
        -10.486963761921885
      ],
      [
        "▁Phiên",
        -10.487181746076587
      ],
      [
        "▁bùng",
        -10.48729007027824
      ],
      [
        "ed",
        -10.487557309289286
      ],
      [
        "▁đi!",
        -10.487568688510795
      ],
      [
        "▁Siêu",
        -10.488386978348327
      ],
      [
        "▁Mời",
        -10.488495444850809
      ],
      [
        "▁Huỳnh",
        -10.489329484724088
      ],
      [
        "▁đẻ",
        -10.48967533166342
      ],
      [
        "▁NGƯỜI",
        -10.489818562267502
      ],
      [
        "▁Biểu",
        -10.490856158431725
      ],
      [
        "▁top",
        -10.49115279190944
      ],
      [
        "▁xóm",
        -10.491303412352018
      ],
      [
        "▁Khuyến",
        -10.491792186506434
      ],
      [
        "▁dàn",
        -10.491919738634877
      ],
      [
        "▁Tigre",
        -10.492078851623464
      ],
      [
        "▁lặp",
        -10.492357248462845
      ],
      [
        "▁Phí",
        -10.492363103199732
      ],
      [
        "▁gian.",
        -10.492561369261477
      ],
      [
        "▁mỏng",
        -10.492942692120799
      ],
      [
        "▁cửa,",
        -10.494043259308489
      ],
      [
        "▁chẽ",
        -10.496105194333023
      ],
      [
        "▁đớn",
        -10.49699734726339
      ],
      [
        "▁mại,",
        -10.497044244933969
      ],
      [
        "▁chưa?",
        -10.497553317166812
      ],
      [
        "▁mỏ",
        -10.498374446201485
      ],
      [
        "▁Nhạc",
        -10.498633774705326
      ],
      [
        "▁mảng",
        -10.499067176859077
      ],
      [
        "▁ngốc",
        -10.49910662129409
      ],
      [
        "▁san",
        -10.499815459439525
      ],
      [
        "▁Trinh",
        -10.499990397711557
      ],
      [
        "▁côn",
        -10.501091146106674
      ],
      [
        "▁lúa",
        -10.50170451020831
      ],
      [
        "▁cứu,",
        -10.501951704486284
      ],
      [
        "▁Tương",
        -10.502717780477944
      ],
      [
        "▁khỏe,",
        -10.50385416343077
      ],
      [
        "▁biển,",
        -10.504136460851635
      ],
      [
        "▁ngợi",
        -10.504207158849708
      ],
      [
        "▁ĐẠI",
        -10.50433409353429
      ],
      [
        "▁lọt",
        -10.504354818417392
      ],
      [
        "▁đất.",
        -10.504512800016691
      ],
      [
        "▁Mấ",
        -10.504970264286051
      ],
      [
        "▁oxy",
        -10.505235891044894
      ],
      [
        "▁lường",
        -10.505367068974408
      ],
      [
        "▁Kích",
        -10.505394017715687
      ],
      [
        "▁bến",
        -10.506365534382477
      ],
      [
        "▁THIẾT",
        -10.50740874739962
      ],
      [
        "▁cùng,",
        -10.507498001634326
      ],
      [
        "▁(nếu",
        -10.50755075407666
      ],
      [
        "▁bội",
        -10.507633214590477
      ],
      [
        "▁hợp.",
        -10.507794416627782
      ],
      [
        "▁tóm",
        -10.508056057092604
      ],
      [
        "▁ASEAN",
        -10.508083219758365
      ],
      [
        "▁Trịnh",
        -10.508220098938581
      ],
      [
        "▁lầu",
        -10.5084188636448
      ],
      [
        "▁5,",
        -10.50887223189827
      ],
      [
        "▁HLV",
        -10.509098525799569
      ],
      [
        "▁hang",
        -10.509107420738632
      ],
      [
        "▁Thập",
        -10.509654728600854
      ],
      [
        "▁vươn",
        -10.510509974207196
      ],
      [
        "▁LÝ",
        -10.512483237586416
      ],
      [
        "▁\"Tôi",
        -10.512488767788948
      ],
      [
        "▁rà",
        -10.512949298420274
      ],
      [
        "▁luật.",
        -10.513429317413912
      ],
      [
        "▁mông",
        -10.513728368064942
      ],
      [
        "▁đính",
        -10.514176555289614
      ],
      [
        "▁bản,",
        -10.516166983721416
      ],
      [
        "▁ăn.",
        -10.516794998127839
      ],
      [
        "▁ven",
        -10.517018860621807
      ],
      [
        "▁SINH",
        -10.517583563935524
      ],
      [
        "▁NĂM",
        -10.518534695688945
      ],
      [
        "▁nghiền",
        -10.51930327712638
      ],
      [
        "▁tạ",
        -10.520433386197102
      ],
      [
        "▁Đổi",
        -10.520463039661056
      ],
      [
        "®",
        -10.52097239008988
      ],
      [
        "▁sụp",
        -10.520986523939134
      ],
      [
        "▁xạ",
        -10.521626055977094
      ],
      [
        "Chương",
        -10.521955932403092
      ],
      [
        "▁lỏng",
        -10.522055969193662
      ],
      [
        "▁lót",
        -10.522769712121626
      ],
      [
        "▁bắp",
        -10.5231334779406
      ],
      [
        "▁Vietnam",
        -10.523312518603772
      ],
      [
        "▁lưỡng",
        -10.523671544163971
      ],
      [
        "▁sát,",
        -10.524236600701707
      ],
      [
        "▁lộn",
        -10.524390821668838
      ],
      [
        "▁niêm",
        -10.524400478619864
      ],
      [
        "▁blog",
        -10.524934624237527
      ],
      [
        "▁Hộ",
        -10.525387689029913
      ],
      [
[...]
