{
  "version": "1.0",
  "truncation": null,
  "padding": null,
  "added_tokens": [
    {
      "id": 0,
      "content": "[UNK]",
      "single_word": false,
      "lstrip": false,
      "rstrip": false,
      "normalized": false,
      "special": true
    },
    {
      "id": 1,
      "content": "[CLS]",
      "single_word": false,
      "lstrip": false,
      "rstrip": false,
      "normalized": false,
      "special": true
    },
    {
      "id": 2,
      "content": "[SEP]",
      "single_word": false,
      "lstrip": false,
      "rstrip": false,
      "normalized": false,
      "special": true
    },
    {
      "id": 3,
      "content": "[PAD]",
      "single_word": false,
      "lstrip": false,
      "rstrip": false,
      "normalized": false,
      "special": true
    },
    {
      "id": 4,
      "content": "[MASK]",
      "single_word": false,
      "lstrip": false,
      "rstrip": false,
      "normalized": false,
      "special": true
    }
  ],
  "normalizer": {
    "type": "Sequence",
    "normalizers": [
      {
        "type": "Nmt"
      },
      {
        "type": "NFKC"
      },
      {
        "type": "Replace",
        "pattern": {
          "Regex": " {2,}"
        },
        "content": " "
      }
    ]
  },
  "pre_tokenizer": {
    "type": "Metaspace",
    "replacement": "▁",
    "prepend_scheme": "always",
    "split": true
  },
  "post_processor": null,
  "decoder": {
    "type": "Metaspace",
    "replacement": "▁",
    "prepend_scheme": "always",
    "split": true
  },
  "model": {
    "type": "Unigram",
    "unk_id": null,
    "vocab": [
      [
        "[UNK]",
        0.0
      ],
      [
        "[CLS]",
        0.0
      ],
      [
        "[SEP]",
        0.0
      ],
      [
        "[PAD]",
        0.0
      ],
      [
        "[MASK]",
        0.0
      ],
      [
        "▁",
        -2.749758870313231
      ],
      [
        "▁de",
        -3.2581108685039624
      ],
      [
        ",",
        -3.5529731402372065
      ],
      [
        ".",
        -3.865084893637029
      ],
      [
        "▁la",
        -3.9994429044674504
      ],
      [
        "▁et",
        -4.151884058553412
      ],
      [
        "à",
        -4.199924676756188
      ],
      [
        "▁le",
        -4.213669658987001
      ],
      [
        "▁les",
        -4.396153976874004
      ],
      [
        "s",
        -4.482090866605054
      ],
      [
        "▁des",
        -4.569442554769092
      ],
      [
        "▁en",
        -4.639141673940237
      ],
      [
        "▁que",
        -4.681380061522496
      ],
      [
        "▁un",
        -4.761746763172738
      ],
      [
        "▁pour",
        -4.797839447938101
      ],
      [
        "▁du",
        -4.882219081987481
      ],
      [
        "▁pas",
        -4.896710527524126
      ],
      [
        "a",
        -5.051948612238398
      ],
      [
        "▁une",
        -5.062178273985253
      ],
      [
        "▁dans",
        -5.132262303489016
      ],
      [
        "▁qui",
        -5.161302357297346
      ],
      [
        "▁est",
        -5.175079740765506
      ],
      [
        "▁je",
        -5.235131291396396
      ],
      [
        "▁sur",
        -5.288509238481113
      ],
      [
        "▁ne",
        -5.333132294877895
      ],
      [
        "▁vous",
        -5.392915623839755
      ],
      [
        "▁ce",
        -5.407520772157101
      ],
      [
        "▁au",
        -5.455272377963901
      ],
      [
        "▁plus",
        -5.470131126193049
      ],
      [
        "e",
        -5.55262070199556
      ],
      [
        "▁par",
        -5.553971814416885
      ],
      [
        "...",
        -5.597044924440437
      ],
      [
        "▁:",
        -5.6493108030546395
      ],
      [
        "▁il",
        -5.689841693476479
      ],
      [
        "▁avec",
        -5.741481606581637
      ],
      [
        "▁se",
        -5.747032525697751
      ],
      [
        "▁ou",
        -5.800598844765382
      ],
      [
        "▁mais",
        -5.931440986240927
      ],
      [
        "▁sont",
        -5.964595230166394
      ],
      [
        "▁!",
        -5.995754346051315
      ],
      [
        "▁nous",
        -6.022615159493851
      ],
      [
        "▁tout",
        -6.0566841837455705
      ],
      [
        "▁Je",
        -6.061779218329928
      ],
      [
        "▁bien",
        -6.097343380675241
      ],
      [
        "▁?",
        -6.1152845098958775
      ],
      [
        "▁Le",
        -6.129174264923723
      ],
      [
        "on",
        -6.1436591221744585
      ],
      [
        "▁«",
        -6.202351802794681
      ],
      [
        "▁Il",
        -6.214172797448359
      ],
      [
        "▁son",
        -6.2216174032880645
      ],
      [
        "▁me",
        -6.221709004809981
      ],
      [
        "▁faire",
        -6.2562454736768505
      ],
      [
        "▁si",
        -6.258758587131608
      ],
      [
        "▁fait",
        -6.264190945039754
      ],
      [
        "▁La",
        -6.312030445218296
      ],
      [
        ")",
        -6.327677746429687
      ],
      [
        "▁cette",
        -6.3429704451631785
      ],
      [
        "▁aux",
        -6.37228815252104
      ],
      [
        "r",
        -6.379151955100662
      ],
      [
        "▁votre",
        -6.405922996930769
      ],
      [
        "▁comme",
        -6.406025286580249
      ],
      [
        "▁être",
        -6.447831371920399
      ],
      [
        "▁-",
        -6.448395827688557
      ],
      [
        "▁même",
        -6.457053938219824
      ],
      [
        "▁c'est",
        -6.466095798485462
      ],
      [
        "▁Les",
        -6.486038170884623
      ],
      [
        "▁y",
        -6.486499157417763
      ],
      [
        "▁tu",
        -6.506028194146953
      ],
      [
        "▁ça",
        -6.543334030257798
      ],
      [
        "▁très",
        -6.555785919873683
      ],
      [
        "t",
        -6.588862038354952
      ],
      [
        "▁sa",
        -6.591968136489536
      ],
      [
        "▁»",
        -6.611875711941867
      ],
      [
        "s,",
        -6.6163329518388725
      ],
      [
        "▁peut",
        -6.692966908312355
      ],
      [
        "▁mon",
        -6.709675995277738
      ],
      [
        "▁suis",
        -6.71232186879527
      ],
      [
        "▁été",
        -6.733133094285581
      ],
      [
        "▁leur",
        -6.7409344373759055
      ],
      [
        "▁ont",
        -6.75143544825475
      ],
      [
        "▁aussi",
        -6.760642832470067
      ],
      [
        "▁(",
        -6.78879350066453
      ],
      [
        "▁ses",
        -6.79008656206673
      ],
      [
        "▁elle",
        -6.803997780125165
      ],
      [
        "-",
        -6.804238681266877
      ],
      [
        "▁En",
        -6.814544811181573
      ],
      [
        "▁peu",
        -6.830018452458338
      ],
      [
        "▁tous",
        -6.840585790664379
      ],
      [
        "▁Et",
        -6.859966798100089
      ],
      [
        "s.",
        -6.870115040601652
      ],
      [
        "▁ces",
        -6.892207778572672
      ],
      [
        ":",
        -6.899671932546674
      ],
      [
        "▁sans",
        -6.908687086223493
      ],
      [
        "▁lui",
        -6.913324885813209
      ],
      [
        "nt",
        -6.9501676544382125
      ],
      [
        "▁Pour",
        -6.950282762555361
      ],
      [
        "!",
        -6.954815811560662
      ],
      [
        "▁c’est",
        -6.95753158473142
      ],
      [
        "es",
        -6.975024452044899
      ],
      [
        "▁deux",
        -7.021846488762355
      ],
      [
        "▁ma",
        -7.030700960957839
      ],
      [
        "▁Mais",
        -7.034317451234552
      ],
      [
        "▁temps",
        -7.039249920078067
      ],
      [
        "▁j'ai",
        -7.040101246362147
      ],
      [
        "▁donc",
        -7.079846819868159
      ],
      [
        "▁notre",
        -7.085623461916061
      ],
      [
        "▁encore",
        -7.091363754340877
      ],
      [
        "▁A",
        -7.094764310403592
      ],
      [
        "l",
        -7.102565618043071
      ],
      [
        "▁qu'il",
        -7.11482297333985
      ],
      [
        "?",
        -7.155193488945821
      ],
      [
        "▁d’un",
        -7.159141529605874
      ],
      [
        "▁Si",
        -7.18731610387939
      ],
      [
        "▁vos",
        -7.214882211042392
      ],
      [
        "▁d'un",
        -7.215621627336555
      ],
      [
        "▁\"",
        -7.222014285062713
      ],
      [
        "\"",
        -7.232976996602105
      ],
      [
        "▁moins",
        -7.241777684350515
      ],
      [
        "y",
        -7.24245489253328
      ],
      [
        "▁2",
        -7.2450757067050855
      ],
      [
        "u",
        -7.253342341816371
      ],
      [
        "▁avoir",
        -7.25971940822255
      ],
      [
        "▁où",
        -7.267213927970051
      ],
      [
        "▁entre",
        -7.267564534596072
      ],
      [
        "▁faut",
        -7.268287428127822
      ],
      [
        ").",
        -7.274541759542803
      ],
      [
        "▁quand",
        -7.28087527101324
      ],
      [
        "▁était",
        -7.287409730990534
      ],
      [
        "▁toujours",
        -7.288225550826299
      ],
      [
        "▁Vous",
        -7.291294645178484
      ],
      [
        "▁Ce",
        -7.295449266420976
      ],
      [
        "▁fois",
        -7.322287076467328
      ],
      [
        "▁soit",
        -7.3267709693398615
      ],
      [
        "▁d’une",
        -7.333439959428894
      ],
      [
        "▁te",
        -7.337327907416313
      ],
      [
        "▁avait",
        -7.340508997253959
      ],
      [
        "▁;",
        -7.347091348947902
      ],
      [
        "▁avant",
        -7.353283125351492
      ],
      [
        "▁cela",
        -7.356022420396988
      ],
      [
        "▁Un",
        -7.36259211355353
      ],
      [
        "▁Nous",
        -7.367301501359869
      ],
      [
        "▁car",
        -7.370003703783766
      ],
      [
        "▁va",
        -7.371820307234431
      ],
      [
        "▁qu’il",
        -7.382570789593666
      ],
      [
        "▁cas",
        -7.385609102861764
      ],
      [
        "n",
        -7.389316018997954
      ],
      [
        "▁nos",
        -7.397324496557275
      ],
      [
        "▁voir",
        -7.405374722970141
      ],
      [
        "▁beaucoup",
        -7.409812694181763
      ],
      [
        "▁l'",
        -7.416102314663247
      ],
      [
        "▁l’",
        -7.418931014759007
      ],
      [
        "▁d'une",
        -7.419478347005359
      ],
      [
        "▁non",
        -7.4203999931563125
      ],
      [
        "▁alors",
        -7.433308478005859
      ],
      [
        "▁quelques",
        -7.433669344950372
      ],
      [
        "z",
        -7.4369629472963314
      ],
      [
        "▁mes",
        -7.437488357461547
      ],
      [
        "d",
        -7.438090244959161
      ],
      [
        "▁trop",
        -7.452082290503245
      ],
      [
        "▁depuis",
        -7.453385991805169
      ],
      [
        "▁On",
        -7.453639550918966
      ],
      [
        "▁moi",
        -7.456496034699365
      ],
      [
        "▁C'est",
        -7.4698045791891605
      ],
      [
        "ant",
        -7.475026891649399
      ],
      [
        "é",
        -7.4755252041868765
      ],
      [
        "▁–",
        -7.477416714770792
      ],
      [
        "▁dire",
        -7.4809303073209925
      ],
      [
        "▁toute",
        -7.482261688178223
      ],
      [
        "▁3",
        -7.486546570147604
      ],
      [
        "▁dit",
        -7.489293389535437
      ],
      [
        "▁après",
        -7.495900961776989
      ],
      [
        "▁bon",
        -7.496293839536753
      ],
      [
        "▁Une",
        -7.4979173013631275
      ],
      [
        "▁sera",
        -7.502444027082799
      ],
      [
        "er",
        -7.506384579793119
      ],
      [
        "▁déjà",
        -7.510642723932495
      ],
      [
        "▁vie",
        -7.5223612600732235
      ],
      [
        "▁n'est",
        -7.529699314382897
      ],
      [
        "c",
        -7.5408197254842175
      ],
      [
        "▁rien",
        -7.551280233186636
      ],
      [
        "▁d'",
        -7.553563706048072
      ],
      [
        "▁Elle",
        -7.555105133335973
      ],
      [
        "▁C’est",
        -7.556314296168615
      ],
      [
        "▁toutes",
        -7.5572979861039435
      ],
      [
        "▁ils",
        -7.568362269098161
      ],
      [
        "▁dont",
        -7.571598695604498
      ],
      [
        "▁ainsi",
        -7.572453209727268
      ],
      [
        "▁monde",
        -7.591590906256744
      ],
      [
        "▁d’",
        -7.59170847678188
      ],
      [
        "▁vraiment",
        -7.599702280186561
      ],
      [
        "le",
        -7.602819959470381
      ],
      [
        "ait",
        -7.602979139792014
      ],
      [
        "▁leurs",
        -7.606201192169779
      ],
      [
        "▁n’est",
        -7.624391839218255
      ],
      [
        "▁petit",
        -7.630965438835094
      ],
      [
        "▁ans",
        -7.631173227692477
      ],
      [
        "▁contre",
        -7.637806309034493
      ],
      [
        "▁site",
        -7.66578849573987
      ],
      [
        "▁j’ai",
        -7.665866867604747
      ],
      [
        "▁doit",
        -7.673632308848227
      ],
      [
        "▁Dans",
        -7.675957176811844
      ],
      [
        "▁sous",
        -7.68166813487934
      ],
      [
        "ment",
        -7.684853472443445
      ],
      [
        "▁jamais",
        -7.686323435569221
      ],
      [
        "▁jour",
        -7.691740455755037
      ],
      [
        "▁autre",
        -7.707904850350529
      ],
      [
        "▁personnes",
        -7.716021943465975
      ],
      [
        "i",
        -7.726265732345006
      ],
      [
        "▁également",
        -7.75966740900939
      ],
      [
        "▁grand",
        -7.761487741718991
      ],
      [
        "▁ton",
        -7.7631218256675645
      ],
      [
        "▁eu",
        -7.7635696645237235
      ],
      [
        "▁cet",
        -7.765477448347113
      ],
      [
        "▁autres",
        -7.767177235460585
      ],
      [
        "/",
        -7.767623433870986
      ],
      [
        "o",
        -7.769207140244546
      ],
      [
        "▁bonne",
        -7.779584454646422
      ],
      [
        "▁fin",
        -7.779842496759294
      ],
      [
        "▁prendre",
        -7.783951547392032
      ],
      [
        "▁5",
        -7.785929027174351
      ],
      [
        "▁place",
        -7.786634818584471
      ],
      [
        "▁chez",
        -7.811448664246193
      ],
      [
        "▁compte",
        -7.8134394973921335
      ],
      [
        "),",
        -7.815293842390227
      ],
      [
        "▁De",
        -7.823723209522896
      ],
      [
        "▁vers",
        -7.825004245565314
      ],
      [
        "▁mettre",
        -7.830960239915523
      ],
      [
        "▁moment",
        -7.833915895530124
      ],
      [
        "▁sais",
        -7.8350394870062345
      ],
      [
        "▁1",
        -7.836145552992633
      ],
      [
        "▁4",
        -7.848778201341071
      ],
      [
        "▁chose",
        -7.84998875470035
      ],
      [
        "▁chaque",
        -7.854486058008289
      ],
      [
        "▁partie",
        -7.85537414476854
      ],
      [
        "▁travail",
        -7.861045944167747
      ],
      [
        "▁10",
        -7.871975167534437
      ],
      [
        "▁avez",
        -7.874620113092602
      ],
      [
        "▁savoir",
        -7.875808045656308
      ],
      [
        "▁pense",
        -7.883195867351738
      ],
      [
        "▁personne",
        -7.884106139728866
      ],
      [
        "▁mal",
        -7.884930721246755
      ],
      [
        "▁là",
        -7.898242707087141
      ],
      [
        "▁plusieurs",
        -7.899194701855269
      ],
      [
        "▁avons",
        -7.905163470094275
      ],
      [
        "▁mois",
        -7.906763341421426
      ],
      [
        "▁J'ai",
        -7.916672237223308
      ],
      [
        "▁peuvent",
        -7.918748521104247
      ],
      [
        "▁mieux",
        -7.925741936913575
      ],
      [
        "▁premier",
        -7.932366649284736
      ],
      [
        "▁juste",
        -7.935135892574333
      ],
      [
        "▁point",
        -7.941162141583039
      ],
      [
        "▁afin",
        -7.949258807316696
      ],
      [
        "▁Cette",
        -7.9530532065043165
      ],
      [
        "▁première",
        -7.9599955106077935
      ],
      [
        "▁vais",
        -7.961553880346882
      ],
      [
        "▁pouvez",
        -7.9627613838160745
      ],
      [
        "▁Tu",
        -7.967409604945756
      ],
      [
        "▁jours",
        -7.968365985844214
      ],
      [
        "▁reste",
        -7.9800147766292255
      ],
      [
        "▁droit",
        -7.9826428146399095
      ],
      [
        "▁vu",
        -7.987394057459085
      ],
      [
        "▁ceux",
        -7.994868363770012
      ],
      [
        "▁demande",
        -7.997272052113001
      ],
      [
        "▁pendant",
        -8.010612964672248
      ],
      [
        "▁pouvoir",
        -8.013229058809529
      ],
      [
        "▁cours",
        -8.032150398755538
      ],
      [
        ";",
        -8.032876203423594
      ],
      [
        "▁L'",
        -8.036036369360962
      ],
      [
        "▁question",
        -8.040012062035471
      ],
      [
        "re",
        -8.041008710225267
      ],
      [
        "▁Au",
        -8.042394830957544
      ],
      [
        "ne",
        -8.046543462914372
      ],
      [
        "▁trouve",
        -8.048325166420893
      ],
      [
        "▁parce",
        -8.048394285708559
      ],
      [
        "▁L’",
        -8.05085565483343
      ],
      [
        "▁besoin",
        -8.050938444501382
      ],
      [
        "▁quoi",
        -8.05233568511415
      ],
      [
        "m",
        -8.056013298920423
      ],
      [
        "ons",
        -8.06079458798606
      ],
      [
        "▁grande",
        -8.070215085064076
      ],
      [
        "▁lors",
        -8.071157320272373
      ],
      [
        "▁lieu",
        -8.071861459142752
      ],
      [
        "▁nouveau",
        -8.074339611745675
      ],
      [
        "▁peux",
        -8.07780810398546
      ],
      [
        "▁comment",
        -8.08262743029032
      ],
      [
        "▁Merci",
        -8.083550112024819
      ],
      [
        "▁nouvelle",
        -8.087655737733815
      ],
      [
        "▁part",
        -8.088521295988746
      ],
      [
        "▁puis",
        -8.100609005047918
      ],
      [
        "▁petite",
        -8.101094506547378
      ],
      [
        "p",
        -8.113259093723437
      ],
      [
        "▁6",
        -8.119928220156758
      ],
      [
        "▁ta",
        -8.131624779371288
      ],
      [
        "▁trouver",
        -8.136478579135206
      ],
      [
        "▁permet",
        -8.138325451443487
      ],
      [
        "▁quelque",
        -8.141715870827426
      ],
      [
        "x",
        -8.146245005650231
      ],
      [
        "▁souvent",
        -8.158880415621256
      ],
      [
        "▁passer",
        -8.16008697448021
      ],
      [
        "▁assez",
        -8.165852763818108
      ],
      [
        "en",
        -8.167684077981123
      ],
      [
        "▁produits",
        -8.171483121536625
      ],
      [
        "▁trois",
        -8.175842981646703
      ],
      [
        "▁serait",
        -8.178653446520158
      ],
      [
        "▁mise",
        -8.17878006715493
      ],
      [
        "▁pays",
        -8.179699810768453
      ],
      [
        "▁niveau",
        -8.180703138947326
      ],
      [
        "▁partir",
        -8.1823247932283
      ],
      [
        "▁tant",
        -8.193618610242588
      ],
      [
        "▁coup",
        -8.195182879155896
      ],
      [
        "▁projet",
        -8.196488229109603
      ],
      [
        "▁ici",
        -8.198119261067973
      ],
      [
        "la",
        -8.19891303470362
      ],
      [
        "▁qu'elle",
        -8.199646678040278
      ],
      [
        "▁surtout",
        -8.200298556037799
      ],
      [
        "▁pu",
        -8.201387215281022
      ],
      [
        "▁qu'on",
        -8.206172635709803
      ],
      [
        "▁possible",
        -8.206646154541865
      ],
      [
        "▁sommes",
        -8.2100370513912
      ],
      [
        "▁enfants",
        -8.210754121477501
      ],
      [
        "▁suite",
        -8.210850783768834
      ],
      [
        "ent",
        -8.212166591042589
      ],
      [
        "▁d",
        -8.212615996426072
      ],
      [
        "▁service",
        -8.225341769942288
      ],
      [
        "▁prix",
        -8.227222609454659
      ],
      [
        "de",
        -8.23138250145372
      ],
      [
        "▁nombre",
        -8.234063671316152
      ],
      [
        "▁as",
        -8.239995799457448
      ],
      [
        "▁certains",
        -8.25153181530955
      ],
      [
        "▁20",
        -8.254017696155442
      ],
      [
        "▁Par",
        -8.255958564837684
      ],
      [
        "▁»,",
        -8.258139774947347
      ],
      [
        "▁ni",
        -8.266472475225955
      ],
      [
        "▁gens",
        -8.280651407751858
      ],
      [
        "▁loi",
        -8.290887293400033
      ],
      [
        "▁peut-être",
        -8.29463233535281
      ],
      [
        "▁15",
        -8.299646397903626
      ],
      [
        "▁donner",
        -8.302390081468184
      ],
      [
        "▁Ils",
        -8.306233177467632
      ],
      [
        "▁selon",
        -8.308263205233631
      ],
      [
        "▁n'a",
        -8.308274455234576
      ],
      [
        "▁maintenant",
        -8.311900517144961
      ],
      [
        "▁toi",
        -8.321957095641672
      ],
      [
        "▁France",
        -8.337231096031287
      ],
      [
        "▁pourquoi",
        -8.344226267037001
      ],
      [
        "▁rapport",
        -8.347151419724483
      ],
      [
        "▁mis",
        -8.348611854878033
      ],
      [
        "▁J’ai",
        -8.350732783286304
      ],
      [
        "▁choses",
        -8.353291757021118
      ],
      [
        "▁seul",
        -8.355193603302796
      ],
      [
        "▁C",
        -8.355242086976123
      ],
      [
        "▁7",
        -8.355600119246889
      ],
      [
        "▁façon",
        -8.35622183409244
      ],
      [
        "▁passe",
        -8.359693476180922
      ],
      [
        "▁».",
        -8.367880328254692
      ],
      [
        "S",
        -8.371259800818397
      ],
      [
        "▁veux",
        -8.37695431703971
      ],
      [
        "il",
        -8.377499956669743
      ],
      [
        "▁Tout",
        -8.377802446462155
      ],
      [
        "▁services",
        -8.37837373115215
      ],
      [
        "▁années",
        -8.379811723789643
      ],
      [
        "▁celui",
        -8.381376497706405
      ],
      [
        "▁pris",
        -8.382817839133777
      ],
      [
        "ais",
        -8.384999556018826
      ],
      [
        "▁vrai",
        -8.385729909664771
      ],
      [
        "▁sens",
        -8.385977860784344
      ],
      [
        "▁fais",
        -8.393857425270099
      ],
      [
        "▁côté",
        -8.39430291353334
      ],
      [
        "▁plutôt",
        -8.402740459807404
      ],
      [
        "▁Des",
        -8.403428715250229
      ],
      [
        "▁n'ai",
        -8.406421577520884
      ],
      [
        "▁aller",
        -8.411410020513904
      ],
      [
        "▁ai",
        -8.41512455618273
      ],
      [
        "▁seulement",
        -8.415652092685264
      ],
      [
        "que",
        -8.416122469471071
      ],
      [
        "▁devant",
        -8.424019827060988
      ],
      [
        "ez",
        -8.427971182994714
      ],
      [
        "▁êtes",
        -8.429569963908454
      ],
      [
        "▁conditions",
        -8.430299740212398
      ],
      [
        "▁8",
        -8.432904032322302
      ],
      [
        "▁18",
        -8.434960809557756
      ],
      [
        "▁système",
        -8.43645183998509
      ],
      [
        "h",
        -8.43902389018373
      ],
      [
        "▁Comme",
        -8.440301865643072
      ],
      [
        "▁n’a",
        -8.4409460472776
      ],
      [
        "▁30",
        -8.441435903824182
      ],
      [
        "it",
        -8.44225762812893
      ],
      [
        "▁début",
        -8.448586681423297
      ],
      [
        "▁dis",
        -8.455525228944772
      ],
      [
        "▁dernier",
        -8.456910232394822
      ],
      [
        "▁manière",
        -8.457100326310075
      ],
      [
        "▁choix",
        -8.459585729158219
      ],
      [
        "▁nom",
        -8.461277850089992
      ],
      [
        "▁cadre",
        -8.461311044614945
      ],
      [
        "▁jeune",
        -8.464061813390412
      ],
      [
        "▁notamment",
        -8.46596669248357
      ],
      [
        "▁vue",
        -8.47313823186316
      ],
      [
        "▁font",
        -8.473556824908396
      ],
      [
        "▁Après",
        -8.473805584113629
      ],
      [
        "▁raison",
        -8.478844947190547
      ],
      [
        "▁qualité",
        -8.479808294879941
      ],
      [
        "▁merci",
        -8.480599392590168
      ],
      [
        "▁pourrait",
        -8.481709124802808
      ],
      [
        "▁seront",
        -8.482418458151791
      ],
      [
        "▁belle",
        -8.49164411766085
      ],
      [
        "▁semble",
        -8.498470887687208
      ],
      [
        "▁ligne",
        -8.499696421850244
      ],
      [
        "▁problème",
        -8.502874947692362
      ],
      [
        "▁n'y",
        -8.50395481836047
      ],
      [
        "▁%",
        -8.50601607597125
      ],
      [
        "▁crois",
        -8.51299372075417
      ],
      [
        "▁qu’elle",
        -8.517951839621679
      ],
      [
        "▁aucun",
        -8.52142414328328
      ],
      [
        "▁donne",
        -8.522312144293233
      ],
      [
        "▁données",
        -8.524290510792527
      ],
      [
        "▁12",
        -8.525030617663912
      ],
      [
        "▁maison",
        -8.525201140423436
      ],
      [
        "g",
        -8.526157987377536
      ],
      [
        "▁développement",
        -8.529627914836961
      ],
      [
        "▁veut",
        -8.530365260687484
      ],
      [
        "▁envie",
        -8.5309970780359
      ],
      [
        "▁groupe",
        -8.531756718669522
      ],
      [
        "▁près",
        -8.531810103784874
      ],
      [
        "▁Cela",
        -8.535462175139587
      ],
      [
        "▁d’autres",
        -8.537222359300458
      ],
      [
        "▁qu’on",
        -8.537992327953937
      ],
      [
        "▁seule",
        -8.538670419338604
      ],
      [
        "ou",
        -8.539221034312526
      ],
      [
        "▁recherche",
        -8.539581904882482
      ],
      [
        "▁ville",
        -8.548978718967048
      ],
      [
        "▁long",
        -8.550761114991676
      ],
      [
        "▁journée",
        -8.551190477995949
      ],
      [
        "ra",
        -8.55159860429728
      ],
      [
        "▁plaisir",
        -8.552186169285905
      ],
      [
        "▁d'autres",
        -8.55329482384103
      ],
      [
        "▁dès",
        -8.55421481194134
      ],
      [
        "▁S",
        -8.559259631685563
      ],
      [
        "▁semaine",
        -8.561462290233347
      ],
      [
        "aient",
        -8.56196910156126
      ],
      [
        "▁forme",
        -8.562081316727776
      ],
      [
        "▁Alors",
        -8.565548141658562
      ],
      [
        "▁celle",
        -8.567640512545912
      ],
      [
        "▁article",
        -8.567992215842164
      ],
      [
        "▁parler",
        -8.569675847604566
      ],
      [
        "▁situation",
        -8.570682826919693
      ],
      [
        "▁simple",
        -8.571682347323298
      ],
      [
        "▁tête",
        -8.573114803823742
      ],
      [
        "▁fonction",
        -8.579623898646151
      ],
      [
        "▁étaient",
        -8.580785544644058
      ],
      [
        "▁famille",
        -8.581788375600226
      ],
      [
        "▁membres",
        -8.582750408561358
      ],
      [
        "▁passé",
        -8.584817192773746
      ],
      [
        "▁sujet",
        -8.593664110878764
      ],
      [
        "▁aurait",
        -8.59614872193926
      ],
      [
        "▁elles",
        -8.596310657827019
      ],
      [
        "▁Comment",
        -8.604522594080656
      ],
      [
        "▁À",
        -8.607182322138865
      ],
      [
        "▁informations",
        -8.613499328329405
      ],
      [
        "▁M.",
        -8.619852751312491
      ],
      [
        "▁femme",
        -8.620061366957518
      ],
      [
        "▁genre",
        -8.624047480534577
      ],
      [
        "▁face",
        -8.624674533736364
      ],
      [
        "▁nombreux",
        -8.62550920851008
      ],
      [
        "▁formation",
        -8.633440136815665
      ],
      [
        "▁•",
        -8.635048628740616
      ],
      [
        "▁plein",
        -8.637288258575428
      ],
      [
        "▁sécurité",
        -8.639263668675726
      ],
      [
        "▁l’on",
        -8.642275773602586
      ],
      [
        "▁tes",
        -8.646544554198755
      ],
      [
        "▁1er",
        -8.647963069868988
      ],
      [
        "▁qu’ils",
        -8.649032293063586
      ],
      [
        "▁Ces",
        -8.657163938716705
      ],
      [
        "▁questions",
        -8.658697109241022
      ],
      [
        "▁dernière",
        -8.65972095824162
      ],
      [
        "▁santé",
        -8.66252208310977
      ],
      [
        "▁aura",
        -8.664151743104236
      ],
      [
        "▁doute",
        -8.664285389911901
      ],
      [
        "▁plan",
        -8.664338795124667
      ],
      [
        "▁année",
        -8.664498488617017
      ],
      [
        "▁titre",
        -8.666960124265838
      ],
      [
        "▁m'a",
        -8.667260592116705
      ],
      [
        "▁nouvelles",
        -8.667383417544551
      ],
      [
        "▁société",
        -8.668108938437037
      ],
      [
        "▁lorsque",
        -8.670210820275472
      ],
      [
        "▁qu'ils",
        -8.674033594519994
      ],
      [
        "▁cause",
        -8.674575989598619
      ],
      [
        "▁jeu",
        -8.674685292791219
      ],
      [
        "▁d'être",
        -8.674821002636676
      ],
      [
        "▁autant",
        -8.676276122459617
      ],
      [
        "▁9",
        -8.676379842402932
      ],
      [
        "▁grâce",
        -8.678001930231913
      ],
      [
        "▁livre",
        -8.678644432373162
      ],
      [
        "▁base",
        -8.67915371078622
      ],
      [
        "▁politique",
        -8.680506118574804
      ],
      [
        "▁autour",
        -8.68083856370356
      ],
      [
        "▁lire",
        -8.683029178570697
      ],
      [
        "▁loin",
        -8.688309988298977
      ],
      [
        "▁date",
        -8.690731333343768
      ],
      [
        "▁doivent",
        -8.691047488559805
      ],
      [
        "▁photos",
        -8.691961738272678
      ],
      [
        "▁heures",
        -8.692537031089657
      ],
      [
        "ur",
        -8.693782133141056
      ],
      [
        "▁petits",
        -8.693854170511546
      ],
      [
        "▁produit",
        -8.694916920190423
      ],
      [
        "▁quel",
        -8.696963000617139
      ],
      [
        "▁mesure",
        -8.698456988336272
      ],
      [
        "▁lien",
        -8.699629506275443
      ],
      [
        "▁risque",
        -8.700024763233866
      ],
      [
        "▁janvier",
        -8.701138968236997
      ],
      [
        "me",
        -8.703097489590775
      ],
      [
        "'",
        -8.706039441991205
      ],
      [
        "▁l",
        -8.710835469475022
      ],
      [
        "▁d’être",
        -8.718430684025769
      ],
      [
        "▁découvrir",
        -8.720300925807322
      ],
      [
        "▁type",
        -8.720556093738129
      ],
      [
        "▁“",
        -8.721346553233998
      ],
      [
        "et",
        -8.722594765321364
      ],
      [
        "▁Que",
        -8.72289220724487
      ],
      [
        "▁aucune",
        -8.723752025041428
      ],
      [
        "▁prise",
        -8.72591722729068
      ],
      [
        "▁présent",
        -8.727782997715725
      ],
      [
        "▁14",
        -8.72865053219175
      ],
      [
        "ce",
        -8.729471522450266
      ],
      [
        "▁propose",
        -8.729494436141945
      ],
      [
        "▁n’y",
        -8.73380555520054
      ],
      [
        "▁minutes",
        -8.736097209214732
      ],
      [
        "\",",
        -8.739176405587601
      ],
      [
        "▁11",
        -8.73966149139202
      ],
      [
        "▁mars",
        -8.739723093519295
      ],
      [
        "▁vois",
        -8.741492310090923
      ],
      [
        "▁corps",
        -8.742217232973836
      ],
      [
        "▁000",
        -8.742265639434216
      ],
      [
        "▁main",
        -8.742267654223497
      ],
      [
        "▁porte",
        -8.744036173206784
      ],
      [
        "▁laisser",
        -8.744936381062736
      ],
      [
        "▁l'on",
        -8.745870829282126
      ],
      [
        "▁page",
        -8.745876649547512
      ],
      [
        "▁yeux",
        -8.748589428164056
      ],
      [
        "f",
        -8.75173020013073
      ],
      [
        "▁réponse",
        -8.753667343697497
      ],
      [
        "▁Avec",
        -8.757281893042567
      ],
      [
        "▁simplement",
        -8.759324738635263
      ],
      [
        "▁c'était",
        -8.762843328381077
      ],
      [
        "▁ans,",
        -8.763139074988796
      ],
      [
        "▁homme",
        -8.763619410161322
      ],
      [
        "▁Quand",
        -8.764794082455065
      ],
      [
        "▁vient",
        -8.766347125565673
      ],
      [
        "▁décembre",
        -8.766383193827068
      ],
      [
        "▁public",
        -8.767553518265583
      ],
      [
        "▁gros",
        -8.771031324534707
      ],
      [
        "▁beau",
        -8.771771538274633
      ],
      [
        "▁l'article",
        -8.77267538611883
      ],
      [
        "▁rendre",
        -8.77310037024509
      ],
      [
        "▁parle",
        -8.774063715470781
      ],
      [
        "▁novembre",
        -8.774341521724534
      ],
      [
        "▁liste",
        -8.7759025021244
      ],
      [
        "▁16",
        -8.778539568635713
      ],
      [
        "▁2018",
        -8.779700205798978
      ],
      [
        "▁salle",
        -8.783106876726194
      ],
      [
        "▁mai",
        -8.784179334732862
      ],
      [
        "▁moyen",
        -8.785151690280712
      ],
      [
        "▁certaines",
        -8.787527949598879
      ],
      [
        "▁jeunes",
        -8.791467894322235
      ],
      [
        "▁17",
        -8.792368544040077
      ],
      [
        "▁différents",
        -8.795958363175412
      ],
      [
        "▁effet",
        -8.795998164234593
      ],
      [
        "▁s'est",
        -8.798578701941357
      ],
      [
        "▁frais",
        -8.799111040751882
      ],
      [
        "▁tour",
        -8.799484425742584
      ],
      [
        "is",
        -8.805663714925899
      ],
      [
        "▁code",
        -8.806845715520781
      ],
      [
        "▁parfois",
        -8.809444739677911
      ],
      [
        "▁juin",
        -8.812129715281962
      ],
      [
        "▁étant",
        -8.81247139264606
      ],
      [
        "in",
        -8.812751617404738
      ],
      [
        "▁important",
        -8.812878065177408
      ],
      [
        "▁répondre",
        -8.816107833504287
      ],
      [
        "au",
        -8.818077696054914
      ],
      [
        "▁vite",
        -8.819802518453795
      ],
      [
        "▁gestion",
        -8.822074921636416
      ],
      [
        "▁ayant",
        -8.822695813035885
      ],
      [
        "v",
        -8.827696026196488
      ],
      [
        "▁—",
        -8.828053655616912
      ],
      [
        "▁!!",
        -8.828224433579955
      ],
      [
        "▁droits",
        -8.828577902443971
      ],
      [
        "▁s'il",
        -8.830473566927886
      ],
      [
        "▁s’est",
        -8.832335829156746
      ],
      [
        "▁comprendre",
        -8.833654210848636
      ],
      [
        "▁L",
        -8.833881107727287
      ],
      [
        "▁compris",
        -8.834227357451578
      ],
      [
        "▁Ne",
        -8.83744446027272
      ],
      [
        "▁octobre",
        -8.838152690881401
      ],
      [
        "▁moi,",
        -8.838304271468157
      ],
      [
        "▁général",
        -8.83839335738448
      ],
      [
        "▁donné",
        -8.840041485887863
      ],
      [
        "▁enfin",
        -8.84125093546994
      ],
      [
        "▁Bien",
        -8.846928235572655
      ],
      [
        "▁B",
        -8.846949382453237
      ],
      [
        "▁chacun",
        -8.84870529466658
      ],
      [
        "▁femmes",
        -8.849575670518316
      ],
      [
        "▁charge",
        -8.85120808475159
      ],
      [
        "▁13",
        -8.851768902654824
      ],
      [
        "\".",
        -8.853902219671943
      ],
      [
        "▁super",
        -8.85398803605699
      ],
      [
        "▁m",
        -8.854838583292857
      ],
      [
        "▁d'avoir",
        -8.858831578371639
      ],
      [
        "▁Mon",
        -8.861521976757386
      ],
      [
        "▁mots",
        -8.863093969832036
      ],
      [
        "▁carte",
        -8.865632784049907
      ],
      [
        "▁!!!",
        -8.867406010560344
      ],
      [
        "▁Sur",
        -8.871690585924878
      ],
      [
        "▁demander",
        -8.874344165749434
      ],
      [
        "▁créer",
        -8.876582795224676
      ],
      [
        "▁programme",
        -8.877418100626318
      ],
      [
        "▁Pas",
        -8.879500152977958
      ],
      [
        "▁période",
        -8.88032742775692
      ],
      [
        "▁sait",
        -8.881194025215576
      ],
      [
        "▁millions",
        -8.8830362213806
      ],
      [
        "▁trouvé",
        -8.885717982940694
      ],
      [
        "▁marché",
        -8.886696751258066
      ],
      [
        "▁exemple",
        -8.88697451789702
      ],
      [
        "▁matière",
        -8.888373951580308
      ],
      [
        "▁dé",
        -8.888673312677527
      ],
      [
        "▁présente",
        -8.892243728894156
      ],
      [
        "▁vont",
        -8.894020675373671
      ],
      [
        "▁cas,",
        -8.895725383657355
      ],
      [
        "▁vivre",
        -8.896067647606152
      ],
      [
        "▁président",
        -8.896432089139504
      ],
      [
        "▁dois",
        -8.897698319116468
      ],
      [
        "▁propre",
        -8.904074748995058
      ],
      [
        "▁25",
        -8.904227263215033
      ],
      [
        "▁P",
        -8.90552495255135
      ],
      [
        "▁mot",
        -8.906057390621257
      ],
      [
        "▁Ca",
        -8.908100329832987
      ],
      [
        "▁sûr",
        -8.909157711633448
      ],
      [
        "▁qu'un",
        -8.910468876371755
      ],
      [
        "▁Du",
        -8.910967591975865
      ],
      [
        "▁nouveaux",
        -8.911718965007388
      ],
      [
        "▁bout",
        -8.911724527832558
      ],
      [
        "▁Ma",
        -8.912262638786077
      ],
      [
        "▁peur",
        -8.912282962821239
      ],
      [
        "▁avis",
        -8.913157259532213
      ],
      [
        "▁travers",
        -8.913558034690768
      ],
      [
        "▁laquelle",
        -8.913761806326168
      ],
      [
        "▁devrait",
        -8.915544099141657
      ],
      [
        "▁difficile",
        -8.916086180305811
      ],
      [
        "▁photo",
        -8.919639727384702
      ],
      [
        "▁Conseil",
        -8.920318134891748
      ],
      [
        "▁haut",
        -8.923699524606512
      ],
      [
        "▁français",
        -8.926275907532386
      ],
      [
        "▁retour",
        -8.926389444747958
      ],
      [
        "b",
        -8.927245886781343
      ],
      [
        "▁ca",
        -8.935220209846047
      ],
      [
        "▁2017",
        -8.936318944283745
      ],
      [
        "▁prend",
        -8.937238033900481
      ],
      [
        "▁auprès",
        -8.942024358957987
      ],
      [
        "▁nécessaire",
        -8.942739619464684
      ],
      [
        "▁juillet",
        -8.946155838098548
      ],
      [
        "▁parents",
        -8.94631638043374
      ],
      [
        "les",
        -8.946399395232872
      ],
      [
        "▁but",
        -8.947880182753035
      ],
      [
        "▁venir",
        -8.94857570330615
      ],
      [
        "▁^^",
        -8.949245467845856
      ],
      [
        "▁changer",
        -8.950335584531725
      ],
      [
        "▁n’ai",
        -8.95352506341064
      ],
      [
        "▁l'a",
        -8.955345084400744
      ],
      [
        "▁manque",
        -8.955983462622257
      ],
      [
        "▁fille",
        -8.957298858316424
      ],
      [
        "▁centre",
        -8.958548421064876
      ],
      [
        "▁existe",
        -8.959436811987372
      ],
      [
        "▁tellement",
        -8.95956622194911
      ],
      [
        "▁septembre",
        -8.960126137473809
      ],
      [
        "▁souhaite",
        -8.960394315441995
      ],
      [
        "▁points",
        -8.96040491947079
      ],
      [
        "ation",
        -8.96145328313068
      ],
      [
        "▁activités",
        -8.962328383737205
      ],
      [
        "▁chance",
        -8.962595084298933
      ],
      [
        "▁utiliser",
        -8.963885778320854
      ],
      [
        "»",
        -8.964511070191286
      ],
      [
        "▁presque",
        -8.96532943760179
      ],
      [
        "▁*",
        -8.96661198926805
      ],
      [
        "▁création",
        -8.966840645219957
      ],
      [
        "▁terme",
        -8.972697279775957
      ],
      [
        "▁effet,",
        -8.972942619660706
      ],
      [
        "▁I",
        -8.974246854490406
      ],
      [
        "▁jusqu’à",
        -8.97996628930002
      ],
      [
        "▁conseil",
        -8.980901336697364
      ],
      [
        "▁soir",
        -8.983830691009889
      ],
      [
        "▁nuit",
        -8.984380114973023
      ],
      [
        "▁fort",
        -8.984474610434983
      ],
      [
        "▁fond",
        -8.988081284666976
      ],
      [
        "▁jusqu'à",
        -8.988555726270036
      ],
      [
        "▁histoire",
        -8.989279130283016
      ],
      [
        "▁regard",
        -8.990029347805333
      ],
      [
        "▁eux",
        -8.993069593762137
      ],
      [
        "ai",
        -8.99360774514177
      ],
      [
        "té",
        -8.994040831554454
      ],
      [
        "▁concernant",
        -8.994718470514552
      ],
      [
        "▁meilleur",
        -8.995085865010118
      ],
      [
        "▁fut",
        -8.998031985048144
      ],
      [
        "ée",
        -8.998963509533684
      ],
      [
        "▁mode",
        -9.001415106920444
      ],
      [
        "▁articles",
        -9.003355919928335
      ],
      [
        "▁forum",
        -9.003418643026684
      ],
      [
        "▁laisse",
        -9.005787729923844
      ],
      [
        "▁h",
        -9.006232604230066
      ],
      [
        "▁nombreuses",
        -9.010062338458475
      ],
      [
        "▁jouer",
        -9.012705404843764
      ],
      [
        "▁facile",
        -9.013322626223964
      ],
      [
        "▁pratique",
        -9.013674660818841
      ],
      [
        "▁personnel",
        -9.020405361349345
      ],
      [
        "▁peine",
        -9.020933003451294
      ],
      [
        "▁vacances",
        -9.02153216556286
      ],
      [
        "▁avril",
        -9.02241470309458
      ],
      [
        "▁rester",
        -9.02246070334301
      ],
      [
        "▁19",
        -9.022673923971533
      ],
      [
        "▁soient",
        -9.022828112870119
      ],
      [
        "]",
        -9.02425027960782
      ],
      [
        "▁février",
        -9.025053239391873
      ],
      [
        "▁hommes",
        -9.025166515054522
      ],
      [
        "▁cœur",
        -9.028071725530847
      ],
      [
        "▁différentes",
        -9.028891752422641
      ],
      [
        "▁entreprises",
        -9.030144520468642
      ],
      [
        "▁décision",
        -9.031420817653828
      ],
      [
        "▁ensuite",
        -9.032855797869917
      ],
      [
        "▁résultats",
        -9.033619949649935
      ],
      [
        "▁DE",
        -9.033678277587711
      ],
      [
        "▁valeur",
        -9.034795782553775
      ],
      [
        "▁blog",
        -9.035864189556577
      ],
      [
        "▁viens",
        -9.036492061211227
      ],
      [
        "▁message",
        -9.037161028363755
      ],
      [
        "▁durée",
        -9.037218425139555
      ],
      [
        "▁retrouver",
        -9.037710798276713
      ],
      [
        "▁sein",
        -9.040880155514632
      ],
      [
        "▁temps,",
        -9.041196793402179
      ],
      [
        "▁E",
        -9.041368864536837
      ],
      [
        "▁tel",
        -9.041470949949872
      ],
      [
        "▁idée",
        -9.043721731942092
      ],
      [
        "▁oui",
        -9.043936076087984
      ],
      [
        "▁Depuis",
        -9.048349661247373
      ],
      [
        "▁mort",
        -9.05114911406244
      ],
      [
        "▁contrôle",
        -9.053307849590936
      ],
      [
        "▁force",
        -9.055295568134852
      ],
      [
        "▁an",
        -9.060561780515725
      ],
      [
        "▁projets",
        -9.060592258098747
      ],
      [
        "▁longtemps",
        -9.060671069169441
      ],
      [
        "▁m’a",
        -9.060939953312392
      ],
      [
        "▁qu’un",
        -9.06204314086629
      ],
      [
        "▁T",
        -9.062716232475498
      ],
      [
        "▁bas",
        -9.06498476097022
      ],
      [
        "▁deuxième",
        -9.066172096688135
      ],
      [
        "▁problèmes",
        -9.066509627828793
      ],
      [
        "▁aider",
        -9.06662474276946
      ],
      [
        "▁permis",
        -9.069304126425141
      ],
      [
        "L",
        -9.069435728269232
      ],
      [
        "▁j'",
        -9.07025261184581
      ],
      [
        "▁train",
        -9.07047537771416
      ],
      [
        "▁là,",
        -9.071549943072112
      ],
      [
        "▁21",
        -9.07216993488814
      ],
      [
        "▁solution",
        -9.073889213844431
      ],
      [
        "▁Re",
        -9.075757603175955
      ],
      [
        "▁l’a",
        -9.07609597328186
      ],
      [
        "▁mère",
        -9.076218471202566
      ],
      [
        "▁quelle",
        -9.076427405261306
      ],
      [
        "▁directement",
        -9.07778507577335
      ],
      [
        "▁voit",
        -9.07897890338572
      ],
      [
        "▁traitement",
        -9.080114188175482
      ],
      [
        "▁travaux",
        -9.081556519832912
      ],
      [
        "▁grands",
        -9.082724848172568
      ],
      [
        "▁offre",
        -9.083111572213646
      ],
      [
        "▁m'",
        -9.085825599758804
      ],
      [
        "▁24",
        -9.087870756540736
      ],
      [
        "▁taux",
        -9.088740085816266
      ],
      [
        "▁gouvernement",
        -9.089725850860166
      ],
      [
        "▁permettre",
        -9.091163791513981
      ],
      [
        "▁lu",
        -9.091695864682858
      ],
      [
        "▁s’",
        -9.093758208277155
      ],
      [
        "▁j'avais",
        -9.094758414205252
      ],
      [
        "▁d’avoir",
        -9.095045499354871
      ],
      [
        "▁pourra",
        -9.096936724846735
      ],
      [
        "▁n°",
        -9.097151370978747
      ],
      [
        "▁amis",
        -9.097431244389053
      ],
      [
        "▁s’agit",
        -9.097438655260344
      ],
      [
        "▁devez",
        -9.09833007332271
      ],
      [
        "▁Pourquoi",
        -9.100677800501177
      ],
      [
        "▁écrit",
        -9.101380829698012
      ],
      [
        "▁saison",
        -9.10322892321972
      ],
      [
        "▁choisir",
        -9.1043643641462
      ],
      [
        "▁pouvait",
        -9.106611214358647
      ],
      [
        "▁environ",
        -9.10787135124217
      ],
      [
        "▁Bon",
        -9.109848299402845
      ],
      [
        "▁certain",
        -9.111353423578546
      ],
      [
        "▁Ça",
        -9.117736872930621
      ],
      [
        "▁50",
        -9.11941196733056
      ],
      [
        "▁française",
        -9.121099556536727
      ],
      [
        "▁Oui,",
        -9.121102160817708
      ],
      [
        "se",
        -9.121846868905806
      ],
      [
        "▁Paris",
        -9.122893403366064
      ],
      [
        "▁suivre",
        -9.123732161505151
      ],
      [
        "▁[",
        -9.12848700179807
      ],
      [
        "aux",
        -9.128979100956307
      ],
      [
        "▁j'en",
        -9.129961312010796
      ],
      [
        "▁ministre",
        -9.13088767752277
      ],
      [
        "▁Sa",
        -9.131286017429693
      ],
      [
        "▁faites",
        -9.132588492498105
      ],
      [
        "▁nature",
        -9.133234118249957
      ],
      [
        "▁protection",
        -9.134599157357968
      ],
      [
        "▁re",
        -9.138027172755294
      ],
      [
        "”",
        -9.138245851364815
      ],
      [
        "▁22",
        -9.138342036719338
      ],
      [
        "▁enfant",
        -9.13997372537036
      ],
      [
        "▁aujourd’hui",
        -9.139984953718134
      ],
      [
        "▁D",
        -9.140165354991108
      ],
      [
        "▁rapidement",
        -9.140387201828439
      ],
      [
        "▁durant",
        -9.141149847855177
      ],
      [
        "▁professionnelle",
        -9.142226636868308
      ],
      [
        "▁plupart",
        -9.143122257212529
      ],
      [
        "▁Plus",
        -9.14463634186929
      ],
      [
        "▁Voici",
        -9.145825762055356
      ],
      [
        "▁père",
        -9.146337251192517
      ],
      [
        "▁conseils",
        -9.146727014818442
      ],
      [
        "▁confiance",
        -9.14916655002966
      ],
      [
        "2",
        -9.149242976005464
      ],
      [
        "▁texte",
        -9.149268172034233
      ],
      [
        "▁série",
        -9.152446736368667
      ],
      [
        "▁avaient",
        -9.152608207300542
      ],
      [
        "▁rôle",
        -9.154396998890643
      ],
      [
        "▁milieu",
        -9.15496856598612
      ],
      [
        "▁in",
        -9.155215273110077
      ],
      [
        "▁domaine",
        -9.155247975325022
      ],
      [
        "▁penser",
        -9.155287379929902
      ],
      [
        "▁oui,",
        -9.15657966438371
      ],
      [
        "▁puisse",
        -9.158259216066504
      ],
      [
        "▁sortir",
        -9.159788798030728
      ],
      [
        "▁met",
        -9.161136191943012
      ],
      [
        "▁version",
        -9.162590552638704
      ],
      [
        "▁concerne",
        -9.163056783959966
      ],
      [
        "▁règles",
        -9.16401831581874
      ],
      [
        "▁travailler",
        -9.165434988511869
      ],
      [
        "▁moyens",
        -9.165705806700288
      ],
      [
        "▁l'air",
        -9.165987826498032
      ],
      [
        "k",
        -9.16903591316606
      ],
      [
        "▁celles",
        -9.17013240404469
      ],
      [
        "▁commande",
        -9.170243333196304
      ],
      [
        "▁vente",
        -9.170336615415575
      ],
      [
        "▁F",
        -9.170840523680571
      ],
      [
        "▁présence",
        -9.171884960462192
      ],
      [
        "▁sites",
        -9.173263041704772
      ],
      [
        "▁qu'une",
        -9.174726590986342
      ],
      [
        "▁client",
        -9.175028098638855
      ],
      [
        "▁coeur",
        -9.175488111775596
      ],
      [
        "▁portant",
        -9.17819213717404
      ],
      [
        "▁possibilité",
        -9.179700881527346
      ],
      [
        "▁chambre",
        -9.18051946393632
      ],
      [
        "▁éviter",
        -9.1809374138683
      ],
      [
        "▁production",
        -9.180978017118461
      ],
      [
        "▁matin",
        -9.181091737848227
      ],
      [
        "▁quatre",
        -9.18818379912452
      ],
      [
        "▁lequel",
        -9.188205623433337
      ],
      [
        "▁disposition",
        -9.188936001096259
      ],
      [
        "▁réaliser",
        -9.190308468456713
      ],
      [
        "▁état",
        -9.190887160243797
      ],
      [
        "▁voix",
        -9.191032825901289
      ],
      [
        "▁23",
        -9.191961449115784
      ],
      [
        "▁besoins",
        -9.19460055398632
      ],
      [
        "▁c",
        -9.195298633530847
      ],
      [
        "▁commence",
        -9.195314787748348
      ],
      [
        "▁voyage",
        -9.195335647842267
      ],
      [
        "▁qu’une",
        -9.195351430523086
      ],
      [
        "▁respect",
        -9.197824212665642
      ],
      [
        "▁éléments",
        -9.199098955703
      ],
      [
        "▁ans.",
        -9.201313272091195
      ],
      [
        "age",
        -9.202916300059538
      ],
      [
        "▁Car",
        -9.203194518712026
      ],
      [
        "▁J",
        -9.20522022284913
      ],
      [
        "▁s'en",
        -9.207316368171222
      ],
      [
        "▁clients",
        -9.2080864909216
      ],
      [
        "▁puisque",
        -9.209918436788659
      ],
      [
        "▁petites",
        -9.210664070488734
      ],
      [
        "▁profiter",
        -9.211001943441882
      ],
      [
        "A",
        -9.21207565017764
      ],
      [
        "▁secteur",
        -9.213769335344615
      ],
      [
        "particulièrement",
        -9.214036595136818
      ],
      [
        "▁film",
        -9.21444623289339
      ],
      [
        "▁réseau",
        -9.215103904698843
      ],
      [
        "▁connais",
        -9.21513840452253
      ],
      [
        "▁c’était",
        -9.216658298224395
      ],
      [
        "▁expérience",
        -9.217530241425589
      ],
      [
        "...)",
        -9.219155854524942
      ],
      [
        "▁sorte",
        -9.221327834787445
      ],
      [
        "▁faisait",
        -9.223052267454094
      ],
      [
        "▁bonnes",
        -9.22435602583608
      ],
      [
        "▁(et",
        -9.22471384767993
      ],
      [
        "▁malgré",
        -9.225793103278678
      ],
      [
        "▁parmi",
        -9.225957780512234
      ],
      [
        "▁garde",
        -9.226365769199834
      ],
      [
        "▁terre",
        -9.226749334540639
      ],
      [
        "an",
        -9.227568501585708
      ],
      [
        "j",
        -9.229088631044592
      ],
      [
        "▁l'ai",
        -9.230541028152864
      ],
      [
        "▁100",
        -9.23288112920126
      ],
      [
        "tte",
        -9.235788730096573
      ],
      [
        "▁marque",
        -9.236193853064655
      ],
      [
        "▁dû",
        -9.236229989788875
      ],
      [
        "▁pourtant",
        -9.236420067207955
      ],
      [
        "1",
        -9.236557314496295
      ],
      [
        "▁Moi",
        -9.238016035392379
      ],
      [
        "▁région",
        -9.238358079531256
      ],
      [
        "▁s'",
        -9.238448842554709
      ],
      [
        "es,",
        -9.240418093558596
      ],
      [
        "▁G",
        -9.24154181834859
      ],
      [
        "▁contact",
        -9.242107124303248
      ],
      [
        "▁Même",
        -9.243913617756498
      ],
      [
        "un",
        -9.24807995274658
      ],
      [
        "▁nationale",
        -9.24834584304676
      ],
      [
        "▁poser",
        -9.248478923546717
      ],
      [
        "▁M",
        -9.248791271882682
      ],
      [
        "▁suivi",
        -9.248993336169443
      ],
      [
        "▁partager",
        -9.251975801320196
      ],
      [
        "▁connaître",
        -9.25204766926445
      ],
      [
        "▁peau",
        -9.2549920333621
      ],
      [
        "▁décidé",
        -9.25636526783073
      ],
      [
        "▁équipe",
        -9.256823373564036
      ],
      [
        "▁Son",
        -9.260256811470075
      ],
      [
        "▁samedi",
        -9.260411666533452
      ],
      [
        "▁attention",
        -9.261037310658068
      ],
      [
        "▁arrive",
        -9.261133169908021
      ],
      [
        "3",
        -9.261185391912509
      ],
      [
        "▁Oui",
        -9.262109692296505
      ],
      [
        "B",
        -9.262422619254885
      ],
      [
        "▁quelqu'un",
        -9.263370719689712
      ],
      [
        "▁regarder",
        -9.263764571342087
      ],
      [
        "▁résultat",
        -9.268800592594935
      ],
      [
        "▁montant",
        -9.268970074181667
      ],
      [
        "P",
        -9.269797828224355
      ],
      [
        "▁Notre",
        -9.270473293176412
      ],
      [
        "es.",
        -9.270605663083245
      ],
      [
        "▁n'était",
        -9.272408868277026
      ],
      [
        "▁l’article",
        -9.274760387085333
      ],
      [
        "!!",
        -9.274843590124831
      ],
      [
        "▁particulier",
        -9.276956218024
      ],
      [
        "▁sortie",
        -9.277038662880411
      ],
      [
        "▁s’il",
        -9.278771327674162
      ],
      [
        "▁vidéo",
        -9.2809523466181
      ],
      [
        "▁aujourd'hui",
        -9.281854344667458
      ],
      [
        "▁mesures",
        -9.282813769106848
      ],
      [
        "▁élèves",
        -9.283096505196088
      ],
      [
        "ront",
        -9.283378778818811
      ],
      [
        "▁prochaine",
        -9.284133231438915
      ],
      [
        "▁entreprise",
        -9.286371966223648
      ],
      [
        "▁taille",
        -9.287390853316733
      ],
      [
        "▁telle",
        -9.290632781814663
      ],
      [
        "▁n'en",
        -9.291403108190817
      ],
      [
        "ter",
        -9.293336325533556
      ],
      [
        "▁chercher",
        -9.294061493863953
      ],
      [
        "▁zone",
        -9.294872049810731
      ],
      [
        "▁semaines",
        -9.295517706674545
      ],
      [
        "▁commencer",
        -9.295560185908236
      ],
      [
        "▁août",
        -9.295848035540427
      ],
      [
        "▁tard",
        -9.295915715376232
      ],
      [
        "▁dernières",
        -9.296738192725602
      ],
      [
        "ni",
        -9.296778343440584
      ],
      [
        "▁suivant",
        -9.298918492401418
      ],
      [
        "▁République",
        -9.299258720779697
      ],
      [
        "▁grandes",
        -9.301073073947194
      ],
      [
        "▁perdre",
        -9.301659002851299
      ],
      [
        "D",
        -9.30282291105835
      ],
      [
        "▁voulez",
        -9.30438986137627
      ],
      [
        "▁qu’",
        -9.305753579911972
      ],
      [
        "▁changement",
        -9.306392829232962
      ],
      [
        "▁Voilà",
        -9.30670078106965
      ],
      [
        "▁fil",
        -9.307170283668647
      ],
      [
        "▁derrière",
        -9.309273747042532
      ],
      [
        "▁devenir",
        -9.30965708035487
      ],
      [
        "▁meilleure",
        -9.310277470459358
      ],
      [
        "▁euros",
        -9.310352043791681
      ],
      [
        "▁rend",
        -9.31067864807808
      ],
      [
        "▁contrat",
        -9.31144955506674
      ],
      [
        "▁R",
        -9.311579064956957
      ],
      [
        "▁ensemble",
        -9.312143666180457
      ],
      [
        "▁techniques",
        -9.314012876695916
      ],
      [
        "▁suffit",
        -9.314573005426986
      ],
      [
        "▁entendu",
        -9.314621441607692
      ],
      [
        "ci",
        -9.315373701566013
      ],
      [
        ".\"",
        -9.315809538791724
      ],
      [
        "E",
        -9.316532638128205
      ],
      [
        "▁sociale",
        -9.31675392409662
      ],
      [
        "▁relation",
        -9.319617318692389
      ],
      [
        "▁modèle",
        -9.321974379935765
      ],
      [
        "C",
        -9.322153282777954
      ],
      [
        "▁ré",
        -9.323590688597776
      ],
      [
        "▁2015",
        -9.324198578547948
      ],
      [
        "▁guerre",
        -9.324710669591138
      ],
      [
        "▁soleil",
        -9.325858218732321
      ],
      [
        "▁Ou",
        -9.327221884840807
      ],
      [
        "▁2014",
        -9.328222714126067
      ],
      [
        "▁technique",
        -9.328465955588136
      ],
      [
        "▁aide",
        -9.328731836514862
      ],
      [
        "▁voici",
        -9.333183038116843
      ],
      [
        "▁31",
        -9.333523149488844
      ],
      [
        "▁demandé",
        -9.333761189010911
      ],
      [
        "▁contenu",
        -9.334207034338146
      ],
      [
        "▁Tous",
        -9.334388471646822
      ],
      [
        "T",
        -9.335556369189085
      ],
      [
        "ir",
        -9.335814561244861
      ],
      [
        "▁propos",
        -9.335884234155106
      ],
      [
        "▁voilà",
        -9.337803934301203
      ],
      [
        "▁séjour",
        -9.340210811731176
      ],
      [
        "▁qu'à",
        -9.342492452267475
      ],
      [
        "▁couleur",
        -9.34269253964976
      ],
      [
        "▁hors",
        -9.342926984152967
      ],
      [
        "▁26",
        -9.343878651423704
      ],
      [
        "▁reçu",
        -9.34399282930676
      ],
      [
        "▁délai",
        -9.34821619209118
      ],
      [
        "▁sauf",
        -9.349679023525436
      ],
      [
        "▁processus",
        -9.350230176356076
      ],
      [
        "▁poids",
        -9.350415915772267
      ],
      [
        "▁vaut",
        -9.353120165890822
      ],
      [
        "▁juge",
        -9.353316348494118
      ],
      [
        "▁€",
        -9.354462975309687
      ],
      [
        "▁jeux",
        -9.356585818793254
      ],
      [
        "▁marche",
        -9.35786433153542
      ],
      [
        "lo",
        -9.359340115420203
      ],
      [
        "ch",
        -9.35979770453789
      ],
      [
        "rait",
        -9.36072977358203
      ],
      [
        "▁communication",
        -9.360946585854352
      ],
      [
        "▁Cet",
        -9.361358159876067
      ],
      [
        "▁obtenir",
        -9.361491495266737
      ],
      [
        "▁faisant",
        -9.361702909590367
      ],
      [
        "▁vendredi",
        -9.362067048657169
      ],
      [
        "▁présenter",
        -9.362839633955586
      ],
      [
        "rai",
        -9.362923977587299
      ],
      [
        "▁Dieu",
        -9.363505026701272
      ],
      [
        "▁/",
        -9.363577067855795
      ],
      [
        "▁28",
        -9.363795820911442
      ],
      [
        "▁œuvre",
        -9.363843620484591
      ],
      [
        "▁parti",
        -9.363913015397713
      ],
      [
        "▁dispositions",
        -9.364706457489586
      ],
      [
        "▁participer",
        -9.36546654028945
      ],
      [
        "▁moi.",
        -9.366830062753415
      ],
      [
        "ont",
        -9.368004936960176
      ],
      [
        "F",
        -9.37282461513136
      ],
      [
        "▁bois",
        -9.373260667966719
      ],
      [
        "▁derniers",
        -9.37334011780572
      ],
      [
        "▁Est-ce",
        -9.373767215093475
      ],
      [
        "▁rencontre",
        -9.376023166755065
      ],
      [
        "R",
        -9.376411078971083
      ],
      [
        "▁visite",
        -9.376647570958198
      ],
      [
        "▁permettant",
        -9.37680437715531
      ],
      [
        "▁2016",
        -9.376818901681768
      ],
      [
        "▁Enfin,",
        -9.378054507784224
      ],
      [
        "▁départ",
        -9.378221610128154
      ],
      [
        "▁voiture",
        -9.378526737356182
      ],
      [
        "▁pose",
        -9.381619718459046
      ],
      [
        "▁chemin",
        -9.384362989270443
      ],
      [
        "▁régime",
        -9.384462963141765
      ],
      [
        "▁allez",
        -9.384684673540455
      ],
      [
        "▁s’en",
        -9.384780874469286
      ],
      [
        "▁etc.",
        -9.385680724496467
      ],
      [
        "▁économique",
        -9.386278585608284
      ],
      [
        "▁n’ont",
        -9.387416758135416
      ],
      [
        "▁lit",
        -9.388310628841566
      ],
      [
        "▁pourrez",
        -9.389825820210195
      ],
      [
        "▁connaissance",
        -9.390428009175348
      ],
      [
        "▁Donc",
        -9.390470932131556
      ],
      [
        "▁garder",
        -9.391706325266751
      ],
      [
        "▁perdu",
        -9.392779618599304
      ],
      [
        "▁totalement",
        -9.392973334644036
      ],
      [
        "▁l’année",
        -9.394614234401484
      ],
      [
        "▁compter",
        -9.394837237237159
      ],
      [
        "▁27",
        -9.395234542779406
      ],
      [
        "ve",
        -9.395327104742659
      ],
      [
        "▁croire",
        -9.39603105480666
      ],
      [
        "▁responsable",
        -9.396667582134292
      ],
      [
        "▁s'agit",
        -9.397982477524629
      ],
      [
        "▁mission",
        -9.398512892885181
      ],
      [
        "▁actions",
        -9.401211796067813
      ],
      [
        "▁manger",
        -9.401918865696494
      ],
      [
        "▁construction",
        -9.402358181386852
      ],
      [
        "▁rendez-vous",
        -9.40242301519498
      ],
      [
        "▁V",
        -9.402577698834598
      ],
      [
        "▁territoire",
        -9.402863316627782
      ],
      [
        "▁pied",
        -9.404485331077153
      ],
      [
        "▁sort",
        -9.406255031426774
      ],
      [
        "▁lecture",
        -9.408220258778904
      ],
      [
        "!!!",
        -9.409436860052534
      ],
      [
        "di",
        -9.409850743511125
      ],
      [
        "▁longue",
        -9.409978209152356
      ],
      [
        "▁ressources",
        -9.410349961069194
      ],
      [
        "▁dimanche",
        -9.410522222907273
      ],
      [
        "▁musique",
        -9.411628314540472
      ],
      [
        "▁qu’à",
        -9.411768453641088
      ],
      [
        "ing",
        -9.412604547092958
      ],
      [
        "▁pièces",
        -9.414569202413595
      ],
      [
        "▁utilisé",
        -9.414976911830395
      ],
      [
        "▁cuisine",
        -9.41574938892094
      ],
      [
        "▁bientôt",
        -9.41719813687483
      ],
      [
        "és",
        -9.418362381896584
      ],
      [
        "▁chef",
        -9.418805315515021
      ],
      [
        "▁prêt",
        -9.418806710812378
      ],
      [
        "▁premiers",
        -9.420422692612267
      ],
      [
        "▁uniquement",
        -9.422040967514143
      ],
      [
        "▁route",
        -9.42251864542902
      ],
      [
        "▁2013",
        -9.423679998986296
      ],
      [
        "▁l'autre",
        -9.42395925668822
      ],
      [
        "▁Qui",
        -9.425315244652861
      ],
      [
        "ré",
        -9.42618998233175
      ],
      [
        "▁LA",
        -9.426788748717197
      ],
      [
        "▁langue",
        -9.427785384139522
      ],
      [
        "▁poste",
        -9.427968912999802
      ],
      [
        "▁sinon",
        -9.428137390016584
      ],
      [
        "▁voulais",
        -9.42826997524343
      ],
      [
        "▁adresse",
        -9.428469472372157
      ],
      [
        "▁bord",
        -9.429358930677097
      ],
      [
        "▁truc",
        -9.430235679944346
      ],
      [
        "▁fera",
        -9.430477475987475
      ],
      [
        "▁proposer",
        -9.431223104029872
      ],
      [
        "▁sociaux",
        -9.43223842738788
      ],
      [
        "▁activité",
        -9.432921738482548
      ],
      [
        "▁appel",
        -9.433431260808922
      ],
      [
        "▁40",
        -9.435287418741261
      ],
      [
        "▁direction",
        -9.436294903073414
      ],
      [
        "▁Très",
        -9.436297457755824
      ],
      [
        "▁raisons",
        -9.438006218807487
      ],
      [
        "▁principe",
        -9.43829869326148
      ],
      [
        "▁faudra",
        -9.438576815553525
      ],
      [
        "tu",
        -9.438850655264119
      ],
      [
        "▁véritable",
        -9.440408993430157
      ],
      [
        "▁souhaitez",
        -9.441575590116123
      ],
      [
        "▁+",
        -9.442253665695048
      ],
      [
        "▁finalement",
        -9.443427974561816
      ],
      [
        "▁gagner",
        -9.443495369124125
      ],
      [
        "▁désormais",
        -9.445153923335532
      ],
      [
        "▁l’ensemble",
        -9.445935974816276
      ],
      [
        "▁payer",
        -9.447286773572799
      ],
      [
        "▁dossier",
        -9.448011649704558
      ],
      [
        "▁internet",
        -9.44805258248065
      ],
      [
        "▁continuer",
        -9.448575369364303
      ],
      [
        "▁numéro",
        -9.448761719605667
      ],
      [
        "▁continue",
        -9.450180923859016
      ],
      [
        "▁partage",
        -9.451791090168584
      ],
      [
        "▁libre",
        -9.453225843757497
      ],
      [
        "ement",
        -9.454048462511938
      ],
      [
        "eur",
        -9.45485186372199
      ],
      [
        "▁bons",
        -9.455751905145071
      ],
      [
        "▁livres",
        -9.456334168564275
      ],
      [
        "▁preuve",
        -9.456522950692467
      ],
      [
        "▁Lorsque",
        -9.456621627699548
      ],
      [
        "▁cinq",
        -9.457267191704595
      ],
      [
        "▁attendre",
        -9.45893813353044
      ],
      [
        "▁connu",
        -9.459118183439013
      ],
      [
        "▁essayer",
        -9.4591372062136
      ],
      [
        "▁dessus",
        -9.459369076037149
      ],
      [
        "▁Vot",
        -9.459459687892402
      ],
      [
        "▁parties",
        -9.460510245728209
      ],
      [
        "▁cheveux",
        -9.461125976670907
      ],
      [
        "▁d'en",
        -9.461501425595024
      ],
      [
        "▁devait",
        -9.46304074800755
      ],
      [
        "▁Puis",
        -9.463120109553984
      ],
      [
        "▁ça,",
        -9.46366011462926
      ],
      [
        "▁européenne",
        -9.463707479148368
      ],
      [
        "▁endroit",
        -9.463848000064557
      ],
      [
        "▁disponible",
        -9.46496987225913
      ],
      [
        "▁position",
        -9.465289947872552
      ],
      [
        "▁voie",
        -9.466757848019839
      ],
      [
        "▁Sans",
        -9.466794491119636
      ],
      [
        "▁n'ont",
        -9.466835345470624
      ],
      [
        "▁réussi",
        -9.467293765025657
      ],
      [
        "▁règlement",
        -9.467306053665315
      ],
      [
        "▁passage",
        -9.46737467885775
      ],
      [
        "▁social",
        -9.470371930237945
      ],
      [
        "▁m’",
        -9.471394498700416
      ],
      [
        "▁web",
        -9.471727739039217
      ],
      [
        "▁porter",
        -9.472400730254432
      ],
      [
        "▁études",
        -9.472856590441422
      ],
      [
        "▁l'un",
        -9.472900590145148
      ],
      [
        "▁capacité",
        -9.47315642343489
      ],
      [
        "▁solutions",
        -9.473544234552268
      ],
      [
        "▁seconde",
        -9.473712241106865
      ],
      [
        "(",
        -9.473823987843565
      ],
      [
        "▁bras",
        -9.47433168344648
      ],
      [
        "▁facilement",
        -9.47509592374071
      ],
      [
        "▁classe",
        -9.476025723792649
      ],
      [
        "▁(ou",
        -9.476873492949785
      ],
      [
        "▁ouvert",
        -9.477795382103086
      ],
      [
        "▁terrain",
        -9.479599637376445
      ],
      [
        "▁professionnels",
        -9.480204500018404
      ],
      [
        "▁transport",
        -9.480454857329537
      ],
      [
        "▁via",
        -9.480591583261475
      ],
      [
        "▁publique",
        -9.481024731847407
      ],
      [
        "▁fils",
        -9.481737115487896
      ],
      [
        "▁_",
        -9.482330429752189
      ],
      [
        "▁fois,",
        -9.484356065172387
      ],
      [
        "▁idées",
        -9.486640222793747
      ],
      [
        "▁devient",
        -9.487047620244397
      ],
      [
        "▁d'ailleurs",
        -9.487195664872528
      ],
      [
        "▁montre",
        -9.488999088753928
      ],
      [
        "N",
        -9.489944965701103
      ],
      [
        "▁documents",
        -9.49396603184812
      ],
      [
        "▁fonctionnement",
        -9.494846567587702
      ],
      [
        "li",
        -9.495900792803777
      ],
      [
        "▁membre",
        -9.496078968873597
      ],
      [
        "▁moyenne",
        -9.502909899112158
      ],
      [
        "▁table",
        -9.503425976122516
      ],
      [
        "▁concours",
        -9.503613163799677
      ],
      [
        "▁commencé",
        -9.503644711688864
      ],
      [
        "ma",
        -9.503986797718182
      ],
      [
        "’",
        -9.50432466947797
      ],
      [
        "▁majorité",
        -9.50584880333104
      ],
      [
        "si",
        -9.505986192531552
      ],
      [
        "▁aimé",
        -9.506312600991185
      ],
      [
        "I",
        -9.506992985686043
      ],
      [
        "▁mains",
        -9.50792382792402
      ],
      [
        "▁lumière",
        -9.508329164107607
      ],
      [
        ".....",
        -9.508601006162248
      ],
      [
        "co",
        -9.5086421118807
      ],
      [
        "▁procédure",
        -9.50905907418883
      ],
      [
        "▁pleine",
        -9.509118124091536
      ],
      [
        "▁Parce",
        -9.50911901117395
      ],
      [
        "▁n’en",
        -9.511002088756236
      ],
      [
        "▁réserve",
        -9.511177124369308
      ],
      [
        "▁L.",
        -9.511276294754563
      ],
      [
        "▁pratiques",
        -9.511946969617348
      ],
      [
        "▁politiques",
        -9.513291732896015
      ],
      [
        "▁Ah",
        -9.514705185769989
      ],
      [
        "4",
        -9.51504377012066
      ],
      [
        "▁réalité",
        -9.515067508606784
      ],
      [
        "▁prévu",
        -9.51814311702563
      ],
      [
        "▁accès",
        -9.518691031168773
      ],
      [
        "▁m'en",
        -9.519075924588593
      ],
      [
        "ri",
        -9.521364901806235
      ],
      [
        "né",
        -9.521409091254602
      ],
      [
        "▁Non",
        -9.522809908531089
      ],
      [
        "G",
        -9.52331559086242
      ],
      [
        "▁développer",
        -9.523403043303475
      ],
      [
        "▁revenir",
        -9.524119505750278
      ],
      [
        "▁tenir",
        -9.524717680796979
      ],
      [
        "▁sourire",
        -9.524775798580361
      ],
      [
        "elle",
        -9.525540208909712
      ],
      [
        "▁proche",
        -9.5259408677428
      ],
      [
        "▁pièce",
        -9.526718363073385
      ],
      [
        "▁limite",
        -9.527207358582615
      ],
      [
        "▁feu",
        -9.527420922743268
      ],
      [
        "▁cher",
        -9.527547513802915
      ],
      [
        "▁compétences",
        -9.528211908106186
      ],
      [
        "▁retrouve",
        -9.530335456340978
      ],
      [
        "▁risques",
        -9.53093569744757
      ],
      [
        "▁fallait",
        -9.53181064942562
      ],
      [
        "▁groupes",
        -9.53328632779861
      ],
      [
        "▁commune",
        -9.533602058055251
      ],
      [
        "▁O",
        -9.533915531055309
      ],
      [
        "▁recevoir",
        -9.535687722062736
      ],
      [
        "▁couleurs",
        -9.536077731329957
      ],
      [
        "▁caractère",
        -9.536918849629574
      ],
      [
        "▁mouvement",
        -9.54065426880033
      ],
      [
        "▁population",
        -9.542120084322011
      ],
      [
        "▁l'année",
        -9.543744894548396
      ],
      [
        "▁repas",
        -9.544342714619539
      ],
      [
        "▁commission",
        -9.545014999049666
      ],
      [
        "▁permettent",
        -9.545136375707376
      ],
      [
        "▁[...]",
        -9.546168324632198
      ],
      [
        "*",
        -9.5463046009727
      ],
      [
        "H",
        -9.546707989378369
      ],
      [
        "▁Selon",
        -9.546781920064191
      ],
      [
        "▁parfaitement",
        -9.546993797390313
      ],
      [
        "▁responsabilité",
        -9.548068420222585
      ],
      [
        "th",
        -9.548310849913644
      ],
      [
        "▁contacter",
        -9.551008315368154
      ],
      [
        "▁rapide",
        -9.551945660601962
      ],
      [
        "▁fini",
        -9.551951906352727
      ],
      [
        "▁recette",
        -9.552023751035964
      ],
      [
        "▁jour,",
        -9.55255072423962
      ],
      [
        "▁choisi",
        -9.553644010952944
      ],
      [
        "▁rue",
        -9.55388685914795
      ],
      [
        "▁finir",
        -9.554771623721532
      ],
      [
        "▁Se",
        -9.555512730090733
      ],
      [
        "mp",
        -9.555585370205842
      ],
      [
        "▁change",
        -9.555646279956925
      ],
      [
        "▁comprend",
        -9.556227459537531
      ],
      [
        "ar",
        -9.557053148781556
      ],
      [
        "▁vie.",
        -9.55837731862302
      ],
      [
        "▁Décret",
        -9.558468528215965
      ],
      [
        "▁montrer",
        -9.558477419278695
      ],
      [
        "🙂",
        -9.560058869331733
      ],
      [
        "▁bonheur",
        -9.56021179001974
      ],
      [
        "▁mêmes",
        -9.560791904147964
      ],
      [
        "▁29",
        -9.561468491087691
      ],
      [
        "▁lettre",
        -9.562207604046552
      ],
      [
        "▁forcément",
        -9.566539922858937
      ],
      [
        "ro",
        -9.567531816643468
      ],
      [
        "▁soutien",
        -9.568892954597313
      ],
      [
        "▁liberté",
        -9.5693614453969
      ],
      [
        "▁est-ce",
        -9.56956983889365
      ],
      [
        "or",
        -9.570003044458293
      ],
      [
        "▁outils",
        -9.570713077878235
      ],
      [
        "lé",
        -9.571898963314979
      ],
      [
        "▁qu'",
        -9.572361545324224
      ],
      [
        "▁n'",
        -9.57294614498096
      ],
      [
        "▁capable",
        -9.574484288429034
      ],
      [
        "V",
        -9.575404873169635
      ],
      [
        "▁l’eau",
        -9.576118354829813
      ],
      [
        "▁maximum",
        -9.57671105429343
      ],
      [
        "▁Y",
        -9.576746747468523
      ],
      [
        "▁exemple,",
        -9.577283262619309
      ],
      [
        "-t-il",
        -9.577758597264726
      ],
      [
        "▁heure",
        -9.578193579276316
      ],
      [
        "▁style",
        -9.579119059958156
      ],
      [
        "▁Commission",
        -9.580158668124742
      ],
      [
        "▁consommation",
        -9.58041602466907
      ],
      [
        ".com",
        -9.580416853315185
      ],
      [
        "▁réseaux",
        -9.582201307427606
      ],
      [
        "▁Elles",
        -9.583358235410241
      ],
      [
        "▁j",
        -9.583724743374493
      ],
      [
        "▁paiement",
        -9.58377470799517
      ],
      [
        "▁jeudi",
        -9.584649237790542
      ],
      [
        "▁France,",
        -9.584707257392797
      ],
      [
        "▁belles",
        -9.585160920231543
      ],
      [
        "▁soirée",
        -9.588312208978827
      ],
      [
        "▁min",
        -9.589172976408104
      ],
      [
        "▁mauvais",
        -9.589753213923757
      ],
      [
        "▁lundi",
        -9.589799550734663
      ],
      [
        "▁Quel",
        -9.589897911152441
      ],
      [
        "▁temps.",
        -9.589927776711875
      ],
      [
        "▁national",
        -9.590043458758512
      ],
      [
        "▁l’un",
        -9.590921069583
      ],
      [
        "▁minimum",
        -9.591517756852223
      ],
      [
        "▁part,",
        -9.591626123900761
      ],
      [
        "▁coût",
        -9.592654240044558
      ],
      [
        "▁2012",
        -9.59341122329674
      ],
      [
        "▁complètement",
        -9.59369930763096
      ],
      [
        "▁rendu",
        -9.594387265367915
      ],
      [
        "▁Chaque",
        -9.596609015710996
      ],
      [
        "▁allait",
        -9.596666176547178
      ],
      [
        "w",
        -9.597036215528991
      ],
      [
        "▁voulu",
        -9.597622472290853
      ],
      [
        "▁propres",
        -9.597963189495232
      ],
      [
        "▁nécessaires",
        -9.60126481588761
      ],
      [
        "▁générale",
        -9.601836370888982
      ],
      [
        "▁certaine",
        -9.602272841256045
      ],
      [
        "▁celui-ci",
        -9.602318602981196
      ],
      [
        "▁liens",
        -9.602881137341965
      ],
      [
        "▁presse",
        -9.603226178104922
      ],
      [
        "▁monde.",
        -9.603700089048434
      ],
      [
        "▁arriver",
        -9.604074428611591
      ],
      [
        "▁téléphone",
        -9.604725917597426
      ],
      [
        "▁actuellement",
        -9.607586372487077
      ],
      [
        "▁pouvons",
        -9.608122787282863
      ],
      [
        "▁campagne",
        -9.608769177126309
      ],
      [
        "▁Cependant,",
        -9.609372573496614
      ],
      [
        "▁personnage",
        -9.610022167481116
      ],
      [
        "▁importante",
        -9.611107242147243
      ],
      [
        "▁perte",
        -9.611877677240066
      ],
      [
        "▁n’était",
        -9.61203584342329
      ],
      [
        "▁présentation",
        -9.613837693921385
      ],
      [
        "▁forte",
        -9.615404718522187
      ],
      [
        "▁méthode",
        -9.615446552937003
      ],
      [
        "▁budget",
        -9.615746698356565
      ],
      [
        "▁succès",
        -9.615916422790892
      ],
      [
        "▁troisième",
        -9.617455699871398
      ],
      [
        "▁l’air",
        -9.61764872153864
      ],
      [
        "▁maladie",
        -9.617990013776897
      ],
      [
        "▁phrase",
        -9.618071268649182
      ],
      [
        "▁prochain",
        -9.619035963106349
      ],
      [
        "▁conscience",
        -9.619268410144983
      ],
      [
        "s...",
        -9.620236977007949
      ],
      [
        "▁volonté",
        -9.62026780799492
      ],
      [
        "▁(en",
        -9.621849924795615
      ],
      [
        "▁disponibles",
        -9.622104829922282
      ],
      [
        "▁l'eau",
        -9.624921545356365
      ],
      [
        "▁60",
        -9.625183278812989
      ],
      [
        "▁source",
        -9.626624926280176
      ],
      [
        "▁large",
        -9.629303046270682
      ],
      [
        "▁meilleurs",
        -9.6305051884056
      ],
      [
        "▁j'aime",
        -9.632811212849434
      ],
      [
        "▁chambres",
        -9.633814224876076
      ],
      [
        "▁total",
        -9.633917016106079
      ],
      [
        "▁débat",
        -9.635334370384285
      ],
      [
        "▁unique",
        -9.637075522414598
      ],
      [
        "▁qu'en",
        -9.637514982436876
      ],
      [
        "▁agréable",
        -9.639827736838368
      ],
      [
        "▁matériel",
        -9.641165248314207
      ],
      [
        "▁Non,",
        -9.645074566141531
      ],
      [
        "man",
        -9.645908062772826
      ],
      [
        "▁vieux",
        -9.646376361151471
      ],
      [
        "▁pages",
        -9.648643354019658
      ],
      [
        "▁premières",
        -9.649311353808374
      ],
      [
        "▁comprends",
        -9.649830010992826
      ],
      [
        "dé",
        -9.650635489192531
      ],
      [
        "▁J'",
        -9.650676897867482
      ],
      [
        "▁faudrait",
        -9.651005012236514
      ],
      [
        "▁courant",
        -9.6528085812219
      ],
      [
        "▁fête",
        -9.654399867025703
      ],
      [
        "▁objectif",
        -9.657168852616412
      ],
      [
        "▁lieux",
        -9.657368114504163
      ],
      [
        "▁effets",
        -9.658084842242594
      ],
      [
        "▁police",
        -9.659149540599795
      ],
      [
        "▁qu’en",
        -9.65930520007809
      ],
      [
        "▁celle-ci",
        -9.661808686523004
      ],
      [
        "▁culture",
        -9.662039742860507
      ],
      [
        "che",
        -9.662295123652441
      ],
      [
        "▁lutte",
        -9.663538099054879
      ],
      [
        "qu",
        -9.663552911623421
      ],
      [
        "9",
        -9.663679023476991
      ],
      [
        "▁(...)",
        -9.664669365387464
      ],
      [
        "▁différence",
        -9.66495486215619
      ],
      [
        "▁vas",
        -9.665684234565553
      ],
      [
        "▁veulent",
        -9.665728940063346
      ],
      [
        "▁soin",
        -9.666196929861435
      ],
      [
        "▁K",
        -9.666351955155257
      ],
      [
        "▁logement",
        -9.66698990003735
      ],
      [
        "▁l’autre",
        -9.667758666948618
      ],
      [
        "▁absolument",
        -9.669344354708965
      ],
      [
        "▁justice",
        -9.669410134952722
      ],
      [
        "▁protéger",
        -9.670366848608403
      ],
      [
        "▁ami",
        -9.67120841962069
      ],
      [
        "▁thème",
        -9.67141137381648
      ],
      [
        "▁papier",
        -9.671450789725114
      ],
      [
        "▁d’en",
        -9.671483475230131
      ],
      [
        "im",
        -9.672600103429875
      ],
      [
        "▁images",
        -9.673613676893023
      ],
      [
        "▁animaux",
        -9.674483956214097
      ],
      [
        "▁rappelle",
        -9.674488516741846
      ],
      [
        "▁faible",
        -9.675855743172104
      ],
      [
        "▁préparer",
        -9.676115281486222
      ],
      [
        "▁signe",
        -9.676786739724978
      ],
      [
        "▁servir",
        -9.678690276319378
      ],
      [
        "▁professionnel",
        -9.678833180984224
      ],
      [
        "vi",
        -9.67895309181542
      ],
      [
        "▁voulait",
        -9.67998471655088
      ],
      [
        "▁parcours",
        -9.680495716426368
      ],
      [
        "▁gauche",
        -9.683917831811105
      ],
      [
        "tre",
        -9.685447710889896
      ],
      [
        "▁Avant",
        -9.685481924241625
      ],
      [
        "▁vent",
        -9.685835904812954
      ],
      [
        "▁relations",
        -9.68649849685204
      ],
      [
        "▁situé",
        -9.687041497050608
      ],
      [
        "▁aime",
        -9.687086912966807
      ],
      [
        "▁Or",
        -9.687284071041429
      ],
      [
        "▁tendance",
        -9.6886400694647
      ],
      [
        "to",
        -9.689356483333555
      ],
      [
        "▁fait,",
        -9.689974280274548
      ],
      [
        "gé",
        -9.690622063313278
      ],
      [
        "ff",
        -9.690997178180858
      ],
      [
        "▁communauté",
        -9.691026818824536
      ],
      [
        "▁apprendre",
        -9.691284276586046
      ],
      [
        "▁vitesse",
        -9.69183964083313
      ],
      [
        "▁vigueur",
        -9.69262431888259
      ],
      [
        "▁j'étais",
        -9.692634009402315
      ],
      [
        "6",
        -9.692911120180202
      ],
      [
        "▁physique",
        -9.693016716049215
      ],
      [
        "▁précise",
        -9.694084528056255
      ],
      [
        "▁vision",
        -9.69446617870262
      ],
      [
        "ité",
        -9.695760358060637
      ],
      [
        "je",
        -9.696374789764018
      ],
      [
        "aire",
        -9.696645327976015
      ],
      [
        "▁vouloir",
        -9.697178060776997
      ],
      [
        "▁savez",
        -9.697505415635359
      ],
      [
        "▁lancer",
        -9.698623219678666
      ],
      [
        "▁droite",
        -9.698690949520934
      ],
      [
        "▁noir",
        -9.699485931575175
      ],
      [
        "▁référence",
        -9.700785451241167
      ],
      [
        "▁évidemment",
        -9.701456523120825
      ],
      [
        "▁mardi",
        -9.70178066337171
      ],
      [
        "▁découverte",
        -9.701924036535225
      ],
      [
        "▁su",
        -9.70223729830953
      ],
      [
        "▁commun",
        -9.703127302120269
      ],
      [
        "▁filles",
        -9.703200211029568
      ],
      [
        "▁devoir",
        -9.703794206676577
      ],
      [
        "est",
        -9.704011090888269
      ],
      [
        "▁dos",
        -9.704783299471055
      ],
      [
        "▁gérer",
        -9.706364215978867
      ],
      [
        "▁soins",
        -9.706800677795433
      ],
      [
        "▁fonds",
        -9.707177768067282
      ],
      [
        "▁j’avais",
        -9.709146468775266
      ],
      [
        "▁cependant",
        -9.711246983354105
      ],
      [
        "▁réalisation",
        -9.71126173888154
      ],
      [
        "▁n'avait",
        -9.712342701284957
      ],
      [
        "▁toi,",
        -9.713083484429902
      ],
      [
        "M",
        -9.713364915868787
      ],
      [
        "▁tenu",
        -9.71345000991526
      ],
      [
        "▁coin",
        -9.713466717017612
      ],
      [
        "▁sol",
        -9.713480632367947
      ],
      [
        "▁pieds",
        -9.713846451123594
      ],
      [
        "▁application",
        -9.715629027122034
      ],
      [
        "▁regarde",
        -9.71589641030996
      ],
      [
        "▁détails",
        -9.716474969922118
      ],
      [
        "▁sang",
        -9.718618990971393
      ],
      [
        "▁mer",
        -9.719011951490854
      ],
      [
        "▁Bonjour",
        -9.719591085620237
      ],
      [
        "▁note",
        -9.720996493560508
      ],
      [
        "ions",
        -9.721653364206873
      ],
      [
        "▁assurer",
        -9.72231859266254
      ],
      [
        "▁espace",
        -9.723414814237724
      ],
      [
        "▁joue",
        -9.723523189978295
      ],
      [
        "▁haute",
        -9.723979023921672
      ],
      [
        "▁pourraient",
        -9.724866290318452
      ],
      [
        "able",
        -9.725210822144568
      ],
      [
        "▁mail",
        -9.725659651911473
      ],
      [
        "▁alinéa",
        -9.725959129970093
      ],
      [
        "▁d'accord",
        -9.72602550927246
      ],
      [
        "▁magnifique",
        -9.727206751791355
      ],
      [
        "ge",
        -9.727467139938852
      ],
      [
        "▁rouge",
        -9.727481075278355
      ],
      [
        "qui",
        -9.728258502620971
      ],
      [
        "▁l'ensemble",
        -9.728802256663254
      ],
      [
        "▁réduire",
        -9.729793083527767
      ],
      [
        "▁mercredi",
        -9.732481310892961
      ],
      [
        "▁allons",
        -9.733496390432258
      ],
      [
        "▁In",
        -9.733760271977529
      ],
      [
        "-il",
        -9.734589768285684
      ],
      [
        "fin",
        -9.734691693273419
      ],
      [
        "▁Noël",
        -9.73474718207369
      ],
      [
        "▁court",
        -9.734822795741385
      ],
      [
        "▁clair",
        -9.735400864447904
      ],
      [
        "▁dehors",
        -9.735604230535955
      ],
      [
        "▁partenaires",
        -9.735627675609559
      ],
      [
        "▁livraison",
        -9.735729870190369
      ],
      [
        "_",
        -9.735838473294411
      ],
      [
        "▁commerce",
        -9.737616790775087
      ],
      [
        "▁tomber",
        -9.737629781284388
      ],
      [
        "▁impossible",
        -9.737923887836237
      ],
      [
        "▁chien",
        -9.738661057957858
      ],
      [
        "▁heureux",
        -9.738899245259383
      ],
      [
        "▁certainement",
        -9.738942320891447
      ],
      [
        "os",
        -9.739090071109436
      ],
      [
        "▁d’ailleurs",
        -9.739383336135532
      ],
      [
        "▁Me",
        -9.740100775026118
      ],
      [
        "▁probablement",
        -9.741186451986668
      ],
      [
        "O",
        -9.742405985960243
      ],
      [
        "­",
        -9.742831160946853
      ],
      [
        "▁locaux",
        -9.74344153279853
      ],
      [
        "▁crise",
        -9.74348794565969
      ],
      [
        "▁moitié",
        -9.744895211834592
      ],
      [
        "▁effectivement",
        -9.744980135325104
      ],
      [
        "▁bureau",
        -9.745514951874705
      ],
      [
        "▁régulièrement",
        -9.745616158453426
      ],
      [
        "▁Bonne",
        -9.746191216492107
      ],
      [
        "▁vérifier",
        -9.74765564837358
      ],
      [
        "▁démarche",
        -9.747733545470442
      ],
      [
        "▁blanc",
        -9.748446894757873
      ],
      [
        "▁trouverez",
        -9.749436968980353
      ],
      [
        "▁l’occasion",
        -9.749700071131326
      ],
      [
        "▁dispose",
        -9.750386574218563
      ],
      [
        "U",
        -9.75083551150254
      ],
      [
        "▁parc",
        -9.751191058193527
      ],
      [
        "▁suivantes",
        -9.751416233957208
      ],
      [
        "isation",
        -9.751541445431634
      ],
      [
        "▁moment,",
        -9.75236489653054
      ],
      [
        "▁Oh",
        -9.752448462062192
      ],
      [
        "▁courage",
        -9.752871365489318
      ],
      [
        "▁grave",
        -9.753462569913278
      ],
      [
        "mo",
        -9.754305296708399
      ],
      [
        "▁mauvaise",
        -9.754448305057632
      ],
      [
        "▁:)",
        -9.754978091622519
      ],
      [
        "▁visage",
        -9.755155534228566
      ],
      [
        "▁voudrais",
        -9.756437931072375
      ],
      [
        "▁fonctionne",
        -9.756784307831673
      ],
      [
        "▁types",
        -9.758248460560846
      ],
      [
        "▁réunion",
        -9.7599433970048
      ],
      [
        "▁cherche",
        -9.759985014514946
      ],
      [
        "▁double",
        -9.76016661610814
      ],
      [
        "▁moindre",
        -9.760410172316025
      ],
      [
        "▁Quelle",
        -9.76054198984344
      ],
      [
        "▁mètres",
        -9.760824017386767
      ],
      [
        "▁voire",
        -9.760885949211012
      ],
      [
        "▁remettre",
        -9.761317684285554
      ],
      [
        "▁tente",
        -9.761783643440737
      ],
      [
        "▁tient",
        -9.76274122117011
      ],
      [
        "Z",
        -9.763796976069145
      ],
      [
        "▁sélection",
        -9.76441692610873
      ],
      [
        "▁publics",
        -9.76487177298795
      ],
      [
        "▁N",
        -9.764979790636074
      ],
      [
        "▁vis",
        -9.765655121271461
      ],
      [
        "▁demain",
        -9.765714772477228
      ],
      [
        "▁généralement",
        -9.76608492896223
      ],
      [
        "▁n’",
        -9.766737202078357
      ],
      [
        "rais",
        -9.76727818165436
      ],
      [
        "urs",
        -9.76782832511294
      ],
      [
        "▁location",
        -9.76794527871943
      ],
      [
        "▁proximité",
        -9.768096230449387
      ],
      [
        "▁permettra",
        -9.768158456302722
      ],
      [
        "▁quant",
        -9.769548059628402
      ],
      [
        "do",
        -9.769856323384118
      ],
      [
        "▁Gouvernement",
        -9.77005797695255
      ],
      [
        "▁gaz",
        -9.770065076340554
      ],
      [
        "▁objectifs",
        -9.770665057054835
      ],
      [
        "▁séance",
        -9.77079325648695
      ],
      [
        "mi",
        -9.770991818027573
      ],
      [
        "▁publication",
        -9.771062395176408
      ],
      [
        "▁couple",
        -9.7716526558556
      ],
      [
        "▁goût",
        -9.772452013783294
      ],
      [
        "▁termes",
        -9.772651651458432
      ],
      [
        "▁sert",
        -9.772710761405536
      ],
      [
        "▁et/ou",
        -9.773030551082353
      ],
      [
        "▁soi",
        -9.773355308389927
      ],
      [
        "▁rencontrer",
        -9.77356914083095
      ],
      [
        "▁forces",
        -9.774128439561741
      ],
      [
        "▁g",
        -9.77423031766477
      ],
      [
        "▁intéressant",
        -9.774328787384626
      ],
      [
        "▁davantage",
        -9.774988884986376
      ],
      [
        "▁LE",
        -9.775913712081785
      ],
      [
        "▁décret",
        -9.776086250247753
      ],
      [
        "▁efficace",
        -9.776140870692682
      ],
      [
        "▁oublier",
        -9.778933583875208
      ],
      [
        "▁a-t-il",
        -9.779071516129548
      ],
      [
        "eurs",
        -9.779384555713493
      ],
      [
        "▁accord",
        -9.780371244726084
      ],
      [
        "▁Bon,",
        -9.780660687426318
      ],
      [
        "▁dix",
        -9.781638145372611
      ],
      [
        "▁ajouter",
        -9.781895186354383
      ],
      [
        "▁lui,",
        -9.782234103040535
      ],
      [
        "rie",
        -9.783459232026399
      ],
      [
        "▁médecin",
        -9.783469385280663
      ],
      [
        "▁crédit",
        -9.785515493913291
      ],
      [
        "▁tiens",
        -9.785666345383998
      ],
      [
        "▁directeur",
        -9.786321518200097
      ],
      [
        "▁quartier",
        -9.78652669552958
      ],
      [
        "▁tableau",
        -9.786801928631535
      ],
      [
        "go",
        -9.787085254988593
      ],
      [
        "▁Ainsi,",
        -9.788412359289463
      ],
      [
        "▁km",
        -9.790428635950084
      ],
      [
        "▁vie,",
        -9.79062987400158
      ],
      [
        "▁réduction",
        -9.790870853888887
      ],
      [
        "▁action",
        -9.79193794142802
      ],
      [
        "▁réception",
        -9.792187240646467
      ],
      [
        "▁difficultés",
        -9.792347669775916
      ],
      [
        "▁Encore",
        -9.793703150809359
      ],
      [
        "▁acheter",
        -9.793935860059166
      ],
      [
        "▁ceci",
        -9.79395833622386
      ],
      [
        "▁utile",
        -9.79426210450238
      ],
      [
        "▁village",
        -9.794697201534564
      ],
      [
        "8",
        -9.795054397138685
      ],
      [
        "▁second",
        -9.796054949864839
      ],
      [
        "▁tenter",
        -9.79608297682843
      ],
      [
        "▁commentaires",
        -9.798429588151883
      ],
      [
        "tant",
        -9.798854878523935
      ],
      [
        "▁participation",
        -9.799017965253203
      ],
      [
        "▁température",
        -9.800728059340265
      ],
      [
        "▁siècle",
        -9.801374402615357
      ],
      [
        "▁monde,",
        -9.801525009132297
      ],
      [
        "▁réalisé",
        -9.802884529873376
      ],
      [
        "▁relative",
        -9.803112785953363
      ],
      [
        "▁critères",
        -9.803441864470802
      ],
      [
        "▁combien",
        -9.804016190492497
      ],
      [
        "5",
        -9.804196535498729
      ],
      [
        "z-vous",
        -9.804430522589886
      ],
      [
        "eux",
        -9.805002498425274
      ],
      [
        "▁document",
        -9.806108167408617
      ],
      [
        "▁conséquences",
        -9.806174265903252
      ],
      [
        "▁Lire",
        -9.80657903738458
      ],
      [
        "gi",
        -9.808434804840228
      ],
      [
        "▁déclaration",
        -9.80964793682243
      ],
      [
        "▁moments",
        -9.809866170666606
      ],
      [
        "▁six",
        -9.81034078409752
      ],
      [
        "▁club",
        -9.811188893201628
      ],
      [
        "▁j’en",
        -9.811427764575857
      ],
      [
        "▁partout",
        -9.811481956688734
      ],
      [
        "▁verre",
        -9.812382928329484
      ],
      [
        "▁l'occasion",
        -9.813248546943502
      ],
      [
        "▁réellement",
        -9.813571393760897
      ],
      [
        "▁jours,",
        -9.815289412810284
      ],
      [
        "ème",
        -9.815321720109575
      ],
      [
        "▁année,",
        -9.81566918725551
      ],
      [
        "bi",
        -9.81586509654759
      ],
      [
        "▁réponses",
        -9.815885473099748
      ],
      [
        "▁condition",
        -9.816357013102559
      ],
      [
        "▁t'",
        -9.816541101119963
      ],
      [
        "▁mois,",
        -9.817293040275981
      ],
      [
        "▁quelqu’un",
        -9.817307970197948
      ],
      [
        "▁améliorer",
        -9.817731333234672
      ],
      [
        "▁comportement",
        -9.818816516356007
      ],
      [
        "▁Peut-être",
        -9.8201530864767
      ],
      [
        "▁stratégie",
        -9.82166955842997
      ],
      [
        "▁H",
        -9.821686492699502
      ],
      [
        "▁consulter",
        -9.821790624581542
      ],
      [
        "▁week-end",
        -9.822234733586093
      ],
      [
        "ment,",
        -9.822658420409878
      ],
      [
        "▁(je",
        -9.822720483894479
      ],
      [
        "▁représente",
        -9.823444096166995
      ],
      [
        "pi",
        -9.824423698312268
      ],
      [
        "▁Nos",
        -9.824780418587574
      ],
      [
        "▁tels",
        -9.825043161383135
      ],
      [
        "▁arrivé",
        -9.826424507914329
      ],
      [
        "▁Art.",
        -9.826646906314327
      ],
      [
        "▁salon",
        -9.827457588431914
      ],
      [
        "▁revenus",
        -9.827683844234784
      ],
      [
        "▁200",
        -9.829053157474677
      ],
      [
        "▁joueurs",
        -9.829250162452457
      ],
      [
        "▁sociétés",
        -9.830185621802713
      ],
      [
        "▁compagnie",
        -9.830259373506047
      ],
      [
        "▁section",
        -9.830443324255484
      ],
      [
        "▁touche",
        -9.831063580606909
      ],
      [
        "▁C'était",
        -9.831122389666518
      ],
      [
        "▁complète",
        -9.831174781370319
      ],
      [
        "no",
        -9.83134784092387
      ],
      [
        "▁appris",
        -9.831865480673141
      ],
      [
        "▁explique",
        -9.832526905775339
      ],
      [
        "▁@",
        -9.8325780245776
      ],
      [
        "▁somme",
        -9.832589235527156
      ],
      [
        "▁ministère",
        -9.832906028383096
      ],
      [
        "▁scène",
        -9.833173405602
      ],
      [
        "▁apporter",
        -9.833898142566145
      ],
      [
        "▁1.",
        -9.834366321890041
      ],
      [
        "▁parlé",
        -9.834428348079582
      ],
      [
        "▁naissance",
        -9.834484273301808
      ],
      [
        "▁préparation",
        -9.83496897582334
      ],
      [
        "▁exactement",
        -9.835072187214086
      ],
      [
        "▁structure",
        -9.835550136380652
      ],
      [
        "▁reprendre",
        -9.83626041633405
      ],
      [
        "▁bénéficier",
        -9.837317945096277
      ],
      [
        "s\"",
        -9.838739626567135
      ],
      [
        "▁modifier",
        -9.839314888644836
      ],
      [
        "▁intérêt",
        -9.8396806328577
      ],
      [
        "▁contexte",
        -9.840110937106939
      ],
      [
        "▁ailleurs",
        -9.840233914973291
      ],
      [
        "▁habitants",
        -9.841051001166507
      ],
      [
        "▁sac",
        -9.84109025396295
      ],
      [
        "▁proposition",
        -9.842833806502718
      ],
      [
        "▁500",
        -9.842907835767878
      ],
      [
        "▁pression",
        -9.843783729478249
      ],
      [
        "▁messages",
        -9.84381706483779
      ],
      [
        "am",
        -9.843849915480677
      ],
      [
        "▁test",
        -9.843865202606128
      ],
      [
        "▁sujets",
        -9.84407844576135
      ],
      [
        "▁étude",
        -9.844256095038784
      ],
      [
        "▁valeurs",
        -9.844733440745987
      ],
      [
        "▁Monsieur",
        -9.845915533119188
      ],
      [
        "▁piscine",
        -9.847394998068173
      ],
      [
        "▁convient",
        -9.84900250057239
      ],
      [
        "▁pourrais",
        -9.850250773670144
      ],
      [
        "▁joli",
        -9.85071009962413
      ],
      [
        "▁l'impression",
        -9.850841720782658
      ],
      [
        "▁affaires",
        -9.85152159947934
      ],
      [
        "▁personnages",
        -9.851874893150626
      ],
      [
        "isme",
        -9.852195846590718
      ],
      [
        "▁d'a",
        -9.852198807240564
      ],
      [
        "▁attendant",
        -9.852279072127008
      ],
      [
        "▁croissance",
        -9.852609287161531
      ],
      [
        "▁hier",
        -9.852858181458046
      ],
      [
        "▁fournir",
        -9.853091994307459
      ],
      [
        "▁milliards",
        -9.8533657052952
      ],
      [
        "▁l’aide",
        -9.855200528373608
      ],
      [
        "▁2.",
        -9.85523973188101
      ],
      [
        "▁ex",
        -9.855385905938855
      ],
      [
        "▁prends",
        -9.855433424438436
      ],
      [
        "▁divers",
        -9.856481439622218
      ],
      [
        "▁no",
        -9.857151209629983
      ],
      [
        "J",
        -9.857799163912254
      ],
      [
        "▁Cour",
        -9.85808244153776
      ],
      [
        "▁port",
        -9.85813921118719
      ],
      [
        "▁peuple",
        -9.859317600196274
      ],
      [
        "tra",
        -9.859416128213306
      ],
      [
        "▁calme",
        -9.859952477075923
      ],
      [
        "▁non,",
        -9.860015824231912
      ],
      [
        "des",
        -9.860577202131068
      ],
      [
        "▁préfère",
        -9.860659692544697
      ],
      [
        "▁jardin",
        -9.860727283076328
      ],
      [
        "▁acteurs",
        -9.861046274435637
      ],
      [
        "▁pire",
        -9.861963423217407
      ],
      [
        "mé",
        -9.862660366936336
      ],
      [
        "▁prises",
        -9.862714890430393
      ],
      [
        "▁j'espère",
        -9.863029230220885
      ],
      [
        "▁sympa",
        -9.86313890893353
      ],
      [
        "▁sûr,",
        -9.863610231972313
      ],
      [
        "▁image",
        -9.863984528174447
      ],
      [
        "▁véhicule",
        -9.864719414857564
      ],
      [
        "▁sentir",
        -9.864732443609102
      ],
      [
        "▁Ensuite",
        -9.864869954364396
      ],
      [
        "▁baisse",
        -9.866676791887087
      ],
      [
        "▁fasse",
        -9.86703729704277
      ],
      [
        "▁clairement",
        -9.867293322484155
      ],
      [
        "▁écrire",
        -9.86776553380344
      ],
      [
        "▁ciel",
        -9.867840165889444
      ],
      [
        "▁pré",
        -9.867998141531459
      ],
      [
        "▁Toutes",
        -9.868313784511322
      ],
      [
        "▁Rien",
        -9.870089988994543
      ],
      [
        "▁hauteur",
        -9.871149103883807
      ],
      [
        "▁80",
        -9.871617706106028
      ],
      [
        "7",
        -9.87297346078182
      ],
      [
        "▁rêve",
        -9.873588063157598
      ],
      [
        "▁fou",
        -9.874471260522311
      ],
      [
        "▁créé",
        -9.875361409382375
      ],
      [
        "▁Grand",
        -9.876256045799604
      ],
      [
        "▁con",
        -9.877996548330117
      ],
      [
        "▁laissé",
        -9.878610316095234
      ],
      [
        "▁étape",
        -9.878640085519297
      ],
      [
        "▁respecter",
        -9.878984787168456
      ],
      [
        "▁surface",
        -9.879039386122239
      ],
      [
        "▁ici,",
        -9.879844201252494
      ],
      [
        "▁tenue",
        -9.880122944787843
      ],
      [
        "▁2008",
        -9.880746965889063
      ],
      [
        "▁toutefois",
        -9.881142331718474
      ],
      [
        "▁vol",
        -9.881186641691329
      ],
      [
        "▁gamme",
        -9.88215306323686
      ],
      [
        "▁équipes",
        -9.882303517119194
      ],
      [
        "ton",
        -9.882431058151335
      ],
      [
        "▁Internet",
        -9.88298791905558
      ],
      [
        "▁n'importe",
        -9.883252126397977
      ],
      [
        "▁connaissances",
        -9.883414182630503
      ],
      [
        "▁vit",
        -9.883813066631074
      ],
      [
        "▁travaille",
        -9.88426914914589
      ],
      [
        "▁l'histoire",
        -9.885450803062053
      ],
      [
        "▁familles",
        -9.885927558813291
      ],
      [
        "▁l’histoire",
        -9.886622890900934
      ],
      [
        "▁répond",
        -9.888932467320595
      ],
      [
        "▁puissance",
        -9.888968121307869
      ],
      [
        "▁supérieur",
        -9.889104026552562
      ],
      [
        "▁possède",
        -9.890015174731639
      ],
      [
        "▁cela,",
        -9.890791204176674
      ],
      [
        "iste",
        -9.892001461762387
      ],
      [
        "▁pro",
        -9.892076918820973
      ],
      [
        "▁jolie",
        -9.8926896369777
      ],
      [
        "▁mariage",
        -9.892875585695009
      ],
      [
        "▁venu",
        -9.893061376920585
      ],
      [
        "▁tard,",
        -9.893345847888408
      ],
      [
        "▁vote",
        -9.893478906625141
      ],
      [
        "▁aurez",
        -9.894011351391146
      ],
      [
        "▁nouvel",
        -9.894017959150538
      ],
      [
        "▁contraire",
        -9.894442333823775
      ],
      [
        "▁ici.",
        -9.895818844827996
      ],
      [
        "ins",
        -9.896096645303254
      ],
      [
        "▁dispositif",
        -9.896188712201448
      ],
      [
        "(e)",
        -9.896647704587464
      ],
      [
        "°",
        -9.89679034676152
      ],
      [
        "▁oublié",
        -9.89698141576765
      ],
      [
        "▁serais",
        -9.897488949820328
      ],
      [
        "▁d’a",
        -9.897971088924951
      ],
      [
        "▁découvert",
        -9.899580154251538
      ],
      [
        "▁dés",
        -9.900569984944436
      ],
      [
        "▁propriété",
        -9.90090704760518
      ],
      [
        "▁offrir",
        -9.901347249924743
      ],
      [
        "▁détail",
        -9.90176692824421
      ],
      [
        "▁bébé",
        -9.902719250699036
      ],
      [
        "▁devenu",
        -9.902791679494626
      ],
      [
        "▁chaud",
        -9.905857737088228
      ],
      [
        "▁ça.",
        -9.906101658368955
      ],
      [
        "▁pensé",
        -9.906774548541254
      ],
      [
        "▁retraite",
        -9.906845420959698
      ],
      [
        "▁dommage",
        -9.907867260622211
      ],
      [
        "▁entièrement",
        -9.908492052965324
      ],
      [
        "10",
        -9.908625753315555
      ],
      [
        "▁rythme",
        -9.909102746661539
      ],
      [
        "▁machine",
        -9.909664265813856
      ],
      [
        "▁recours",
        -9.909850400732317
      ],
      [
        "è",
        -9.910035527357511
      ],
      [
        "▁&",
        -9.910714988016299
      ],
      [
        "▁Bonjour,",
        -9.910838952422292
      ],
      [
        "▁vraie",
        -9.911250098498815
      ],
      [
        "▁fruits",
        -9.911987390221245
      ],
      [
        "▁appartement",
        -9.912499829967022
      ],
      [
        "▁plage",
        -9.912887041454262
      ],
      [
        "▁proposé",
        -9.913190945708655
      ],
      [
        "du",
        -9.913666472316015
      ],
      [
        "▁guide",
        -9.913704309877456
      ],
      [
        "ser",
        -9.913781473613382
      ],
      [
        "▁chocolat",
        -9.914283436714445
      ],
      [
        ".fr",
        -9.914423797684854
      ],
      [
        "▁aussi,",
        -9.914462341118213
      ],
      [
        "▁post",
        -9.914581116761898
      ],
      [
        "va",
        -9.916711282737444
      ],
      [
        "▁règle",
        -9.916822226430842
      ],
      [
        "▁😉",
        -9.918278540642657
      ],
      [
        "▁tiers",
        -9.91851417422858
      ],
      [
        "▁établissements",
        -9.918701338760409
      ],
      [
        "▁catégorie",
        -9.918735932765058
      ],
      [
        "▁frère",
        -9.919186118086486
      ],
      [
        "▁vérité",
        -9.919367860141124
      ],
      [
        "▁normal",
        -9.919374065760103
      ],
      [
        "▁d’abord",
        -9.919385027292057
      ],
      [
        "▁ailleurs,",
        -9.920588755052888
      ],
      [
        "▁café",
        -9.92249702354697
      ],
      [
        "▁moteur",
        -9.922518814580222
      ],
      [
        "ure",
        -9.92346319414808
      ],
      [
        "▁financement",
        -9.924783316016764
      ],
      [
        "▁quotidien",
        -9.924897932605699
      ],
      [
        "▁combat",
        -9.927276010748148
      ],
      [
        "▁remise",
        -9.927899977726838
      ],
      [
        "▁étudiants",
        -9.92893027419006
      ],
      [
        "▁contente",
        -9.929307797717229
      ],
      [
        "▁communes",
        -9.929611322506133
      ],
      [
        "▁largement",
        -9.930142645489077
      ],
      [
        "iez",
        -9.93140463953658
      ],
      [
        "▁naturel",
        -9.931449556296737
      ],
      [
        "▁dépend",
        -9.931699753902771
      ],
      [
        "▁défense",
        -9.931713170774533
      ],
      [
        "▁formulaire",
        -9.932779046083319
      ],
      [
        "▁sport",
        -9.932938888292533
      ],
      [
        "▁travail,",
        -9.93298248003676
      ],
      [
        "▁cadeau",
        -9.933703750941405
      ],
      [
        "▁d’eau",
        -9.935169803243536
      ],
      [
        "▁--",
        -9.936512121023796
      ],
      [
        "▁intérêts",
        -9.936770191832371
      ],
      [
        "▁confort",
        -9.937134878962652
      ],
      [
        "▁sentiment",
        -9.937388420017863
      ],
      [
        "une",
        -9.937444031902455
      ],
      [
        "▁tôt",
        -9.937541053449861
      ],
      [
        "▁modèles",
        -9.938466193041847
      ],
      [
        "ier",
        -9.939130336235142
      ],
      [
        "▁là.",
        -9.939209049895128
      ],
      [
        "ère",
        -9.939504770451736
      ],
      [
        "▁viennent",
        -9.939586930303866
      ],
      [
        "▁devra",
        -9.93994878428922
      ],
      [
        "▁p",
        -9.940023903468333
      ],
      [
        "▁complet",
        -9.940494199803531
      ],
      [
        "▁tombe",
        -9.940700754863212
      ],
      [
        "ux",
        -9.941621136613024
      ],
      [
        "▁70",
        -9.941972981288892
      ],
      [
        "▁semblait",
        -9.942141204514172
      ],
      [
        "▁parfait",
        -9.942574556461672
      ],
      [
        "▁changé",
        -9.943495478020804
      ],
      [
        "▁2011",
        -9.943933433917511
      ],
      [
        "▁malheureusement",
        -9.944563298226647
      ],
      [
        "▁autorités",
        -9.94497785898578
      ],
      [
        "▁d'abord",
        -9.945416407429377
      ],
      [
        "▁signifie",
        -9.945487650964225
      ],
      [
        "▁d'eau",
        -9.945740058404407
      ],
      [
        "èrent",
        -9.94617396867105
      ],
      [
        "▁esprit",
        -9.946917312349665
      ],
      [
        "▁ci",
        -9.947848526122954
      ],
      [
        "ph",
        -9.948700131335379
      ],
      [
        "▁Certains",
        -9.948892172265534
      ],
      [
        "▁mois.",
        -9.949010159936616
      ],
      [
        "▁essayé",
        -9.950319868718225
      ],
      [
        "▁pourront",
        -9.950754128444347
      ],
      [
        "▁commentaire",
        -9.950760370328691
      ],
      [
        "▁idéal",
        -9.950882259621158
      ],
      [
        "▁froid",
        -9.951138293587213
      ],
      [
        "▁cour",
        -9.951178132686442
      ],
      [
        "▁relatif",
        -9.951731292522112
      ],
      [
        "▁roman",
        -9.951846127952063
      ],
      [
        "▁défaut",
        -9.951847865783478
      ],
      [
        "▁É",
        -9.95211456060838
      ],
      [
        "▁phase",
        -9.95286149324097
      ],
      [
        "▁fiche",
        -9.953053817929648
      ],
      [
        "▁Ta",
        -9.954137227117375
      ],
      [
        "▁d'autre",
        -9.955401224904392
      ],
      [
        "▁suivants",
        -9.955532398187163
      ],
      [
        "▁réflexion",
        -9.9558763911682
      ],
      [
        "▁statut",
        -9.95780946693369
      ],
      [
        "▁maman",
        -9.958085879978665
      ],
      [
        "▁correspond",
        -9.959339440097912
      ],
      [
        "▁recherches",
        -9.959897853636232
      ],
      [
        "▁savait",
        -9.960294728397287
      ],
      [
        "▁distance",
        -9.960722874797103
      ],
      [
        "▁suivante",
        -9.960942060138096
      ],
      [
        "▁avais",
        -9.961179208273546
      ],
      [
        "▁faute",
        -9.961418023012872
      ],
      [
        "▁lui.",
        -9.963641677742254
      ],
      [
        "▁tester",
        -9.964531630292072
      ],
      [
        "▁Dé",
        -9.964757826180097
      ],
      [
        "▁ouverte",
        -9.965233467390117
      ],
      [
        "▁remercie",
        -9.966896325047118
      ],
      [
        "▁surprise",
        -9.967239323258788
      ],
      [
        "▁Ben",
        -9.967239551992026
      ],
      [
        "▁qu’elles",
        -9.967307150723816
      ],
      [
        "▁fonctions",
        -9.967382335178268
      ],
      [
        "▁coup,",
        -9.968093396457853
      ],
      [
        "▁victimes",
        -9.968254683287075
      ],
      [
        "▁lignes",
        -9.96857616726841
      ],
      [
        "▁humain",
        -9.969147827411511
      ],
      [
        "ga",
        -9.969539596907403
      ],
      [
        "▁rejoindre",
        -9.970515712865758
      ],
      [
        "▁quantité",
        -9.970553076490607
      ],
      [
        "▁monter",
        -9.97087309080298
      ],
      [
        "▁opérations",
        -9.971704240012427
      ],
      [
        "▁revient",
        -9.971724588367817
      ],
      [
        "▁sociales",
        -9.973292183374483
      ],
      [
        "▁course",
        -9.9748859561155
      ],
      [
        "▁cartes",
        -9.975016099499257
      ],
      [
        "▁l’ai",
        -9.975020204999705
      ],
      [
        "▁Mes",
        -9.976872071050142
      ],
      [
        "▁35",
        -9.977307920361216
      ],
      [
        "▁conseiller",
        -9.977400497107634
      ],
      [
        "▁futur",
        -9.97767054672088
      ],
      [
        "ard",
        -9.978275590474587
      ],
      [
        "▁Centre",
        -9.978990629121865
      ],
      [
        "Y",
        -9.979945537541866
      ],
      [
        "▁prévue",
        -9.980160367616262
      ],
      [
        "0",
        -9.980666873390568
      ],
      [
        "▁relatives",
        -9.981290172245764
      ],
      [
        "▁Toute",
        -9.981433698779476
      ],
      [
        "▁diverses",
        -9.981786191604826
      ],
      [
        "▁l’objet",
        -9.983866310225823
      ],
      [
        "▁savais",
        -9.9842198323502
      ],
      [
        "▁garantie",
        -9.984441391822605
      ],
      [
        "▁bain",
        -9.984709087924827
      ],
      [
        "▁télé",
        -9.985114788054217
      ],
      [
        "▁fit",
        -9.987001785944145
      ],
      [
        "ées",
        -9.987239784536014
      ],
      [
        "▁l'heure",
        -9.987353743689226
      ],
      [
        "▁propriétaire",
        -9.98738061412258
      ],
      [
        "▁2010",
        -9.987459434050255
      ],
      [
        "▁décisions",
        -9.987632455626763
      ],
      [
        "▁beaux",
        -9.988467966749724
      ],
      [
        "▁logiciel",
        -9.989106099879002
      ],
      [
        "▁suit",
        -9.99012115973946
      ],
      [
        "▁restaurant",
        -9.992517155740261
      ],
      [
        "ance",
        -9.992744037722446
      ],
      [
        "▁air",
        -9.9928225248585
      ],
      [
        "▁élections",
        -9.99339039870565
      ],
      [
        "▁soir,",
        -9.993932759419048
      ],
      [
        "▁textes",
        -9.994164482288713
      ],
      [
        "gu",
        -9.994882447239618
      ],
      [
        "▁ET",
        -9.995134076715802
      ],
      [
        "▁boutique",
        -9.996032523715261
      ],
      [
        "▁bon,",
        -9.996047689492983
      ],
      [
        "ion",
        -9.996526980075993
      ],
      [
        "▁portes",
        -9.997364897105026
      ],
      [
        "▁Dè",
        -9.997481349889977
      ],
      [
        "▁n’avait",
        -9.997723180640735
      ],
      [
        "▁domaines",
        -9.998243481749526
      ],
      [
        "mer",
        -9.998434844653556
      ],
      [
        "▁vécu",
        -9.998842697206996
      ],
      [
        "if",
        -9.999708199776563
      ],
      [
        "▁sent",
        -9.99973015921988
      ],
      [
        "▁l'homme",
        -9.999815341443725
      ],
      [
        "▁demandes",
        -9.999815764669771
      ],
      [
        "▁(1)",
        -9.999964405934739
      ],
      [
        "20",
        -10.000406762481619
      ],
      [
        "▁mondiale",
        -10.002192372511345
      ],
      [
        "▁citoyens",
        -10.00223471323926
      ],
      [
        "▁discussion",
        -10.002541800817419
      ],
      [
        "ver",
        -10.002769051683504
      ],
      [
        "▁européen",
        -10.003943302085688
      ],
      [
        "▁lois",
        -10.004133578889567
      ],
      [
        "▁rentrer",
        -10.004567524955117
      ],
      [
        "▁zones",
        -10.004829080463983
      ],
      [
        "op",
        -10.004876101999223
      ],
      [
        "▁joie",
        -10.005701111572865
      ],
      [
        "▁jusqu'au",
        -10.007060875584703
      ],
      [
        "▁....",
        -10.00709772521874
      ],
      [
        "▁modalités",
        -10.007167036682922
      ],
      [
        "▁Enfin",
        -10.007413480585278
      ],
      [
        "▁J'espère",
        -10.007523197906524
      ],
      [
        "▁publié",
        -10.008212490911852
      ],
      [
        "▁jours.",
        -10.009404566050815
      ],
      [
        "▁riche",
        -10.010572850788467
      ],
      [
        "▁nomination",
        -10.010907817753404
      ],
      [
        "▁mémoire",
        -10.011095500460605
      ],
      [
        "▁atteindre",
        -10.012192709904383
      ],
      [
        "▁construire",
        -10.012269381806618
      ],
      [
        "▁Bref,",
        -10.012680866285159
      ],
      [
        "▁pouvant",
        -10.012831397645673
      ],
      [
        "▁mari",
        -10.013213304297508
      ],
      [
        "▁dit,",
        -10.01348254929081
      ],
      [
        "▁médias",
        -10.013884678991502
      ],
      [
        "▁figure",
        -10.013898852970973
      ],
      [
        "▁Alors,",
        -10.015532834256108
      ],
      [
        "▁pensais",
        -10.016068804956447
      ],
      [
        "▁associations",
        -10.016893946627835
      ],
      [
        "▁Français",
        -10.016976115043185
      ],
      [
        "▁b",
        -10.01764249796037
      ],
      [
        "▁domicile",
        -10.017834277408607
      ],
      [
        "▁comptes",
        -10.018125788280113
      ],
      [
        "▁Lors",
        -10.018368180318166
      ],
      [
        "▁principal",
        -10.019098235078197
      ],
      [
        "▁travail.",
        -10.020961903401524
      ],
      [
        "▁souci",
        -10.021177186633913
      ],
      [
        "vo",
        -10.021599267089014
      ],
      [
        "▁mets",
        -10.022026333357472
      ],
      [
        "▁Quant",
        -10.022774152052115
      ],
      [
        "▁salariés",
        -10.0232052334107
      ],
      [
        "▁arrêté",
        -10.02332635867213
      ],
      [
        "▁beauté",
        -10.02426499265433
      ],
      [
        "ise",
        -10.025502814624467
      ],
      [
        "▁approche",
        -10.026847266522925
      ],
      [
        "▁bilan",
        -10.027360339269947
      ],
      [
        "▁acheté",
        -10.027991346135874
      ],
      [
        "▁Président",
        -10.029375988109685
      ],
      [
        "▁mises",
        -10.029584320871887
      ],
      [
        "▁co",
        -10.029908285788043
      ],
      [
        "▁critique",
        -10.030000562826533
      ],
      [
        "▁numérique",
        -10.030718244484202
      ],
      [
        "▁participants",
        -10.031591372018797
      ],
      [
        "▁matin,",
        -10.031728746230883
      ],
      [
        "▁réforme",
        -10.031856653351934
      ],
      [
        "▁http://www.",
        -10.032145648988728
      ],
      [
        "▁paix",
        -10.032398017140839
      ],
      [
        "▁édition",
        -10.03244701506967
      ],
      [
        "▁jour.",
        -10.03263496043109
      ],
      [
        "▁Z",
        -10.032702867160546
      ],
      [
        "▁logique",
        -10.033206641472166
      ],
      [
        "▁recettes",
        -10.03451210956328
      ],
      [
        "▁est-il",
        -10.035003275334452
      ],
      [
        "▁ferme",
        -10.036374714789027
      ],
      [
        "▁seraient",
        -10.036564025751861
      ],
      [
        "▁dépenses",
        -10.037282289878643
      ],
      [
        "▁profit",
        -10.037967374190366
      ],
      [
        "▁privé",
        -10.038257524153689
      ],
      [
        "nant",
        -10.038665417137464
      ],
      [
        "▁justement",
        -10.039215729136238
      ],
      [
        "▁direct",
        -10.039700449931345
      ],
      [
        "▁St",
        -10.040002380272986
      ],
      [
        "(s)",
        -10.040893699288034
      ],
      [
        "▁grosse",
        -10.04192720612058
      ],
      [
        "▁consiste",
        -10.04228713579148
      ],
      [
        "▁systèmes",
        -10.04294525389555
      ],
      [
        "▁contre,",
        -10.043176947523044
      ],
      [
        "▁entendre",
        -10.043687321202881
      ],
      [
        "▁lesquels",
        -10.043927174153982
      ],
      [
        "ic",
        -10.044158957338686
      ],
      [
        "▁outil",
        -10.044593126140438
      ],
      [
        "▁département",
        -10.044863253354348
      ],
      [
        "▁villes",
        -10.044914943821475
      ],
      [
        "▁humains",
        -10.044942433123618
      ],
      [
        "▁niveaux",
        -10.045804507182806
      ],
      [
        "▁Mme",
        -10.046911513396209
      ],
      [
        "00",
        -10.047290514269179
      ],
      [
        "▁jugement",
        -10.047329575750382
      ],
      [
        "▁répondu",
        -10.048630290440995
      ],
      [
        "▁véhicules",
        -10.048824376634181
      ],
      [
        "▁sérieux",
        -10.04902504841705
      ],
      [
        "▁champ",
        -10.049068461008078
      ],
      [
        "▁immédiatement",
        -10.049368389380982
      ],
      [
        "▁top",
        -10.049428318451362
      ],
      [
        "▁C’était",
        -10.049445973318026
      ],
      [
        "▁autres,",
        -10.049461672054274
      ],
      [
        "ine",
        -10.049570079152069
      ],
      [
        "▁ben",
        -10.050447976253894
      ],
      [
        "▁chargé",
        -10.050585844908905
      ],
      [
        "▁2009",
        -10.05068253458446
      ],
      [
        "▁renseignements",
        -10.05083469273827
      ],
      [
        "mm",
        -10.05115380427722
      ],
      [
        "▁technologie",
        -10.051580233755725
      ],
      [
        "▁chat",
        -10.052156068175847
      ],
      [
        "▁marques",
        -10.05277853741027
      ],
      [
        "▁rentrée",
        -10.052892665377659
      ],
      [
        "▁l'idée",
        -10.053061045462876
      ],
      [
        "▁chaleur",
        -10.053663077779067
      ],
      [
        "▁telles",
        -10.053731128512597
      ],
      [
        "▁avions",
        -10.053876159521524
      ],
      [
        "▁revoir",
        -10.054414281264151
      ],
      [
        "po",
        -10.055067245992475
      ],
      [
        "tes",
        -10.055393951903676
      ],
      [
        "▁humaine",
        -10.056027427976439
      ],
      [
        "ette",
        -10.05808197833845
      ],
      [
        "▁tribunal",
        -10.058231062651595
      ],
      [
        "▁conformément",
        -10.05826184955368
      ],
      [
        "▁retourner",
        -10.058399448245133
      ],
      [
        "▁Faire",
        -10.058626916742952
      ],
      [
        "▁objets",
        -10.058750394656833
      ],
      [
        "É",
        -10.059221045834661
      ],
      [
        "▁utilisateurs",
        -10.060232549202857
      ],
      [
        "▁stage",
        -10.060614603180696
      ],
      [
        "ive",
        -10.060633164654803
      ],
      [
        "▁milliers",
        -10.060665813134992
      ],
      [
        "▁vin",
        -10.061291097566654
      ],
      [
        "▁Ses",
        -10.061749410011483
      ],
      [
        "▁siège",
        -10.061775499126004
      ],
      [
        "▁paragraphe",
        -10.06311758384932
      ],
      [
        "▁j’",
        -10.063877337340026
      ],
      [
        "▁visiter",
        -10.063914666623921
      ],
      [
        "▁l’homme",
        -10.064108139529807
      ],
      [
        "▁Mo",
        -10.064159689187306
      ],
      [
        "▁noter",
        -10.064279401817846
      ],
      [
        "▁changements",
        -10.064284866594537
      ],
      [
        "▁programmes",
        -10.064758086385535
      ],
      [
        "▁jusqu’au",
        -10.065097566578707
      ],
      [
        "▁www.",
        -10.066552162494656
      ],
      [
        "▁années,",
        -10.066582309085302
      ],
      [
        "▁chiffre",
        -10.066688797678088
      ],
      [
        "▁élus",
        -10.06812196997533
      ],
      [
        "▁lui-même",
        -10.068616406405779
      ],
      [
        "▁formes",
        -10.0687005200611
      ],
      [
        "▁discours",
        -10.068805867749221
      ],
      [
        "▁l’ordre",
        -10.068818397199493
      ],
      [
        "▁l’A",
        -10.06901044246463
      ],
      [
        "▁seuls",
        -10.069127304174327
      ],
      [
        "▁l'équipe",
        -10.069425286901737
      ],
      [
        "▁dur",
        -10.069996104687855
      ],
      [
        "▁l’état",
        -10.070160350159433
      ],
      [
        "▁ci-dessous",
        -10.070922278011304
      ],
      [
        "▁billet",
        -10.071435130819003
      ],
      [
        "▁Google",
        -10.071457099848057
      ],
      [
        "▁l'aide",
        -10.071923452476081
      ],
      [
        "▁serez",
        -10.07214940241487
      ],
      [
        "per",
        -10.072565235067735
      ],
      [
        "K",
        -10.072904776135688
      ],
      [
        "▁internationale",
        -10.073310110019735
      ],
      [
        "▁j’étais",
        -10.07407691497589
      ],
      [
        "▁Pend",
        -10.074500918791042
      ],
      [
        "▁autres.",
        -10.07505579290908
      ],
      [
        "▁Eh",
        -10.075953863876691
      ],
      [
        "val",
        -10.07617391259065
      ],
      [
        "▁l’utilisation",
        -10.076844848921361
      ],
      [
        "▁bruit",
        -10.076871833456785
      ],
      [
        "50",
        -10.078161991783912
      ],
      [
        "▁totale",
        -10.08084402365595
      ],
      [
        "▁d'aller",
        -10.080850624294236
      ],
      [
        "▁passant",
        -10.081219009127636
      ],
      [
        "▁(C",
        -10.082737815643345
      ],
      [
        "▁passion",
        -10.082845664884486
      ],
      [
        "▁réel",
        -10.083471710196621
      ],
      [
        "▁cinéma",
        -10.085134130939649
      ],
      [
        "▁coups",
        -10.085147016917889
      ],
      [
        "▁déclaré",
        -10.085207590379497
      ],
      [
        "▁inter",
        -10.085261046800436
      ],
      [
        "▁rare",
        -10.085393498075732
      ],
      [
        "▁tourner",
        -10.085846939630871
      ],
      [
        "W",
        -10.086395180228866
      ],
      [
        "▁format",
        -10.08647386111332
      ],
      [
        "▁prévues",
        -10.086757716998793
      ],
      [
        "▁Al",
        -10.086844661985172
      ],
      [
        "▁revenu",
        -10.087196434609561
      ],
      [
        "▁venait",
        -10.087553272090638
      ],
      [
        "▁utilisés",
        -10.088688512366028
      ],
      [
        "▁étapes",
        -10.088701872359142
      ],
      [
        "▁France.",
        -10.089045858038553
      ],
      [
        "▁financière",
        -10.089066678488088
      ],
      [
        "▁excellent",
        -10.089103365223139
      ],
      [
        "▁fan",
        -10.08972997229931
      ],
      [
        "▁s'y",
        -10.090480209210288
      ],
      [
        "▁principalement",
        -10.090722400182377
      ],
      [
        "▁l’heure",
        -10.091373328636834
      ],
      [
        "▁présenté",
        -10.091374142297783
      ],
      [
        "▁mélange",
        -10.092685930977417
      ],
      [
        "▁bel",
        -10.09308018953221
      ],
      [
        "▁garçon",
        -10.093337060982176
      ],
      [
        "▁envoyé",
        -10.093571689325962
      ],
      [
        "▁annonce",
        -10.093616747698256
      ],
      [
        "▁>",
        -10.093743503256409
      ],
      [
        "X",
        -10.093857096271435
      ],
      [
        "▁Co",
        -10.094037665671827
      ],
      [
        "▁remplir",
        -10.094110727526044
      ],
      [
        "▁maître",
        -10.094316142881006
      ],
      [
        "▁occasion",
        -10.094419150314224
      ],
      [
        "▁dire,",
        -10.095135871835168
      ],
      [
        "▁plantes",
        -10.095383971260947
      ],
      [
        "ssant",
        -10.095682004784885
      ],
      [
        "▁faveur",
        -10.096954222645776
      ],
      [
        "»,",
        -10.097036021311983
      ],
      [
        "▁Deux",
        -10.097296783553286
      ],
      [
        "▁métier",
        -10.09736941359742
      ],
      [
        "▁sûre",
        -10.09744265229702
      ],
      [
        "▁envers",
        -10.09782419381298
      ],
      [
        "▁fenêtre",
        -10.09792105551859
      ],
      [
        "▁Ha",
        -10.098010946414826
      ],
      [
        "▁crème",
        -10.098406847991239
      ],
      [
        "▁vendre",
        -10.098416928429499
      ],
      [
        "▁concept",
        -10.098808344286685
      ],
      [
        "ateur",
        -10.099108453158568
      ],
      [
        "▁d’accord",
        -10.099188232188201
      ],
      [
        "▁situations",
        -10.09964088699613
      ],
      [
        "▁masse",
        -10.09986342548908
      ],
      [
        "▁retard",
        -10.099921595652347
      ],
      [
        "▁rappeler",
        -10.100198503566325
      ],
      [
        "▁45",
        -10.100788756702997
      ],
      [
        "▁content",
        -10.100816475727623
      ],
      [
        "▁possible.",
        -10.101147069583796
      ],
      [
        "▁d'entre",
        -10.101343545358276
      ],
      [
        "▁tuer",
        -10.102347210238769
      ],
      [
        "▁expliquer",
        -10.102738700028254
      ],
      [
        "▁rire",
        -10.103570278927796
      ],
      [
        "euse",
        -10.105006640768854
      ],
      [
        "▁Ceci",
        -10.105259001995133
      ],
      [
        "▁atteint",
        -10.105561887557133
      ],
      [
        "▁discuter",
        -10.105569601510869
      ],
      [
        "▁thé",
        -10.10566992022779
      ],
      [
        "▁envoyer",
        -10.106381931236164
      ],
      [
        "▁liés",
        -10.106830062128566
      ],
      [
        "▁ouvrir",
        -10.107429474812427
      ],
      [
        "▁mur",
        -10.107587912862067
      ],
      [
        "▁avantages",
        -10.108222037580834
      ],
      [
        "▁réussite",
        -10.109353345624529
      ],
      [
        "▁actes",
        -10.109890044049962
      ],
      [
        "▁bio",
        -10.10989226850953
      ],
      [
        "▁portée",
        -10.110399396062267
      ],
      [
        "▁prestations",
        -10.110727196242436
      ],
      [
        "▁traiter",
        -10.110775141059293
      ],
      [
        "▁victime",
        -10.111407723010867
      ],
      [
        "▁suffisamment",
        -10.111496199665122
      ],
      [
        "▁l'une",
        -10.113138064707671
      ],
      [
        "ha",
        -10.11329199278332
      ],
      [
        "▁présents",
        -10.114532495672819
      ],
      [
        "▁objet",
        -10.114533917673047
      ],
      [
        "▁indiqué",
        -10.11645664554134
      ],
      [
        "▁affaire",
        -10.118441579962589
      ],
      [
        "▁arrivée",
        -10.11878570677791
      ],
      [
        "▁lesquelles",
        -10.119219938081415
      ],
      [
        "▁banque",
        -10.119660424099871
      ],
      [
        "▁restent",
        -10.12114827082868
      ],
      [
        "▁mérite",
        -10.122870076435476
      ],
      [
        "▁défi",
        -10.123958087511932
      ],
      [
        "▁collection",
        -10.124756494653813
      ],
      [
        "▁fichier",
        -10.124790497859628
      ],
      [
        "▁mandat",
        -10.124817502617319
      ],
      [
        "▁l’une",
        -10.124846784824564
      ],
      [
        "▁supplémentaires",
        -10.124850219815642
      ],
      [
        "▁légèrement",
        -10.1249349141786
      ],
      [
        "s)",
        -10.12539235053517
      ],
      [
        "▁tirer",
        -10.125572104181948
      ],
      [
        "▁auront",
        -10.1257793906658
      ],
      [
        "▁neuf",
        -10.126621047313616
      ],
      [
        "rons",
        -10.12728651499538
      ],
      [
        "▁Web",
        -10.127555753758063
      ],
      [
        "▁au-delà",
        -10.128689913406067
      ],
      [
        "▁cancer",
        -10.12906007538351
      ],
      [
        "▁utilisation",
        -10.130320620864271
      ],
      [
        "15",
        -10.130394825626556
      ],
      [
        "▁devraient",
        -10.130591991566316
      ],
      [
        "▁support",
        -10.130972034954503
      ],
      [
        "▁bâtiment",
        -10.131495723071197
      ],
      [
        "▁l’intérieur",
        -10.131633912591719
      ],
      [
        "▁disant",
        -10.132039771930668
      ],
      [
        "▁Saint",
        -10.132971641852025
      ],
      [
        "▁coté",
        -10.133485230631498
      ],
      [
        "▁principes",
        -10.133567005025132
      ],
      [
        "▁Ré",
        -10.134394152372483
      ],
      [
        "▁Code",
        -10.134727220894842
      ],
      [
        "▁neige",
        -10.134910424047785
      ],
      [
        "▁patients",
        -10.134966797417405
      ],
      [
        "▁Nord",
        -10.135726200823942
      ],
      [
        "▁films",
        -10.136332988038149
      ],
      [
        "▁d’entre",
        -10.136845426739637
      ],
      [
        "▁événements",
        -10.137170478429823
      ],
      [
        "▁DU",
        -10.137436504925383
      ],
      [
        "▁information",
        -10.137986398966884
      ],
      [
        "gue",
        -10.138197961544869
      ],
      [
        "▁patrimoine",
        -10.139028637574608
      ],
      [
        "▁secret",
        -10.139297187131278
      ],
      [
        "▁souvenir",
        -10.14001222577745
      ],
      [
        "▁clé",
        -10.140773252720756
      ],
      [
        "▁four",
        -10.140787150963671
      ],
      [
        "▁vidéos",
        -10.140811947049816
      ],
      [
        "▁entrer",
        -10.141024063609612
      ],
      [
        "▁cm",
        -10.141412779672441
      ],
      [
        "▁bouton",
        -10.141500271974568
      ],
      [
        "▁e-mail",
        -10.141554917941288
      ],
      [
        "▁accessible",
        -10.142032592366732
      ],
      [
        "▁journal",
        -10.14286045239225
      ],
      [
        "▁conseille",
        -10.143529309393955
      ],
      [
        "▁fixe",
        -10.144002292515044
      ],
      [
        "▁réfléchir",
        -10.145273866904446
      ],
      [
        "▁collectivités",
        -10.146025846688008
      ],
      [
        "▁s’y",
        -10.146377620243552
      ],
      [
        "▁final",
        -10.148090201224214
      ],
      [
        "▁chapitre",
        -10.148187185212397
      ],
      [
        "▁chaîne",
        -10.148404735016516
      ],
      [
        "▁comité",
        -10.148570431513754
      ],
      [
        "▁juridique",
        -10.149035804014613
      ],
      [
        "▁analyse",
        -10.14927796207742
      ],
      [
        "▁moment.",
        -10.149345884820907
      ],
      [
        "▁candidats",
        -10.149662617924623
      ],
      [
        "▁commercial",
        -10.149772580389799
      ],
      [
        "▁certes",
        -10.150086317151093
      ],
      [
        "ke",
        -10.150141134757895
      ],
      [
        "▁communiquer",
        -10.150648991420175
      ],
      [
        "▁quitter",
        -10.150969487564637
      ],
      [
        "▁superbe",
        -10.151503716412677
      ],
      [
        "▁emploi",
        -10.15174054534216
      ],
      [
        "▁proches",
        -10.152103653890194
      ],
      [
        "▁annoncé",
        -10.152150144943914
      ],
      [
        "▁rien.",
        -10.15242988032691
      ],
      [
        "▁2000",
        -10.152474880058378
      ],
      [
        "▁heureuse",
        -10.15357037988865
      ],
      [
        "▁partis",
        -10.155786956470312
      ],
      [
        "▁l’entreprise",
        -10.156170339678855
      ],
      [
        "▁trucs",
        -10.156257889007172
      ],
      [
        "▁!)",
        -10.15664436684802
      ],
      [
        "▁sûrement",
        -10.156738876335675
      ],
      [
        "▁présentes",
        -10.157369509418277
      ],
      [
        "▁convention",
        -10.158066831557786
      ],
      [
        "▁sources",
        -10.15899253210757
      ],
      [
        "ient",
        -10.160191650692312
      ],
      [
        "▁300",
        -10.161149600953301
      ],
      [
        "▁magasin",
        -10.161513254961926
      ],
      [
        "▁conception",
        -10.161700356327959
      ],
      [
        "▁au-dessus",
        -10.162072165354669
      ],
      [
        "▁classique",
        -10.163057176574396
      ],
      [
        "▁bande",
        -10.16325905258991
      ],
      [
        "▁décide",
        -10.16330572352917
      ],
      [
        "▁parole",
        -10.163884801592975
      ],
      [
        "▁qu'elles",
        -10.164542382703328
      ],
      [
        "tal",
        -10.165070447050631
      ],
      [
        "mb",
        -10.165471592564998
      ],
      [
        "▁plat",
        -10.16597013053392
      ],
      [
        "▁historique",
        -10.166023912730958
      ],
      [
        "▁Malgré",
        -10.16608370368526
      ],
      [
        "▁courrier",
        -10.166115769082763
      ],
      [
        "▁international",
        -10.16669638088581
      ],
      [
        "▁savent",
        -10.16731282188837
      ],
      [
        "▁lance",
        -10.16747861581683
      ],
      [
        "▁(le",
        -10.167509043712403
      ],
      [
        "▁bleu",
        -10.16799553375074
      ],
      [
        "▁maintenir",
        -10.168949886639956
      ],
      [
        "▁déjeuner",
        -10.169158865801219
      ],
      [
        "▁attend",
        -10.169716861710576
      ],
      [
        "▁fer",
        -10.169940968006964
      ],
      [
        "▁privée",
        -10.170297067471996
      ],
      [
        "▁n'avais",
        -10.170474790103125
      ],
      [
        "▁m’en",
        -10.170945335795341
      ],
      [
        "▁pensez",
        -10.171498871229021
      ],
      [
        "▁enfants,",
        -10.171970230759744
      ],
      [
        "▁évident",
        -10.172486308991006
      ],
      [
        "▁faux",
        -10.172875057850954
      ],
      [
        "▁Quelques",
        -10.17313528689149
      ],
      [
        "▁oeuvre",
        -10.173189954544455
      ],
      [
        "▁récupérer",
        -10.173383064420365
      ],
      [
        "▁organisation",
        -10.173958557534053
      ],
      [
        "▁Grâce",
        -10.174470663751016
      ],
      [
        "▁l’association",
        -10.174872295435794
      ],
      [
        "▁inscrit",
        -10.17493988260512
      ],
      [
        "ka",
        -10.175224590102243
      ],
      [
        "▁chiffres",
        -10.175625821497771
      ],
      [
        "▁délais",
        -10.177079868451829
      ],
      [
        "▁prête",
        -10.1773377392441
      ],
      [
        "ER",
        -10.177508964410954
      ],
      [
        "▁publiques",
        -10.177525079572316
      ],
      [
        "▁difficulté",
        -10.177743869029209
      ],
      [
        "▁d’information",
        -10.177857094340158
      ],
      [
        "▁(voir",
        -10.177870213883889
      ],
      [
        "▁signé",
        -10.178178044414222
      ],
      [
        "▁douce",
        -10.178702236066513
      ],
      [
        "▁fêtes",
        -10.17886204637071
      ],
      [
        "▁eux,",
        -10.179631593339169
      ],
      [
        "▁possibilités",
        -10.180068263553803
      ],
      [
        "▁l’équipe",
        -10.180099065747456
      ],
      [
        "▁chacune",
        -10.180356272285046
      ],
      [
        "▁hâte",
        -10.18069193320349
      ],
      [
        "▁match",
        -10.18073198211364
      ],
      [
        "▁cycle",
        -10.181048898242967
      ],
      [
        "▁0",
        -10.181264423302096
      ],
      [
        "▁sucre",
        -10.18136083875617
      ],
      [
        "▁conserver",
        -10.181504487300874
      ],
      [
        "▁constitue",
        -10.182988658590716
      ],
      [
        "▁parfaite",
        -10.183187927144706
      ],
      [
        "▁3.",
        -10.18330698995495
      ],
      [
        "▁centrale",
        -10.183777479365872
      ],
      [
        "▁j'aurais",
        -10.184054286823693
      ],
      [
        "▁morts",
        -10.184112259976708
      ],
      [
        "be",
        -10.186573638179393
      ],
      [
        "▁d’autre",
        -10.186652815369703
      ],
      [
        "▁danger",
        -10.187929250665295
      ],
      [
        "▁joueur",
        -10.18796287386829
      ],
      [
        "▁disent",
        -10.188375229298487
      ],
      [
        "tique",
        -10.188526681337299
      ],
      [
        "▁sud",
        -10.18858067678573
      ],
      [
        "▁bar",
        -10.189561236876909
      ],
      [
        "▁obligatoire",
        -10.189622046444327
      ],
      [
        "▁l'intérieur",
        -10.189666422546583
      ],
      [
        "▁effectuer",
        -10.189929121013833
      ],
      [
        "...\"",
        -10.19046981767532
      ],
      [
        "▁pluie",
        -10.190806157752132
      ],
      [
        "▁conférence",
        -10.190856421432944
      ],
      [
        "ger",
        -10.191025972983182
      ],
      [
        "▁établissement",
        -10.191123442267855
      ],
      [
        "▁utilisant",
        -10.191136055473656
      ],
      [
        "▁nécessite",
        -10.191378816889912
      ],
      [
        "▁meilleures",
        -10.191699157396437
      ],
      [
        "▁prennent",
        -10.192205110244213
      ],
      [
        "▁située",
        -10.192657218554386
      ],
      [
        "▁barre",
        -10.193467529816132
      ],
      [
        "▁connaît",
        -10.193585542488474
      ],
      [
        "▁proposons",
        -10.194129818513916
      ],
      [
        "▁Article",
        -10.19420236997975
      ],
      [
        "▁ancien",
        -10.194443365179229
      ],
      [
        "▁J'aime",
        -10.195853360757948
      ],
      [
        "▁(A",
        -10.196216334371385
      ],
      [
        "vé",
        -10.196564905788733
      ],
      [
        "▁t'en",
        -10.196754396704339
      ],
      [
        "pa",
        -10.196796292938167
      ],
      [
        "▁nécessité",
        -10.197109280232624
      ],
      [
        "▁chose.",
        -10.19737264395032
      ],
      [
        "▁(pour",
        -10.197619571554082
      ],
      [
        "▁constater",
        -10.198078605549057
      ],
      [
        "▁personnelles",
        -10.198282705957125
      ],
      [
        "▁2006",
        -10.198425099808238
      ],
      [
        "▁différent",
        -10.19854977080266
      ],
      [
        "▁remboursement",
        -10.198659728051364
      ],
      [
        "▁responsables",
        -10.199204321065412
      ],
      [
        "▁maladies",
        -10.199540018283184
      ],
      [
        "▁d'y",
        -10.19955730075434
      ],
      [
        "▁CE",
        -10.199730316101952
      ],
      [
        "▁pouvais",
        -10.20012762754914
      ],
      [
        "▁toi.",
        -10.200230049737263
      ],
      [
        "▁stress",
        -10.200267864527895
      ],
      [
        "▁Est",
        -10.200276390828474
      ],
      [
        "▁90",
        -10.200354237583186
      ],
      [
        "▁design",
        -10.200618329527156
      ],
      [
        "▁circulation",
        -10.201108438887424
      ],
      [
        "▁accéder",
        -10.201675028664372
      ],
      [
        "▁terrasse",
        -10.202059525374349
      ],
      [
        "▁rencontres",
        -10.202800072509433
      ],
      [
        "▁tandis",
        -10.203149429711612
      ],
      [
        "▁prévention",
        -10.203151104438662
      ],
      [
        "▁capital",
        -10.203571670396974
      ],
      [
        "▁spectacle",
        -10.203640327120889
      ],
      [
        "▁nord",
        -10.203977786283117
      ],
      [
        "▁représentant",
        -10.203985847095957
      ],
      [
        "▁école",
        -10.204537541487445
      ],
      [
        "▁militaire",
        -10.20476780704098
      ],
      [
        "▁auraient",
        -10.205185734410406
      ],
      [
        "▁Toutefois,",
        -10.205372042072046
      ],
      [
        "▁invite",
        -10.205429981830084
      ],
      [
        "▁dormir",
        -10.205961395930553
      ],
      [
        "▁http://",
        -10.20713668956439
      ],
      [
        "▁définition",
        -10.207350695207111
      ],
      [
        "▁principale",
        -10.207992132761643
      ],
      [
        "▁douleur",
        -10.20845529957158
      ],
      [
        "▁partenaire",
        -10.208731586420033
      ],
      [
        "▁trouvent",
        -10.209359272909351
      ],
      [
        "▁régions",
        -10.209399944884622
      ],
      [
        "▁profil",
        -10.209655743289588
      ],
      [
        "▁joué",
        -10.210982429506256
      ],
      [
        "▁efforts",
        -10.211830879438317
      ],
      [
        "▁cru",
        -10.21294762260195
      ],
      [
        "▁environnement",
        -10.213082802503905
      ],
      [
        "▁n’importe",
        -10.213801623201547
      ],
      [
        "▁hausse",
        -10.214422578114151
      ],
      [
        "▁appelle",
        -10.215065977737334
      ],
      [
        "▁indispensable",
        -10.215169660851664
      ],
      [
        "▁bouche",
        -10.215170326635103
      ],
      [
        "▁coopération",
        -10.215352252098715
      ],
      [
        "▁Na",
        -10.21537895132818
      ],
      [
        "▁Paris,",
        -10.215487685591086
      ],
      [
        "▁boîte",
        -10.215767645381387
      ],
      [
        "▁technologies",
        -10.217013621878987
      ],
      [
        "▁méthodes",
        -10.217323684038561
      ],
      [
        "▁organismes",
        -10.217381398374748
      ],
      [
        "▁modification",
        -10.217490492193683
      ],
      [
        "▁travailleurs",
        -10.217496432008986
      ],
      [
        "▁réussir",
        -10.218547424774581
      ],
      [
        "▁faits",
        -10.218715921433155
      ],
      [
        "▁lancé",
        -10.218764827177292
      ],
      [
        "▁diagnostic",
        -10.219029461418229
      ],
      [
        "▁durable",
        -10.219207291827153
      ],
      [
        "▁alimentaire",
        -10.219952420751337
      ],
      [
        "ite",
        -10.220259049998258
      ],
      [
        "▁déterminer",
        -10.22053649390296
      ],
      [
        "ez-vous",
        -10.220624978714653
      ],
      [
        "▁ordre",
        -10.220683955521672
      ],
      [
        "▁électrique",
        -10.22112440388003
      ],
      [
        "▁énorme",
        -10.22124358407195
      ],
      [
        "▁l’idée",
        -10.221547788112701
      ],
      [
        "▁serai",
        -10.222062477560396
      ],
      [
        "▁J'avai",
        -10.2220668610294
      ],
      [
        "▁contient",
        -10.223043466321013
      ],
      [
        "▁Pierre",
        -10.223048818665639
      ],
      [
        "▁crédits",
        -10.223224738764053
      ],
      [
        "▁boulot",
        -10.223912319229939
      ],
      [
        "▁;)",
        -10.224467454195603
      ],
      [
        "▁dollars",
        -10.224836148527242
      ],
      [
        "▁faciliter",
        -10.225658625098282
      ],
      [
        "par",
        -10.225856989201258
      ],
      [
        "▁charges",
        -10.226830964122382
      ],
      [
        "ché",
        -10.226857639284813
      ],
      [
        "▁erreur",
        -10.227391920633714
      ],
      [
        "ca",
        -10.227577560149339
      ],
      [
        "▁concurrence",
        -10.227669330362144
      ],
      [
        "▁Site",
        -10.227807779953661
      ],
      [
        "▁préféré",
        -10.228205675189965
      ],
      [
        "▁propositions",
        -10.228500493011548
      ],
      [
        "▁l'état",
        -10.229306319421958
      ],
      [
        "▁l'amour",
        -10.22931220642392
      ],
      [
        "▁association",
        -10.229806472577193
      ],
      [
        "▁Loi",
        -10.230030857784785
      ],
      [
        "vent",
        -10.231102015742268
      ],
      [
        "▁mange",
        -10.231614947208257
      ],
      [
        "▁=",
        -10.231860062552553
      ],
      [
        "▁soumis",
        -10.232067051979556
      ],
      [
        "▁réaction",
        -10.232076460854374
      ],
      [
        "▁Leur",
        -10.23212842856394
      ],
      [
        "▁lait",
        -10.232139320891294
      ],
      [
        "▁p.",
        -10.232278291755094
      ],
      [
        "▁utilise",
        -10.232445201751801
      ],
      [
        "▁W",
        -10.233806637241216
      ],
      [
        "▁ressemble",
        -10.235167603623548
      ],
      [
        "▁disait",
        -10.235391064419947
      ],
      [
        "▁décès",
        -10.235470900424051
      ],
      [
        "▁économiques",
        -10.235637946153933
      ],
      [
        "pé",
        -10.236282714690066
      ],
      [
        "▁doigts",
        -10.236630842747584
      ],
      [
        "▁collègues",
        -10.237546132632417
      ],
      [
        "▁l’école",
        -10.23772177971831
      ],
      [
        "▁récemment",
        -10.238589887084226
      ],
      [
        "▁couverture",
        -10.238758589634697
      ],
      [
        "chi",
        -10.239690428236324
      ],
      [
        "▁fortement",
        -10.240003703411762
      ],
      [
        "▁extrêmement",
        -10.240300045762025
      ],
      [
        "▁volume",
        -10.240488724659023
      ],
      [
        "▁marchés",
        -10.240598776020896
      ],
      [
        "▁importe",
        -10.241229835608106
      ],
      [
        "▁supérieure",
        -10.241447864093612
      ],
      [
        "▁pays.",
        -10.241555920125727
      ],
      [
        "▁soutenir",
        -10.241762467645007
      ],
      [
        "▁Monde",
        -10.241880182073393
      ],
      [
        "▁gratuit",
        -10.241994578066425
      ],
      [
        "▁connexion",
        -10.242302117215765
      ],
      [
        "▁clés",
        -10.242696993877466
      ],
      [
        "▁soucis",
        -10.243303719613724
      ],
      [
        "▁planète",
        -10.243639991563729
      ],
      [
        "▁préciser",
        -10.243759229669221
      ],
      [
        "▁dessin",
        -10.243929823720958
      ],
      [
        "▁pain",
        -10.243942595660833
      ],
      [
        "▁multiples",
        -10.24408709567357
      ],
      [
        "car",
        -10.244604293288361
      ],
      [
        "▁anniversaire",
        -10.245095086117379
      ],
      [
        "▁places",
        -10.245500639288014
      ],
      [
        "▁scolaire",
        -10.245639278755773
      ],
      [
        "▁bateau",
        -10.246214991471255
      ],
      [
        "▁J'en",
        -10.246379772734771
      ],
      [
        "min",
        -10.24849255093638
      ],
      [
        "▁carrière",
        -10.248554937729939
      ],
      [
        "▁conduite",
        -10.24917837257802
      ],
      [
        "voir",
        -10.249408624541939
      ],
      [
        "▁collaboration",
        -10.249663498779714
      ],
      [
        "▁Attention",
        -10.249868887883004
      ],
      [
        "▁foi",
        -10.250134097184496
      ],
      [
        "▁2001",
        -10.251649659399762
      ],
      [
        "▁plans",
        -10.251980731890981
      ],
      [
        "▁dure",
        -10.252207841237855
      ],
      [
        "▁l'ordre",
        -10.252871946152588
      ],
      [
        "▁amour",
        -10.25347179942981
      ],
      [
        "▁équipements",
        -10.254099571382262
      ],
      [
        "fi",
        -10.254963421073256
      ],
      [
        "▁Pro",
        -10.25510180552082
      ],
      [
        "▁cerveau",
        -10.255151007648404
      ],
      [
        "▁Europe",
        -10.255654108946331
      ],
      [
        "▁non-",
        -10.25586379749728
      ],
      [
        "▁effectué",
        -10.256761608727597
      ],
      [
        "▁paraît",
        -10.257141399508642
      ],
      [
        "▁longueur",
        -10.257540426913721
      ],
      [
        "▁dessous",
        -10.258309529089843
      ],
      [
        "▁supprimer",
        -10.259149989487225
      ],
      [
        "▁douche",
        -10.259642343405082
      ],
      [
        "▁accepter",
        -10.259996030034756
      ],
      [
        "▁dernier,",
        -10.260077023341937
      ],
      [
        "▁l’environnement",
        -10.260865703734918
      ],
      [
        "▁principaux",
        -10.262400516842899
      ],
      [
        "▁événement",
        -10.262916121175216
      ],
      [
        "▁pêche",
        -10.264141514899432
      ],
      [
        "...).",
        -10.264197095116817
      ],
      [
        "▁né",
        -10.264271730260239
      ],
      [
        "▁dites",
        -10.264384896368302
      ],
      [
        "▁appareil",
        -10.264733145118887
      ],
      [
        "▁veille",
        -10.264806170539844
      ],
      [
        "▁stade",
        -10.265219542296279
      ],
      [
        "▁élevé",
        -10.266030491897501
      ],
      [
        "▁adapté",
        -10.26707519721527
      ],
      [
        "▁cesse",
        -10.267208799799999
      ],
      [
        "↑",
        -10.267231443068637
      ],
      [
        "▁offres",
        -10.26736902542169
      ],
      [
        "▁plait",
        -10.26746749778751
      ],
      [
        "▁électronique",
        -10.268417714979492
      ],
      [
        "▁Vu",
        -10.2687234050682
      ],
      [
        "▁l’impression",
        -10.268914271545995
      ],
      [
        "▁menu",
        -10.269076804676644
      ],
      [
        "▁calcul",
        -10.26933919444787
      ],
      [
        "▁simples",
        -10.270123255648429
      ],
      [
        "▁logements",
        -10.270323459980357
      ],
      [
        "▁destination",
        -10.270330212356333
      ],
      [
        "▁amie",
        -10.27147585109912
      ],
      [
        "▁lever",
        -10.271874108824843
      ],
      [
        "▁pensée",
        -10.271914364176116
      ],
      [
        "▁distribution",
        -10.272085823177218
      ],
      [
        "▁candidature",
        -10.272498243579417
      ],
      [
        "▁apporte",
        -10.272973604135668
      ],
      [
        "▁bataille",
        -10.27332932416541
      ],
      [
        "▁passée",
        -10.273439346183903
      ],
      [
        "iens",
        -10.273910158973361
      ],
      [
        "▁Entre",
        -10.274690053418762
      ],
      [
        "▁pierre",
        -10.27471807830607
      ],
      [
        "▁rien,",
        -10.274729790192069
      ],
      [
        "▁maisons",
        -10.274931345790465
      ],
      [
        "▁conséquent",
        -10.275335213416446
      ],
      [
        "▁Aussi",
        -10.275502383107895
      ],
      [
        "▁auteurs",
        -10.275908165025378
      ],
      [
        "▁professeur",
        -10.276756601455762
      ],
      [
        "▁prévenir",
        -10.276977774983417
      ],
      [
        "▁mener",
        -10.278040653901838
      ],
      [
        "▁X",
        -10.27929295053603
      ],
      [
        "▁âge",
        -10.279844156317377
      ],
      [
        "▁Facebook",
        -10.27992385860783
      ],
      [
        "▁étais",
        -10.279981304187654
      ],
      [
        "▁prenant",
        -10.280116777843766
      ],
      [
        "▁d’aller",
        -10.281983121552924
      ],
      [
        "▁défendre",
        -10.282019869048645
      ],
      [
        "▁missions",
        -10.28285425839698
      ],
      [
        "hé",
        -10.282915600727248
      ],
      [
        "▁augmenter",
        -10.283862827652456
      ],
      [
        "▁transports",
        -10.28391435882623
      ],
      [
        "▁\"Le",
        -10.284183568675186
      ],
      [
        "▁hôtel",
        -10.284691047667193
      ],
      [
        "▁Sinon,",
        -10.285351816766697
      ],
      [
        "▁vert",
        -10.28553928688592
      ],
      [
        "▁échanges",
        -10.285542749372597
      ],
      [
        "IN",
        -10.286492566994841
      ],
      [
        "▁pareil",
        -10.286605621753285
      ],
      [
        "▁personnels",
        -10.286668696821861
      ],
      [
        "▁produire",
        -10.286797029213082
      ],
      [
        "Q",
        -10.287510240741636
      ],
      [
        "▁arrière",
        -10.288086939519836
      ],
      [
        "▁local",
        -10.288591746529065
      ],
      [
        "▁plateforme",
        -10.289061728189292
      ],
      [
        "▁participe",
        -10.289175071886286
      ],
      [
        "▁toucher",
        -10.28988178638609
      ],
      [
        "▁suppose",
        -10.289926314026388
      ],
      [
        "▁(qui",
        -10.29040422215751
      ],
      [
        "▁cadeaux",
        -10.290506873851522
      ],
      [
        "ign",
        -10.292670538171222
      ],
      [
        "▁acte",
        -10.293083757199707
      ],
      [
        "▁pouvoirs",
        -10.293142341306964
      ],
      [
        "▁appelé",
        -10.293379126097163
      ],
      [
        "▁résidence",
        -10.294506020427754
      ],
      [
        "ck",
        -10.295261199573305
      ],
      [
        "▁fois.",
        -10.295858976546317
      ],
      [
        "▁titres",
        -10.29587177153551
      ],
      [
        "▁écoles",
        -10.295904581042796
      ],
      [
        "▁pauvre",
        -10.296398309767316
      ],
      [
        "▁agents",
        -10.296705673164396
      ],
      [
        "▁populaire",
        -10.296805603515129
      ],
      [
        "▁l’esprit",
        -10.296808870698705
      ],
      [
        "▁radio",
        -10.297772463855623
      ],
      [
        "bo",
        -10.298229348615726
      ],
      [
        "▁Beaucoup",
        -10.299277991476238
      ],
      [
        "▁extraordinaire",
        -10.299869433008231
      ],
      [
        "▁conduire",
        -10.300053427729626
      ],
      [
        "tro",
        -10.300146545264317
      ],
      [
        "▁jeunesse",
        -10.300438104842819
      ],
      [
        "▁aliments",
        -10.300473507147647
      ],
      [
        "▁chose,",
        -10.30207203937763
      ],
      [
        "▁(il",
        -10.302476375568574
      ],
      [
        "▁scientifique",
        -10.30316831875431
      ],
      [
        "▁violence",
        -10.303492171674048
      ],
      [
        "▁Parlement",
        -10.303607213882461
      ],
      [
        "▁capacités",
        -10.303934432892042
      ],
      [
        "▁obligations",
        -10.304354388477048
      ],
      [
        "▁jus",
        -10.3045156211934
      ],
      [
        "▁2002",
        -10.304733315149116
      ],
      [
        "▁fabrication",
        -10.305064894118711
      ],
      [
        "tin",
        -10.305132415476752
      ],
      [
        "▁interne",
        -10.305505651713165
      ],
      [
        "▁charme",
        -10.306506428088337
      ],
      [
        "▁limites",
        -10.307232657918007
      ],
      [
        "▁préalable",
        -10.3075658584256
      ],
      [
        "▁II",
        -10.307692901836656
      ],
      [
        "40",
        -10.308020687665135
      ],
      [
        "▁modifié",
        -10.308096305688338
      ],
      [
        "▁l’enfant",
        -10.310032379867176
      ],
      [
        "▁Jésus",
        -10.310106925093677
      ],
      [
        "▁bien-être",
        -10.310412170371762
      ],
      [
        "▁enfants.",
        -10.310482865024113
      ],
      [
        "▁performance",
        -10.310598258832387
      ],
      [
        "▁capitale",
        -10.311122302846229
      ],
      [
        "▁l'A",
        -10.31170476544988
      ],
      [
        "▁(par",
        -10.312014638988785
      ],
      [
        "▁repos",
        -10.312684039871115
      ],
      [
        "▁Société",
        -10.313126118565904
      ],
      [
        "▁officiel",
        -10.313257994783985
      ],
      [
        "▁maison.",
        -10.313271228857147
      ],
      [
        "▁centaines",
        -10.313423237673637
      ],
      [
        "▁chances",
        -10.313531595673746
      ],
      [
        "line",
        -10.31367094380747
      ],
      [
        "▁âme",
        -10.314142574719234
      ],
      [
        "-moi",
        -10.314756208926916
      ],
      [
        "▁interdit",
        -10.31533383399736
      ],
      [
        "▁viande",
        -10.316182235299195
      ],
      [
        "caractéristiques",
        -10.316996550400685
      ],
      [
        "▁anciens",
        -10.317002272541611
      ],
      [
        "▁vêtements",
        -10.317168974517653
      ],
      [
        "▁eau",
        -10.318687204334248
      ],
      [
        "▁devrais",
        -10.31891852772123
      ],
      [
        "cal",
        -10.319529381430876
      ],
      [
        "▁concert",
        -10.320019191164258
      ],
      [
        "▁demeure",
        -10.320311524837551
      ],
      [
        "ki",
        -10.321700127300996
      ],
      [
        "▁utilisée",
        -10.321767761090953
      ],
      [
        "▁tarifs",
        -10.321904693879763
      ],
      [
        "▁remarque",
        -10.321942098578514
      ],
      [
        "iv",
        -10.32244132240592
      ],
      [
        "▁secondes",
        -10.322635022004416
      ],
      [
        "▁tourne",
        -10.323368593220568
      ],
      [
        "▁\"Je",
        -10.323653066504795
      ],
      [
        "▁boire",
        -10.323708820070372
      ],
      [
        "▁décider",
        -10.32375048240419
      ],
      [
        "▁perd",
        -10.323760836512932
      ],
      [
        "▁liées",
        -10.32436438059282
      ],
      [
        "▁32",
        -10.32486675736044
      ],
      [
        "▁avance",
        -10.324915729378453
      ],
      [
        "ko",
        -10.324941479224309
      ],
      [
        "▁recommande",
        -10.325189593414029
      ],
      [
        "▁1°",
        -10.326005474607594
      ],
      [
        "ière",
        -10.326496466151363
      ],
      [
        "▁journée.",
        -10.327444018720925
      ],
      [
        "▁vide",
        -10.327521243539334
      ],
      [
        "▁feuille",
        -10.327707369000748
      ],
      [
        "▁espaces",
        -10.32794663688695
      ],
      [
        "▁fichiers",
        -10.328543554374336
      ],
      [
        "▁t’",
        -10.329363505292356
      ],
      [
        "▁compétence",
        -10.33013623254023
      ],
      [
        "▁j'adore",
        -10.331102805941548
      ],
      [
        "hi",
        -10.33146087345854
      ],
      [
        "mais",
        -10.332449741629397
      ],
      [
        "▁apprécié",
        -10.332747627558895
      ],
      [
        "▁définir",
        -10.332787227984566
      ],
      [
        "▁cache",
        -10.332824430945715
      ],
      [
        "▁d’A",
        -10.33301567999731
      ],
      [
        "▁l’action",
        -10.33340006011595
      ],
      [
        "▁printemps",
        -10.333725568548015
      ],
      [
        "▁solidarité",
        -10.33397846603685
      ],
      [
        "▁mourir",
        -10.333979295931362
      ],
      [
        "▁progrès",
        -10.33398276454217
      ],
      [
        "▁écrit:",
        -10.333993096684384
      ],
      [
        "▁cliquez",
        -10.334101022279873
      ],
      [
        "▁cou",
        -10.334246865524877
      ],
      [
        "▁taxe",
        -10.334829410914013
      ],
      [
        "▁Maintenant",
        -10.335241858942684
      ],
      [
        "▁écran",
        -10.335500504868314
      ],
      [
        "▁famille,",
        -10.335503521404917
      ],
      [
        "io",
        -10.335601745012095
      ],
      [
        "▁reconnaissance",
        -10.335714816820932
      ],
      [
        "▁sachant",
        -10.336115159921464
      ],
      [
        "▁tâche",
        -10.33640123088573
      ],
      [
        "▁monsieur",
        -10.336452027646846
      ],
      [
        "ho",
        -10.336791032256116
      ],
      [
        "▁remplacer",
        -10.337027487062418
      ],
      [
        "-t-elle",
        -10.33755921438637
      ],
      [
        "▁sauver",
        -10.338162597922452
      ],
      [
        "▁sexe",
        -10.33887387150252
      ],
      [
        "▁coûts",
        -10.33909359084586
      ],
      [
        "▁session",
        -10.3391891868432
      ],
      [
        "ienne",
        -10.340399564138707
      ],
      [
        "fa",
        -10.340646531234546
      ],
      [
        "▁désir",
        -10.34078840709949
      ],
      [
        "▁pâte",
        -10.341239229629974
      ],
      [
        "▁scientifiques",
        -10.341390820426863
      ],
      [
        "▁vise",
        -10.341618342748163
      ],
      [
        "▁surveillance",
        -10.342115512174741
      ],
      [
        "▁enjeux",
        -10.34371663648017
      ],
      [
        "▁!!!!",
        -10.343787518050975
      ],
      [
        "▁obtenu",
        -10.345863361491162
      ],
      [
        "▁auquel",
        -10.346552372923622
      ],
      [
        "▁estime",
        -10.346627443216935
      ],
      [
        "▁Qu’est-ce",
        -10.346951704269747
      ],
      [
        "▁revanche,",
        -10.346960182940068
      ],
      [
        "▁devons",
        -10.347315632354421
      ],
      [
        "▁verra",
        -10.347513399152287
      ],
      [
        "ah",
        -10.34800572857369
      ],
      [
        "▁employés",
        -10.34808740302294
      ],
      [
        "▁opération",
        -10.348187795725963
      ],
      [
        "▁rappel",
        -10.348209888787114
      ],
      [
        "▁l’organisation",
        -10.349690459318339
      ],
      [
        "ment.",
        -10.350084237726296
      ],
      [
        "▁noms",
        -10.350264300082442
      ],
      [
        "▁place.",
        -10.350330473212638
      ],
      [
        "▁pays,",
        -10.350369055440709
      ],
      [
        "▁eux.",
        -10.350684660664271
      ],
      [
        "▁marketing",
        -10.350700129943704
      ],
      [
        "▁150",
        -10.350753668098967
      ],
      [
        "▁réelle",
        -10.35162218092178
      ],
      [
        "▁Où",
        -10.352007051197337
      ],
      [
        "-je",
        -10.352202546603358
      ],
      [
        "▁favoriser",
        -10.35264893152738
      ],
      [
        "▁don",
        -10.35344356566781
      ],
      [
        "▁survie",
        -10.353659217001521
      ],
      [
        "ras",
        -10.354145132298092
      ],
      [
        "▁(1",
        -10.354720007390544
      ],
      [
        "▁souviens",
        -10.354905532160586
      ],
      [
        "▁100%",
        -10.355115721086602
      ],
      [
        "▁montré",
        -10.355646066615979
      ],
      [
        "▁importants",
        -10.356141832818633
      ],
      [
        "▁quelles",
        -10.356156388022306
      ],
      [
        "▁s'était",
        -10.356256810701026
      ],
      [
        "▁mobile",
        -10.356277802267641
      ],
      [
        "▁remercier",
        -10.356940913749913
      ],
      [
        "▁partenariat",
        -10.357286792188706
      ],
      [
        "▁financier",
        -10.357314316829196
      ],
      [
        "▁médicaments",
        -10.357515797187254
      ],
      [
        "▁Quels",
        -10.357625415768624
      ],
      [
        "▁candidat",
        -10.358102519066229
      ],
      [
        "▁commandes",
        -10.358384847929017
      ],
      [
        "▁organisé",
        -10.35872736082156
      ],
      [
        "▁léger",
        -10.358794868003951
      ],
      [
        "▁Aujourd’hui,",
        -10.359525468786483
      ],
      [
        "-elle",
        -10.359692963429598
      ],
      [
        "ob",
        -10.360274622702196
      ],
      [
        "▁paroles",
        -10.360933161300508
      ],
      [
        "▁pause",
        -10.360976674389246
      ],
      [
        "dans",
        -10.361416826432663
      ],
      [
        "▁chasse",
        -10.361887861195868
      ],
      [
        "▁arrêter",
        -10.362243991031072
      ],
      [
        "▁spécial",
        -10.363001120927779
      ],
      [
        "▁drôle",
        -10.363317850471745
      ],
      [
        "▁marcher",
        -10.363465155656046
      ],
      [
        "▁énormément",
        -10.36375298694163
      ],
      [
        "▁maîtrise",
        -10.363838378585795
      ],
      [
        "▁expériences",
        -10.363900401589419
      ],
      [
        "▁serveur",
        -10.364771503122405
      ],
      [
        "▁dialogue",
        -10.365060522398812
      ],
      [
        "▁médecins",
        -10.365418767703913
      ],
      [
        "▁Petit",
        -10.365486863713151
      ],
      [
        "▁l’Union",
        -10.36559860881756
      ],
      [
        "▁venue",
        -10.365666406723168
      ],
      [
        "▁Sinon",
        -10.365922733124806
      ],
      [
        "▁États",
        -10.366119772420625
      ],
      [
        "▁espèces",
        -10.367038191955187
      ],
      [
        "▁américain",
        -10.367063863596202
      ],
      [
        "vie",
        -10.367284449833374
      ],
      [
        "▁ambiance",
        -10.367315560999327
      ],
      [
        "▁acquis",
        -10.367521687344505
      ],
      [
        "▁cool",
        -10.367527344191066
      ],
      [
        "▁donnent",
        -10.368032769788567
      ],
      [
        "▁semaine,",
        -10.368517854013586
      ],
      [
        "▁usage",
        -10.369412390362854
      ],
      [
        "▁spécifique",
        -10.370552943833674
      ],
      [
        "dit",
        -10.37055534052205
      ],
      [
        "▁fleurs",
        -10.370825351822628
      ],
      [
        "▁n’avez",
        -10.370837867229579
      ],
      [
        "▁rares",
        -10.370932696628213
      ],
      [
        "▁l’argent",
        -10.370989219794208
      ],
      [
        "▁l'objet",
        -10.37099386726073
      ],
      [
        "▁locales",
        -10.371513204203563
      ],
      [
        "▁enquête",
        -10.37152624762938
      ],
      [
        "▁assure",
        -10.37247818799964
      ],
      [
        "▁S'il",
        -10.372526631494708
      ],
      [
        "▁notes",
        -10.37281346798699
      ],
      [
        "▁déco",
        -10.372829468556244
      ],
      [
        "▁procédures",
        -10.37351842831127
      ],
      [
        "ag",
        -10.373689562458015
      ],
      [
        "▁relève",
        -10.374298755529086
      ],
      [
        "▁option",
        -10.374901894043486
      ],
      [
        "iser",
        -10.374912936182568
      ],
      [
        "▁arrêt",
        -10.37492704954077
      ],
      [
        "[",
        -10.375008155250864
      ],
      [
        "▁lettres",
        -10.375069295981094
      ],
      [
        "▁souvenirs",
        -10.37530503065041
      ],
      [
        "▁lutter",
        -10.375471051967711
      ],
      [
        "▁poisson",
        -10.376047022657996
      ],
      [
        "▁ferait",
        -10.376760105825092
      ],
      [
        "▁hasard",
        -10.376858536701874
      ],
      [
        "@",
        -10.376887122680746
      ],
      [
        "▁monnaie",
        -10.37691365727937
      ],
      [
        "▁Québec",
        -10.377288627134913
      ],
      [
        "mar",
        -10.377611151740545
      ],
      [
        "▁visant",
        -10.377828042275162
      ],
      [
        "▁normes",
        -10.377995804577647
      ],
      [
        "▁rédaction",
        -10.378076757898459
      ],
      [
        "▁falloir",
        -10.378077311519343
      ],
      [
        "▁énergie",
        -10.378501049073336
      ],
      [
        "▁rubrique",
        -10.378852699897429
      ],
      [
        "▁consultation",
        -10.379100111009286
      ],
      [
        "▁accompagner",
        -10.379381653205463
      ],
      [
        "▁(ce",
        -10.379603329720835
      ],
      [
        "▁potentiel",
        -10.379874619895954
      ],
      [
        "▁2°",
        -10.380207473322638
      ],
      [
        "▁proposés",
        -10.38079222336896
      ],
      [
        "▁etc...",
        -10.381524992987806
      ],
      [
        "▁sois",
        -10.382167522249759
      ],
      [
        "▁crée",
        -10.383302453929776
      ],
      [
        "▁particulière",
        -10.383326689611469
      ],
      [
        "▁renforcer",
        -10.383465671167205
      ],
      [
        "▁l'utilisation",
        -10.383648839588723
      ],
      [
        "▁appareils",
        -10.383725960821437
      ],
      [
        "▁matières",
        -10.383760332383511
      ],
      [
        "▁allant",
        -10.38395174511963
      ],
      [
        "▁Michel",
        -10.38405796198753
      ],
      [
        "▁formule",
        -10.384304260120874
      ],
      [
        "▁raconte",
        -10.384744017586206
      ],
      [
        "▁cheval",
        -10.384779043583897
      ],
      [
        "▁échange",
        -10.385696760428996
      ],
      [
        "▁profite",
        -10.386157628627796
      ],
      [
        "▁y'a",
        -10.386219286585074
      ],
      [
        "▁posé",
        -10.386284211518667
      ],
      [
        "▁artistes",
        -10.386679555652453
      ],
      [
        "▁battre",
        -10.387174904370973
      ],
      [
        "▁secteurs",
        -10.387244834771558
      ],
      [
        "▁médical",
        -10.3875522487591
      ],
      [
        "-nous",
        -10.387740945712657
      ],
      [
        "up",
        -10.3878944341055
      ],
      [
        "▁rencontré",
        -10.388004559906783
      ],
      [
        "▁gars",
        -10.388277765645123
      ],
      [
        "relativement",
        -10.388864983224163
      ],
      [
        "▁possible,",
        -10.389020454197965
      ],
      [
        "▁facteurs",
        -10.389257543276344
      ],
      [
        "istes",
        -10.389545253186274
      ],
      [
        "▁actuel",
        -10.39017772268905
      ],
      [
        "▁l'école",
        -10.390315097230928
      ],
      [
        "▁2007",
        -10.390554381164112
      ],
      [
        "▁(de",
        -10.390588536207979
      ],
      [
        "▁couper",
        -10.390671501000593
      ],
      [
        "▁contrats",
        -10.390686494366973
      ],
      [
        "▁l'Etat",
        -10.390876957165936
      ],
      [
        "ans",
        -10.390992938653138
      ],
      [
        "▁civil",
        -10.39110297056778
      ],
      [
        "▁sorti",
        -10.391439684536845
      ],
      [
        "▁pointe",
        -10.392490521883868
      ],
      [
        "▁résumé",
        -10.392609810420032
      ],
      [
        "▁finale",
        -10.393741305563928
      ],
      [
        "▁adopté",
        -10.393816953783407
      ],
      [
        "▁formations",
        -10.393831638062943
      ],
      [
        "▁élément",
        -10.393979647280377
      ],
      [
        "▁obligé",
        -10.394653236931553
      ],
      [
        "▁considère",
        -10.394780001046662
      ],
      [
        "▁démocratie",
        -10.394855064205618
      ],
      [
        "▁régler",
        -10.394976969866779
      ],
      [
        "▁d’y",
        -10.39510674304751
      ],
      [
        "▁anti-",
        -10.395478998846396
      ],
      [
        "▁Mise",
        -10.39560857120394
      ],
      [
        "sion",
        -10.395882925062988
      ],
      [
        "▁tâches",
        -10.39605013393481
      ],
      [
        "▁postes",
        -10.396224683253132
      ],
      [
        "con",
        -10.396312955769963
      ],
      [
        "▁excellente",
        -10.396338847156692
      ],
      [
        "▁tests",
        -10.396793442639876
      ],
      [
        "▁animal",
        -10.397840389764813
      ],
      [
        "▁copie",
        -10.398112976772172
      ],
      [
        "▁LES",
        -10.39811470832467
      ],
      [
        "br",
        -10.398214639507614
      ],
      [
        "▁finances",
        -10.398374804263234
      ],
      [
        "▁publicité",
        -10.398760902365833
      ],
      [
        "▁raconter",
        -10.399178416462043
      ],
      [
        "▁Comité",
        -10.399996450289677
      ],
      [
        "▁commerciale",
        -10.400283984689935
      ],
      [
        "▁reconnaître",
        -10.400314032729769
      ],
      [
        "▁sept",
        -10.401595225778816
      ],
      [
        "▁soyez",
        -10.401803804785448
      ],
      [
        "▁l'instant",
        -10.402202103275714
      ],
      [
        "▁plaît",
        -10.402604338465736
      ],
      [
        "▁attentes",
        -10.403188503597015
      ],
      [
        "▁Ra",
        -10.40326081262063
      ],
      [
        "▁étrange",
        -10.403269369637945
      ],
      [
        "ç",
        -10.404166589967396
      ],
      [
        "▁salarié",
        -10.404188802552266
      ],
      [
        "▁cible",
        -10.40425576858189
      ],
      [
        "▁prenez",
        -10.404397064863995
      ],
      [
        "▁diffusion",
        -10.404453603925962
      ],
      [
        "▁tarif",
        -10.404827470534801
      ],
      [
        "▁impact",
        -10.40533264116447
      ],
      [
        "▁applications",
        -10.405593125262744
      ],
      [
        "▁l'argent",
        -10.40560493154844
      ],
      [
        "▁légumes",
        -10.406196857986517
      ],
      [
        "▁supplémentaire",
        -10.406461773393744
      ],
      [
        "▁fins",
        -10.406890388467609
      ],
      [
        "▁beurre",
        -10.407356699610933
      ],
      [
        "▁No",
        -10.408431759407744
      ],
      [
        "ables",
        -10.408476614337602
      ],
      [
        "mon",
        -10.408510908180181
      ],
      [
        "▁civile",
        -10.40961054192719
      ],
      [
        "▁précis",
        -10.4096662262429
      ],
      [
        "▁génération",
        -10.409856718297352
      ],
      [
        "▁Jean",
        -10.410567821325522
      ],
      [
        "lin",
        -10.410910614473508
      ],
      [
        "▁coupe",
        -10.411408725321824
      ],
      [
        "▁demi",
        -10.411504229955533
      ],
      [
        "▁ci-dessus",
        -10.412145599117844
      ],
      [
        "▁motivation",
        -10.412578387883105
      ],
      [
        "▁secrétaire",
        -10.41294321829374
      ],
      [
        "▁amoureux",
        -10.413058016422411
      ],
      [
        "▁bac",
        -10.413248104982745
      ],
      [
        "▁reconnu",
        -10.413697196205412
      ],
      [
        "▁prêts",
        -10.413707984812653
      ],
      [
        "cher",
        -10.413805108888491
      ],
      [
        "ô",
        -10.413972175635589
      ],
      [
        "▁$",
        -10.41441279715519
      ],
      [
        "▁f",
        -10.415332150098038
      ],
      [
        "▁Pourtant,",
        -10.415636645592436
      ],
      [
        "▁phénomène",
        -10.415735900347059
      ],
      [
        "▁rapports",
        -10.416210712466551
      ],
      [
        "▁album",
        -10.416342983260442
      ],
      [
        "▁infos",
        -10.416350565818561
      ],
      [
        "▁financiers",
        -10.416894470239086
      ],
      [
        "▁entrée",
        -10.41748465526868
      ],
      [
        "▁compliqué",
        -10.417689716109791
      ],
      [
        "-vous",
        -10.417696874541878
      ],
      [
        "▁accueillir",
        -10.418149561086725
      ],
      [
        "▁kilomètres",
        -10.418996775577622
      ],
      [
        "▁côtés",
        -10.419228328447408
      ],
      [
        "-toi",
        -10.41951880842328
      ],
      [
        "▁experts",
        -10.420092721755811
      ],
      [
        "ES",
        -10.42025874578066
      ],
      [
        "▁boite",
        -10.420650988862777
      ],
      [
        "▁silence",
        -10.42067493203149
      ],
      [
        "▁vivant",
        -10.420844605523795
      ],
      [
        "▁station",
        -10.421260442922966
      ],
      [
        "▁site.",
        -10.42205164786209
      ],
      [
        "▁résistance",
        -10.42232595275956
      ],
      [
        "cul",
        -10.422877776355524
      ],
      [
        "▁lendemain",
        -10.424059573924655
      ],
      [
        "▁lecteurs",
        -10.42415337365891
      ],
      [
        "▁garantir",
        -10.424439778275747
      ],
      [
        "▁maintien",
        -10.424826253552126
      ],
      [
        "▁j’aime",
        -10.424827116289595
      ],
      [
        "▁priorité",
        -10.42572888436049
      ],
      [
        "▁J’",
        -10.426298210284108
      ],
      [
        "▁gagné",
        -10.426659682736494
      ],
      [
        "▁options",
        -10.426916224025737
      ],
      [
        "▁anti",
        -10.427114799158327
      ],
      [
        "▁doucement",
        -10.42734870703772
      ],
      [
        "▁(mais",
        -10.42744877721124
      ],
      [
        "▁maison,",
        -10.427513068214818
      ],
      [
        "▁dirigeants",
        -10.427700066827846
      ],
      [
        "▁Faites",
        -10.42837357390567
      ],
      [
        "▁patient",
        -10.428503743785598
      ],
      [
        "▁pensées",
        -10.428574928862595
      ],
      [
        "▁refus",
        -10.428592223875157
      ],
      [
        "▁étions",
        -10.428592364773529
      ],
      [
        "▁dossiers",
        -10.428873191538365
      ],
      [
        "▁remis",
        -10.429005464214214
      ],
      [
        "▁t'as",
        -10.429381959587777
      ],
      [
        "▁années.",
        -10.429532685027276
      ],
      [
        "▁dynamique",
        -10.430588147024825
      ],
      [
        "▁?\"",
        -10.430601488307644
      ],
      [
        "ven",
        -10.43064983151002
      ],
      [
        "▁camp",
        -10.430966686343387
      ],
      [
        "».",
        -10.431394540297546
      ],
      [
        "▁notion",
        -10.431671205049216
      ],
      [
        "▁d’informations",
        -10.43171311642218
      ],
      [
        "▁spécifiques",
        -10.432179625647397
      ],
      [
        "▁vieille",
        -10.432535264726575
      ],
      [
        "er.",
        -10.433361198979398
      ],
      [
        "▁terminer",
        -10.434191067308864
      ],
      [
        "▁mille",
        -10.434584358291513
      ],
      [
        "▁1995",
        -10.435685567499561
      ],
      [
        "▁l'esprit",
        -10.43571298518749
      ],
      [
        "▁voyez",
        -10.435812546012821
      ],
      [
        "▁doux",
        -10.43646574460469
      ],
      [
        "▁DES",
        -10.436782214774802
      ],
      [
        "▁Sauf",
        -10.43760487025272
      ],
      [
        "▁qu’au",
        -10.437912243339373
      ],
      [
        "▁représentants",
        -10.43796415310938
      ],
      [
        "12",
        -10.43811451221152
      ],
      [
        "▁rose",
        -10.438262231640314
      ],
      [
        "land",
        -10.438950463375601
      ],
      [
        "▁louer",
        -10.4391982622755
      ],
      [
        "▁résoudre",
        -10.439442905089454
      ],
      [
        "▁huit",
        -10.439526083763226
      ],
      [
        "▁chute",
        -10.439593726195792
      ],
      [
        "▁d'ici",
        -10.439806961327129
      ],
      [
        "▁S’il",
        -10.439941203037918
      ],
      [
        "▁ventre",
        -10.440233206591301
      ],
      [
        "▁soeur",
        -10.440953969003566
      ],
      [
        "02",
        -10.44133776600258
      ],
      [
        "▁catégories",
        -10.441861707041443
      ],
      [
        "▁lis",
        -10.442677926010202
      ],
      [
        "▁considéré",
        -10.443432755285817
      ],
      [
        "▁(3",
        -10.447088516490302
      ],
      [
        "▁particuliers",
        -10.448446251969582
      ],
      [
        "▁chanson",
        -10.448576293338736
      ],
      [
        "▁incroyable",
        -10.44895870175409
      ],
      [
        "▁augmentation",
        -10.44902921556406
      ],
      [
        "▁n'hésitez",
        -10.449411660687476
      ],
      [
        "cri",
        -10.449542385805692
      ],
      [
        "▁vertu",
        -10.449758874283695
      ],
      [
        "▁feuilles",
        -10.45008765119098
      ],
      [
        "s-tu",
        -10.450163979026753
      ],
      [
        "▁indique",
        -10.45047793577038
      ],
      [
        "dis",
        -10.450521282108596
      ],
      [
        "▁ceux-ci",
        -10.451182280392787
      ],
      [
        "▁armes",
        -10.45140393794491
      ],
      [
        "▁poursuivre",
        -10.4515338911425
      ],
      [
        "▁mettent",
        -10.452372250451734
      ],
      [
        "...et",
        -10.452389196272165
      ],
      [
        "tan",
        -10.452535980557414
      ],
      [
        "▁néanmoins",
        -10.452948540464954
      ],
      [
        "▁chauffage",
        -10.452952027380618
      ],
      [
        "▁promotion",
        -10.453015413826034
      ],
      [
        "▁murs",
        -10.453019123565902
      ],
      [
        "▁l'époque",
        -10.453039192594247
[...]
