{
  "version": "1.0",
  "truncation": null,
  "padding": null,
  "added_tokens": [
    {
      "id": 0,
      "content": "[UNK]",
      "single_word": false,
      "lstrip": false,
      "rstrip": false,
      "normalized": false,
      "special": true
    },
    {
      "id": 1,
      "content": "[CLS]",
      "single_word": false,
      "lstrip": false,
      "rstrip": false,
      "normalized": false,
      "special": true
    },
    {
      "id": 2,
      "content": "[SEP]",
      "single_word": false,
      "lstrip": false,
      "rstrip": false,
      "normalized": false,
      "special": true
    },
    {
      "id": 3,
      "content": "[PAD]",
      "single_word": false,
      "lstrip": false,
      "rstrip": false,
      "normalized": false,
      "special": true
    },
    {
      "id": 4,
      "content": "[MASK]",
      "single_word": false,
      "lstrip": false,
      "rstrip": false,
      "normalized": false,
      "special": true
    }
  ],
  "normalizer": {
    "type": "Sequence",
    "normalizers": [
      {
        "type": "Nmt"
      },
      {
        "type": "NFKC"
      },
      {
        "type": "Replace",
        "pattern": {
          "Regex": " {2,}"
        },
        "content": " "
      }
    ]
  },
  "pre_tokenizer": {
    "type": "Metaspace",
    "replacement": "▁",
    "prepend_scheme": "always",
    "split": true
  },
  "post_processor": null,
  "decoder": {
    "type": "Metaspace",
    "replacement": "▁",
    "prepend_scheme": "always",
    "split": true
  },
  "model": {
    "type": "Unigram",
    "unk_id": null,
    "vocab": [
      [
        "[UNK]",
        0.0
      ],
      [
        "[CLS]",
        0.0
      ],
      [
        "[SEP]",
        0.0
      ],
      [
        "[PAD]",
        0.0
      ],
      [
        "[MASK]",
        0.0
      ],
      [
        "▁",
        -2.5413902238143997
      ],
      [
        "▁de",
        -2.981560793734298
      ],
      [
        ",",
        -3.5043261814084286
      ],
      [
        "▁la",
        -3.669435229319964
      ],
      [
        "▁que",
        -3.712165277386479
      ],
      [
        "a",
        -3.8739012383609754
      ],
      [
        "y",
        -3.897564273606136
      ],
      [
        ".",
        -3.9511746446208704
      ],
      [
        "▁en",
        -3.9537451627531848
      ],
      [
        "▁el",
        -4.005848902847461
      ],
      [
        "▁los",
        -4.482434981448609
      ],
      [
        "▁se",
        -4.751616188210205
      ],
      [
        "▁un",
        -4.755116721433648
      ],
      [
        "s",
        -4.792316213262447
      ],
      [
        "▁del",
        -4.802861126836374
      ],
      [
        "▁las",
        -4.837586838717737
      ],
      [
        "▁para",
        -4.886528058537918
      ],
      [
        "▁con",
        -4.895934326966287
      ],
      [
        "▁por",
        -4.964480559374188
      ],
      [
        "▁es",
        -5.0056850974201765
      ],
      [
        "▁no",
        -5.0210726568862185
      ],
      [
        "▁una",
        -5.033606069963151
      ],
      [
        "o",
        -5.147863275387442
      ],
      [
        "▁lo",
        -5.35682183900011
      ],
      [
        "▁su",
        -5.425653814075838
      ],
      [
        "▁al",
        -5.517566409473849
      ],
      [
        "▁más",
        -5.6353815256205735
      ],
      [
        "▁como",
        -5.7102142289671
      ],
      [
        ":",
        -5.824555292627338
      ],
      [
        "▁El",
        -5.926453169883626
      ],
      [
        "n",
        -5.945883077318294
      ],
      [
        "▁La",
        -6.049834810448992
      ],
      [
        "▁me",
        -6.083682754752278
      ],
      [
        "▁este",
        -6.249275308898881
      ],
      [
        "▁ha",
        -6.255690358942903
      ],
      [
        "▁sus",
        -6.292593585650538
      ],
      [
        "e",
        -6.2928970935743695
      ],
      [
        "...",
        -6.296954689369992
      ],
      [
        "▁pero",
        -6.300325941116592
      ],
      [
        "▁si",
        -6.3104600899436925
      ],
      [
        "▁En",
        -6.342822513334051
      ],
      [
        "?",
        -6.498898505816014
      ],
      [
        "▁esta",
        -6.5070476311530125
      ],
      [
        "▁ser",
        -6.510239650989462
      ],
      [
        "▁te",
        -6.526678595683606
      ],
      [
        "▁sobre",
        -6.56135018213039
      ],
      [
        "▁son",
        -6.5689642480273704
      ],
      [
        "▁muy",
        -6.587556947717852
      ],
      [
        "▁todo",
        -6.595454183696747
      ],
      [
        "▁ya",
        -6.610280839149716
      ],
      [
        "▁tu",
        -6.653160058112158
      ],
      [
        "▁le",
        -6.655045653197838
      ],
      [
        "▁mi",
        -6.682369538658966
      ],
      [
        ")",
        -6.766616793234833
      ],
      [
        "s,",
        -6.770447960068967
      ],
      [
        "▁puede",
        -6.772665316831885
      ],
      [
        "r",
        -6.792982653793818
      ],
      [
        "▁sin",
        -6.795945097743109
      ],
      [
        "▁A",
        -6.800528906478759
      ],
      [
        "▁está",
        -6.827873300023933
      ],
      [
        "▁nos",
        -6.873440373372688
      ],
      [
        "▁cuando",
        -6.875026070216585
      ],
      [
        "▁No",
        -6.895134480879067
      ],
      [
        "▁entre",
        -6.897938061149491
      ],
      [
        "▁todos",
        -6.941964393238802
      ],
      [
        "▁Los",
        -6.961412304856905
      ],
      [
        "▁también",
        -6.981263611672347
      ],
      [
        "▁tiene",
        -7.00865267132505
      ],
      [
        "▁cada",
        -7.046907678815801
      ],
      [
        "▁Y",
        -7.0528140451285655
      ],
      [
        "▁desde",
        -7.0703693344596985
      ],
      [
        "▁hacer",
        -7.0790190417878005
      ],
      [
        "s.",
        -7.079325694223165
      ],
      [
        "▁han",
        -7.093837384576538
      ],
      [
        "▁hay",
        -7.094256116813565
      ],
      [
        "▁(",
        -7.09544169406492
      ],
      [
        "l",
        -7.101946566546717
      ],
      [
        "es",
        -7.111363764763487
      ],
      [
        "▁Si",
        -7.116014982965934
      ],
      [
        "▁vez",
        -7.121316902411843
      ],
      [
        "▁hasta",
        -7.124432077763572
      ],
      [
        ";",
        -7.142843990314029
      ],
      [
        "-",
        -7.149891032806714
      ],
      [
        "▁así",
        -7.15517071609791
      ],
      [
        "▁porque",
        -7.157540918912963
      ],
      [
        "▁dos",
        -7.176953979868436
      ],
      [
        "▁Es",
        -7.185838807534784
      ],
      [
        "▁años",
        -7.189186980017221
      ],
      [
        "se",
        -7.195689953637267
      ],
      [
        "▁parte",
        -7.203616319113074
      ],
      [
        "▁forma",
        -7.2050005062622215
      ],
      [
        "▁fue",
        -7.214860009743141
      ],
      [
        "▁Por",
        -7.216407718425552
      ],
      [
        "▁-",
        -7.228046531922855
      ],
      [
        "▁personas",
        -7.2386976033487755
      ],
      [
        "▁Se",
        -7.246342266413718
      ],
      [
        "!",
        -7.278194095497444
      ],
      [
        "▁tiempo",
        -7.281848350519535
      ],
      [
        "”",
        -7.287976712101107
      ],
      [
        "▁día",
        -7.292410564272256
      ],
      [
        "▁donde",
        -7.31914073979639
      ],
      [
        "▁“",
        -7.326085809043386
      ],
      [
        "▁uno",
        -7.332396080647628
      ],
      [
        "mos",
        -7.340490763345498
      ],
      [
        "▁mejor",
        -7.344349005083513
      ],
      [
        "▁tener",
        -7.372585971235033
      ],
      [
        "▁Las",
        -7.374673737301709
      ],
      [
        "▁hace",
        -7.377454567525239
      ],
      [
        "te",
        -7.419536745630161
      ],
      [
        "▁mucho",
        -7.420127552031705
      ],
      [
        "▁ver",
        -7.422326708811731
      ],
      [
        "ó",
        -7.4363829132907675
      ],
      [
        "▁cuenta",
        -7.445890304454776
      ],
      [
        "la",
        -7.447622388389167
      ],
      [
        "u",
        -7.448153660328195
      ],
      [
        "▁bien",
        -7.451596092528423
      ],
      [
        "\"",
        -7.452048520166953
      ],
      [
        "▁siempre",
        -7.4566143586117715
      ],
      [
        "▁año",
        -7.462657915491578
      ],
      [
        "os",
        -7.464344644813501
      ],
      [
        "▁algo",
        -7.466435226974644
      ],
      [
        "▁vida",
        -7.467160187008776
      ],
      [
        "d",
        -7.480678118836845
      ],
      [
        "▁mismo",
        -7.494519862328762
      ],
      [
        "▁durante",
        -7.499441626304758
      ],
      [
        "do",
        -7.509541931063296
      ],
      [
        "▁Para",
        -7.511238931664991
      ],
      [
        "▁he",
        -7.5115692866049635
      ],
      [
        "▁De",
        -7.5208964230782485
      ],
      [
        "▁gran",
        -7.531129778581018
      ],
      [
        "▁pueden",
        -7.54300681889789
      ],
      [
        "▁solo",
        -7.544389977106475
      ],
      [
        "▁cualquier",
        -7.5509562654573745
      ],
      [
        "▁caso",
        -7.553641130371362
      ],
      [
        "▁qué",
        -7.559612992293969
      ],
      [
        "▁ni",
        -7.563271476907403
      ],
      [
        "▁era",
        -7.564960672367613
      ],
      [
        "▁información",
        -7.579209822809432
      ],
      [
        "▁están",
        -7.579311150462885
      ],
      [
        "▁menos",
        -7.584384508021733
      ],
      [
        "lo",
        -7.588643034311374
      ],
      [
        "▁otros",
        -7.590408095009595
      ],
      [
        "▁todas",
        -7.593695641615023
      ],
      [
        ").",
        -7.59429727935299
      ],
      [
        "▁yo",
        -7.602478812163696
      ],
      [
        "▁poco",
        -7.610320317021669
      ],
      [
        "da",
        -7.61234207855232
      ],
      [
        "▁sido",
        -7.615054486045892
      ],
      [
        "▁estos",
        -7.633978364013155
      ],
      [
        "ndo",
        -7.643379986287128
      ],
      [
        "▁tan",
        -7.649140204711591
      ],
      [
        "▁ese",
        -7.65168300767459
      ],
      [
        "▁eso",
        -7.6719440557492735
      ],
      [
        "▁otro",
        -7.672562369326062
      ],
      [
        "▁\"",
        -7.673608920860875
      ],
      [
        "▁nuestro",
        -7.680223499667184
      ],
      [
        "▁había",
        -7.685038498672915
      ],
      [
        "▁trabajo",
        -7.700352794827198
      ],
      [
        "▁Pero",
        -7.702141575432561
      ],
      [
        "mente",
        -7.707797265973184
      ],
      [
        "▁tipo",
        -7.716937796120165
      ],
      [
        "▁otra",
        -7.719438116762603
      ],
      [
        "▁tanto",
        -7.732895294277796
      ],
      [
        "▁lugar",
        -7.741743044859772
      ],
      [
        "▁sólo",
        -7.744480790470133
      ],
      [
        "▁DE",
        -7.7490008014636516
      ],
      [
        "▁momento",
        -7.749039480507175
      ],
      [
        "▁antes",
        -7.753336769712547
      ],
      [
        "▁manera",
        -7.761223833538523
      ],
      [
        "▁esto",
        -7.761389462658691
      ],
      [
        "▁mundo",
        -7.761968891933714
      ],
      [
        "▁debe",
        -7.762974498839194
      ],
      [
        "▁poder",
        -7.773494314008014
      ],
      [
        "▁Me",
        -7.7737938626803125
      ],
      [
        "▁les",
        -7.780373875434265
      ],
      [
        "▁–",
        -7.781225263416147
      ],
      [
        "▁tienen",
        -7.785910000522549
      ],
      [
        "”.",
        -7.7925300015366705
      ],
      [
        "▁nuestra",
        -7.794988052001953
      ],
      [
        "▁Un",
        -7.7951760323834165
      ],
      [
        "▁cual",
        -7.796863608084847
      ],
      [
        "▁será",
        -7.808150193469228
      ],
      [
        "▁mayor",
        -7.815726824810856
      ],
      [
        "▁través",
        -7.815974315246592
      ],
      [
        "le",
        -7.821912294349319
      ],
      [
        "▁días",
        -7.826134707244064
      ],
      [
        "▁contra",
        -7.827905477527034
      ],
      [
        "▁ahora",
        -7.828580383429179
      ],
      [
        "me",
        -7.8422315941287035
      ],
      [
        "▁sea",
        -7.852656307850948
      ],
      [
        "▁otras",
        -7.854868046480265
      ],
      [
        "▁Lo",
        -7.855719112562383
      ],
      [
        "▁artículo",
        -7.870398734135984
      ],
      [
        "▁estar",
        -7.870714916296919
      ],
      [
        "▁aunque",
        -7.8841290004623215
      ],
      [
        "▁Con",
        -7.888834801568388
      ],
      [
        "”,",
        -7.895060428252352
      ],
      [
        "á",
        -7.895215661097071
      ],
      [
        "▁2",
        -7.897568909098192
      ],
      [
        "▁3",
        -7.907843495292067
      ],
      [
        "▁cosas",
        -7.9090295367725965
      ],
      [
        "de",
        -7.910321016429361
      ],
      [
        "▁hecho",
        -7.914074171257191
      ],
      [
        "▁va",
        -7.916155075361324
      ],
      [
        "▁después",
        -7.916230585288142
      ],
      [
        "▁datos",
        -7.9168165075673596
      ],
      [
        "▁tres",
        -7.923074174231116
      ],
      [
        "▁Una",
        -7.92889417698623
      ],
      [
        "▁nada",
        -7.9503097208257145
      ],
      [
        "ba",
        -7.9521702456477605
      ],
      [
        "on",
        -7.952604191453343
      ],
      [
        "▁nuevo",
        -7.955221022386082
      ],
      [
        "▁estas",
        -7.955578156847528
      ],
      [
        "▁primera",
        -7.95722178849795
      ],
      [
        "▁tus",
        -7.958596517330168
      ],
      [
        "i",
        -7.959290923183168
      ],
      [
        "▁persona",
        -7.959778805381944
      ],
      [
        "▁sistema",
        -7.967604530388025
      ],
      [
        "▁importante",
        -7.977886895865291
      ],
      [
        "▁toda",
        -7.982032551763648
      ],
      [
        "/",
        -7.996289084375361
      ],
      [
        "),",
        -7.997700543697308
      ],
      [
        "▁Este",
        -8.000764314589786
      ],
      [
        "▁millones",
        -8.001206536703172
      ],
      [
        "▁unos",
        -8.006367531181926
      ],
      [
        "en",
        -8.009132169105962
      ],
      [
        "▁Al",
        -8.010458347737124
      ],
      [
        "▁muchas",
        -8.015541167509745
      ],
      [
        "▁muchos",
        -8.017988497942714
      ],
      [
        "▁1",
        -8.0251064255977
      ],
      [
        "▁acuerdo",
        -8.03506119030296
      ],
      [
        "▁fin",
        -8.035968241765554
      ],
      [
        "▁sino",
        -8.039737985476838
      ],
      [
        "▁hoy",
        -8.043957869434012
      ],
      [
        "ar",
        -8.04615827026911
      ],
      [
        "▁dentro",
        -8.046905485612026
      ],
      [
        "▁cómo",
        -8.052439454625745
      ],
      [
        "▁uso",
        -8.060519685864639
      ],
      [
        "▁medio",
        -8.063279815028674
      ],
      [
        "t",
        -8.068381514764338
      ],
      [
        "▁10",
        -8.070801615705617
      ],
      [
        "▁estaba",
        -8.08164499628161
      ],
      [
        "▁5",
        -8.090507314051875
      ],
      [
        "▁primer",
        -8.091157145022871
      ],
      [
        "▁proceso",
        -8.093134338471161
      ],
      [
        "▁además",
        -8.09854340153448
      ],
      [
        "▁tengo",
        -8.101085029783773
      ],
      [
        "S",
        -8.102784519338872
      ],
      [
        "▁nuestros",
        -8.104494040264997
      ],
      [
        "▁algunos",
        -8.106459654820023
      ],
      [
        "▁según",
        -8.11161923927911
      ],
      [
        "▁Esta",
        -8.1120074056528
      ],
      [
        "é",
        -8.121595671555623
      ],
      [
        "▁gracias",
        -8.131659135678134
      ],
      [
        "▁servicios",
        -8.13822990044717
      ],
      [
        "▁veces",
        -8.14290621260882
      ],
      [
        "▁ellos",
        -8.146720254181874
      ],
      [
        "▁estado",
        -8.152008742589503
      ],
      [
        "▁desarrollo",
        -8.157057366947805
      ],
      [
        "▁país",
        -8.15899133222322
      ],
      [
        "▁nivel",
        -8.159157895710749
      ],
      [
        "▁Cuando",
        -8.16886120257433
      ],
      [
        "▁saber",
        -8.170041348800595
      ],
      [
        "▁Sin",
        -8.172650761166887
      ],
      [
        "▁4",
        -8.173165227251669
      ],
      [
        "▁gente",
        -8.181308145868254
      ],
      [
        "dos",
        -8.18197827758949
      ],
      [
        "▁punto",
        -8.18219022393278
      ],
      [
        "▁número",
        -8.187840362811935
      ],
      [
        "▁mis",
        -8.190879803197221
      ],
      [
        "▁casa",
        -8.19335396529776
      ],
      [
        "▁puedes",
        -8.197809087700774
      ],
      [
        "▁decir",
        -8.200042950782368
      ],
      [
        "▁quien",
        -8.204429552741242
      ],
      [
        "▁dar",
        -8.20501082535192
      ],
      [
        "▁buena",
        -8.206760313529719
      ],
      [
        "ción",
        -8.210895020836046
      ],
      [
        "▁pues",
        -8.211173729543805
      ],
      [
        "▁hacia",
        -8.224016481721979
      ],
      [
        "▁diferentes",
        -8.23095276120687
      ],
      [
        "▁Como",
        -8.237915954211232
      ],
      [
        "nos",
        -8.240035605987195
      ],
      [
        "▁productos",
        -8.248283344616603
      ],
      [
        "▁tal",
        -8.250142248850771
      ],
      [
        "▁pasado",
        -8.251938959026246
      ],
      [
        "\".",
        -8.253482868594988
      ],
      [
        "▁alguna",
        -8.255943856690152
      ],
      [
        "▁nueva",
        -8.257428429323406
      ],
      [
        "▁servicio",
        -8.258973733135141
      ],
      [
        "▁derecho",
        -8.263377040916719
      ],
      [
        "▁realizar",
        -8.267973903727201
      ],
      [
        "▁relación",
        -8.281275118417415
      ],
      [
        "án",
        -8.282753332690435
      ],
      [
        "▁ante",
        -8.283616562462447
      ],
      [
        "▁haber",
        -8.291336281185439
      ],
      [
        "▁misma",
        -8.292685498720722
      ],
      [
        "▁proyecto",
        -8.294759632766647
      ],
      [
        "▁mas",
        -8.301995954195373
      ],
      [
        "▁presente",
        -8.303757644624197
      ],
      [
        "▁aquí",
        -8.309014710584433
      ],
      [
        "▁posible",
        -8.31175948637973
      ],
      [
        "▁él",
        -8.319601619312149
      ],
      [
        "▁ir",
        -8.321876655432057
      ],
      [
        "▁parece",
        -8.324083210220401
      ],
      [
        "▁hemos",
        -8.32635155350305
      ],
      [
        "▁actividades",
        -8.332921562855736
      ],
      [
        "▁dijo",
        -8.332971630160733
      ],
      [
        "▁Ley",
        -8.337059348825104
      ],
      [
        "▁sí",
        -8.340702045764917
      ],
      [
        "▁fuera",
        -8.34378005591923
      ],
      [
        "c",
        -8.35437018233472
      ],
      [
        "▁embargo,",
        -8.355069486077621
      ],
      [
        "▁mientras",
        -8.357196996226543
      ],
      [
        "▁historia",
        -8.359916881578378
      ],
      [
        "▁nunca",
        -8.367764333488745
      ],
      [
        "▁ella",
        -8.374219430967347
      ],
      [
        "▁podemos",
        -8.378173371273876
      ],
      [
        "▁casi",
        -8.38298026795951
      ],
      [
        "▁re",
        -8.3839313340541
      ],
      [
        "los",
        -8.385166743437763
      ],
      [
        "▁horas",
        -8.387594202488966
      ],
      [
        "▁buen",
        -8.387667088322818
      ],
      [
        "\",",
        -8.390001476416872
      ],
      [
        "▁condiciones",
        -8.391161719573747
      ],
      [
        "▁empresa",
        -8.393111484352735
      ],
      [
        "▁Yo",
        -8.39474347439653
      ],
      [
        "▁aún",
        -8.395495520358905
      ],
      [
        "▁grupo",
        -8.401293320278125
      ],
      [
        "▁trata",
        -8.404961742486663
      ],
      [
        "▁20",
        -8.407332925529255
      ],
      [
        "▁personal",
        -8.410304978546387
      ],
      [
        "▁tenemos",
        -8.412166645325222
      ],
      [
        "▁creo",
        -8.418219889523384
      ],
      [
        "▁bajo",
        -8.418777480826169
      ],
      [
        "▁siguiente",
        -8.422646978225112
      ],
      [
        "▁calidad",
        -8.42369300385895
      ],
      [
        "▁hora",
        -8.427517649584392
      ],
      [
        "▁seguridad",
        -8.429297407486464
      ],
      [
        "▁problemas",
        -8.432220340678482
      ],
      [
        "▁partir",
        -8.434402490917078
      ],
      [
        "▁15",
        -8.435836843176649
      ],
      [
        "▁siguientes",
        -8.435896262949488
      ],
      [
        "▁grandes",
        -8.436942798653433
      ],
      [
        "▁estoy",
        -8.438178604239457
      ],
      [
        "▁haya",
        -8.439012640607173
      ],
      [
        "▁algún",
        -8.44060629644337
      ],
      [
        "▁tienes",
        -8.441167825439884
      ],
      [
        "▁Su",
        -8.44153345989615
      ],
      [
        "▁final",
        -8.442465574302423
      ],
      [
        "▁meses",
        -8.442996669997848
      ],
      [
        "▁llegar",
        -8.444330239134219
      ],
      [
        "▁Que",
        -8.445496777158265
      ],
      [
        "▁web",
        -8.445640593293508
      ],
      [
        "▁niños",
        -8.45083499776742
      ],
      [
        "▁incluso",
        -8.451762807882961
      ],
      [
        "▁LA",
        -8.455924413400092
      ],
      [
        "▁situación",
        -8.455943955123344
      ],
      [
        "▁6",
        -8.457607646972015
      ],
      [
        "▁empresas",
        -8.460930148582774
      ],
      [
        "▁equipo",
        -8.464985091489025
      ],
      [
        "▁algunas",
        -8.470757719484105
      ],
      [
        "▁experiencia",
        -8.47930958194987
      ],
      [
        "▁conocer",
        -8.47990093445838
      ],
      [
        "▁agua",
        -8.480249376450478
      ],
      [
        "▁podrá",
        -8.48044281262071
      ],
      [
        "das",
        -8.480561186239862
      ],
      [
        "▁salud",
        -8.481840514454696
      ],
      [
        "▁necesario",
        -8.484341138453484
      ],
      [
        "▁seguir",
        -8.484668516682856
      ],
      [
        "▁largo",
        -8.485229266651917
      ],
      [
        "▁derechos",
        -8.495309165962595
      ],
      [
        "▁luego",
        -8.496381618094736
      ],
      [
        "▁atención",
        -8.497217084845378
      ],
      [
        "▁verdad",
        -8.499061695449507
      ],
      [
        "▁podría",
        -8.501088756335426
      ],
      [
        "▁problema",
        -8.51100210538627
      ],
      [
        "▁mejores",
        -8.513472923615607
      ],
      [
        "▁Nacional",
        -8.515333313644797
      ],
      [
        "▁nombre",
        -8.521336256831015
      ],
      [
        "▁falta",
        -8.522525373478581
      ],
      [
        "▁da",
        -8.523220960567214
      ],
      [
        "▁ayuda",
        -8.523672213980579
      ],
      [
        "▁Estados",
        -8.525388763574943
      ],
      [
        "▁semana",
        -8.526635080790268
      ],
      [
        "▁actividad",
        -8.527189062922327
      ],
      [
        "▁nosotros",
        -8.527517425716026
      ],
      [
        "▁mediante",
        -8.528134491452821
      ],
      [
        "▁encontrar",
        -8.529740737260926
      ],
      [
        "▁deben",
        -8.532627633887435
      ],
      [
        "▁fueron",
        -8.537379882074564
      ],
      [
        "▁30",
        -8.538622753718004
      ],
      [
        "ía",
        -8.542968996565701
      ],
      [
        "m",
        -8.544478783581498
      ],
      [
        "▁hombre",
        -8.545722139040477
      ],
      [
        "▁mayoría",
        -8.547380246341918
      ],
      [
        "▁respecto",
        -8.54825549129518
      ],
      [
        "▁usted",
        -8.551071003348811
      ],
      [
        "▁cambio",
        -8.557786638282872
      ],
      [
        "▁pueda",
        -8.558404915112678
      ],
      [
        "▁alguien",
        -8.558610300784634
      ],
      [
        "h",
        -8.5619084466765
      ],
      [
        "▁tenía",
        -8.568320580933676
      ],
      [
        "▁C",
        -8.569285244967881
      ],
      [
        "▁También",
        -8.57078154270529
      ],
      [
        "▁acceso",
        -8.571485101577025
      ],
      [
        "▁tras",
        -8.574984624407913
      ],
      [
        "el",
        -8.584557312164824
      ],
      [
        "▁dice",
        -8.586517155153363
      ],
      [
        "▁•",
        -8.588889847579585
      ],
      [
        "▁paso",
        -8.592469575634526
      ],
      [
        "▁cuanto",
        -8.593550608197667
      ],
      [
        "▁objetivo",
        -8.59432861726687
      ],
      [
        "▁recursos",
        -8.59493153975502
      ],
      [
        "▁8",
        -8.596174135223649
      ],
      [
        "▁ningún",
        -8.597082407954337
      ],
      [
        "▁1.",
        -8.598186009379257
      ],
      [
        "▁igual",
        -8.600620246041634
      ],
      [
        "▁estamos",
        -8.602350609121487
      ],
      [
        "▁general",
        -8.603558255751599
      ],
      [
        "▁último",
        -8.605278984762487
      ],
      [
        "▁ciudad",
        -8.605997199162912
      ],
      [
        "▁puedo",
        -8.606988209304422
      ],
      [
        "▁programa",
        -8.61067052662443
      ],
      [
        "▁base",
        -8.611025450221192
      ],
      [
        "▁tomar",
        -8.613133928263075
      ],
      [
        "▁valor",
        -8.615072151390013
      ],
      [
        "▁12",
        -8.61712360354065
      ],
      [
        "▁gusta",
        -8.61771153721244
      ],
      [
        "▁tema",
        -8.620175028913735
      ],
      [
        "▁2.",
        -8.621105843272193
      ],
      [
        "▁ello",
        -8.621563204027273
      ],
      [
        "▁siendo",
        -8.627707992267682
      ],
      [
        "▁¿",
        -8.62926037104744
      ],
      [
        "▁Gobierno",
        -8.630308272131014
      ],
      [
        "▁Esto",
        -8.632492874954746
      ],
      [
        "▁¡",
        -8.632960029321687
      ],
      [
        "▁mujeres",
        -8.63579013563955
      ],
      [
        "p",
        -8.63671233208606
      ],
      [
        "las",
        -8.63673060096741
      ],
      [
        "▁Te",
        -8.638844328354738
      ],
      [
        "▁18",
        -8.64285950496229
      ],
      [
        "▁mil",
        -8.645256767498132
      ],
      [
        "al",
        -8.645683648215524
      ],
      [
        "▁total",
        -8.646848179581498
      ],
      [
        "▁Estado",
        -8.647674661714593
      ],
      [
        "▁sector",
        -8.64889167539203
      ],
      [
        "▁cuatro",
        -8.658011266810487
      ],
      [
        "les",
        -8.658013583949367
      ],
      [
        "▁7",
        -8.660341622167131
      ],
      [
        "▁dicho",
        -8.662542639306396
      ],
      [
        "no",
        -8.662925661183653
      ],
      [
        "▁social",
        -8.663882000571189
      ],
      [
        "▁bastante",
        -8.666835152151098
      ],
      [
        "▁encuentra",
        -8.667060806151063
      ],
      [
        "▁centro",
        -8.667084450530234
      ],
      [
        "▁mercado",
        -8.667258921556815
      ],
      [
        "▁aplicación",
        -8.66811158424822
      ],
      [
        "▁O",
        -8.66880783895218
      ],
      [
        "▁permite",
        -8.66968656346164
      ],
      [
        "▁Así",
        -8.671800554752359
      ],
      [
        "▁demás",
        -8.671851585024516
      ],
      [
        "que",
        -8.672109175023303
      ],
      [
        "▁público",
        -8.67273963992992
      ],
      [
        "▁—",
        -8.674487556954809
      ],
      [
        "▁idea",
        -8.676469004578117
      ],
      [
        "▁control",
        -8.67691302423342
      ],
      [
        "▁zona",
        -8.677667453690225
      ],
      [
        "▁casos",
        -8.677779758413482
      ],
      [
        "▁medios",
        -8.678012467880311
      ],
      [
        "▁años,",
        -8.679494671548914
      ],
      [
        "í",
        -8.679820206678663
      ],
      [
        "▁libro",
        -8.6817684474826
      ],
      [
        "▁Dios",
        -8.683650132757904
      ],
      [
        "▁pasar",
        -8.683696952839576
      ],
      [
        "▁producto",
        -8.687796827157207
      ],
      [
        "ta",
        -8.688158403602245
      ],
      [
        "▁mal",
        -8.688853562717297
      ],
      [
        "▁van",
        -8.690649443149082
      ],
      [
        "▁frente",
        -8.691764335731158
      ],
      [
        "▁cuerpo",
        -8.693455067978972
      ],
      [
        "▁cantidad",
        -8.69966417953481
      ],
      [
        "▁países",
        -8.701317431836015
      ],
      [
        "▁varios",
        -8.710653028694763
      ],
      [
        "▁¿Qué",
        -8.710998244746463
      ],
      [
        "re",
        -8.713493719756494
      ],
      [
        "▁página",
        -8.716202038705037
      ],
      [
        "▁mes",
        -8.716503986900172
      ],
      [
        "▁Hay",
        -8.716882728623279
      ],
      [
        "ado",
        -8.717285207824368
      ],
      [
        "▁llevar",
        -8.71857664840461
      ],
      [
        "ron",
        -8.718853862918824
      ],
      [
        "▁política",
        -8.71895216467557
      ],
      [
        "▁puesto",
        -8.722081619065198
      ],
      [
        "▁soy",
        -8.722357055490876
      ],
      [
        "▁gobierno",
        -8.723267118523454
      ],
      [
        "▁dejar",
        -8.723913488331142
      ],
      [
        "▁precio",
        -8.724538628084009
      ],
      [
        "▁«",
        -8.726998993465745
      ],
      [
        "▁sean",
        -8.727308027581568
      ],
      [
        "▁sitio",
        -8.731154497849674
      ],
      [
        "▁has",
        -8.733017889702392
      ],
      [
        "▁capacidad",
        -8.735848343838196
      ],
      [
        "▁evitar",
        -8.739745707324555
      ],
      [
        "▁dinero",
        -8.740698826396924
      ],
      [
        "▁mujer",
        -8.743479406775819
      ],
      [
        "▁cabo",
        -8.746067563686871
      ],
      [
        "▁presidente",
        -8.753971975402706
      ],
      [
        "▁resultados",
        -8.75504449507376
      ],
      [
        "▁voy",
        -8.75569220421104
      ],
      [
        "is",
        -8.75932543778087
      ],
      [
        "▁Artículo",
        -8.759338765020662
      ],
      [
        "▁nuevas",
        -8.761065336157492
      ],
      [
        "▁medidas",
        -8.766942927671636
      ],
      [
        "▁familia",
        -8.77008759591901
      ],
      [
        "▁quiero",
        -8.771544602020542
      ],
      [
        "emos",
        -8.776409382458876
      ],
      [
        "▁Mi",
        -8.778435692631799
      ],
      [
        "▁mejorar",
        -8.780559956933136
      ],
      [
        "▁realidad",
        -8.781706703091732
      ],
      [
        "▁nuestras",
        -8.782196412598253
      ],
      [
        "▁deberá",
        -8.783534799978224
      ],
      [
        "▁esos",
        -8.784881397478333
      ],
      [
        "▁Desde",
        -8.785859512507532
      ],
      [
        "▁vamos",
        -8.787562166862067
      ],
      [
        "▁seguro",
        -8.789838909458767
      ],
      [
        "▁sería",
        -8.793641478567828
      ],
      [
        "▁Unidos",
        -8.793729094563846
      ],
      [
        "▁espacio",
        -8.79722050978021
      ],
      [
        "▁entonces",
        -8.799078968003014
      ],
      [
        "▁crear",
        -8.799244605764924
      ],
      [
        "▁gestión",
        -8.799691668184597
      ],
      [
        "▁resto",
        -8.80122146085441
      ],
      [
        "▁Ya",
        -8.804462041942354
      ],
      [
        "▁cuales",
        -8.804883772774716
      ],
      [
        "▁leer",
        -8.80634541322727
      ],
      [
        "▁cinco",
        -8.80704064969292
      ],
      [
        "ban",
        -8.809820665547452
      ],
      [
        "▁diciembre",
        -8.811755292429918
      ],
      [
        "▁estudio",
        -8.811915876506617
      ],
      [
        "▁fecha",
        -8.812521434924673
      ],
      [
        "▁segundo",
        -8.814324778589475
      ],
      [
        "▁especial",
        -8.818366307840995
      ],
      [
        "▁hacen",
        -8.819536580669784
      ],
      [
        "ido",
        -8.820043058863966
      ],
      [
        "▁efectos",
        -8.821437569924804
      ],
      [
        "▁único",
        -8.824657124695554
      ],
      [
        "▁cerca",
        -8.824680058189049
      ],
      [
        "▁modo",
        -8.82500971449652
      ],
      [
        "▁haciendo",
        -8.825274724318454
      ],
      [
        "▁puntos",
        -8.82557843645732
      ],
      [
        "▁dado",
        -8.825635333243012
      ],
      [
        "▁serie",
        -8.825836168123718
      ],
      [
        "▁EL",
        -8.827141887336065
      ],
      [
        "▁quiere",
        -8.836778154125344
      ],
      [
        "ciones",
        -8.837979018597665
      ],
      [
        "▁debido",
        -8.838895018804113
      ],
      [
        "▁serán",
        -8.839402823396941
      ],
      [
        "▁amor",
        -8.84022420171898
      ],
      [
        "▁plazo",
        -8.840776735284024
      ],
      [
        "▁riesgo",
        -8.842025964173104
      ],
      [
        "▁puedan",
        -8.843297492126977
      ],
      [
        "▁quienes",
        -8.845035232536144
      ],
      [
        "▁hablar",
        -8.845541915933513
      ],
      [
        "er",
        -8.847225259764096
      ],
      [
        "▁16",
        -8.848366465580977
      ],
      [
        "▁nuevos",
        -8.848763318156603
      ],
      [
        "▁obtener",
        -8.853863284019162
      ],
      [
        "▁realmente",
        -8.858942356308757
      ],
      [
        "▁unas",
        -8.862256595309379
      ],
      [
        "▁visto",
        -8.865033686748612
      ],
      [
        "▁varias",
        -8.86680817535334
      ],
      [
        "▁sociedad",
        -8.868946011116268
      ],
      [
        "▁aquellos",
        -8.87046355072075
      ],
      [
        "▁últimos",
        -8.874074904328806
      ],
      [
        "▁medida",
        -8.874656059695862
      ],
      [
        "g",
        -8.874845232591326
      ],
      [
        "▁resultado",
        -8.87577801622966
      ],
      [
        "▁plan",
        -8.87598833306781
      ],
      [
        "▁camino",
        -8.876178225636629
      ],
      [
        "▁minutos",
        -8.877555889550253
      ],
      [
        "mo",
        -8.880756592530567
      ],
      [
        "▁contacto",
        -8.880788363791474
      ],
      [
        "ti",
        -8.880898506938628
      ],
      [
        "▁Además,",
        -8.88245541193206
      ],
      [
        "x",
        -8.88309558295649
      ],
      [
        "▁podrán",
        -8.883152112065503
      ],
      [
        "▁poner",
        -8.883824522219012
      ],
      [
        "▁propio",
        -8.883961796229013
      ],
      [
        "▁pesar",
        -8.884737005197415
      ],
      [
        "▁Ahora",
        -8.88490924848528
      ],
      [
        "▁cosa",
        -8.886045931378682
      ],
      [
        "▁sociales",
        -8.887738979974625
      ],
      [
        "▁clientes",
        -8.889976890083197
      ],
      [
        "to",
        -8.890795687588469
      ],
      [
        "▁acciones",
        -8.891631853759908
      ],
      [
        "▁hizo",
        -8.89222031361789
      ],
      [
        "▁caso,",
        -8.892896273622057
      ],
      [
        "▁3.",
        -8.89359831566978
      ],
      [
        "▁interés",
        -8.893631844798284
      ],
      [
        "▁usuarios",
        -8.894142095033535
      ],
      [
        "▁Hola",
        -8.8993438903024
      ],
      [
        "▁junto",
        -8.90167883596266
      ],
      [
        "▁primero",
        -8.90192181633018
      ],
      [
        "▁Gracias",
        -8.90374696513972
      ],
      [
        "▁lado",
        -8.90419977547462
      ],
      [
        "▁proyectos",
        -8.90725740333869
      ],
      [
        "▁9",
        -8.9101206907201
      ],
      [
        "▁mucha",
        -8.910836696679883
      ],
      [
        "▁formación",
        -8.910962656574572
      ],
      [
        "▁años.",
        -8.911645938919552
      ],
      [
        "▁redes",
        -8.9124578695376
      ],
      [
        "▁14",
        -8.91251531554562
      ],
      [
        "ra",
        -8.912643810872156
      ],
      [
        "▁fácil",
        -8.91376429272586
      ],
      [
        "▁conseguir",
        -8.914339797889099
      ],
      [
        "▁tenido",
        -8.9157331289539
      ],
      [
        "▁propia",
        -8.915999087590084
      ],
      [
        "▁blog",
        -8.918003981445096
      ],
      [
        "▁ley",
        -8.918903304644449
      ],
      [
        "▁sentido",
        -8.919095643778892
      ],
      [
        "▁mantener",
        -8.920273596226227
      ],
      [
        "▁ejercicio",
        -8.924554377603314
      ],
      [
        "▁comunicación",
        -8.925429305388452
      ],
      [
        "▁contenido",
        -8.925936053668403
      ],
      [
        "▁General",
        -8.926083757006737
      ],
      [
        "▁función",
        -8.926177309777493
      ],
      [
        "▁nadie",
        -8.926900590000493
      ],
      [
        "▁pasa",
        -8.92710451676595
      ],
      [
        "▁claro",
        -8.928476081287718
      ],
      [
        "▁obra",
        -8.930408409948905
      ],
      [
        "ci",
        -8.930645125242048
      ],
      [
        "▁apoyo",
        -8.931160286358065
      ],
      [
        "▁San",
        -8.9330162664087
      ],
      [
        "▁Aunque",
        -8.933388426181281
      ],
      [
        "▁EN",
        -8.933887000350918
      ],
      [
        "▁mí",
        -8.936779597919383
      ],
      [
        "▁quieres",
        -8.937720324854798
      ],
      [
        "▁ninguna",
        -8.939794204434836
      ],
      [
        "▁sigue",
        -8.943635446473365
      ],
      [
        "▁responsabilidad",
        -8.946286184344512
      ],
      [
        "▁esas",
        -8.947703619893888
      ],
      [
        "▁orden",
        -8.94890783800469
      ],
      [
        "▁España",
        -8.949348207448619
      ],
      [
        "rá",
        -8.950409627244
      ],
      [
        "▁E",
        -8.952591823388548
      ],
      [
        "▁24",
        -8.952647778144533
      ],
      [
        "▁sé",
        -8.954236896275045
      ],
      [
        "▁favor",
        -8.954730721047667
      ],
      [
        "▁ciento",
        -8.955850171865615
      ],
      [
        "▁correo",
        -8.956147884116866
      ],
      [
        "▁queda",
        -8.958561478654083
      ],
      [
        "▁mano",
        -8.95871558571735
      ],
      [
        "▁ti",
        -8.959170101691257
      ],
      [
        "▁oportunidad",
        -8.960031367993006
      ],
      [
        "▁tratamiento",
        -8.963395960855856
      ],
      [
        "!!",
        -8.964481544308441
      ],
      [
        "b",
        -8.968153053477337
      ],
      [
        "▁pensar",
        -8.970431806080427
      ],
      [
        "▁segunda",
        -8.971155221423565
      ],
      [
        "▁duda",
        -8.971269183330993
      ],
      [
        "▁participación",
        -8.971312095083247
      ],
      [
        "▁trabajar",
        -8.971949900733442
      ],
      [
        "▁cierto",
        -8.976602035255782
      ],
      [
        "A",
        -8.97982771607775
      ],
      [
        "▁red",
        -8.981030127195485
      ],
      [
        "▁25",
        -8.983164042015392
      ],
      [
        "▁utilizar",
        -8.98549507255292
      ],
      [
        "▁13",
        -8.98601999858629
      ],
      [
        "▁curso",
        -8.98709549650739
      ],
      [
        "co",
        -8.988785522237473
      ],
      [
        "▁principal",
        -8.99148422140456
      ],
      [
        "▁dirección",
        -8.992596059299716
      ],
      [
        "▁necesidad",
        -8.993634053033393
      ],
      [
        "▁17",
        -8.994153152225165
      ],
      [
        "▁principales",
        -8.995243397791263
      ],
      [
        "▁juego",
        -8.995370501886752
      ],
      [
        "▁salir",
        -8.99575834762334
      ],
      [
        "▁protección",
        -8.999302281584775
      ],
      [
        "▁producción",
        -8.999955552067028
      ],
      [
        "▁ejemplo",
        -9.000156356626402
      ],
      [
        "▁disfrutar",
        -9.001813248676221
      ],
      [
        "▁in",
        -9.0028488674178
      ],
      [
        "▁materia",
        -9.003980952032046
      ],
      [
        "▁noche",
        -9.005327713245606
      ],
      [
        "▁respuesta",
        -9.007026140664056
      ],
      [
        "▁modelo",
        -9.007645134232714
      ],
      [
        "▁diseño",
        -9.008807135568933
      ],
      [
        "▁existe",
        -9.010370309587671
      ],
      [
        "▁carácter",
        -9.010987068268136
      ],
      [
        "▁lista",
        -9.01320768603707
      ],
      [
        "E",
        -9.013891341744127
      ],
      [
        "▁elementos",
        -9.01566173180327
      ],
      [
        "▁pago",
        -9.016154602424532
      ],
      [
        "▁nacional",
        -9.017355255348038
      ],
      [
        "▁peso",
        -9.017497898875149
      ],
      [
        "▁energía",
        -9.019876377102591
      ],
      [
        "▁Ministerio",
        -9.023054048793117
      ],
      [
        "▁cambiar",
        -9.02331909258012
      ],
      [
        "▁vista",
        -9.023528568302897
      ],
      [
        "▁próximo",
        -9.0237692451135
      ],
      [
        "▁miembros",
        -9.024755097190742
      ],
      [
        "▁imagen",
        -9.02502471901054
      ],
      [
        "ro",
        -9.027935941804223
      ],
      [
        "▁organización",
        -9.027941786800332
      ],
      [
        "▁necesidades",
        -9.028212519070134
      ],
      [
        "R",
        -9.028292160005215
      ],
      [
        "▁alta",
        -9.034617837870648
      ],
      [
        "▁ellas",
        -9.035049200578587
      ],
      [
        "▁usar",
        -9.035485593053707
      ],
      [
        "▁etc.",
        -9.03589696009438
      ],
      [
        "▁ofrece",
        -9.037196263018828
      ],
      [
        "▁tú",
        -9.039162146660267
      ],
      [
        "ca",
        -9.039887386643729
      ],
      [
        "▁11",
        -9.04008947928897
      ],
      [
        "▁México",
        -9.040635116397992
      ],
      [
        "▁investigación",
        -9.040705007076069
      ],
      [
        "L",
        -9.040865277011356
      ],
      [
        "▁todavía",
        -9.04210765919537
      ],
      [
        "▁tenga",
        -9.044957725831702
      ],
      [
        "▁última",
        -9.046213699273359
      ],
      [
        "ada",
        -9.04622582445407
      ],
      [
        "▁ayudar",
        -9.050266108853789
      ],
      [
        "▁ex",
        -9.050305480684791
      ],
      [
        "▁ojos",
        -9.050498488429417
      ],
      [
        "▁ejemplo,",
        -9.052314205319842
      ],
      [
        "▁profesionales",
        -9.05448950471023
      ],
      [
        "▁acción",
        -9.05800126580891
      ],
      [
        "▁decir,",
        -9.058777303001587
      ],
      [
        "▁estás",
        -9.059295044012911
      ],
      [
        "▁línea",
        -9.059961213303316
      ],
      [
        "▁alto",
        -9.060842230209676
      ],
      [
        "▁volver",
        -9.061350257821893
      ],
      [
        "▁tendrá",
        -9.062819166859768
      ],
      [
        "▁posibilidad",
        -9.063003178989476
      ],
      [
        "▁luz",
        -9.06581822529578
      ],
      [
        "▁mañana",
        -9.066185874548067
      ],
      [
        "▁cambios",
        -9.066407441324932
      ],
      [
        "▁Todo",
        -9.06712675956805
      ],
      [
        "▁grupos",
        -9.067937375345148
      ],
      [
        "▁entrada",
        -9.07030715631667
      ],
      [
        ".-",
        -9.080026392694766
      ],
      [
        "▁papel",
        -9.080618178722535
      ],
      [
        "▁hombres",
        -9.082317229402312
      ],
      [
        "▁viene",
        -9.082688787312605
      ],
      [
        "▁vivir",
        -9.084067604457331
      ],
      [
        "▁color",
        -9.087113577861562
      ],
      [
        "▁euros",
        -9.091297807918185
      ],
      [
        "▁difícil",
        -9.092745037414137
      ],
      [
        "▁edad",
        -9.09483432281605
      ],
      [
        "▁B",
        -9.097306676989527
      ],
      [
        "▁esté",
        -9.097488818365653
      ],
      [
        "▁sabe",
        -9.101692332270645
      ],
      [
        "▁Comisión",
        -9.10266126846988
      ],
      [
        "▁máximo",
        -9.104741310769029
      ],
      [
        "ce",
        -9.105563763865039
      ],
      [
        "▁hijos",
        -9.10677556640036
      ],
      [
        "▁palabras",
        -9.1084316133374
      ],
      [
        "ría",
        -9.108698922735849
      ],
      [
        "▁efecto",
        -9.108814774400638
      ],
      [
        "▁causa",
        -9.110537608183524
      ],
      [
        "▁correspondiente",
        -9.110926197772674
      ],
      [
        "▁tanto,",
        -9.111217819806463
      ],
      [
        "▁importancia",
        -9.111250326130214
      ],
      [
        "▁buscar",
        -9.114024216487662
      ],
      [
        "▁b)",
        -9.114398444418743
      ],
      [
        "N",
        -9.116197641904805
      ],
      [
        "▁principio",
        -9.116617524327179
      ],
      [
        "▁ahí",
        -9.117260890977128
      ],
      [
        "▁cargo",
        -9.117944823493207
      ],
      [
        "▁19",
        -9.118691408215156
      ],
      [
        "▁QUE",
        -9.11965410261346
      ],
      [
        "▁especialmente",
        -9.119774566602239
      ],
      [
        "▁ve",
        -9.120626086861606
      ],
      [
        "es,",
        -9.121468424039033
      ],
      [
        "▁Le",
        -9.122445736775365
      ],
      [
        "▁hacerlo",
        -9.123996689866383
      ],
      [
        "▁pequeño",
        -9.124573638377974
      ],
      [
        "di",
        -9.124760076948574
      ],
      [
        "▁acerca",
        -9.127257279462032
      ],
      [
        "▁comprar",
        -9.128996707026753
      ],
      [
        "▁conocimiento",
        -9.13087722050553
      ],
      [
        "▁superior",
        -9.13375818786023
      ],
      [
        "▁autoridades",
        -9.134114258269394
      ],
      [
        "▁pública",
        -9.134664871544345
      ],
      [
        "▁libre",
        -9.135081110196083
      ],
      [
        "▁Según",
        -9.135386486505741
      ],
      [
        "▁profesional",
        -9.137343921686298
      ],
      [
        "▁jóvenes",
        -9.137664643852602
      ],
      [
        "▁baja",
        -9.138509757437316
      ],
      [
        "▁estudios",
        -9.138674563224818
      ],
      [
        "▁demasiado",
        -9.138711319781393
      ],
      [
        "v",
        -9.138727939128696
      ],
      [
        "res",
        -9.139573121638373
      ],
      [
        "▁crecimiento",
        -9.14003123380796
      ],
      [
        "▁eres",
        -9.14072283640647
      ],
      [
        "▁Son",
        -9.142268459678824
      ],
      [
        "ni",
        -9.143398404293544
      ],
      [
        "▁lleva",
        -9.143608604254686
      ],
      [
        "ando",
        -9.144688327609089
      ],
      [
        "▁julio",
        -9.150646817156806
      ],
      [
        "▁población",
        -9.151144239026547
      ],
      [
        "rse",
        -9.151526529287441
      ],
      [
        "▁futuro",
        -9.152639794082543
      ],
      [
        "▁I",
        -9.152774379449966
      ],
      [
        "▁características",
        -9.153500755675868
      ],
      [
        "▁usuario",
        -9.154689650078804
      ],
      [
        "▁pueblo",
        -9.155140710679927
      ],
      [
        "▁cumplimiento",
        -9.156349934664057
      ],
      [
        "▁importantes",
        -9.156666760556305
      ],
      [
        "▁éxito",
        -9.15695378779469
      ],
      [
        "▁padres",
        -9.159678743742887
      ],
      [
        "▁actual",
        -9.16420148398593
      ],
      [
        "▁opción",
        -9.164218978318608
      ],
      [
        "▁objeto",
        -9.16427420411228
      ],
      [
        "▁par",
        -9.165121299124063
      ],
      [
        "f",
        -9.166828313295744
      ],
      [
        "▁tarde",
        -9.167098329158183
      ],
      [
        "▁bueno",
        -9.168720821618443
      ],
      [
        "▁contar",
        -9.170414033904397
      ],
      [
        "▁pena",
        -9.17205670652858
      ],
      [
        "▁50",
        -9.172312019056147
      ],
      [
        "▁somos",
        -9.172601648668433
      ],
      [
        "▁He",
        -9.173114286458073
      ],
      [
        "▁única",
        -9.17358821112937
      ],
      [
        "▁funciones",
        -9.173598594758323
      ],
      [
        "▁primeros",
        -9.174360969923455
      ],
      [
        "▁podía",
        -9.174534802128438
      ],
      [
        "▁junio",
        -9.182204995856917
      ],
      [
        "▁menor",
        -9.182354154801683
      ],
      [
        "▁aire",
        -9.184433680128926
      ],
      [
        "▁niño",
        -9.185765026911604
      ],
      [
        "▁deberán",
        -9.185780851475812
      ],
      [
        "ga",
        -9.186012162605177
      ],
      [
        "▁marca",
        -9.188720180129055
      ],
      [
        "▁consumo",
        -9.188762856940954
      ],
      [
        "▁programas",
        -9.190379976370519
      ],
      [
        "'",
        -9.190659091988643
      ],
      [
        "▁Hoy",
        -9.192739037732968
      ],
      [
        "▁bien,",
        -9.192817184827737
      ],
      [
        "▁S",
        -9.19323105550755
      ],
      [
        "▁Re",
        -9.194580551845519
      ],
      [
        "▁relaciones",
        -9.195294012059591
      ],
      [
        "▁partes",
        -9.195773471845978
      ],
      [
        "▁cumplir",
        -9.196200454212743
      ],
      [
        "▁razón",
        -9.197114364731348
      ],
      [
        "▁eran",
        -9.198545029459414
      ],
      [
        "▁enero",
        -9.198674638640217
      ],
      [
        "▁temas",
        -9.19972624085161
      ],
      [
        "▁requisitos",
        -9.201285831181574
      ],
      [
        "▁normas",
        -9.203445477864033
      ],
      [
        "▁a)",
        -9.204689000898126
      ],
      [
        "▁viaje",
        -9.204983763858019
      ],
      [
        "▁octubre",
        -9.207189944822659
      ],
      [
        "▁seis",
        -9.208933708390127
      ],
      [
        "▁mismos",
        -9.212323254004914
      ],
      [
        "▁Además",
        -9.212365545057178
      ],
      [
        "▁capital",
        -9.213015782588656
      ],
      [
        "▁dio",
        -9.21311529220526
      ],
      [
        "▁área",
        -9.213468292891898
      ],
      [
        "▁pagar",
        -9.213637833988154
      ],
      [
        "▁diferencia",
        -9.213638849933702
      ],
      [
        "▁amigos",
        -9.214251234160113
      ],
      [
        "▁artículos",
        -9.215873077199262
      ],
      [
        "▁decisión",
        -9.216658781508094
      ],
      [
        "▁septiembre",
        -9.217457776289145
      ],
      [
        "▁muestra",
        -9.217843112635073
      ],
      [
        "▁grande",
        -9.222411912553891
      ],
      [
        "▁anterior",
        -9.222512761487643
      ],
      [
        "▁¿Cómo",
        -9.225479162713771
      ],
      [
        "▁necesita",
        -9.226239505069838
      ],
      [
        "▁madre",
        -9.226723440746827
      ],
      [
        "▁lugares",
        -9.22679151100914
      ],
      [
        "▁vida.",
        -9.22722487184392
      ],
      [
        "▁compañía",
        -9.228066047739125
      ],
      [
        "▁beneficios",
        -9.228091591185015
      ],
      [
        "▁interior",
        -9.22819653019507
      ],
      [
        "▁manos",
        -9.228892754493671
      ],
      [
        "▁análisis",
        -9.228995476157067
      ],
      [
        "▁sistemas",
        -9.229103249794118
      ],
      [
        "▁compartir",
        -9.229401063662564
      ],
      [
        "▁aprender",
        -9.22982772111181
      ],
      [
        "▁fuerza",
        -9.23056684643921
      ],
      [
        "▁comunidad",
        -9.231769513246773
      ],
      [
        "▁lograr",
        -9.232064144450444
      ],
      [
        "▁Muchas",
        -9.233169929884873
      ],
      [
        "▁precios",
        -9.23364460143577
      ],
      [
        "▁2018",
        -9.23530721254701
      ],
      [
        "▁22",
        -9.236038303864529
      ],
      [
        "▁educación",
        -9.23608904708621
      ],
      [
        "▁participar",
        -9.236969997757882
      ],
      [
        "▁significa",
        -9.23726856497448
      ],
      [
        "▁objetivos",
        -9.23769280047222
      ],
      [
        "▁Todos",
        -9.239872801043102
      ],
      [
        "▁Después",
        -9.24037445249976
      ],
      [
        "▁presencia",
        -9.242377127345371
      ],
      [
        "▁Consejo",
        -9.246106703780864
      ],
      [
        "▁recibir",
        -9.246956314322063
      ],
      [
        "C",
        -9.247844662129271
      ],
      [
        "▁obras",
        -9.247953923161191
      ],
      [
        "▁21",
        -9.248825452535138
      ],
      [
        "▁4.",
        -9.249793908476416
      ],
      [
        "ve",
        -9.25429534586727
      ],
      [
        "▁venta",
        -9.256526034606253
      ],
      [
        "▁pregunta",
        -9.256529961506924
      ],
      [
        "▁material",
        -9.25810721153436
      ],
      [
        "▁texto",
        -9.258941927701606
      ],
      [
        "▁cabeza",
        -9.259073565755457
      ],
      [
        "▁directamente",
        -9.25937594389723
      ],
      [
        "▁imágenes",
        -9.259632811080152
      ],
      [
        "▁prueba",
        -9.259812683054994
      ],
      [
        "!!!",
        -9.262172909340968
      ],
      [
        "▁formas",
        -9.26378095259096
      ],
      [
        "▁muerte",
        -9.26437546390363
      ],
      [
        "mi",
        -9.264931410583381
      ],
      [
        "▁siglo",
        -9.26601804185726
      ],
      [
        "▁cuyo",
        -9.26737773947222
      ],
      [
        "▁alumnos",
        -9.270155924187936
      ],
      [
        "▁alrededor",
        -9.27042034687491
      ],
      [
        "5",
        -9.270759604390904
      ],
      [
        "▁media",
        -9.273082541115667
      ],
      [
        "▁disposición",
        -9.274142015839606
      ],
      [
        "▁trabajadores",
        -9.275743183249961
      ],
      [
        "▁noviembre",
        -9.278801045798753
      ],
      [
        "z",
        -9.279406258574213
      ],
      [
        "▁práctica",
        -9.279968206829286
      ],
      [
        "▁existen",
        -9.28119534629955
      ],
      [
        "▁tiempo,",
        -9.281223491822026
      ],
      [
        "▁términos",
        -9.283374953246444
      ],
      [
        "▁espera",
        -9.286356732936076
      ],
      [
        "▁tampoco",
        -9.286391746574436
      ],
      [
        "▁pequeña",
        -9.289207072998312
      ],
      [
        "▁P",
        -9.289650799655274
      ],
      [
        "▁perder",
        -9.290246089083038
      ],
      [
        "in",
        -9.291693494591748
      ],
      [
        "1",
        -9.292026421803293
      ],
      [
        "▁mayo",
        -9.292186715491276
      ],
      [
        "▁tecnología",
        -9.294127110478957
      ],
      [
        "▁marzo",
        -9.294456284581386
      ],
      [
        "▁cara",
        -9.296334764702738
      ],
      [
        "▁campo",
        -9.297979363096683
      ],
      [
        "▁alimentos",
        -9.298610404885267
      ],
      [
        "▁Pues",
        -9.299994519278641
      ],
      [
        "ri",
        -9.302650080629519
      ],
      [
        "▁simplemente",
        -9.302908475144411
      ],
      [
        "▁hijo",
        -9.30356910741813
      ],
      [
        "ación",
        -9.30424945690054
      ],
      [
        "▁mayores",
        -9.304733759213555
      ],
      [
        "▁100",
        -9.304824534868322
      ],
      [
        "▁niveles",
        -9.307301010803776
      ],
      [
        "▁busca",
        -9.310696663249677
      ],
      [
        "▁procesos",
        -9.31146795029371
      ],
      [
        "idad",
        -9.312032733436848
      ],
      [
        "▁mínimo",
        -9.312345676926203
      ],
      [
        "▁iba",
        -9.31357602926937
      ],
      [
        "▁allá",
        -9.314970293967372
      ],
      [
        "▁fotos",
        -9.315733083213615
      ],
      [
        "ma",
        -9.316611037678406
      ],
      [
        "▁cliente",
        -9.317007368682255
      ],
      [
        "▁aspectos",
        -9.317816310093413
      ],
      [
        "▁ámbito",
        -9.31901822982289
      ],
      [
        "▁inversión",
        -9.320094304356733
      ],
      [
        "▁clase",
        -9.320750308992288
      ],
      [
        "▁suficiente",
        -9.321237483818285
      ],
      [
        "▁económico",
        -9.321723781690526
      ],
      [
        "▁políticas",
        -9.322522990140035
      ],
      [
        "▁miedo",
        -9.323967140690737
      ],
      [
        "▁compra",
        -9.324926945799788
      ],
      [
        "P",
        -9.326964116039807
      ],
      [
        "4",
        -9.329768152489406
      ],
      [
        "▁fuerte",
        -9.331290976248194
      ],
      [
        "▁23",
        -9.33181271108742
      ],
      [
        "je",
        -9.33198323705429
      ],
      [
        "▁apartado",
        -9.332128470442953
      ],
      [
        "▁distintos",
        -9.334007342052255
      ],
      [
        "▁mensaje",
        -9.334384926208273
      ],
      [
        "▁conjunto",
        -9.334714918410523
      ],
      [
        "▁habían",
        -9.338727853031362
      ],
      [
        "ES",
        -9.340012590094322
      ],
      [
        "▁entrar",
        -9.341046054700609
      ],
      [
        "▁creación",
        -9.341190116542379
      ],
      [
        "▁economía",
        -9.341896361251969
      ],
      [
        "▁*",
        -9.343583519869277
      ],
      [
        "▁mar",
        -9.344264399478227
      ],
      [
        "▁Eso",
        -9.345192139187604
      ],
      [
        "▁Durante",
        -9.34718731973974
      ],
      [
        "▁ambos",
        -9.347467658131478
      ],
      [
        "▁bienes",
        -9.349469723347168
      ],
      [
        "▁debemos",
        -9.350025633366654
      ],
      [
        "▁Cada",
        -9.35013450244099
      ],
      [
        "▁entender",
        -9.350482493442373
      ],
      [
        "▁dólares",
        -9.350880307394384
      ],
      [
        "▁allí",
        -9.352641936174159
      ],
      [
        "M",
        -9.354009448375749
      ],
      [
        "▁tuvo",
        -9.354226101251982
      ],
      [
        "▁encuentran",
        -9.355482202025849
      ],
      [
        "▁solución",
        -9.356621329054498
      ],
      [
        "▁instituciones",
        -9.357140351488558
      ],
      [
        "▁totalmente",
        -9.358220844509145
      ],
      [
        "B",
        -9.359507529010838
      ],
      [
        "▁negocio",
        -9.359778942111818
      ],
      [
        "▁haga",
        -9.360327631840953
      ],
      [
        "▁crisis",
        -9.361840912227542
      ],
      [
        "▁tipos",
        -9.362558910169145
      ],
      [
        "tu",
        -9.363494591139688
      ],
      [
        "▁escrito",
        -9.365899071650873
      ],
      [
        "▁internacional",
        -9.36634997270058
      ],
      [
        "▁[",
        -9.366902323868807
      ],
      [
        "▁buenas",
        -9.366962435709414
      ],
      [
        "▁mundo.",
        -9.367387852725761
      ],
      [
        "▁desarrollar",
        -9.367699007388934
      ],
      [
        "▁equipos",
        -9.36829557852585
      ],
      [
        "▁acceder",
        -9.369345877353467
      ],
      [
        "bi",
        -9.369661839283435
      ],
      [
        "▁estilo",
        -9.370171439374744
      ],
      [
        "▁libros",
        -9.371420703049093
      ],
      [
        "▁funcionamiento",
        -9.37355493247793
      ],
      [
        "▁materiales",
        -9.376677278216185
      ],
      [
        "▁y/o",
        -9.378799742727754
      ],
      [
        "▁gustaría",
        -9.379734634072626
      ],
      [
        "▁padre",
        -9.380503395277659
      ],
      [
        "k",
        -9.381047250662355
      ],
      [
        "▁c)",
        -9.381559406399084
      ],
      [
        "»",
        -9.381609229280407
      ],
      [
        "▁real",
        -9.382068906257171
      ],
      [
        "▁hubiera",
        -9.382804476795506
      ],
      [
        "▁debería",
        -9.38290734628183
      ],
      [
        "▁Más",
        -9.383265979273336
      ],
      [
        "▁estaban",
        -9.383657994789719
      ],
      [
        "▁abril",
        -9.385463284374715
      ],
      [
        "▁procedimiento",
        -9.38575461993052
      ],
      [
        "▁construcción",
        -9.386319853463727
      ],
      [
        "pe",
        -9.387229912210303
      ],
      [
        "▁40",
        -9.387297490922869
      ],
      [
        "▁deja",
        -9.3873696554823
      ],
      [
        "▁hayan",
        -9.388003416950301
      ],
      [
        "O",
        -9.389585856677188
      ],
      [
        "▁encima",
        -9.390092401434593
      ],
      [
        "▁escribir",
        -9.392171374390141
      ],
      [
        "cu",
        -9.393243547200491
      ],
      [
        "▁semanas",
        -9.393939169315212
      ],
      [
        "▁responsable",
        -9.394018453041006
      ],
      [
        "▁capaz",
        -9.39752279415514
      ],
      [
        "▁voz",
        -9.398740476617892
      ],
      [
        "▁NO",
        -9.399002611905608
      ],
      [
        "or",
        -9.399003428825447
      ],
      [
        "▁contrato",
        -9.399013920009025
      ],
      [
        "▁informe",
        -9.400193497995904
      ],
      [
        "▁zonas",
        -9.403366549468856
      ],
      [
        "▁preguntas",
        -9.40368345170334
      ],
      [
        "▁acto",
        -9.40618139820159
      ],
      [
        "▁entrega",
        -9.406326185199424
      ],
      [
        "▁vas",
        -9.40652901902836
      ],
      [
        "▁empezar",
        -9.406671508062594
      ],
      [
        "U",
        -9.40668579963646
      ],
      [
        "2",
        -9.407061062834542
      ],
      [
        "00",
        -9.40719024564861
      ],
      [
        "▁‘",
        -9.408463168993432
      ],
      [
        "▁animales",
        -9.409299668370117
      ],
      [
        "▁propuesta",
        -9.40948478983362
      ],
      [
        "▁palabra",
        -9.409603073225451
      ],
      [
        "▁país.",
        -9.410324351378312
      ],
      [
        "▁tratar",
        -9.410726569900149
      ],
      [
        "▁pruebas",
        -9.411838341723762
      ],
      [
        "▁autor",
        -9.412076875199677
      ],
      [
        "▁motivo",
        -9.41227640528239
      ],
      [
        "▁dan",
        -9.412933440033218
      ],
      [
        "ter",
        -9.412977267048657
      ],
      [
        "▁28",
        -9.413293582755891
      ],
      [
        "▁personales",
        -9.414029258486103
      ],
      [
        "▁entidades",
        -9.414053570832815
      ],
      [
        "▁Estos",
        -9.415792905545125
      ],
      [
        "▁debes",
        -9.41595496161792
      ],
      [
        "▁D",
        -9.416159628836823
      ],
      [
        "3",
        -9.41621897790846
      ],
      [
        "▁origen",
        -9.417615776106066
      ],
      [
        "▁administración",
        -9.418225043804362
      ],
      [
        "▁dolor",
        -9.419731506627127
      ],
      [
        "▁corazón",
        -9.420338738782498
      ],
      [
        "▁realizado",
        -9.420539463230185
      ],
      [
        "▁estudiantes",
        -9.420739415683146
      ],
      [
        "▁electrónico",
        -9.420801265983787
      ],
      [
        "▁toma",
        -9.420977393781065
      ],
      [
        "▁habrá",
        -9.420982288914766
      ],
      [
        "▁presentar",
        -9.421440897572047
      ],
      [
        "▁periodo",
        -9.422100035123837
      ],
      [
        "▁diez",
        -9.422112049762674
      ],
      [
        "▁versión",
        -9.422320095630543
      ],
      [
        "▁película",
        -9.425920376110419
      ],
      [
        "▁llega",
        -9.425964744738891
      ],
      [
        "▁ambiente",
        -9.426784675388351
      ],
      [
        "▁vida,",
        -9.427421042943042
      ],
      [
        "▁post",
        -9.42776510484529
      ],
      [
        "▁sentir",
        -9.430495076106311
      ],
      [
        "▁estará",
        -9.431516741106513
      ],
      [
        "▁Nos",
        -9.434023402488384
      ],
      [
        "▁libertad",
        -9.434538180288977
      ],
      [
        "▁tienda",
        -9.434633363221506
      ],
      [
        "▁¿Por",
        -9.436500793310518
      ],
      [
        "▁dispuesto",
        -9.436525368656058
      ],
      [
        "▁oficial",
        -9.438721505002015
      ],
      [
        "▁ello,",
        -9.439135974509593
      ],
      [
        "▁queremos",
        -9.439184845571763
      ],
      [
        "▁distintas",
        -9.439519570932262
      ],
      [
        "▁encuentro",
        -9.441434918965475
      ],
      [
        "▁centros",
        -9.442734713080592
      ],
      [
        "▁natural",
        -9.442826236323725
      ],
      [
        "▁música",
        -9.443048741380728
      ],
      [
        "▁resulta",
        -9.443672720980956
      ],
      [
        "▁26",
        -9.443771172846631
      ],
      [
        "▁empleo",
        -9.444457886295805
      ],
      [
        "▁establecido",
        -9.444480421849153
      ],
      [
        "▁comer",
        -9.44502937690033
      ],
      [
        "6",
        -9.445088131295355
      ],
      [
        "▁siento",
        -9.4458463223842
      ],
      [
        "▁marcha",
        -9.446153528225771
      ],
      [
        "▁éste",
        -9.447257693040804
      ],
      [
        "▁opciones",
        -9.448054886464874
      ],
      [
        "▁laboral",
        -9.45019485104697
      ],
      [
        "▁fondo",
        -9.45042968504168
      ],
      [
        "▁ganas",
        -9.45148180453981
      ],
      [
        "▁título",
        -9.452119214337015
      ],
      [
        "▁pantalla",
        -9.45215800367199
      ],
      [
        "D",
        -9.453061481964404
      ],
      [
        "▁visita",
        -9.453323193718926
      ],
      [
        "▁organizaciones",
        -9.453743495391766
      ],
      [
        "▁concepto",
        -9.45407658937965
      ],
      [
        "▁agosto",
        -9.454441225065764
      ],
      [
        "dor",
        -9.456576737848035
      ],
      [
        "ran",
        -9.45728463355669
      ],
      [
        "▁calle",
        -9.4578401138265
      ],
      [
        "▁instalaciones",
        -9.45833666938077
      ],
      [
        "▁DEL",
        -9.458392024833136
      ],
      [
        "▁momentos",
        -9.458941782136238
      ],
      [
        "▁oferta",
        -9.45894252004728
      ],
      [
        "▁31",
        -9.45898620752585
      ],
      [
        "]",
        -9.459343357107052
      ],
      [
        "▁aumento",
        -9.460634048201253
      ],
      [
        "▁valores",
        -9.46148462296862
      ],
      [
        "▁marco",
        -9.46156566369004
      ],
      [
        "▁referencia",
        -9.462880862759034
      ],
      [
        "▁ejecución",
        -9.463037702656091
      ],
      [
        "▁piel",
        -9.463895416785103
      ],
      [
        "▁esperar",
        -9.46669592423561
      ],
      [
        "▁hechos",
        -9.467560438945064
      ],
      [
        "_",
        -9.468947564717881
      ],
      [
        "▁Aquí",
        -9.468954806977564
      ],
      [
        "▁tiempo.",
        -9.469496368683519
      ],
      [
        "▁tengan",
        -9.46992597387147
      ],
      [
        "▁llegado",
        -9.470697406179706
      ],
      [
        "▁ideas",
        -9.470932070074547
      ],
      [
        "▁suelo",
        -9.47273534328383
      ],
      [
        "▁búsqueda",
        -9.473137651607988
      ],
      [
        "▁transporte",
        -9.474086825081386
      ],
      [
        "▁LOS",
        -9.474370923845438
      ],
      [
        "▁situaciones",
        -9.476140671332857
      ],
      [
        "▁común",
        -9.477047106759905
      ],
      [
        "▁presenta",
        -9.477947850457994
      ],
      [
        "▁herramientas",
        -9.478052287857537
      ],
      [
        "▁Universidad",
        -9.479493326959354
      ],
      [
        "▁27",
        -9.479639587670476
      ],
      [
        "▁documentos",
        -9.480631140146567
      ],
      [
        "▁Porque",
        -9.482151007423454
      ],
      [
        "▁entorno",
        -9.484860584085304
      ],
      [
        "ja",
        -9.485365023886832
      ],
      [
        "▁miles",
        -9.48556718239049
      ],
      [
        "▁presupuesto",
        -9.486711133586244
      ],
      [
        "▁dicha",
        -9.48683627844066
      ],
      [
        "▁espero",
        -9.48697374179783
      ],
      [
        "▁naturaleza",
        -9.487541090742303
      ],
      [
        "▁elegir",
        -9.487853853161177
      ],
      [
        "▁clave",
        -9.490517813953865
      ],
      [
        "▁fines",
        -9.492498515861808
      ],
      [
        "▁técnicas",
        -9.492851803494423
      ],
      [
        "tra",
        -9.494166389989335
      ],
      [
        "▁puerta",
        -9.494322678622062
      ],
      [
        "▁conocimientos",
        -9.494518972562492
      ],
      [
        "▁cuidado",
        -9.494671552393925
      ],
      [
        "▁propiedad",
        -9.495363601033132
      ],
      [
        "▁metros",
        -9.49875336965097
      ],
      [
        "’",
        -9.498883469403294
      ],
      [
        "▁Leer",
        -9.49903675689157
      ],
      [
        "▁estructura",
        -9.499456223954496
      ],
      [
        "▁documento",
        -9.500174000275246
      ],
      [
        "▁humanos",
        -9.500501120238269
      ],
      [
        "▁dónde",
        -9.501345233043029
      ],
      [
        "▁régimen",
        -9.501984572160527
      ],
      [
        "▁Centro",
        -9.502361952491462
      ],
      [
        "▁lado,",
        -9.502751921778579
      ],
      [
        "▁carrera",
        -9.503723270489996
      ],
      [
        "▁lucha",
        -9.50525818794805
      ],
      [
        "▁obstante",
        -9.50649141177448
      ],
      [
        "▁vía",
        -9.50666041377205
      ],
      [
        "▁económica",
        -9.507738456288507
      ],
      [
        "si",
        -9.50800725127176
      ],
      [
        "nte",
        -9.510023429106099
      ],
      [
        "▁autoridad",
        -9.511493644643291
      ],
      [
        "▁Entre",
        -9.51187342510232
      ],
      [
        "▁Ha",
        -9.512015932752117
      ],
      [
        "▁año,",
        -9.512170632199243
      ],
      [
        "▁encanta",
        -9.512929917367948
      ],
      [
        "▁alcanzar",
        -9.512953631238133
      ],
      [
        "▁ideal",
        -9.513526970683593
      ],
      [
        "▁podrás",
        -9.51362953472147
      ],
      [
        "▁demanda",
        -9.514161419142528
      ],
      [
        "V",
        -9.514594871901878
      ],
      [
        "▁Administración",
        -9.514811505429304
      ],
      [
        "▁gastos",
        -9.515774529848418
      ],
      [
        "▁principios",
        -9.51670569568979
      ],
      [
        "▁posición",
        -9.517002677843518
      ],
      [
        "▁tierra",
        -9.517754511300879
      ],
      [
        "era",
        -9.51840377101655
      ],
      [
        "▁partido",
        -9.51937640682993
      ],
      [
        "▁teniendo",
        -9.519600777416793
      ],
      [
        "pa",
        -9.520582258495786
      ],
      [
        "».",
        -9.521258663644165
      ],
      [
        "▁Decreto",
        -9.521581481958304
      ],
      [
        "▁In",
        -9.522528306649875
      ],
      [
        "▁Internacional",
        -9.522989403828063
      ],
      [
        "▁cultura",
        -9.523187495757929
      ],
      [
        "▁áreas",
        -9.523435350782194
      ],
      [
        "▁física",
        -9.523962503133648
      ],
      [
        "▁Creo",
        -9.524353962309503
      ],
      [
        "▁veo",
        -9.52639518278626
      ],
      [
        "▁viernes",
        -9.527807258068812
      ],
      [
        "▁febrero",
        -9.528428243740063
      ],
      [
        "ten",
        -9.528490746323635
      ],
      [
        "▁razones",
        -9.528651696680885
      ],
      [
        "▁#",
        -9.529730103719455
      ],
      [
        "▁mitad",
        -9.531018998817473
      ],
      [
        "G",
        -9.53104338191936
      ],
      [
        "▁establecer",
        -9.531123245494369
      ],
      [
        "▁inicio",
        -9.532459671923945
      ],
      [
        "cion",
        -9.53274979912938
      ],
      [
        "za",
        -9.533283299178667
      ],
      [
        "▁aquel",
        -9.533973714587727
      ],
      [
        "▁internacionales",
        -9.534379238976705
      ],
      [
        "▁aquellas",
        -9.534709287901318
      ],
      [
        "▁realiza",
        -9.535978978700754
      ],
      [
        "▁pocos",
        -9.536184098984265
      ],
      [
        "▁ingresos",
        -9.536250205492117
      ],
      [
        "▁violencia",
        -9.536338340365393
      ],
      [
        "▁2016",
        -9.536589185492613
      ],
      [
        "▁parte,",
        -9.538339710819113
      ],
      [
        "▁auto",
        -9.538543733647339
      ],
      [
        "▁ganar",
        -9.540038101877188
      ],
      [
        "▁quería",
        -9.541649992644246
      ],
      [
        "▁teléfono",
        -9.543140529574927
      ],
      [
        "▁diferente",
        -9.543554520858201
      ],
      [
        "▁presentación",
        -9.54366588454332
      ],
      [
        "▁enfermedad",
        -9.543756821212352
      ],
      [
        "▁joven",
        -9.544569527635456
      ],
      [
        "▁cocina",
        -9.545905729725419
      ],
      [
        "▁contenidos",
        -9.546135560339302
      ],
      [
        "es.",
        -9.546849753408061
      ],
      [
        "▁grado",
        -9.54717955118892
      ],
      [
        "▁lunes",
        -9.55270627825676
      ],
      [
        "▁esfuerzo",
        -9.553079723895369
      ],
      [
        "▁carga",
        -9.553578500360182
      ],
      [
        "▁movimiento",
        -9.554076553904267
      ],
      [
        "go",
        -9.554257251503063
      ],
      [
        "▁comentarios",
        -9.555163066915474
      ],
      [
        "▁evento",
        -9.55596746139095
      ],
      [
        "▁naturales",
        -9.556816527371115
      ],
      [
        "▁cualquiera",
        -9.556822224980007
      ],
      [
        "▁campaña",
        -9.558017743285179
      ],
      [
        "▁29",
        -9.558187633148345
      ],
      [
        "▁pasos",
        -9.558354790800852
      ],
      [
        "▁comida",
        -9.560574660055318
      ],
      [
        "▁buenos",
        -9.561198890719815
      ],
      [
        "▁refiere",
        -9.562313885093996
      ],
      [
        "▁anteriores",
        -9.563013751891976
      ],
      [
        "▁competencia",
        -9.563085087462557
      ],
      [
        "▁Tiene",
        -9.563626634095925
      ],
      [
        "▁sí,",
        -9.563678131257168
      ],
      [
        "▁reducir",
        -9.563745834370781
      ],
      [
        "▁conforme",
        -9.565053290391887
      ],
      [
        "▁particular",
        -9.565138493076144
      ],
      [
        "▁T",
        -9.56522615868824
      ],
      [
        "▁país,",
        -9.566200734023314
      ],
      [
        "▁pérdida",
        -9.566661019472697
      ],
      [
        "▁República",
        -9.568290121270506
      ],
      [
        "▁estén",
        -9.568490357791383
      ],
      [
        "vi",
        -9.569294986456997
      ],
      [
        "▁opinión",
        -9.569520200345384
      ],
      [
        "▁territorio",
        -9.570100830341648
      ],
      [
        "▁registro",
        -9.571719121620013
      ],
      [
        "▁“La",
        -9.5730308966921
      ],
      [
        "▁completo",
        -9.573232616806752
      ],
      [
        "▁incluye",
        -9.57331526346106
      ],
      [
        "▁entidad",
        -9.574935098390073
      ],
      [
        "▁técnica",
        -9.57525338606256
      ],
      [
        "▁estrategia",
        -9.57579257524262
      ],
      [
        "▁quién",
        -9.57741442635928
      ],
      [
        "▁podido",
        -9.577448087294048
      ],
      [
        "▁simple",
        -9.577587429285089
      ],
      [
        "con",
        -9.577717252859895
      ],
      [
        "▁decisiones",
        -9.578271617505635
      ],
      [
        "ver",
        -9.57877492043677
      ],
      [
        "▁período",
        -9.578834017996993
      ],
      [
        "▁intereses",
        -9.578965512761012
      ],
      [
        "▁pronto",
        -9.579219498303447
      ],
      [
        "▁llamado",
        -9.579349877380578
      ],
      [
        "remos",
        -9.57959759597281
      ],
      [
        "▁solicitud",
        -9.580221517936582
      ],
      [
        "▁clases",
        -9.581015661413769
      ],
      [
        "un",
        -9.582086973664108
      ],
      [
        "▁pequeños",
        -9.582406803908567
      ],
      [
        "▁distancia",
        -9.583067173236905
      ],
      [
        "▁planes",
        -9.58393561588543
      ],
      [
        "▁unidad",
        -9.584320359926402
      ],
      [
        "▁interesante",
        -9.584370985272741
      ],
      [
        "▁Social",
        -9.584492897807863
      ],
      [
        "▁fe",
        -9.5846234873401
      ],
      [
        "▁aun",
        -9.584722566664198
      ],
      [
        "▁fundamental",
        -9.586844623670702
      ],
      [
        "T",
        -9.587438956432901
      ],
      [
        "▁embargo",
        -9.588112343597288
      ],
      [
        "qui",
        -9.588121281468423
      ],
      [
        "▁edición",
        -9.58815512400585
      ],
      [
        "▁tales",
        -9.58955435779318
      ],
      [
        "▁G",
        -9.589996572009024
      ],
      [
        "▁Educación",
        -9.592102333664277
      ],
      [
        "▁sabemos",
        -9.592363894932255
      ],
      [
        "j",
        -9.59326371295236
      ],
      [
        "▁trabajo,",
        -9.59330400708296
      ],
      [
        "▁alguno",
        -9.59366104591584
      ],
      [
        "▁quieren",
        -9.594354243560748
      ],
      [
        "ste",
        -9.595471096662461
      ],
      [
        "▁iniciativa",
        -9.595489911218706
      ],
      [
        "▁cuestión",
        -9.596119972249515
      ],
      [
        "▁pre",
        -9.599051762423011
      ],
      [
        "▁suerte",
        -9.599094278222381
      ],
      [
        "▁sabes",
        -9.599720056596167
      ],
      [
        "▁disponible",
        -9.600019134432092
      ],
      [
        "▁pone",
        -9.600336321969174
      ],
      [
        "▁guerra",
        -9.600969725638667
      ],
      [
        "▁'",
        -9.602134573412602
      ],
      [
        "▁operaciones",
        -9.602845756784673
      ],
      [
        "▁di",
        -9.603314335832444
      ],
      [
        "▁Seguridad",
        -9.606885420850526
      ],
      [
        "9",
        -9.606898261445561
      ],
      [
        "ir",
        -9.607019822710868
      ],
      [
        "▁médico",
        -9.607644368936949
      ],
      [
        "▁mismo.",
        -9.607649464531658
      ],
      [
        "▁pro",
        -9.608325328848618
      ],
      [
        "jo",
        -9.608563402903801
      ],
      [
        "▁compromiso",
        -9.608825625495678
      ],
      [
        "▁nota",
        -9.609161670244292
      ],
      [
        "▁tiempos",
        -9.610376547413122
      ],
      [
        "▁pareja",
        -9.610647757383472
      ],
      [
        "▁humano",
        -9.611833182130916
      ],
      [
        "▁resolución",
        -9.612429626398512
      ],
      [
        "▁5.",
        -9.613327354333908
      ],
      [
        "▁Congreso",
        -9.613651104421063
      ],
      [
        "▁requiere",
        -9.614403159614696
      ],
      [
        "▁tamaño",
        -9.614840906554768
      ],
      [
        "▁ropa",
        -9.616339422690091
      ],
      [
        "us",
        -9.616441420863794
      ],
      [
        "(",
        -9.617745663530975
      ],
      [
        "▁Estas",
        -9.617763791103897
      ],
      [
        "amos",
        -9.618555862402905
      ],
      [
        "▁garantizar",
        -9.619936213535249
      ],
      [
        "▁arte",
        -9.620178621847687
      ],
      [
        "▁llama",
        -9.620608260510632
      ],
      [
        "▁2017",
        -9.621263791770264
      ],
      [
        "▁Plan",
        -9.62139263164216
      ],
      [
        "▁supuesto",
        -9.621430348030849
      ],
      [
        "▁habría",
        -9.62207038084817
      ],
      [
        "▁continuación",
        -9.622307488997071
      ],
      [
        "▁darle",
        -9.622389156081628
      ],
      [
        "▁ofrecer",
        -9.622557354334816
      ],
      [
        "▁dicen",
        -9.623521332250677
      ],
      [
        "▁fuente",
        -9.623952235573993
      ],
      [
        "▁año.",
        -9.624369355772266
      ],
      [
        "▁habla",
        -9.624647080439475
      ],
      [
        "▁impacto",
        -9.624647195015488
      ],
      [
        "▁generar",
        -9.62477220554414
      ],
      [
        "▁locales",
        -9.626241176907364
      ],
      [
        "▁sacar",
        -9.62634580455824
      ],
      [
        "▁propios",
        -9.626593019228768
      ],
      [
        "pi",
        -9.628415894820359
      ],
      [
        "va",
        -9.629389294558658
      ],
      [
        "▁siquiera",
        -9.630554382864478
      ],
      [
        "▁existencia",
        -9.631545175688055
      ],
      [
        "▁ésta",
        -9.632680762628336
      ],
      [
        "▁deseo",
        -9.633146328018597
      ],
      [
        "bo",
        -9.633978901632918
      ],
      [
        "▁Puede",
        -9.634023959677027
      ],
      [
        "▁época",
        -9.634137726588953
      ],
      [
        "▁eso,",
        -9.634278005508223
      ],
      [
        "▁domingo",
        -9.634854267414205
      ],
      [
        "▁factores",
        -9.635469518329263
      ],
      [
        "▁aspecto",
        -9.635556698327333
      ],
      [
        "▁confianza",
        -9.635769475921268
      ],
      [
        "▁completa",
        -9.63658892114308
      ],
      [
        "▁sol",
        -9.637056328987706
      ],
      [
        "▁Ver",
        -9.638324331774168
      ],
      [
        "▁solicitar",
        -9.638924976727328
      ],
      [
        "▁visitar",
        -9.641113110990624
      ],
      [
        "F",
        -9.641384689707108
      ],
      [
        "▁necesarios",
        -9.64320510210404
      ],
      [
        "▁excelente",
        -9.64535287018425
      ],
      [
        "▁CON",
        -9.645959445008273
      ],
      [
        "▁día,",
        -9.647061893681679
      ],
      [
        "▁L",
        -9.647454681385762
      ],
      [
        "▁general,",
        -9.647466641360033
      ],
      [
        "▁llegó",
        -9.64774511404555
      ],
      [
        "▁amigo",
        -9.64783479861029
      ],
      [
        "▁Madrid",
        -9.647845421635335
      ],
      [
        "▁familiar",
        -9.648087967794282
      ],
      [
        "▁consulta",
        -9.648674020206965
      ],
      [
        "▁salvo",
        -9.648700008307076
      ],
      [
        "▁local",
        -9.649634103101013
      ],
      [
        ".com",
        -9.651927953745744
      ],
      [
        "▁foto",
        -9.656085765463018
      ],
      [
        "▁prácticas",
        -9.656254231240355
      ],
      [
        "ria",
        -9.656493352497975
      ],
      [
        "▁diversos",
        -9.657660489725256
      ],
      [
        "▁evaluación",
        -9.658433858435984
      ],
      [
        "tar",
        -9.658590202720406
      ],
      [
        "▁Hace",
        -9.658703525922585
      ],
      [
        "▁respeto",
        -9.659835026545647
      ],
      [
        "▁trabajos",
        -9.65991339191715
      ],
      [
        "▁necesarias",
        -9.66047146704192
      ],
      [
        "▁pedir",
        -9.660722054744184
      ],
      [
        "▁salida",
        -9.66129348019517
      ],
      [
        "▁%",
        -9.661596971840668
      ],
      [
        "▁selección",
        -9.661727714630814
      ],
      [
        ".”",
        -9.66257725647085
      ],
      [
        "▁espacios",
        -9.664850431967297
      ],
      [
        "7",
        -9.664882414869805
      ],
      [
        "▁“El",
        -9.665928410675313
      ],
      [
        "▁públicos",
        -9.666990365029024
      ],
      [
        "ización",
        -9.66757915250306
      ],
      [
        "▁sábado",
        -9.668145306031136
      ],
      [
        "▁supone",
        -9.6692216305729
      ],
      [
        "▁justo",
        -9.669750742218039
      ],
      [
        "▁60",
        -9.670322068430092
      ],
      [
        "▁Juan",
        -9.670645060465372
      ],
      [
        "▁legal",
        -9.671030820123796
      ],
      [
        "▁sola",
        -9.671449441110582
      ],
      [
        "▁utiliza",
        -9.671649118785975
      ],
      [
        "▁digo",
        -9.671945225264292
      ],
      [
        "▁aumentar",
        -9.672134189647362
      ],
      [
        "▁coche",
        -9.673531338511339
      ],
      [
        "▁M",
        -9.674674162891748
      ],
      [
        "▁beneficio",
        -9.675085439163139
      ],
      [
        "▁hará",
        -9.675609207787618
      ],
      [
        "▁escuchar",
        -9.67617205500745
      ],
      [
        "▁realización",
        -9.676295034684053
      ],
      [
        "▁completamente",
        -9.676296546174253
      ],
      [
        "▁juegos",
        -9.67690609537074
      ],
      [
        "▁SE",
        -9.677461527295229
      ],
      [
        "▁considera",
        -9.678549232713285
      ],
      [
        "▁Facebook",
        -9.678564381168258
      ],
      [
        "▁resolver",
        -9.67861822469024
      ],
      [
        "▁elecciones",
        -9.679452271791217
      ],
      [
        "▁mundo,",
        -9.679697281094533
      ],
      [
        "ista",
        -9.67972503375859
      ],
      [
        "▁herramienta",
        -9.679951936283501
      ],
      [
        "▁vi",
        -9.68007708501409
      ],
      [
        "▁internet",
        -9.6828728497558
      ],
      [
        "▁reunión",
        -9.683337821312342
      ],
      [
        "▁reserva",
        -9.683679097128799
      ],
      [
        "▁conocido",
        -9.685373604121292
      ],
      [
        "▁sesión",
        -9.686248129857248
      ],
      [
        "▁Instituto",
        -9.686385728730858
      ],
      [
        "▁asistencia",
        -9.686386244293804
      ],
      [
        "▁diversas",
        -9.686451582818721
      ],
      [
        "vo",
        -9.688838904830169
      ],
      [
        "▁dejado",
        -9.689026652795832
      ],
      [
        "▁operación",
        -9.690077246778229
      ],
      [
        "▁cuya",
        -9.69025644110927
      ],
      [
        "▁etapa",
        -9.69027878597836
      ],
      [
        "ían",
        -9.69164260640477
      ],
      [
        "▁Espero",
        -9.691985144210767
      ],
      [
        "▁plataforma",
        -9.692052534140199
      ],
      [
        "▁jueves",
        -9.693868368765795
      ],
      [
        "▁anterior,",
        -9.693978203751891
      ],
      [
        "▁jugar",
        -9.694285631970333
      ],
      [
        "▁F",
        -9.695295781755876
      ],
      [
        "▁leyes",
        -9.695558556006345
      ],
      [
        "▁aplicar",
        -9.69573496854261
      ],
      [
        "▁posibles",
        -9.695892939865768
      ],
      [
        "▁América",
        -9.695924473704483
      ],
      [
        "▁buscando",
        -9.696767805132511
      ],
      [
        "▁establece",
        -9.698862316059788
      ],
      [
        "▁pacientes",
        -9.699722184578658
      ],
      [
        "▁podrían",
        -9.69973473859539
      ],
      [
        "▁posibilidades",
        -9.700651824642549
      ],
      [
        "iendo",
        -9.701117911010567
      ],
      [
        "▁región",
        -9.703136822898776
      ],
      [
        "▁abrir",
        -9.704067237678661
      ],
      [
        "▁propias",
        -9.704656507976065
      ],
      [
        "▁sabía",
        -9.706205107102933
      ],
      [
        "w",
        -9.70635143822879
      ],
      [
        "▁funciona",
        -9.707268402441542
      ],
      [
        "▁consejos",
        -9.708021420640712
      ],
      [
        "mente,",
        -9.708748146153756
      ],
      [
        "▁enfermedades",
        -9.70887190196181
      ],
      [
        "▁inferior",
        -9.709506125665587
      ],
      [
        "▁ven",
        -9.709509779100003
      ],
      [
        "car",
        -9.710171726900004
      ],
      [
        "▁Está",
        -9.710823552390865
      ],
      [
        "▁Internet",
        -9.711193606025466
      ],
      [
        "▁necesaria",
        -9.711374372704515
      ],
      [
        "miento",
        -9.711615327219253
      ],
      [
        "▁señor",
        -9.711628722493417
      ],
      [
        "▁suele",
        -9.71252227029224
      ],
      [
        "▁industria",
        -9.712727899154585
      ],
      [
        "▁dudas",
        -9.712747336142039
      ],
      [
        "▁delito",
        -9.71314155974858
      ],
      [
        "▁bien.",
        -9.71325221897932
      ],
      [
        "▁director",
        -9.7141497625639
      ],
      [
        "▁familias",
        -9.714900083141295
      ],
      [
        "▁hotel",
        -9.715059689437975
      ],
      [
        "▁normal",
        -9.715644949173061
      ],
      [
        "▁detalles",
        -9.715946946617457
      ],
      [
        "▁temporada",
        -9.71609337262587
      ],
      [
        "▁mismas",
        -9.716266082538642
      ],
      [
        "▁Tras",
        -9.717555002632185
      ],
      [
        "▁término",
        -9.717829006070751
      ],
      [
        "▁comercial",
        -9.71813001652982
      ],
      [
        "▁español",
        -9.719255924251359
      ],
      [
        "▁planta",
        -9.719426622406193
      ],
      [
        "▁·",
        -9.72002342428696
      ],
      [
        "▁original",
        -9.720264223244008
      ],
      [
        "▁día.",
        -9.721152442061541
      ],
      [
        "▁Santa",
        -9.721606162853474
      ],
      [
        "Leer",
        -9.722234154266332
      ],
      [
        "▁indica",
        -9.72277801136629
      ],
      [
        "▁Asimismo",
        -9.7233500105016
      ],
      [
        "▁Fue",
        -9.723450115295638
      ],
      [
        "▁recordar",
        -9.724265888770375
      ],
      [
        "▁tendrán",
        -9.724653134059299
      ],
      [
        "▁visión",
        -9.72499056748454
      ],
      [
        "▁vacaciones",
        -9.725955386555787
      ],
      [
        "▁vehículos",
        -9.726878388290785
      ],
      [
        "▁trabajo.",
        -9.727411284122457
      ],
      [
        "▁condición",
        -9.728040085285368
      ],
      [
        "▁menores",
        -9.730921854579774
      ],
      [
        "▁2012",
        -9.73106674318836
      ],
      [
        "▁relacionados",
        -9.731482386522442
      ],
      [
        "▁velocidad",
        -9.732569526961626
      ],
      [
        "▁Entonces",
        -9.732757981737006
      ],
      [
        "▁fiscal",
        -9.73354706773623
      ],
      [
        "▁sitios",
        -9.734055130841917
      ],
      [
        "rán",
        -9.736193196668676
      ],
      [
        "▁Tu",
        -9.737744293833813
      ],
      [
        "▁comunidades",
        -9.738662303832616
      ],
      [
        "▁momento,",
        -9.740115528525784
      ],
      [
        "▁método",
        -9.741069397208381
      ],
      [
        "▁aplicaciones",
        -9.74230906182008
      ],
      [
        "ras",
        -9.742624933019622
      ],
      [
        "▁previsto",
        -9.743793081680217
      ],
      [
        "▁ciudadanos",
        -9.744106831353427
      ],
      [
        "▁digital",
        -9.744594766061137
      ],
      [
        "▁ocurre",
        -9.74518908566807
      ],
      [
        "dores",
        -9.74566820907459
      ],
      [
        "▁mismo,",
        -9.747358520233055
      ],
      [
        "▁vuelta",
        -9.747895747484309
      ],
      [
        "▁feliz",
        -9.749729248564094
      ],
      [
        "▁2013",
        -9.750239049220983
      ],
      [
        "▁móvil",
        -9.750555455808538
      ],
      [
        "▁ayer",
        -9.750815079879821
      ],
      [
        "▁procedimientos",
        -9.75096007489607
      ],
      [
        "▁víctimas",
        -9.751032516703317
      ],
      [
        "▁aceite",
        -9.752677509750296
      ],
      [
        "▁(en",
        -9.752754988860078
      ],
      [
        "▁reforma",
        -9.753086824848365
      ],
      [
        "▁amplia",
        -9.753465323769364
      ],
      [
        "▁adelante",
        -9.754001631138884
      ],
      [
        "▁Sólo",
        -9.754600652436938
      ],
      [
        "▁Unión",
        -9.754787127194842
      ],
      [
        "▁técnico",
        -9.75539657839974
      ],
      [
        "ing",
        -9.75549155221934
      ],
      [
        "▁nada.",
        -9.755890214031439
      ],
      [
        "▁presión",
        -9.757425348228281
      ],
      [
        "mp",
        -9.757448903525583
      ],
      [
        "▁defensa",
        -9.757637320241653
      ],
      [
        "▁peor",
        -9.758282446837693
      ],
      [
        "▁siete",
        -9.75861002049156
      ],
      [
        "▁ciudades",
        -9.758643153501193
      ],
      [
        "▁rápido",
        -9.761226101766423
      ],
      [
        "▁jornada",
        -9.761241984172774
      ],
      [
        "▁gustado",
        -9.761940425968762
      ],
      [
        "▁dando",
        -9.762446106032801
      ],
      [
        "▁Uno",
        -9.76588427825602
      ],
      [
        "▁dejo",
        -9.76743421644386
      ],
      [
        "ú",
        -9.767763467892788
      ],
      [
        "▁seres",
        -9.769114202382934
      ],
      [
        "▁terminar",
        -9.769832003691247
      ],
      [
        "▁distribución",
        -9.770250705613183
      ],
      [
        "▁Gran",
        -9.770596296438617
      ],
      [
        "▁páginas",
        -9.771226056189608
      ],
      [
        "▁cuentas",
        -9.773138095764947
      ],
      [
        "▁apenas",
        -9.77343071698575
      ],
      [
        "▁trabajando",
        -9.774891992840487
      ],
      [
        "▁hacía",
        -9.774973010428234
      ],
      [
        "▁escuela",
        -9.775104594421382
      ],
      [
        "▁comenzar",
        -9.775834506493748
      ],
      [
        "▁ellos.",
        -9.776916673562997
      ],
      [
        "▁fondos",
        -9.777351886414058
      ],
      [
        "—",
        -9.777427536306762
      ],
      [
        "▁criterios",
        -9.778279272723656
      ],
      [
        "▁vivienda",
        -9.778419793812125
      ],
      [
        "▁tareas",
        -9.778798025549985
      ],
      [
        "ida",
        -9.77900417562012
      ],
      [
        "▁disposiciones",
        -9.779111043978087
      ],
      [
        "▁produce",
        -9.779471858185373
      ],
      [
        "▁mantenimiento",
        -9.779830313008304
      ],
      [
        "▁Dirección",
        -9.780333244438221
      ],
      [
        "▁Presidente",
        -9.780729310499527
      ],
      [
        "▁actos",
        -9.781634092445955
      ],
      [
        "0",
        -9.781837824008306
      ],
      [
        "▁directa",
        -9.783479417208525
      ],
      [
        "▁solamente",
        -9.784645996219894
      ],
      [
        "tas",
        -9.785776928839748
      ],
      [
        "▁Día",
        -9.78613393011889
      ],
      [
        "▁cita",
        -9.786354183415156
      ],
      [
        "▁pie",
        -9.786462056611203
      ],
      [
        "▁político",
        -9.787589026953086
      ],
      [
        "▁Mientras",
        -9.787848921985237
      ],
      [
        "▁Siempre",
        -9.789158897225423
      ],
      [
        "▁publicado",
        -9.78944448288945
      ],
      [
        "▁enlace",
        -9.790147800801531
      ],
      [
        "▁dispositivo",
        -9.790274498268769
      ],
      [
        "▁d)",
        -9.790420601689021
      ],
      [
        "▁destino",
        -9.790570095998362
      ],
      [
        "▁familiares",
        -9.792177669476217
      ],
      [
        "▁Nueva",
        -9.79245558838958
      ],
      [
        "▁Salud",
        -9.792898680439098
      ],
      [
        "ble",
        -9.792959428110679
      ],
      [
        "30",
        -9.79377793517109
      ],
      [
        "▁reconocimiento",
        -9.793800069532697
      ],
      [
        "adas",
        -9.79460062189664
      ],
      [
        "▁conformidad",
        -9.795661594393762
      ],
      [
        "▁unidades",
        -9.797002593279554
      ],
      [
        "▁Mundial",
        -9.797153009209445
      ],
      [
        "▁policía",
        -9.80024530791117
      ],
      [
        "be",
        -9.800465012020313
      ],
      [
        "▁hecho,",
        -9.800802929156086
      ],
      [
        "▁fuerzas",
        -9.800881425679316
      ],
      [
        "▁consecuencia",
        -9.801390622023614
      ],
      [
        "▁prensa",
        -9.801475492371946
      ],
      [
        "▁costo",
        -9.801700679405656
      ],
      [
        "▁circunstancias",
        -9.802485233162926
      ],
      [
        "▁alcance",
        -9.802939777782147
      ],
      [
        "▁propuestas",
        -9.803469287415716
      ],
      [
        "▁publicación",
        -9.803562363543964
      ],
      [
        "▁soluciones",
        -9.804090514669838
      ],
      [
        "▁fuentes",
        -9.804325484065526
      ],
      [
        "▁PARA",
        -9.80513404849927
      ],
      [
        "▁sectores",
        -9.805144104279915
      ],
      [
        "▁obligaciones",
        -9.805198283362811
      ],
      [
        "▁motor",
        -9.80550320969946
      ],
      [
        "▁superficie",
        -9.805521105041565
      ],
      [
        "▁ventas",
        -9.80559092538422
      ],
      [
        "▁paz",
        -9.805822306892036
      ],
      [
        "▁Antes",
        -9.806349967488885
      ],
      [
        "▁mala",
        -9.806548072620245
      ],
      [
        "▁categoría",
        -9.807825679511511
      ],
      [
        "▁Iglesia",
        -9.80821050187308
      ],
      [
        "▁V",
        -9.80962568306111
      ],
      [
        "▁publicidad",
        -9.810602744889131
      ],
      [
        "▁atrás",
        -9.811032898596814
      ],
      [
        "▁mejora",
        -9.811110252289428
      ],
      [
        "▁enviar",
        -9.811306716295011
      ],
      [
        "▁generales",
        -9.811849550386764
      ],
      [
        "▁Real",
        -9.813068292490136
      ],
      [
        "▁tarjeta",
        -9.813150057704336
      ],
      [
        "▁diario",
        -9.813349843329588
      ],
      [
        "▁art.",
        -9.81426301656898
      ],
      [
        "▁Sobre",
        -9.814641107650488
      ],
      [
        "▁mostrar",
        -9.815079044212233
      ],
      [
        "▁promoción",
        -9.815367232348834
      ],
      [
        "▁Hasta",
        -9.815439171565828
      ],
      [
        "▁gusto",
        -9.817761453947103
      ],
      [
        "▁verano",
        -9.818240372055058
      ],
      [
        "▁nacionales",
        -9.818875552859609
      ],
      [
        "▁líneas",
        -9.819447104000744
      ],
      [
        "▁Servicio",
        -9.819485240345582
      ],
      [
        "▁ocasiones",
        -9.819947423179013
      ],
      [
        "▁sexual",
        -9.821568284418074
      ],
      [
        "▁deuda",
        -9.821847472851147
      ],
      [
        "▁esto,",
        -9.82293983521025
      ],
      [
        "▁boca",
        -9.824698057351975
      ],
      [
        "▁hago",
        -9.825045732926963
      ],
      [
        "▁siguiente:",
        -9.82523827008941
      ],
      [
        "per",
        -9.82564629800081
      ],
      [
        "▁legislación",
        -9.825652946252536
      ],
      [
        "▁perfecto",
        -9.825934272902382
      ],
      [
        "▁importa",
        -9.826366101799106
      ],
      [
        "▁actualmente",
        -9.8269906835484
      ],
      [
        "▁Desarrollo",
        -9.82874518476731
      ],
      [
        "▁kilómetros",
        -9.829210759117442
      ],
      [
        "▁online",
        -9.830014533914236
      ],
      [
        "▁finales",
        -9.83028025407104
      ],
      [
        "▁figura",
        -9.83047025391463
      ],
      [
        "▁suma",
        -9.8304980866665
      ],
      [
        "▁firma",
        -9.831517639104728
      ],
      [
        "▁vender",
        -9.831678869025389
      ],
      [
        "▁sueño",
        -9.832213315883543
      ],
      [
        "▁Código",
        -9.832312217308392
      ],
      [
        "ña",
        -9.832498549771834
      ],
      [
        "▁K",
        -9.832546559602157
      ],
      [
        "▁especiales",
        -9.833032496947943
      ],
      [
        "▁públicas",
        -9.833811593634753
      ],
      [
        "▁Policía",
        -9.83397207097503
      ],
      [
        "▁vale",
        -9.834240699092314
      ],
      [
        "▁video",
        -9.83529237637915
      ],
      [
        "it",
        -9.836299187666949
      ],
      [
        "▁ocho",
        -9.837397861818374
      ],
      [
        "▁eventos",
        -9.837585417186023
      ],
      [
        "▁doble",
        -9.837757434486393
      ],
      [
        "zo",
        -9.838650796163495
      ],
      [
        "▁necesitas",
        -9.839394993985088
      ],
      [
        "▁útil",
        -9.840954716151
      ],
      [
        "▁previa",
        -9.841262910210512
      ],
      [
        "▁Muy",
        -9.84295475086741
      ],
      [
        "fi",
        -9.84417009214092
      ],
      [
        "▁Ciudad",
        -9.84581024927293
      ],
      [
        "rio",
        -9.84593605825268
      ],
      [
        "▁oportunidades",
        -9.845955584547575
      ],
      [
        "▁software",
        -9.846183668477089
      ],
      [
        "▁tengas",
        -9.846699816389663
      ],
      [
        "▁José",
        -9.84684695980217
      ],
      [
        "▁pudo",
        -9.847188775326877
      ],
      [
        "▁tasa",
        -9.847542573682656
      ],
      [
        "▁martes",
        -9.847742386270767
      ],
      [
        "▁inglés",
        -9.848232889946079
      ],
      [
        "▁modelos",
        -9.848368887723066
      ],
      [
        "▁duración",
        -9.848942271834618
      ],
      [
        "▁guía",
        -9.85020167654723
      ],
      [
        "▁sección",
        -9.850398072559678
      ],
      [
        "▁propósito",
        -9.85075820461179
      ],
      [
        "&#1",
        -9.851884868953803
      ],
      [
        "▁chica",
        -9.851992766558867
      ],
      [
        "▁Europa",
        -9.852621835072778
      ],
      [
        "▁cuarto",
        -9.852941293128541
      ],
      [
        "▁intervención",
        -9.85294870683935
      ],
      [
        "▁comentario",
        -9.852983849078264
      ],
      [
        "▁continuar",
        -9.853170216246316
      ],
      [
        "▁exterior",
        -9.853291483078596
      ],
      [
        "▁comenzó",
        -9.853387396896704
      ],
      [
        "▁central",
        -9.853478652322897
      ],
      [
        "60;",
        -9.853663508762008
      ],
      [
        "▁temperatura",
        -9.853803522859891
      ],
      [
        "▁recibido",
        -9.854428491372024
      ],
      [
        "man",
        -9.854481587011925
      ],
      [
        "▁así,",
        -9.854830065562416
      ],
      [
        "▁normativa",
        -9.85485092422892
      ],
      [
        "▁intentar",
        -9.855224194481947
      ],
      [
        "▁daño",
        -9.855297255247628
      ],
      [
        "▁2015",
        -9.85605335379132
      ],
      [
        "▁comportamiento",
        -9.85700037826584
      ],
      [
        "▁alimentación",
        -9.85732015092071
      ],
      [
        "▁sensación",
        -9.85828522967456
      ],
      [
        "▁pesos",
        -9.858685810739477
      ],
      [
        "▁colores",
        -9.859240716793739
      ],
      [
        "▁máxima",
        -9.859464880279209
      ],
      [
        "▁determinar",
        -9.85965915125242
      ],
      [
        "▁Google",
        -9.860142301585373
      ],
      [
        "▁blanco",
        -9.860303147707022
      ],
      [
        "▁actualidad",
        -9.860577271565088
      ],
      [
        "▁fase",
        -9.860842567368222
      ],
      [
        "▁informó",
        -9.861500348402718
      ],
      [
        "▁Banco",
        -9.863817165078341
      ],
      [
        "▁Señor",
        -9.86388912449895
      ],
      [
        "▁días,",
        -9.86409138970488
      ],
      [
        "▁código",
        -9.864324281507471
      ],
      [
        "▁vaya",
        -9.864409931050105
      ],
      [
        "▁hablando",
        -9.86453257933074
      ],
      [
        "▁sentencia",
        -9.864652380004513
      ],
      [
        "▁ella.",
        -9.865349895469407
      ],
      [
        "▁siguen",
        -9.865616798488016
      ],
      [
        "▁responder",
        -9.868526817664673
      ],
      [
        "▁pequeñas",
        -9.868530439274402
      ],
      [
        "ándose",
        -9.868934375282722
      ],
      [
        "▁Sus",
        -9.869024414752584
      ],
      [
        "▁colaboración",
        -9.869075558071927
      ],
      [
        "▁POR",
        -9.869118870382552
      ],
      [
        "▁género",
        -9.869170887504326
      ],
      [
        "▁primeras",
        -9.870167895600531
      ],
      [
        "▁popular",
        -9.870257777700356
      ],
      [
        "▁tarea",
        -9.871344364806452
      ],
      [
        "▁Tengo",
        -9.872130331842229
      ],
      [
        "▁causas",
        -9.873186185422446
      ],
      [
        "▁disco",
        -9.873407309112327
      ],
      [
        "▁considerar",
        -9.873553854073538
      ],
      [
        "▁comercio",
        -9.873602981118243
      ],
      [
        "▁abierto",
        -9.874273257327902
      ],
      [
        "­",
        -9.874425818140253
      ],
      [
        "▁perfil",
        -9.876451627260714
      ],
      [
        "▁independiente",
        -9.876641210900754
      ],
      [
        "▁estudiar",
        -9.878877136774397
      ],
      [
        "▁eliminar",
        -9.879462209117836
      ],
      [
        "I",
        -9.880215166504932
      ],
      [
        "▁dieta",
        -9.880440018357667
      ],
      [
        "▁adecuado",
        -9.881261845243074
      ],
      [
        "▁casa.",
        -9.881749418518869
      ],
      [
        "▁sala",
        -9.88192716332037
      ],
      [
        "▁entrevista",
        -9.882057767788481
      ],
      [
        "▁Sí,",
        -9.882289964880698
      ],
      [
        "▁banda",
        -9.882728435072938
      ],
      [
        "▁carta",
        -9.883780030837316
      ],
      [
        "▁casa,",
        -9.884069177129923
      ],
      [
        "▁daños",
        -9.884380262447948
      ],
      [
        "▁partidos",
        -9.884836882031475
      ],
      [
        "▁leche",
        -9.88515804252403
      ],
      [
        "▁aproximadamente",
        -9.885494635920004
      ],
      [
        "▁funcionarios",
        -9.885750495747835
      ],
      [
        "ero",
        -9.886272961722462
      ],
      [
        "▁perro",
        -9.886296343541883
      ],
      [
        "aba",
        -9.88780686780202
      ],
      [
        "▁explica",
        -9.887893680864753
      ],
      [
        "▁experiencias",
        -9.888012336950409
      ],
      [
        "▁ocasión",
        -9.888424580213238
      ],
      [
        "▁aquella",
        -9.888749227461517
      ],
      [
        "▁aparece",
        -9.888774042086514
      ],
      [
        "▁autorización",
        -9.88887514259018
      ],
      [
        "▁LAS",
        -9.889095058960349
      ],
      [
        "s:",
        -9.889595513893221
      ],
      [
        "▁todo,",
        -9.891143622313617
      ],
      [
        "▁clic",
        -9.891464369249658
      ],
      [
        "▁conexión",
        -9.89190796905312
      ],
      [
        "▁motivos",
        -9.89230492117148
      ],
      [
        "▁detrás",
        -9.89317553750582
      ],
      [
        "▁mundial",
        -9.8932020781759
      ],
      [
        "▁lejos",
        -9.89463597811744
      ],
      [
        "▁expertos",
        -9.895238987768748
      ],
      [
        "▁generación",
        -9.895587381421755
      ],
      [
        "▁vehículo",
        -9.896113241538828
      ],
      [
        "▁error",
        -9.896338225668092
      ],
      [
        "▁cuál",
        -9.896692791826489
      ],
      [
        "ismo",
        -9.8969658324841
      ],
      [
        "▁habitación",
        -9.897396747305425
      ],
      [
        "▁Puedes",
        -9.898228324471864
      ],
      [
        "▁Bueno,",
        -9.898741431467286
      ],
      [
        "▁lectura",
        -9.899575908876942
      ],
      [
        "▁marcas",
        -9.899947122260347
      ],
      [
        "▁principalmente",
        -9.900021253173513
      ],
      [
        "▁nada,",
        -9.900273029464309
      ],
      [
        "▁últimas",
        -9.900584269161568
      ],
      [
        "▁debate",
        -9.901887795968287
      ],
      [
        "da,",
        -9.901938914175489
      ],
      [
        "▁establecidos",
        -9.902025783155636
      ],
      [
        "▁él.",
        -9.902518324805559
      ],
      [
        "▁2011",
        -9.903856507069808
      ],
      [
        "▁permiten",
        -9.90536304085511
      ],
      [
        "▁Corte",
        -9.90557708343524
      ],
      [
        "▁llamar",
        -9.906136437429765
      ],
      [
        "Y",
        -9.906772631935606
      ],
      [
        "▁proteger",
        -9.907033163659037
      ],
      [
        "▁enorme",
        -9.907599266038215
      ],
      [
        "▁noticias",
        -9.90947692115703
      ],
      [
        "▁conciencia",
        -9.910009101355397
      ],
      [
        "▁empleados",
        -9.910035312245835
      ],
      [
        "▁Europea",
        -9.911056344905818
      ],
      [
        "▁fuego",
        -9.912374270836978
      ],
      [
        "▁Solo",
        -9.912737913953531
      ],
      [
        "▁mensajes",
        -9.913163982851497
      ],
      [
        "▁riesgos",
        -9.913567552936664
      ],
      [
        "▁utilización",
        -9.913662867094605
      ],
      [
        "▁pedido",
        -9.913776815954682
      ],
      [
        "▁variedad",
        -9.91427967251969
      ],
      [
        "▁conoce",
        -9.914471356118316
      ],
      [
        "▁Pro",
        -9.914664258599863
      ],
      [
        "▁española",
        -9.914752844878395
      ],
      [
        "▁puestos",
        -9.914910248845494
      ],
      [
        "▁corto",
        -9.915317004773545
      ],
      [
        "▁necesitan",
        -9.91589367930104
      ],
      [
        "▁llamada",
        -9.916757400353806
      ],
      [
        "▁U",
        -9.917624138860106
      ],
      [
        "▁vídeo",
        -9.91762807038879
      ],
      [
        "▁superar",
        -9.918190433571628
      ],
      [
        "▁pensando",
        -9.918687395131048
      ],
      [
        "▁2010",
        -9.918742746431079
      ],
      [
        "▁controlar",
        -9.918848698525018
      ],
      [
        "▁[...]",
        -9.919446574805328
      ],
      [
        "▁Secretaría",
        -9.920088805722864
      ],
      [
        "▁2014",
        -9.92019148228998
      ],
      [
        "▁cree",
        -9.920243996994937
      ],
      [
        "▁Sistema",
        -9.920246937980654
      ],
      [
        "▁creer",
        -9.921095060284406
      ],
      [
        "▁calles",
        -9.921288892563677
      ],
      [
        "tó",
        -9.921394951017648
      ],
      [
        "▁cámara",
        -9.921438182216342
      ],
      [
        "▁larga",
        -9.922336040377328
      ],
      [
        "▁sirve",
        -9.923186943315446
      ],
      [
        "▁instalación",
        -9.92333148947225
      ],
      [
        "▁pasó",
        -9.923634777080135
      ],
      [
        "▁titular",
        -9.924493558975062
      ],
      [
        "▁Del",
        -9.924538090102795
      ],
      [
        "▁consecuencias",
        -9.924663194131181
      ],
      [
        "▁próxima",
        -9.924830383524759
      ],
      [
        "ás",
        -9.925045033689168
      ],
      [
        "▁sangre",
        -9.925161862119086
      ],
      [
        "▁especie",
        -9.925332987417574
      ],
      [
        "▁síntomas",
        -9.925378588240957
      ],
      [
        "▁disponibles",
        -9.925389173090373
      ],
      [
        "tor",
        -9.926074663679788
      ],
      [
        "▁justicia",
        -9.927680793421636
      ],
      [
        "▁saben",
        -9.928358703820413
      ],
      [
        "ón",
        -9.92907169725979
      ],
      [
        "▁puertas",
        -9.9293290818876
      ],
      [
        "▁quedado",
        -9.929864174691065
      ],
      [
        "ros",
        -9.930406846554476
      ],
      [
        "▁presentes",
        -9.930473392666384
      ],
      [
        "▁perdido",
        -9.930734818840584
      ],
      [
        "▁constante",
        -9.931461374368666
      ],
      [
        "▁incluyendo",
        -9.932064230103212
      ],
      [
        "▁imposible",
        -9.932070441784255
      ],
      [
        "▁Luego",
        -9.933661360920707
      ],
      [
        "▁siguientes:",
        -9.934718188697866
      ],
      [
        "▁analizar",
        -9.93474525390257
      ],
      [
        "▁encontrado",
        -9.93512720090989
      ],
      [
        "8",
        -9.93534941639152
      ],
      [
        "▁intención",
        -9.936160273746967
      ],
      [
        "▁voluntad",
        -9.936821072064411
      ],
      [
        "▁recuerdo",
        -9.937331968699803
      ],
      [
        "▁representa",
        -9.937958790321495
      ],
      [
        "▁cursos",
        -9.93804533811755
      ],
      [
        "▁grave",
        -9.938058135713415
      ],
      [
        "▁ellos,",
        -9.938261314567551
      ],
      [
        "▁6.",
        -9.939658333921098
      ],
      [
        "tro",
        -9.939678124714685
      ],
      [
        "▁pasando",
        -9.940264451768222
      ],
      [
        "▁probar",
        -9.941045282342905
      ],
      [
        "▁descubrir",
        -9.941972980381413
      ],
      [
        "▁Justicia",
        -9.942691657634452
      ],
      [
        "▁Estoy",
        -9.94296613784702
      ],
      [
        "▁evolución",
        -9.943122795614581
      ],
      [
        "▁agentes",
        -9.943332083487997
      ],
      [
        "▁hacerse",
        -9.945072774789253
      ],
      [
        "▁recurso",
        -9.945559984644003
      ],
      [
        "▁perjuicio",
        -9.945948870203896
      ],
      [
        "▁expresión",
        -9.946628074098669
      ],
      [
        "▁Co",
        -9.946750531025074
      ],
      [
        "▁legales",
        -9.946894000943937
      ],
      [
        "▁señaló",
        -9.94712245885329
      ],
      [
        "▁participantes",
        -9.947515952697568
      ],
      [
        "▁cáncer",
        -9.947757270854531
      ],
      [
        "▁seguimiento",
        -9.947780437046042
      ],
      [
        "▁aprobación",
        -9.948956921046852
      ],
      [
        "▁Tribunal",
        -9.949570439574877
      ],
      [
        "▁quizás",
        -9.94968397945416
      ],
      [
        "▁rápida",
        -9.951172540869472
      ],
      [
        "▁Mar",
        -9.951714501524567
      ],
      [
        "▁obligación",
        -9.952594073862073
      ],
      [
        "▁parecer",
        -9.95263922407502
      ],
      [
        "▁iniciar",
        -9.95315239928869
      ],
      [
        "▁Él",
        -9.953480422916904
      ],
      [
        "▁tenían",
        -9.953485856160555
      ],
      [
        "▁tercer",
        -9.954704849465106
      ],
      [
        "▁debajo",
        -9.956962327873875
      ],
      [
        "▁gasto",
        -9.957095756458642
      ],
      [
        "▁encontramos",
        -9.957187949587677
      ],
      [
        "▁físico",
        -9.95784790038643
      ],
      [
        "▁W",
        -9.958019860203848
      ],
      [
        "▁peligro",
        -9.9594534004555
      ],
      [
        "▁mirar",
        -9.959900795496637
      ],
      [
        "▁anual",
        -9.960574941247323
      ],
      [
        "da.",
        -9.961989625264545
      ],
      [
        "▁construir",
        -9.962275179813947
      ],
      [
        "▁implica",
        -9.962382301825357
      ],
      [
        "▁exposición",
        -9.963141485808073
      ],
      [
        "▁puedas",
        -9.963275860251102
      ],
      [
        "▁utilizado",
        -9.96368543447976
      ],
      [
        "▁momento.",
        -9.96392012494671
      ],
      [
        "▁suelen",
        -9.96408240133061
      ],
      [
        "▁depende",
        -9.964094660458269
      ],
      [
        "▁ustedes",
        -9.965403464688677
      ],
      [
        "▁asegurar",
        -9.965530743720844
      ],
      [
        "▁hacemos",
        -9.965813489721548
      ],
      [
        "▁personas,",
        -9.965859573368824
      ],
      [
        "▁observar",
        -9.966356621096086
      ],
      [
        "▁directo",
        -9.96651846608847
      ],
      [
        "▁global",
        -9.966706310908467
      ],
      [
        "▁menudo",
        -9.966722221015136
      ],
      [
        "▁aprovechar",
        -9.967315561830429
      ],
      [
        "▁armas",
        -9.967922217661497
      ],
      [
        "▁contexto",
        -9.968323976225806
      ],
      [
        "▁garantía",
        -9.969069379622606
      ],
      [
        "▁mesa",
        -9.969210306694825
      ],
      [
        "▁Reglamento",
        -9.969581412139247
      ],
      [
        "▁miércoles",
        -9.969925255766814
      ],
      [
        "H",
        -9.96993986655442
      ],
      [
        "▁Departamento",
        -9.970282327257486
      ],
      [
        "▁mercados",
        -9.970634807335855
      ],
      [
        "▁María",
        -9.971516204544837
      ],
      [
        "▁explicar",
        -9.972005708929718
      ],
      [
        "▁¿qué",
        -9.973462973074197
      ],
      [
        "▁Ni",
        -9.973576916435992
      ],
      [
        "ntes",
        -9.974239587084234
      ],
      [
        "▁enseñanza",
        -9.976176803322444
      ],
      [
        "▁sale",
        -9.976217693635643
      ],
      [
        "ex",
        -9.976353881373957
      ],
      [
        "▁declaración",
        -9.976388922678339
      ],
      [
        "▁habilidades",
        -9.976841345686388
      ],
      [
        "▁Registro",
        -9.978359393147507
      ],
      [
        "▁crédito",
        -9.978434792042858
      ],
      [
        "▁200",
        -9.978510978236349
      ],
      [
        "▁jugadores",
        -9.978638444189436
      ],
      [
        "▁organismo",
        -9.979294445231668
      ],
      [
        "▁comerciales",
        -9.979595620898348
      ],
      [
        "▁responsables",
        -9.97962178947096
      ],
      [
        "▁incluir",
        -9.979860065277247
      ],
      [
        "▁tecnologías",
        -9.981613219428892
      ],
      [
        "▁sal",
        -9.98187793541014
      ],
      [
        "▁vemos",
        -9.982826521811278
      ],
      [
        "▁vino",
        -9.983186836560275
      ],
      [
        "▁socios",
        -9.984470272479832
      ],
      [
        "▁R",
        -9.984675229116007
      ],
      [
        "▁mirada",
        -9.984843181716034
      ],
      [
        "▁potencial",
        -9.985830383524604
      ],
      [
        "▁ofrecen",
        -9.987800550364792
      ],
      [
        "▁aprendizaje",
        -9.988138758725047
      ],
      [
        "▁memoria",
        -9.988160786797245
      ],
      [
        "▁(o",
        -9.988336401675362
      ],
      [
        "▁norte",
        -9.988747659252827
      ],
      [
        "▁reconocer",
        -9.989124300369994
      ],
      [
        "▁documentación",
        -9.989608328405557
      ],
      [
        "▁35",
        -9.98984303694976
      ],
      [
        "▁ministro",
        -9.989857163599396
      ],
      [
        "▁formar",
        -9.990550293540323
      ],
      [
        "fa",
        -9.99082499930402
      ],
      [
        "tan",
        -9.991194893635996
      ],
      [
        "▁cama",
        -9.991462048388566
      ],
      [
        "▁merece",
        -9.99164704142679
      ],
      [
        "▁cierre",
        -9.992046440260937
      ],
      [
        "▁ciclo",
        -9.992131251573506
      ],
      [
        "▁viajar",
        -9.992510380571392
      ],
      [
        "▁ciencia",
        -9.992581134595593
      ],
      [
        "▁tercera",
        -9.994122123721368
      ],
      [
        "▁políticos",
        -9.995223570575117
      ],
      [
        "▁concurso",
        -9.995863623343514
      ],
      [
        "▁quedan",
        -9.996249557639736
      ],
      [
        "▁juicio",
        -9.996342178595743
      ],
      [
        "▁hubo",
        -9.996373728756573
      ],
      [
        "▁civil",
        -9.996383305070307
      ],
      [
        "cha",
        -9.997815612339584
      ],
      [
        "▁Constitución",
        -9.998270176735488
      ],
      [
        "▁Ro",
        -9.998331285998656
      ],
      [
        "▁financiera",
        -9.998655748952615
      ],
      [
        "▁tráfico",
        -10.000645371541612
      ],
      [
        "▁baño",
        -10.001592331261964
      ],
      [
        "▁rendimiento",
        -10.001894377966352
      ],
      [
        "▁contrario",
        -10.002175137029091
      ],
      [
        "▁dejó",
        -10.003161113617008
      ],
      [
        "cer",
        -10.004587495477168
      ],
      [
        "▁Os",
        -10.004599869292072
      ],
      [
        "▁estuvo",
        -10.0050002071699
      ],
      [
        "th",
        -10.005358283717264
      ],
      [
        "▁actuación",
        -10.005592637761117
      ],
      [
        "▁reglas",
        -10.00601748383526
      ],
      [
        "▁jefe",
        -10.00618173649272
      ],
      [
        "▁prevención",
        -10.006833416324875
      ],
      [
        "▁marketing",
        -10.006858399871536
      ],
      [
        "▁norma",
        -10.006892483795621
      ],
      [
        "▁gas",
        -10.00801568098931
      ],
      [
        "▁Buenos",
        -10.009599107186371
      ],
      [
        "▁provincia",
        -10.009740301390647
      ],
      [
        "▁actuar",
        -10.010064395895766
      ],
      [
        "▁Algunos",
        -10.010788977639873
      ],
      [
        "gi",
        -10.011231901365015
      ],
      [
        "izar",
        -10.011621840704105
      ],
      [
        "▁hicieron",
        -10.01181153182182
      ],
      [
        "▁Comunidad",
        -10.013365618351052
      ],
      [
        "ton",
        -10.01421309988816
      ],
      [
        "▁institución",
        -10.014616014296912
      ],
      [
        "▁dispositivos",
        -10.014809816936692
      ],
      [
        "▁llena",
        -10.014978836001758
      ],
      [
        "▁comienza",
        -10.015462648995989
      ],
      [
        "cos",
        -10.016713854315167
      ],
      [
        "▁mantiene",
        -10.01672394197627
      ],
      [
        "▁arriba",
        -10.017836911326253
      ],
      [
        "▁Cómo",
        -10.018917979908025
      ],
      [
        "▁coste",
        -10.01923304875201
      ],
      [
        "▁Ayuntamiento",
        -10.019325651072027
      ],
      [
        "▁cierta",
        -10.020528242473215
      ],
      [
        "▁bases",
        -10.02091043721914
      ],
      [
        "▁asunto",
        -10.02106768180535
      ],
      [
        "▁adecuada",
        -10.021725835162279
      ],
      [
        "▁bueno,",
        -10.02299378995183
      ],
      [
        "▁premio",
        -10.023209001395209
      ],
      [
        "▁LO",
        -10.024027100479852
      ],
      [
        "▁ES",
        -10.024089318663854
      ],
      [
        "▁consiste",
        -10.024400414103312
      ],
      [
        "▁novela",
        -10.02491083441225
      ],
      [
        "▁previo",
        -10.025096300608142
      ],
      [
        "ven",
        -10.02593461091952
      ],
      [
        "▁escenario",
        -10.026132415892071
      ],
      [
        "▁personajes",
        -10.026236877826049
      ],
      [
        "▁corresponde",
        -10.026530082905891
      ],
      [
        "tal",
        -10.026642012971068
      ],
      [
        "▁elemento",
        -10.02670768836706
      ],
      [
        "▁convertido",
        -10.026896891195424
      ],
      [
        "▁quedó",
        -10.028349130544742
      ],
      [
        "ur",
        -10.029217657085162
      ],
      [
        "▁únicamente",
        -10.02939516954379
      ],
      [
        "▁calendario",
        -10.029433126437912
      ],
      [
        "pu",
        -10.031002729554164
      ],
      [
        "▁negocios",
        -10.032606613991671
      ],
      [
        "▁delante",
        -10.03266589684436
      ],
      [
        "▁estrategias",
        -10.032891734057571
      ],
      [
        "▁detalle",
        -10.032898684624453
      ],
      [
        "▁elección",
        -10.032936229476128
      ],
      [
        "▁acaba",
        -10.033197678736148
      ],
      [
        "▁recién",
        -10.0332499431061
      ],
      [
        "▁comisión",
        -10.033264441600723
      ],
      [
        "▁desea",
        -10.033473787037053
      ],
      [
        "▁representantes",
        -10.033786124470899
      ],
      [
        "▁identidad",
        -10.034403356109534
      ],
      [
        "10",
        -10.036046591721949
      ],
      [
        "ré",
        -10.036814613933183
      ],
      [
        "fe",
        -10.038476113736502
      ],
      [
        "▁porcentaje",
        -10.038734959166522
      ],
      [
        "▁técnicos",
        -10.038756597520791
      ],
      [
        "▁límites",
        -10.038942144960387
      ],
      [
        "▁¿Y",
        -10.039337842739783
      ],
      [
        "▁lugar,",
        -10.039492501885704
      ],
      [
        "▁permita",
        -10.03961779290035
      ],
      [
        "▁vistas",
        -10.039929059226704
      ],
      [
        "▁leído",
        -10.040107448873638
      ],
      [
        "▁conflicto",
        -10.040253478224535
      ],
      [
        "▁Era",
        -10.040443021875848
      ],
      [
        "▁(1)",
        -10.041302111661185
      ],
      [
        "▁vez,",
        -10.04136352709083
      ],
      [
        "▁ritmo",
        -10.043285144924369
      ],
      [
        "ces",
        -10.04366819847074
      ],
      [
        "▁objetos",
        -10.044347663620801
      ],
      [
        "ha",
        -10.044792234884945
      ],
      [
        "▁per",
        -10.045546758885218
      ],
      [
        "▁llegada",
        -10.045853188565061
      ],
      [
        "▁terreno",
        -10.04601765120326
      ],
      [
        "▁sencillo",
        -10.047591785389763
      ],
      [
        "▁televisión",
        -10.047949178309683
      ],
      [
        "▁receta",
        -10.048583443458197
      ],
      [
        "▁parecía",
        -10.048647413257257
      ],
      [
        "▁pocas",
        -10.04989663757946
      ],
      [
        "▁Ma",
        -10.049999109717163
      ],
      [
        "▁finalmente",
        -10.050300766523389
      ],
      [
        "▁deporte",
        -10.05035911961171
      ],
      [
        "ch",
        -10.05252805309565
      ],
      [
        "▁líder",
        -10.052784245576333
      ],
      [
        "▁N",
        -10.053691410981724
      ],
      [
        "▁frecuencia",
        -10.054046219801489
      ],
      [
        "▁_",
        -10.054184968976607
      ],
      [
        "▁dis",
        -10.054638890014425
      ],
      [
        "▁profesor",
        -10.054791791037298
      ],
      [
        "▁ambas",
        -10.055832036608813
      ],
      [
        "▁recuperar",
        -10.056154344920827
      ],
      [
        "▁Programa",
        -10.056197739457808
      ],
      [
        "▁instrumentos",
        -10.058431793718917
      ],
      [
        "▁pueblos",
        -10.058437198123972
      ],
      [
        "▁caja",
        -10.059420074967683
      ],
      [
        "▁formato",
        -10.059433727157678
      ],
      [
        "▁preparar",
        -10.06019557594595
      ],
      [
        "▁similar",
        -10.060821659256813
      ],
      [
        "▁vive",
        -10.060866808440803
      ],
      [
        "▁ella,",
        -10.06157609204267
      ],
      [
        "▁capaces",
        -10.061712255546453
      ],
      [
        "▁Sala",
        -10.062328447325154
      ],
      [
        "▁compañeros",
        -10.062812761995787
      ],
      [
        "▁recuerda",
        -10.06302474597939
      ],
      [
        "cen",
        -10.063038939636861
      ],
      [
        "▁domicilio",
        -10.063815498544368
      ],
      [
        "▁Derecho",
        -10.064135397973338
      ],
      [
        "▁errores",
        -10.064218965069589
      ],
      [
        "▁pudiera",
        -10.064347729329537
      ],
      [
        "▁hice",
        -10.064381776721984
      ],
      [
        "▁Vi",
        -10.064518156381833
      ],
      [
        "▁promedio",
        -10.064566178756463
      ],
      [
        "ante",
        -10.06548195403004
      ],
      [
        "):",
        -10.065692927185067
      ],
      [
        "▁ingreso",
        -10.065698240214157
      ],
      [
        "▁subir",
        -10.065999504471245
      ],
      [
        "tos",
        -10.066088460145437
      ],
      [
        "men",
        -10.066379492603525
      ],
      [
        "▁cine",
        -10.066461427343377
      ],
      [
        "▁utilizando",
        -10.066831150892678
      ],
      [
        "gar",
        -10.066927599104982
      ],
      [
        "▁Tal",
        -10.067228180272163
      ],
      [
        "▁labor",
        -10.06901319511135
      ],
      [
        "▁UN",
        -10.069036061250573
      ],
      [
        "▁e)",
        -10.06951173081696
      ],
      [
        "▁dispone",
        -10.069639970699349
      ],
      [
        "▁social,",
        -10.069917569455644
      ],
      [
        "▁quiera",
        -10.070434382176659
      ],
      [
        "▁Casa",
        -10.070470902503079
      ],
      [
        "▁80",
        -10.071343761568773
      ],
      [
        "▁ataque",
        -10.071976872454357
      ],
      [
        "▁\"El",
        -10.072044631309765
      ],
      [
        "▁bebé",
        -10.072206202765917
      ],
      [
        "▁relacionadas",
        -10.072289441868183
      ],
      [
        "▁contigo",
        -10.073378761453302
      ],
      [
        "▁dije",
        -10.074344582614462
      ],
      [
        "su",
        -10.074575925641469
      ],
      [
        "▁dará",
        -10.074623991640092
      ],
      [
        "▁juez",
        -10.07490412260318
      ],
      [
        "▁clara",
        -10.075179860160778
      ],
      [
        "▁comunes",
        -10.0752515144493
      ],
      [
        "K",
        -10.075265183919791
      ],
      [
        "▁próximos",
        -10.075302002984486
      ],
      [
        "gu",
        -10.075441379195139
      ],
      [
        "▁¿Cuál",
        -10.075968366764936
      ],
      [
        "▁Central",
        -10.076231944943748
      ],
      [
        "▁reducción",
        -10.076267213287592
      ],
      [
        "▁café",
        -10.077566048567935
      ],
      [
        "▁H",
        -10.077840068060024
      ],
      [
        "che",
        -10.07793447694922
      ],
      [
        "▁finalidad",
        -10.078064854695228
      ],
      [
        "MA",
        -10.07928787483572
      ],
      [
        "▁establecimiento",
        -10.079825310384606
      ],
      [
        "▁@",
        -10.079864808492642
      ],
      [
        "▁afecta",
        -10.07989277499517
      ],
      [
        "▁asi",
        -10.079975756409759
      ],
      [
        "TA",
        -10.080232948311924
      ],
      [
        "can",
        -10.080359370879387
      ],
      [
        "▁90",
        -10.080937058256465
      ],
      [
        "▁consejo",
        -10.080945179223948
      ],
      [
        "▁inscripción",
        -10.081073771591113
      ],
      [
        "▁sur",
        -10.081349459908356
      ],
      [
        "▁terceros",
        -10.081991733461516
      ],
      [
        "▁ventajas",
        -10.08207205641828
      ],
      [
        "▁creado",
        -10.082223333093706
      ],
      [
        "▁lleno",
        -10.082735732010864
      ],
      [
        "▁vuelve",
        -10.08390848832622
      ],
      [
        "▁cultural",
        -10.084014515254099
      ],
      [
        "▁pies",
        -10.08418332393104
      ],
      [
        "▁ubicación",
        -10.084327174766145
      ],
      [
        "▁días.",
        -10.084458141321564
      ],
      [
        "▁Mo",
        -10.084897446384726
      ],
      [
        "▁él,",
        -10.084931734600726
      ],
      [
        "CIÓN",
        -10.085212381040492
      ],
      [
        "▁cuesta",
        -10.085294548874
      ],
      [
        "▁Carlos",
        -10.085831825249127
      ],
      [
        "▁interesa",
        -10.086945553917205
      ],
      [
        "▁identificar",
        -10.087708557815454
      ],
      [
        "▁comprobar",
        -10.087758161443626
      ],
      [
        "▁pretende",
        -10.088071389387206
      ],
      [
        "▁$",
        -10.08812396958151
      ],
      [
        "▁Da",
        -10.08852297461019
      ],
      [
        "▁fiesta",
        -10.088625457902989
      ],
      [
        "▁sujeto",
        -10.088725209334545
      ],
      [
        "▁extra",
        -10.088781512841564
      ],
      [
        "▁incremento",
        -10.08889398799986
      ],
      [
        "▁Asamblea",
        -10.089621326971372
      ],
      [
        "▁números",
        -10.089644179787566
      ],
      [
        "▁perfectamente",
        -10.090134875110857
      ],
      [
        "▁bajar",
        -10.090401569198184
      ],
      [
        "▁verdadero",
        -10.09061761080867
      ],
      [
        "▁canal",
        -10.090833086016666
      ],
      [
        "▁70",
        -10.091404629776513
      ],
      [
        "▁señal",
        -10.091784169276849
      ],
      [
        "▁estadounidense",
        -10.09194942577818
      ],
      [
        "▁adquirir",
        -10.092051064155363
      ],
      [
        "▁7.",
        -10.092791985542519
      ],
      [
        "▁Nuestra",
        -10.092880491957464
      ],
      [
        "▁adultos",
        -10.093267992646215
      ],
      [
        "▁añadir",
        -10.093271765129774
      ],
      [
        "▁ejercicios",
        -10.09363515799676
      ],
      [
        "▁Jesús",
        -10.0936879978573
      ],
      [
        "▁Cuba",
        -10.09392282864
      ],
      [
        "▁contiene",
        -10.094158886251687
      ],
      [
        "▁jurídica",
        -10.094324016748715
      ],
      [
        "▁partida",
        -10.094333079462205
      ],
      [
        "▁edificio",
        -10.094880604073246
      ],
      [
        "▁revisión",
        -10.095062277232202
      ],
      [
        "▁personas.",
        -10.095106171130677
      ],
      [
        "▁caer",
        -10.095629486399242
      ],
      [
        "▁facilitar",
        -10.095684123559181
      ],
      [
        "cia",
        -10.096535438752746
      ],
      [
        "▁recuperación",
        -10.097449689380017
      ],
      [
        "▁segura",
        -10.097987310360097
      ],
      [
        "▁mezcla",
        -10.098181657503106
      ],
      [
        "▁probable",
        -10.09853108680673
      ],
      [
        "▁importe",
        -10.098540912689408
      ],
      [
        "▁Estamos",
        -10.099777620033464
      ],
      [
        "▁misión",
        -10.10104593893771
      ],
      [
        "▁modificar",
        -10.101257204839474
      ],
      [
        "▁comprender",
        -10.101329007488799
      ],
      [
        "▁miembro",
        -10.102881894578376
      ],
      [
        "▁órganos",
        -10.102915076987552
      ],
      [
        "▁cierto,",
        -10.103081738958194
      ],
      [
        "▁Ca",
        -10.10416675362676
      ],
      [
        "mas",
        -10.104397021665637
      ],
      [
        "▁esperanza",
        -10.104541022501683
      ],
      [
        "▁100%",
        -10.10487565211988
      ],
      [
        "bra",
        -10.105326905592666
      ],
      [
        "▁oficina",
        -10.106650636966659
      ],
      [
        "▁dificultades",
        -10.10689069297922
      ],
      [
        "▁viendo",
        -10.107250544273537
      ],
      [
        "▁precisamente",
        -10.107675534523413
      ],
      [
        "▁hija",
        -10.109196655781481
      ],
      [
        "▁Hola,",
        -10.10946041225333
      ],
      [
        "ina",
        -10.109578252037874
      ],
      [
        "▁sentido,",
        -10.110152713945162
      ],
      [
        "▁Argentina",
        -10.11076831176218
      ],
      [
        "▁realizan",
        -10.111299325330455
      ],
      [
        "ke",
        -10.11145229921447
      ],
      [
        "▁noticia",
        -10.1120171646502
      ],
      [
        "▁radio",
        -10.112121989203228
      ],
      [
        "▁cuestiones",
        -10.112814723493141
      ],
      [
        "▁actuaciones",
        -10.112814735747518
      ],
      [
        "▁vuelo",
        -10.113703309134197
      ],
      [
        "▁convocatoria",
        -10.11416032327392
      ],
      [
        "▁penal",
        -10.11419097566819
      ],
      [
        "▁llevan",
        -10.114679360240103
      ],
      [
        "▁adicional",
        -10.115114222127787
      ],
      [
        "▁horario",
        -10.115949877450031
      ],
      [
        "ito",
        -10.116164854795134
      ],
      [
        "▁habitual",
        -10.116306015853835
      ],
      [
        "▁potencia",
        -10.116801090657425
      ],
      [
        "▁cadena",
        -10.116901176178956
      ],
      [
        "▁volumen",
        -10.116964119449277
      ],
      [
        "▁delitos",
        -10.117126510199618
      ],
      [
        "▁impuestos",
        -10.118060968457478
      ],
      [
        "▁exactamente",
        -10.118501502232297
      ],
      [
        "▁lenguaje",
        -10.118511696237015
      ],
      [
        "▁explicó",
        -10.119779408908377
      ],
      [
        "▁pelo",
        -10.1202313064279
      ],
      [
        "▁plantas",
        -10.120642653096905
      ],
      [
        "▁presentado",
        -10.12121886023079
      ],
      [
        "▁niñas",
        -10.121990944479215
      ],
      [
        "▁atender",
        -10.122066066876426
      ],
      [
        "▁graves",
        -10.122291273962302
      ],
      [
        "▁quedar",
        -10.122300841838312
      ],
      [
        "▁The",
        -10.122654994408018
      ],
      [
        "▁paciente",
        -10.12279735601601
      ],
      [
        "W",
        -10.122965140108406
      ],
      [
        "▁sencilla",
        -10.123890572817707
      ],
      [
        "▁derecha",
        -10.123992699847605
      ],
      [
        "▁consultar",
        -10.124121741190079
      ],
      [
        "▁celebración",
        -10.124142102236448
      ],
      [
        "▁niña",
        -10.124775087396815
      ],
      [
        "▁banco",
        -10.124863322980438
      ],
      [
        "▁apartamento",
        -10.125203190477912
      ],
      [
        "▁probablemente",
        -10.125210907150663
      ],
      [
        "▁clima",
        -10.125322073823941
      ],
      [
        "▁leyendo",
        -10.125415387789076
      ],
      [
        "mar",
        -10.12578657955103
      ],
      [
        "▁sociales,",
        -10.126315808202703
      ],
      [
        "▁sociedades",
        -10.126437799067443
      ],
      [
        "▁canción",
        -10.126830419615027
      ],
      [
        "▁aceptar",
        -10.128008729199706
      ],
      [
        "▁activa",
        -10.128077078227804
      ],
      [
        "▁reto",
        -10.129554138388983
      ],
      [
        "▁correcto",
        -10.130181310574374
      ],
      [
        "▁tendencia",
        -10.130215169343986
      ],
      [
        "▁esperando",
        -10.130989133853266
      ],
      [
        "▁oposición",
        -10.131059583469183
      ],
      [
        "▁aquí.",
        -10.131234224120977
      ],
      [
        "▁influencia",
        -10.131301333218353
      ],
      [
        "▁2008",
        -10.132054849352933
      ],
      [
        "▁siente",
        -10.132165386448964
      ],
      [
        "▁sonido",
        -10.13265694428639
      ],
      [
        "▁producir",
        -10.132777878900884
      ],
      [
        "▁puesta",
        -10.13282504856776
      ],
      [
        "▁organismos",
        -10.133766047384515
      ],
      [
        "▁Información",
        -10.134247877842842
      ],
      [
        "▁piso",
        -10.134790981206637
      ],
      [
        "▁privado",
        -10.134884017155045
      ],
      [
        "▁municipio",
        -10.13634193434222
      ],
      [
        "▁películas",
        -10.136597370281287
      ],
      [
        "▁sub",
        -10.136710116156308
      ],
      [
        "▁órgano",
        -10.136852766544393
      ],
      [
        "▁calor",
        -10.137153023242696
      ],
      [
        "▁publicar",
        -10.137490328936424
      ],
      [
        "▁duro",
        -10.138253938982572
      ],
      [
        "▁:)",
        -10.138802902504175
      ],
      [
        "im",
        -10.13899056124767
      ],
      [
        "▁España,",
        -10.13928103725948
      ],
      [
        "▁altura",
        -10.13978677217353
      ],
      [
        "▁especies",
        -10.139953840195176
      ],
      [
        "▁pan",
        -10.140796123067535
      ],
      [
        "▁realizará",
        -10.141256807125146
      ],
      [
        "▁Qué",
        -10.141592642578967
      ],
      [
        "DO",
        -10.142206282611227
      ],
      [
        "▁autores",
        -10.142786340264028
      ],
      [
        "▁trabaja",
        -10.142799284137567
      ],
      [
        "▁regalo",
        -10.142839947912687
      ],
      [
        "▁escala",
        -10.143173053558634
      ],
      [
        "▁ofertas",
        -10.143217383189182
      ],
      [
        "▁culpa",
        -10.143589852339842
      ],
      [
        "▁fundamentales",
        -10.143774066600525
      ],
      [
        "▁bienestar",
        -10.143793210266272
      ],
      [
        "▁cerrar",
        -10.144558529257495
      ],
      [
        "▁accidente",
        -10.145129535396464
      ],
      [
        "–",
        -10.14530212243993
      ],
      [
        "▁lengua",
        -10.146200313672987
      ],
      [
        "▁pase",
        -10.146412401604602
      ],
      [
        "com",
        -10.146447424153568
      ],
      [
        "▁rato",
        -10.14653150207167
      ],
      [
        "▁playa",
        -10.14706604552016
      ],
      [
        "ber",
        -10.14733531677227
      ],
      [
        "▁métodos",
        -10.149196283584988
      ],
      [
        "▁básicos",
        -10.149306771326602
      ],
      [
        "▁permanente",
        -10.149654773047285
      ],
      [
        "▁Grupo",
        -10.151149958050059
      ],
      [
        "▁viajes",
        -10.151660204981823
      ],
      [
        "▁actitud",
        -10.152256220015332
      ],
      [
        "▁Federal",
        -10.152499989430382
      ],
      [
        "ck",
        -10.152635137461061
      ],
      [
        "▁casas",
        -10.152868214355614
      ],
      [
        "▁anti",
        -10.15329875173476
      ],
      [
        "▁Comité",
        -10.153665494636275
      ],
      [
        "▁Sa",
        -10.153701947706182
      ],
      [
        "istas",
        -10.154971698921038
      ],
      [
        "▁limpieza",
        -10.156501788760288
      ],
      [
        "um",
        -10.156726800833466
      ],
      [
        "▁llevó",
        -10.157988245758126
      ],
      [
        "▁golpe",
        -10.158244195687054
      ],
      [
        "▁tantas",
        -10.158594363141717
      ],
      [
        "▁vigente",
        -10.158603037433501
      ],
      [
        "▁propiedades",
        -10.159095786987855
      ],
      [
        "▁Venezuela",
        -10.159816327567697
      ],
      [
        "X",
        -10.159911998091097
      ],
      [
        "▁interesado",
        -10.159926690409687
      ],
      [
        "▁tiendas",
        -10.160645358928306
      ],
      [
        "▁movimientos",
        -10.160680852925967
      ],
      [
        "▁archivos",
        -10.161033422032624
      ],
      [
        "▁abajo",
        -10.162043055126492
      ],
      [
        "▁co",
        -10.1620725486877
      ],
      [
        "▁permitir",
        -10.162185968930803
      ],
      [
        "▁cifra",
        -10.162241529296324
      ],
      [
        "tiva",
        -10.162620876932438
      ],
      [
        "▁permitirá",
        -10.163049280427416
      ],
      [
        "▁horas.",
        -10.163730786011357
      ],
      [
        "▁decidido",
        -10.16378121735583
      ],
      [
        "▁carne",
        -10.164705983036022
      ],
      [
        "▁bar",
        -10.164973904344048
      ],
      [
        "▁Di",
        -10.165201012802516
      ],
      [
        "▁promover",
        -10.166204843992048
      ],
      [
        "▁plaza",
        -10.166501735073329
      ],
      [
        "do,",
        -10.167651305671203
      ],
      [
        "▁Derechos",
        -10.16765864714392
      ],
      [
        "▁Trabajo",
        -10.16767914526088
      ],
      [
        "J",
        -10.168435455296262
      ],
      [
        "▁supuesto,",
        -10.169107006146254
      ],
      [
        "▁500",
        -10.170120542917852
      ],
      [
        "▁crea",
        -10.170510293625341
      ],
      [
        "▁prácticamente",
        -10.170832688441234
      ],
      [
        "▁conducta",
        -10.171356963196786
      ],
      [
        "▁gustan",
        -10.171721445290263
      ],
      [
        "▁chico",
        -10.173242337814585
      ],
      [
        "▁cielo",
        -10.173294864059468
      ],
      [
        "▁amplio",
        -10.174213800523201
      ],
      [
        "▁crecer",
        -10.17477642070548
      ],
      [
        "▁parecido",
        -10.174906134924873
      ],
      [
        "▁cuentan",
        -10.175289122971495
      ],
      [
        "▁alma",
        -10.175770618710288
      ],
      [
        "▁llevado",
        -10.175841978146234
      ],
      [
        "▁cerebro",
        -10.17634521163632
      ],
      [
        "▁apertura",
        -10.176939300889064
      ],
      [
        "▁acuerdos",
        -10.176996080306523
      ],
      [
        "▁envío",
        -10.177493717952713
      ],
      [
        "▁cambiado",
        -10.177998583421392
      ],
      [
        ".\"",
        -10.178302849849207
      ],
      [
        "▁posible.",
        -10.17862988347953
      ],
      [
        "▁Todas",
        -10.179906446904626
      ],
      [
        "▁concreto",
        -10.180133866082183
      ],
      [
        "▁Luis",
        -10.180580110363774
      ],
      [
        "▁modificación",
        -10.181554565196942
      ],
      [
        "▁médicos",
        -10.18158671145407
      ],
      [
        "▁trato",
        -10.183297266275149
      ],
      [
        "▁límite",
        -10.183653628993326
      ],
      [
        "▁dura",
        -10.185269448872816
      ],
      [
        "▁recomiendo",
        -10.185808497169631
      ],
      [
        "▁torno",
        -10.186171307008271
      ],
      [
        "▁municipal",
        -10.186293150206406
      ],
      [
        "▁Sol",
        -10.186994525048306
      ],
      [
        "▁Junta",
        -10.187384368854335
      ],
      [
        "▁web.",
        -10.188705433474702
      ],
      [
        "▁prevenir",
        -10.188797811800757
      ],
      [
        "▁isla",
        -10.189199287163518
      ],
      [
        "▁0",
        -10.190674801545864
      ],
      [
        "▁Web",
        -10.190734524625427
      ],
      [
        "▁componentes",
        -10.19091959405946
      ],
      [
        "▁aprobado",
        -10.191332359857675
      ],
      [
        "gan",
        -10.191348749238603
      ],
      [
        "▁alumno",
        -10.192128810399737
      ],
      [
        "▁científicos",
        -10.19234150775117
      ],
      [
        "▁dia",
        -10.192348200321469
      ],
      [
        "▁almacenamiento",
        -10.192516475343544
      ],
      [
        "▁Nuestro",
        -10.19311160869733
      ],
      [
        "▁www.",
        -10.193122042875288
      ],
      [
        "▁historias",
        -10.19319516864907
      ],
      [
        "▁pienso",
        -10.193260303891497
      ],
      [
        "▁resistencia",
        -10.19327016053054
      ],
      [
        "▁belleza",
        -10.193488939673527
      ],
      [
        "cal",
        -10.193694004192153
      ],
      [
        "▁Asociación",
        -10.194230483243071
      ],
      [
        "▁llegue",
        -10.194492013496586
      ],
      [
        "▁habitaciones",
        -10.194533755991294
      ],
      [
        "▁recomendaciones",
        -10.194761354977658
      ],
      [
        "▁efectivo",
        -10.194886382695497
      ],
      [
        "▁Servicios",
        -10.195629794431085
      ],
      [
        "▁animal",
        -10.197247517233667
      ],
      [
        "▁competente",
        -10.198469893780395
      ],
      [
        "▁estarán",
        -10.199325469353482
      ],
      [
        "▁aquello",
        -10.20067443387191
      ],
      [
        "▁conseguido",
        -10.200767625409716
      ],
      [
        "▁sucede",
        -10.200805119755373
      ],
      [
        "▁genera",
        -10.201054363334272
      ],
      [
        "▁ciertos",
        -10.201626662169776
      ],
      [
        "@",
        -10.20214585676192
      ],
      [
        "▁hubiese",
        -10.202301854095257
      ],
      [
        "▁sede",
        -10.20231192698945
      ],
      [
        "▁chicos",
        -10.20324487867548
      ],
      [
        "▁\"La",
        -10.20435728913358
      ],
      [
        "cre",
        -10.20449376124501
      ],
      [
        "▁personaje",
        -10.204819571419707
      ],
      [
        "▁individual",
        -10.205028623165319
      ],
      [
        "s”",
        -10.205268364984992
      ],
      [
        "▁abre",
        -10.205420592985469
      ],
      [
        "▁Li",
        -10.20579377574129
      ],
      [
        "▁activo",
        -10.205876888282319
      ],
      [
        "▁permiso",
        -10.206503502285486
      ],
      [
        "20",
        -10.207062764682709
      ],
      [
        "▁caída",
        -10.20836250584306
      ],
      [
        "▁ruta",
        -10.208630468298708
      ],
      [
        "▁cumple",
        -10.208767425599806
      ],
      [
        "▁departamento",
        -10.208921782869407
      ],
      [
        "▁contrario,",
        -10.208951216021266
      ],
      [
        "▁diferencias",
        -10.20898605308528
      ],
      [
        "▁activos",
        -10.20976348265348
      ],
      [
        "▁cuáles",
        -10.211051606812386
      ],
      [
        "▁sexo",
        -10.211142575782617
      ],
      [
        "▁integral",
        -10.211187406231971
      ],
      [
        "▁explotación",
        -10.211417521073148
      ],
      [
        "▁Gestión",
        -10.211610003757247
      ],
      [
        "▁decidir",
        -10.21161450878028
      ],
      [
        "▁empieza",
        -10.2119967107942
      ],
      [
        "▁revista",
        -10.21209670917123
      ],
      [
        "▁rápidamente",
        -10.212719650224773
      ],
      [
        "▁destacar",
        -10.213302902748119
      ],
      [
        "▁sabor",
        -10.214084159933723
      ],
      [
        "▁aumenta",
        -10.214177116231985
      ],
      [
        "▁instrucciones",
        -10.214424882371361
      ],
      [
        "▁inversiones",
        -10.214424882759172
      ],
      [
        "▁nueve",
        -10.214431527998752
      ],
      [
        "▁inteligencia",
        -10.214831644682404
      ],
      [
        "▁hogar",
        -10.216119409636486
      ],
      [
        "▁decía",
        -10.216934194360395
      ],
      [
        "▁aguas",
        -10.217941978777251
      ],
      [
        "▁recomienda",
        -10.21794446675677
      ],
      [
        "▁toca",
        -10.21935382179519
      ],
      [
        "▁costos",
        -10.219678636240603
      ],
      [
        "▁víctima",
        -10.220340439458894
      ],
      [
        "▁excepto",
        -10.220555176787476
      ],
      [
        "▁nacimiento",
        -10.220567720992737
      ],
      [
        "▁perspectiva",
        -10.22164516030473
      ],
      [
        "▁igualdad",
        -10.222169289477293
      ],
      [
        "▁Otra",
        -10.222202177432841
      ],
      [
        "▁Ella",
        -10.222303225020966
      ],
      [
        "▁cosas,",
        -10.222329302987923
      ],
      [
        "▁viven",
        -10.222753464709271
      ],
      [
        "▁señala",
        -10.223476843291088
      ],
      [
        "▁seguros",
        -10.223646416175313
      ],
      [
        "▁conservación",
        -10.223797606288054
      ],
      [
        "arse",
        -10.224012342354117
      ],
      [
        "▁placer",
        -10.224493598982594
      ],
      [
        "▁comienzo",
        -10.224509577078903
      ],
      [
        "▁iglesia",
        -10.225321484875039
      ],
      [
        "▁Nunca",
        -10.225656980516636
      ],
      [
        "▁sentimientos",
        -10.22592533966019
      ],
      [
        "▁párrafo",
        -10.225976831569376
      ],
      [
        "▁evidencia",
        -10.227375100364277
      ],
      [
        "▁capítulo",
        -10.22773715164912
      ],
      [
        "▁respuestas",
        -10.227762684705521
      ],
      [
        "▁prisión",
        -10.228277242440305
      ],
      [
        "▁económicas",
        -10.228967932908368
      ],
      [
        "▁(que",
        -10.229089615892462
      ],
      [
        "▁alternativa",
        -10.229251105473542
      ],
      [
        "▁2007",
        -10.22976437442743
      ],
      [
        "▁vosotros",
        -10.2298012438665
      ],
      [
        "▁regular",
        -10.230259246753915
      ],
      [
        "▁infraestructura",
        -10.23027112335403
      ],
      [
        "▁planeta",
        -10.230408604762728
      ],
      [
        "▁contratos",
        -10.230541922231453
      ],
      [
        "rte",
        -10.23063920422725
      ],
      [
        "▁década",
        -10.230941135121238
      ],
      [
        "▁elaboración",
        -10.231460970878956
      ],
      [
        "▁breve",
        -10.231487429037381
      ],
      [
        "▁super",
        -10.23170961259827
      ],
      [
        "▁Civil",
        -10.232921217359634
      ],
      [
        "▁trimestre",
        -10.232929648592162
      ],
      [
        "▁visitas",
        -10.233214959977321
      ],
      [
        "▁agencia",
        -10.233335779170401
      ],
      [
        "▁York",
        -10.233588492260825
      ],
      [
        "ge",
        -10.233908861113651
      ],
      [
        "AR",
        -10.233936223183527
      ],
      [
        "sión",
        -10.234120182615541
      ],
      [
        "son",
        -10.23427245398287
      ],
      [
        "▁patrimonio",
        -10.234487279159445
      ],
      [
        "▁preparación",
        -10.234634729638792
      ],
      [
        "▁incluyen",
        -10.235985411614294
      ],
      [
        "▁Otro",
        -10.236123428014771
      ],
      [
        "▁esencial",
        -10.23624242949705
      ],
      [
        "▁vienen",
        -10.236496890587082
      ],
      [
        "▁ciertas",
        -10.236923261588224
      ],
      [
        "▁moda",
        -10.237003987522487
      ],
      [
        "▁anunció",
        -10.237609842868554
      ],
      [
        "▁opiniones",
        -10.237700766459938
      ],
      [
        "▁Reino",
        -10.237705393684946
      ],
      [
        "▁Francisco",
        -10.23918874820329
      ],
      [
        "▁Villa",
        -10.239459609858006
      ],
      [
        "▁abierta",
        -10.239505278608757
      ],
      [
        "▁venir",
        -10.240123356417897
      ],
      [
        "cas",
        -10.240542020024652
      ],
      [
        "▁hermano",
        -10.240572366356329
      ],
      [
        "TO",
        -10.240699568984077
      ],
      [
        "▁pleno",
        -10.240809450346664
      ],
      [
        "▁recorrido",
        -10.241144504531473
      ],
      [
        "▁representación",
        -10.241187569423769
      ],
      [
        "▁“No",
        -10.241363404907247
      ],
      [
        "▁virus",
        -10.241595832584775
      ],
      [
        "▁vivo",
        -10.241967510249268
      ],
      [
        "▁competencias",
        -10.242254375787478
      ],
      [
        "▁empezó",
        -10.242348999327398
      ],
      [
        "▁compañías",
        -10.243074258006232
      ],
      [
        "▁pensamiento",
        -10.243373635841937
      ],
      [
        "▁compras",
        -10.244458760855618
      ],
      [
        "▁Colombia",
        -10.244875467263071
      ],
      [
        "té",
        -10.245388423300366
      ],
      [
        "▁bancos",
        -10.24605199629243
      ],
      [
        "▁mecanismos",
        -10.246223237908511
      ],
      [
        "▁cabe",
        -10.24702081420335
      ],
      [
        "▁convierte",
        -10.247590701141021
      ],
      [
        "▁amenaza",
        -10.248341666192182
      ],
      [
        "▁jamás",
        -10.248620892138959
      ],
      [
        "▁reuniones",
        -10.248620982814412
      ],
      [
        "▁indicó",
        -10.248646386704312
      ],
      [
        "▁costa",
        -10.248789881969575
      ],
      [
        "▁posee",
        -10.250366811926938
      ],
      [
        "▁presentan",
        -10.250454106867117
      ],
      [
        "▁dormir",
        -10.251704961740508
      ],
      [
        "▁fuertes",
        -10.251737500658031
      ],
      [
        "▁botón",
        -10.251799037723165
      ],
      [
        "▁aseguró",
        -10.253370716955503
      ],
      [
        "▁Man",
        -10.253397611291884
      ],
      [
        "▁realizó",
        -10.25340721057377
      ],
      [
        "po",
        -10.253623993596142
      ],
      [
        "▁hagan",
        -10.253811614856374
      ],
      [
        "▁apoyar",
        -10.253818195252236
      ],
      [
        "s?",
        -10.25432288508179
      ],
      [
        "▁edad,",
        -10.254615594204672
      ],
      [
        "▁servir",
        -10.254636992327733
      ],
      [
        "▁olvidar",
        -10.255473100464116
      ],
      [
        "▁2009",
        -10.255757750193364
      ],
      [
        "▁barrio",
        -10.255765096359656
      ],
      [
        "▁oficiales",
        -10.256689607858368
      ],
      [
        "▁ánimo",
        -10.257872701485786
      ],
      [
        "▁puso",
        -10.257937607166257
      ],
      [
        "▁relacionado",
        -10.259053219515021
      ],
      [
        "▁correr",
        -10.259129000948981
      ],
      [
        "▁otros.",
        -10.259304805726998
      ],
      [
        "▁sonrisa",
        -10.259508211336575
      ],
      [
        "▁haces",
        -10.260337507994862
      ],
      [
        "▁meta",
        -10.260575161214646
      ],
      [
        "▁Pública",
        -10.260921887584772
      ],
      [
        "▁piezas",
        -10.261580786000275
      ],
      [
        "▁esposa",
        -10.262078770129811
      ],
      [
        "▁económicos",
        -10.262134480072607
      ],
      [
        "▁conceptos",
        -10.262166078097685
      ],
      [
        "▁utilizan",
        -10.262241641746172
      ],
      [
        "▁Organización",
        -10.262868476161522
      ],
      [
        "▁Soy",
        -10.263427635588707
      ],
      [
        "▁humana",
        -10.264230984231602
      ],
      [
        "▁tuve",
        -10.264776481274684
      ],
      [
        "▁consentimiento",
        -10.26515278759046
      ],
      [
        "Z",
        -10.265646723632411
      ],
      [
        "▁causar",
        -10.266021423078511
      ],
      [
        "▁metas",
        -10.266151926380402
      ],
      [
        "▁recomendable",
        -10.266167269323326
      ],
      [
        "▁Dios,",
        -10.266839825014316
      ],
      [
        "▁32",
        -10.26701322495725
      ],
      [
        "▁manejo",
        -10.267776393243105
      ],
      [
        "do.",
        -10.268071354690907
      ],
      [
        "▁licencia",
        -10.268184481086008
      ],
      [
        "50",
        -10.268409444990864
      ],
      [
        "▁determinado",
        -10.268473125498742
      ],
      [
        "▁escuelas",
        -10.269023386434153
      ],
      [
        "▁(de",
        -10.269352852798477
      ],
      [
        "▁diálogo",
        -10.269953686784687
      ],
      [
        "▁nosotros,",
        -10.269988202642446
      ],
      [
        "▁hospital",
        -10.27045758390707
      ],
      [
        "▁izquierda",
        -10.270496474738685
      ],
      [
        "▁fácilmente",
        -10.270731854539903
      ],
      [
        "▁interno",
        -10.271120229833182
      ],
      [
        "imos",
        -10.271538529248332
      ],
      [
        "▁meses,",
        -10.271709996253112
      ],
      [
        "▁múltiples",
        -10.272239584679014
      ],
      [
        "▁entrenamiento",
        -10.27249847118367
      ],
      [
        "▁nosotros.",
        -10.272675090523695
      ],
      [
        "▁AL",
        -10.27297670164663
      ],
      [
        "▁entra",
        -10.273067580851112
      ],
      [
        "▁corriente",
        -10.27317851586519
      ],
      [
        "▁»",
        -10.273302019878779
      ],
      [
        "▁demostrar",
        -10.273911562901528
      ],
      [
        "▁adolescentes",
        -10.274266211194508
      ],
      [
        "▁revisar",
        -10.274393896514955
      ],
      [
        "▁esfuerzos",
        -10.275323615668142
      ],
      [
        "▁(A",
        -10.275902568313413
      ],
      [
        "▁vecinos",
        -10.276272860300741
      ],
      [
        "▁entiendo",
        -10.277375166209758
      ],
      [
        "▁contratación",
        -10.277695545916206
      ],
      [
        "▁parque",
        -10.278227786906042
      ],
      [
        "▁querido",
        -10.278676531737222
      ],
      [
        "▁innovación",
        -10.279117045424702
      ],
      [
        "▁45",
        -10.279850122568938
      ],
      [
        "▁dieron",
        -10.27997675817819
      ],
      [
        "▁agua,",
        -10.280004270539525
      ],
      [
        "▁hermanos",
        -10.280038993831402
      ],
      [
        "▁300",
        -10.280075085512866
      ],
      [
        "▁fútbol",
        -10.280384127883819
      ],
      [
        "▁Muchos",
        -10.281664403223928
      ],
      [
        "▁euros.",
        -10.282112906757678
      ],
      [
        "▁Usted",
        -10.282884287084865
      ],
      [
        "▁Medio",
        -10.283237558180257
      ],
      [
        "▁interesados",
        -10.283485138375909
      ],
      [
        "▁X",
        -10.283541127582023
      ],
      [
        "▁toque",
        -10.284337454027856
      ],
      [
        "▁ciudad.",
        -10.284416254609507
      ],
      [
        "▁interna",
        -10.284579270038066
      ],
      [
        "▁II",
        -10.284635903957383
      ],
      [
        "▁web,",
        -10.285218491685612
      ],
      [
        "▁perros",
        -10.285677428994948
      ],
      [
        "▁soporte",
        -10.285868254649927
      ],
      [
        "amiento",
        -10.285928217058439
      ],
      [
        "▁asegura",
        -10.286709760449945
      ],
      [
        "▁azúcar",
        -10.286991880364116
      ],
      [
        "▁fin,",
        -10.287126169283601
      ],
      [
        "▁pasado,",
        -10.287863493492239
      ],
      [
        "▁habitantes",
        -10.2880452469496
      ],
      [
        "▁denuncia",
        -10.28864915169222
      ],
      [
        "▁poca",
        -10.289124511451245
      ],
      [
        "▁teoría",
        -10.28938243042603
      ],
      [
        "▁jugador",
        -10.291141210350403
      ],
      [
        "▁reciente",
        -10.292177237602864
      ],
      [
        "▁vuelto",
        -10.292241887684712
      ],
      [
        "▁equilibrio",
        -10.292242541343409
      ],
      [
        "▁descargar",
        -10.29257711803346
      ],
      [
        "▁correcta",
        -10.292625103691947
      ],
      [
        "▁enseñar",
        -10.292801303104046
      ],
      [
        "▁avance",
        -10.293708781303167
      ],
      [
        "▁eficiencia",
        -10.293907110054727
      ],
      [
        "▁actualización",
        -10.294153977431968
      ],
      [
        "illa",
        -10.2941815364216
      ],
      [
        "▁tendrás",
        -10.294587717455444
      ],
      [
        "▁servidor",
        -10.294776720192933
      ],
      [
        "▁Tierra",
        -10.295390523968406
      ],
      [
        "▁particulares",
        -10.295901764741888
      ],
      [
        "▁tendría",
        -10.296241206472263
      ],
      [
        "ki",
        -10.29627778842668
      ],
      [
        "▁operativo",
        -10.296457311764907
      ],
      [
        "▁asuntos",
        -10.296561362315082
      ],
      [
        "▁dichos",
        -10.296782861265697
      ],
      [
        "pro",
        -10.297061484636245
      ],
      [
        "▁Trump",
        -10.297219339661638
      ],
      [
        "▁piensa",
        -10.297810256208656
      ],
      [
        "▁bonito",
        -10.297856706809196
      ],
      [
        "▁contactar",
        -10.298427694949627
      ],
      [
        "▁pensado",
        -10.298714986572076
      ],
      [
        "▁investigaciones",
        -10.298910064573754
      ],
      [
        "▁secreto",
        -10.299159635640905
      ],
      [
        "▁casos,",
        -10.299723026871538
      ],
      [
        "▁copia",
        -10.30024362992089
      ],
      [
        "▁mira",
        -10.302010259206664
      ],
      [
        "▁Protección",
        -10.302218461357981
      ],
      [
        "▁prestación",
        -10.302398819882315
      ],
      [
        "▁españoles",
        -10.302648396216497
      ],
      [
        "▁son:",
        -10.302824262056504
      ],
      [
        "▁solicitudes",
        -10.30335435912346
      ],
      [
        "▁ventana",
        -10.303480973193192
      ],
      [
        "▁turismo",
        -10.303719784012152
      ],
      [
        "▁presentó",
        -10.303922790665432
      ],
      [
        "▁físicas",
        -10.304563942024345
      ],
      [
        "▁colocar",
        -10.304861701215843
      ],
      [
        "▁horas,",
        -10.30536676923478
      ],
      [
        "▁espíritu",
        -10.305830205481268
      ],
      [
        "OS",
        -10.305903241950471
      ],
      [
        "▁abrazo",
        -10.30669260544304
      ],
      [
        "▁cantidades",
        -10.307861117581524
      ],
      [
        "▁estrés",
        -10.308417405076312
      ],
      [
        "▁ventaja",
        -10.308521908236038
      ],
      [
        "▁financiero",
        -10.308703980709343
      ],
      [
        "▁juntos",
        -10.309048856835668
      ],
      [
        "▁letra",
        -10.309719646434825
      ],
      [
        "▁tocar",
        -10.309755597124518
      ],
      [
        "▁cabello",
        -10.310143725586475
      ],
      [
        "ieron",
        -10.310254532978654
      ],
      [
        "▁vuestra",
        -10.310421899296438
      ],
      [
        "▁cuento",
        -10.311386658802284
      ],
      [
        "▁expresa",
        -10.311713065919085
      ],
      [
        "AS",
        -10.312019303434303
      ],
      [
        "▁funcionario",
        -10.312161560213433
      ],
      [
        "▁mínima",
        -10.31242472070906
      ],
      [
        "▁definir",
        -10.312569646111243
      ],
      [
        "▁inmediatamente",
        -10.31275716756598
      ],
      [
        "▁éstos",
        -10.313067655855097
      ],
      [
        "▁Des",
        -10.31433735619618
      ],
      [
        "▁quizá",
        -10.31438519818632
      ],
      [
        "▁organizar",
        -10.31453007966618
      ],
      [
        "▁seguramente",
        -10.314719773843311
      ],
      [
        "▁sujetos",
        -10.315074965917576
      ],
      [
        "▁Espíritu",
        -10.31563476180214
      ],
      [
        "▁Na",
        -10.31588597254317
      ],
      [
        "15",
        -10.31595088547528
      ],
      [
        "▁ocurrido",
        -10.316017038960169
      ],
      [
        "▁judicial",
        -10.316338402967881
      ],
      [
        "▁ingresar",
        -10.316531635938574
      ],
      [
        "▁capacidades",
        -10.31688697014496
      ],
      [
        "▁monto",
        -10.316942234276258
      ],
      [
        "▁jardín",
        -10.317326933580315
      ],
      [
        "▁dejando",
        -10.317367570911031
      ],
      [
        "▁conversación",
        -10.317376331946424
      ],
      [
        "▁tomado",
        -10.318965097500936
      ],
      [
        "▁embarazo",
        -10.319030434315884
      ],
      [
        "▁pese",
        -10.31947190102418
      ],
      [
        "▁(C",
        -10.320496893353663
      ],
      [
        "▁audiencia",
        -10.320720052897634
      ],
      [
        "▁Francia",
        -10.320740521720825
      ],
      [
        "ent",
        -10.320880991171574
      ],
      [
        "▁militar",
        -10.321155493745975
      ],
      [
        "▁actuales",
        -10.321766925844175
      ],
      [
        "▁aplica",
        -10.322217673639837
      ],
      [
        "▁frase",
        -10.322391107978726
      ],
      [
        "▁verdadera",
        -10.322518296956705
      ],
      [
        "▁masa",
        -10.322985340124115
      ],
      [
        "▁Política",
        -10.323163349607206
      ],
      [
        "▁recibe",
        -10.323225257778775
      ],
      [
        "▁meses.",
        -10.32399283676335
      ],
      [
        "▁¿Es",
        -10.324183840819767
      ],
      [
        "▁duda,",
        -10.324514668590822
      ],
      [
        "▁montón",
        -10.325837963470006
      ],
      [
        "▁Chile",
        -10.326074109973643
      ],
      [
        "▁jurídico",
        -10.326429795220008
      ],
      [
        "▁proveedores",
        -10.326828603298065
      ],
      [
        "▁8.",
        -10.327724305686756
      ],
      [
        "ñ",
        -10.327947301460927
      ],
      [
        "▁ca",
        -10.328833390274141
      ],
      [
        "▁afectados",
        -10.328970629302473
      ],
      [
        "▁termina",
        -10.328974636728681
      ],
      [
        "▁complejo",
        -10.329014982314687
      ],
      [
        "▁pobreza",
        -10.329301885335726
      ],
      [
        "▁estrellas",
        -10.329397721576537
      ],
      [
        "▁conocida",
        -10.32947964576207
      ],
      [
        "▁pude",
        -10.329615721950098
      ],
      [
        "▁formulario",
        -10.329636542590398
      ],
      [
        "▁comunicado",
        -10.329645364510046
      ],
      [
        "▁llegan",
        -10.329902618215764
      ],
      [
        "mon",
        -10.330010133697426
      ],
      [
        "▁cubrir",
        -10.330871013509515
      ],
      [
        "▁convertirse",
        -10.331475911537083
      ],
      [
        "▁buscan",
        -10.33233013122048
      ],
      [
        "▁Pre",
        -10.332820404149803
      ],
      [
        "▁taller",
        -10.333398788519364
      ],
      [
        "▁(por",
        -10.334308214621023
      ],
      [
        "▁permitan",
        -10.334455336209258
      ],
      [
        "DA",
        -10.335269266505906
      ],
      [
        "▁dominio",
        -10.337422089115819
      ],
      [
        "▁aportar",
        -10.337542641788485
      ],
      [
        "▁fiestas",
        -10.337737722482338
      ],
      [
        "▁Ejecutivo",
        -10.33785789365154
      ],
      [
        "▁afirmó",
        -10.337858167435861
      ],
      [
        "▁grasa",
        -10.338199246793664
      ],
      [
        "▁familia,",
        -10.338872089596226
      ],
      [
        "correspondientes",
        -10.338927952870861
      ],
      [
        "▁Vamos",
        -10.340011561245197
      ],
      [
        "▁Director",
        -10.340146395544744
      ],
      [
        "▁intento",
        -10.340371753797285
      ],
      [
        "▁viviendas",
        -10.340405017829324
      ],
      [
        "▁inmediato",
        -10.341136981636694
      ],
      [
        "▁materias",
        -10.341238723136968
      ],
      [
        "▁parecen",
        -10.34179383009495
      ],
      [
        "▁club",
        -10.341978241665936
      ],
      [
        "▁Municipal",
        -10.34254869826782
      ],
      [
        "▁establecidas",
        -10.344173579356887
      ],
      [
        "▁archivo",
        -10.345001051310327
      ],
      [
        "▁informes",
        -10.345366451011046
      ],
      [
        "▁desempeño",
        -10.345545307158023
      ],
      [
        "▁cambia",
        -10.34554727845201
      ],
      [
        "▁Ser",
        -10.345552884926018
      ],
      [
        "▁claramente",
        -10.345595286738238
      ],
      [
        "▁integración",
        -10.345598107069407
      ],
      [
        "▁efectiva",
        -10.345783583535809
      ],
      [
        "ico",
        -10.34617768117748
      ],
      [
        "cur",
        -10.34660614549605
      ],
      [
        "▁células",
        -10.346804946323505
      ],
      [
        "ita",
        -10.34758786013411
      ],
      [
        "lin",
        -10.347977773975096
      ],
      [
        "tivo",
        -10.348984288541175
      ],
      [
        "ct",
        -10.349471670583124
      ],
      [
        "▁edificios",
        -10.34951038587187
      ],
      [
        "▁tomando",
        -10.349797169701963
      ],
      [
        "▁“A",
        -10.34985375740841
      ],
      [
        "▁deberían",
        -10.350049517425468
      ],
      [
        "▁querer",
        -10.350105094305817
      ],
      [
        "▁salió",
        -10.350177675317767
      ],
      [
        "▁ninguno",
        -10.351084588246913
      ],
      [
        "▁medicamentos",
        -10.351707286536746
      ],
      [
        "▁corta",
        -10.351877363684292
      ],
      [
        "▁malo",
        -10.352073542144876
      ],
      [
        "▁social.",
        -10.352076054357829
      ],
      [
        "▁matrimonio",
        -10.352121328337065
      ],
      [
        "▁oro",
        -10.352263908702996
      ],
      [
        "▁fechas",
        -10.352353288649788
      ],
      [
        "▁ingredientes",
        -10.353215945721189
      ],
      [
        "▁incluido",
        -10.353321081188646
      ],
      [
        "▁arma",
        -10.354289077299672
      ],
      [
        "▁Ante",
        -10.354470313856739
      ],
      [
        "▁podéis",
        -10.355295135685694
      ],
      [
        "▁conmigo",
        -10.355354734575016
      ],
      [
        "▁com",
        -10.355573953647832
      ],
      [
        "▁reales",
        -10.356595322812678
      ],
      [
        "▁evaluar",
        -10.35734703403656
      ],
      [
        "▁plena",
        -10.357811972597633
      ],
      [
        "id",
        -10.357911826389335
      ],
      [
        "▁móviles",
        -10.357932784289392
      ],
      [
        "▁considerado",
        -10.358081611277886
      ],
      [
        "▁instrumento",
        -10.358118977023748
      ],
      [
        "▁profesores",
        -10.358301290625839
      ],
      [
        "▁destaca",
        -10.35831753503361
      ],
      [
        "▁Comercio",
        -10.358822073429195
      ],
      [
        "▁configuración",
        -10.358895362241565
      ],
      [
        "▁aquí,",
        -10.360126973559968
      ],
      [
        "▁celebrar",
        -10.360573339248168
      ],
      [
        "▁coordinación",
        -10.36062181387678
      ],
      [
        "▁usa",
        -10.361154433736605
      ],
      [
        "▁Pablo",
        -10.36247878764088
      ],
      [
        "éis",
        -10.36295144151617
      ],
      [
        "▁situado",
        -10.363489357734153
      ],
      [
        "cho",
        -10.363747318644972
      ],
      [
        "▁basa",
        -10.363996013918594
      ],
      [
        "gen",
        -10.36403495683724
      ],
      [
        "▁factor",
        -10.36435469499839
      ],
      [
        "▁sanciones",
        -10.364367746995109
      ],
      [
        "ador",
        -10.364402537433282
      ],
      [
        "▁tantos",
        -10.364791297725585
      ],
      [
        "▁hermana",
        -10.365235558907546
      ],
      [
        "áis",
        -10.365358669172934
      ],
      [
        "▁ejercer",
        -10.36805148225568
      ],
      [
        "▁Ese",
        -10.368787986693466
      ],
      [
        "▁previamente",
        -10.368846873382353
      ],
      [
        "▁consumidor",
        -10.368913798700543
      ],
      [
        "▁Fondo",
        -10.369595029675974
      ],
      [
        "min",
        -10.36965437462409
      ],
      [
        "ín",
        -10.37096403285818
      ],
      [
        "sion",
        -10.371028987192258
      ],
      [
        "▁cuadro",
        -10.371154742793784
      ],
      [
        "▁independencia",
        -10.371259841452712
      ],
      [
        "▁posterior",
        -10.371957768573859
      ],
      [
        "▁Incluso",
        -10.372494049729323
      ],
      [
        "▁impresión",
        -10.373042908562413
      ],
      [
        "▁cooperación",
        -10.373079209261626
      ],
      [
        "▁vio",
        -10.37395072630251
      ],
      [
        "▁nuevamente",
        -10.374280150351314
      ],
      [
        "▁privadas",
        -10.374598650752006
      ],
      [
        "▁volvió",
        -10.374747458726102
      ],
      [
        "▁Cristo",
        -10.375297029618839
      ],
      [
        "▁ti.",
        -10.375498507762568
      ],
      [
        "ncia",
        -10.3755216235636
      ],
      [
        "▁so",
        -10.37581395850672
      ],
      [
        "▁Partido",
        -10.376659696823584
      ],
      [
        "▁SU",
        -10.376807822373333
      ],
      [
        "▁plazas",
        -10.377045337192236
      ],
      [
        "gra",
        -10.377745145901518
      ],
      [
        "▁verdad,",
        -10.3781382002762
      ],
      [
        "▁trae",
        -10.378396857415474
      ],
      [
        "▁examen",
        -10.378431350050155
      ],
      [
        "▁aviso",
        -10.37845206764004
      ],
      [
        "▁necesitamos",
        -10.378656217400012
      ],
      [
        "▁voto",
        -10.37873403353937
      ],
      [
        "▁aparecen",
        -10.379072017222878
      ],
      [
        "▁intercambio",
        -10.37913701387323
      ],
      [
        "izado",
        -10.379425512836487
      ],
      [
        "▁transmisión",
        -10.380236997342298
      ],
      [
        "▁fabricación",
        -10.380306214826806
      ],
      [
        "▁diciendo",
        -10.380870985886233
      ],
      [
        "▁Costa",
        -10.38146463498242
      ],
      [
        "▁madera",
        -10.381700649672908
      ],
      [
        "▁España.",
        -10.381834799459575
      ],
      [
        "▁sesiones",
        -10.382102743535944
      ],
      [
        "EN",
        -10.38261800380667
      ],
      [
        "El",
        -10.382964647292013
      ],
      [
        "▁¿No",
        -10.383149857804646
      ],
      [
        "▁socio",
        -10.384274705026247
      ],
      [
        "▁hayas",
        -10.384435792102572
      ],
      [
        "▁logrado",
        -10.384565232542895
      ],
      [
        "▁guardar",
        -10.384658395052941
      ],
      [
        "▁perfecta",
        -10.384744918826838
      ],
      [
        "▁sociales.",
        -10.385295908981814
      ],
      [
        "▁antiguo",
        -10.385473420522949
      ],
      [
        "▁tradicional",
        -10.385583319421219
      ],
      [
        "▁Cualquier",
        -10.385586049677727
      ],
      [
        "▁consumidores",
        -10.385614078537504
      ],
      [
        "▁avión",
        -10.38565684202485
      ],
      [
        "▁transformación",
        -10.385744312178605
      ],
      [
        "▁eficaz",
        -10.385939494716123
      ],
      [
        "▁enfrentar",
        -10.386324238468074
      ],
      [
        "▁estancia",
        -10.38661140734644
      ],
      [
        "▁tanta",
        -10.386695716248983
      ],
      [
        "hi",
        -10.386951336495809
      ],
      [
        "▁educativo",
        -10.387115358351096
      ],
      [
        "▁Cruz",
        -10.387469520804391
      ],
      [
        "▁público,",
        -10.387561529056006
      ],
      [
        "dos.",
        -10.387669887269896
      ],
      [
        "▁empresa.",
        -10.38782781522524
      ],
      [
        "▁debía",
        -10.388127703815382
      ],
      [
        "▁Pa",
        -10.38867531864433
      ],
      [
        "▁cargos",
        -10.389393445891788
      ],
      [
        "▁Algunas",
        -10.389406629432933
      ],
      [
        "▁alegría",
        -10.389660786979388
      ],
      [
        "▁eficiente",
        -10.389750064265222
      ],
      [
        "▁rostro",
        -10.390028129103495
      ],
      [
        "▁empresarial",
        -10.390243255680078
      ],
      [
        "▁democracia",
        -10.390378064706322
      ],
      [
        "▁culturales",
        -10.390439366259148
      ],
      [
        "▁pasan",
        -10.391884543300769
      ],
      [
        "▁anuncio",
        -10.392246020815278
      ],
      [
        "▁comunicaciones",
        -10.392838850852304
      ],
      [
        "▁vigencia",
        -10.392955805704219
      ],
      [
        "▁blog,",
        -10.393198533270827
      ],
      [
        "▁trate",
        -10.393564572174293
      ],
      [
        "▁hábitos",
        -10.393690149931132
      ],
      [
        "▁usando",
        -10.393841781544772
      ],
      [
        "▁Perú",
        -10.393862046090248
      ],
      [
        "▁colectivo",
        -10.394303497161914
      ],
      [
        "pen",
        -10.394583352952065
      ],
      [
        "▁debo",
        -10.394714144685322
      ],
      [
        "▁desarrolla",
        -10.394817392575096
      ],
      [
        "▁RE",
        -10.395177678350395
      ],
      [
        "rnos",
        -10.395339697395437
      ],
      [
        "ino",
        -10.395359070378188
      ],
      [
        "▁Alemania",
        -10.395541565720023
      ],
      [
        "▁guste",
        -10.396165549545017
      ],
      [
        "▁modificaciones",
        -10.396707826992184
      ],
      [
        "▁Pi",
        -10.3967981015177
      ],
      [
        "▁cuidar",
        -10.396942692328725
      ],
      [
        "▁Podemos",
        -10.397217784159832
      ],
      [
        "▁municipales",
        -10.397319697260588
      ],
      [
        "▁comentar",
        -10.397847613424727
      ],
      [
        "▁Actualmente",
        -10.398287908484418
      ],
      [
        "▁podamos",
        -10.398485666012787
      ],
      [
        "▁alegra",
        -10.398762521246535
      ],
      [
        "▁Hemos",
        -10.399059746259862
      ],
      [
        "▁q",
        -10.400343313075304
      ],
      [
        "▁nombres",
        -10.400811466001588
      ],
      [
        "▁eléctrica",
        -10.400950431511154
      ],
      [
        "▁Dos",
        -10.401209412537753
      ],
      [
        "▁encontraba",
        -10.40134620288596
      ],
      [
        "▁Así,",
        -10.401454436511473
      ],
      [
        "▁invertir",
        -10.401568591317371
      ],
      [
        "▁Dentro",
        -10.401968207072775
      ],
      [
        "▁fotografías",
        -10.402038590599041
      ],
      [
        "▁pi",
        -10.402781821884776
      ],
      [
        "▁enfoque",
        -10.402818561570513
      ],
      [
        "▁equivalente",
        -10.402841759715876
      ],
      [
        "▁tono",
        -10.402863142098415
      ],
      [
        "cul",
        -10.403011871319007
      ],
      [
        "▁eficacia",
        -10.403953357633922
      ],
      [
        "gue",
        -10.404192016083122
      ],
      [
        "▁realizada",
        -10.404737352938826
      ],
      [
        "▁artistas",
        -10.406249455306433
      ],
      [
        "▁trabajan",
        -10.406614302329217
      ],
      [
        "▁2006",
        -10.407173381166405
      ],
      [
        "▁certificado",
        -10.407439165934615
      ],
      [
        "▁gama",
        -10.40773587950846
      ],
      [
        "▁personal,",
        -10.407880969795297
      ],
      [
        "▁altos",
        -10.407934717767697
      ],
      [
        "▁Art.",
        -10.40795325685568
      ],
      [
        "▁dependiendo",
        -10.408215563961882
      ],
      [
        "▁veces,",
        -10.408914932729605
      ],
      [
        "ier",
        -10.40901522467863
      ],
      [
        "▁preparado",
        -10.409067057237706
      ],
      [
        "▁pagos",
        -10.409111552330689
      ],
      [
        "▁laborales",
        -10.409859286312502
      ],
      [
        "▁tuvieron",
        -10.41048115586618
      ],
      [
        "mer",
        -10.410526315505226
      ],
      [
        "▁acabar",
        -10.41056352287196
      ],
      [
        "▁quisiera",
        -10.410607625667513
      ],
      [
        "▁Per",
        -10.411073012883438
      ],
      [
        "▁acudir",
        -10.411372183460767
      ],
      [
        "▁alternativas",
        -10.41142351025365
      ],
      [
        "▁superiores",
        -10.411557990995092
      ],
      [
        "▁fotografía",
        -10.411610926890813
      ],
      [
        "iza",
        -10.41251509192902
      ],
      [
        "▁líderes",
        -10.412872379277651
      ],
      [
        "▁petición",
        -10.41322990612905
      ],
      [
        "▁satisfacción",
        -10.413231186912116
      ],
      [
        "▁representante",
        -10.41324173197859
      ],
      [
        "▁definición",
        -10.413715749293697
      ],
      [
        "▁constituye",
        -10.413789735513118
      ],
      [
        "▁positiva",
        -10.413954381210262
      ],
      [
        "▁escena",
        -10.414016021027859
      ],
      [
        "▁campos",
        -10.414096569001455
      ],
      [
        "▁desarrollado",
        -10.414154685060796
      ],
      [
        "▁realizadas",
        -10.41495716294223
      ],
      [
        "▁Orden",
        -10.4154486476687
      ],
      [
        "▁m",
        -10.415836751516645
      ],
      [
        "▁trans",
        -10.415899937079736
      ],
      [
        "▁34",
        -10.415904515857816
      ],
      [
        "▁estados",
        -10.415912023881269
      ],
      [
        "▁Ra",
        -10.41601670484043
      ],
      [
        "▁fenómeno",
        -10.41690430361746
      ],
      [
        "▁alojamiento",
        -10.417831842733392
      ],
      [
        "▁mando",
        -10.418011300275955
      ],
      [
        "▁fui",
        -10.418583883251312
      ],
      [
        "▁menos,",
        -10.41979894261786
      ],
      [
        "▁incumplimiento",
        -10.420905526033668
      ],
      [
        "▁probado",
        -10.420943281130466
      ],
      [
        "tica",
        -10.421281137032022
      ],
      [
        "12",
        -10.421427363835575
      ],
      [
        "▁Miguel",
        -10.422884757689406
      ],
      [
        "▁investigadores",
        -10.423093110476135
      ],
      [
        "▁aeropuerto",
        -10.423336390446968
      ],
      [
        "gua",
        -10.423496862115066
      ],
      [
        "▁gira",
        -10.423741905980126
      ],
      [
        "ka",
        -10.424231182667246
      ],
      [
        "▁estudiante",
        -10.424395135418234
      ],
      [
        "▁emociones",
        -10.424419682209
      ],
      [
        "▁muerto",
        -10.424526951704756
      ],
      [
        "▁anterior.",
        -10.424640512821224
      ],
      [
        "▁venido",
        -10.424804128893179
      ],
      [
        "▁cosas.",
        -10.424886293195621
      ],
      [
        "para",
        -10.425175451577367
      ],
      [
        "▁complicado",
        -10.42560629918625
      ],
      [
        "▁Superior",
        -10.426363382244617
      ],
      [
        "▁histórico",
        -10.426545720754696
      ],
      [
        "▁incluidos",
        -10.426602366458438
      ],
      [
        "▁Sur",
        -10.426941403585861
      ],
      [
        "▁conveniente",
        -10.427323542496863
      ],
      [
        "▁J",
        -10.427520324331423
      ],
      [
        "del",
        -10.427926598113656
      ],
      [
        "▁f)",
        -10.428036846761639
      ],
      [
        "▁Resolución",
        -10.428260412113628
      ],
      [
        "▁luchar",
        -10.428676653564452
      ],
      [
        "▁público.",
        -10.429389914065823
      ],
      [
        "▁asistir",
        -10.430669314871345
      ],
      [
        "ER",
        -10.430858827869514
      ],
      [
        "▁profundo",
        -10.431545340947293
      ],
      [
        "▁entiende",
[...]
