{
  "version": "1.0",
  "truncation": null,
  "padding": null,
  "added_tokens": [
    {
      "id": 0,
      "content": "[UNK]",
      "single_word": false,
      "lstrip": false,
      "rstrip": false,
      "normalized": false,
      "special": true
    },
    {
      "id": 1,
      "content": "[CLS]",
      "single_word": false,
      "lstrip": false,
      "rstrip": false,
      "normalized": false,
      "special": true
    },
    {
      "id": 2,
      "content": "[SEP]",
      "single_word": false,
      "lstrip": false,
      "rstrip": false,
      "normalized": false,
      "special": true
    },
    {
      "id": 3,
      "content": "[PAD]",
      "single_word": false,
      "lstrip": false,
      "rstrip": false,
      "normalized": false,
      "special": true
    },
    {
      "id": 4,
      "content": "[MASK]",
      "single_word": false,
      "lstrip": false,
      "rstrip": false,
      "normalized": false,
      "special": true
    }
  ],
  "normalizer": {
    "type": "Sequence",
    "normalizers": [
      {
        "type": "Nmt"
      },
      {
        "type": "NFKC"
      },
      {
        "type": "Replace",
        "pattern": {
          "Regex": " {2,}"
        },
        "content": " "
      }
    ]
  },
  "pre_tokenizer": {
    "type": "Metaspace",
    "replacement": "▁",
    "prepend_scheme": "always",
    "split": true
  },
  "post_processor": null,
  "decoder": {
    "type": "Metaspace",
    "replacement": "▁",
    "prepend_scheme": "always",
    "split": true
  },
  "model": {
    "type": "Unigram",
    "unk_id": 0,
    "vocab": [
      [
        "[UNK]",
        0.0
      ],
      [
        "[CLS]",
        0.0
      ],
      [
        "[SEP]",
        0.0
      ],
      [
        "[PAD]",
        0.0
      ],
      [
        "[MASK]",
        0.0
      ],
      [
        "▁",
        -2.7625955153499966
      ],
      [
        "،",
        -3.7525727823563226
      ],
      [
        "▁في",
        -3.936577766643042
      ],
      [
        "▁من",
        -4.05013120165167
      ],
      [
        ".",
        -4.141467924617151
      ],
      [
        "ه",
        -4.5817853123709025
      ],
      [
        "▁و",
        -4.601673289699079
      ],
      [
        "▁على",
        -4.654154226072039
      ],
      [
        "ا",
        -4.86377856099914
      ],
      [
        "ي",
        -4.92992377958967
      ],
      [
        "ة",
        -4.950272179569074
      ],
      [
        "▁أن",
        -5.026935649304278
      ],
      [
        "ها",
        -5.193605486486259
      ],
      [
        "ت",
        -5.32227354545306
      ],
      [
        "▁إلى",
        -5.386409118879065
      ],
      [
        "▁عن",
        -5.517498624399979
      ],
      [
        "▁ال",
        -5.5451399884616706
      ],
      [
        "ات",
        -5.589181447341925
      ],
      [
        "▁ب",
        -5.6311500826055365
      ],
      [
        "▁لا",
        -5.664276597285159
      ],
      [
        "▁التي",
        -5.699789342182548
      ],
      [
        "▁وال",
        -5.713773498572815
      ],
      [
        "▁ما",
        -5.7192111215309644
      ],
      [
        ":",
        -5.754540711255615
      ],
      [
        "▁أو",
        -5.801117983620211
      ],
      [
        "ك",
        -5.829783795705545
      ],
      [
        "▁الله",
        -5.851869222340117
      ],
      [
        "▁مع",
        -5.852124433579849
      ],
      [
        "ين",
        -5.876973051574284
      ],
      [
        "▁هذا",
        -5.965540437657307
      ],
      [
        "▁ل",
        -5.985849886350653
      ],
      [
        "اً",
        -5.991068924719096
      ],
      [
        "هم",
        -6.022221170333591
      ],
      [
        "م",
        -6.028383263040045
      ],
      [
        "ية",
        -6.036438204439246
      ],
      [
        "ون",
        -6.069627135410373
      ],
      [
        "ن",
        -6.118970599655201
      ],
      [
        "▁-",
        -6.143495215045402
      ],
      [
        "وا",
        -6.153436796253093
      ],
      [
        "▁(",
        -6.1562077667278725
      ],
      [
        "▁هذه",
        -6.17136078054166
      ],
      [
        "نا",
        -6.177887440102852
      ],
      [
        "▁لل",
        -6.18187076181947
      ],
      [
        "▁\"",
        -6.204735262037362
      ],
      [
        "▁الذي",
        -6.226959624364978
      ],
      [
        ")",
        -6.267781194295269
      ],
      [
        "▁بال",
        -6.280417328364468
      ],
      [
        "▁كل",
        -6.3381036899622885
      ],
      [
        "ى",
        -6.35218155183577
      ],
      [
        "▁هو",
        -6.360203081484885
      ],
      [
        "\"",
        -6.409387876024997
      ],
      [
        "▁كان",
        -6.431855166260718
      ],
      [
        "▁ان",
        -6.443079732173334
      ],
      [
        "▁بعد",
        -6.46146172054773
      ],
      [
        "▁لم",
        -6.469823272624389
      ],
      [
        "و",
        -6.490644330254019
      ],
      [
        "▁:",
        -6.505510104046866
      ],
      [
        ",",
        -6.518875533876994
      ],
      [
        "▁بين",
        -6.5289314071743085
      ],
      [
        "▁ذلك",
        -6.565363805901523
      ],
      [
        "▁م",
        -6.595255880904805
      ],
      [
        "▁عليه",
        -6.640184204841834
      ],
      [
        "▁فى",
        -6.682486857050941
      ],
      [
        "ل",
        -6.682651203743369
      ],
      [
        "▁كما",
        -6.713916670381495
      ],
      [
        "▁الم",
        -6.72892801518196
      ],
      [
        "▁..",
        -6.755847617837903
      ],
      [
        "▁خلال",
        -6.80371890385115
      ],
      [
        "▁قد",
        -6.835095468855645
      ],
      [
        "▁إن",
        -6.8364105966720565
      ],
      [
        "▁ف",
        -6.883199817230933
      ],
      [
        "ًا",
        -6.888530122224196
      ],
      [
        "ان",
        -6.892042273364259
      ],
      [
        "▁ولا",
        -6.910099204248132
      ],
      [
        "▁أي",
        -6.916672961450036
      ],
      [
        "▁هي",
        -6.91705248565234
      ],
      [
        "▁قبل",
        -6.927551097232291
      ],
      [
        "َ",
        -6.942198600679813
      ],
      [
        "ُ",
        -6.9463138727836355
      ],
      [
        "ب",
        -6.953291712445088
      ],
      [
        "▁حتى",
        -6.95793979271251
      ],
      [
        "▁بن",
        -6.965504543831061
      ],
      [
        "▁الى",
        -6.966342297810851
      ],
      [
        "ف",
        -6.970743242191498
      ],
      [
        "▁–",
        -6.976071650825595
      ],
      [
        "ِ",
        -6.9807876624279
      ],
      [
        "▁أ",
        -6.991286737446847
      ],
      [
        "؟",
        -6.991990436348944
      ],
      [
        "▁حيث",
        -7.000640578814426
      ],
      [
        "▁غير",
        -7.019955365778086
      ],
      [
        "▁...",
        -7.042712089453907
      ],
      [
        "▁له",
        -7.045247667992594
      ],
      [
        "..",
        -7.083066333047343
      ],
      [
        "▁بعض",
        -7.0998212294036165
      ],
      [
        "▁وهو",
        -7.107766306042809
      ],
      [
        "...",
        -7.125673895906708
      ],
      [
        "▁كانت",
        -7.15465362312729
      ],
      [
        "▁وي",
        -7.18307508137528
      ],
      [
        "-",
        -7.185347745143096
      ],
      [
        "▁يكون",
        -7.196396880953342
      ],
      [
        "▁,",
        -7.2088686019484065
      ],
      [
        "ته",
        -7.213504765506929
      ],
      [
        "▁عام",
        -7.2139357196504825
      ],
      [
        "▁أنه",
        -7.215459640437276
      ],
      [
        "▁وت",
        -7.2198107184380635
      ],
      [
        "د",
        -7.221680950851365
      ],
      [
        "▁ومن",
        -7.22415729041194
      ],
      [
        "▁وفي",
        -7.225813721509086
      ],
      [
        "س",
        -7.233399335191299
      ],
      [
        "▁إذا",
        -7.2418177651861555
      ],
      [
        "▁اليوم",
        -7.244896380153632
      ],
      [
        "▁قال",
        -7.247871236892282
      ],
      [
        "▁ثم",
        -7.252413301862841
      ],
      [
        "ال",
        -7.272645537128083
      ],
      [
        "▁علي",
        -7.29099206598814
      ],
      [
        "ر",
        -7.296888443719714
      ],
      [
        "▁يمكن",
        -7.297387313698504
      ],
      [
        "▁ولكن",
        -7.303662030138046
      ],
      [
        "ع",
        -7.304347674842251
      ],
      [
        "▁وقد",
        -7.309475534361255
      ],
      [
        "؛",
        -7.311343228000364
      ],
      [
        "▁به",
        -7.317548350650521
      ],
      [
        "▁إلا",
        -7.336350961326136
      ],
      [
        "▁محمد",
        -7.3434595229656665
      ],
      [
        "▁أكثر",
        -7.355548573675836
      ],
      [
        "”",
        -7.387538667354303
      ],
      [
        "▁مثل",
        -7.399194396406161
      ],
      [
        "ني",
        -7.4015541164639576
      ],
      [
        "▁بها",
        -7.4024439323491205
      ],
      [
        "كم",
        -7.416528759141912
      ],
      [
        "▁عند",
        -7.438248463405742
      ],
      [
        "ّ",
        -7.446513665214194
      ],
      [
        "▁هناك",
        -7.447959657187285
      ],
      [
        "ٍ",
        -7.4503846326669265
      ],
      [
        "▁العام",
        -7.466842401799633
      ],
      [
        "▁)",
        -7.467951403531744
      ],
      [
        "\".",
        -7.470985312832902
      ],
      [
        "▁لي",
        -7.492534612896369
      ],
      [
        "▁بشكل",
        -7.4953357969455485
      ],
      [
        "▁يوم",
        -7.499043334214857
      ],
      [
        "▁لها",
        -7.506153135793708
      ],
      [
        "▁عبد",
        -7.507249769555248
      ],
      [
        "▁تم",
        -7.508606973645236
      ],
      [
        "▁“",
        -7.509023775446826
      ],
      [
        "▁او",
        -7.516734128775594
      ],
      [
        "▁العمل",
        -7.52196650490526
      ],
      [
        "▁تكون",
        -7.535689621729633
      ],
      [
        "▁فيها",
        -7.538035799110784
      ],
      [
        "▁بل",
        -7.543609490363062
      ],
      [
        "▁العربية",
        -7.552644690888737
      ],
      [
        "▁مصر",
        -7.5658861416887895
      ],
      [
        "▁رئيس",
        -7.567584225796319
      ],
      [
        "ق",
        -7.5713824361866
      ],
      [
        "▁لكن",
        -7.577844104596833
      ],
      [
        "▁وم",
        -7.583841597802422
      ],
      [
        "▁وهي",
        -7.597763960829575
      ],
      [
        "▁«",
        -7.599815751561236
      ],
      [
        "تها",
        -7.61617061484616
      ],
      [
        "/",
        -7.620862237749163
      ],
      [
        "▁والم",
        -7.627130193361095
      ],
      [
        "▁الذين",
        -7.629557104874911
      ],
      [
        "▁جميع",
        -7.637293946515181
      ],
      [
        "▁تلك",
        -7.644169032610103
      ],
      [
        "▁العالم",
        -7.649211977040652
      ],
      [
        "▁دون",
        -7.654830476912739
      ],
      [
        "موضوع:",
        -7.657470962770841
      ],
      [
        "▁عليها",
        -7.6604087927896085
      ],
      [
        "»",
        -7.666596236807722
      ],
      [
        "▁حول",
        -7.674189806580523
      ],
      [
        "▁يتم",
        -7.685886355711753
      ],
      [
        "▁يجب",
        -7.691224626887111
      ],
      [
        "▁فإن",
        -7.714305634011264
      ],
      [
        "▁3",
        -7.714610297850433
      ],
      [
        "▁أحد",
        -7.730322262658381
      ],
      [
        "▁عدد",
        -7.734401783503827
      ],
      [
        "▁هل",
        -7.740680884123821
      ],
      [
        "▁الا",
        -7.7444580085393255
      ],
      [
        "▁منذ",
        -7.748774462506013
      ],
      [
        "▁ليس",
        -7.755722453809582
      ],
      [
        "▁1",
        -7.760030479360953
      ],
      [
        "▁وذلك",
        -7.770165480091714
      ],
      [
        "▁ك",
        -7.781814213788925
      ],
      [
        "ح",
        -7.799147382823454
      ],
      [
        "ز",
        -7.804893562954657
      ],
      [
        "اء",
        -7.816309472592074
      ],
      [
        "ْ",
        -7.817841902966421
      ],
      [
        "▁/",
        -7.818543748211006
      ],
      [
        "▁عندما",
        -7.819796271219518
      ],
      [
        ").",
        -7.82917224290434
      ],
      [
        "▁سي",
        -7.832460360961829
      ],
      [
        "▁فقط",
        -7.834981759320419
      ],
      [
        "▁وقال",
        -7.837637076633522
      ],
      [
        "ما",
        -7.849998876704319
      ],
      [
        "▁2",
        -7.853873649107921
      ],
      [
        "▁بأن",
        -7.8555993932495625
      ],
      [
        "▁صلى",
        -7.856196458941531
      ],
      [
        "▁*",
        -7.8666305154848555
      ],
      [
        "▁بما",
        -7.867593604917571
      ],
      [
        "▁وما",
        -7.8701825825938485
      ],
      [
        "▁فيه",
        -7.870508940824513
      ],
      [
        "▁الناس",
        -7.873676136756492
      ],
      [
        "ٌ",
        -7.877288787951306
      ],
      [
        "▁وهذا",
        -7.879214848173866
      ],
      [
        "▁شركة",
        -7.893446765927541
      ],
      [
        "▁مجلس",
        -7.913182432477933
      ],
      [
        "▁لك",
        -7.917467828071308
      ],
      [
        "▁الأول",
        -7.921533437820509
      ],
      [
        "▁؟",
        -7.922792212045168
      ],
      [
        "▁الرئيس",
        -7.931737948568543
      ],
      [
        "▁يا",
        -7.936102931537615
      ],
      [
        "رد:",
        -7.938348713365279
      ],
      [
        "▁عمل",
        -7.939387260123439
      ],
      [
        "ج",
        -7.939714831207345
      ],
      [
        "▁لن",
        -7.941122693766426
      ],
      [
        "ص",
        -7.942856926733235
      ],
      [
        "▁عبر",
        -7.943947640744177
      ],
      [
        "▁فقد",
        -7.945728847098904
      ],
      [
        "▁وسلم",
        -7.955867973968978
      ],
      [
        "▁مما",
        -7.958012543899775
      ],
      [
        "▁وأ",
        -7.960882890407669
      ],
      [
        "▁المتحدة",
        -7.961353537866286
      ],
      [
        "▁_",
        -7.965795001423084
      ],
      [
        "▁لأن",
        -7.967208077042617
      ],
      [
        "!",
        -7.967275302426438
      ],
      [
        "▁والتي",
        -7.968542146133585
      ],
      [
        "▁وأن",
        -7.97992467562389
      ],
      [
        "▁منها",
        -7.982726184841317
      ],
      [
        "▁الأمر",
        -7.982954871607561
      ],
      [
        "▁طريق",
        -7.990188416686745
      ],
      [
        "▁ولم",
        -7.99241361575605
      ],
      [
        "▁العامة",
        -7.994830938505773
      ],
      [
        "▁أخرى",
        -8.008675987771777
      ],
      [
        "▁عدم",
        -8.01057176976342
      ],
      [
        "ش",
        -8.01193460885531
      ],
      [
        "▁الوقت",
        -8.02124844782104
      ],
      [
        "▁5",
        -8.023341432157743
      ],
      [
        "▁4",
        -8.023490113435855
      ],
      [
        "▁وكان",
        -8.02426703868858
      ],
      [
        "تي",
        -8.024447937769434
      ],
      [
        "▁10",
        -8.033212287668299
      ],
      [
        "▁\"ال",
        -8.033282421662177
      ],
      [
        "▁بسبب",
        -8.03883747408264
      ],
      [
        "▁ابن",
        -8.039369978797964
      ],
      [
        "▁كنت",
        -8.040534342394812
      ],
      [
        "▁الدولة",
        -8.051378631878775
      ],
      [
        "▁تحت",
        -8.062936324660365
      ],
      [
        "▁كيف",
        -8.06440841692243
      ],
      [
        "▁آخر",
        -8.077020115870992
      ],
      [
        "▁داخل",
        -8.077813009011058
      ],
      [
        "▁هنا",
        -8.084166109313127
      ],
      [
        "▁وَ",
        -8.086558500343598
      ],
      [
        "▁أما",
        -8.09001059321108
      ],
      [
        "في",
        -8.098657702541503
      ],
      [
        "▁لو",
        -8.102525814414197
      ],
      [
        "▁سنة",
        -8.102912017068544
      ],
      [
        "ط",
        -8.106987914348148
      ],
      [
        "يا",
        -8.115938029496414
      ],
      [
        "▁الإنسان",
        -8.117018478319673
      ],
      [
        "▁فيما",
        -8.11730202512352
      ],
      [
        "▁الت",
        -8.127527356487114
      ],
      [
        "▁pm",
        -8.129237600127333
      ],
      [
        "▁أجل",
        -8.130669289251214
      ],
      [
        "▁خاصة",
        -8.131870135124132
      ],
      [
        "▁الخاصة",
        -8.133680226192594
      ],
      [
        "ث",
        -8.136641935082562
      ],
      [
        "ً",
        -8.140298218070145
      ],
      [
        "▁ـ",
        -8.14580013587861
      ],
      [
        "▁أمام",
        -8.151574862151707
      ],
      [
        "▁وعلى",
        -8.153124397702348
      ],
      [
        "يه",
        -8.154390940276539
      ],
      [
        "\"،",
        -8.158025407725544
      ],
      [
        "▁وجود",
        -8.158542651469208
      ],
      [
        "▁شيء",
        -8.163134840810052
      ],
      [
        "▁يُ",
        -8.166216149026305
      ],
      [
        "تك",
        -8.17543827567139
      ],
      [
        "▁وب",
        -8.175604087821869
      ],
      [
        "▁الآن",
        -8.181546953330674
      ],
      [
        "يات",
        -8.18570432709255
      ],
      [
        "▁أفضل",
        -8.19453438717644
      ],
      [
        "▁السلام",
        -8.20108912523943
      ],
      [
        "أ",
        -8.205723458278353
      ],
      [
        "▁موقع",
        -8.206469968328122
      ],
      [
        "▁عملية",
        -8.20856344356684
      ],
      [
        "▁واحد",
        -8.209049846860946
      ],
      [
        "▁6",
        -8.209854857453653
      ],
      [
        "▁ص",
        -8.213356769161694
      ],
      [
        "▁أول",
        -8.215999077133306
      ],
      [
        "▁الدين",
        -8.218381810481471
      ],
      [
        "ـ",
        -8.218907463633277
      ],
      [
        "▁ضد",
        -8.219013789068262
      ],
      [
        "▁نحو",
        -8.221482403478722
      ],
      [
        "▁الثاني",
        -8.22255510451161
      ],
      [
        "▁ست",
        -8.223223342510288
      ],
      [
        "▁مرة",
        -8.224170103292462
      ],
      [
        "▁وقت",
        -8.226973673848065
      ],
      [
        "▁الأولى",
        -8.227776673635518
      ],
      [
        "▁كبير",
        -8.230872961496615
      ],
      [
        "▁وزير",
        -8.233550038544392
      ],
      [
        "ض",
        -8.23695355931981
      ],
      [
        "▁أنها",
        -8.240414273392934
      ],
      [
        "▁السعودية",
        -8.243705750708918
      ],
      [
        "▁الكثير",
        -8.244109761593528
      ],
      [
        "▁مدينة",
        -8.250719361187036
      ],
      [
        "▁فال",
        -8.253689608860268
      ],
      [
        "▁الدول",
        -8.255434922203973
      ],
      [
        "هما",
        -8.265796315348277
      ],
      [
        "▁لهم",
        -8.266199224205529
      ],
      [
        "▁الحكومة",
        -8.267342311009939
      ],
      [
        "▁العربي",
        -8.267344117984054
      ],
      [
        "▁حالة",
        -8.269513378238937
      ],
      [
        "▁للم",
        -8.273202378402305
      ],
      [
        "▁am",
        -8.273337910693835
      ],
      [
        "▁أم",
        -8.274769758766196
      ],
      [
        "▁مجموعة",
        -8.293256233258253
      ],
      [
        "▁يقول",
        -8.294194953708807
      ],
      [
        "▁النظام",
        -8.295049778396097
      ],
      [
        "▁برنامج",
        -8.29625026503807
      ],
      [
        "▁(ال",
        -8.299256187058655
      ],
      [
        "▁التى",
        -8.300578413746111
      ],
      [
        "▁الحياة",
        -8.304498851609445
      ],
      [
        "▁كبيرة",
        -8.310810746823929
      ],
      [
        "▁العديد",
        -8.31086498557783
      ],
      [
        "▁7",
        -8.317054491587577
      ],
      [
        "ها،",
        -8.318991264614528
      ],
      [
        "▁لت",
        -8.319659201278837
      ],
      [
        "▁عنه",
        -8.321533512890651
      ],
      [
        "▁نظام",
        -8.327503873365979
      ],
      [
        "▁رسول",
        -8.327787084192057
      ],
      [
        "(",
        -8.329764531353717
      ],
      [
        "▁استخدام",
        -8.334587351936039
      ],
      [
        "▁ذات",
        -8.336788477358915
      ],
      [
        "▁أبو",
        -8.337799912919767
      ],
      [
        "▁نفس",
        -8.340211545523054
      ],
      [
        "تين",
        -8.346233414752252
      ],
      [
        "▁القانون",
        -8.346403871660254
      ],
      [
        "▁أيضا",
        -8.347100048926555
      ],
      [
        "▁حين",
        -8.352736599499545
      ],
      [
        "▁وضع",
        -8.355974026006312
      ],
      [
        "▁إ",
        -8.358135354104729
      ],
      [
        "خ",
        -8.358607205344276
      ],
      [
        "▁الأرض",
        -8.365925031122847
      ],
      [
        "▁الشيخ",
        -8.3667021984526
      ],
      [
        "▁لكل",
        -8.37120592977099
      ],
      [
        "▁جديدة",
        -8.373620971439234
      ],
      [
        "▁تعالى",
        -8.375260223856134
      ],
      [
        "▁مليون",
        -8.379803239391865
      ],
      [
        "▁رقم",
        -8.382153466826512
      ],
      [
        "▁جدا",
        -8.383849771015454
      ],
      [
        "▁وزارة",
        -8.386472815966316
      ],
      [
        "▁[",
        -8.386739082511822
      ],
      [
        "▁الخاص",
        -8.389997786978324
      ],
      [
        "▁المجتمع",
        -8.39855268674137
      ],
      [
        "▁القرآن",
        -8.3990256511183
      ],
      [
        "▁الشركة",
        -8.399113882788816
      ],
      [
        "لا",
        -8.402044149387326
      ],
      [
        "▁نفسه",
        -8.407154402875024
      ],
      [
        "▁اي",
        -8.417759811255616
      ],
      [
        "▁لقد",
        -8.431005821228073
      ],
      [
        "▁بالنسبة",
        -8.436501658443012
      ],
      [
        "▁لما",
        -8.43701291839328
      ],
      [
        "▁لدى",
        -8.437185195166728
      ],
      [
        "▁إدارة",
        -8.43822767843102
      ],
      [
        "▁8",
        -8.438458895904294
      ],
      [
        "▁حال",
        -8.439353874856836
      ],
      [
        "▁مجال",
        -8.44675296655666
      ],
      [
        "▁منطقة",
        -8.447185580743053
      ],
      [
        "▁فهو",
        -8.447480637736803
      ],
      [
        "▁شخص",
        -8.450482889647155
      ],
      [
        "▁س",
        -8.451059875768657
      ],
      [
        "▁إليه",
        -8.453710026410064
      ],
      [
        "▁أحمد",
        -8.454386019615855
      ],
      [
        "▁المعلومات",
        -8.455552191353808
      ],
      [
        "▁سوف",
        -8.456369184868429
      ],
      [
        "▁واحدة",
        -8.459074861692622
      ],
      [
        "▁الشعب",
        -8.462241438845886
      ],
      [
        "▁11",
        -8.463755705233138
      ],
      [
        "▁مكان",
        -8.467771537412244
      ],
      [
        "▁شهر",
        -8.47347493659015
      ],
      [
        "▁المرأة",
        -8.47425124872746
      ],
      [
        "▁انه",
        -8.474740125006308
      ],
      [
        "_",
        -8.474839650444359
      ],
      [
        "▁12",
        -8.476243779459113
      ],
      [
        "▁لذلك",
        -8.480995503339164
      ],
      [
        "▁أكبر",
        -8.482291286632927
      ],
      [
        "▁2018",
        -8.482451803644498
      ],
      [
        "▁لنا",
        -8.48305758735942
      ],
      [
        "▁يقوم",
        -8.485563922221438
      ],
      [
        "▁جاء",
        -8.48621749439297
      ],
      [
        "▁الدولي",
        -8.488812162885104
      ],
      [
        "▁با",
        -8.49521241698407
      ],
      [
        "▁إذ",
        -8.497564945215485
      ],
      [
        "▁#",
        -8.498438554277461
      ],
      [
        "▁البحث",
        -8.50049867960626
      ],
      [
        "▁فلا",
        -8.500570895307334
      ],
      [
        "▁وإن",
        -8.501780939599694
      ],
      [
        "▁جديد",
        -8.503602853533147
      ],
      [
        "▁ضمن",
        -8.505474017861655
      ],
      [
        "▁المنطقة",
        -8.507942177151524
      ],
      [
        "▁مستوى",
        -8.50862265897165
      ],
      [
        ")،",
        -8.51627456553233
      ],
      [
        "▁تقوم",
        -8.516363253406803
      ],
      [
        "▁2011",
        -8.520044146509836
      ],
      [
        "▁المجلس",
        -8.524893504674305
      ],
      [
        "▁20",
        -8.52877471578185
      ],
      [
        "▁سن",
        -8.530217440901293
      ],
      [
        "▁وليس",
        -8.531349337772925
      ],
      [
        "ار",
        -8.53195592431894
      ],
      [
        "▁يعني",
        -8.532398076570116
      ],
      [
        "▁أمر",
        -8.532474787039412
      ],
      [
        "▁تحقيق",
        -8.533782593083542
      ],
      [
        "”.",
        -8.535002480850107
      ],
      [
        "▁أبي",
        -8.538131205221896
      ],
      [
        "▁بكل",
        -8.54008686696418
      ],
      [
        "▁ألف",
        -8.541326945796525
      ],
      [
        "▁التعليم",
        -8.543011701325993
      ],
      [
        "▁مركز",
        -8.547266499761578
      ],
      [
        "▁الدكتور",
        -8.547774245364641
      ],
      [
        "▁كتاب",
        -8.547925848870117
      ],
      [
        "▁وبعد",
        -8.554620481706502
      ],
      [
        "▁دور",
        -8.556351465705156
      ],
      [
        "▁عشر",
        -8.556962060570799
      ],
      [
        "▁قال:",
        -8.557458294303496
      ],
      [
        "▁المادة",
        -8.558552345634078
      ],
      [
        "▁وان",
        -8.559287116649129
      ],
      [
        "▁عدة",
        -8.559841950390359
      ],
      [
        "▁يكن",
        -8.559926065426161
      ],
      [
        "▁يت",
        -8.563382971771324
      ],
      [
        "▁الملك",
        -8.569952820659507
      ],
      [
        "▁النبي",
        -8.572773998000903
      ],
      [
        "▁الولايات",
        -8.573123824645117
      ],
      [
        "▁الإسلام",
        -8.57710416288721
      ],
      [
        "▁تاريخ",
        -8.5777461497163
      ],
      [
        "▁أهل",
        -8.579271881456934
      ],
      [
        "▁سنوات",
        -8.580636993018098
      ],
      [
        "ذ",
        -8.580921544668621
      ],
      [
        "▁الوطني",
        -8.58095406307203
      ],
      [
        "▁المالية",
        -8.58168020355531
      ],
      [
        "وه",
        -8.584193542725007
      ],
      [
        "▁والذي",
        -8.58667044027329
      ],
      [
        "▁2010",
        -8.589563152884951
      ],
      [
        "▁الحق",
        -8.594611020980098
      ],
      [
        "▁الأمن",
        -8.595171009204385
      ],
      [
        "▁فِي",
        -8.595526894269234
      ],
      [
        "▁حسب",
        -8.600449168088169
      ],
      [
        "▁15",
        -8.601141293703773
      ],
      [
        "▁السبت",
        -8.604718740122566
      ],
      [
        "▁مشروع",
        -8.606615404095525
      ],
      [
        "▁الحديث",
        -8.608919714125221
      ],
      [
        "تهم",
        -8.609208153851123
      ],
      [
        "▁الجمعة",
        -8.609403407044399
      ],
      [
        "▁بم",
        -8.609599666637438
      ],
      [
        "▁2017",
        -8.610004644568255
      ],
      [
        "▁عليك",
        -8.610432028932513
      ],
      [
        "▁الكتاب",
        -8.610710918806513
      ],
      [
        "▁الأ",
        -8.611961149314567
      ],
      [
        "▁وكذلك",
        -8.612641500258924
      ],
      [
        "▁الجديد",
        -8.617214552849097
      ],
      [
        "ّة",
        -8.619433544355426
      ],
      [
        "▁الإسلامية",
        -8.62324363625673
      ],
      [
        "ية،",
        -8.624083632692873
      ],
      [
        "▁9",
        -8.62524687409743
      ],
      [
        "ول",
        -8.626467270305783
      ],
      [
        "▁تُ",
        -8.629676039153608
      ],
      [
        "▁الـ",
        -8.631744931833342
      ],
      [
        "▁جامعة",
        -8.632004878901537
      ],
      [
        "▁الموضوع",
        -8.632136401165278
      ],
      [
        "▁دولار",
        -8.632428266210848
      ],
      [
        "▁الحرب",
        -8.63467605024375
      ],
      [
        "ور",
        -8.635755936668948
      ],
      [
        "▁يمكنك",
        -8.63915804241441
      ],
      [
        "▁ج",
        -8.639966046008812
      ],
      [
        "▁أثناء",
        -8.640292467993758
      ],
      [
        "َّ",
        -8.646031523591839
      ],
      [
        "▁الكريم",
        -8.647975393278832
      ],
      [
        "▁دولة",
        -8.652600506996949
      ],
      [
        "▁السياسية",
        -8.66161838663905
      ],
      [
        "s",
        -8.663632256646915
      ],
      [
        "▁دول",
        -8.663874216237508
      ],
      [
        "▁فترة",
        -8.66641574675285
      ],
      [
        "▁الف",
        -8.668361475393713
      ],
      [
        "▁المملكة",
        -8.668510296408211
      ],
      [
        "▁طرف",
        -8.67533990888245
      ],
      [
        "▁حق",
        -8.675846123329496
      ],
      [
        "▁تت",
        -8.676046860378824
      ],
      [
        "▁14",
        -8.676666275897384
      ],
      [
        "▁علم",
        -8.677989876884043
      ],
      [
        "آ",
        -8.680510909565392
      ],
      [
        "2",
        -8.686367168163196
      ],
      [
        "▁والت",
        -8.689811085324374
      ],
      [
        "▁•",
        -8.690042437646342
      ],
      [
        "▁0",
        -8.690446266087822
      ],
      [
        "▁كذلك",
        -8.691171368088117
      ],
      [
        "▁سواء",
        -8.69345792903379
      ],
      [
        "▁الشباب",
        -8.694374234335486
      ],
      [
        "▁الدولية",
        -8.695714215579233
      ],
      [
        "▁الوطنية",
        -8.699932795606538
      ],
      [
        "▁يوجد",
        -8.700054829198884
      ],
      [
        "وم",
        -8.70049199523741
      ],
      [
        "من",
        -8.702358739360607
      ],
      [
        "▁لهذا",
        -8.702552053937087
      ],
      [
        "▁أيضاً",
        -8.70305250651973
      ],
      [
        "ها.",
        -8.703150628207421
      ],
      [
        "▁الخميس",
        -8.70478019110135
      ],
      [
        "▁30",
        -8.704819176505376
      ],
      [
        "▁{",
        -8.705086495642616
      ],
      [
        "▁الأعمال",
        -8.705508703789226
      ],
      [
        "▁الجيش",
        -8.706672811827229
      ],
      [
        "▁الثلاثاء",
        -8.707991480171724
      ],
      [
        "تنا",
        -8.714306393639667
      ],
      [
        "▁يناير",
        -8.714347548579191
      ],
      [
        "▁عليهم",
        -8.716419243085827
      ],
      [
        "▁نحن",
        -8.717646893375699
      ],
      [
        "▁لأنه",
        -8.722447483859355
      ],
      [
        "▁الموقع",
        -8.723067380571248
      ],
      [
        "▁نقل",
        -8.72653172363708
      ],
      [
        "▁بناء",
        -8.727333449374305
      ],
      [
        "يين",
        -8.727871930424163
      ],
      [
        "يّة",
        -8.729334468185824
      ],
      [
        "▁مختلف",
        -8.729387133270983
      ],
      [
        "▁ومع",
        -8.733173297919722
      ],
      [
        "▁العراق",
        -8.733465729676846
      ],
      [
        "▁الاتحاد",
        -8.73489031779783
      ],
      [
        "▁13",
        -8.735984991634798
      ],
      [
        "▁المصري",
        -8.742850695292622
      ],
      [
        "▁مِنْ",
        -8.744141962715975
      ],
      [
        "▁قانون",
        -8.744633354998896
      ],
      [
        "».",
        -8.744807608186818
      ],
      [
        "▁الشعر",
        -8.747668224746043
      ],
      [
        "▁جانب",
        -8.750120975664561
      ],
      [
        "كَ",
        -8.750948895405616
      ],
      [
        "▁قرار",
        -8.752617288527762
      ],
      [
        "▁إنه",
        -8.752726303188819
      ],
      [
        "▁طلب",
        -8.753773945375938
      ],
      [
        "1",
        -8.7551753711626
      ],
      [
        "▁ليست",
        -8.75562950337708
      ],
      [
        "▁الثانية",
        -8.759553010393143
      ],
      [
        "▁تقدم",
        -8.76118174446923
      ],
      [
        "▁18",
        -8.762439079928058
      ],
      [
        "▁وكل",
        -8.763928585370419
      ],
      [
        "▁بواسطة",
        -8.765407096597745
      ],
      [
        "3",
        -8.765794339866373
      ],
      [
        "0",
        -8.76655586544834
      ],
      [
        "▁نهاية",
        -8.76660179006122
      ],
      [
        "ير",
        -8.766933637722136
      ],
      [
        "▁أنّ",
        -8.769779838473374
      ],
      [
        "▁العرب",
        -8.770575310579542
      ],
      [
        "▁المدينة",
        -8.771932551138814
      ],
      [
        "▁كلمة",
        -8.772387920160787
      ],
      [
        "غ",
        -8.772860931588335
      ],
      [
        "}",
        -8.773574774902889
      ],
      [
        "▁لمدة",
        -8.774610607300705
      ],
      [
        "▁الجديدة",
        -8.7750967909482
      ],
      [
        "▁الماضي",
        -8.776986135164938
      ],
      [
        "▁عنها",
        -8.777439877111247
      ],
      [
        "▁تنظيم",
        -8.780356759561839
      ],
      [
        "▁16",
        -8.781293659057088
      ],
      [
        "▁قام",
        -8.78171663251566
      ],
      [
        "▁الفترة",
        -8.784211579287254
      ],
      [
        "▁مدير",
        -8.786574752042668
      ],
      [
        "▁اسم",
        -8.787640666813957
      ],
      [
        "▁فريق",
        -8.789681366274799
      ],
      [
        "▁تقديم",
        -8.791229152361124
      ],
      [
        "▁السياسي",
        -8.792206853423448
      ],
      [
        "▁لبنان",
        -8.792941338761356
      ],
      [
        "▁المصرية",
        -8.793098476263706
      ],
      [
        "▁بهذا",
        -8.793117170311927
      ],
      [
        "▁رغم",
        -8.794900977207794
      ],
      [
        "▁الأربعاء",
        -8.795869532456765
      ],
      [
        "▁الأحد",
        -8.798440080371597
      ],
      [
        "▁سبيل",
        -8.799115398154369
      ],
      [
        "▁أنا",
        -8.799421214344168
      ],
      [
        "▁الرجل",
        -8.8004119092817
      ],
      [
        "▁صور",
        -8.800725560459133
      ],
      [
        "▁أهم",
        -8.802405426283896
      ],
      [
        "▁كافة",
        -8.80297812388166
      ],
      [
        "▁السابق",
        -8.803786388332204
      ],
      [
        "▁أيام",
        -8.805188452539918
      ],
      [
        "▁»",
        -8.806211071345565
      ],
      [
        "▁الشركات",
        -8.806569629819275
      ],
      [
        "▁حقوق",
        -8.806778482409346
      ],
      [
        "تم",
        -8.807805098597402
      ],
      [
        "وس",
        -8.808463182353062
      ],
      [
        "▁عمر",
        -8.813127305036867
      ],
      [
        "▁الإمام",
        -8.814171478453698
      ],
      [
        "▁بدون",
        -8.814517306803276
      ],
      [
        "▁ثلاثة",
        -8.815178952573362
      ],
      [
        "▁تعرف",
        -8.81607743746642
      ],
      [
        "▁فا",
        -8.817546128094643
      ],
      [
        "▁نوع",
        -8.818276209378952
      ],
      [
        "▁بالإضافة",
        -8.818893843732655
      ],
      [
        "▁حد",
        -8.819153713687502
      ],
      [
        "▁اذا",
        -8.821561755384788
      ],
      [
        "▁طريقة",
        -8.822060544524282
      ],
      [
        "▁العلم",
        -8.825686453217436
      ],
      [
        "▁تعمل",
        -8.826285364561683
      ],
      [
        "▁المزيد",
        -8.82709019264679
      ],
      [
        "▁الحصول",
        -8.827258902249277
      ],
      [
        "▁كال",
        -8.827914175267631
      ],
      [
        "▁بك",
        -8.828426106583649
      ],
      [
        "▁حسن",
        -8.830577653889701
      ],
      [
        "▁المسلمين",
        -8.83711367760613
      ],
      [
        "▁ديسمبر",
        -8.838225137513735
      ],
      [
        "▁”",
        -8.839574211610607
      ],
      [
        "▁19",
        -8.841044010044756
      ],
      [
        "▁مُ",
        -8.841303849049336
      ],
      [
        "▁الطفل",
        -8.842514960106689
      ],
      [
        "▁منهم",
        -8.844216077398297
      ],
      [
        "▁الحكم",
        -8.84455341717003
      ],
      [
        "▁بالم",
        -8.84465053745425
      ],
      [
        "▁سوريا",
        -8.844737438706275
      ],
      [
        "الذى",
        -8.84591017262835
      ],
      [
        "▁يعمل",
        -8.846075870001517
      ],
      [
        "▁المركز",
        -8.846884928617708
      ],
      [
        "▁اللغة",
        -8.84791097639024
      ],
      [
        "▁الخارجية",
        -8.848810477524058
      ],
      [
        "▁نتيجة",
        -8.849489297643753
      ],
      [
        "▁حزب",
        -8.850001430062413
      ],
      [
        "▁الأخرى",
        -8.854102747382807
      ],
      [
        "▁الرئيسية",
        -8.85440552497084
      ],
      [
        "▁كثير",
        -8.855995770082107
      ],
      [
        "▁وكانت",
        -8.860047121383746
      ],
      [
        "▁وبين",
        -8.860935960527353
      ],
      [
        "▁عرض",
        -8.86132941391298
      ],
      [
        "▁السيد",
        -8.861960507624346
      ],
      [
        "▁الأمريكية",
        -8.862375853173521
      ],
      [
        "▁السنة",
        -8.86273524837226
      ],
      [
        "▁مارس",
        -8.863407187231477
      ],
      [
        "▁المال",
        -8.865522112052313
      ],
      [
        "▁الأخيرة",
        -8.86570664126144
      ],
      [
        "▁إسرائيل",
        -8.865868997676696
      ],
      [
        "▁العالمية",
        -8.86608455478044
      ],
      [
        "▁يونيو",
        -8.866558211842566
      ],
      [
        "▁بداية",
        -8.867550546803155
      ],
      [
        "هُ",
        -8.870300002344337
      ],
      [
        "▁ذكر",
        -8.871489933844275
      ],
      [
        "▁بـ",
        -8.876635393303781
      ],
      [
        "▁الأطفال",
        -8.877006624197957
      ],
      [
        "▁بي",
        -8.877629579603624
      ],
      [
        "▁فهي",
        -8.883032139907716
      ],
      [
        "وف",
        -8.886076236818443
      ],
      [
        "ی",
        -8.88712677900173
      ],
      [
        "]",
        -8.888580102365676
      ],
      [
        "▁صاحب",
        -8.891969143710678
      ],
      [
        "▁ول",
        -8.893222955259152
      ],
      [
        "▁موضوع",
        -8.895092137812028
      ],
      [
        "▁2-",
        -8.898400840037713
      ],
      [
        "▁ولو",
        -8.89931973616115
      ],
      [
        "▁1-",
        -8.9006527373256
      ],
      [
        "▁خارج",
        -8.901170176249476
      ],
      [
        "ئ",
        -8.902080207205337
      ],
      [
        "▁الوزراء",
        -8.902304825966816
      ],
      [
        "▁مقابل",
        -8.903050388822871
      ],
      [
        "▁أكتوبر",
        -8.904621329570102
      ],
      [
        "▁البرنامج",
        -8.905089128879574
      ],
      [
        "▁ريال",
        -8.905305707142288
      ],
      [
        "▁تطبيق",
        -8.906418355673269
      ],
      [
        "▁وجه",
        -8.910821749923564
      ],
      [
        "▁نسبة",
        -8.911561940088749
      ],
      [
        "▁زيادة",
        -8.911598704817152
      ],
      [
        "▁2008",
        -8.91587774264095
      ],
      [
        "▁هؤلاء",
        -8.915950619233028
      ],
      [
        "▁النظر",
        -8.91600559456841
      ],
      [
        "▁ظل",
        -8.917748560713193
      ],
      [
        "▁خدمة",
        -8.920150258765531
      ],
      [
        "▁بينما",
        -8.922300703292095
      ],
      [
        "▁إليها",
        -8.923593527671851
      ],
      [
        "▁صورة",
        -8.925851833644654
      ],
      [
        "▁است",
        -8.92627639259334
      ],
      [
        "▁لله",
        -8.927045368049573
      ],
      [
        "▁فوق",
        -8.928016250261587
      ],
      [
        "▁رجل",
        -8.928093617602954
      ],
      [
        "▁2009",
        -8.930053163995876
      ],
      [
        "▁أعمال",
        -8.930163837725013
      ],
      [
        "▁2012",
        -8.932975953980076
      ],
      [
        "اني",
        -8.933949156775506
      ],
      [
        "▁“ال",
        -8.935347146219033
      ],
      [
        "▁يوليو",
        -8.937857363027184
      ],
      [
        "▁بيان",
        -8.939967001412558
      ],
      [
        "▁دراسة",
        -8.943027469363663
      ],
      [
        "▁إلي",
        -8.943432816131619
      ],
      [
        "▁الان",
        -8.943881682706866
      ],
      [
        "▁شكل",
        -8.943908861167767
      ],
      [
        "▁بذلك",
        -8.944011072411346
      ],
      [
        "▁وهذه",
        -8.94453722550407
      ],
      [
        "▁باسم",
        -8.944981577292666
      ],
      [
        "▁البيت",
        -8.945022408098087
      ],
      [
        "▁دار",
        -8.94515204555036
      ],
      [
        "▁خاص",
        -8.945361657226886
      ],
      [
        "▁لكم",
        -8.945406925324608
      ],
      [
        "ــ",
        -8.945593350761495
      ],
      [
        "▁الإ",
        -8.945725591471756
      ],
      [
        "▁أقل",
        -8.945936041215699
      ],
      [
        "▁تحديد",
        -8.947726148694322
      ],
      [
        "▁انا",
        -8.948047230219048
      ],
      [
        "▁الطريق",
        -8.948889369876573
      ],
      [
        "▁يعد",
        -8.949130087072382
      ],
      [
        "ين،",
        -8.950388239276517
      ],
      [
        "▁لجنة",
        -8.95581105395576
      ],
      [
        "▁فتح",
        -8.957144717191309
      ],
      [
        "▁بشأن",
        -8.957573962471699
      ],
      [
        "▁ثلاث",
        -8.959713177163678
      ],
      [
        "▁عقد",
        -8.960864720382412
      ],
      [
        "▁درجة",
        -8.96273507616472
      ],
      [
        "▁الاجتماعية",
        -8.96418006288739
      ],
      [
        "▁17",
        -8.966229186347114
      ],
      [
        "▁السوق",
        -8.966284595710114
      ],
      [
        "اد",
        -8.96702554224227
      ],
      [
        "ود",
        -8.96887281003933
      ],
      [
        "▁التاريخ",
        -8.96937231372857
      ],
      [
        "▁الأمور",
        -8.970847046544282
      ],
      [
        "▁خير",
        -8.971235196253598
      ],
      [
        "▁مت",
        -8.97181088234558
      ],
      [
        "▁ع",
        -8.972589826625386
      ],
      [
        "▁هيئة",
        -8.97582957706436
      ],
      [
        "▁الفريق",
        -8.976855688591979
      ],
      [
        "▁حركة",
        -8.977264506357164
      ],
      [
        "▁الجامعة",
        -8.978278360050231
      ],
      [
        "▁اللجنة",
        -8.978291049383959
      ],
      [
        "▁25",
        -8.978468240244656
      ],
      [
        "▁المياه",
        -8.979469738876023
      ],
      [
        "▁مليار",
        -8.979559238572161
      ],
      [
        "▁يعتبر",
        -8.97959090944453
      ],
      [
        "▁البلاد",
        -8.980723242910543
      ],
      [
        "▁القرن",
        -8.981434836268122
      ],
      [
        "▁وأضاف",
        -8.981606831849874
      ],
      [
        "▁الماء",
        -8.98307977462186
      ],
      [
        "▁!",
        -8.985471836363192
      ],
      [
        "▁إضافة",
        -8.98728544063222
      ],
      [
        "▁الاقتصادية",
        -8.988813268565
      ],
      [
        "▁النساء",
        -8.98935485251815
      ],
      [
        "▁تنفيذ",
        -8.990355648378705
      ],
      [
        "لي",
        -8.991102525350993
      ],
      [
        "▁التواصل",
        -8.991543446158124
      ],
      [
        "▁الإدارة",
        -8.992332864663014
      ],
      [
        "▁الواقع",
        -8.992389943583827
      ],
      [
        "▁24",
        -8.994204378396834
      ],
      [
        "▁العملية",
        -8.994736474464098
      ],
      [
        "▁جهاز",
        -8.995475265619174
      ],
      [
        "▁كم",
        -8.996171845321385
      ],
      [
        "▁المُ",
        -8.996245159242598
      ],
      [
        "▁الصلاة",
        -8.999103363958907
      ],
      [
        "▁وإذا",
        -8.999342944465164
      ],
      [
        "▁ماذا",
        -9.0003700511086
      ],
      [
        "▁الجميع",
        -9.001456225194609
      ],
      [
        "▁الداخلية",
        -9.001572954987754
      ],
      [
        "▁الثالث",
        -9.001872707112248
      ],
      [
        "▁الخدمات",
        -9.002316893797172
      ],
      [
        "▁قوله",
        -9.002909113038479
      ],
      [
        "▁قوات",
        -9.004191974136827
      ],
      [
        "▁مباشرة",
        -9.006024886864871
      ],
      [
        "▁آل",
        -9.009987570072845
      ],
      [
        "▁الاجتماعي",
        -9.010390250160631
      ],
      [
        "▁أمس",
        -9.010730203213683
      ],
      [
        "▁كانوا",
        -9.01108236832549
      ],
      [
        "▁باب",
        -9.012528075884546
      ],
      [
        "▁التجارية",
        -9.013102247815283
      ],
      [
        "▁قسم",
        -9.014422700412158
      ],
      [
        "▁اختيار",
        -9.021528907281054
      ],
      [
        "▁سبتمبر",
        -9.022577828275235
      ],
      [
        "▁يحدث",
        -9.022678397816025
      ],
      [
        "▁الجسم",
        -9.02352766133561
      ],
      [
        "▁لهذه",
        -9.026655175866532
      ],
      [
        "▁الشرق",
        -9.02677291863506
      ],
      [
        "▁بهذه",
        -9.028026599753627
      ],
      [
        "▁حل",
        -9.029346449689452
      ],
      [
        "▁بت",
        -9.030256335874306
      ],
      [
        "▁إيران",
        -9.032808258996678
      ],
      [
        "▁المغرب",
        -9.035368733736007
      ],
      [
        "▁القرار",
        -9.038830372620506
      ],
      [
        "▁الي",
        -9.039361897180855
      ],
      [
        "”،",
        -9.040248935205254
      ],
      [
        "▁القدس",
        -9.040401721158666
      ],
      [
        "▁وفق",
        -9.041673336346832
      ],
      [
        "▁قطاع",
        -9.04391889325603
      ],
      [
        "▁لأ",
        -9.044209786031107
      ],
      [
        "▁حكم",
        -9.044847893578025
      ],
      [
        "▁حياة",
        -9.045393774131167
      ],
      [
        "▁فَ",
        -9.045584534418772
      ],
      [
        "▁نوفمبر",
        -9.046729421066555
      ],
      [
        "▁عز",
        -9.04681866824134
      ],
      [
        "اس",
        -9.049861409012864
      ],
      [
        "▁اكثر",
        -9.05060004112298
      ],
      [
        "▁دعم",
        -9.051308872913243
      ],
      [
        "▁الأمم",
        -9.051433032737528
      ],
      [
        "▁الساعة",
        -9.051442642767492
      ],
      [
        "▁فعل",
        -9.051564622091664
      ],
      [
        "بر",
        -9.0515964479028
      ],
      [
        "▁البعض",
        -9.052659816231312
      ],
      [
        "▁الدم",
        -9.053751407483615
      ],
      [
        "▁فقال",
        -9.055083533114187
      ],
      [
        "▁إعادة",
        -9.055555589594706
      ],
      [
        "▁عمليات",
        -9.055618392210784
      ],
      [
        "▁شاء",
        -9.05941021283656
      ],
      [
        "▁لكي",
        -9.060041052274482
      ],
      [
        "▁سيكون",
        -9.060703936493482
      ],
      [
        "▁فبراير",
        -9.0612148235148
      ],
      [
        "▁جداً",
        -9.061866877086414
      ],
      [
        "▁حديث",
        -9.06402802927768
      ],
      [
        "▁يعرف",
        -9.064256333308112
      ],
      [
        "▁أنواع",
        -9.065167258209792
      ],
      [
        "▁بأنه",
        -9.066428223998091
      ],
      [
        "▁قوة",
        -9.06647885570036
      ],
      [
        "▁حدث",
        -9.067689938312315
      ],
      [
        "▁غزة",
        -9.069542101735419
      ],
      [
        "▁إطار",
        -9.06967710539972
      ],
      [
        "▁تقرير",
        -9.070285472590943
      ],
      [
        "▁الع",
        -9.071432650884628
      ],
      [
        "▁وسائل",
        -9.071842413722887
      ],
      [
        "4",
        -9.073135681447823
      ],
      [
        "وب",
        -9.078314321993322
      ],
      [
        "▁ساعة",
        -9.07874205954916
      ],
      [
        "▁((",
        -9.079109689046678
      ],
      [
        "▁الفصل",
        -9.082924639261654
      ],
      [
        "▁ارتفاع",
        -9.083193577927883
      ],
      [
        "▁العلاقات",
        -9.083722019571056
      ],
      [
        "▁كامل",
        -9.083979223222642
      ],
      [
        "▁عالم",
        -9.085108869325873
      ],
      [
        "▁لماذا",
        -9.085550465022386
      ],
      [
        "ظ",
        -9.08749018568751
      ],
      [
        "▁3-",
        -9.087506369947977
      ],
      [
        "▁عضو",
        -9.088823127377339
      ],
      [
        "▁الإثنين",
        -9.09196877220129
      ],
      [
        "▁المناطق",
        -9.093133143319116
      ],
      [
        "▁الأمريكي",
        -9.094236035838662
      ],
      [
        "▁رضي",
        -9.09430721806914
      ],
      [
        "▁المواد",
        -9.094650859704323
      ],
      [
        "▁سبحانه",
        -9.095500216879248
      ],
      [
        "▁القلب",
        -9.095578224675066
      ],
      [
        "▁الدفاع",
        -9.096118415191658
      ],
      [
        "ُّ",
        -9.096744013918428
      ],
      [
        "▁والا",
        -9.097032833110706
      ],
      [
        "▁وسط",
        -9.101717557388355
      ],
      [
        "▁السلطة",
        -9.102127923369533
      ],
      [
        "▁فت",
        -9.102846438128818
      ],
      [
        "يت",
        -9.10307705203548
      ],
      [
        "▁سعر",
        -9.10375125414744
      ],
      [
        "▁بيت",
        -9.105391671079424
      ],
      [
        "▁أغسطس",
        -9.107076536499637
      ],
      [
        "▁المنتدى",
        -9.107488201952254
      ],
      [
        "▁كتب",
        -9.107714955462004
      ],
      [
        "▁مختلفة",
        -9.109704562326261
      ],
      [
        "▁السعودي",
        -9.114637965570502
      ],
      [
        "▁المت",
        -9.115401653815194
      ],
      [
        "▁بِ",
        -9.11585696677961
      ],
      [
        "▁التعاون",
        -9.116473037022484
      ],
      [
        "▁أعضاء",
        -9.11875211926402
      ],
      [
        "▁تعالى:",
        -9.118792375935916
      ],
      [
        "▁الخ",
        -9.120288453945015
      ],
      [
        "▁سبب",
        -9.120793931197191
      ],
      [
        "▁المشاركة",
        -9.120912837807227
      ],
      [
        "يد",
        -9.12407579766476
      ],
      [
        "▁مايو",
        -9.124328454049053
      ],
      [
        "▁تريد",
        -9.124786847103728
      ],
      [
        "▁المشروع",
        -9.125216536449665
      ],
      [
        "▁كثيرة",
        -9.1273209976688
      ],
      [
        "▁الصحة",
        -9.128153407271839
      ],
      [
        "▁الهيئة",
        -9.129343310515583
      ],
      [
        "▁الكبير",
        -9.129759744760129
      ],
      [
        "▁بحيث",
        -9.130131541022816
      ],
      [
        "▁ربما",
        -9.130177266809813
      ],
      [
        "▁أسعار",
        -9.130198877629493
      ],
      [
        "▁وعدم",
        -9.13031424327657
      ],
      [
        "▁رفع",
        -9.130476348938053
      ],
      [
        "▁ذلك،",
        -9.13083960323302
      ],
      [
        "▁ألا",
        -9.131342763852908
      ],
      [
        "▁البحر",
        -9.132486187404908
      ],
      [
        "دي",
        -9.13251899696145
      ],
      [
        "▁الشهر",
        -9.133511401615682
      ],
      [
        "▁شركات",
        -9.134660170403613
      ],
      [
        "▁فمن",
        -9.135003582732054
      ],
      [
        "▁الإسلامي",
        -9.13517521875269
      ],
      [
        "▁مَا",
        -9.135456424123745
      ],
      [
        "ست",
        -9.135785699720671
      ],
      [
        "▁قول",
        -9.136919136289713
      ],
      [
        "▁التعامل",
        -9.137056928713093
      ],
      [
        "▁القوات",
        -9.137120351494975
      ],
      [
        "▁فهم",
        -9.137298745854114
      ],
      [
        "▁معه",
        -9.137368994817674
      ],
      [
        "▁الجهاز",
        -9.137632618841813
      ],
      [
        "▁بدأت",
        -9.138330470426684
      ],
      [
        "▁تغيير",
        -9.138742165274104
      ],
      [
        "▁لذا",
        -9.13969852940778
      ],
      [
        "▁فإنه",
        -9.140682057342385
      ],
      [
        "▁البيانات",
        -9.141313369889186
      ],
      [
        "▁كيفية",
        -9.141384363419865
      ],
      [
        "▁رمضان",
        -9.14402722242972
      ],
      [
        "▁فإذا",
        -9.145318436381956
      ],
      [
        "▁23",
        -9.145327192145054
      ],
      [
        "▁حساب",
        -9.146130691175637
      ],
      [
        "8",
        -9.147733812420078
      ],
      [
        "▁جنوب",
        -9.148022007353024
      ],
      [
        "▁الشخص",
        -9.148601338909987
      ],
      [
        "▁المرحلة",
        -9.150893576263961
      ],
      [
        "▁الحزب",
        -9.151254182477974
      ],
      [
        "▁دبي",
        -9.152465252553569
      ],
      [
        "▁معظم",
        -9.153808871112169
      ],
      [
        "▁نشر",
        -9.154338387457695
      ],
      [
        "▁النار",
        -9.155667134485041
      ],
      [
        "▁اللَّهِ",
        -9.156225532791225
      ],
      [
        "▁الن",
        -9.15641499645749
      ],
      [
        "▁القيام",
        -9.157567798883735
      ],
      [
        "▁قائمة",
        -9.157953662085323
      ],
      [
        "▁مباراة",
        -9.159479646974994
      ],
      [
        "▁يأتي",
        -9.159682182358768
      ],
      [
        "▁«ال",
        -9.159769284738207
      ],
      [
        "▁تطوير",
        -9.159912744143558
      ],
      [
        "▁القاهرة",
        -9.16017803910973
      ],
      [
        "▁طالب",
        -9.16127358237112
      ],
      [
        "وت",
        -9.162394340043775
      ],
      [
        "▁الطلاب",
        -9.1629718798924
      ],
      [
        "▁الشخصية",
        -9.164940477167836
      ],
      [
        "▁الإعلام",
        -9.165846469481455
      ],
      [
        "▁الب",
        -9.166360565287576
      ],
      [
        "▁الوصول",
        -9.16800964249234
      ],
      [
        "▁أنت",
        -9.168836730570957
      ],
      [
        "▁حرب",
        -9.16942097678978
      ],
      [
        "▁الفلسطينية",
        -9.169465186555438
      ],
      [
        "▁وبالتالي",
        -9.169681811555774
      ],
      [
        "▁احد",
        -9.170178677118223
      ],
      [
        "▁عالية",
        -9.170338395662062
      ],
      [
        "▁الانتخابات",
        -9.170388391691057
      ],
      [
        "▁باستخدام",
        -9.172195937653072
      ],
      [
        "▁جهة",
        -9.173239072840007
      ],
      [
        "هم،",
        -9.173313858165033
      ],
      [
        "7",
        -9.173445855017965
      ],
      [
        "‭",
        -9.174225151632527
      ],
      [
        "▁بد",
        -9.174414950992816
      ],
      [
        "▁المكان",
        -9.17549963608055
      ],
      [
        "ية.",
        -9.177804881575206
      ],
      [
        "▁تحتاج",
        -9.180181199881364
      ],
      [
        "▁العسكرية",
        -9.180350535071678
      ],
      [
        "▁تصل",
        -9.1808551754492
      ],
      [
        "▁التربية",
        -9.18124292368708
      ],
      [
        "▁وحتى",
        -9.182278070480638
      ],
      [
        "▁أصبح",
        -9.184744144473687
      ],
      [
        "▁فأ",
        -9.184745174412505
      ],
      [
        "▁نفسها",
        -9.184940844388452
      ],
      [
        "▁الشرطة",
        -9.186402293842029
      ],
      [
        "▁مواقع",
        -9.186586498573412
      ],
      [
        "▁مدى",
        -9.186898131201094
      ],
      [
        "يك",
        -9.187025639301671
      ],
      [
        "▁المختلفة",
        -9.187216125092824
      ],
      [
        "▁أكد",
        -9.187261216410933
      ],
      [
        "▁رسالة",
        -9.187345120286674
      ],
      [
        "▁يتعلق",
        -9.18831084688335
      ],
      [
        "▁2019",
        -9.18985617928012
      ],
      [
        "▁معلومات",
        -9.192016916595552
      ],
      [
        "▁القطاع",
        -9.19355653520033
      ],
      [
        "▁فان",
        -9.193742580627625
      ],
      [
        "▁الطاقة",
        -9.195087977933035
      ],
      [
        "▁الآخر",
        -9.195818764078268
      ],
      [
        "▁خط",
        -9.197347260604484
      ],
      [
        "▁لـ",
        -9.197614240693838
      ],
      [
        "▁جزء",
        -9.19897046117257
      ],
      [
        "▁يجوز",
        -9.19897942109861
      ],
      [
        "▁وعن",
        -9.199339903673451
      ],
      [
        "▁أهمية",
        -9.200424436505344
      ],
      [
        "▁تعلم",
        -9.201686727287942
      ],
      [
        "▁الوطن",
        -9.203551504204928
      ],
      [
        "وق",
        -9.204935705077931
      ],
      [
        "بل",
        -9.205863922708442
      ],
      [
        "▁نقطة",
        -9.206576091490703
      ],
      [
        "▁اليمن",
        -9.208304707937337
      ],
      [
        "▁الدراسة",
        -9.209371180184156
      ],
      [
        "▁بتاريخ",
        -9.209626432824999
      ],
      [
        "▁22",
        -9.209771030045397
      ],
      [
        "▁تقول",
        -9.211031564684635
      ],
      [
        "▁بأ",
        -9.212478329910574
      ],
      [
        "▁للبيع",
        -9.212581264412021
      ],
      [
        "▁21",
        -9.214029324473726
      ],
      [
        "▁الصور",
        -9.21545850732244
      ],
      [
        "▁ويمكن",
        -9.215755603904096
      ],
      [
        "▁رجال",
        -9.216202942110375
      ],
      [
        "5",
        -9.21868419400139
      ],
      [
        "▁يريد",
        -9.22452061579073
      ],
      [
        "▁علينا",
        -9.224556426744801
      ],
      [
        "▁النفط",
        -9.224916939398952
      ],
      [
        "▁محافظة",
        -9.226483485690954
      ],
      [
        "بت",
        -9.228944102040822
      ],
      [
        "▁وهناك",
        -9.229420581786302
      ],
      [
        "▁وتم",
        -9.23127907705872
      ],
      [
        "▁العالمي",
        -9.231345101492863
      ],
      [
        "▁بلا",
        -9.231648447126432
      ],
      [
        "▁الصورة",
        -9.23213173078121
      ],
      [
        "يس",
        -9.233517674823911
      ],
      [
        "▁ام",
        -9.234187953818344
      ],
      [
        "▁الوضع",
        -9.234606932003782
      ],
      [
        "▁يصل",
        -9.23463339308199
      ],
      [
        "▁وإ",
        -9.235986173991328
      ],
      [
        "▁2013",
        -9.236101336753219
      ],
      [
        "▁يستطيع",
        -9.238596981462926
      ],
      [
        "▁افضل",
        -9.23978341000679
      ],
      [
        "▁مساء",
        -9.241647445421481
      ],
      [
        "▁حجم",
        -9.243562691346355
      ],
      [
        "▁الصحية",
        -9.244775104769321
      ],
      [
        "▁لان",
        -9.244945883763105
      ],
      [
        "▁السوري",
        -9.245695479294053
      ],
      [
        "▁عَلَى",
        -9.24595978958492
      ],
      [
        "▁وغير",
        -9.246309236993646
      ],
      [
        "▁رد",
        -9.247753274906188
      ],
      [
        "▁أرض",
        -9.248590212911147
      ],
      [
        "اج",
        -9.249465799586446
      ],
      [
        "تان",
        -9.251857836400688
      ],
      [
        "▁لمن",
        -9.253623797349201
      ],
      [
        "▁مشكلة",
        -9.255370512861333
      ],
      [
        "▁صحيح",
        -9.25591078380481
      ],
      [
        "▁العليا",
        -9.257776416552838
      ],
      [
        "▁الرغم",
        -9.261019737850482
      ],
      [
        "▁الآية",
        -9.261285369862087
      ],
      [
        "▁تعد",
        -9.261331081427759
      ],
      [
        "▁مصدر",
        -9.261347693933132
      ],
      [
        "▁والأ",
        -9.261390611238053
      ],
      [
        "▁تعتبر",
        -9.261460049878346
      ],
      [
        "▁نتائج",
        -9.262764553707758
      ],
      [
        "▁2014",
        -9.26297102320643
      ],
      [
        "▁يبدو",
        -9.263579823203285
      ],
      [
        "▁الأسبوع",
        -9.264388792698403
      ],
      [
        "▁تن",
        -9.264399753843868
      ],
      [
        "رة",
        -9.264648426026277
      ],
      [
        "▁صالح",
        -9.26482530128267
      ],
      [
        "▁خالد",
        -9.266191300531368
      ],
      [
        "▁توفير",
        -9.266204995978843
      ],
      [
        "▁الرسول",
        -9.267475487787719
      ],
      [
        "▁قيمة",
        -9.267652753793726
      ],
      [
        "▁سوق",
        -9.267653794038463
      ],
      [
        "▁أبريل",
        -9.268376369516016
      ],
      [
        "▁وغيرها",
        -9.268861094426807
      ],
      [
        "▁جعل",
        -9.2691366507859
      ],
      [
        "▁صحيفة",
        -9.271392662488477
      ],
      [
        "▁الحقيقة",
        -9.272735011988397
      ],
      [
        "▁الاقتصاد",
        -9.273108906029368
      ],
      [
        "▁الحركة",
        -9.273158080058945
      ],
      [
        "▁علاقة",
        -9.273367315732383
      ],
      [
        "▁كي",
        -9.273783035017772
      ],
      [
        "▁تَ",
        -9.274188161964368
      ],
      [
        "▁القدم",
        -9.27452655305073
      ],
      [
        "▁والله",
        -9.276473324473844
      ],
      [
        "▁خدمات",
        -9.277147368776921
      ],
      [
        "▁خلق",
        -9.277327220108981
      ],
      [
        "▁فما",
        -9.279325340852292
      ],
      [
        "▁الحالة",
        -9.27947595717308
      ],
      [
        "▁الاحتلال",
        -9.27981338912066
      ],
      [
        "▁أشهر",
        -9.2804435190492
      ],
      [
        "در",
        -9.280953162859367
      ],
      [
        "▁برامج",
        -9.282529306535796
      ],
      [
        "▁الجزء",
        -9.282656410339884
      ],
      [
        "▁صغيرة",
        -9.282808165503987
      ],
      [
        "▁روسيا",
        -9.28292213020604
      ],
      [
        "▁تناول",
        -9.282961051125797
      ],
      [
        "▁قتل",
        -9.28297496038481
      ],
      [
        "▁إحدى",
        -9.284717372894388
      ],
      [
        "▁العزيز",
        -9.284980103948534
      ],
      [
        "اح",
        -9.285462430205122
      ],
      [
        "▁التجارة",
        -9.28616155940129
      ],
      [
        "▁بدأ",
        -9.286396705026714
      ],
      [
        "▁دائما",
        -9.286478724268047
      ],
      [
        "وع",
        -9.286965292782604
      ],
      [
        "▁الدنيا",
        -9.28727458787693
      ],
      [
        "▁يد",
        -9.28759474694698
      ],
      [
        "▁يؤدي",
        -9.28877142830137
      ],
      [
        "▁تكن",
        -9.28903138725039
      ],
      [
        "▁مرحلة",
        -9.290179347303155
      ],
      [
        "▁سوى",
        -9.29090768006039
      ],
      [
        "▁الأكثر",
        -9.29144836672917
      ],
      [
        "▁معرفة",
        -9.292623830498167
      ],
      [
        "▁العلمية",
        -9.293083733828684
      ],
      [
        "▁مصادر",
        -9.293795289864992
      ],
      [
        "▁أنهم",
        -9.295527733896908
      ],
      [
        "▁المجال",
        -9.296194157149468
      ],
      [
        "▁وصل",
        -9.296844519040262
      ],
      [
        "▁بنسبة",
        -9.296936370671357
      ],
      [
        "▁ترامب",
        -9.297332655270743
      ],
      [
        "▁قدم",
        -9.300252718494669
      ],
      [
        "▁دفع",
        -9.301049791887621
      ],
      [
        "6",
        -9.30142359693539
      ],
      [
        "▁العلاج",
        -9.301471806747134
      ],
      [
        "▁حب",
        -9.303798598580585
      ],
      [
        "e",
        -9.304764531362535
      ],
      [
        "▁يجعل",
        -9.304807216352206
      ],
      [
        "▁حوالي",
        -9.307763304335747
      ],
      [
        "500",
        -9.30814406512637
      ],
      [
        "▁27",
        -9.309195526290269
      ],
      [
        "▁قامت",
        -9.309600885925633
      ],
      [
        "▁المنزل",
        -9.31001088000219
      ],
      [
        "ِّ",
        -9.310902012805622
      ],
      [
        "نَ",
        -9.311052551255933
      ],
      [
        "▁السؤال",
        -9.311220834870351
      ],
      [
        "بي",
        -9.312024311385366
      ],
      [
        "▁تحمل",
        -9.313318270087553
      ],
      [
        "▁رأس",
        -9.31411457155163
      ],
      [
        "▁النوع",
        -9.314232864026962
      ],
      [
        "▁قالت",
        -9.314790238616961
      ],
      [
        "▁26",
        -9.315387712941819
      ],
      [
        "▁مناطق",
        -9.31551496109185
      ],
      [
        "▁الفلسطيني",
        -9.31573180635177
      ],
      [
        "تُ",
        -9.316810834089914
      ],
      [
        "▁الثورة",
        -9.319178187580263
      ],
      [
        "▁الكلام",
        -9.319309453481232
      ],
      [
        "▁بان",
        -9.320069895148947
      ],
      [
        "▁الاقتصادي",
        -9.320113950051347
      ],
      [
        "▁البنك",
        -9.321333559015137
      ],
      [
        "▁السبب",
        -9.322320209376185
      ],
      [
        "▁القانونية",
        -9.327453914336948
      ],
      [
        "▁تحميل",
        -9.328725650088186
      ],
      [
        "▁الحدود",
        -9.329708944855454
      ],
      [
        "▁الأشخاص",
        -9.33052008901836
      ],
      [
        "▁أساس",
        -9.331704916136664
      ],
      [
        "▁موقف",
        -9.332465359733357
      ],
      [
        "▁أُ",
        -9.333854710859331
      ],
      [
        "▁تسجيل",
        -9.334072615443322
      ],
      [
        "▁نصف",
        -9.334996382945503
      ],
      [
        "▁وقالت",
        -9.335807932915777
      ],
      [
        "▁الإمارات",
        -9.336536069601838
      ],
      [
        "▁الخدمة",
        -9.337509814873027
      ],
      [
        "▁الأساسية",
        -9.33811007780763
      ],
      [
        "▁‬",
        -9.338208027627473
      ],
      [
        "▁S",
        -9.339073128351993
      ],
      [
        "▁العلوم",
        -9.33971835009314
      ],
      [
        "▁قَالَ",
        -9.340279386032531
      ],
      [
        "▁علاج",
        -9.34028232533887
      ],
      [
        "▁المواطنين",
        -9.341066738055424
      ],
      [
        "▁حدود",
        -9.342177582779513
      ],
      [
        "▁تعرض",
        -9.342686549356618
      ],
      [
        "▁الاول",
        -9.34346407463903
      ],
      [
        "▁الشمس",
        -9.343638189430852
      ],
      [
        "▁فلسطين",
        -9.343672165369295
      ],
      [
        "▁المن",
        -9.343783194526711
      ],
      [
        "▁نص",
        -9.345130420265683
      ],
      [
        "▁بحسب",
        -9.34583313804978
      ],
      [
        "▁العاصمة",
        -9.346075792064742
      ],
      [
        "▁شمال",
        -9.346708916709886
      ],
      [
        "▁الأخير",
        -9.347234990335757
      ],
      [
        "اتها",
        -9.347630133406076
      ],
      [
        "▁عَنْ",
        -9.349290205500578
      ],
      [
        "▁تجد",
        -9.349530816659003
      ],
      [
        "▁العلماء",
        -9.349772043073838
      ],
      [
        "▁المحلية",
        -9.350979617029846
      ],
      [
        "مان",
        -9.35333782085401
      ],
      [
        "▁قضية",
        -9.35374729507155
      ],
      [
        "▁المدرسة",
        -9.353824365431679
      ],
      [
        "▁أعلن",
        -9.354067373941072
      ],
      [
        "▁الحب",
        -9.354406943566396
      ],
      [
        "▁الطريقة",
        -9.355004205065665
      ],
      [
        "▁أعلى",
        -9.355676475112446
      ],
      [
        "▁كلية",
        -9.355814957963663
      ],
      [
        "▁التنمية",
        -9.357094182974443
      ],
      [
        "▁4-",
        -9.357139402544181
      ],
      [
        "▁28",
        -9.357524675231598
      ],
      [
        "▁المؤتمر",
        -9.357806101043053
      ],
      [
        "▁منظمة",
        -9.359513364825744
      ],
      [
        "▁كأس",
        -9.359767859670058
      ],
      [
        "▁طويلة",
        -9.361244137338394
      ],
      [
        "▁إطلاق",
        -9.361988652982966
      ],
      [
        "كر",
        -9.362010857836113
      ],
      [
        "▁كثيرا",
        -9.36339045340646
      ],
      [
        "▁البشرية",
        -9.363983572076396
      ],
      [
        "▁2016",
        -9.364703860144378
      ],
      [
        "▁المحكمة",
        -9.365382902399183
      ],
      [
        "▁شبكة",
        -9.365410141529129
      ],
      [
        "»،",
        -9.365973469871713
      ],
      [
        "10",
        -9.36602461796317
      ],
      [
        "▁الاتصال",
        -9.366242196430873
      ],
      [
        "▁نعم",
        -9.366411851848945
      ],
      [
        "▁قطر",
        -9.369219303772311
      ],
      [
        "▁الجمهورية",
        -9.37020744376137
      ],
      [
        "▁مؤتمر",
        -9.370433037754966
      ],
      [
        "▁د.",
        -9.370581180522134
      ],
      [
        "▁ممكن",
        -9.371572513057654
      ],
      [
        "▁وراء",
        -9.372759663533152
      ],
      [
        "▁عليكم",
        -9.373641950427093
      ],
      [
        "▁الحديثة",
        -9.374017664013707
      ],
      [
        "▁حماية",
        -9.376200600948271
      ],
      [
        "▁بس",
        -9.37658701670427
      ],
      [
        "▁العلاقة",
        -9.377750887642026
      ],
      [
        "▁المؤسسات",
        -9.37845089059886
      ],
      [
        "▁يحتاج",
        -9.378863838932714
      ],
      [
        "▁ورد",
        -9.378946548300899
      ],
      [
        "▁فكرة",
        -9.37902760634132
      ],
      [
        "▁وهم",
        -9.379255258851638
      ],
      [
        "▁جمال",
        -9.380204826348258
      ],
      [
        "▁إبراهيم",
        -9.380922601751983
      ],
      [
        "▁اللي",
        -9.38162475432343
      ],
      [
        "▁مكتب",
        -9.381761831904415
      ],
      [
        "▁عبارة",
        -9.38358729009781
      ],
      [
        "▁العمر",
        -9.38399678365216
      ],
      [
        "▁النفس",
        -9.385310815548262
      ],
      [
        "▁أسباب",
        -9.386099592062859
      ],
      [
        "▁مهمة",
        -9.387342626114055
      ],
      [
        "▁حصل",
        -9.387719136934253
      ],
      [
        "▁الحوار",
        -9.387916725487877
      ],
      [
        "▁مرض",
        -9.38792463557934
      ],
      [
        "▁يوسف",
        -9.388437382342982
      ],
      [
        "▁سعيد",
        -9.389756022924551
      ],
      [
        "▁لأنها",
        -9.389948884924902
      ],
      [
        "▁مش",
        -9.389955727847141
      ],
      [
        "▁نائب",
        -9.390407295971197
      ],
      [
        "▁نادي",
        -9.390768963728746
      ],
      [
        "▁عبدالله",
        -9.390927227883786
      ],
      [
        "▁الإنترنت",
        -9.391158623283385
      ],
      [
        "▁مجرد",
        -9.391422350450732
      ],
      [
        "▁ضرورة",
        -9.392468133460607
      ],
      [
        "▁مادة",
        -9.392863446747358
      ],
      [
        "يّ",
        -9.393239512343573
      ],
      [
        "▁التالي",
        -9.393673396167463
      ],
      [
        "▁الرياض",
        -9.393900230002508
      ],
      [
        "▁السيارات",
        -9.394162058476102
      ],
      [
        "▁جيد",
        -9.395189355010295
      ],
      [
        "▁تحدث",
        -9.395877384190946
      ],
      [
        "▁2015",
        -9.396848187419417
      ],
      [
        "▁القضاء",
        -9.397130751843036
      ],
      [
        "▁السابقة",
        -9.397531218072391
      ],
      [
        "▁الحال",
        -9.39839574170656
      ],
      [
        "▁تستطيع",
        -9.399233513548051
      ],
      [
        "y",
        -9.403317697392769
      ],
      [
        "▁أصحاب",
        -9.40490556773668
      ],
      [
        "▁فرصة",
        -9.407398033795268
      ],
      [
        "▁بينهم",
        -9.407851106401932
      ],
      [
        "▁زيارة",
        -9.408854211074122
      ],
      [
        "▁ينبغي",
        -9.410051747169259
      ],
      [
        "ائه",
        -9.410595593752497
      ],
      [
        "الَّذِينَ",
        -9.411152854136304
      ],
      [
        "▁الطرق",
        -9.412173371585547
      ],
      [
        "▁لديه",
        -9.412462470640026
      ],
      [
        "▁الإسرائيلي",
        -9.412733461928774
      ],
      [
        "يته",
        -9.413132438946931
      ],
      [
        "▁الجمعية",
        -9.413140741902097
      ],
      [
        "▁يزيد",
        -9.41319941374227
      ],
      [
        "▁الطعام",
        -9.413665700345149
      ],
      [
        "▁السلطات",
        -9.414501239646366
      ],
      [
        "▁الدوري",
        -9.415298171285105
      ],
      [
        "▁بصورة",
        -9.417301474792943
      ],
      [
        "▁ظهر",
        -9.4173536366844
      ],
      [
        "ؤ",
        -9.418199495296465
      ],
      [
        "▁فهذا",
        -9.418753476843602
      ],
      [
        "▁قطع",
        -9.419149858433412
      ],
      [
        "▁ولذلك",
        -9.419210699002203
      ],
      [
        "وها",
        -9.421027550768645
      ],
      [
        "كُمْ",
        -9.421234659730132
      ],
      [
        "▁اللَّهُ",
        -9.421836738257166
      ],
      [
        "▁وجل",
        -9.423152748497118
      ],
      [
        "▁الحالي",
        -9.423253782572097
      ],
      [
        "▁الق",
        -9.424044776504793
      ],
      [
        "▁المسيح",
        -9.425427454056777
      ],
      [
        "▁للعمل",
        -9.426679577272449
      ],
      [
        "▁مرات",
        -9.42682438416833
      ],
      [
        "▁إجراء",
        -9.428640054354062
      ],
      [
        "▁المشكلة",
        -9.429181053192627
      ],
      [
        "▁مشاهدة",
        -9.42929779939223
      ],
      [
        "▁طرق",
        -9.429438962828375
      ],
      [
        "▁مسلم",
        -9.429442983043065
      ],
      [
        "كل",
        -9.429786345080238
      ],
      [
        "▁تظهر",
        -9.42998494317393
      ],
      [
        "▁الحكومية",
        -9.430703391296209
      ],
      [
        "▁سبق",
        -9.430889466537986
      ],
      [
        "▁ولن",
        -9.431544145560434
      ],
      [
        "9",
        -9.432434604333853
      ],
      [
        "▁دي",
        -9.432660860248072
      ],
      [
        "▁تداول",
        -9.434696818115317
      ],
      [
        "▁حكومة",
        -9.435637685046196
      ],
      [
        "▁القضية",
        -9.436262193089492
      ],
      [
        "▁محمود",
        -9.436967751199017
      ],
      [
        "▁الهدف",
        -9.43711575159443
      ],
      [
        "▁فيلم",
        -9.437327781509737
      ],
      [
        "▁أيضًا",
        -9.438964751646804
      ],
      [
        "▁انت",
        -9.43932125289864
      ],
      [
        "▁مشاكل",
        -9.439447238026137
      ],
      [
        "▁دليل",
        -9.439973073092117
      ],
      [
        "▁تستخدم",
        -9.44043962003483
      ],
      [
        "▁المواقع",
        -9.441557117686468
      ],
      [
        "▁انها",
        -9.442708914647035
      ],
      [
        "تَ",
        -9.442724311831794
      ],
      [
        "▁القوة",
        -9.443766421278738
      ],
      [
        "▁ونحن",
        -9.445477737099086
      ],
      [
        "▁محاولة",
        -9.446058544382833
      ],
      [
        "▁الكويت",
        -9.446413214306077
      ],
      [
        "▁وإنما",
        -9.447205521162203
      ],
      [
        "▁مر",
        -9.447990985240338
      ],
      [
        "▁مباشر",
        -9.448226190907233
      ],
      [
        "▁مؤسسة",
        -9.449153827548262
      ],
      [
        "▁الثالثة",
        -9.450096125720382
      ],
      [
        "▁الأيام",
        -9.450398777999984
      ],
      [
        "▁بطريقة",
        -9.451021831273525
      ],
      [
        "ائي",
        -9.451941360766329
      ],
      [
        "▁السورية",
        -9.453854617257289
      ],
      [
        "▁الكبرى",
        -9.453866642600847
      ],
      [
        "▁الأقل",
        -9.453890692778455
      ],
      [
        "▁معنى",
        -9.453947674451163
      ],
      [
        "▁المستوى",
        -9.454402372391556
      ],
      [
        "اوي",
        -9.454583439717238
      ],
      [
        "▁جمع",
        -9.455086908034339
      ],
      [
        "شي",
        -9.455415859386669
      ],
      [
        "▁تركيا",
        -9.456378735313095
      ],
      [
        "يق",
        -9.456567246222194
      ],
      [
        "▁ش",
        -9.45783253706015
      ],
      [
        "رت",
        -9.458321361346187
      ],
      [
        "▁وحدة",
        -9.459170580628724
      ],
      [
        "▁عنوان",
        -9.459267763989109
      ],
      [
        "▁دخول",
        -9.459652785336289
      ],
      [
        "▁رب",
        -9.459667389268795
      ],
      [
        "▁بالله",
        -9.460225937409334
      ],
      [
        "▁قصة",
        -9.460420836271663
      ],
      [
        "▁السودان",
        -9.46107828834409
      ],
      [
        "▁لابد",
        -9.46141516659389
      ],
      [
        "▁يعود",
        -9.46281412654092
      ],
      [
        "▁صوت",
        -9.462882925379937
      ],
      [
        "▁قدر",
        -9.463409763149492
      ],
      [
        "▁ولي",
        -9.46397958246574
      ],
      [
        "▁القول",
        -9.464898968543043
      ],
      [
        "وية",
        -9.46582589782384
      ],
      [
        "▁لكنه",
        -9.466315356232046
      ],
      [
        "▁ملف",
        -9.468069571002552
      ],
      [
        "ياً",
        -9.468092843166144
      ],
      [
        "▁إنشاء",
        -9.46817858140557
      ],
      [
        "▁الباب",
        -9.468696609658878
      ],
      [
        "▁للحصول",
        -9.468768256845742
      ],
      [
        "ِهِ",
        -9.469284418288893
      ],
      [
        "▁الأم",
        -9.469674656925545
      ],
      [
        "▁البرامج",
        -9.469785845598341
      ],
      [
        "▁ساعات",
        -9.470225777577696
      ],
      [
        "▁ح",
        -9.470552989338657
      ],
      [
        "نت",
        -9.471001256051775
      ],
      [
        "بة",
        -9.471236464221388
      ],
      [
        "اط",
        -9.471577039129471
      ],
      [
        "▁الأمة",
        -9.47241129544283
      ],
      [
        "مع",
        -9.473528064842803
      ],
      [
        "▁إنها",
        -9.473682704956964
      ],
      [
        "▁تجاه",
        -9.474592019543799
      ],
      [
        "▁تنظيف",
        -9.475073197869259
      ],
      [
        "سي",
        -9.475450811727288
      ],
      [
        "▁نجد",
        -9.476069676303776
      ],
      [
        "مر",
        -9.478492033313564
      ],
      [
        "t",
        -9.478569879316888
      ],
      [
        "▁أداء",
        -9.478577326614248
      ],
      [
        "▁المتعلقة",
        -9.479341297721541
      ],
      [
        "▁الأمير",
        -9.479664290220605
      ],
      [
        "▁وخاصة",
        -9.481086539050034
      ],
      [
        "▁حقيقة",
        -9.48161045625302
      ],
      [
        "لم",
        -9.482007751615491
      ],
      [
        "ري",
        -9.482134680177236
      ],
      [
        "▁ففي",
        -9.48338482640222
      ],
      [
        "▁قناة",
        -9.484339860435108
      ],
      [
        "▁مدة",
        -9.484774992425676
      ],
      [
        "▁الثقافة",
        -9.485603413561462
      ],
      [
        "▁عشرة",
        -9.485979487534367
      ],
      [
        "▁مِنَ",
        -9.486436258241879
      ],
      [
        "▁مواجهة",
        -9.486654301811498
      ],
      [
        "▁شراء",
        -9.487313147620158
      ],
      [
        "▁شخصية",
        -9.488404355141514
      ],
      [
        "▁توجد",
        -9.488558992803735
      ],
      [
        "▁الخيارات",
        -9.489876390073857
      ],
      [
        "حت",
        -9.490209662917561
      ],
      [
        "▁أصبحت",
        -9.490386973982117
      ],
      [
        "▁المجموعة",
        -9.491050994913198
      ],
      [
        "▁يساعد",
        -9.492238307922896
      ],
      [
        "▁تأثير",
        -9.494532825675648
      ],
      [
        "▁مدريد",
        -9.494633859279272
      ],
      [
        "▁الرجال",
        -9.494845946754872
      ],
      [
        "▁التداول",
        -9.495155073900072
      ],
      [
        "فر",
        -9.49594025696328
      ],
      [
        "▁يرى",
        -9.4971003887614
      ],
      [
        "▁التعريف",
        -9.497544742524372
      ],
      [
        "▁سؤال",
        -9.497887597833419
      ],
      [
        "▁يَ",
        -9.498337667464128
      ],
      [
        "▁اللازمة",
        -9.49862513614347
      ],
      [
        "▁قم",
        -9.498802370952955
      ],
      [
        "▁وأكد",
        -9.499561291538381
      ],
      [
        "▁ترك",
        -9.499832635603957
      ],
      [
        "▁وأنا",
        -9.500752718758228
      ],
      [
        "▁لتحقيق",
        -9.500935655156479
      ],
      [
        "▁يعلم",
        -9.501406629097769
      ],
      [
        "▁خلف",
        -9.501663012597836
      ],
      [
        "▁الزواج",
        -9.501677345986717
      ],
      [
        "وان",
        -9.50210266032272
      ],
      [
        "▁نفسك",
        -9.502990531603725
      ],
      [
        "ء",
        -9.503620856851512
      ],
      [
        "▁الكتب",
        -9.504068752760428
      ],
      [
        "▁بيع",
        -9.504646525474303
      ],
      [
        "جل",
        -9.50585077354014
      ],
      [
        "▁نظر",
        -9.506087803490223
      ],
      [
        "▁ولل",
        -9.506214825336937
      ],
      [
        "قال",
        -9.506769646751023
      ],
      [
        "▁سورة",
        -9.506933231848645
      ],
      [
        "▁100",
        -9.508511004040168
      ],
      [
        "d",
        -9.50865578899015
      ],
      [
        "تر",
        -9.508674597108453
      ],
      [
        "▁أبناء",
        -9.508721965640657
      ],
      [
        "▁للت",
        -9.509718220420986
      ],
      [
        "[",
        -9.509968079528171
      ],
      [
        "▁خ",
        -9.511251876129368
      ],
      [
        "▁حالات",
        -9.511454322766824
      ],
      [
        "▁الموت",
        -9.51265138200186
      ],
      [
        "▁الحقوق",
        -9.512742755286519
      ],
      [
        "▁تدخل",
        -9.513367109743147
      ],
      [
        "▁الخير",
        -9.514230653868147
      ],
      [
        "▁حي",
        -9.514365900062648
      ],
      [
        "▁سيتم",
        -9.515265314315602
      ],
      [
        "فت",
        -9.516722748039385
      ],
      [
        "▁لديك",
        -9.51775501768223
      ],
      [
        "▁هـ",
        -9.517862005101115
      ],
      [
        "▁إِنَّ",
        -9.517922127867891
      ],
      [
        "▁الموسم",
        -9.519315750513702
      ],
      [
        "خر",
        -9.519583243800255
      ],
      [
        "▁العلمي",
        -9.520849512161078
      ],
      [
        "▁ولد",
        -9.521753400920154
      ],
      [
        "▁الإرهاب",
        -9.521941466641081
      ],
      [
        "▁الدراسات",
        -9.521988771577496
      ],
      [
        "▁موسى",
        -9.522812668293133
      ],
      [
        "▁كاملة",
        -9.523831435373591
      ],
      [
        "▁الغربية",
        -9.523853079459773
      ],
      [
        "▁سياسية",
        -9.523904847239178
      ],
      [
        "▁لاعب",
        -9.523973009604367
      ],
      [
        "هُمْ",
        -9.524862082322144
      ],
      [
        "ُونَ",
        -9.525109412293688
      ],
      [
        "▁الطبية",
        -9.527171667976917
      ],
      [
        "▁أهداف",
        -9.527198212492856
      ],
      [
        "▁عقب",
        -9.527806751278375
      ],
      [
        "▁لدينا",
        -9.528092549272833
      ],
      [
        "▁أعلنت",
        -9.529635162078701
      ],
      [
        "▁تساعد",
        -9.529743593920305
      ],
      [
        "▁القدرة",
        -9.530063010594201
      ],
      [
        "▁الجانب",
        -9.5307912748359
      ],
      [
        "▁العسكري",
        -9.531061500702206
      ],
      [
        "▁كلام",
        -9.532128505910421
      ],
      [
        "▁الدور",
        -9.532410551903494
      ],
      [
        "ُوا",
        -9.532813990787567
      ],
      [
        "▁الإلكتروني",
        -9.533337068635243
      ],
      [
        "▁الاتفاق",
        -9.53359514273206
      ],
      [
        "▁ستكون",
        -9.53404950711863
      ],
      [
        "▁شك",
        -9.534605913586217
      ],
      [
        "▁تشكيل",
        -9.534612105861353
      ],
      [
        "▁الرابع",
        -9.534670346447871
      ],
      [
        "▁رفض",
        -9.534832515131349
      ],
      [
        "▁الصفحة",
        -9.535517896975332
      ],
      [
        "▁بسرعة",
        -9.536453820212232
      ],
      [
        "▁مرور",
        -9.536500191938718
      ],
      [
        "ـــ",
        -9.537842651308555
      ],
      [
        "▁الدخول",
        -9.538701182372623
      ],
      [
        "▁جنيه",
        -9.539170718458735
      ],
      [
        "▁بهدف",
        -9.540811530412245
      ],
      [
        "▁يقدم",
        -9.541541499800697
      ],
      [
        "▁الخليج",
        -9.542932389649087
      ],
      [
        "دة",
        -9.542986462755783
      ],
      [
        "▁الطبيعية",
        -9.543418840883435
      ],
      [
        "▁المنتخب",
        -9.544348245007866
      ],
      [
        "▁الصين",
        -9.544421474922459
      ],
      [
        "▁الج",
        -9.54484965841931
      ],
      [
        "▁B",
        -9.545303579269689
      ],
      [
        "▁بهم",
        -9.545723320598373
      ],
      [
        "▁الصغيرة",
        -9.545750374704056
      ],
      [
        "▁يظهر",
        -9.546164703350382
      ],
      [
        "▁الش",
        -9.547089302189523
      ],
      [
        "▁دوري",
        -9.547094215428785
      ],
      [
        "▁وأوضح",
        -9.547487088136432
      ],
      [
        "▁....",
        -9.547492197841372
      ],
      [
        "▁واست",
        -9.547590403824863
      ],
      [
        "▁كلها",
        -9.548013407731341
      ],
      [
        "▁يذكر",
        -9.548171189111658
      ],
      [
        "▁وظائف",
        -9.548384671336208
      ],
      [
        "▁أخذ",
        -9.549229333521478
      ],
      [
        "▁النوم",
        -9.549584079843298
      ],
      [
        "يون",
        -9.550007811665008
      ],
      [
        "▁المستقبل",
        -9.550174170688372
      ],
      [
        "▁المنظمة",
        -9.550447648032836
      ],
      [
        "▁ايضا",
        -9.551321417000981
      ],
      [
        "▁الرسمية",
        -9.551397734422586
      ],
      [
        "▁المحافظة",
        -9.551685003540586
      ],
      [
        "▁الجهات",
        -9.552665276057652
      ],
      [
        "▁المؤسسة",
        -9.55324011449813
      ],
      [
        "▁متر",
        -9.554197680536454
      ],
      [
        "▁وصف",
        -9.55440030607891
      ],
      [
        "▁السياسة",
        -9.555959796692155
      ],
      [
        "▁أل",
        -9.556514007612716
      ],
      [
        "▁عباس",
        -9.557840189805034
      ],
      [
        "▁عناصر",
        -9.557927841548747
      ],
      [
        "▁مقتل",
        -9.55819272547046
      ],
      [
        "▁الفنية",
        -9.558912496864767
      ],
      [
        "▁إنتاج",
        -9.559831049851883
      ],
      [
        "▁الاستثمار",
        -9.560329657282683
      ],
      [
        "▁الدورة",
        -9.560493435214434
      ],
      [
        "▁اجتماع",
        -9.561233883221927
      ],
      [
        "▁المسلحة",
        -9.561514500856068
      ],
      [
        "▁القيادة",
        -9.56268596418595
      ],
      [
        "▁مهما",
        -9.56336584367687
      ],
      [
        "▁رحمه",
        -9.563386124370481
      ],
      [
        "هِ",
        -9.563388661489318
      ],
      [
        "▁صباح",
        -9.56376324587705
      ],
      [
        "▁الأمنية",
        -9.564620094846635
      ],
      [
        "▁الحالات",
        -9.564780339774423
      ],
      [
        "▁رؤية",
        -9.56619056281927
      ],
      [
        "▁التدريب",
        -9.566528459938581
      ],
      [
        "▁البلد",
        -9.566992026672219
      ],
      [
        "▁معها",
        -9.567318613405558
      ],
      [
        "▁الرحمن",
        -9.56813257412686
      ],
      [
        "لت",
        -9.568572699081916
      ],
      [
        "▁دقيقة",
        -9.56886133321676
      ],
      [
        "▁50",
        -9.569209451654434
      ],
      [
        "▁قيام",
        -9.569854688921899
      ],
      [
        "▁أَ",
        -9.569864926481435
      ],
      [
        "▁المدني",
        -9.56996914263225
      ],
      [
        "▁السفر",
        -9.57001041916074
      ],
      [
        "▁الأوسط",
        -9.570161149060532
      ],
      [
        "▁كشف",
        -9.570256333579533
      ],
      [
        "حي",
        -9.570680922935814
      ],
      [
        "▁بالفعل",
        -9.57096401161786
      ],
      [
        "▁توفر",
        -9.57117152257295
      ],
      [
        "▁تماما",
        -9.571458823146516
      ],
      [
        "▁النقل",
        -9.572006777028067
      ],
      [
        "▁الفني",
        -9.572166236255836
      ],
      [
        "▁تصميم",
        -9.572307328263774
      ],
      [
        "▁إعداد",
        -9.572594932647796
      ],
      [
        "▁وهكذا",
        -9.572723602337017
      ],
      [
        "▁مبارك",
        -9.572904904971093
      ],
      [
        "▁وأشار",
        -9.573271482811611
      ],
      [
        "▁البيئة",
        -9.574521248811044
      ],
      [
        "▁العقد",
        -9.575530910508412
      ],
      [
        "▁وسي",
        -9.575847128428661
      ],
      [
        "▁المباراة",
        -9.575956730625727
      ],
      [
        "▁تفسير",
        -9.575984766427922
      ],
      [
        "▁التجاري",
        -9.576325382543981
      ],
      [
        "▁شي",
        -9.576338894722557
      ],
      [
        "▁قلب",
        -9.577942409069099
      ],
      [
        "▁29",
        -9.578505832816912
      ],
      [
        "▁الرسمي",
        -9.580827556422491
      ],
      [
        "▁الآخرين",
        -9.582791677585224
      ],
      [
        "وال",
        -9.583615964528658
      ],
      [
        "▁الإنسانية",
        -9.583871104825242
      ],
      [
        "▁للتسجيل",
        -9.58474407982024
      ],
      [
        "▁الح",
        -9.585594493054666
      ],
      [
        "لو",
        -9.588001802498876
      ],
      [
        "▁وعندما",
        -9.588047582212166
      ],
      [
        "▁الدعم",
        -9.58907491314016
      ],
      [
        "▁الحسن",
        -9.58978580258157
      ],
      [
        "▁فصل",
        -9.58983552471659
      ],
      [
        "▁الوزارة",
        -9.590828408866027
      ],
      [
        "▁موعد",
        -9.590963665564416
      ],
      [
        "▁حسين",
        -9.591069808124187
      ],
      [
        "▁معينة",
        -9.591377497200675
      ],
      [
        "▁يحصل",
        -9.591612358839331
      ],
      [
        "▁الوحيد",
        -9.59396196360063
      ],
      [
        "جر",
        -9.594562937878868
      ],
      [
        "▁الليل",
        -9.594898966334359
      ],
      [
        "▁آلاف",
        -9.596277573490326
      ],
      [
        "▁جيدة",
        -9.59672391375764
      ],
      [
        "▁الأسد",
        -9.596794235133292
      ],
      [
        "ائ",
        -9.596898163836125
      ],
      [
        "▁قلت",
        -9.597316094247317
      ],
      [
        "▁هدف",
        -9.598393543508386
      ],
      [
        "▁·",
        -9.598655918131737
      ],
      [
        "▁الخامس",
        -9.599419793691732
      ],
      [
        "▁أخبار",
        -9.6000788759161
      ],
      [
        "▁الانسان",
        -9.60034861296802
      ],
      [
        "▁والإ",
        -9.601256088233164
      ],
      [
        "▁المدير",
        -9.601507927457657
      ],
      [
        "▁الأحداث",
        -9.601826901024367
      ],
      [
        "▁التقرير",
        -9.601911703193583
      ],
      [
        "▁وكالة",
        -9.602162431731983
      ],
      [
        "قر",
        -9.602213571738151
      ],
      [
        "▁ويقول",
        -9.603187259704974
      ],
      [
        "▁حدوث",
        -9.603361105954285
      ],
      [
        "▁نفسي",
        -9.603747395631913
      ],
      [
        "▁وهل",
        -9.604729691500943
      ],
      [
        "▁1.",
        -9.60476597756689
      ],
      [
        "▁أربعة",
        -9.605005257746054
      ],
      [
        "▁والعمل",
        -9.6059120142816
      ],
      [
        "▁مِن",
        -9.606500405099553
      ],
      [
        "p",
        -9.606537269005766
      ],
      [
        "▁الفرنسي",
        -9.606553135983646
      ],
      [
        "▁العراقي",
        -9.608568085954234
      ],
      [
        "▁الأجهزة",
        -9.609576795344044
      ],
      [
        "▁الفيديو",
        -9.609586214055373
      ],
      [
        "▁بني",
        -9.609755020698444
      ],
      [
        "!!",
        -9.60992784805536
      ],
      [
        "▁المؤمنين",
        -9.610177534120524
      ],
      [
        "از",
        -9.610190150669847
      ],
      [
        "▁عين",
        -9.61047346348152
      ],
      [
        "▁الغرب",
        -9.610649861330996
      ],
      [
        "اته",
        -9.610684024299584
      ],
      [
        "▁بحث",
        -9.610919055590571
      ],
      [
        "▁الأوروبي",
        -9.611476404799209
      ],
      [
        "هـ",
        -9.611625225820589
      ],
      [
        "▁دمشق",
        -9.612217525464766
      ],
      [
        "▁البرلمان",
        -9.61227814558638
      ],
      [
        "▁السيارة",
        -9.612380237750385
      ],
      [
        "▁عامة",
        -9.612975021439423
      ],
      [
        "▁وكيف",
        -9.615075827508539
      ],
      [
        "▁وبال",
        -9.615441957605434
      ],
      [
        "▁دخل",
        -9.617021648844052
      ],
      [
        "▁اللقاء",
        -9.617793797685316
      ],
      [
        "▁5-",
        -9.617901597592887
      ],
      [
        "▁المدنية",
        -9.618512877242713
      ],
      [
        "؟!",
        -9.619273720197857
      ],
      [
        "يتها",
        -9.619359551624296
      ],
      [
        "مُ",
        -9.619514033872939
      ],
      [
        "▁اليهود",
        -9.6215463877387
      ],
      [
        "هَا",
        -9.621571575423065
      ],
      [
        "▁يحمل",
        -9.622930873519
      ],
      [
        "▁أمريكا",
        -9.622944521809135
      ],
      [
        "▁بيانات",
        -9.62324191039574
      ],
      [
        "▁وقع",
        -9.623396564889974
      ],
      [
        "▁فلم",
        -9.62341974820323
      ],
      [
        "عت",
        -9.623983356094804
      ],
      [
        "▁الطالب",
        -9.6244515777393
      ],
      [
        "▁الماضي،",
        -9.624860509746204
      ],
      [
        "▁أوروبا",
        -9.625443414571304
      ],
      [
        "▁النتائج",
        -9.626259721251007
      ],
      [
        "▁$2",
        -9.627415535658756
      ],
      [
        "▁خلالها",
        -9.628223698603556
      ],
      [
        "▁قراءة",
        -9.628271733476337
      ],
      [
        "▁أجهزة",
        -9.628335193233868
      ],
      [
        "▁خمسة",
        -9.628612503977088
      ],
      [
        "▁التالية",
        -9.628897325454261
      ],
      [
        "▁وتعالى",
        -9.62896474733073
      ],
      [
        "▁حاجة",
        -9.629207957192712
      ],
      [
        "▁ظهور",
        -9.629247268205926
      ],
      [
        "▁الكبيرة",
        -9.629451976973908
      ],
      [
        "▁دورة",
        -9.630340726164569
      ],
      [
        "▁وفقا",
        -9.630854057072629
      ],
      [
        "▁محل",
        -9.63085711110367
      ],
      [
        "▁لقاء",
        -9.631524036921052
      ],
      [
        "جو",
        -9.631793644198765
      ],
      [
        "▁A",
        -9.632060655057535
      ],
      [
        "▁الحد",
        -9.632071776289916
      ],
      [
        "▁العدد",
        -9.632383179065464
      ],
      [
        "▁السنوات",
        -9.63319461132025
      ],
      [
        "▁سيارة",
        -9.633263017510252
      ],
      [
        "▁تعزيز",
        -9.633478164132068
      ],
      [
        "▁النص",
        -9.634216034004655
      ],
      [
        "▁حياته",
        -9.63507560876808
      ],
      [
        "▁فرنسا",
        -9.635560223734835
      ],
      [
        "▁سأ",
        -9.635985480316403
      ],
      [
        "قل",
        -9.63598702070033
      ],
      [
        "اض",
        -9.636742809998186
      ],
      [
        "▁الهاتف",
        -9.637230916035719
      ],
      [
        "▁خطة",
        -9.637726067353409
      ],
      [
        "▁أمن",
        -9.638015223974264
      ],
      [
        "سر",
        -9.63837608677521
      ],
      [
        "به",
        -9.63848346365308
      ],
      [
        "▁الذهب",
        -9.638644650505292
      ],
      [
        "ًا،",
        -9.63865506718998
      ],
      [
        "▁تتم",
        -9.639696730491277
      ],
      [
        "▁التابعة",
        -9.640934956131339
      ],
      [
        "▁يقع",
        -9.641079446131787
      ],
      [
        "دا",
        -9.641782941754645
      ],
      [
        "▁امرأة",
        -9.641993909174225
      ],
      [
        "▁ضعف",
        -9.642383741653875
      ],
      [
        "اتهم",
        -9.642890870499327
      ],
      [
        "▁الأزمة",
        -9.643766157235511
      ],
      [
        "▁ترى",
        -9.64396132239816
      ],
      [
        "▁أنَّ",
        -9.644117843156518
      ],
      [
        "▁العهد",
        -9.644346685165024
      ],
      [
        "دار",
        -9.644489437614082
      ],
      [
        "▁والسلام",
        -9.64504840781376
      ],
      [
        "▁المشاكل",
        -9.645632044675533
      ],
      [
        "▁المريض",
        -9.645899041353122
      ],
      [
        "را",
        -9.64778803778076
      ],
      [
        "دو",
        -9.648331484100426
      ],
      [
        "اش",
        -9.648410472253277
      ],
      [
        "▁نور",
        -9.649183151675597
      ],
      [
        "▁فرض",
        -9.649894893950249
      ],
      [
        "▁اما",
        -9.650544628718833
      ],
      [
        "▁عادة",
        -9.650728654319778
      ],
      [
        "▁البشر",
        -9.650958427136143
      ],
      [
        "▁الأعلى",
        -9.651711292947255
      ],
      [
        "▁فن",
        -9.653720190340342
      ],
      [
        "▁خمس",
        -9.654202197440865
      ],
      [
        "رُ",
        -9.654523936840697
      ],
      [
        "▁مقر",
        -9.654839872196005
      ],
      [
        "▁الدستور",
        -9.654956877142622
      ],
      [
        "▁شرح",
        -9.655090288402668
      ],
      [
        "▁عديدة",
        -9.655296632759201
      ],
      [
        "▁الموجودة",
        -9.656216214096748
      ],
      [
        "▁لأي",
        -9.656358720061043
      ],
      [
        "00",
        -9.656984606669397
      ],
      [
        "▁القسم",
        -9.65740410675075
      ],
      [
        "▁بلغ",
        -9.657512503918035
      ],
      [
        "▁صناعة",
        -9.65947921403613
      ],
      [
        "▁شرق",
        -9.659910348232476
      ],
      [
        "u",
        -9.660604720945319
      ],
      [
        "▁لعبة",
        -9.660936143307365
      ],
      [
        "▁الحل",
        -9.661194109554458
      ],
      [
        "▁بلد",
        -9.66176509693586
      ],
      [
        "▁إنما",
        -9.662317787307451
      ],
      [
        "▁تبدأ",
        -9.662844456730149
      ],
      [
        "▁الأشياء",
        -9.66342199873203
      ],
      [
        "▁العمليات",
        -9.664036156760577
      ],
      [
        "▁تمثل",
        -9.665691191262383
      ],
      [
        "▁الوزير",
        -9.665777509461616
      ],
      [
        "هل",
        -9.666368354418893
      ],
      [
        "▁القديمة",
        -9.667036254127792
      ],
      [
        "▁مهم",
        -9.667078584013856
      ],
      [
        "▁هى",
        -9.667244250879422
      ],
      [
        "علم",
        -9.667491499411053
      ],
      [
        "▁عيد",
        -9.668548949110793
      ],
      [
        "بَ",
        -9.66989655942537
      ],
      [
        "▁الطبيعي",
        -9.670015706477788
      ],
      [
        "▁المرض",
        -9.670155249574094
      ],
      [
        "▁غرفة",
        -9.670641966793742
      ],
      [
        "▁لجميع",
        -9.670746067716584
      ],
      [
        "▁البناء",
        -9.671139380544874
      ],
      [
        "▁القائمة",
        -9.67181834570669
      ],
      [
        "▁النجاح",
        -9.672158380999036
      ],
      [
        "▁العملات",
        -9.672410705682484
      ],
      [
        "▁الطبيب",
        -9.67358743005283
      ],
      [
        "▁أَنْ",
        -9.674112654867043
      ],
      [
        "▁الدينية",
        -9.67481109055953
      ],
      [
        "▁جماعة",
        -9.674861223239521
      ],
      [
        "▁مواد",
        -9.675234436957012
      ],
      [
        "▁الثنائية",
        -9.676476299242033
      ],
      [
        "▁بالت",
        -9.676546270652496
      ],
      [
        "▁يسمح",
        -9.676619382779755
      ],
      [
        "▁العين",
        -9.676641055329384
      ],
      [
        "▁قوية",
        -9.677202233797898
      ],
      [
        "▁عهد",
        -9.677552564245245
      ],
      [
        "▁البداية",
        -9.6778991760986
      ],
      [
        "▁وقف",
        -9.6783982138728
      ],
      [
        "▁العظيم",
        -9.67842405468096
      ],
      [
        "▁تشغيل",
        -9.678822981498422
      ],
      [
        "طر",
        -9.67923660298791
      ],
      [
        "▁الفكر",
        -9.679992739538502
      ],
      [
        "▁الإنتاج",
        -9.68011442986332
      ],
      [
        "▁صحة",
        -9.68083294507339
      ],
      [
        "▁أثر",
        -9.680917683294311
      ],
      [
        "▁الإيمان",
        -9.680945963115175
      ],
      [
        "▁شهادة",
        -9.681376342197897
      ],
      [
        "▁الوحدة",
        -9.681597142467819
      ],
      [
        "▁الزمن",
        -9.682088676027037
      ],
      [
        "▁فرص",
        -9.683139958888553
      ],
      [
        "▁هكذا",
        -9.68332592273529
      ],
      [
        "▁الحمل",
        -9.683348588328357
      ],
      [
        "▁الضغط",
        -9.684275785627715
      ],
      [
        "▁تأتي",
        -9.684333686159231
      ],
      [
        "▁2.",
        -9.684568780607151
      ],
      [
        "▁إعلان",
        -9.685106726606904
      ],
      [
        "▁مكة",
        -9.685942710542033
      ],
      [
        "ند",
        -9.68652191292399
      ],
      [
        "دَ",
        -9.686991861553318
      ],
      [
        "▁كون",
        -9.687153763070064
      ],
      [
        "▁صلاة",
        -9.687440275207198
      ],
      [
        "▁ولكنه",
        -9.688056643083419
      ],
      [
        "▁اتفاق",
        -9.688138360784365
      ],
      [
        "▁التفكير",
        -9.688560224269997
      ],
      [
        "▁والتعليم",
        -9.689343886855239
      ],
      [
        "▁المالي",
        -9.690466298209762
      ],
      [
        "▁الأعضاء",
        -9.690917942541422
      ],
      [
        "▁الإدارية",
        -9.69092454614243
      ],
      [
        "هم.",
        -9.691417830610561
      ],
      [
        "▁اخرى",
        -9.692268890173906
      ],
      [
        "▁عربية",
        -9.693173490387649
      ],
      [
        "▁!!",
        -9.693460190896511
      ],
      [
        "▁مكافحة",
        -9.693523628340326
      ],
      [
        "▁تجعل",
        -9.693776163966517
      ],
      [
        "▁لديهم",
        -9.693873380779433
      ],
      [
        "▁منع",
        -9.694442668646884
      ],
      [
        "▁السر",
        -9.694450357689087
      ],
      [
        "▁النواب",
        -9.694507750309784
      ],
      [
        "▁رائع",
        -9.695674633478246
      ],
      [
        "وز",
        -9.695842038907703
      ],
      [
        "▁اتخاذ",
        -9.696245525061123
      ],
      [
        "▁لكرة",
        -9.696707475458012
      ],
      [
        "▁واضح",
        -9.69690112780329
      ],
      [
        "▁كتبت",
        -9.696929690521353
      ],
      [
        "▁C",
        -9.696953645763607
      ],
      [
        "▁كرة",
        -9.697103941434072
      ],
      [
        "▁التعليمية",
        -9.697242362278338
      ],
      [
        "▁الانترنت",
        -9.697717008031347
      ],
      [
        "جم",
        -9.697821172149615
      ],
      [
        "▁الوجه",
        -9.698150695891588
      ],
      [
        "▁واقع",
        -9.698827509332979
      ],
      [
        "▁سعد",
        -9.698891155322919
      ],
      [
        "▁+",
        -9.699140970539588
      ],
      [
        "▁وآله",
        -9.699604851097611
      ],
      [
        "▁بدء",
        -9.700287736350438
      ],
      [
        "▁تونس",
        -9.700302336223416
      ],
      [
        "▁ممن",
        -9.700462734945706
      ],
      [
        "▁الْ",
        -9.700670021679873
      ],
      [
        "▁أفراد",
        -9.700807971578227
      ],
      [
        "▁النادي",
        -9.701032526290472
      ],
      [
        "▁تفاصيل",
        -9.701061462047086
      ],
      [
        "▁بأي",
        -9.701582000566631
      ],
      [
        "▁الفرق",
        -9.702998377172595
      ],
      [
        "▁العودة",
        -9.703425855534215
      ],
      [
        "▁الممكن",
        -9.703728972347129
      ],
      [
        "▁الحمد",
        -9.703887989152712
      ],
      [
        "▁سجل",
        -9.703900373093806
      ],
      [
        "▁سابق",
        -9.704286230971421
      ],
      [
        "▁كلمات",
        -9.705340328110337
      ],
      [
        "▁التطبيق",
        -9.70551226626614
      ],
      [
        "c",
        -9.705625945582343
      ],
      [
        "▁التفاصيل",
        -9.706144411099906
      ],
      [
        "تش",
        -9.706451951377467
      ],
      [
        "له",
        -9.706509494574632
      ],
      [
        "▁31",
        -9.706883512639353
      ],
      [
        "▁الرئيسي",
        -9.706986277833545
      ],
      [
        "▁الل",
        -9.707274282037645
      ],
      [
        "▁نجاح",
        -9.70805229783127
      ],
      [
        "▁بإ",
        -9.70838808369651
      ],
      [
        "▁مقارنة",
        -9.709059356234548
      ],
      [
        "▁نمو",
        -9.70990051033998
      ],
      [
        "12",
        -9.710218758578117
      ],
      [
        "▁أنك",
        -9.710394295422468
      ],
      [
        "▁الواحد",
        -9.711099842969524
      ],
      [
        "▁امام",
        -9.711568223379649
      ],
      [
        "i",
        -9.712795397488673
      ],
      [
        "لى",
        -9.7133311862951
      ],
      [
        "▁الشرعية",
        -9.71335586641025
      ],
      [
        "▁حاليا",
        -9.714912065642682
      ],
      [
        "▁صدر",
        -9.716554816737773
      ],
      [
        "▁الأميركية",
        -9.716562217357989
      ],
      [
        "▁شيئا",
        -9.716894099450613
      ],
      [
        "▁بيروت",
        -9.718180265799191
      ],
      [
        "ائها",
        -9.718645862638716
      ],
      [
        "▁السادس",
        -9.719293371150787
      ],
      [
        "▁نسخة",
        -9.71930350911928
      ],
      [
        "▁مفهوم",
        -9.719421778154743
      ],
      [
        "▁جاءت",
        -9.71982153688607
      ],
      [
        "▁الاثنين",
        -9.719885216051393
      ],
      [
        "▁الصحيح",
        -9.71993510695845
      ],
      [
        "▁سورية",
        -9.721311538501267
      ],
      [
        "▁كلّ",
        -9.721330493433637
      ],
      [
        "a",
        -9.721349680352287
      ],
      [
        "▁باريس",
        -9.72178918189691
      ],
      [
        "▁الشكل",
        -9.721872944065513
      ],
      [
        "▁المدن",
        -9.721952966793847
      ],
      [
        "▁العرض",
        -9.723182844772639
      ],
      [
        "▁المهم",
        -9.723305829682669
      ],
      [
        "▁كثيراً",
        -9.723995580414748
      ],
      [
        "▁ملك",
        -9.724357694892243
      ],
      [
        "▁معين",
        -9.724497246663304
      ],
      [
        "▁أمير",
        -9.724700340144185
      ],
      [
        "▁إِلَى",
        -9.725258796231985
      ],
      [
        "▁وصول",
        -9.725541640349936
      ],
      [
        "▁يست",
        -9.725815727444232
      ],
      [
        "▁الجزائر",
        -9.726625618311363
      ],
      [
        "وَ",
        -9.72696923394559
      ],
      [
        "▁البيان",
        -9.72788011208112
      ],
      [
        "▁))",
        -9.729251826408081
      ],
      [
        "▁القوى",
        -9.730018972797634
      ],
      [
        "▁بأنها",
        -9.730388576582545
      ],
      [
        "▁اجل",
        -9.73063576641341
      ],
      [
        "▁الأسباب",
        -9.730695328060506
      ],
      [
        "▁تحويل",
        -9.731322083034195
      ],
      [
        "▁نقاط",
        -9.73151104969661
      ],
      [
        "كس",
        -9.733053043207834
      ],
      [
        "▁مجتمع",
        -9.733059377217334
      ],
      [
        "يان",
        -9.733061527596117
      ],
      [
        "▁ابو",
        -9.733064113276143
      ],
      [
        "كِ",
        -9.733681035762114
      ],
      [
        "جي",
        -9.734340512681486
      ],
      [
        "al",
        -9.734758546661972
      ],
      [
        "▁وجدت",
        -9.735651112609645
      ],
      [
        "▁الظروف",
        -9.735997998903766
      ],
      [
        "▁شئ",
        -9.736291948830502
      ],
      [
        "▁فهل",
        -9.736308122375945
      ],
      [
        "ْتَ",
        -9.736606688481178
      ],
      [
        "▁سير",
        -9.737002446642187
      ],
      [
        "▁سياسي",
        -9.737500946138054
      ],
      [
        "▁إنّ",
        -9.737633891384885
      ],
      [
        "حب",
        -9.737890615712328
      ],
      [
        "▁اخر",
        -9.738545466494642
      ],
      [
        "▁كتابة",
        -9.738598472037008
      ],
      [
        "▁حضور",
        -9.739236497709165
      ],
      [
        "▁الص",
        -9.739697212186751
      ],
      [
        "▁مَنْ",
        -9.739794437543994
      ],
      [
        "▁منزل",
        -9.740075609203364
      ],
      [
        "دى",
        -9.740620607945555
      ],
      [
        "▁السماء",
        -9.741117214339848
      ],
      [
        "▁حاول",
        -9.741376168859286
      ],
      [
        "▁الجنة",
        -9.74267163834029
      ],
      [
        "▁ويتم",
        -9.742700642861479
      ],
      [
        "▁تحرير",
        -9.743023296508007
      ],
      [
        "▁اول",
        -9.743384463679229
      ],
      [
        "▁يدخل",
        -9.745155160165481
      ],
      [
        "▁لكنها",
        -9.745215999440454
      ],
      [
        "▁طول",
        -9.745651010071013
      ],
      [
        "▁العصر",
        -9.745798647824047
      ],
      [
        "حل",
        -9.746094900448913
      ],
      [
        "14",
        -9.746789821671943
      ],
      [
        "▁الطلب",
        -9.746849049068066
      ],
      [
        "b",
        -9.747345849373101
      ],
      [
        "▁شاهد",
        -9.747744489797176
      ],
      [
        "▁العنف",
        -9.748651540093952
      ],
      [
        "▁الديمقراطية",
        -9.748793192123294
      ],
      [
        "▁الإخوان",
        -9.749019375786471
      ],
      [
        "▁العقل",
        -9.749523629068761
      ],
      [
        "▁يجد",
        -9.749983638439403
      ],
      [
        "▁القصة",
        -9.75119745484157
      ],
      [
        "ةً",
        -9.752214541569801
      ],
      [
        "▁الجوية",
        -9.752895031491565
      ],
      [
        "n",
        -9.75297723249271
      ],
      [
        "▁محكمة",
        -9.753304748702295
      ],
      [
        "▁وجد",
        -9.753356399618232
      ],
      [
        "رس",
        -9.75339484703158
      ],
      [
        "▁بعدما",
        -9.753568068019309
      ],
      [
        "▁بعضها",
        -9.75357396479291
      ],
      [
        "ِينَ",
        -9.753773345470524
      ],
      [
        "▁الأراضي",
        -9.75466897054892
      ],
      [
        "▁أحكام",
        -9.75467562631951
      ],
      [
        "▁بمدينة",
        -9.754826430949823
      ],
      [
        "▁المعارضة",
        -9.755143813147576
      ],
      [
        "▁تجربة",
        -9.755905030658603
      ],
      [
        "▁تعود",
        -9.75669700776933
      ],
      [
        "▁لديها",
        -9.757102287290046
      ],
      [
        "صب",
        -9.75730501063466
      ],
      [
        "▁استمرار",
        -9.757610177481517
      ],
      [
        "الم",
        -9.758027384530278
      ],
      [
        "▁40",
        -9.75808750512003
      ],
      [
        "▁مجلة",
        -9.759958604175452
      ],
      [
        "▁العملاء",
        -9.760064764063419
      ],
      [
        "▁الأسرة",
        -9.76095192733252
      ],
      [
        "▁الفرنسية",
        -9.761993329052856
      ],
      [
        "عد",
        -9.762063479135893
      ],
      [
        "وط",
        -9.762574037820713
      ],
      [
        "قد",
        -9.762821919079416
      ],
      [
        "▁الاهتمام",
        -9.76304504853881
      ],
      [
        "▁الإلكترونية",
        -9.76357656845892
      ],
      [
        "▁}",
        -9.763814358485654
      ],
      [
        "▁بطولة",
        -9.763980721098116
      ],
      [
        "▁المناسب",
        -9.764057448366527
      ],
      [
        "▁الأستاذ",
        -9.765306738784396
      ],
      [
        "▁مو",
        -9.765446558772007
      ],
      [
        "▁الحقيقي",
        -9.766032911548237
      ],
      [
        "▁وصلت",
        -9.766691334914388
      ],
      [
        "▁يؤكد",
        -9.766784841348617
      ],
      [
        "▁ذاته",
        -9.76722003585746
      ],
      [
        "▁مشاركة",
        -9.767234503717791
      ],
      [
        "▁المحلي",
        -9.7673180565461
      ],
      [
        "▁يحتوي",
        -9.767363165873032
      ],
      [
        "▁تقع",
        -9.767584470992333
      ],
      [
        "▁الحاجة",
        -9.768100281392298
      ],
      [
        "▁إذن",
        -9.768229117794927
      ],
      [
        "▁الرأي",
        -9.768302035104693
      ],
      [
        "▁بغداد",
        -9.768994740569873
      ],
      [
        "▁سلسلة",
        -9.769133277762396
      ],
      [
        "▁إجراءات",
        -9.769499327987308
      ],
      [
        "رق",
        -9.769609785162736
      ],
      [
        "▁النقد",
        -9.769758449679495
      ],
      [
        "▁الحرارة",
        -9.769867908228557
      ],
      [
        "▁الاجتماع",
        -9.770341891864387
      ],
      [
        "▁القراءة",
        -9.770715650468595
      ],
      [
        "▁مسلسل",
        -9.771071990137322
      ],
      [
        "▁ممارسة",
        -9.771249459937234
      ],
      [
        "بْنُ",
        -9.77222466583488
      ],
      [
        "▁النهاية",
        -9.772619613093728
      ],
      [
        "▁صغير",
        -9.773091860562864
      ],
      [
        "g",
        -9.773559681366349
      ],
      [
        "▁الإصابة",
        -9.773614051378164
      ],
      [
        "▁فيديو",
        -9.774065765136658
      ],
      [
        "▁قبول",
        -9.774280027527743
      ],
      [
        "▁نت",
        -9.77475700670319
      ],
      [
        "▁الفساد",
        -9.77517220576668
      ],
      [
        "َهُ",
        -9.77555899570659
      ],
      [
        "▁الجنسية",
        -9.776847859915879
      ],
      [
        "▁حملة",
        -9.777274187938799
      ],
      [
        "▁تسبب",
        -9.77766153607761
      ],
      [
        "▁جراء",
        -9.778031308269503
      ],
      [
        "▁دين",
        -9.779330575562682
      ],
      [
        "▁الأبيض",
        -9.779678334241423
      ],
      [
        "او",
        -9.780140809346676
      ],
      [
        "▁المطلوب",
        -9.780244347703619
      ],
      [
        "كون",
        -9.780289820847702
      ],
      [
        "▁يمثل",
        -9.78047688108327
      ],
      [
        "▁بكر",
        -9.780747469581211
      ],
      [
        "اري",
        -9.78097412881334
      ],
      [
        "▁ليلة",
        -9.781459733148601
      ],
      [
        "▁مساحة",
        -9.781463547385878
      ],
      [
        "▁الصف",
        -9.783065249447219
      ],
      [
        "▁بحق",
        -9.78339464951634
      ],
      [
        "▁أدى",
        -9.783626764652134
      ],
      [
        "نَا",
        -9.783735103196502
      ],
      [
        "▁الكاتب",
        -9.78396203729427
      ],
      [
        "▁الأهلي",
        -9.78406928526227
      ],
      [
        "▁السلام)",
        -9.784235157407224
      ],
      [
        "زي",
        -9.784373967836403
      ],
      [
        "▁رواه",
        -9.785010081105957
      ],
      [
        "▁القومي",
        -9.785153663517193
      ],
      [
        "▁ليبيا",
        -9.785316907800555
      ],
      [
        "▁كنا",
        -9.785705700534294
      ],
      [
        "▁نطاق",
        -9.78572441263156
      ],
      [
        "▁الرد",
        -9.78574830180398
      ],
      [
        "▁حفل",
        -9.78589509155604
      ],
      [
        "▁العراقية",
        -9.78657319303791
      ],
      [
        "▁وأنه",
        -9.786755690288924
      ],
      [
        "▁الد",
        -9.78758517853267
      ],
      [
        "▁الشرقية",
        -9.788007255715925
      ],
      [
        "▁معهم",
        -9.788657203432944
      ],
      [
        "▁غ",
        -9.789675379021942
      ],
      [
        "▁المدارس",
        -9.790532208398705
      ],
      [
        "▁صفحة",
        -9.790842551768876
      ],
      [
        "▁تصريحات",
        -9.79138058138301
      ],
      [
        "▁الشيء",
        -9.791480924951415
      ],
      [
        "▁تعديل",
        -9.791881879645498
      ],
      [
        "▁تعريف",
        -9.792127682424113
      ],
      [
        "▁]",
        -9.792155412368079
      ],
      [
        "▁جميل",
        -9.79227660164884
      ],
      [
        "▁الك",
        -9.793097140802235
      ],
      [
        "▁بينها",
        -9.793534839540886
      ],
      [
        "▁واضحة",
        -9.793562731921522
      ],
      [
        "▁المركزي",
        -9.794140431635729
      ],
      [
        "▁ويجب",
        -9.794149441761416
      ],
      [
        "▁أنحاء",
        -9.794234873268037
      ],
      [
        "▁الموارد",
        -9.794250362430436
      ],
      [
        "▁دائرة",
        -9.79436112431943
      ],
      [
        "▁الجلد",
        -9.794561194111937
      ],
      [
        "▁الماضية",
        -9.795429751000789
      ],
      [
        "عَ",
        -9.795465568398097
      ],
      [
        "▁يصبح",
        -9.796009986558246
      ],
      [
        "▁المواطن",
        -9.796164274958057
      ],
      [
        "▁بحاجة",
        -9.796231999728178
      ],
      [
        "▁بنفسك",
        -9.796457440422314
      ],
      [
        "▁يبلغ",
        -9.79671453830527
      ],
      [
        "▁الفلسطينيين",
        -9.796877213341562
      ],
      [
        "▁إمكانية",
        -9.797710027977027
      ],
      [
        "▁لسنة",
        -9.798180278839105
      ],
      [
        "))",
        -9.79819587412959
      ],
      [
        "▁الإسرائيلية",
        -9.798238141940349
      ],
      [
        "فتح",
        -9.798624905584564
      ],
      [
        "▁الإجراءات",
        -9.799079515390979
      ],
      [
        "▁الحرية",
        -9.799327569572691
      ],
      [
        "قت",
        -9.799736742390104
      ],
      [
        "▁آ",
        -9.800090853411017
      ],
      [
        "▁الأموال",
        -9.800154611679083
      ],
      [
        "▁الثقافية",
        -9.800902265036875
      ],
      [
        "▁الخبر",
        -9.801369759355797
      ],
      [
        "▁أحب",
        -9.801807259430044
      ],
      [
        "▁الأسهم",
        -9.802074424367941
      ],
      [
        "▁خطر",
        -9.802456762234275
      ],
      [
        "▁يستخدم",
        -9.802520897766929
      ],
      [
        "بين",
        -9.803820498419363
      ],
      [
        "عة",
        -9.80420739210949
      ],
      [
        "▁الخطاب",
        -9.804566725662609
      ],
      [
        "▁سكان",
        -9.804571964122992
      ],
      [
        "▁الكمبيوتر",
        -9.804908662380624
      ],
      [
        "▁تحتوي",
        -9.80519242625816
      ],
      [
        "▁قاعدة",
        -9.805210189461931
      ],
      [
        "▁المغربية",
        -9.80530888834742
      ],
      [
        "▁العالي",
        -9.805756744012252
      ],
      [
        "ادي",
        -9.806201946322492
      ],
      [
        "وش",
        -9.807676129381214
      ],
      [
        "▁طوال",
        -9.809098445915486
      ],
      [
        "▁للأ",
        -9.809171398335948
      ],
      [
        "▁أين",
        -9.809328428585287
      ],
      [
        "▁يحب",
        -9.809330781589864
      ],
      [
        "▁أبرز",
        -9.809484008599966
      ],
      [
        "▁سياسة",
        -9.809918234334805
      ],
      [
        "▁أشخاص",
        -9.810116067600873
      ],
      [
        "▁السن",
        -9.810268494885069
      ],
      [
        "▁المسجد",
        -9.811011136554933
      ],
      [
        "▁P",
        -9.811781388489667
      ],
      [
        "▁الأردن",
        -9.812730532708057
      ],
      [
        "▁المكتب",
        -9.813367966927741
      ],
      [
        "▁شروط",
        -9.814138416759889
      ],
      [
        "19",
        -9.814430974714035
      ],
      [
        "▁الأحمر",
        -9.814976932609644
      ],
      [
        "▁الأميركي",
        -9.815596765124713
      ],
      [
        "▁التسجيل",
        -9.81596542621638
      ],
      [
        "سير",
        -9.817897157099509
      ],
      [
        "أن",
        -9.818491370757524
      ],
      [
        "▁السيطرة",
        -9.818713977717184
      ],
      [
        "▁المثال",
        -9.819339108040282
      ],
      [
        "▁ويكون",
        -9.819413175056397
      ],
      [
        "▁المشاريع",
        -9.81989056983251
      ],
      [
        "▁بعيد",
        -9.820521012192694
      ],
      [
        "جد",
        -9.820742339488127
      ],
      [
        "▁أننا",
        -9.820912102619463
      ],
      [
        "▁القيم",
        -9.821770703648102
      ],
      [
        "▁كلما",
        -9.822871688537433
      ],
      [
        "▁يزال",
        -9.823009377279377
      ],
      [
        "▁تحسين",
        -9.823222451277081
      ],
      [
        "▁الرواية",
        -9.823308219604723
      ],
      [
        "▁مياه",
        -9.824162666977566
      ],
      [
        "رع",
        -9.824558585356137
      ],
      [
        "▁سر",
        -9.825156172866887
      ],
      [
        "▁سلمان",
        -9.825932603632761
      ],
      [
        "D",
        -9.826233481886694
      ],
      [
        "▁يجري",
        -9.826294149802376
      ],
      [
        "▁المر",
        -9.826349236755252
      ],
      [
        "▁اللبنانية",
        -9.826395977714629
      ],
      [
        "قة",
        -9.826479531306767
      ],
      [
        "▁دقائق",
        -9.826754710312933
      ],
      [
        "▁الجامعات",
        -9.828407863281774
      ],
      [
        "▁نقص",
        -9.829044642856907
      ],
      [
        "▁ذلك.",
        -9.82920083658746
      ],
      [
        "لف",
        -9.829288646624988
      ],
      [
        "▁عصر",
        -9.829588697428076
      ],
      [
        "▁يدل",
        -9.829709278359445
      ],
      [
        "▁الأجنبية",
        -9.830016490807575
      ],
      [
        "▁ومنها",
        -9.830334385863171
      ],
      [
        "▁الخارج",
        -9.8305749169143
      ],
      [
        "▁زمن",
        -9.83064875140519
      ],
      [
        "▁غرب",
        -9.833319509469828
      ],
      [
        "▁الأمراض",
        -9.833508346793884
      ],
      [
        "▁العدل",
        -9.834255633911269
      ],
      [
        "▁الجولة",
        -9.83434630577117
      ],
      [
        "▁يلي",
        -9.834479894042087
      ],
      [
        "▁تواجه",
        -9.834641075817286
      ],
      [
        "▁الطب",
        -9.835204667763517
      ],
      [
        "▁الكلية",
        -9.835369872229494
      ],
      [
        "▁الجزيرة",
        -9.83540534576117
      ],
      [
        "▁تطور",
        -9.835953943900513
      ],
      [
        "▁المقاومة",
        -9.83600962714539
      ],
      [
        "▁مدار",
        -9.836188157861443
      ],
      [
        "S",
        -9.836535511666368
      ],
      [
        "▁لغة",
        -9.836750244641657
      ],
      [
        "ـة",
        -9.836859509532285
      ],
      [
        "▁المستخدم",
        -9.83712108619497
      ],
      [
        "▁صلاح",
        -9.837386910918163
      ],
      [
        "20",
        -9.838246463887458
      ],
      [
        "▁قرب",
        -9.838883527200762
      ],
      [
        "▁الأفضل",
        -9.838945839563127
      ],
      [
        "ذا",
        -9.839790817663868
      ],
      [
        "▁أصل",
        -9.84020955695799
      ],
      [
        "▁داعش",
        -9.84119700776791
      ],
      [
        "▁الملف",
        -9.841802427747748
      ],
      [
        "▁عبدالعزيز",
        -9.842000561043607
      ],
      [
        "▁بعدها",
        -9.842253875544603
      ],
      [
        "▁قضايا",
        -9.842513791600798
      ],
      [
        "▁البر",
        -9.842531629693028
      ],
      [
        "▁متعددة",
        -9.842767585694375
      ],
      [
        "▁الأخبار",
        -9.842813906167331
      ],
      [
        "▁الحلقة",
        -9.84296919786112
      ],
      [
        "▁الأسواق",
        -9.843084120335664
      ],
      [
        "▁العاملين",
        -9.843678397782824
      ],
      [
        "▁لإ",
        -9.843812004926228
      ],
      [
        "▁العقود",
        -9.843824869638325
      ],
      [
        "مَا",
        -9.844491089238575
      ],
      [
        "▁الامر",
        -9.844654795114913
      ],
      [
        "▁قيادة",
        -9.84486651174721
      ],
      [
        "▁تعليق",
        -9.845369373036252
      ],
      [
        "▁السيسي",
        -9.845541839476093
      ],
      [
        "▁الطيران",
        -9.84555564505847
      ],
      [
        "▁الكلمة",
        -9.84650946700582
      ],
      [
        "▁إصدار",
        -9.846670462480544
      ],
      [
        "ذهب",
        -9.847248047041383
      ],
      [
        "▁بعضهم",
        -9.847377301441494
      ],
      [
        "▁زوجها",
        -9.847438506137674
      ],
      [
        "▁أحداث",
        -9.847555195413324
      ],
      [
        "er",
        -9.847959836186526
      ],
      [
        "▁وربما",
        -9.84824191626657
      ],
      [
        "▁الشاعر",
        -9.848244831665738
      ],
      [
        "▁واسعة",
        -9.848316426353435
      ],
      [
        "▁التحالف",
        -9.849027852325431
      ],
      [
        "▁الموقف",
        -9.849241923518065
      ],
      [
        "▁كبار",
        -9.849366088674202
      ],
      [
        "▁اللهم",
        -9.849433647478005
      ],
      [
        "▁بعمل",
        -9.850672184211628
      ],
      [
        "▁وست",
        -9.850699717328071
      ],
      [
        "▁لبعض",
        -9.851101875956092
      ],
      [
        "f",
        -9.85114309282931
      ],
      [
        "▁الضوء",
        -9.852032576190851
      ],
      [
        "▁M",
        -9.852319628810355
      ],
      [
        "▁الإعلان",
        -9.852540617611044
      ],
      [
        "▁الحسين",
        -9.85312900149096
      ],
      [
        "▁المقبل",
        -9.853161006015583
      ],
      [
        "o",
        -9.853712477768545
      ],
      [
        "رو",
        -9.854418638545905
      ],
      [
        "▁عما",
        -9.854790662255528
      ],
      [
        "▁يمنع",
        -9.85499040508072
      ],
      [
        "▁كله",
        -9.855466547472936
      ],
      [
        "▁الأب",
        -9.855731077809459
      ],
      [
        "▁قائد",
        -9.855735380697576
      ],
      [
        "▁القديم",
        -9.855826551305483
      ],
      [
        "ّي",
        -9.855989108335429
      ],
      [
        "▁نشاط",
        -9.856621167263537
      ],
      [
        "▁علاقات",
        -9.856720853127676
      ],
      [
        "رب",
        -9.85687783836091
      ],
      [
        "▁تؤدي",
        -9.856981226897027
      ],
      [
        "قِ",
        -9.857419487152171
      ],
      [
        "▁المعرفة",
        -9.857427229664097
      ],
      [
        "▁شباب",
        -9.857830599248661
      ],
      [
        "▁الشعبية",
        -9.857889927875473
      ],
      [
        "▁>",
        -9.85858882781858
      ],
      [
        "▁تصبح",
        -9.859003676480377
      ],
      [
        "▁طفل",
        -9.859236463465049
      ],
      [
        "▁المغربي",
        -9.859622061988695
      ],
      [
        "▁ضوء",
        -9.86081232769904
      ],
      [
        "▁جهود",
        -9.861245312264355
      ],
      [
        "▁اسمه",
        -9.861495881298817
      ],
      [
        "▁الثقافي",
        -9.861703637699335
      ],
      [
        "*",
        -9.861901428958799
      ],
      [
        "▁بخصوص",
        -9.861992128006698
      ],
      [
        "▁عسكرية",
        -9.862362501014841
      ],
      [
        "▁إي",
        -9.862540116072681
      ],
      [
        "▁الكلمات",
        -9.863424524912741
      ],
      [
        "▁الأهداف",
        -9.864013477641056
      ],
      [
        "باب",
        -9.864689643896199
      ],
      [
        "▁منتدى",
        -9.86475739104812
      ],
      [
        "▁فقال:",
        -9.864780741239276
      ],
      [
        "▁طبيعة",
        -9.865040479988753
      ],
      [
        "▁ملايين",
        -9.865531959974035
      ],
      [
        "شر",
        -9.866924362403232
      ],
      [
        "▁بعنوان",
        -9.867005959752808
      ],
      [
        "▁شاب",
        -9.86711233259221
      ],
      [
        "▁يعيش",
        -9.867169893112907
      ],
      [
        "13",
        -9.867333901310243
      ],
      [
        "▁مستقبل",
        -9.867536685618308
      ],
      [
        "▁الرسالة",
        -9.867699068398135
      ],
      [
        "▁لصالح",
        -9.86811489584467
      ],
      [
        "▁يبدأ",
        -9.868440871577198
      ],
      [
        "▁شديد",
        -9.868692783163214
      ],
      [
        "▁الصناعية",
        -9.868699417984123
      ],
      [
        "▁عربي",
        -9.868915156133074
      ],
      [
        "▁ذو",
        -9.869157312475135
      ],
      [
        "▁الغير",
        -9.86924703751994
      ],
      [
        "▁تحليل",
        -9.869330334750845
      ],
      [
        "▁سان",
        -9.869669193322393
      ],
      [
        "....",
        -9.869774802992904
      ],
      [
        "▁المسؤولية",
        -9.870067841895256
      ],
      [
        "▁وسوف",
        -9.870093053979526
      ],
      [
        "▁علماء",
        -9.870620607898903
      ],
      [
        "▁حوار",
        -9.870659841838483
      ],
      [
        "إ",
        -9.87077090633277
      ],
      [
        "▁الصراع",
        -9.870792905864114
      ],
      [
        "▁أى",
        -9.871039162852902
      ],
      [
        "k",
        -9.871167238123721
      ],
      [
        "سون",
        -9.871252190295884
      ],
      [
        "▁البيع",
        -9.871416862789946
      ],
      [
        "▁المصدر",
        -9.871434092335274
      ],
      [
        "▁اخبار",
        -9.871613729128706
      ],
      [
        "11",
        -9.871731515056371
      ],
      [
        "ّر",
        -9.871754678877217
      ],
      [
        "▁التقدم",
        -9.872330099319546
      ],
      [
        "▁الحر",
        -9.872455609863728
      ],
      [
        "▁شيئاً",
        -9.87389778496038
      ],
      [
        "▁الروسي",
        -9.874296449216505
      ],
      [
        "▁أسماء",
        -9.874480139145739
      ],
      [
        "▁طبيعي",
        -9.874840004053139
      ],
      [
        "▁وهنا",
        -9.875155336924829
      ],
      [
        "▁رائعة",
        -9.875544551156775
      ],
      [
        "▁شعر",
        -9.875891297278256
      ],
      [
        "▁البلدان",
        -9.876161786678416
      ],
      [
        "▁الهند",
        -9.876219933807231
      ],
      [
        "▁الدولار",
        -9.876254792778742
      ],
      [
        "سم",
        -9.877000776258974
      ],
      [
        "▁مست",
        -9.877309125432141
      ],
      [
        "▁القادم",
        -9.877545782565928
      ],
      [
        "▁الفرد",
        -9.877781061890541
      ],
      [
        "فَ",
        -9.877877428190548
      ],
      [
        "بس",
        -9.87806456625132
      ],
      [
        "▁المناسبة",
        -9.878542418003935
      ],
      [
        "▁صنع",
        -9.878645116808407
      ],
      [
        "▁الأن",
        -9.878700046493702
      ],
      [
        "▁الشيطان",
        -9.878727031135778
      ],
      [
        "▁القضايا",
        -9.879008503069345
      ],
      [
        "▁الخط",
        -9.87945394619765
      ],
      [
        "▁الفيلم",
        -9.879628940838463
      ],
      [
        "دور",
        -9.879964536370961
      ],
      [
        "ران",
        -9.880117655714683
      ],
      [
        "▁عاماً",
        -9.88024943773586
      ],
      [
        "▁الهواء",
        -9.881430367459899
      ],
      [
        "يز",
        -9.8818738127829
      ],
      [
        "▁خبر",
        -9.881972722130875
      ],
      [
        "دين",
        -9.882059708823263
      ],
      [
        "▁إله",
        -9.882508134877305
      ],
      [
        "صف",
        -9.882689572482949
      ],
      [
        "▁البريد",
        -9.882731974909944
      ],
      [
        "▁سطح",
        -9.882778260389482
      ],
      [
        "▁واشنطن",
        -9.882917756409157
      ],
      [
        "ولي",
        -9.883172816904038
      ],
      [
        "▁المهمة",
        -9.883316690942273
      ],
      [
        "▁تحقق",
        -9.884037483988859
      ],
      [
        "غا",
        -9.88505936580286
      ],
      [
        "▁الجودة",
        -9.885233076943205
      ],
      [
        "▁ثورة",
        -9.885809085813701
      ],
      [
        "▁ولاية",
        -9.886892174921663
      ],
      [
        "▁ظروف",
        -9.886942185196485
      ],
      [
        "▁الكرة",
        -9.88706616710068
      ],
      [
        "▁تمت",
        -9.887749786241661
      ],
      [
        "▁المائة",
        -9.887894167782417
      ],
      [
        "عيد",
        -9.888083066901228
      ],
      [
        "15",
        -9.888992261856338
      ],
      [
        "▁الجنس",
        -9.889440994670693
      ],
      [
        "▁المنتجات",
        -9.889712546059055
      ],
      [
        "▁لعام",
        -9.890241820041474
      ],
      [
        "زن",
        -9.89069267505121
      ],
      [
        "▁ناحية",
        -9.89088143196874
      ],
      [
        "▁جمعية",
        -9.891957285728463
      ],
      [
        "بار",
        -9.891965706505829
      ],
      [
        "▁قدرة",
        -9.89244860536694
      ],
      [
        "▁خيار",
        -9.892734736503428
      ],
      [
        "▁شهدت",
        -9.892945572574467
      ],
      [
        "▁لِ",
        -9.893012729441164
      ],
      [
        "▁دم",
        -9.893360109782542
      ],
      [
        "▁منتخب",
        -9.893616811701651
      ],
      [
        "▁أطفال",
        -9.893618709795591
      ],
      [
        "▁القادمة",
        -9.893670847752986
      ],
      [
        "▁طويل",
        -9.894156806657211
      ],
      [
        "▁وإلى",
        -9.895209411191978
      ],
      [
        "▁قواعد",
        -9.895672504754184
      ],
      [
        "▁الرب",
        -9.896315094147225
      ],
      [
        "▁يوما",
        -9.89716624132289
      ],
      [
        "▁بنفس",
        -9.898086085832642
      ],
      [
        "بعد",
        -9.898143819693368
      ],
      [
        "▁إقامة",
        -9.89819442391187
      ],
      [
        "▁عاما",
        -9.898347864403046
      ],
      [
        "▁القاعدة",
        -9.898636236609427
      ],
      [
        "▁مس",
        -9.898989427704684
      ],
      [
        "▁الحفاظ",
        -9.899425365835839
      ],
      [
        "▁دعا",
        -9.899541005960742
      ],
      [
        "▁برج",
        -9.8999561842767
      ],
      [
        "▁مثلا",
        -9.900284716724865
      ],
      [
        "▁المصريين",
        -9.900303364280369
      ],
      [
        "انية",
        -9.900337872106133
      ],
      [
        "▁الغذائية",
        -9.90051863225803
      ],
      [
        "▁تزال",
        -9.90075271687863
      ],
      [
        "▁النمو",
        -9.901421319033819
      ],
      [
        "نج",
        -9.901658062199477
      ],
      [
        "▁توزيع",
        -9.901855185295222
      ],
      [
        "▁البنوك",
        -9.902447936809892
      ],
      [
        "▁شبه",
        -9.902479810867458
      ],
      [
        "وري",
        -9.902736279978477
      ],
      [
        "▁الموافق",
        -9.9031319095754
      ],
      [
        "▁للا",
        -9.903610899009482
      ],
      [
        "▁%",
        -9.904780627659797
      ],
      [
        "▁مطار",
        -9.904930960038469
      ],
      [
        "▁القوانين",
        -9.905365759002908
      ],
      [
        "▁مؤسسات",
        -9.905961731002886
      ],
      [
        "▁الاولى",
        -9.905963655659878
      ],
      [
        "▁حينما",
        -9.906019166518181
      ],
      [
        "▁إنسان",
        -9.90612650427623
      ],
      [
        "وح",
        -9.906202023953307
      ],
      [
        "▁تل",
        -9.906732601968091
      ],
      [
        "▁مشاريع",
        -9.906770488607703
      ],
      [
        "▁إما",
        -9.906791824697425
      ],
      [
        "▁سعود",
        -9.907136588619725
      ],
      [
        "▁بلغت",
        -9.907182292342199
      ],
      [
        "L",
        -9.907189368097672
      ],
      [
        "▁الأكبر",
        -9.90836342143892
      ],
      [
        "▁مستويات",
        -9.90836627781436
      ],
      [
        "▁أسبوع",
        -9.908504995395258
      ],
      [
        "▁الثلاثة",
        -9.909042697569225
      ],
      [
        "▁اللاجئين",
        -9.909284906573234
      ],
      [
        "▁انتشار",
        -9.909447366499446
      ],
      [
        "_ال",
        -9.909816734316255
      ],
      [
        "طف",
        -9.910750982054704
      ],
      [
        "▁معرض",
        -9.910868138210152
      ],
      [
        "▁الامام",
        -9.910942836030554
      ],
      [
        "▁يشعر",
        -9.911001160015704
      ],
      [
        "▁أخرى،",
        -9.911036091042014
      ],
      [
        "▁مالك",
        -9.911069647247604
      ],
      [
        "▁يقول:",
        -9.911255361632096
      ],
      [
        "▁قمت",
        -9.911718536430968
      ],
      [
        "▁تقدير",
        -9.911975277691415
      ],
      [
        "▁دائماً",
        -9.912318848575676
      ],
      [
        "رف",
        -9.91290563632522
      ],
      [
        "▁الخروج",
        -9.914522540877073
      ],
      [
        "▁ووضع",
        -9.91461955487443
      ],
      [
        "▁الأمين",
        -9.91509739176482
      ],
      [
        "▁الملفات",
        -9.915317077320543
      ],
      [
        "▁موجود",
        -9.91542668180266
      ],
      [
        "▁فوائد",
        -9.915605030183816
      ],
      [
        "▁التركيز",
        -9.916747903569075
      ],
      [
        "ريد",
        -9.916986903851548
      ],
      [
        "▁تراجع",
        -9.917074365639309
      ],
      [
        "بال",
        -9.917158389408645
      ],
      [
        "وفي",
        -9.91782897706591
      ],
      [
        "▁غياب",
        -9.918198377942083
      ],
      [
        "▁6-",
        -9.918308507323943
      ],
      [
        "▁المتوسط",
        -9.918449319726523
      ],
      [
        "▁التنظيم",
        -9.918540112458729
      ],
      [
        "ويل",
        -9.919019245721184
      ],
      [
        "▁يخرج",
        -9.919456382048395
      ],
      [
        "▁الجنوب",
        -9.919481555836743
      ],
      [
        "▁التعبير",
        -9.92003122596977
      ],
      [
        "▁اتحاد",
        -9.920140279026006
      ],
      [
        "▁تجمع",
        -9.920163457908211
      ],
      [
        "▁وحده",
        -9.920776657304032
      ],
      [
        "▁ذوي",
        -9.920792869958873
      ],
      [
        "▁الثقة",
        -9.921155464314722
      ],
      [
        "].",
        -9.921216927649262
      ],
      [
        "▁أمور",
        -9.922072116253647
      ],
      [
        "▁لَهُ",
        -9.922761264007162
      ],
      [
        "دُ",
        -9.923272197779184
      ],
      [
        "▁تزيد",
        -9.92357780964861
      ],
      [
        "▁مناسبة",
        -9.923850741755896
      ],
      [
        "▁التشغيل",
        -9.923879553959969
      ],
      [
        "▁الداخلي",
        -9.924116068857588
      ],
      [
        "▁السكان",
        -9.924481163389734
      ],
      [
        "▁مسألة",
        -9.924669036935082
      ],
      [
        "▁ضغط",
        -9.925138776917576
      ],
      [
        "▁حفظ",
        -9.925884745272995
      ],
      [
        "▁تحصل",
        -9.926261880389804
      ],
      [
        "▁فشل",
        -9.926783070999083
      ],
      [
        "▁ويُ",
        -9.926792192758409
      ],
      [
        "▁العمومية",
        -9.92687245611086
      ],
      [
        "▁الأسعار",
        -9.927039058876515
      ],
      [
        "▁شكرا",
        -9.927456662557095
      ],
      [
        "▁شيخ",
        -9.927502076648434
      ],
      [
        "▁بمناسبة",
        -9.927728043640478
      ],
      [
        "▁المهني",
        -9.928205562983225
      ],
      [
        "▁رأي",
        -9.928368585886801
      ],
      [
        "▁الاسم",
        -9.929453673855848
      ],
      [
        "▁التحقيق",
        -9.929726710407703
      ],
      [
        "عود",
        -9.929775556108329
      ],
      [
        "▁الأطراف",
        -9.92990429892998
      ],
      [
        "▁الإيراني",
        -9.930439926815103
      ],
      [
        "▁الشريف",
        -9.931197428412593
      ],
      [
        "▁الروسية",
        -9.93172551842677
      ],
      [
        "▁الأصلية",
        -9.932460823123257
      ],
      [
        "▁الأساسي",
        -9.93260185252171
      ],
      [
        "▁بسهولة",
        -9.933021683591955
      ],
      [
        "▁أنفسهم",
        -9.933023001875469
      ],
      [
        "▁مدرسة",
        -9.933053146546635
      ],
      [
        "▁اللَّهَ",
        -9.933336167641443
      ],
      [
        "▁تمكن",
        -9.933531421570233
      ],
      [
        "▁أراد",
        -9.93379682860509
      ],
      [
        "▁مَ",
        -9.933887316764173
      ],
      [
        "▁تعيش",
        -9.934304760230072
      ],
      [
        "▁روح",
        -9.934719971980837
      ],
      [
        "▁الارض",
        -9.934908437491178
      ],
      [
        "▁الملكي",
        -9.935029003854922
      ],
      [
        "▁أحدث",
        -9.935148113733124
      ],
      [
        "▁قرارات",
        -9.935794690289839
      ],
      [
        "▁وبعض",
        -9.935848126685446
      ],
      [
        "▁السجن",
        -9.93588769327679
      ],
      [
        "▁الكهرباء",
        -9.936054285506657
      ],
      [
        "▁تنمية",
        -9.937101655741213
      ],
      [
        "▁أخي",
        -9.937110931740644
      ],
      [
        "▁الرابعة",
        -9.937937070119872
      ],
      [
        "▁سَ",
        -9.938197154755866
      ],
      [
        "كان",
        -9.938861474522211
      ],
      [
        "▁النشاط",
        -9.939271174187756
      ],
      [
        "▁وابن",
        -9.939477967105791
      ],
      [
        "▁تقل",
        -9.939602021887001
      ],
      [
        "وج",
        -9.940118000352111
      ],
      [
        "▁المصادر",
        -9.940443755924075
      ],
      [
        "▁الطائرة",
        -9.940961198110488
      ],
      [
        "▁أزمة",
        -9.94128837754478
      ],
      [
        "▁الفوز",
        -9.94151006738854
      ],
      [
        "إِذَا",
        -9.941555389894175
      ],
      [
        "▁عرف",
        -9.942271424771592
      ],
      [
        "▁الزوج",
        -9.942285265754599
      ],
      [
        "▁قليل",
        -9.942729098844683
      ],
      [
        "▁جل",
        -9.942888029481031
      ],
      [
        "▁ثانية",
        -9.943590205237491
      ],
      [
        "▁اللون",
        -9.943646853283784
      ],
      [
        "▁ولكنها",
        -9.943963238957597
      ],
      [
        "رج",
        -9.944620443215022
      ],
      [
        "▁الثانوية",
        -9.944719309869651
      ],
      [
        "▁الز",
        -9.945074059297127
      ],
      [
        "▁النفسية",
        -9.94508685331369
      ],
      [
        "50",
        -9.945938757963459
      ],
      [
        "▁لندن",
        -9.946242858416719
      ],
      [
        "غل",
        -9.946680951386405
      ],
      [
        "P",
        -9.946978358504197
      ],
      [
        "▁تعتمد",
        -9.947223518271425
      ],
      [
        "▁D",
        -9.947478689316739
      ],
      [
        "قدم",
        -9.94749771018197
      ],
      [
        "▁الأداء",
        -9.947501805552832
      ],
      [
        "▁وذكر",
        -9.947531753998328
      ],
      [
        "▁مصطفى",
        -9.947602545332076
      ],
      [
        "▁التحرير",
        -9.948159026170853
      ],
      [
        "▁سيد",
        -9.948264348661679
      ],
      [
        "▁النائب",
        -9.949849408816156
      ],
      [
        "▁تبقى",
        -9.950079384035474
      ],
      [
        "▁بعدم",
        -9.950456497855164
      ],
      [
        "▁خطوة",
        -9.950495541953664
      ],
      [
        "A",
        -9.950500595733619
      ],
      [
        "▁يبقى",
        -9.950818890718022
      ],
      [
        "▁فرق",
        -9.95087331367615
      ],
      [
        "▁تحول",
        -9.951239761180279
      ],
      [
        "غير",
        -9.951427556321667
      ],
      [
        "▁تست",
        -9.95146678250056
      ],
      [
        "▁الحالية",
        -9.951982068170722
      ],
      [
        "▁أقول",
        -9.952354975363745
      ],
      [
        "▁حياتك",
        -9.952562370448543
      ],
      [
        "▁الغاز",
        -9.952574907432188
      ],
      [
        "حد",
        -9.952628609985311
      ],
      [
        "▁أربع",
        -9.953113197639551
      ],
      [
        "▁التاريخية",
        -9.953565241714415
      ],
      [
        "▁لحقوق",
        -9.953659311435256
      ],
      [
        "▁الرياضية",
        -9.953755965909236
      ],
      [
        "▁الوزن",
        -9.953763006766923
      ],
      [
        "نس",
        -9.954468847757262
      ],
      [
        "▁الحديد",
        -9.954549052281182
      ],
      [
        "▁وعند",
        -9.954885048875706
      ],
      [
        "▁للغاية",
        -9.955058927672809
      ],
      [
        "▁اللعبة",
        -9.955532676648122
      ],
      [
        "▁مواطن",
        -9.955615169595756
      ],
      [
        "▁انتهاء",
        -9.955961266213937
      ],
      [
        "▁بنت",
        -9.956615687419536
      ],
      [
        "18",
        -9.95759940948008
      ],
      [
        "▁العدو",
        -9.957661557912783
      ],
      [
        "▁بينهما",
        -9.957926250991418
      ],
      [
        "▁خيارات",
        -9.959133936140628
      ],
      [
        "رات",
        -9.959208568558012
      ],
      [
        "▁الكشف",
        -9.959286358760409
      ],
      [
        "▁الجماعة",
        -9.95973542162601
      ],
      [
        "▁العناصر",
        -9.961572981420215
      ],
      [
        "▁الدراسي",
        -9.961654267012257
      ],
      [
        "▁استراتيجية",
        -9.962630664601356
      ],
      [
        "▁المسلم",
        -9.96304091863292
      ],
      [
        "دت",
        -9.963411482519152
      ],
      [
        "▁السياحة",
        -9.963422132615726
      ],
      [
        "▁وش",
        -9.96362255547665
      ],
      [
        "▁كَانَ",
        -9.963647135034652
      ],
      [
        "▁المس",
        -9.963657543138998
      ],
      [
        "▁متى",
        -9.963782347395837
      ],
      [
        "▁E",
        -9.96440161002492
      ],
      [
        "▁وكما",
        -9.964404582449127
      ],
      [
        "َةِ",
        -9.96440732990133
      ],
      [
        "▁رواية",
        -9.964934885406418
      ],
      [
        "▁بو",
        -9.965496251910519
      ],
      [
        "re",
        -9.965794395220861
      ],
      [
        "▁تر",
        -9.965854934340616
      ],
      [
        "▁القرارات",
        -9.965870905138846
      ],
      [
        "▁طرح",
        -9.967877110279058
      ],
      [
        "على",
        -9.968576899675487
      ],
      [
        "▁ولهذا",
        -9.968867811307494
      ],
      [
        "▁كمية",
        -9.968956726816078
      ],
      [
        "▁الكامل",
        -9.96954502057714
      ],
      [
        "▁الهلال",
        -9.969805319076762
      ],
      [
        "▁يسمى",
        -9.969856221856254
      ],
      [
        "25",
        -9.969874001578713
      ],
      [
        "▁فكان",
        -9.97011919568677
      ],
      [
        "▁مسؤول",
        -9.970275874929717
      ],
      [
        "▁كتابه",
        -9.970311541823877
      ],
      [
        "هو",
        -9.970540460888515
      ],
      [
        "▁مراكز",
        -9.970781366824824
      ],
      [
        "▁مؤشر",
        -9.971627344388232
      ],
      [
        "عبد",
        -9.97202321182986
      ],
      [
        "▁بمعنى",
        -9.972054912869506
      ],
      [
        "▁احمد",
        -9.97217651768425
      ],
      [
        "▁الر",
        -9.972660923477475
      ],
      [
        "▁بريطانيا",
        -9.972958547830842
      ],
      [
        "▁متابعة",
        -9.9731314159983
      ],
      [
        "▁بقوة",
        -9.97393193712216
      ],
      [
        "بط",
        -9.974033510133577
      ],
      [
        "▁ثنائي",
        -9.974408034238845
      ],
      [
        "تني",
        -9.97526312705373
      ],
      [
        "▁اللبناني",
        -9.975296279550449
      ],
      [
        "▁تغير",
        -9.976350123349114
      ],
      [
        "▁أريد",
        -9.976395080427274
      ],
      [
        "▁الجنوبية",
        -9.97711097788315
      ],
      [
        "▁معدل",
        -9.977755232681334
      ],
      [
        "وني",
        -9.97872676354188
      ],
      [
        "▁تدريب",
        -9.979251012733474
      ],
      [
        "▁عمله",
        -9.980716609984636
      ],
      [
        "▁عَلَيْهِ",
        -9.98113348339939
      ],
      [
        "▁البريطانية",
        -9.981167639101681
      ],
      [
        "آل",
        -9.98139570533693
      ],
      [
        "▁الطلبة",
        -9.982820593063144
      ],
      [
        "▁تخرج",
        -9.983103678344253
      ],
      [
        "لك",
        -9.983378670497054
      ],
      [
        "▁دعوة",
        -9.983806419960882
      ],
      [
        "▁التركية",
        -9.984337064632216
      ],
      [
        "▁بفضل",
        -9.98480447225926
      ],
      [
        "▁الأساس",
        -9.985025824028863
      ],
      [
        "▁F",
        -9.985666054898848
      ],
      [
        "▁هجوم",
        -9.986236114716743
      ],
      [
        "▁الانقلاب",
        -9.98629545069516
      ],
      [
        "▁عودة",
        -9.986629486362052
      ],
      [
        "▁إرسال",
        -9.986753915711365
      ],
      [
        "▁﴿",
        -9.987036214612385
      ],
      [
        "ُهُ",
        -9.987294378248503
      ],
      [
        "▁النهائي",
        -9.987551458698738
      ],
      [
        "▁المع",
        -9.98829827710771
      ],
      [
        "):",
        -9.98835698340672
      ],
      [
        "▁قليلة",
        -9.98840240526625
      ],
      [
        "▁الدعوة",
        -9.988697234136959
      ],
      [
        "مِ",
        -9.98871429574443
      ],
      [
        "▁مبلغ",
        -9.990020851443251
      ],
      [
        "▁الس",
        -9.990891424367602
      ],
      [
        "▁الصدر",
        -9.990957195289809
      ],
      [
        "B",
        -9.991420341414063
      ],
      [
        "▁السابع",
        -9.992778073372524
      ],
      [
        "▁العالم،",
        -9.993412452824966
      ],
      [
        "▁لدي",
        -9.99348927074805
      ],
      [
        "▁مباريات",
        -9.993725129454601
      ],
      [
        "▁الفوركس",
        -9.994321574687264
      ],
      [
        "▁(أ",
        -9.995457742704321
      ],
      [
        "▁لَا",
        -9.995732608104799
      ],
      [
        "▁المقال",
        -9.995807115742036
      ],
      [
        "▁آثار",
        -9.996106397271213
      ],
      [
        "▁شأن",
        -9.996435984995255
      ],
      [
        "▁المهدي",
        -9.996687817565125
      ],
      [
        "▁يوميا",
        -9.997604508540466
      ],
      [
        "▁صندوق",
        -9.99772997927058
      ],
      [
        "▁جو",
        -9.99854657741843
      ],
      [
        "▁ذهب",
        -9.998616724508157
      ],
      [
        "▁يعتمد",
        -9.999054734991812
      ],
      [
        "▁مراحل",
        -9.999491790758269
      ],
      [
        "▁الكتابة",
        -9.99952561888314
      ],
      [
        "رد",
        -10.000268719326959
      ],
      [
        "▁تعليم",
        -10.000342318004382
      ],
      [
        "▁الشاب",
        -10.000374719334864
      ],
      [
        "غر",
        -10.000754143037877
      ],
      [
        "▁أغلب",
        -10.00076152487432
      ],
      [
        "▁الغ",
        -10.000859916048155
      ],
      [
        "▁اسرائيل",
        -10.001245984493819
      ],
      [
        "▁يقل",
        -10.001308963240175
      ],
      [
        "ثم",
        -10.001840844839442
      ],
      [
        "زل",
        -10.003662942507393
      ],
      [
        "▁سقوط",
        -10.00385522778802
      ],
      [
        "▁آخرين",
        -10.004077452517192
      ],
      [
        "▁بنك",
        -10.004928089867619
      ],
      [
        "▁زيت",
        -10.005137800014438
      ],
      [
        "ولا",
        -10.005445393228836
      ],
      [
        "▁وع",
        -10.005557577657703
      ],
      [
        "▁الأصل",
        -10.006091654846196
      ],
      [
        "▁تعني",
        -10.006905211732512
      ],
      [
        "▁لحظة",
        -10.007080197855498
      ],
      [
        "in",
        -10.007331678183899
      ],
      [
        "ده",
        -10.007831241327743
      ],
      [
        "عرف",
        -10.0078902165581
      ],
      [
        "فور",
        -10.008396415407857
      ],
      [
        "بع",
        -10.008799754706246
      ],
      [
        "قَ",
        -10.008924818174446
      ],
      [
        "▁بالعمل",
        -10.009587400801262
      ],
      [
        "▁تجاوز",
        -10.010893702300294
      ],
      [
        "عين",
        -10.010913944651334
      ],
      [
        "▁الجو",
        -10.011118634083768
      ],
      [
        "ائية",
        -10.01124284523896
      ],
      [
        "▁انخفاض",
        -10.0123667397021
      ],
      [
        "▁حماس",
        -10.012516448545984
      ],
      [
        "راق",
        -10.012659171847673
      ],
      [
        "▁وفاة",
        -10.01276958444426
      ],
      [
        "▁تشمل",
        -10.013372762609226
      ],
      [
        "▁يدعو",
        -10.013639952497499
      ],
      [
        "▁الدار",
        -10.01367183610801
      ],
      [
        "سَ",
        -10.013741756085142
      ],
      [
        "▁والع",
        -10.013851309684775
      ],
      [
        "▁جائزة",
        -10.014082075334201
      ],
      [
        "▁جلسة",
        -10.014203040282224
      ],
      [
        "▁التنفيذ",
        -10.014203195108461
      ],
      [
        "▁الشعور",
        -10.014428101055934
      ],
      [
        "▁تشعر",
        -10.01459864115879
      ],
      [
        "▁اللاعب",
        -10.015370764002256
      ],
      [
        "▁جيدا",
        -10.015577779683547
      ],
      [
        "ing",
        -10.015625478842427
      ],
      [
        "▁مالية",
        -10.015657721914001
      ],
      [
        "▁المطلوبة",
        -10.015712812585274
      ],
      [
        "▁فضل",
        -10.016566741450522
      ],
      [
        "▁أمين",
        -10.016768227925557
      ],
      [
        "▁وجهة",
        -10.016870441794733
      ],
      [
        "▁الحج",
        -10.01693156002585
      ],
      [
        "▁الأخ",
        -10.017078751655836
      ],
      [
        "▁تشرين",
        -10.017350983434492
      ],
      [
        "بن",
        -10.017511072854326
      ],
      [
        "دفع",
        -10.017850999563521
      ],
      [
        "ّل",
        -10.01806042625374
      ],
      [
        "F",
        -10.018347652912365
      ],
      [
        "ِي",
        -10.01853649643172
      ],
      [
        "▁الصادر",
        -10.018582631681564
      ],
      [
        "عل",
        -10.018603373471155
      ],
      [
        "▁الملكية",
        -10.018778580690363
      ],
      [
        "▁صدق",
        -10.01938792268092
      ],
      [
        "h",
        -10.020717716345843
      ],
      [
        "وفى",
        -10.02101722471744
      ],
      [
        "▁تش",
        -10.02169105021516
      ],
      [
        "▁تع",
        -10.022901672049711
      ],
      [
        "▁العائلة",
        -10.022961735486154
      ],
      [
        "▁الأفكار",
        -10.023120734996972
      ],
      [
        "▁سليمان",
        -10.023560318946014
      ],
      [
        "▁بنا",
        -10.024091990014092
      ],
      [
        "▁المجالات",
        -10.024308910280102
      ],
      [
        "C",
        -10.02452093940344
      ],
      [
        "▁الصحي",
        -10.024604433930673
      ],
      [
        "▁ايران",
        -10.026053665320667
      ],
      [
        "صور",
        -10.026073619522238
      ],
      [
        "تى",
        -10.02641696663186
      ],
      [
        "▁قوي",
        -10.02685187777433
      ],
      [
        "ّا",
        -10.02686316578756
      ],
      [
        "إن",
        -10.027080428160449
      ],
      [
        "▁تشكل",
        -10.027144275328094
      ],
      [
        "قي",
        -10.027449677732243
      ],
      [
        "▁تسمح",
        -10.027989253133057
      ],
      [
        "▁الروح",
        -10.028482072880614
      ],
      [
        "▁الالتزام",
        -10.028531007606352
      ],
      [
        "▁الشعوب",
        -10.028582343699634
      ],
      [
        "▁أعلم",
        -10.028843437214789
      ],
      [
        "▁ورغم",
        -10.028874835268173
      ],
      [
        "▁وظيفة",
        -10.028903259095298
      ],
      [
        "▁القيمة",
        -10.029378338398333
      ],
      [
        "▁سلام",
        -10.030017338585195
      ],
      [
        "▁منتصف",
        -10.030064779235314
      ],
      [
        "▁جودة",
        -10.03013434428496
      ],
      [
        "▁ضبط",
        -10.03028524090228
      ],
      [
        "سب",
        -10.030360415818535
      ],
      [
        "▁وسيلة",
        -10.03051536600736
      ],
      [
        "▁المقدمة",
        -10.030577903578003
      ],
      [
        "عن",
        -10.030695289986804
      ],
      [
        ";",
        -10.030788112019978
      ],
      [
        "▁(م",
        -10.031160032003928
      ],
      [
        "▁جميعا",
        -10.032074498328782
      ],
      [
        "▁خطاب",
        -10.032807228138616
      ],
      [
        "▁عاد",
        -10.033334811701845
      ],
      [
        "٪",
        -10.033897286427537
      ],
      [
        "▁نرى",
        -10.034501612216305
      ],
      [
        "▁المستشفى",
        -10.034550552143108
      ],
      [
        "▁الاتصالات",
        -10.034797379363637
      ],
      [
        "▁القاضي",
        -10.035007018645057
      ],
      [
        "▁المست",
        -10.035240937532935
      ],
      [
        "▁يملك",
        -10.035668521045778
      ],
      [
        "▁الكنيسة",
        -10.036041586722005
      ],
      [
        "r",
        -10.03646867812294
      ],
      [
        "▁الأحيان",
        -10.037221165354481
      ],
      [
        "▁وقبل",
        -10.03742250315813
      ],
      [
        "لين",
        -10.037539502046863
      ],
      [
        "m",
        -10.03781314499727
      ],
      [
        "كار",
        -10.038575724645302
      ],
      [
        "▁نهائي",
        -10.038843452763981
      ],
      [
        "دق",
        -10.039060059748316
      ],
      [
        "▁تو",
        -10.039185351439613
      ],
      [
        "▁المباشر",
        -10.039817200893879
      ],
      [
        "ک",
        -10.040031554016913
      ],
      [
        "▁تقييم",
        -10.04060103230428
      ],
      [
        "بول",
        -10.04065219618126
      ],
      [
        "▁الجن",
        -10.04121422451339
      ],
      [
        "▁الهجوم",
        -10.041478899015598
      ],
      [
        "▁فتاة",
        -10.042062465220713
      ],
      [
        "▁ملفات",
        -10.042193610957352
      ],
      [
        "▁تعلن",
        -10.042433359699444
      ],
      [
        "حص",
        -10.04260072943192
      ],
      [
        "▁تماماً",
        -10.042816917779332
      ],
      [
        "30",
        -10.04305619715418
      ],
      [
        "▁رسم",
        -10.043195085336883
      ],
      [
        "en",
        -10.043529472568945
      ],
      [
        "▁ظاهرة",
        -10.043655046773587
      ],
      [
        "▁قريب",
        -10.044071970839253
      ],
      [
        "تْ",
        -10.0452085286746
      ],
      [
        "ًّا",
        -10.04559086294981
      ],
      [
        "le",
        -10.045672241839252
      ],
      [
        "▁عمان",
        -10.045752167951921
      ],
      [
        "▁ثاني",
        -10.045823316199034
      ],
      [
        "▁التركي",
        -10.045925150650065
      ],
      [
        "رون",
        -10.047230194385008
      ],
      [
        "نية",
        -10.04745264240083
      ],
      [
        "▁أفريقيا",
        -10.047601466059996
      ],
      [
        "▁خطوات",
        -10.047690817569439
      ],
      [
        "▁مستشفى",
        -10.047925178427146
      ],
      [
        "▁3.",
        -10.047974465055987
      ],
      [
        "▁توقيع",
        -10.048668942462829
      ],
      [
        "▁وأكثر",
        -10.048885009169918
      ],
      [
        "▁\"أ",
        -10.04923377932921
      ],
      [
        "▁يأخذ",
        -10.049272404130168
      ],
      [
        "▁شر",
        -10.049548132210795
      ],
      [
        "غي",
        -10.049733944367649
      ],
      [
        "▁سلم",
        -10.050254337310385
      ],
      [
        "▁المرضى",
        -10.050478533279076
      ],
      [
        "▁خصوصا",
        -10.050555787955226
      ],
      [
        "▁الشريعة",
        -10.050593058982802
      ],
      [
        "فاق",
        -10.05070318566819
      ],
      [
        "جا",
        -10.050807272575987
      ],
      [
        "ar",
        -10.050838098025114
      ],
      [
        "▁ألمانيا",
        -10.050959204753799
      ],
      [
        "َيْ",
        -10.051100964430326
      ],
      [
        "▁أشكال",
        -10.051193895870519
      ],
      [
        "▁يضع",
        -10.051512289086865
      ],
      [
        "▁أمل",
        -10.051545064974128
      ],
      [
        "▁ولقد",
        -10.051582964897907
      ],
      [
        "▁اس",
        -10.051706974373456
      ],
      [
        "▁ترتيب",
        -10.05202859018928
      ],
      [
        "or",
        -10.052745102330004
      ],
      [
        "▁تحب",
        -10.05280140390105
      ],
      [
        "▁تختلف",
        -10.053229457195823
      ],
      [
        "▁تتعلق",
        -10.053274328026825
      ],
      [
        "ملك",
        -10.053478306261184
      ],
      [
        "مت",
        -10.053846128937938
      ],
      [
        "▁للجميع",
        -10.054433636858219
      ],
      [
        "نَّ",
        -10.05443644685813
      ],
      [
        "▁الأفراد",
        -10.05479557201326
      ],
      [
        "▁الفرصة",
        -10.055026852877171
      ],
      [
        "▁الأوروبية",
        -10.055418938852561
      ],
      [
        "▁رأى",
        -10.055609582054663
      ],
      [
        "▁العالم.",
        -10.055778341587938
      ],
      [
        "▁06",
        -10.056490499186872
      ],
      [
        "an",
        -10.05714388259807
      ],
      [
        "▁المقرر",
        -10.057696106013308
      ],
      [
        "وات",
        -10.057806872925246
      ],
      [
        "▁الداخل",
        -10.057879524919965
      ],
      [
        "▁زوجته",
        -10.058420230918664
      ],
      [
        "▁تأخذ",
        -10.059006786150569
      ],
      [
        "▁خطأ",
        -10.059106817529468
      ],
      [
        "سو",
        -10.059125117540725
      ],
      [
        "▁بكثير",
        -10.059397241196184
      ],
      [
        "▁يشكل",
        -10.059569546539725
      ],
      [
        "▁اهتمام",
        -10.05984412628645
      ],
      [
        "▁المتحدث",
        -10.059881323738347
      ],
      [
        "ارة",
        -10.060048244445419
      ],
      [
        "▁المخدرات",
        -10.062674890836211
      ],
      [
        "ّه",
        -10.062711511679778
      ],
      [
        "▁المرة",
        -10.06279974260801
      ],
      [
        "▁القبض",
        -10.062837425894896
      ],
      [
        "▁عمرو",
        -10.06319664995782
      ],
      [
        "▁الشديد",
        -10.063588136867326
      ],
      [
        "ستر",
        -10.06412716369146
      ],
      [
        "ة\"",
        -10.064167543957689
      ],
      [
        "▁الشارع",
        -10.064262203969204
      ],
      [
        "▁المعروف",
        -10.064614499662909
      ],
      [
        "▁استخدم",
        -10.065014240181034
      ],
      [
        "جال",
        -10.06526595620404
      ],
      [
        "▁المعنى",
        -10.065460019870212
      ],
      [
        "▁اليه",
        -10.066577576616318
      ],
      [
        "▁الدرجة",
        -10.067106657729337
      ],
      [
        "▁الاسلامية",
        -10.067293639449261
      ],
      [
        "▁الموظفين",
        -10.067297653452371
      ],
      [
        "▁H",
        -10.067307311924981
      ],
      [
        "▁وأما",
        -10.067433183840986
      ],
      [
        "▁تس",
        -10.06769475684916
      ],
      [
        "▁بجانب",
        -10.067947722806256
      ],
      [
        "▁شارك",
        -10.068040000278259
      ],
      [
        "▁تذكر",
        -10.06805695850838
      ],
      [
        "شكل",
        -10.06836677439282
      ],
      [
        "▁أنني",
        -10.068393563203179
      ],
      [
        "▁مصلحة",
        -10.068475928647455
      ],
      [
        "طي",
        -10.068974864078399
      ],
      [
        "▁ببعض",
        -10.069383251575086
      ],
      [
        "▁التخطيط",
        -10.069458525679464
      ],
      [
        "▁الدقيقة",
        -10.06963453969107
      ],
      [
        "▁الرقم",
        -10.069771059260859
      ],
      [
        "▁هاتف",
        -10.069852218810116
      ],
      [
        "لات",
        -10.070191294275553
      ],
      [
        "▁يعاني",
        -10.070463668416224
      ],
      [
        "▁نصر",
        -10.07074873021647
      ],
      [
        "▁أنّه",
        -10.070757042194536
      ],
      [
        "فض",
        -10.07083774416871
      ],
      [
        "▁تأسيس",
        -10.070899946721948
      ],
      [
        "▁لأول",
        -10.071219867044071
      ],
      [
        "بْنِ",
        -10.071679960922962
      ],
      [
        "لَّ",
        -10.071683938231484
      ],
      [
        "▁بر",
        -10.072178084795883
      ],
      [
        "▁جميلة",
        -10.07245509515112
      ],
      [
        "▁مزيد",
        -10.072560694010921
      ],
      [
        "▁عقود",
        -10.072665378336346
      ],
      [
        "▁طائرة",
        -10.072840533127717
      ],
      [
        "▁بلاد",
        -10.073122834273274
      ],
      [
        "َتْ",
        -10.073473982683192
      ],
      [
        "جة",
        -10.07405804813781
      ],
      [
        "▁نُ",
        -10.074067061731
      ],
      [
        "▁صديق",
        -10.074433009536321
      ],
      [
        "يوم",
        -10.074550005702932
      ],
      [
        "طو",
        -10.074844139941243
      ],
      [
        "▁تعاني",
        -10.075018033685947
      ],
      [
        "▁يتطلب",
        -10.075110006328817
      ],
      [
        "▁برشلونة",
        -10.075484181709214
      ],
      [
        "▁خادم",
        -10.076892830296064
      ],
      [
        "▁الحرة",
        -10.076971722685403
      ],
      [
        "فرد",
        -10.077034142846564
      ],
      [
        "▁ذكرت",
        -10.077217639962281
      ],
      [
        "▁أبطال",
        -10.077456213175541
      ],
      [
        "17",
        -10.077502679942349
      ],
      [
        "▁ينظر",
        -10.077545527415367
      ],
      [
        "لق",
        -10.077571481162042
      ],
      [
        "▁الكون",
        -10.078019375724173
      ],
      [
        "▁حتي",
        -10.078340005195141
      ],
      [
        "▁قمة",
        -10.078620665199011
      ],
      [
        "▁يخص",
        -10.078866328242793
      ],
      [
        "▁العمال",
        -10.078897819753283
      ],
      [
        "▁وفقاً",
        -10.078921584259211
      ],
      [
        "قص",
        -10.079080395120283
      ],
      [
        "▁تشير",
        -10.079396372183151
      ],
      [
        "▁بالرياض",
        -10.079482218585085
      ],
      [
        "▁سمعت",
        -10.07954282860335
      ],
      [
        "▁عنهم",
        -10.07977961586905
      ],
      [
        "▁واسع",
        -10.079817094095961
      ],
      [
        "مار",
        -10.08025365990777
      ],
      [
        "▁أخرى.",
        -10.081201156553767
      ],
      [
        "▁حلول",
        -10.081468639651368
      ],
      [
        "▁مجالات",
        -10.082983700456293
      ],
      [
        "▁الرابط",
        -10.083695315131482
      ],
      [
        "▁البحرين",
        -10.084215149455234
      ],
      [
        "▁ستة",
        -10.084251037601826
      ],
      [
        "حة",
        -10.084500623182883
      ],
      [
        "▁الخيار",
        -10.084523020351893
      ],
      [
        "▁نجم",
        -10.085029802600847
      ],
      [
        "▁قرية",
        -10.085824696921698
      ],
      [
        "▁المقدس",
        -10.085843719798019
      ],
      [
        "نز",
        -10.086360244670317
      ],
      [
        "▁لعمل",
        -10.08639013907161
      ],
      [
        "▁مهارات",
        -10.086448661446974
      ],
      [
        "▁مساعد",
        -10.08651466929049
      ],
      [
        "▁الاست",
        -10.087164707326181
      ],
      [
        "▁افتتاح",
        -10.08722456222028
      ],
      [
        "▁نموذج",
        -10.087572794896936
      ],
      [
        "▁اب",
        -10.088451503030955
      ],
      [
        "▁ألم",
        -10.088624498241925
      ],
      [
        "يَّة",
        -10.088645053514355
      ],
      [
        "▁2007",
        -10.089328061812715
      ],
      [
        "▁اللواء",
        -10.090105326194553
      ],
      [
        "▁حمل",
        -10.09026384093282
      ],
      [
        "▁أموال",
        -10.090641895337235
      ],
      [
        "▁الشروط",
        -10.090770167490373
      ],
      [
        "راف",
        -10.090855445898054
      ],
      [
        "▁السعر",
        -10.090942830872379
      ],
      [
        "▁التغيير",
        -10.091221367031991
      ],
      [
        "▁اكبر",
        -10.091295564783769
      ],
      [
        "▁العميل",
        -10.091505274742865
      ],
      [
        "▁حرف",
        -10.09195007018507
      ],
      [
        "▁أولا",
        -10.091996031720376
      ],
      [
        "▁وعمل",
        -10.09209533801079
      ],
      [
        "▁2)",
        -10.09210871566353
      ],
      [
        "▁يطلب",
        -10.0923611631711
      ],
      [
        "▁المساعدة",
        -10.092565357829304
      ],
      [
        "▁أعرف",
        -10.092574696107075
      ],
      [
        "▁سوء",
        -10.092610525773114
      ],
      [
        "▁الصباح",
        -10.093206700224599
      ],
      [
        "كي",
        -10.093422465308551
      ],
      [
        "▁درجات",
        -10.093659754549773
      ],
      [
        "▁التخلص",
        -10.09377935850772
      ],
      [
        "▁بسيطة",
        -10.093830872152061
      ],
      [
        "▁والتنمية",
        -10.093837462036273
      ],
      [
        "لَ",
        -10.093837754101166
      ],
      [
        "▁اليومية",
        -10.093856971835987
      ],
      [
        "▁باللغة",
        -10.093875775138338
      ],
      [
        "عمل",
        -10.094182739261463
      ],
      [
        "عاد",
        -10.094459111351407
      ],
      [
        "دم",
        -10.094482753897783
      ],
      [
        "▁مساعدة",
        -10.09493420020329
      ],
      [
        "▁وس",
        -10.095919359952385
      ],
      [
        "▁سيارات",
        -10.096225620625537
      ],
      [
        "فق",
        -10.096493923086474
      ],
      [
        "▁صار",
        -10.096667268515137
      ],
      [
        "▁يدفع",
        -10.097007909120425
      ],
      [
        "▁كا",
        -10.097363562409742
      ],
      [
        "▁خرج",
        -10.097947445455326
      ],
      [
        "▁غيرها",
        -10.098604706588219
      ],
      [
        "▁محددة",
        -10.098620825988885
      ],
      [
        "ره",
        -10.098801566039725
      ],
      [
        "▁توجيه",
        -10.098957406525429
      ],
      [
        "▁العقوبات",
        -10.099009693943511
      ],
      [
        "▁الديمقراطي",
        -10.099374451734914
      ],
      [
        "▁وهى",
        -10.099494416568978
      ],
      [
        "▁انتخابات",
        -10.099770184377746
      ],
      [
        "يح",
        -10.09981909575939
      ],
      [
        "رى",
        -10.099834037479585
      ],
      [
        "▁جَ",
        -10.100404032280874
      ],
      [
        "▁غاية",
        -10.100536623642434
      ],
      [
        "شار",
        -10.100537453894558
      ],
      [
        "▁السياسات",
        -10.100539237068304
      ],
      [
        "▁استعمال",
        -10.100571362056685
      ],
      [
        "▁التأمين",
        -10.100898883457852
      ],
      [
        "﴾",
        -10.101456667653785
      ],
      [
        "▁حرية",
        -10.101510929967038
      ],
      [
        "▁حصلت",
        -10.101787738313003
      ],
      [
        "رَ",
        -10.102700935907539
      ],
      [
        "▁اتفاقية",
        -10.102895196714758
      ],
      [
        "▁؟؟",
        -10.103123129247328
      ],
      [
        "▁التحكم",
        -10.103314113165801
      ],
      [
        "▁التنفيذي",
        -10.103456160050804
      ],
      [
        "صح",
        -10.103905393436992
      ],
      [
        "▁العدالة",
        -10.105553698680884
      ],
      [
        "رز",
        -10.105615676059838
      ],
      [
        "ضر",
        -10.105753802430243
      ],
      [
        "▁حَ",
        -10.106828275496234
      ],
      [
        "▁علامة",
        -10.106945786487191
      ],
      [
        "▁حجر",
        -10.106977316934977
      ],
      [
        "▁منح",
        -10.107384504857968
      ],
      [
        "▁الشبكة",
        -10.107415265800707
      ],
      [
        "▁نظم",
        -10.107440234906626
      ],
      [
        "▁وأنت",
        -10.107638309589692
      ],
      [
        "يها",
        -10.108399498224383
      ],
      [
        "▁بوك",
        -10.10872706630132
      ],
      [
        "▁المخ",
        -10.108981242375197
      ],
      [
        "▁ميل",
        -10.109271612207419
      ],
      [
        "؟؟",
        -10.11010475453492
      ],
      [
        "▁المشترك",
        -10.110175553960044
      ],
      [
        "روا",
        -10.110734100211534
      ],
      [
        "▁غيره",
        -10.110809385448267
      ],
      [
        "دعو",
        -10.111160861674824
      ],
      [
        "ثُمَّ",
        -10.111510395897843
      ],
      [
        "▁الجهة",
        -10.111679452913382
      ],
      [
        "▁بالصور",
        -10.11191292035147
      ],
      [
        "▁يفعل",
        -10.112241395577023
      ],
      [
        "▁الصعب",
        -10.112583706553167
      ],
      [
        "▁مراجعة",
        -10.113358340886121
      ],
      [
        "▁يحقق",
        -10.113614917383172
      ],
      [
        "▁الهجرة",
        -10.113678535713658
      ],
      [
        "رك",
        -10.113914807793147
      ],
      [
        "▁رأيت",
        -10.114164303695958
      ],
      [
        "▁أر",
        -10.114640016794288
      ],
      [
        "أس",
        -10.114975956495691
      ],
      [
        "▁عامل",
        -10.115086611357118
      ],
      [
        "▁الصهيوني",
        -10.115239837052306
      ],
      [
        "▁تصريح",
        -10.115291568546343
      ],
      [
        "▁شؤون",
        -10.116074504862418
      ],
      [
        "▁التدخل",
        -10.116336678698925
      ],
      [
        "24",
        -10.11642443952137
      ],
      [
        "▁معالجة",
        -10.116458906931932
      ],
      [
        "▁آية",
        -10.116618316597677
      ],
      [
        "سلم",
        -10.116763819868225
      ],
      [
        "▁ثقافة",
        -10.117090942117564
      ],
      [
        "▁اليمنية",
        -10.117307247776576
      ],
      [
        "▁احترام",
        -10.118088982680476
      ],
      [
        "ارات",
        -10.11821800390095
      ],
      [
        "▁لَ",
        -10.11877355592178
      ],
      [
        "▁لمعاينة",
        -10.119075607534104
      ],
      [
        "▁التصميم",
        -10.119094388964049
      ],
      [
        "▁اكتشاف",
        -10.119137827421326
      ],
      [
        "▁شارع",
        -10.119299538002693
      ],
      [
        "▁وعدد",
        -10.11943936961974
      ],
      [
        "▁مشيرا",
        -10.119656653634067
      ],
      [
        "▁بسيط",
        -10.119656895819691
      ],
      [
        "▁مثال",
        -10.119769143314045
      ],
      [
        "▁المهندس",
        -10.119814839732864
      ],
      [
        "▁الديني",
        -10.119830138836596
      ],
      [
        "▁تضع",
        -10.119899922194028
      ],
      [
        "l",
        -10.11998322373293
      ],
      [
        "▁توقف",
        -10.12004629391327
      ],
      [
        "▁السكر",
        -10.120703786343936
      ],
      [
        "▁أدوات",
        -10.121043549690354
      ],
      [
        "▁القانوني",
        -10.121698819609957
      ],
      [
        "▁يكفي",
        -10.121792615067523
      ],
      [
        "▁60",
        -10.121802994767005
      ],
      [
        "بات",
        -10.122056647966037
      ],
      [
        "▁الغرفة",
        -10.122533536013925
      ],
      [
        "مس",
        -10.122758614402166
      ],
      [
        "▁الفعل",
        -10.122806356081918
      ],
      [
        "▁رو",
        -10.123437215344362
      ],
      [
        "▁المشتركة",
        -10.123448102724744
      ],
      [
        "▁لعدم",
        -10.12363789241354
      ],
      [
        "▁العشرين",
        -10.123709398729854
      ],
      [
        "▁رحلة",
        -10.123829329313011
      ],
      [
        "▁المشاركات",
        -10.123838166507301
      ],
      [
        "▁التقنية",
        -10.123925851023323
      ],
      [
        "▁المهنية",
        -10.12432846883692
      ],
      [
        "▁فضلا",
        -10.124436686988854
      ],
      [
        "▁شريك",
        -10.124491253822857
      ],
      [
        "▁باقي",
        -10.12525853131536
      ],
      [
        "▁جدة",
        -10.125546747305723
      ],
      [
        "▁البخاري",
        -10.125635093516033
      ],
      [
        "▁مصالح",
        -10.126284048000791
      ],
      [
        "▁الشام",
        -10.126914414051198
      ],
      [
        "رئاسة",
        -10.127402775008452
      ],
      [
        "▁القائم",
        -10.12752477109193
      ],
      [
        "▁خروج",
        -10.1278065936445
      ],
      [
        "جاز",
        -10.12787266833368
      ],
      [
        "▁التجربة",
        -10.128182426528298
      ],
      [
        "ندعوك",
        -10.12872233830204
      ],
      [
        "▁الحماية",
        -10.12874816908048
      ],
      [
        "زع",
        -10.128864972344275
      ],
      [
        "▁نقول",
        -10.12953094370738
      ],
      [
        "▁الشعبي",
        -10.129587355433333
      ],
      [
        "▁يقال",
        -10.130019416583314
      ],
      [
        "▁سيما",
        -10.130024022097865
      ],
      [
        "▁بجامعة",
        -10.130227854481692
      ],
      [
        "▁الخامسة",
        -10.130626991659316
      ],
      [
        "▁عثمان",
        -10.130713872799488
      ],
      [
        "▁طلاب",
        -10.131379356454289
      ],
      [
        "َّة",
        -10.131580487914484
      ],
      [
        "شن",
        -10.13231976479874
      ],
      [
        "▁خلاف",
        -10.132353399110173
      ],
      [
        "صل",
        -10.132818925688245
      ],
      [
        "قول",
        -10.13338245835849
      ],
      [
        "تِ",
        -10.13354116859427
      ],
      [
        "▁النووي",
        -10.133792392320355
      ],
      [
        "▁الحاكم",
        -10.134055914086694
      ],
      [
        "▁المهارات",
        -10.134221361825656
      ],
      [
        "▁الحبيب",
        -10.134523056089936
      ],
      [
        "▁تجنب",
        -10.134999802740634
      ],
      [
        "▁لقب",
        -10.135127364107841
      ],
      [
        "▁تبدو",
        -10.13539541576342
      ],
      [
        "▁وجاء",
        -10.135440933858252
      ],
      [
        "▁انك",
        -10.135643602437504
      ],
      [
        "▁بالا",
        -10.135883687860296
      ],
      [
        "▁كريم",
        -10.135989896320666
      ],
      [
        "تكم",
        -10.13609188877065
      ],
      [
        "كن",
        -10.136100301457667
      ],
      [
        "▁الكهربائية",
        -10.136247846152333
      ],
      [
        "▁موجودة",
        -10.136298243284088
      ],
      [
        "ثر",
        -10.136808838622477
      ],
      [
        "▁العوامل",
        -10.136974553259426
      ],
      [
        "▁ضمان",
        -10.1379642735039
      ],
      [
        "▁الخوف",
        -10.138101810761594
      ],
      [
        "▁البحرية",
        -10.138909041734236
      ],
      [
        "▁هُوَ",
        -10.139078173830478
      ],
      [
        "ته،",
        -10.140310453160431
      ],
      [
        "▁اتصال",
        -10.14050097691453
      ],
      [
        "▁النهائية",
        -10.141232737327762
      ],
      [
        "▁الصحيفة",
        -10.141394113588685
      ],
      [
        "▁بِهِ",
        -10.141767026517385
      ],
      [
        "▁مسؤولية",
        -10.142003168335666
      ],
      [
        "▁قصيرة",
        -10.142810308168642
      ],
      [
        "جب",
        -10.142815619914181
      ],
      [
        "▁مَن",
        -10.142832116598575
      ],
      [
        "▁الأحوال",
        -10.142922449743985
      ],
      [
        "▁بث",
        -10.14296138238452
      ],
      [
        "▁بلاده",
        -10.142984752130689
      ],
      [
        "▁السياق",
        -10.143443438660562
      ],
      [
        "▁النحو",
        -10.143460289584088
      ],
      [
        "▁محافظ",
        -10.143679180127663
      ],
      [
        "روس",
        -10.144658907303338
      ],
      [
        "دون",
        -10.144699442056332
      ],
      [
        "▁تقريبا",
        -10.14508806256929
      ],
      [
        "▁وَمَا",
        -10.145247544080963
      ],
      [
        "▁جعفر",
        -10.145419939869651
      ],
      [
        "▁الحجر",
        -10.14555684142044
      ],
      [
        "▁شهد",
        -10.145665116029086
      ],
      [
        "▁جي",
        -10.145738554059298
      ],
      [
        "ْرَ",
        -10.145783112071491
      ],
      [
        "▁الخارجي",
        -10.14580945299777
      ],
      [
        "كتب",
        -10.145887576361359
      ],
      [
        "▁اعتبار",
        -10.145999531036493
      ],
      [
        "▁الرأس",
        -10.146124852880442
      ],
      [
        "▁التاسع",
        -10.146280482689392
      ],
      [
        "▁جدول",
        -10.14633066397343
      ],
      [
        "▁اختلاف",
        -10.146996691552367
      ],
      [
        "▁يحاول",
        -10.147710350236018
      ],
      [
        "▁وعليه",
        -10.147949897135227
      ],
      [
        "▁الإشارة",
        -10.148304623443526
      ],
      [
        "▁نعرف",
        -10.149242256420154
      ],
      [
        "▁البطولة",
        -10.149460391810937
      ],
      [
        "▁بحضور",
        -10.149471699939483
      ],
      [
        "▁تركيب",
        -10.149617698426649
      ],
      [
        "قوم",
        -10.150071850606722
      ],
      [
        "▁الدفع",
        -10.150208819101891
      ],
      [
        "▁حلب",
        -10.15064010006473
      ],
      [
        "▁مسار",
        -10.150706031531069
      ],
      [
        "ظهر",
        -10.15083495092384
      ],
      [
        "▁وقال:",
        -10.150958609554847
      ],
      [
        "جار",
        -10.151000285587159
      ],
      [
        "▁التنفيذية",
        -10.15139398763756
      ],
      [
        "▁اللّه",
        -10.15154433964009
      ],
      [
        "▁عكس",
        -10.15167896457411
      ],
      [
        "▁المعلم",
        -10.151715408708213
      ],
      [
        "▁الصحف",
        -10.15201229519041
      ],
      [
        "▁تعطي",
        -10.15207029459231
      ],
      [
        "▁7-",
        -10.152429653201345
      ],
      [
        "▁يرد",
        -10.152445344165393
      ],
      [
        "▁بدلا",
        -10.152580068352446
      ],
      [
        "▁تبلغ",
        -10.152985425377397
      ],
      [
        "▁اله",
        -10.154024310515172
      ],
      [
        "▁والاجتماعية",
        -10.154130980216294
      ],
      [
        "▁صدور",
        -10.154510144826927
      ],
      [
        "▁اتجاه",
        -10.154638488708574
      ],
      [
        "▁فقط،",
        -10.154759373611071
      ],
      [
        "طل",
        -10.154886962087705
      ],
      [
        "جن",
        -10.15518728611297
      ],
      [
        "▁(1)",
        -10.155632958906224
      ],
      [
        "▁كن",
        -10.155955547272335
      ],
      [
        "▁جهد",
        -10.155965432202375
      ],
      [
        "▁بقدر",
        -10.155976189178528
      ],
      [
        "x",
        -10.156140990615906
      ],
      [
        "▁\"إن",
        -10.156345629581166
      ],
      [
        "▁أب",
        -10.156555080425068
      ],
      [
        "▁الغربي",
        -10.156879063492745
      ],
      [
        "▁الشخصي",
        -10.157543705196172
      ],
      [
        "▁ملعب",
        -10.157546174673254
      ],
      [
        "كما",
        -10.157712028391241
      ],
      [
        "▁المنورة",
        -10.157867342138193
      ],
      [
        "خبر",
        -10.158002570627833
      ],
      [
        "ذي",
        -10.159348451120302
      ],
      [
        "▁الرياضة",
        -10.159397465422906
      ],
      [
        "▁بطاقة",
        -10.159563945548765
      ],
      [
        "▁ترجمة",
        -10.160010543422564
      ],
      [
        "▁فعلا",
        -10.160358273017867
      ],
      [
        "▁أماكن",
        -10.1607300650854
      ],
      [
        "▁لفترة",
        -10.161005940426339
      ],
      [
        "▁المتحدة)",
        -10.161091086010247
      ],
      [
        "▁وعد",
        -10.161885779381716
      ],
      [
        "طلق",
        -10.162528100480898
      ],
      [
        "▁وكذا",
        -10.162767946427724
      ],
      [
        "▁تجارة",
        -10.162845981187697
      ],
      [
        "▁الصغير",
        -10.162956680609057
      ],
      [
        "▁عشرات",
        -10.16301613825005
      ],
      [
        "▁أَنَّ",
        -10.16376743631054
      ],
      [
        "▁مقال",
        -10.164019007194732
      ],
      [
        "شد",
        -10.164740857392957
      ],
      [
        "▁وفد",
        -10.164808097868658
      ],
      [
        "▁وكيل",
        -10.164829000638333
      ],
      [
        "▁كبيرا",
        -10.164845168368712
      ],
      [
        "▁تكوين",
        -10.164905058128149
      ],
      [
        "▁به،",
        -10.165699589234176
      ],
      [
        "▁شعب",
        -10.166376472118795
      ],
      [
        "▁أخر",
        -10.166443098215
      ],
      [
        "▁الشمالية",
        -10.166677482624088
      ],
      [
        "000",
        -10.167183099449868
      ],
      [
        "قبل",
        -10.167203507623242
      ],
      [
        "خط",
        -10.1675036957467
      ],
      [
        "▁قطعة",
        -10.167694834514627
      ],
      [
        "el",
        -10.167774384612994
      ],
      [
        "فصل",
        -10.167856242984843
      ],
      [
        "▁صفوف",
        -10.167985130539885
      ],
      [
        "▁لأحد",
        -10.168098557064402
      ],
      [
        "▁العاملة",
        -10.168234021477545
      ],
      [
        "▁الشؤون",
        -10.168816049186539
      ],
      [
        "▁التدريس",
        -10.168828426720427
      ],
      [
        "▁ماء",
        -10.170112646224691
      ],
      [
        "زا",
        -10.17044058418605
      ],
      [
        "▁الموجود",
        -10.170688367528568
      ],
      [
        "▁بيد",
        -10.170756014253996
      ],
      [
        "▁عدل",
        -10.171244759866692
      ],
      [
        "▁تفعل",
        -10.171760385623802
      ],
      [
        "▁الحشرات",
        -10.172027572548224
      ],
      [
        "درس",
        -10.17226468567453
      ],
      [
        "▁يتحدث",
        -10.172493604950414
      ],
      [
        "▁سلطة",
        -10.173661761140186
      ],
      [
        "▁الشأن",
        -10.173958279499898
      ],
      [
        "▁الحي",
        -10.173976562411614
      ],
      [
        "▁الأماكن",
        -10.17428789112411
      ],
      [
        "▁يؤثر",
        -10.174322436810646
      ],
      [
        "صَ",
        -10.174566334358879
      ],
      [
        "▁أقرب",
        -10.174900494018953
      ],
      [
        "▁الرسائل",
        -10.175006879172852
      ],
      [
        "▁إليك",
        -10.17520584513709
      ],
      [
        "21",
        -10.175626759086683
      ],
      [
        "▁اللهُ",
        -10.176241419214069
      ],
      [
        "▁سابقا",
        -10.176749612603594
      ],
      [
        "▁الجمهور",
        -10.1768294797266
      ],
      [
        "▁طبيب",
        -10.176918600376567
      ],
      [
        "عْ",
        -10.176928619344299
      ],
      [
        "▁تعيين",
        -10.177306868196005
      ],
      [
        "▁الكل",
        -10.177649065450726
      ],
      [
        "▁المتقدمة",
        -10.177857765014222
      ],
      [
        "▁بمثابة",
        -10.17806042984844
      ],
      [
        "ظل",
        -10.178409742683186
      ],
      [
        "▁تؤثر",
        -10.178444371195326
      ],
      [
        "▁المجتمعات",
        -10.178773785883738
      ],
      [
        "▁المحيط",
        -10.18060247641153
      ],
      [
        "َكَ",
        -10.180657291446035
      ],
      [
        "▁يع",
        -10.180667815130631
      ],
      [
        "▁كشفت",
        -10.181004046533548
      ],
      [
        "▁اعتماد",
        -10.181047466179237
      ],
      [
        "بان",
        -10.181311960638153
      ],
      [
        "▁اللاعبين",
        -10.181749653501974
      ],
      [
        "داء",
        -10.18204066267384
      ],
      [
        "▁تتضمن",
        -10.182054875927939
      ],
      [
        "▁الباحث",
        -10.182158991791368
      ],
      [
        "▁الثلاث",
        -10.182358079101228
      ],
      [
        "▁الشمال",
        -10.182607959104903
      ],
      [
        "▁إثر",
        -10.18267837195252
      ],
      [
        "▁الفن",
        -10.183408193358705
      ],
      [
        "▁ذي",
        -10.183524757983548
      ],
      [
        "▁الصحراء",
        -10.183842462682176
      ],
      [
        "▁ادارة",
        -10.183941496546037
      ],
      [
        "▁الطرف",
        -10.184193176077525
      ],
      [
        "▁المتوقع",
        -10.184512292327545
      ],
      [
        "▁أَوْ",
        -10.1846902064404
      ],
      [
        "▁الأسئلة",
        -10.185161783075735
      ],
      [
        "▁للعام",
        -10.185190686468541
      ],
      [
        "▁ضرب",
        -10.185290198123685
      ],
      [
        "▁صح",
        -10.186276719975268
      ],
      [
        "▁طيب",
        -10.186501743706387
      ],
      [
        "رسل",
        -10.186580923267051
      ],
      [
        "▁تصدر",
        -10.186698791217658
      ],
      [
        "▁مصر،",
        -10.187125233264734
      ],
      [
        "▁معروف",
        -10.187149293393428
      ],
      [
        "▁أَبِي",
        -10.18720849643016
      ],
      [
        "R",
        -10.187231594417417
      ],
      [
        "▁لتقديم",
        -10.18757607166796
      ],
      [
        "ائهم",
        -10.187623938626684
      ],
      [
        "▁ورئيس",
        -10.187702485837857
      ],
      [
        "سخ",
        -10.18784011716728
      ],
      [
        "▁اليمني",
        -10.188044295054622
      ],
      [
        "▁كأن",
        -10.18806784688428
      ],
      [
        "▁المرور",
        -10.188167558743615
      ],
      [
        "▁نسب",
        -10.188733414796218
[...]
