{
  "version": "1.0",
  "truncation": null,
  "padding": null,
  "added_tokens": [
    {
      "id": 0,
      "content": "[UNK]",
      "single_word": false,
      "lstrip": false,
      "rstrip": false,
      "normalized": false,
      "special": true
    },
    {
      "id": 1,
      "content": "[CLS]",
      "single_word": false,
      "lstrip": false,
      "rstrip": false,
      "normalized": false,
      "special": true
    },
    {
      "id": 2,
      "content": "[SEP]",
      "single_word": false,
      "lstrip": false,
      "rstrip": false,
      "normalized": false,
      "special": true
    },
    {
      "id": 3,
      "content": "[PAD]",
      "single_word": false,
      "lstrip": false,
      "rstrip": false,
      "normalized": false,
      "special": true
    },
    {
      "id": 4,
      "content": "[MASK]",
      "single_word": false,
      "lstrip": false,
      "rstrip": false,
      "normalized": false,
      "special": true
    }
  ],
  "normalizer": {
    "type": "Sequence",
    "normalizers": [
      {
        "type": "Nmt"
      },
      {
        "type": "NFKC"
      },
      {
        "type": "Replace",
        "pattern": {
          "Regex": " {2,}"
        },
        "content": " "
      }
    ]
  },
  "pre_tokenizer": {
    "type": "Metaspace",
    "replacement": "▁",
    "prepend_scheme": "always",
    "split": true
  },
  "post_processor": null,
  "decoder": {
    "type": "Metaspace",
    "replacement": "▁",
    "prepend_scheme": "always",
    "split": true
  },
  "model": {
    "type": "Unigram",
    "unk_id": null,
    "vocab": [
      [
        "[UNK]",
        0.0
      ],
      [
        "[CLS]",
        0.0
      ],
      [
        "[SEP]",
        0.0
      ],
      [
        "[PAD]",
        0.0
      ],
      [
        "[MASK]",
        0.0
      ],
      [
        "▁",
        -3.0528411520391217
      ],
      [
        ",",
        -3.319345320701194
      ],
      [
        "▁de",
        -3.365753698003207
      ],
      [
        ".",
        -3.820202146182769
      ],
      [
        "a",
        -4.344278353927704
      ],
      [
        "i",
        -4.344339351341812
      ],
      [
        "▁a",
        -4.358443644527636
      ],
      [
        "▁la",
        -4.4415571605653135
      ],
      [
        "e",
        -4.529697265992189
      ],
      [
        "▁în",
        -4.541947881910554
      ],
      [
        "▁cu",
        -4.685916259465516
      ],
      [
        "▁si",
        -4.701882669448331
      ],
      [
        "▁care",
        -4.84385469657691
      ],
      [
        "▁pe",
        -4.866685192922047
      ],
      [
        "▁in",
        -4.928097060224969
      ],
      [
        "▁nu",
        -4.948281021011834
      ],
      [
        "▁o",
        -4.9525807065426495
      ],
      [
        "▁din",
        -4.9565811091415135
      ],
      [
        "▁mai",
        -4.965775812561779
      ],
      [
        "▁pentru",
        -5.063109372237728
      ],
      [
        "▁şi",
        -5.102032822435444
      ],
      [
        "▁sa",
        -5.1058804617180815
      ],
      [
        "▁ca",
        -5.112446742931018
      ],
      [
        "▁un",
        -5.157670899465254
      ],
      [
        "▁se",
        -5.169831453474801
      ],
      [
        "▁să",
        -5.221524227542462
      ],
      [
        "▁și",
        -5.31917750723478
      ],
      [
        "▁este",
        -5.394704220875985
      ],
      [
        "le",
        -5.549467302340318
      ],
      [
        ":",
        -5.550721010954625
      ],
      [
        "▁ce",
        -5.562921474246721
      ],
      [
        "ul",
        -5.596423064160364
      ],
      [
        "ă",
        -5.663011921528112
      ],
      [
        "▁că",
        -5.740363433798228
      ],
      [
        "▁sau",
        -5.831556712064728
      ],
      [
        "▁fi",
        -5.872625363377679
      ],
      [
        "▁au",
        -5.9444354294603965
      ],
      [
        "...",
        -5.975916928632694
      ],
      [
        "!",
        -6.0116572444225564
      ],
      [
        "▁sunt",
        -6.012834721379123
      ],
      [
        "▁fost",
        -6.013039449114093
      ],
      [
        "▁va",
        -6.051009136162005
      ],
      [
        "?",
        -6.070208777455489
      ],
      [
        "▁al",
        -6.111217560307107
      ],
      [
        "m",
        -6.137174187608666
      ],
      [
        "lor",
        -6.146330957401823
      ],
      [
        "▁am",
        -6.154849444829926
      ],
      [
        ")",
        -6.301285565891284
      ],
      [
        "▁-",
        -6.383587031365737
      ],
      [
        "▁prin",
        -6.3988890411860915
      ],
      [
        "▁dar",
        -6.404598246376995
      ],
      [
        "u",
        -6.407998759501524
      ],
      [
        "▁ne",
        -6.47050073127645
      ],
      [
        "▁lui",
        -6.487833517911067
      ],
      [
        "ului",
        -6.502766461580942
      ],
      [
        "▁–",
        -6.528932290356472
      ],
      [
        "-",
        -6.5563929679868735
      ],
      [
        "s",
        -6.56043152820606
      ],
      [
        "▁poate",
        -6.6180333200729
      ],
      [
        "▁(",
        -6.61819083453145
      ],
      [
        "▁cum",
        -6.67211097857064
      ],
      [
        "”",
        -6.6854558023148005
      ],
      [
        "▁ar",
        -6.69017396612489
      ],
      [
        "t",
        -6.70112067011188
      ],
      [
        "l",
        -6.74090375835023
      ],
      [
        "▁acest",
        -6.743756372129544
      ],
      [
        "▁despre",
        -6.792545136313246
      ],
      [
        "o",
        -6.807161354590782
      ],
      [
        "▁mult",
        -6.818080327319686
      ],
      [
        "▁În",
        -6.840471329909354
      ],
      [
        ";",
        -6.865176662191056
      ],
      [
        "▁ale",
        -6.880335474179876
      ],
      [
        "▁te",
        -6.8906207020397865
      ],
      [
        "▁De",
        -6.918850095932896
      ],
      [
        "▁A",
        -6.9336188006053305
      ],
      [
        "▁Nu",
        -6.941965655274547
      ],
      [
        "▁s-a",
        -6.943656543266936
      ],
      [
        "▁iar",
        -6.94469046365335
      ],
      [
        "▁vor",
        -6.94869739831114
      ],
      [
        "▁le",
        -6.950321158719211
      ],
      [
        "▁doar",
        -6.959305905754793
      ],
      [
        "▁are",
        -6.966293788781368
      ],
      [
        "▁trebuie",
        -6.975511143309138
      ],
      [
        "n",
        -6.995157080702027
      ],
      [
        "▁cele",
        -7.000133972472058
      ],
      [
        "▁cel",
        -7.0012562142824155
      ],
      [
        "▁face",
        -7.004083119728268
      ],
      [
        "c",
        -7.005175838093402
      ],
      [
        "▁foarte",
        -7.02137227472131
      ],
      [
        "▁pot",
        -7.032525801193996
      ],
      [
        "rea",
        -7.046299737377604
      ],
      [
        "ți",
        -7.0463904362139616
      ],
      [
        "▁„",
        -7.052276629610207
      ],
      [
        "▁fie",
        -7.05797858438857
      ],
      [
        "ţi",
        -7.069885437197321
      ],
      [
        "▁tot",
        -7.0770347178923725
      ],
      [
        "▁In",
        -7.087074396294961
      ],
      [
        "re",
        -7.088263842389939
      ],
      [
        "▁toate",
        -7.088354538058391
      ],
      [
        "▁multe",
        -7.104922185794942
      ],
      [
        "▁ai",
        -7.110781510450646
      ],
      [
        "▁unui",
        -7.13542997283643
      ],
      [
        "▁noi",
        -7.143620163258724
      ],
      [
        "▁daca",
        -7.1475758954236905
      ],
      [
        "▁dintre",
        -7.160193194719037
      ],
      [
        "▁mare",
        -7.197550929105278
      ],
      [
        "▁ani",
        -7.206828709601931
      ],
      [
        "▁nici",
        -7.20909255336737
      ],
      [
        "▁ma",
        -7.248850771362516
      ],
      [
        "▁după",
        -7.258554938169189
      ],
      [
        "▁O",
        -7.258760620496288
      ],
      [
        "▁eu",
        -7.26042199054654
      ],
      [
        "▁timp",
        -7.264858238027431
      ],
      [
        "▁bine",
        -7.272818201205915
      ],
      [
        "ti",
        -7.276131623797459
      ],
      [
        "\"",
        -7.291977524804288
      ],
      [
        "▁chiar",
        -7.297436064042143
      ],
      [
        "▁unei",
        -7.333829249411323
      ],
      [
        "▁când",
        -7.3358917787344975
      ],
      [
        "▁\"",
        -7.34920115205116
      ],
      [
        "d",
        -7.352390048971635
      ],
      [
        "te",
        -7.353847426319307
      ],
      [
        "▁cei",
        -7.35970523556187
      ],
      [
        "▁dacă",
        -7.36685448879348
      ],
      [
        "▁La",
        -7.409792525992334
      ],
      [
        "▁ei",
        -7.413513768364224
      ],
      [
        "▁cand",
        -7.413912799452072
      ],
      [
        "/",
        -7.414506711992981
      ],
      [
        "▁era",
        -7.416226095136112
      ],
      [
        "▁asta",
        -7.419076409570131
      ],
      [
        "ele",
        -7.439848101633288
      ],
      [
        "▁putea",
        -7.441277689613846
      ],
      [
        "▁Am",
        -7.445215363669913
      ],
      [
        "▁2",
        -7.463867949490416
      ],
      [
        "▁unde",
        -7.467932307364945
      ],
      [
        "▁Pentru",
        -7.48584549904972
      ],
      [
        ").",
        -7.515952381382268
      ],
      [
        "rii",
        -7.522994396273571
      ],
      [
        "▁el",
        -7.526833764716258
      ],
      [
        "▁avea",
        -7.5303108980814155
      ],
      [
        "▁atunci",
        -7.532940481484685
      ],
      [
        "▁aceasta",
        -7.5361488967620645
      ],
      [
        "▁3",
        -7.537268939462443
      ],
      [
        "▁acum",
        -7.549710195304204
      ],
      [
        "▁dupa",
        -7.54984010763291
      ],
      [
        "r",
        -7.550316272577044
      ],
      [
        "▁peste",
        -7.5768275542194345
      ],
      [
        "▁E",
        -7.583787084127282
      ],
      [
        "),",
        -7.586320863453388
      ],
      [
        "▁alte",
        -7.587621060825331
      ],
      [
        "▁ceea",
        -7.601383481322108
      ],
      [
        "▁cea",
        -7.605061246597055
      ],
      [
        "▁fiecare",
        -7.613940811363353
      ],
      [
        "▁Un",
        -7.624311879165125
      ],
      [
        "▁Se",
        -7.626432056840695
      ],
      [
        "▁Ce",
        -7.626802180725978
      ],
      [
        "▁ceva",
        -7.629516127344507
      ],
      [
        "at",
        -7.6333744036063
      ],
      [
        "▁1",
        -7.647380788330041
      ],
      [
        "se",
        -7.65100104989275
      ],
      [
        "▁fac",
        -7.655154604415895
      ],
      [
        "▁...",
        -7.658398435905365
      ],
      [
        "ri",
        -7.658856187470578
      ],
      [
        "▁sub",
        -7.665614681058955
      ],
      [
        "▁“",
        -7.67554626082104
      ],
      [
        "▁loc",
        -7.692221049234606
      ],
      [
        "▁asa",
        -7.69302370516376
      ],
      [
        "▁orice",
        -7.701543562849192
      ],
      [
        "de",
        -7.704637712642384
      ],
      [
        "▁ori",
        -7.709377640471361
      ],
      [
        "nd",
        -7.721586185509228
      ],
      [
        "▁mă",
        -7.730022409631287
      ],
      [
        "”,",
        -7.731559690842559
      ],
      [
        "▁fără",
        -7.734154721424394
      ],
      [
        "▁Pe",
        -7.7409248113439855
      ],
      [
        "▁ci",
        -7.742384075357256
      ],
      [
        "▁unor",
        -7.746728346621884
      ],
      [
        "▁parte",
        -7.749999802320737
      ],
      [
        "▁avut",
        -7.755940168706168
      ],
      [
        "▁5",
        -7.779592309336362
      ],
      [
        "▁astfel",
        -7.785240125031638
      ],
      [
        "▁Si",
        -7.795070026804131
      ],
      [
        "▁această",
        -7.798631850181069
      ],
      [
        "▁fiind",
        -7.80190320457398
      ],
      [
        "▁Cu",
        -7.81348519351644
      ],
      [
        "ă,",
        -7.8137470469529475
      ],
      [
        "la",
        -7.821004817526081
      ],
      [
        "▁până",
        -7.827227400710738
      ],
      [
        "▁către",
        -7.8328264622797406
      ],
      [
        "are",
        -7.834274807442824
      ],
      [
        "▁numai",
        -7.836707218652581
      ],
      [
        "ta",
        -7.8413470742873805
      ],
      [
        "▁Dar",
        -7.848279041389834
      ],
      [
        "▁10",
        -7.850954720856269
      ],
      [
        "▁privind",
        -7.85416015139063
      ],
      [
        "▁zi",
        -7.85622985613092
      ],
      [
        "▁fel",
        -7.856511527085299
      ],
      [
        "▁spune",
        -7.8618595548529004
      ],
      [
        "▁doua",
        -7.863399085773597
      ],
      [
        "▁lor",
        -7.865925872501208
      ],
      [
        "▁cat",
        -7.873836898268657
      ],
      [
        "▁dat",
        -7.877087882093294
      ],
      [
        "▁prea",
        -7.880660645996686
      ],
      [
        "▁cazul",
        -7.8817731128607935
      ],
      [
        "uri",
        -7.890498410759051
      ],
      [
        "▁aceste",
        -7.902613260849305
      ],
      [
        "area",
        -7.903835685494947
      ],
      [
        "▁mod",
        -7.9067915230626955
      ],
      [
        "ând",
        -7.907429388606646
      ],
      [
        "▁4",
        -7.909308876222374
      ],
      [
        "▁pana",
        -7.909876022432028
      ],
      [
        "▁vă",
        -7.911023103504585
      ],
      [
        "▁Este",
        -7.912425878316299
      ],
      [
        "▁data",
        -7.921619713471781
      ],
      [
        "▁spre",
        -7.924961960136525
      ],
      [
        "▁fara",
        -7.925771297685621
      ],
      [
        "si",
        -7.927309970414676
      ],
      [
        "▁s-au",
        -7.928275282981058
      ],
      [
        "▁Dacă",
        -7.934131452002594
      ],
      [
        "▁voi",
        -7.93995683508564
      ],
      [
        "▁celor",
        -7.942212795462217
      ],
      [
        "▁cât",
        -7.945058846544393
      ],
      [
        "▁Cum",
        -7.9451472786281325
      ],
      [
        "▁aici",
        -7.949112316904914
      ],
      [
        "▁precum",
        -7.9621408114341
      ],
      [
        "”.",
        -7.962165857315151
      ],
      [
        "▁I",
        -7.990486387958027
      ],
      [
        "p",
        -7.995243550507233
      ],
      [
        "am",
        -7.995652646271299
      ],
      [
        "▁decât",
        -8.00338410026915
      ],
      [
        "▁două",
        -8.00459343753667
      ],
      [
        "▁cred",
        -8.004728150684027
      ],
      [
        "▁unul",
        -8.006127938793648
      ],
      [
        "▁Daca",
        -8.00734100046216
      ],
      [
        "▁2018",
        -8.007467439476867
      ],
      [
        "▁ales",
        -8.008514138040697
      ],
      [
        "in",
        -8.010195607685516
      ],
      [
        "z",
        -8.01021686501724
      ],
      [
        "▁anul",
        -8.014960994745827
      ],
      [
        "▁urma",
        -8.02176606243856
      ],
      [
        "▁nevoie",
        -8.02338035475912
      ],
      [
        "-o",
        -8.026253585631997
      ],
      [
        "▁S",
        -8.028434127648605
      ],
      [
        "▁nou",
        -8.03604230274267
      ],
      [
        "▁asupra",
        -8.037222015861067
      ],
      [
        "▁oameni",
        -8.0375006521241
      ],
      [
        "▁timpul",
        -8.04449187489017
      ],
      [
        "▁îi",
        -8.05130876806892
      ],
      [
        "▁Mai",
        -8.060742112372223
      ],
      [
        "▁lucru",
        -8.065274338832106
      ],
      [
        "▁trebui",
        -8.065747718595603
      ],
      [
        "ilor",
        -8.068356108688938
      ],
      [
        "al",
        -8.073526970386379
      ],
      [
        "▁tu",
        -8.073685255944682
      ],
      [
        "▁între",
        -8.076936751360876
      ],
      [
        "ca",
        -8.077576119616257
      ],
      [
        "▁fata",
        -8.078441720579036
      ],
      [
        "▁România",
        -8.080637435532779
      ],
      [
        "A",
        -8.087225125106757
      ],
      [
        "▁facut",
        -8.087857501429003
      ],
      [
        "urile",
        -8.093364294368287
      ],
      [
        "▁an",
        -8.09560385905547
      ],
      [
        "▁trei",
        -8.10112547467004
      ],
      [
        "▁prima",
        -8.113125522270188
      ],
      [
        "▁da",
        -8.116180120887739
      ],
      [
        "▁bun",
        -8.119446559581569
      ],
      [
        "▁nr.",
        -8.12103135860383
      ],
      [
        "▁Din",
        -8.125847994813581
      ],
      [
        "▁il",
        -8.12963520066546
      ],
      [
        "▁mine",
        -8.142987417850234
      ],
      [
        "▁pare",
        -8.143475702873081
      ],
      [
        "▁decat",
        -8.151611317868992
      ],
      [
        "ce",
        -8.154256265806167
      ],
      [
        "▁mea",
        -8.154692022389822
      ],
      [
        "▁imi",
        -8.155679212380607
      ],
      [
        "or",
        -8.15892372427461
      ],
      [
        "▁zile",
        -8.16000275528803
      ],
      [
        "▁făcut",
        -8.162597516376403
      ],
      [
        "tă",
        -8.165004082878589
      ],
      [
        "ş",
        -8.165153084938314
      ],
      [
        "▁cadrul",
        -8.177489154037733
      ],
      [
        "▁(1)",
        -8.179122097249198
      ],
      [
        "y",
        -8.181952695055454
      ],
      [
        "▁mari",
        -8.182662379227347
      ],
      [
        "▁într-un",
        -8.194483888067378
      ],
      [
        "▁apoi",
        -8.201584331954557
      ],
      [
        "▁mi",
        -8.201659350056605
      ],
      [
        "▁spus",
        -8.203847772405517
      ],
      [
        "▁îl",
        -8.205298336084548
      ],
      [
        "▁faptul",
        -8.222909906100183
      ],
      [
        "▁Ca",
        -8.225493778275354
      ],
      [
        "▁primul",
        -8.226412603837572
      ],
      [
        "▁putin",
        -8.227653269653356
      ],
      [
        "-ul",
        -8.231585532314146
      ],
      [
        "▁într-o",
        -8.234504926481831
      ],
      [
        "▁atât",
        -8.236392591193173
      ],
      [
        "ei",
        -8.240294491308816
      ],
      [
        "▁partea",
        -8.250270598706761
      ],
      [
        "zi",
        -8.2525221555679
      ],
      [
        "▁Dumnezeu",
        -8.252854992291928
      ],
      [
        "▁C",
        -8.253360956189994
      ],
      [
        "▁6",
        -8.25845707493702
      ],
      [
        "▁Eu",
        -8.263921192199456
      ],
      [
        "x",
        -8.26908443334946
      ],
      [
        "▁acesta",
        -8.270847482208396
      ],
      [
        "ne",
        -8.276004300505308
      ],
      [
        "▁lumea",
        -8.277638088926032
      ],
      [
        "▁ta",
        -8.277847971960723
      ],
      [
        "▁persoane",
        -8.278404321729077
      ],
      [
        "▁aproape",
        -8.281471925723045
      ],
      [
        "▁perioada",
        -8.288296020819374
      ],
      [
        "▁i-a",
        -8.289022473789453
      ],
      [
        "au",
        -8.290660371594011
      ],
      [
        "▁iti",
        -8.297928787434643
      ],
      [
        "▁meu",
        -8.301268372192828
      ],
      [
        "▁isi",
        -8.30809227071462
      ],
      [
        "ă.",
        -8.309819791027158
      ],
      [
        "▁ajuns",
        -8.309867120978977
      ],
      [
        "▁avem",
        -8.309990414389707
      ],
      [
        "▁stat",
        -8.314360007926105
      ],
      [
        "ui",
        -8.319492476361898
      ],
      [
        "▁7",
        -8.323916199004763
      ],
      [
        "▁DE",
        -8.32643866306982
      ],
      [
        "▁Romania",
        -8.33060961753307
      ],
      [
        "▁viata",
        -8.332491830578299
      ],
      [
        "▁exista",
        -8.338696065612279
      ],
      [
        "▁20",
        -8.340386100718668
      ],
      [
        "şi",
        -8.343720087768281
      ],
      [
        "▁ora",
        -8.351446220290754
      ],
      [
        "-mi",
        -8.353260721687066
      ],
      [
        "▁spun",
        -8.35587515225089
      ],
      [
        "▁vrea",
        -8.362848662377054
      ],
      [
        "▁intre",
        -8.362986016121335
      ],
      [
        "▁nimic",
        -8.370068358217942
      ],
      [
        "ș",
        -8.375253217696278
      ],
      [
        "▁însă",
        -8.375688286595887
      ],
      [
        "▁tine",
        -8.379079368644359
      ],
      [
        "▁Şi",
        -8.384127703312089
      ],
      [
        "ra",
        -8.38514539700104
      ],
      [
        "▁baza",
        -8.38583350672542
      ],
      [
        "▁doi",
        -8.392870670922335
      ],
      [
        "▁deja",
        -8.39405841364241
      ],
      [
        "ează",
        -8.394465082013083
      ],
      [
        "▁vedere",
        -8.395225845418258
      ],
      [
        "esc",
        -8.398904315816834
      ],
      [
        "v",
        -8.400468134032726
      ],
      [
        "▁stiu",
        -8.406796124383748
      ],
      [
        "▁atat",
        -8.410381176601632
      ],
      [
        "ci",
        -8.41355959820781
      ],
      [
        "▁Sunt",
        -8.413745736579127
      ],
      [
        "▁mi-a",
        -8.417451461143871
      ],
      [
        "ar",
        -8.421622514710153
      ],
      [
        "▁Sa",
        -8.422571843813342
      ],
      [
        "▁•",
        -8.42267184183803
      ],
      [
        "g",
        -8.430749719328848
      ],
      [
        "▁re",
        -8.431994907494238
      ],
      [
        "▁luat",
        -8.433043732793939
      ],
      [
        "▁trecut",
        -8.435171790182032
      ],
      [
        "▁9",
        -8.436074013184403
      ],
      [
        "▁luni",
        -8.43804009565888
      ],
      [
        "▁locul",
        -8.439821188898206
      ],
      [
        "▁V",
        -8.442451964053333
      ],
      [
        "E",
        -8.452009644511351
      ],
      [
        "▁15",
        -8.452775146270326
      ],
      [
        "▁catre",
        -8.458187304725922
      ],
      [
        "▁cine",
        -8.4589858003285
      ],
      [
        "\",",
        -8.462227053901243
      ],
      [
        "▁milioane",
        -8.464347637025204
      ],
      [
        "va",
        -8.464836633311085
      ],
      [
        "▁copii",
        -8.47001838486285
      ],
      [
        "▁insa",
        -8.470182635928994
      ],
      [
        "▁cauza",
        -8.471866792593577
      ],
      [
        "▁afla",
        -8.47195469026796
      ],
      [
        "▁acord",
        -8.472754383901789
      ],
      [
        "▁faci",
        -8.475741579493675
      ],
      [
        "▁vom",
        -8.477450320177526
      ],
      [
        "cu",
        -8.479185815804202
      ],
      [
        "▁Acest",
        -8.485414643997004
      ],
      [
        "it",
        -8.485525858025813
      ],
      [
        "▁venit",
        -8.486573628199238
      ],
      [
        "▁ani,",
        -8.486701480287623
      ],
      [
        "▁oamenii",
        -8.49051296658597
      ],
      [
        "▁El",
        -8.491961373243889
      ],
      [
        "▁scris",
        -8.49280690461325
      ],
      [
        "▁l-a",
        -8.49368565240883
      ],
      [
        "▁place",
        -8.497302677786458
      ],
      [
        "eze",
        -8.497826423142259
      ],
      [
        "▁acolo",
        -8.503503740394676
      ],
      [
        "▁drept",
        -8.507423781564658
      ],
      [
        "▁erau",
        -8.512392918457591
      ],
      [
        "▁bani",
        -8.514876267322098
      ],
      [
        "-l",
        -8.51740115195278
      ],
      [
        "▁încă",
        -8.517885606958194
      ],
      [
        "▁_",
        -8.520364064701235
      ],
      [
        "▁vei",
        -8.522323845685692
      ],
      [
        "▁18",
        -8.522870423191948
      ],
      [
        "▁nivel",
        -8.523038141265943
      ],
      [
        "▁bune",
        -8.524822679016554
      ],
      [
        "intr-o",
        -8.525993786470595
      ],
      [
        "▁vorba",
        -8.526014209176463
      ],
      [
        "f",
        -8.526851618725948
      ],
      [
        "▁intr-un",
        -8.53553588874279
      ],
      [
        "aţi",
        -8.537234482572053
      ],
      [
        "▁8",
        -8.537613071212013
      ],
      [
        "▁pus",
        -8.542386475920644
      ],
      [
        "▁site",
        -8.547565799002742
      ],
      [
        "și",
        -8.55124586391651
      ],
      [
        "▁P",
        -8.558148421371016
      ],
      [
        "an",
        -8.560730477422103
      ],
      [
        "eaza",
        -8.562438725790981
      ],
      [
        "▁tip",
        -8.562920690113822
      ],
      [
        "▁aşa",
        -8.564337854945022
      ],
      [
        "▁inca",
        -8.566037516211175
      ],
      [
        "un",
        -8.566552845028841
      ],
      [
        "▁12",
        -8.566624884409077
      ],
      [
        "▁poti",
        -8.56680096654436
      ],
      [
        "▁om",
        -8.567963777668913
      ],
      [
        "▁numele",
        -8.570515907748042
      ],
      [
        "▁există",
        -8.571567948752943
      ],
      [
        "că",
        -8.57318107965556
      ],
      [
        "▁/",
        -8.578740651532213
      ],
      [
        "ma",
        -8.579788356194632
      ],
      [
        "▁nouă",
        -8.583057833425702
      ],
      [
        "▁acestui",
        -8.584005768632817
      ],
      [
        "▁vine",
        -8.585310608090344
      ],
      [
        "▁special",
        -8.586290442962571
      ],
      [
        "▁ziua",
        -8.586879610726632
      ],
      [
        "▁acestea",
        -8.589825104625474
      ],
      [
        "▁B",
        -8.593523753072889
      ],
      [
        "▁totul",
        -8.594404607605517
      ],
      [
        "▁alt",
        -8.602209835309361
      ],
      [
        "sa",
        -8.60563295261932
      ],
      [
        "▁Ne",
        -8.609029932011028
      ],
      [
        "di",
        -8.609377578343228
      ],
      [
        "este",
        -8.609408016682533
      ],
      [
        "▁(2)",
        -8.609668778065023
      ],
      [
        "▁30",
        -8.611751006650827
      ],
      [
        "ului,",
        -8.613100577690982
      ],
      [
        "▁ele",
        -8.613794122475406
      ],
      [
        "▁cineva",
        -8.618738878017021
      ],
      [
        "▁pune",
        -8.62328803584646
      ],
      [
        "▁lume",
        -8.626864281171443
      ],
      [
        "tor",
        -8.628045902083457
      ],
      [
        "▁nostru",
        -8.630016826976716
      ],
      [
        "▁cateva",
        -8.63871651607065
      ],
      [
        "]",
        -8.644353226634596
      ],
      [
        "▁început",
        -8.646460727049018
      ],
      [
        "▁”",
        -8.646705522901378
      ],
      [
        "▁adresa",
        -8.64754178911477
      ],
      [
        "▁Și",
        -8.649641235469812
      ],
      [
        "▁buna",
        -8.652270274190103
      ],
      [
        "▁euro",
        -8.655706990283386
      ],
      [
        "▁m-am",
        -8.65792024616302
      ],
      [
        "▁suntem",
        -8.659792331991712
      ],
      [
        "▁După",
        -8.660282833461826
      ],
      [
        "▁asemenea",
        -8.662280943760825
      ],
      [
        "▁de-a",
        -8.66316781205044
      ],
      [
        "▁dau",
        -8.66322234390408
      ],
      [
        ".ro",
        -8.663498293002583
      ],
      [
        "▁ajuta",
        -8.663838605435776
      ],
      [
        "▁câteva",
        -8.664754397035088
      ],
      [
        "h",
        -8.666396379172228
      ],
      [
        "îmi",
        -8.666930306614352
      ],
      [
        "ate",
        -8.668805989605332
      ],
      [
        "▁D",
        -8.670926169579284
      ],
      [
        "▁zona",
        -8.67735473771967
      ],
      [
        "▁putem",
        -8.683147728310946
      ],
      [
        "îşi",
        -8.685186612186754
      ],
      [
        "▁Să",
        -8.685762001382383
      ],
      [
        "▁Toate",
        -8.686238374407273
      ],
      [
        "▁mici",
        -8.68666733599418
      ],
      [
        "▁dreptul",
        -8.686983812354487
      ],
      [
        "▁așa",
        -8.689841077328177
      ],
      [
        "lor,",
        -8.69006974717382
      ],
      [
        "▁Iar",
        -8.691392805011628
      ],
      [
        "\".",
        -8.691640376812241
      ],
      [
        "S",
        -8.692017977079377
      ],
      [
        "▁lei",
        -8.695281329202674
      ],
      [
        "I",
        -8.69623585333093
      ],
      [
        "▁Va",
        -8.698477892322348
      ],
      [
        "▁lucruri",
        -8.699069505677878
      ],
      [
        "▁greu",
        -8.700412350893902
      ],
      [
        "▁nivelul",
        -8.703592890779722
      ],
      [
        "▁important",
        -8.704751874435129
      ],
      [
        "▁produse",
        -8.705773274269099
      ],
      [
        "▁punct",
        -8.706662753796989
      ],
      [
        "(",
        -8.709784681340988
      ],
      [
        "▁jos",
        -8.71358815393052
      ],
      [
        "▁articole",
        -8.714403030548542
      ],
      [
        "▁înainte",
        -8.71485035633703
      ],
      [
        "▁aflat",
        -8.715700166649171
      ],
      [
        "▁moment",
        -8.717314624810339
      ],
      [
        "b",
        -8.718803440177096
      ],
      [
        "▁alta",
        -8.720245781186865
      ],
      [
        "▁cam",
        -8.7241986900492
      ],
      [
        "▁M",
        -8.725591214672194
      ],
      [
        "▁fapt",
        -8.72642774849408
      ],
      [
        "▁noastre",
        -8.736773952108688
      ],
      [
        "▁probleme",
        -8.737973049806177
      ],
      [
        "▁aceea",
        -8.73920385122043
      ],
      [
        "ați",
        -8.740545773610721
      ],
      [
        "▁►",
        -8.740602828185944
      ],
      [
        "▁[",
        -8.743713270264777
      ],
      [
        "▁email",
        -8.744225705508368
      ],
      [
        "ile",
        -8.746524001364344
      ],
      [
        "▁forma",
        -8.747551778793117
      ],
      [
        "▁multi",
        -8.751990971818469
      ],
      [
        "▁Prin",
        -8.758020318820222
      ],
      [
        "da",
        -8.76036654506182
      ],
      [
        "▁tuturor",
        -8.761513506890653
      ],
      [
        "▁importante",
        -8.763375594481628
      ],
      [
        "▁primit",
        -8.764254854847218
      ],
      [
        "▁asemenea,",
        -8.768302551234122
      ],
      [
        "▁deoarece",
        -8.768957538339468
      ],
      [
        "▁Re",
        -8.770192023070479
      ],
      [
        "▁destul",
        -8.770708977842805
      ],
      [
        "pe",
        -8.774639293941561
      ],
      [
        "▁Cele",
        -8.775774303657352
      ],
      [
        "▁momentul",
        -8.778060034804085
      ],
      [
        "▁unele",
        -8.77814735252097
      ],
      [
        "▁luna",
        -8.778663375558583
      ],
      [
        "▁acestei",
        -8.779923655142515
      ],
      [
        "▁F",
        -8.784168413571125
      ],
      [
        "▁direct",
        -8.795050462259205
      ],
      [
        "ră",
        -8.79611478045217
      ],
      [
        "▁Cel",
        -8.797443921199092
      ],
      [
        "▁Acum",
        -8.79889936930556
      ],
      [
        "▁ore",
        -8.802933352432769
      ],
      [
        "▁Ma",
        -8.803419299233989
      ],
      [
        "▁conform",
        -8.810622096370757
      ],
      [
        "▁acestor",
        -8.811549416726814
      ],
      [
        "▁esti",
        -8.81891243512922
      ],
      [
        "▁privire",
        -8.824141625767838
      ],
      [
        "▁decembrie",
        -8.824717435681299
      ],
      [
        "▁tara",
        -8.82508622957229
      ],
      [
        "ului.",
        -8.828649658774065
      ],
      [
        "el",
        -8.830996381095337
      ],
      [
        "itatea",
        -8.831391566126053
      ],
      [
        "▁caz",
        -8.831577075315515
      ],
      [
        "▁vreo",
        -8.833272608460769
      ],
      [
        "▁bună",
        -8.836383961168112
      ],
      [
        "er",
        -8.836822902478453
      ],
      [
        "k",
        -8.83859546110814
      ],
      [
        "on",
        -8.839249428326847
      ],
      [
        "▁muncă",
        -8.839315103178542
      ],
      [
        "▁declarat",
        -8.841665793304063
      ],
      [
        "▁vreau",
        -8.842535636843753
      ],
      [
        "ze",
        -8.842550101563855
      ],
      [
        "rile",
        -8.843272686566461
      ],
      [
        "lui",
        -8.844035621628493
      ],
      [
        "▁potrivit",
        -8.84498316512559
      ],
      [
        "▁comentarii",
        -8.845742265126288
      ],
      [
        "▁»",
        -8.847393233695254
      ],
      [
        "▁ajunge",
        -8.847417017697827
      ],
      [
        "▁as",
        -8.847475125878603
      ],
      [
        "▁printre",
        -8.849090941168166
      ],
      [
        "UL",
        -8.850988491031577
      ],
      [
        "▁art.",
        -8.857156634741031
      ],
      [
        "▁niste",
        -8.859976038862216
      ],
      [
        "▁dată",
        -8.860502538578965
      ],
      [
        "▁apa",
        -8.862331403256283
      ],
      [
        "▁seama",
        -8.86624651560305
      ],
      [
        "C",
        -8.867430716243057
      ],
      [
        "▁scrie",
        -8.868249741583883
      ],
      [
        "ării",
        -8.872611065930855
      ],
      [
        "▁puţin",
        -8.872960923175564
      ],
      [
        "▁toti",
        -8.875377734035279
      ],
      [
        "▁sus",
        -8.879754880066221
      ],
      [
        "▁sale",
        -8.880430980881131
      ],
      [
        "za",
        -8.881926515970735
      ],
      [
        "▁25",
        -8.884772651930296
      ],
      [
        "▁public",
        -8.88712477692535
      ],
      [
        "▁aduce",
        -8.887296893174488
      ],
      [
        "▁diferite",
        -8.888142108407319
      ],
      [
        "▁produs",
        -8.888545700280147
      ],
      [
        "oare",
        -8.8886907688703
      ],
      [
        "▁general",
        -8.890346698522542
      ],
      [
        "elor",
        -8.891279235850511
      ],
      [
        "▁articol",
        -8.893616552232233
      ],
      [
        "▁inainte",
        -8.894505941197519
      ],
      [
        "▁urmă",
        -8.894548537691112
      ],
      [
        "▁vedea",
        -8.89648757321119
      ],
      [
        "▁faţă",
        -8.898808493511305
      ],
      [
        "▁septembrie",
        -8.902145978662949
      ],
      [
        "nu",
        -8.903932405449606
      ],
      [
        "▁stare",
        -8.904724974164719
      ],
      [
        "▁inclusiv",
        -8.904842490672676
      ],
      [
        "▁servicii",
        -8.907015158786983
      ],
      [
        "▁tale",
        -8.907787316733135
      ],
      [
        "▁m-a",
        -8.908728644279163
      ],
      [
        "ni",
        -8.909143257780208
      ],
      [
        "▁cont",
        -8.909714707863493
      ],
      [
        "▁16",
        -8.911318946114376
      ],
      [
        "▁simplu",
        -8.913140774940306
      ],
      [
        "▁nimeni",
        -8.913953881524113
      ],
      [
        "▁date",
        -8.915064122145282
      ],
      [
        "▁24",
        -8.915484975901409
      ],
      [
        "▁le-a",
        -8.91634371927345
      ],
      [
        "▁vazut",
        -8.919073760072253
      ],
      [
        "▁17",
        -8.919567756574272
      ],
      [
        "▁G",
        -8.923576284996315
      ],
      [
        "▁casa",
        -8.923814347976073
      ],
      [
        "▁problema",
        -8.923859330165378
      ],
      [
        "▁altă",
        -8.924659177209435
      ],
      [
        "and",
        -8.929601637515233
      ],
      [
        "▁inceput",
        -8.929744241936122
      ],
      [
        "▁toată",
        -8.934723508032269
      ],
      [
        "▁faca",
        -8.935409967835943
      ],
      [
        "▁sistem",
        -8.938664550794016
      ],
      [
        "us",
        -8.940748025987059
      ],
      [
        "▁pre",
        -8.94113649704861
      ],
      [
        "▁toata",
        -8.94159264891473
      ],
      [
        "▁s-ar",
        -8.943705979787774
      ],
      [
        "▁patru",
        -8.943895411216113
      ],
      [
        "▁vin",
        -8.944482084724264
      ],
      [
        "▁online",
        -8.944648266890988
      ],
      [
        "no",
        -8.945028799560383
      ],
      [
        "-n",
        -8.945272606695896
      ],
      [
        "▁carte",
        -8.946505982859952
      ],
      [
        "▁modul",
        -8.947990893882238
      ],
      [
        "își",
        -8.94821843105058
      ],
      [
        "▁duce",
        -8.94906372522571
      ],
      [
        "▁drepturile",
        -8.949851775505966
      ],
      [
        "itate",
        -8.953320226108856
      ],
      [
        "▁vezi",
        -8.953998685690074
      ],
      [
        "▁Te",
        -8.954407252778477
      ],
      [
        "▁munca",
        -8.955103387539754
      ],
      [
        "▁cap",
        -8.955792179855486
      ],
      [
        "▁noiembrie",
        -8.95581980638267
      ],
      [
        "▁ianuarie",
        -8.95712923187093
      ],
      [
        "▁[...]",
        -8.957152851176344
      ],
      [
        "▁probabil",
        -8.962876755556124
      ],
      [
        "▁c",
        -8.963052708670455
      ],
      [
        "▁României",
        -8.963055711998749
      ],
      [
        "▁singur",
        -8.96460553008216
      ],
      [
        "▁unii",
        -8.96558866001768
      ],
      [
        "tu",
        -8.967796253257369
      ],
      [
        "▁viermi",
        -8.97028960641789
      ],
      [
        "▁14",
        -8.970315658951638
      ],
      [
        "▁extrem",
        -8.970461375862504
      ],
      [
        "▁mic",
        -8.972833497339183
      ],
      [
        "▁vrei",
        -8.975226615938439
      ],
      [
        "▁publice",
        -8.975578410657917
      ],
      [
        "▁împotriva",
        -8.976594634627496
      ],
      [
        "ã",
        -8.977111926338925
      ],
      [
        "▁lor.",
        -8.979141214356513
      ],
      [
        "▁exact",
        -8.98133760393388
      ],
      [
        "▁primi",
        -8.9840848212252
      ],
      [
        "▁11",
        -8.984825202508581
      ],
      [
        "▁etc.",
        -8.985097220758439
      ],
      [
        "▁ultima",
        -8.987378550814306
      ],
      [
        "▁sistemul",
        -8.989184799231234
      ],
      [
        "▁Care",
        -8.98959119039109
      ],
      [
        "▁mereu",
        -8.990115814276598
      ],
      [
        "▁afara",
        -8.99419717969717
      ],
      [
        "▁*",
        -8.995109551911124
      ],
      [
        "ții",
        -9.001782498390892
      ],
      [
        "lor.",
        -9.002768347249916
      ],
      [
        "🙂",
        -9.003721071565138
      ],
      [
        "ati",
        -9.00490912603751
      ],
      [
        "▁persoana",
        -9.00592452529361
      ],
      [
        "▁proiect",
        -9.006013260447393
      ],
      [
        "▁facă",
        -9.008408645318605
      ],
      [
        "▁octombrie",
        -9.012106438079556
      ],
      [
        "▁site-ul",
        -9.013854640745603
      ],
      [
        "▁personal",
        -9.01639752442656
      ],
      [
        "▁simt",
        -9.019369968710322
      ],
      [
        "▁merge",
        -9.019580704807657
      ],
      [
        "▁domeniul",
        -9.021225868812422
      ],
      [
        "▁lucrurile",
        -9.02162159144228
      ],
      [
        "ăm",
        -9.022384284526252
      ],
      [
        "1",
        -9.023383305565403
      ],
      [
        "▁termen",
        -9.025275664421088
      ],
      [
        "­",
        -9.025464462134604
      ],
      [
        "ga",
        -9.026048766793673
      ],
      [
        "▁Despre",
        -9.02666027392904
      ],
      [
        "▁2016",
        -9.028851582928095
      ],
      [
        "tul",
        -9.029281323008618
      ],
      [
        "M",
        -9.02950119432532
      ],
      [
        "▁devenit",
        -9.03073430451052
      ],
      [
        "▁facem",
        -9.031841623196359
      ],
      [
        "T",
        -9.033240799153187
      ],
      [
        "▁dus",
        -9.034476431332237
      ],
      [
        "▁Dupa",
        -9.034560790272216
      ],
      [
        "ţii",
        -9.036063158944465
      ],
      [
        "▁azi",
        -9.037581428244728
      ],
      [
        "▁ani.",
        -9.038619671942572
      ],
      [
        "▁vechi",
        -9.040373393263014
      ],
      [
        "▁anului",
        -9.04044929024073
      ],
      [
        "▁noua",
        -9.043202388586105
      ],
      [
        "▁UE",
        -9.043470894852309
      ],
      [
        "▁Facebook",
        -9.044197955716683
      ],
      [
        "▁departe",
        -9.044268950235523
      ],
      [
        "▁fii",
        -9.044800026965586
      ],
      [
        "▁posibil",
        -9.05081531901768
      ],
      [
        "Ă",
        -9.05384699920008
      ],
      [
        "▁deci",
        -9.053852387746693
      ],
      [
        "▁100",
        -9.053902889366938
      ],
      [
        "▁tau",
        -9.05449067901514
      ],
      [
        "▁final",
        -9.056952025380772
      ],
      [
        "să-i",
        -9.056974172707207
      ],
      [
        "▁tare",
        -9.057107005899095
      ],
      [
        "▁aprilie",
        -9.059898851867525
      ],
      [
        "▁Poate",
        -9.06156264971483
      ],
      [
        "▁Au",
        -9.064986828526703
      ],
      [
        "▁0",
        -9.066437359837527
      ],
      [
        "ro",
        -9.06707523604116
      ],
      [
        "▁vreme",
        -9.069336158949493
      ],
      [
        "▁respectiv",
        -9.070233265892057
      ],
      [
        "ez",
        -9.070600974540936
      ],
      [
        "▁rog",
        -9.070745347451119
      ],
      [
        "▁puțin",
        -9.071364066916626
      ],
      [
        "tii",
        -9.072187292936995
      ],
      [
        "▁arata",
        -9.073788696681689
      ],
      [
        "▁anumite",
        -9.074153431846055
      ],
      [
        "P",
        -9.075726748242996
      ],
      [
        "▁copil",
        -9.076745200676728
      ],
      [
        "▁Când",
        -9.078423804498312
      ],
      [
        "▁cate",
        -9.078987062234527
      ],
      [
        "▁citit",
        -9.081385896257823
      ],
      [
        "▁T",
        -9.081801428919507
      ],
      [
        "▁2015",
        -9.081812752092514
      ],
      [
        "▁Aceasta",
        -9.083910923516907
      ],
      [
        "_",
        -9.084468918044827
      ],
      [
        "▁vad",
        -9.086220406998134
      ],
      [
        "▁zis",
        -9.087048631121142
      ],
      [
        "▁noastră",
        -9.089101657668383
      ],
      [
        "eşte",
        -9.089493399932866
      ],
      [
        "▁locuri",
        -9.092104343652004
      ],
      [
        "ori",
        -9.095694033855377
      ],
      [
        "▁limba",
        -9.096430841795272
      ],
      [
        "▁intra",
        -9.09680918592037
      ],
      [
        "▁permite",
        -9.097020010170167
      ],
      [
        "▁Mi",
        -9.098235391997559
      ],
      [
        "▁(3)",
        -9.098904900453046
      ],
      [
        "B",
        -9.099919502255036
      ],
      [
        "▁cer",
        -9.101543926052766
      ],
      [
        "▁ochii",
        -9.101998366893124
      ],
      [
        "▁noi,",
        -9.102083799301955
      ],
      [
        "▁lângă",
        -9.10316459625463
      ],
      [
        "▁doresc",
        -9.105204503949267
      ],
      [
        "▁afaceri",
        -9.106102707522977
      ],
      [
        "▁jurul",
        -9.106805700013375
      ],
      [
        "▁clar",
        -9.106897873323017
      ],
      [
        "▁inseamna",
        -9.107148864021113
      ],
      [
        "▁frumos",
        -9.107735608976217
      ],
      [
        "'",
        -9.108009841532752
      ],
      [
        "▁H",
        -9.108449804885687
      ],
      [
        "▁pt",
        -9.111092573349467
      ],
      [
        "▁Ar",
        -9.111964530497811
      ],
      [
        "▁banii",
        -9.112867240058561
      ],
      [
        "▁caracter",
        -9.113189128140906
      ],
      [
        "▁articolul",
        -9.113516192394078
      ],
      [
        "ată",
        -9.114917873101836
      ],
      [
        "▁2017",
        -9.117829840820704
      ],
      [
        "▁putut",
        -9.120665742987779
      ],
      [
        "▁puteti",
        -9.120687034747423
      ],
      [
        "esti",
        -9.122259945263322
      ],
      [
        "st",
        -9.123352285909418
      ],
      [
        "ste",
        -9.123922258389921
      ],
      [
        "’",
        -9.124944384146735
      ],
      [
        "▁minute",
        -9.125500671470352
      ],
      [
        "▁mele",
        -9.125857754480034
      ],
      [
        "iei",
        -9.127033903423403
      ],
      [
        "▁februarie",
        -9.128692434705231
      ],
      [
        "ata",
        -9.128883104395754
      ],
      [
        "▁împreună",
        -9.132679989852221
      ],
      [
        "▁motiv",
        -9.133370218663817
      ],
      [
        "▁13",
        -9.13358822316884
      ],
      [
        ".”",
        -9.134416857732518
      ],
      [
        "▁deschide",
        -9.135167718485192
      ],
      [
        "▁calitate",
        -9.13524639233478
      ],
      [
        "ur",
        -9.135575055919375
      ],
      [
        "▁folosit",
        -9.137762554232104
      ],
      [
        "▁blog",
        -9.138525322638309
      ],
      [
        "chi",
        -9.139759204373158
      ],
      [
        "▁Chiar",
        -9.140349915426533
      ],
      [
        "▁său",
        -9.141058354399068
      ],
      [
        "▁lua",
        -9.144637255987373
      ],
      [
        "▁Ai",
        -9.145837435192302
      ],
      [
        "▁iunie",
        -9.145931648457466
      ],
      [
        "▁trece",
        -9.146809764965678
      ],
      [
        "▁ei,",
        -9.152399061557874
      ],
      [
        "D",
        -9.153364129043803
      ],
      [
        "L",
        -9.154300464838977
      ],
      [
        "▁adus",
        -9.155359724064155
      ],
      [
        "▁prezenta",
        -9.155742372416254
      ],
      [
        "▁pur",
        -9.156522532630127
      ],
      [
        "▁NU",
        -9.157229785477067
      ],
      [
        "▁1.",
        -9.157602720530644
      ],
      [
        "▁pierdut",
        -9.158881781645736
      ],
      [
        "▁Asta",
        -9.158891112628982
      ],
      [
        "▁dă",
        -9.159987730713443
      ],
      [
        "▁plus",
        -9.16040421015496
      ],
      [
        "▁înseamnă",
        -9.162316252492513
      ],
      [
        "2",
        -9.163784198572182
      ],
      [
        "▁sta",
        -9.164812393886285
      ],
      [
        "▁U",
        -9.16499461915777
      ],
      [
        "▁zic",
        -9.168510663903596
      ],
      [
        "▁pun",
        -9.169159242396855
      ],
      [
        "▁omul",
        -9.17094784752608
      ],
      [
        "co",
        -9.171547073217667
      ],
      [
        "l-am",
        -9.171773562916844
      ],
      [
        "▁să-l",
        -9.173233851476759
      ],
      [
        "▁Mihai",
        -9.177429314295747
      ],
      [
        "▁tocmai",
        -9.179147324078116
      ],
      [
        "▁Prima",
        -9.179705823503136
      ],
      [
        "▁auto",
        -9.183189740801911
      ],
      [
        "mi",
        -9.1860645389635
      ],
      [
        "-ti",
        -9.188512989821916
      ],
      [
        "▁sociale",
        -9.18904713089443
      ],
      [
        "▁felul",
        -9.189304987902961
      ],
      [
        "▁martie",
        -9.19012614841007
      ],
      [
        "▁nu-i",
        -9.192140880436824
      ],
      [
        "3",
        -9.192204881306155
      ],
      [
        "▁văzut",
        -9.192255413333939
      ],
      [
        "▁Î",
        -9.192288266027267
      ],
      [
        "sa-i",
        -9.193528546213859
      ],
      [
        "sti",
        -9.193644852908436
      ],
      [
        "▁par",
        -9.195948868687516
      ],
      [
        "▁copiii",
        -9.197427365703337
      ],
      [
        "▁SUA",
        -9.198580195010756
      ],
      [
        "▁joc",
        -9.200142075409008
      ],
      [
        "▁diverse",
        -9.200660000490357
      ],
      [
        "▁22",
        -9.201714124716833
      ],
      [
        "în",
        -9.202932869182355
      ],
      [
        "▁viaţa",
        -9.205792787600974
      ],
      [
        "▁ajutorul",
        -9.208782628521444
      ],
      [
        "▁Cine",
        -9.209399926571802
      ],
      [
        "▁politica",
        -9.21300860126467
      ],
      [
        "▁mie",
        -9.213053337083334
      ],
      [
        "▁usor",
        -9.213338849419223
      ],
      [
        "▁datelor",
        -9.213501376080266
      ],
      [
        "▁află",
        -9.213558902524326
      ],
      [
        "urilor",
        -9.221059726968397
      ],
      [
        "▁mii",
        -9.22125523729504
      ],
      [
        "▁publică",
        -9.222978511115382
      ],
      [
        "▁21",
        -9.225704390011714
      ],
      [
        "▁valoare",
        -9.22586188428767
      ],
      [
        "▁apare",
        -9.226510260100774
      ],
      [
        "▁ultimele",
        -9.227887577915883
      ],
      [
        "▁grup",
        -9.228051575590122
      ],
      [
        "▁lege",
        -9.228220660072324
      ],
      [
        "▁s",
        -9.228825689581353
      ],
      [
        "▁lipsa",
        -9.229452750059938
      ],
      [
        "▁PSD",
        -9.230921335988258
      ],
      [
        "ge",
        -9.231443537700999
      ],
      [
        "▁mama",
        -9.234085242349606
      ],
      [
        "▁alin.",
        -9.235709545871718
      ],
      [
        "▁femei",
        -9.23777128759416
      ],
      [
        "▁iulie",
        -9.238931235195963
      ],
      [
        "▁Moldova",
        -9.238947875857782
      ],
      [
        "▁:)",
        -9.238960028071686
      ],
      [
        "▁informatii",
        -9.238968738201674
      ],
      [
        "ări",
        -9.239029199375917
      ],
      [
        "▁Trebuie",
        -9.23950182200484
      ],
      [
        "▁R",
        -9.24218935799786
      ],
      [
        "▁zilei",
        -9.242189686237186
      ],
      [
        "▁19",
        -9.242908305296043
      ],
      [
        "▁echipa",
        -9.244799361096565
      ],
      [
        "▁aveti",
        -9.247433415659657
      ],
      [
        "▁reprezintă",
        -9.247559476811473
      ],
      [
        "▁Cred",
        -9.248918781341546
      ],
      [
        "▁film",
        -9.248936587237214
      ],
      [
        "ve",
        -9.249601075006604
      ],
      [
        "sc",
        -9.250055811039392
      ],
      [
        "to",
        -9.251057408750087
      ],
      [
        "▁Le",
        -9.25196258358141
      ],
      [
        "▁li",
        -9.252798153140674
      ],
      [
        "▁pas",
        -9.253027624759612
      ],
      [
        "▁2012",
        -9.254020931314162
      ],
      [
        "▁pro",
        -9.254884826704227
      ],
      [
        "▁dvs.",
        -9.255025658744962
      ],
      [
        "▁sigur",
        -9.255059330881348
      ],
      [
        "▁contra",
        -9.255256065053596
      ],
      [
        "▁liber",
        -9.256500509990147
      ],
      [
        "▁încât",
        -9.256709669117072
      ],
      [
        "▁Noi",
        -9.25714452241107
      ],
      [
        "▁față",
        -9.257839377104649
      ],
      [
        "▁Pro",
        -9.257959841510255
      ],
      [
        "▁niciodată",
        -9.258159639590044
      ],
      [
        "▁S-a",
        -9.259249611302852
      ],
      [
        "▁Legea",
        -9.25938225256726
      ],
      [
        "▁tău",
        -9.259437536494804
      ],
      [
        "ezi",
        -9.260737624868874
      ],
      [
        "N",
        -9.263782962708131
      ],
      [
        "▁langa",
        -9.263881576131304
      ],
      [
        "▁cunoscut",
        -9.266121488661728
      ],
      [
        "▁câte",
        -9.266148208250991
      ],
      [
        "▁arată",
        -9.267184083146008
      ],
      [
        "▁Europa",
        -9.267540861969174
      ],
      [
        "▁web",
        -9.267841413555416
      ],
      [
        "▁Al",
        -9.26850766801865
      ],
      [
        "▁primele",
        -9.273514663177497
      ],
      [
        "▁activitatea",
        -9.273554497219092
      ],
      [
        "▁imediat",
        -9.273971673615257
      ],
      [
        "▁necesare",
        -9.27462798202739
      ],
      [
        "▁toţi",
        -9.27519768305501
      ],
      [
        "▁50",
        -9.27534462702463
      ],
      [
        "▁acel",
        -9.276359898481742
      ],
      [
        "▁ne-a",
        -9.27682963277842
      ],
      [
        "▁apă",
        -9.279125346713133
      ],
      [
        "▁inima",
        -9.279234184272838
      ],
      [
        "▁post",
        -9.280016231591418
      ],
      [
        "▁necesar",
        -9.280854620959598
      ],
      [
        "▁n-a",
        -9.28196301958647
      ],
      [
        "nt",
        -9.282337724534429
      ],
      [
        "▁Uniunii",
        -9.283676834899842
      ],
      [
        "▁si-a",
        -9.285079820975486
      ],
      [
        "5",
        -9.2854406179069
      ],
      [
        "▁datele",
        -9.286904145039072
      ],
      [
        "▁aia",
        -9.287019239611265
      ],
      [
        "▁complet",
        -9.288409752171397
      ],
      [
        "▁cinci",
        -9.288621073256863
      ],
      [
        "tele",
        -9.289064140117585
      ],
      [
        "▁acea",
        -9.289942543163633
      ],
      [
        "▁realizat",
        -9.294964128494218
      ],
      [
        "cul",
        -9.295149074490059
      ],
      [
        "▁intrat",
        -9.29568496545594
      ],
      [
        "▁membru",
        -9.295875149350522
      ],
      [
        "▁succes",
        -9.296964560528831
      ],
      [
        "▁ba",
        -9.297620034758465
      ],
      [
        "▁deschis",
        -9.29879390717318
      ],
      [
        "▁Nici",
        -9.300022224104861
      ],
      [
        "▁ultimul",
        -9.300359713233082
      ],
      [
        "▁Ei",
        -9.300917717883564
      ],
      [
        "j",
        -9.303698365894888
      ],
      [
        "-uri",
        -9.305356354918148
      ],
      [
        "▁singura",
        -9.30546705212073
      ],
      [
        "▁doilea",
        -9.306388240804477
      ],
      [
        "▁ne-am",
        -9.307279843828306
      ],
      [
        "▁scurt",
        -9.309384159818146
      ],
      [
        "▁schimb",
        -9.310262396000496
      ],
      [
        "▁n-am",
        -9.311957319321344
      ],
      [
        "▁acelasi",
        -9.31297588385921
      ],
      [
        "▁stie",
        -9.31319595313634
      ],
      [
        "▁2.",
        -9.313278488946931
      ],
      [
        "ind",
        -9.315449476002991
      ],
      [
        "▁sine",
        -9.317016125650797
      ],
      [
        "▁d",
        -9.317637413204295
      ],
      [
        "▁pic",
        -9.317743752029958
      ],
      [
        "▁gratuit",
        -9.318448418603946
      ],
      [
        "▁23",
        -9.319400403937646
      ],
      [
        "▁începe",
        -9.320877235432516
      ],
      [
        "▁total",
        -9.321706649949881
      ],
      [
        "tie",
        -9.322405249576065
      ],
      [
        "▁Mă",
        -9.3226992924122
      ],
      [
        "▁Sau",
        -9.323319994520386
      ],
      [
        "▁mi-am",
        -9.323409154067473
      ],
      [
        "▁scopul",
        -9.324890293341408
      ],
      [
        "▁nume",
        -9.32563921593691
      ],
      [
        "▁Cand",
        -9.32564995874969
      ],
      [
        "▁aproximativ",
        -9.32756427225859
      ],
      [
        "▁curent",
        -9.330469248351278
      ],
      [
        "▁iau",
        -9.3307462045303
      ],
      [
        "▁trimis",
        -9.331279209451363
      ],
      [
        "▁cere",
        -9.331330956082432
      ],
      [
        "▁lor,",
        -9.334223218854735
      ],
      [
        "▁Consiliul",
        -9.334902907693014
      ],
      [
        "▁macar",
        -9.336373860566221
      ],
      [
        "▁lumina",
        -9.338751074433658
      ],
      [
        "▁f",
        -9.339061072918062
      ],
      [
        "▁exemplu",
        -9.339388436631335
      ],
      [
        "ver",
        -9.339466840043986
      ],
      [
        "▁Tot",
        -9.340949196942233
      ],
      [
        "▁program",
        -9.341732719508258
      ],
      [
        "mă",
        -9.341774695810326
      ],
      [
        "V",
        -9.342037347931445
      ],
      [
        "▁detalii",
        -9.345033097697538
      ],
      [
        "▁altfel",
        -9.346930868697118
      ],
      [
        "▁murit",
        -9.347836435924737
      ],
      [
        "▁rămâne",
        -9.348782797161729
      ],
      [
        "▁oferi",
        -9.350380848656016
      ],
      [
        "▁aer",
        -9.350898758903728
      ],
      [
        "toare",
        -9.351312298402895
      ],
      [
        "▁Asa",
        -9.352171346222256
      ],
      [
        "▁e-mail",
        -9.35357688766968
      ],
      [
        "▁Mare",
        -9.35411823433828
      ],
      [
        "▁culoare",
        -9.35501955875037
      ],
      [
        "▁vremea",
        -9.35717688577657
      ],
      [
        "▁co",
        -9.357863673298718
      ],
      [
        "vi",
        -9.359136449487782
      ],
      [
        "▁pui",
        -9.359189409029122
      ],
      [
        "▁faţa",
        -9.359245425947739
      ],
      [
        "▁Vezi",
        -9.359925568224664
      ],
      [
        "▁continua",
        -9.361875746612789
      ],
      [
        "▁fiu",
        -9.362209176552087
      ],
      [
        "▁Da",
        -9.363164736582025
      ],
      [
        "▁noastra",
        -9.363938492434714
      ],
      [
        "▁comentariu",
        -9.364512283135884
      ],
      [
        "▁(A",
        -9.36637758643651
      ],
      [
        "▁plecat",
        -9.367425227350285
      ],
      [
        "▁vede",
        -9.367778208952124
      ],
      [
        "▁plan",
        -9.369954229275951
      ],
      [
        "ter",
        -9.37026029549446
      ],
      [
        "ment",
        -9.370360749923693
      ],
      [
        "▁viaţă",
        -9.370858805164362
      ],
      [
        "▁rau",
        -9.370964267462508
      ],
      [
        "-și",
        -9.37248113971183
      ],
      [
        "▁Dan",
        -9.373110856916975
      ],
      [
        "▁număr",
        -9.373361487732975
      ],
      [
        "▁numărul",
        -9.376990371550022
      ],
      [
        "▁Tu",
        -9.377822675672896
      ],
      [
        "ește",
        -9.378261205031595
      ],
      [
        "▁prezent",
        -9.380503809467303
      ],
      [
        "▁minte",
        -9.381206360048918
      ],
      [
        "▁serie",
        -9.382363760672547
      ],
      [
        "▁dintr-o",
        -9.382944636434683
      ],
      [
        "▁gasit",
        -9.383296965782389
      ],
      [
        "▁posibilitatea",
        -9.388885238937117
      ],
      [
        "▁ei.",
        -9.38924233473891
      ],
      [
        "fi",
        -9.391006983774997
      ],
      [
        "bi",
        -9.391492997126562
      ],
      [
        "▁vedem",
        -9.392789333139405
      ],
      [
        "▁altor",
        -9.392877033255616
      ],
      [
        "▁majoritatea",
        -9.393940860554725
      ],
      [
        "▁adevarat",
        -9.394282475620557
      ],
      [
        "▁ideea",
        -9.394557567120774
      ],
      [
        "4",
        -9.395028542373613
      ],
      [
        "▁seara",
        -9.396691629353846
      ],
      [
        "▁plin",
        -9.397470333020223
      ],
      [
        "▁tratament",
        -9.398526480589942
      ],
      [
        "!”",
        -9.399008530121264
      ],
      [
        "▁K",
        -9.400278839790431
      ],
      [
        "▁acces",
        -9.400772510152148
      ],
      [
        "▁Bucuresti",
        -9.40133334266862
      ],
      [
        "▁indiferent",
        -9.401932855211115
      ],
      [
        "ţie",
        -9.402034044036993
      ],
      [
        "▁cazuri",
        -9.403709407126886
      ],
      [
        "!!!",
        -9.403915412128072
      ],
      [
        "▁Ioan",
        -9.404340199385171
      ],
      [
        "▁pagina",
        -9.404899930127584
      ],
      [
        "▁VIDEO",
        -9.405251515873054
      ],
      [
        "ch",
        -9.406128616967155
      ],
      [
        "▁sens",
        -9.407199415918145
      ],
      [
        "▁zilele",
        -9.407856004372949
      ],
      [
        "▁sufletul",
        -9.408178745541633
      ],
      [
        "ut",
        -9.409109968678962
      ],
      [
        "▁adevărat",
        -9.409442025485536
      ],
      [
        "▁continuare",
        -9.410081272346659
      ],
      [
        "▁plăcut",
        -9.411160782943938
      ],
      [
        "îți",
        -9.41152008382192
      ],
      [
        "▁vederea",
        -9.41283671798854
      ],
      [
        "▁oferă",
        -9.413573349280055
      ],
      [
        "▁Atunci",
        -9.41389834773339
      ],
      [
        "▁asigura",
        -9.414153887793265
      ],
      [
        "▁sistemului",
        -9.414835139314835
      ],
      [
        "▁Astfel,",
        -9.415347515854082
      ],
      [
        "pă",
        -9.415448025847528
      ],
      [
        "O",
        -9.415514750303707
      ],
      [
        "▁roman",
        -9.415576997835025
      ],
      [
        "▁vrut",
        -9.415732639437927
      ],
      [
        "▁vis",
        -9.41574592453456
      ],
      [
        "▁dai",
        -9.416072834125796
      ],
      [
        "▁şi-a",
        -9.417619445096395
      ],
      [
        "ing",
        -9.419514795569896
      ],
      [
        "U",
        -9.419595454338726
      ],
      [
        "ba",
        -9.42062797935979
      ],
      [
        "▁uitat",
        -9.422216747945734
      ],
      [
        "pa",
        -9.422571692122421
      ],
      [
        "ura",
        -9.42301258654587
      ],
      [
        "▁utilizarea",
        -9.423837443294039
      ],
      [
        "▁masa",
        -9.424139961544684
      ],
      [
        "▁Acesta",
        -9.425445380709984
      ],
      [
        "▁(4)",
        -9.425790626153981
      ],
      [
        "▁acestora",
        -9.426039453519655
      ],
      [
        "▁puterea",
        -9.426327896543167
      ],
      [
        "▁motive",
        -9.42707908168868
      ],
      [
        "▁mulţi",
        -9.427589536555555
      ],
      [
        "sta",
        -9.42781054416961
      ],
      [
        "▁piata",
        -9.429211764693898
      ],
      [
        "▁perfect",
        -9.431276795866623
      ],
      [
        "▁utilizare",
        -9.431787730403201
      ],
      [
        "▁femeie",
        -9.433149235665933
      ],
      [
        "▁mana",
        -9.433366564384912
      ],
      [
        "▁viitor",
        -9.43372781742329
      ],
      [
        "▁raspuns",
        -9.43435191302396
      ],
      [
        "▁2011",
        -9.435641288542591
      ],
      [
        "▁activitate",
        -9.436829767439955
      ],
      [
        "▁prevăzute",
        -9.437397919472737
      ],
      [
        "6",
        -9.437776111519025
      ],
      [
        "▁Co",
        -9.439617443557148
      ],
      [
        "hi",
        -9.44015627693943
      ],
      [
        "ească",
        -9.44226843671424
      ],
      [
        "▁rând",
        -9.443050010754261
      ],
      [
        "▁rămas",
        -9.443337202002386
      ],
      [
        "▁cuvinte",
        -9.444470864281449
      ],
      [
        "▁persoanele",
        -9.44597201396388
      ],
      [
        "fa",
        -9.446108111879962
      ],
      [
        "▁L",
        -9.446478528828466
      ],
      [
        "▁Ministerul",
        -9.447835127246554
      ],
      [
        "▁impreuna",
        -9.448353653608958
      ],
      [
        "▁Consiliului",
        -9.448670619330173
      ],
      [
        "turi",
        -9.448850781035834
      ],
      [
        "▁lista",
        -9.449895540931212
      ],
      [
        "▁stau",
        -9.451162741702536
      ],
      [
        "▁formă",
        -9.451417918367785
      ],
      [
        "▁27",
        -9.451524230640409
      ],
      [
        "▁28",
        -9.45178234808586
      ],
      [
        "▁persoanelor",
        -9.452305597352552
      ],
      [
        "▁p",
        -9.453164586439872
      ],
      [
        "go",
        -9.453999390621332
      ],
      [
        "il",
        -9.454037712363174
      ],
      [
        "▁apar",
        -9.455145148666242
      ],
      [
        "▁Vă",
        -9.455313931488494
      ],
      [
        "din",
        -9.455718367357317
      ],
      [
        "▁eram",
        -9.456804118664824
      ],
      [
        "▁stiri",
        -9.457447280606416
      ],
      [
        "▁26",
        -9.457777005235684
      ],
      [
        "▁auzit",
        -9.45804414099511
      ],
      [
        "▁maxim",
        -9.458354641413113
      ],
      [
        "▁numit",
        -9.458900611929284
      ],
      [
        "-mă",
        -9.459162971795015
      ],
      [
        "▁cookie-uri",
        -9.459216287058467
      ],
      [
        "▁lumii",
        -9.460119685456787
      ],
      [
        "▁zice",
        -9.461525089878418
      ],
      [
        "le-am",
        -9.462304826849548
      ],
      [
        "▁anume",
        -9.464325590482709
      ],
      [
        "▁nicio",
        -9.464861096852095
      ],
      [
        "▁lupta",
        -9.465923605625976
      ],
      [
        "▁copilul",
        -9.466221024939433
      ],
      [
        "▁român",
        -9.46693850827137
      ],
      [
        "▁lasa",
        -9.467842923523353
      ],
      [
        "easca",
        -9.46810403587357
      ],
      [
        "▁aceeasi",
        -9.468771776108147
      ],
      [
        "▁bine,",
        -9.469635235643299
      ],
      [
        "▁astăzi",
        -9.470888640902597
      ],
      [
        "▁(de",
        -9.47157580943756
      ],
      [
        "fe",
        -9.472743551149957
      ],
      [
        "▁con",
        -9.472827830825647
      ],
      [
        "▁s-o",
        -9.472830211636605
      ],
      [
        "▁Ion",
        -9.472861892824774
      ],
      [
        "▁perioadă",
        -9.47383471806902
      ],
      [
        "▁incat",
        -9.474843243241484
      ],
      [
        "▁presa",
        -9.475244712864347
      ],
      [
        "▁stii",
        -9.475386509386338
      ],
      [
        "▁cm",
        -9.47570526529687
      ],
      [
        "izarea",
        -9.47614594634467
      ],
      [
        "▁eveniment",
        -9.476411521253773
      ],
      [
        "▁uneori",
        -9.478214666503348
      ],
      [
        "▁putere",
        -9.478301855191567
      ],
      [
        "▁niciodata",
        -9.478907210282099
      ],
      [
        "▁viața",
        -9.479148560499645
      ],
      [
        "▁control",
        -9.47987923054845
      ],
      [
        "▁sa-ti",
        -9.480861033705224
      ],
      [
        "▁Dragnea",
        -9.48336380318504
      ],
      [
        "▁alături",
        -9.484253402518942
      ],
      [
        "▁România,",
        -9.484699923125905
      ],
      [
        "▁persoană",
        -9.484757332907925
      ],
      [
        "▁Marea",
        -9.485785118355262
      ],
      [
        "▁români",
        -9.485788194491427
      ],
      [
        "W",
        -9.486748378701819
      ],
      [
        "ita",
        -9.486979675482786
      ],
      [
        "▁bază",
        -9.487559713638554
      ],
      [
        "▁raport",
        -9.488014854239806
      ],
      [
        "▁având",
        -9.488890293864879
      ],
      [
        "R",
        -9.48906039583391
      ],
      [
        "▁august",
        -9.48990614564973
      ],
      [
        "▁creat",
        -9.490350425294706
      ],
      [
        "▁drumul",
        -9.490463801005607
      ],
      [
        "▁pat",
        -9.492032919163353
      ],
      [
        "▁statului",
        -9.492152971333473
      ],
      [
        "▁niciun",
        -9.492885541970146
      ],
      [
        "-si",
        -9.495439503193708
      ],
      [
        "▁Cei",
        -9.497504715152871
      ],
      [
        "▁rapid",
        -9.498337095271072
      ],
      [
        "▁tema",
        -9.498365996288305
      ],
      [
        "▁intampla",
        -9.498632065386278
      ],
      [
        "▁publicat",
        -9.498675549530919
      ],
      [
        "▁Ta",
        -9.498830921440106
      ],
      [
        "▁real",
        -9.499208311445924
      ],
      [
        "▁40",
        -9.501203877032442
      ],
      [
        "▁placut",
        -9.502351087179456
      ],
      [
        "▁schimba",
        -9.502602967330887
      ],
      [
        "vo",
        -9.503234343495254
      ],
      [
        "che",
        -9.50324722864778
      ],
      [
        "▁descoperit",
        -9.50349839381872
      ],
      [
        "▁răspuns",
        -9.50485403614697
      ],
      [
        "▁aici.",
        -9.504866721827963
      ],
      [
        "▁imagini",
        -9.504977887652444
      ],
      [
        "▁ştiu",
        -9.505042300583414
      ],
      [
        "▁dezvoltarea",
        -9.5051304733623
      ],
      [
        "▁transport",
        -9.506298677998284
      ],
      [
        "▁drum",
        -9.506936989177959
      ],
      [
        "▁crescut",
        -9.509585005594971
      ],
      [
        "▁telefon",
        -9.510988768717358
      ],
      [
        "-ți",
        -9.511330122377156
      ],
      [
        "▁European",
        -9.51151761302117
      ],
      [
        "▁timp,",
        -9.512864579089928
      ],
      [
        "▁devine",
        -9.51332251723273
      ],
      [
        "▁energie",
        -9.51364672012522
      ],
      [
        "re,",
        -9.515081496641706
      ],
      [
        "▁Biserica",
        -9.515815260816865
      ],
      [
        "▁—",
        -9.515907481549963
      ],
      [
        "▁locale",
        -9.516371048293507
      ],
      [
        "▁Comisia",
        -9.517390732513462
      ],
      [
        "▁legate",
        -9.517395901403184
      ],
      [
        "▁cartea",
        -9.518048294382647
      ],
      [
        "ză",
        -9.518515697010098
      ],
      [
        "▁clasa",
        -9.519538167614835
      ],
      [
        "▁SI",
        -9.520147966335408
      ],
      [
        "▁The",
        -9.52278446086639
      ],
      [
        "▁2010",
        -9.523700072761805
      ],
      [
        "▁di",
        -9.523816658051725
      ],
      [
        "▁mediu",
        -9.526234173529776
      ],
      [
        "ție",
        -9.527542022336995
      ],
      [
        "▁corect",
        -9.527606334043071
      ],
      [
        "▁lansat",
        -9.52785016680845
      ],
      [
        "▁repede",
        -9.52904369966922
      ],
      [
        "▁functie",
        -9.530579690144233
      ],
      [
        "▁mers",
        -9.531528499119705
      ],
      [
        "▁filme",
        -9.534366556052614
      ],
      [
        "▁schimbat",
        -9.534479153410704
      ],
      [
        "▁of",
        -9.535123822861785
      ],
      [
        "▁familie",
        -9.535220584894805
      ],
      [
        "▁Era",
        -9.535222606328547
      ],
      [
        "▁X",
        -9.536216015414968
      ],
      [
        "▁exemplu,",
        -9.537184457809989
      ],
      [
        "▁gen",
        -9.540107854965825
      ],
      [
        "▁duc",
        -9.54145721652619
      ],
      [
        "nta",
        -9.541511091630198
      ],
      [
        "▁folosi",
        -9.541866244134265
      ],
      [
        "▁abia",
        -9.542018302836219
      ],
      [
        "▁adică",
        -9.542176457115643
      ],
      [
        "00",
        -9.54231911746594
      ],
      [
        "▁poți",
        -9.542495599281416
      ],
      [
        "▁miliarde",
        -9.54342129326568
      ],
      [
        "▁normal",
        -9.54380763679041
      ],
      [
        "▁ofera",
        -9.54410007521794
      ],
      [
        "rul",
        -9.544184290388689
      ],
      [
        "▁impotriva",
        -9.544946049263473
      ],
      [
        "▁conformitate",
        -9.545325056026973
      ],
      [
        "ismul",
        -9.545961971629378
      ],
      [
        "▁scriu",
        -9.547697783138116
      ],
      [
        "-au",
        -9.547750394891803
      ],
      [
        "▁scop",
        -9.548686476012863
      ],
      [
        "▁Ba",
        -9.54930791123455
      ],
      [
        "▁informații",
        -9.54999868921426
      ],
      [
        "sa-l",
        -9.550121288728977
      ],
      [
        "7",
        -9.550574645640648
      ],
      [
        "▁oamenilor",
        -9.550686921534865
      ],
      [
        "▁celui",
        -9.551766185597087
      ],
      [
        "▁IN",
        -9.551867167615823
      ],
      [
        "torii",
        -9.552570682178708
      ],
      [
        "ităţii",
        -9.553678585008083
      ],
      [
        "▁model",
        -9.553887627814131
      ],
      [
        "man",
        -9.55483932846667
      ],
      [
        "▁verde",
        -9.554951798161746
      ],
      [
        "▁«",
        -9.55533030212167
      ],
      [
        "▁minim",
        -9.555455865751036
      ],
      [
        "▁experienta",
        -9.556370968630343
      ],
      [
        "▁Da,",
        -9.556738907319765
      ],
      [
        "▁vi",
        -9.558676037968986
      ],
      [
        "▁Domnul",
        -9.558822894473693
      ],
      [
        "▁deveni",
        -9.559509024366928
      ],
      [
        "▁LA",
        -9.560694439182326
      ],
      [
        "▁istoria",
        -9.560874211461277
      ],
      [
        "▁măcar",
        -9.56109145132924
      ],
      [
        "▁alege",
        -9.561322375065082
      ],
      [
        "▁văd",
        -9.56208297811389
      ],
      [
        "▁suflet",
        -9.562882533571086
      ],
      [
        "▁puncte",
        -9.563109481909365
      ],
      [
        "▁intermediul",
        -9.563382730124122
      ],
      [
        "po",
        -9.563685445579882
      ],
      [
        "▁aibă",
        -9.563884607084344
      ],
      [
        "▁deloc",
        -9.564156564432928
      ],
      [
        "▁absolut",
        -9.564914863525878
      ],
      [
        "▁statul",
        -9.565326887996127
      ],
      [
        "▁masina",
        -9.565839281660786
      ],
      [
        "▁anii",
        -9.56641132974022
      ],
      [
        "cit",
        -9.568483347902479
      ],
      [
        "▁©",
        -9.569990143492861
      ],
      [
        "▁astea",
        -9.570908936954394
      ],
      [
        "▁ati",
        -9.571170774346497
      ],
      [
        "▁capul",
        -9.571435989727883
      ],
      [
        "▁Articolul",
        -9.571656296624603
      ],
      [
        "▁membre",
        -9.571759168773388
      ],
      [
        "▁ramas",
        -9.573184494062907
      ],
      [
        "▁ești",
        -9.573949999523936
      ],
      [
        "▁serviciile",
        -9.574803486967554
      ],
      [
        "▁urmare",
        -9.576836243061763
      ],
      [
        "îţi",
        -9.57708643352759
      ],
      [
        "ion",
        -9.577111143240316
      ],
      [
        "Această",
        -9.57825114099854
      ],
      [
        "▁copiilor",
        -9.579422135010628
      ],
      [
        "▁video",
        -9.57967479201579
      ],
      [
        "▁Guvernului",
        -9.581207612144658
      ],
      [
        "▁prezentat",
        -9.582202172439475
      ],
      [
        "ază",
        -9.584317018363478
      ],
      [
        "▁reusit",
        -9.58489980838206
      ],
      [
        "▁Doar",
        -9.586108174568938
      ],
      [
        "pt",
        -9.586596088846726
      ],
      [
        "▁oficial",
        -9.587767489473377
      ],
      [
        "▁celelalte",
        -9.588726582349485
      ],
      [
        "ire",
        -9.58939614916316
      ],
      [
        "▁legea",
        -9.590134993027306
      ],
      [
        "▁poţi",
        -9.590542014084406
      ],
      [
        "H",
        -9.591723958448782
      ],
      [
        "▁email.",
        -9.59206136144213
      ],
      [
        "▁uita",
        -9.592122911887135
      ],
      [
        "tori",
        -9.593075515669472
      ],
      [
        "▁puternic",
        -9.593894147118956
      ],
      [
        "▁Hristos",
        -9.594014947112115
      ],
      [
        "▁acelaşi",
        -9.594229125567578
      ],
      [
        "▁sex",
        -9.595042430470425
      ],
      [
        "▁sit",
        -9.595546895057907
      ],
      [
        "▁familia",
        -9.595618827125513
      ],
      [
        "gi",
        -9.595893131466525
      ],
      [
        "▁g",
        -9.596264825065681
      ],
      [
        "▁prost",
        -9.596608773507036
      ],
      [
        "▁legatura",
        -9.596718365629117
      ],
      [
        "▁mulți",
        -9.59732578315943
      ],
      [
        "▁Potrivit",
        -9.597624157886116
      ],
      [
        "▁3.",
        -9.597687824982962
      ],
      [
        "▁folosesc",
        -9.598098545544193
      ],
      [
        "F",
        -9.598574560141905
      ],
      [
        "▁imagine",
        -9.599122626315598
      ],
      [
        "▁pi",
        -9.599331046941082
      ],
      [
        "▁format",
        -9.600927864138558
      ],
      [
        "▁social",
        -9.601138631563359
      ],
      [
        "▁Nicolae",
        -9.601507014905714
      ],
      [
        "▁N",
        -9.601925056724756
      ],
      [
        "▁găsit",
        -9.602208399702448
      ],
      [
        "▁politic",
        -9.602420757764808
      ],
      [
        "▁punctul",
        -9.603322022657311
      ],
      [
        "▁@",
        -9.603420012199102
      ],
      [
        "▁informaţii",
        -9.605068554381718
      ],
      [
        "▁interes",
        -9.60565701554645
      ],
      [
        "▁noul",
        -9.605862281606472
      ],
      [
        "▁Di",
        -9.60639859584127
      ],
      [
        "▁jur",
        -9.609528685937821
      ],
      [
        "▁frumoase",
        -9.609575714962535
      ],
      [
        "cat",
        -9.609725862314004
      ],
      [
        "▁500",
        -9.610110171366998
      ],
      [
        "▁merg",
        -9.61026322800721
      ],
      [
        "▁pierde",
        -9.61196429392481
      ],
      [
        "▁anti",
        -9.612129178693452
      ],
      [
        "▁TV",
        -9.612681463340685
      ],
      [
        "▁materiale",
        -9.613116272455798
      ],
      [
        "▁Aceste",
        -9.613182783532853
      ],
      [
        "be",
        -9.613265850586384
      ],
      [
        "ist",
        -9.615011788310348
      ],
      [
        "ii,",
        -9.615509368474022
      ],
      [
        "▁29",
        -9.61603502322929
      ],
      [
        "ală",
        -9.616994506773072
      ],
      [
        "▁dori",
        -9.617743748107827
      ],
      [
        "▁ieri",
        -9.61790442944843
      ],
      [
        "▁romani",
        -9.619119168642888
      ],
      [
        "▁restul",
        -9.619643480320772
      ],
      [
        "▁sper",
        -9.620191218686202
      ],
      [
        "min",
        -9.620507239321661
      ],
      [
        "▁noi.",
        -9.621067821212797
      ],
      [
        "G",
        -9.621575215573937
      ],
      [
        "▁desi",
        -9.623466284478267
      ],
      [
        "▁serviciu",
        -9.62420920484722
      ],
      [
        "▁constituie",
        -9.624247912947823
      ],
      [
        "▁vreun",
        -9.624449909215283
      ],
      [
        "▁ridicat",
        -9.624546606066374
      ],
      [
        "um",
        -9.626365613066792
      ],
      [
        "▁plac",
        -9.626893713901485
      ],
      [
        "▁contact",
        -9.626967759814274
      ],
      [
        "▁fizice",
        -9.627143191366603
      ],
      [
        "▁dezvoltare",
        -9.628190028544243
      ],
      [
        "▁Guvernul",
        -9.628224997578467
      ],
      [
        "▁ni",
        -9.628285540610932
      ],
      [
        "▁varsta",
        -9.628333494180193
      ],
      [
        "▁spatele",
        -9.629530737079556
      ],
      [
        "▁și-a",
        -9.630210535763968
      ],
      [
        "▁aveau",
        -9.630745945140847
      ],
      [
        "▁veche",
        -9.63109232165927
      ],
      [
        "▁propria",
        -9.63176435119965
      ],
      [
        "▁veti",
        -9.633080191614898
      ],
      [
        "▁siguranta",
        -9.633903458347255
      ],
      [
        "▁incepe",
        -9.633935558470139
      ],
      [
        "▁ajung",
        -9.635027659219856
      ],
      [
        "▁viață",
        -9.635632761494204
      ],
      [
        "▁valoarea",
        -9.635734798845421
      ],
      [
        "izare",
        -9.636936873020948
      ],
      [
        "▁Buna",
        -9.637182621211146
      ],
      [
        "▁dintr-un",
        -9.638178837371033
      ],
      [
        "▁aiba",
        -9.63849635952495
      ],
      [
        "▁multa",
        -9.638885023601425
      ],
      [
        "▁material",
        -9.639152936060158
      ],
      [
        "“",
        -9.639752399712298
      ],
      [
        "▁plata",
        -9.641368835568754
      ],
      [
        "▁decis",
        -9.641745515099984
      ],
      [
        "sa-si",
        -9.64277570714863
      ],
      [
        "▁2013",
        -9.642865989558723
      ],
      [
        "▁Casa",
        -9.643208595702866
      ],
      [
        "▁Că",
        -9.64401882810429
      ],
      [
        "▁procesul",
        -9.644091095418855
      ],
      [
        "▁SA",
        -9.644767919707922
      ],
      [
        "▁spui",
        -9.645189795862587
      ],
      [
        "ţ",
        -9.646111101783799
      ],
      [
        "▁acasă",
        -9.646305736062967
      ],
      [
        "▁comun",
        -9.646749939416278
      ],
      [
        "şti",
        -9.64718557137548
      ],
      [
        "▁PNL",
        -9.64769036611673
      ],
      [
        "▁pret",
        -9.64855327796992
      ],
      [
        "▁vina",
        -9.649638812527794
      ],
      [
        "▁produsele",
        -9.649909752678461
      ],
      [
        "▁veni",
        -9.64993183452148
      ],
      [
        "▁efect",
        -9.650005598996987
      ],
      [
        "▁alb",
        -9.65010431422289
      ],
      [
        "▁adica",
        -9.650873347492688
      ],
      [
        "▁2014",
        -9.651317817948339
      ],
      [
        "cea",
        -9.651890564471087
      ],
      [
        "▁tari",
        -9.652446084142092
      ],
      [
        "ism",
        -9.65246916694971
      ],
      [
        "▁referitoare",
        -9.652627663234464
      ],
      [
        ");",
        -9.653187650564037
      ],
      [
        "▁aveam",
        -9.653725889354677
      ],
      [
        "con",
        -9.654222171277661
      ],
      [
        "ru",
        -9.654806333064197
      ],
      [
        "▁ajutor",
        -9.655947755804302
      ],
      [
        "▁urmat",
        -9.656145901784603
      ],
      [
        "▁W",
        -9.656980135699943
      ],
      [
        "irea",
        -9.657861429465068
      ],
      [
        "▁recent",
        -9.657987145676714
      ],
      [
        "▁medicale",
        -9.658665511900246
      ],
      [
        "▁ocazia",
        -9.658917718326407
      ],
      [
        "▁ultimii",
        -9.65895419426838
      ],
      [
        "▁super",
        -9.660394264010916
      ],
      [
        "▁ajută",
        -9.66170786768927
      ],
      [
        "AM",
        -9.66215588677636
      ],
      [
        "▁proiecte",
        -9.66218466696414
      ],
      [
        "▁masura",
        -9.662618151916007
      ],
      [
        "gă",
        -9.663265330688692
      ],
      [
        "▁greutate",
        -9.663432384687127
      ],
      [
        "▁rezultate",
        -9.664119320418632
      ],
      [
        "▁ramane",
        -9.664377727412148
      ],
      [
        "▁proces",
        -9.66439618871582
      ],
      [
        "▁Postare",
        -9.665083480995232
      ],
      [
        "▁fața",
        -9.666750276369719
      ],
      [
        "▁lung",
        -9.66751025921237
      ],
      [
        "▁Victor",
        -9.669816207871282
      ],
      [
        "tura",
        -9.672171802755539
      ],
      [
        "sh",
        -9.673250400945223
      ],
      [
        "30",
        -9.674785573172947
      ],
      [
        "▁crea",
        -9.675772245838274
      ],
      [
        "▁jumătate",
        -9.676767259637419
      ],
      [
        "▁legii",
        -9.677462023665072
      ],
      [
        "▁lemn",
        -9.677871123467362
      ],
      [
        "să",
        -9.678005980852536
      ],
      [
        "▁bucur",
        -9.678079351220585
      ],
      [
        "▁multă",
        -9.678876813469161
      ],
      [
        "▁acele",
        -9.67894275874874
      ],
      [
        "▁media",
        -9.679459619889814
      ],
      [
        "▁cerut",
        -9.679859333347563
      ],
      [
        "▁ulei",
        -9.679860972507624
      ],
      [
        "▁gata",
        -9.68171203872878
      ],
      [
        "▁dumneavoastră",
        -9.684190657211337
      ],
      [
        "▁casă",
        -9.686873140640838
      ],
      [
        "▁acela",
        -9.687931034483412
      ],
      [
        "▁31",
        -9.688237575635132
      ],
      [
        "▁foto",
        -9.688497177594945
      ],
      [
        "▁mine,",
        -9.688514076556803
      ],
      [
        "▁suficient",
        -9.689354552566662
      ],
      [
        "-ului",
        -9.689513786272247
      ],
      [
        "▁reprezinta",
        -9.689525185911886
      ],
      [
        "▁plus,",
        -9.690622752742092
      ],
      [
        "▁Uniunea",
        -9.690795987099836
      ],
      [
        "▁cale",
        -9.69240411326002
      ],
      [
        "▁principal",
        -9.694109096667198
      ],
      [
        "▁obicei",
        -9.694244531483355
      ],
      [
        "▁rolul",
        -9.694685430203819
      ],
      [
        "▁Ponta",
        -9.694704493958616
      ],
      [
        "▁guvern",
        -9.695307434891395
      ],
      [
        "▁local",
        -9.695792296911092
      ],
      [
        "▁fapt,",
        -9.69670126001579
      ],
      [
        "th",
        -9.696749601280374
      ],
      [
        "▁București",
        -9.696848685687108
      ],
      [
        "▁vot",
        -9.697628641178333
      ],
      [
        "▁sînt",
        -9.697762750364344
      ],
      [
        "▁zi,",
        -9.698644530013478
      ],
      [
        "▁As",
        -9.698647794706329
      ],
      [
        "ven",
        -9.6991928167274
      ],
      [
        "▁clic",
        -9.699981792926948
      ],
      [
        "▁asta,",
        -9.699987934644152
      ],
      [
        "▁aminte",
        -9.700745935261917
      ],
      [
        "▁trimite",
        -9.701001268827511
      ],
      [
        "ști",
        -9.701007161732555
      ],
      [
        "▁sute",
        -9.701418769919563
      ],
      [
        "ck",
        -9.701578666583956
      ],
      [
        "▁crede",
        -9.70218353282969
      ],
      [
        "▁Aici",
        -9.702199269153466
      ],
      [
        "▁Andrei",
        -9.702800545484461
      ],
      [
        "w",
        -9.703133012316318
      ],
      [
        "▁grija",
        -9.703698337118272
      ],
      [
        "▁evident",
        -9.70392633363063
      ],
      [
        "▁natura",
        -9.7043860495249
      ],
      [
        "ț",
        -9.705310796142447
      ],
      [
        "▁vorbit",
        -9.705656018944591
      ],
      [
        "iile",
        -9.705777086409
      ],
      [
        "▁funcţie",
        -9.707125289877446
      ],
      [
        "▁știu",
        -9.708761602274517
      ],
      [
        "▁apărut",
        -9.709149457442026
      ],
      [
        "▁toți",
        -9.70933496554386
      ],
      [
        "ex",
        -9.710146524670279
      ],
      [
        "▁organizat",
        -9.710275492825517
      ],
      [
        "▁inteles",
        -9.710396154634163
      ],
      [
        "▁evenimente",
        -9.710413069909805
      ],
      [
        "rilor",
        -9.710483879497115
      ],
      [
        "▁km",
        -9.71072935719869
      ],
      [
        "▁Z",
        -9.711068984623228
      ],
      [
        "tat",
        -9.712072051062844
      ],
      [
        "▁sursa",
        -9.71263547339382
      ],
      [
        "▁poze",
        -9.71267065916114
      ],
      [
        "▁oferit",
        -9.712689931715627
      ],
      [
        "▁Vi",
        -9.712862666298836
      ],
      [
        "▁europene",
        -9.713295005580118
      ],
      [
        "▁foloseste",
        -9.714244899194636
      ],
      [
        "î",
        -9.714505589251939
      ],
      [
        "înd",
        -9.71544224531975
      ],
      [
        "▁i-au",
        -9.715635669930577
      ],
      [
        "▁bine.",
        -9.715830377977033
      ],
      [
        "▁automat",
        -9.715872490147369
      ],
      [
        "▁american",
        -9.717637844084269
      ],
      [
        "dă",
        -9.718219516772777
      ],
      [
        "nişte",
        -9.718350634718178
      ],
      [
        "▁politică",
        -9.71890198114209
      ],
      [
        "▁continuă",
        -9.719310379696081
      ],
      [
        "▁următoarele",
        -9.720055540326728
      ],
      [
        "?!",
        -9.720109888314687
      ],
      [
        "▁Do",
        -9.720811982326245
      ],
      [
        "9",
        -9.720829036095212
      ],
      [
        "▁studii",
        -9.721204962538156
      ],
      [
        "▁proiectul",
        -9.721328956076338
      ],
      [
        "▁Gheorghe",
        -9.721411221389527
      ],
      [
        "▁Aboneaza-te",
        -9.723056007469737
      ],
      [
        "▁legătură",
        -9.723809248138348
      ],
      [
        "▁el.",
        -9.724214228017726
      ],
      [
        "-şi",
        -9.724339520627893
      ],
      [
        "▁(5)",
        -9.72478004654333
      ],
      [
        "vă",
        -9.725788981600548
      ],
      [
        "▁Europene",
        -9.72592683541924
      ],
      [
        "lu",
        -9.727007251425754
      ],
      [
        "sem",
        -9.728049814227465
      ],
      [
        "▁contract",
        -9.72907166728002
      ],
      [
        "▁stil",
        -9.729335706557624
      ],
      [
        "▁programul",
        -9.730508333269462
      ],
      [
        "▁totusi",
        -9.730737358856253
      ],
      [
        "▁Maria",
        -9.730766278361695
      ],
      [
        "▁mica",
        -9.730964918270864
      ],
      [
        "▁tineri",
        -9.731551531180054
      ],
      [
        "torul",
        -9.732473452270234
      ],
      [
        "▁prieten",
        -9.732889887428522
      ],
      [
        "▁to",
        -9.73399980920565
      ],
      [
        "▁întâmplă",
        -9.73525639306766
      ],
      [
        "ton",
        -9.735603260705908
      ],
      [
        "Z",
        -9.736667161196628
      ],
      [
        "▁starea",
        -9.739883038199904
      ],
      [
        "▁personale",
        -9.739994076012106
      ],
      [
        "▁Comisiei",
        -9.741110193837457
      ],
      [
        "▁cumva",
        -9.741327329141452
      ],
      [
        "▁trebuia",
        -9.742131498046186
      ],
      [
        "oase",
        -9.742274346825493
      ],
      [
        "▁Băsescu",
        -9.742408351524091
      ],
      [
        "▁Cea",
        -9.744160519424677
      ],
      [
        "▁măsură",
        -9.744501669262219
      ],
      [
        "▁teren",
        -9.744605192967873
      ],
      [
        "▁+",
        -9.745347136497696
      ],
      [
        "op",
        -9.746966080352461
      ],
      [
        "ici",
        -9.747306750098208
      ],
      [
        "▁www.",
        -9.748285713382398
      ],
      [
        "▁politice",
        -9.748574184324426
      ],
      [
        "▁serviciilor",
        -9.748608106638862
      ],
      [
        "8",
        -9.74863366428103
      ],
      [
        "▁financiare",
        -9.748766436706909
      ],
      [
        "stra",
        -9.749475020596034
      ],
      [
        "▁'",
        -9.749863272173748
      ],
      [
        "▁acordul",
        -9.750341752823712
      ],
      [
        "ner",
        -9.750532754690248
      ],
      [
        "▁aplica",
        -9.750833624647367
      ],
      [
        "▁HotNews.ro",
        -9.75130834169799
      ],
      [
        "▁asta.",
        -9.751511585983476
      ],
      [
        "▁blogul",
        -9.751618231783635
      ],
      [
        "▁acestuia",
        -9.751709033425008
      ],
      [
        "▁dorit",
        -9.752473540420947
      ],
      [
        "▁gura",
        -9.752836787974406
      ],
      [
        "▁ochi",
        -9.75289271147441
      ],
      [
        "▁lungul",
        -9.75347976749363
      ],
      [
        "▁problemele",
        -9.75348543645938
      ],
      [
        "▁parte,",
        -9.754213978419799
      ],
      [
        "arii",
        -9.75647344905411
      ],
      [
        "ine",
        -9.756673306116387
      ],
      [
        "să-şi",
        -9.756834881905393
      ],
      [
        "▁altceva",
        -9.757266075699313
      ],
      [
        "▁cînd",
        -9.757772258878497
      ],
      [
        "▁numarul",
        -9.75818587045403
      ],
      [
        "▁Dumnezeu,",
        -9.758252740532003
      ],
      [
        "per",
        -9.758648596323887
      ],
      [
        "▁mediul",
        -9.758782116417983
      ],
      [
        "▁camera",
        -9.75920858912004
      ],
      [
        "ghi",
        -9.759794611955298
      ],
      [
        "oasa",
        -9.76009508985308
      ],
      [
        "▁foc",
        -9.76019215131726
      ],
      [
        "▁mult,",
        -9.762904767506331
      ],
      [
        "▁Imi",
        -9.763168214670916
      ],
      [
        "▁consideră",
        -9.763363156512476
      ],
      [
        "▁viitoare",
        -9.763705945719531
      ],
      [
        "a-i",
        -9.763982226393164
      ],
      [
        "▁mea,",
        -9.764742860640022
      ],
      [
        "▁mintea",
        -9.764777405998089
      ],
      [
        "▁economice",
        -9.764887304385093
      ],
      [
        "tra",
        -9.764984958635646
      ],
      [
        "▁folosite",
        -9.766090740584065
      ],
      [
        "▁semn",
        -9.766855512595988
      ],
      [
        "▁povestea",
        -9.76787823454993
      ],
      [
        "▁Unite",
        -9.767937448734509
      ],
      [
        "▁acum,",
        -9.769338663281916
      ],
      [
        "▁idei",
        -9.77014430149217
      ],
      [
        "▁măsuri",
        -9.771237228383045
      ],
      [
        "▁Republica",
        -9.77267772544371
      ],
      [
        "▁director",
        -9.772748047094993
      ],
      [
        "▁mică",
        -9.772797187135161
      ],
      [
        "▁moartea",
        -9.77320904184706
      ],
      [
        "▁UN",
        -9.77400565531391
      ],
      [
        "▁buni",
        -9.77417437323901
      ],
      [
        "▁undeva",
        -9.774568614202495
      ],
      [
        "▁strada",
        -9.774863848680482
      ],
      [
        "▁conditii",
        -9.775648965209419
      ],
      [
        "▁rol",
        -9.776951388781601
      ],
      [
        "▁Pagina",
        -9.777485814375957
      ],
      [
        "▁luni,",
        -9.778046440922488
      ],
      [
        "-te",
        -9.778114974344415
      ],
      [
        "▁Iohannis",
        -9.77859204686947
      ],
      [
        "▁Ro",
        -9.779054522196354
      ],
      [
        "▁pagină",
        -9.779573412098273
      ],
      [
        "▁Deci",
        -9.779574857244018
      ],
      [
        "▁alaturi",
        -9.780195202304167
      ],
      [
        "-ne",
        -9.780531567975487
      ],
      [
        "▁treaba",
        -9.780847594812467
      ],
      [
        "▁carne",
        -9.78116751677981
      ],
      [
        "mp",
        -9.782262815138568
      ],
      [
        "▁Li",
        -9.782312789922607
      ],
      [
        "i-am",
        -9.782465433417837
      ],
      [
        "▁60",
        -9.78248934832828
      ],
      [
        "▁astazi",
        -9.782687799906238
      ],
      [
        "▁el,",
        -9.783298701616083
      ],
      [
        "t.",
        -9.783359548236085
      ],
      [
        "▁vineri",
        -9.783378547408809
      ],
      [
        "▁Con",
        -9.784375859233325
      ],
      [
        "▁ÎN",
        -9.784456552045388
      ],
      [
        "ator",
        -9.784710719373027
      ],
      [
        "aj",
        -9.784836915556806
      ],
      [
        "▁dreapta",
        -9.785044964526396
      ],
      [
        "▁vorbesc",
        -9.786007405488208
      ],
      [
        "▁aspect",
        -9.78611639943049
      ],
      [
        "orul",
        -9.786488012657438
      ],
      [
        "▁Termeni",
        -9.787175467086467
      ],
      [
        "▁200",
        -9.787535114815977
      ],
      [
        "▁idee",
        -9.788129084990555
      ],
      [
        "-ma",
        -9.788602493703143
      ],
      [
        "ându-se",
        -9.78944924914774
      ],
      [
        "▁condus",
        -9.790081977415305
      ],
      [
        "nte",
        -9.790267729279655
      ],
      [
        "▁motor",
        -9.790966062013972
      ],
      [
        "▁Bucureşti",
        -9.791715813645652
      ],
      [
        "▁vara",
        -9.791866068326112
      ],
      [
        "▁produce",
        -9.792063182891965
      ],
      [
        "▁cunosc",
        -9.792968521852323
      ],
      [
        "▁deosebit",
        -9.793621334978134
      ],
      [
        "ân",
        -9.793824727438274
      ],
      [
        "X",
        -9.793960176372124
      ],
      [
        "▁poveste",
        -9.794209146186908
      ],
      [
        "▁suma",
        -9.794509217835065
      ],
      [
        "▁DNA",
        -9.796592775857874
      ],
      [
        "ha",
        -9.796597748224524
      ],
      [
        "`",
        -9.796919823041232
      ],
      [
        "▁Cluj",
        -9.797187888534273
      ],
      [
        "▁trai",
        -9.797557966853244
      ],
      [
        "om",
        -9.798446881163045
      ],
      [
        "▁născut",
        -9.79920724887118
      ],
      [
        "do",
        -9.799278761734929
      ],
      [
        "▁mei",
        -9.799695516206246
      ],
      [
        "ie,",
        -9.79996674749491
      ],
      [
        "▁top",
        -9.800293150791955
      ],
      [
        "▁firma",
        -9.800757732171054
      ],
      [
        "mar",
        -9.800912270942199
      ],
      [
        "▁centrul",
        -9.801866056416088
      ],
      [
        "printr-o",
        -9.802071145236411
      ],
      [
        "▁aduc",
        -9.802436754498846
      ],
      [
        "▁Domnului",
        -9.802854049656613
      ],
      [
        "▁reduce",
        -9.80288595590514
      ],
      [
        "▁anumit",
        -9.803073317830851
      ],
      [
        "▁curs",
        -9.803769336398467
      ],
      [
        "▁Apoi",
        -9.804253603667325
      ],
      [
        "▁Mo",
        -9.804368841508008
      ],
      [
        "▁George",
        -9.804652085548
      ],
      [
        "K",
        -9.80505108978554
      ],
      [
        "▁mesaj",
        -9.80624772559614
      ],
      [
        "care",
        -9.80680015263643
      ],
      [
        "▁calcul",
        -9.807288717788278
      ],
      [
        "▁importanta",
        -9.807354307449799
      ],
      [
        "▁Mar",
        -9.808072469847993
      ],
      [
        "▁Romaniei",
        -9.808166069586449
      ],
      [
        "▁noapte",
        -9.808231872348092
      ],
      [
        "ov",
        -9.808961102338557
      ],
      [
        "▁metri",
        -9.80926819291034
      ],
      [
        "▁muzica",
        -9.809790737722913
      ],
      [
        "ică",
        -9.809842320898834
      ],
      [
        "▁Codul",
        -9.810005828647778
      ],
      [
        "▁același",
        -9.810533404818678
      ],
      [
        "▁fim",
        -9.810726307854779
      ],
      [
        "LE",
        -9.812137632412394
      ],
      [
        "▁po",
        -9.812333200658493
      ],
      [
        "▁aplicare",
        -9.813738763153555
      ],
      [
        "J",
        -9.814050071494965
      ],
      [
        "▁gol",
        -9.814144065680313
      ],
      [
        "+",
        -9.81659782532009
      ],
      [
        "▁crezi",
        -9.817327331196628
      ],
      [
        "▁trebuit",
        -9.8184760606479
      ],
      [
        "▁Fiecare",
        -9.818568204197746
      ],
      [
        ".\"",
        -9.818680066362427
      ],
      [
        "▁CU",
        -9.820339026970167
      ],
      [
        "▁sensul",
        -9.820427850781195
      ],
      [
        "▁Ziua",
        -9.820479542781168
      ],
      [
        "▁dumneavoastra",
        -9.820584931492117
      ],
      [
        "una",
        -9.821065354854285
      ],
      [
        "une",
        -9.824543880125447
      ],
      [
        "▁zilnic",
        -9.824625370702055
      ],
      [
        "▁Top",
        -9.82496560228834
      ],
      [
        "▁proiectului",
        -9.825142055972552
      ],
      [
        "▁forme",
        -9.825585325090177
      ],
      [
        "itatii",
        -9.826247653069398
      ],
      [
        "▁vorbim",
        -9.82687906925241
      ],
      [
        "▁aur",
        -9.826946955273499
      ],
      [
        "rie",
        -9.826960751235813
      ],
      [
        "▁calitatea",
        -9.82745953611562
      ],
      [
        "▁:))",
        -9.828141334622691
      ],
      [
        "▁Traian",
        -9.828269838077116
      ],
      [
        "▁jocuri",
        -9.828703041261589
      ],
      [
        "nţă",
        -9.82917434401822
      ],
      [
        "l-au",
        -9.829202892023437
      ],
      [
        "uri,",
        -9.831519338586975
      ],
      [
        "▁dvs",
        -9.833499197285178
      ],
      [
        "▁Ha",
        -9.83408210038235
      ],
      [
        "▁Rusia",
        -9.836344015241085
      ],
      [
        "▁jucat",
        -9.836665824146895
      ],
      [
        "▁boli",
        -9.836766461940291
      ],
      [
        "▁zeci",
        -9.837719647759174
      ],
      [
        "ești",
        -9.837930377303426
      ],
      [
        "▁saptamana",
        -9.838405325347628
      ],
      [
        "▁altele",
        -9.839018236478342
      ],
      [
        "▁vizita",
        -9.84072011458307
      ],
      [
        "▁de-al",
        -9.840770999502833
      ],
      [
        "▁grave",
        -9.84099974125834
      ],
      [
        "▁gasi",
        -9.841551349801811
      ],
      [
        "▁închisoare",
        -9.842766911008972
      ],
      [
        "▁istorie",
        -9.843150663090967
      ],
      [
        "▁femeile",
        -9.843190251938186
      ],
      [
        "▁participat",
        -9.843195003998769
      ],
      [
        "▁întreaga",
        -9.843392785390142
      ],
      [
        "▁studiu",
        -9.844049033010041
      ],
      [
        "▁rău",
        -9.844134072566149
      ],
      [
        "▁securitate",
        -9.844137098641227
      ],
      [
        "▁genul",
        -9.844303987691086
      ],
      [
        "▁durata",
        -9.844374834869866
      ],
      [
        "▁&",
        -9.844543346064222
      ],
      [
        "▁Adrian",
        -9.844588996939784
      ],
      [
        "▁folosește",
        -9.845466447090928
      ],
      [
        "▁specifice",
        -9.846041701991505
      ],
      [
        "ica",
        -9.847302510111616
      ],
      [
        "▁meci",
        -9.847708054345162
      ],
      [
        "men",
        -9.849187400713067
      ],
      [
        "10",
        -9.849620035657757
      ],
      [
        "▁Preţ",
        -9.850955359630934
      ],
      [
        "▁angajat",
        -9.851000330992717
      ],
      [
        "tro",
        -9.851363751211808
      ],
      [
        "▁participa",
        -9.851643545076351
      ],
      [
        "▁companii",
        -9.851765587092668
      ],
      [
        "▁Radu",
        -9.851963383428128
      ],
      [
        "▁astept",
        -9.85307191093013
      ],
      [
        "▁metode",
        -9.853504210997988
      ],
      [
        "AT",
        -9.85355414068355
      ],
      [
        "▁Art.",
        -9.854966328011768
      ],
      [
        "▁numeroase",
        -9.85568752281309
      ],
      [
        "▁prins",
        -9.856610311185978
      ],
      [
        "ke",
        -9.856686258932198
      ],
      [
        "der",
        -9.856955302271066
      ],
      [
        "▁financiar",
        -9.857646682461223
      ],
      [
        "▁citi",
        -9.858670035190489
      ],
      [
        "▁întotdeauna",
        -9.85886659673031
      ],
      [
        "▁Europeană",
        -9.859212065573436
      ],
      [
        "▁singură",
        -9.860063338539579
      ],
      [
        "▁lucrat",
        -9.860349620555967
      ],
      [
        "20",
        -9.861277513553691
      ],
      [
        "▁4.",
        -9.861869129165717
      ],
      [
        "%",
        -9.862052324967127
      ],
      [
        "▁articolului",
        -9.862311370882509
      ],
      [
        "▁stabilit",
        -9.86238007263211
      ],
      [
        "▁avand",
        -9.86251622878296
      ],
      [
        "▁mare,",
        -9.86257688659901
      ],
      [
        "▁multumesc",
        -9.864191128169265
      ],
      [
        "▁ex",
        -9.864828285124046
      ],
      [
        "▁iubesc",
        -9.865173066213664
      ],
      [
        "▁nostri",
        -9.865194420528033
      ],
      [
        "▁limita",
        -9.865225450036263
      ],
      [
        "▁rezultat",
        -9.86629678673717
      ],
      [
        "▁altii",
        -9.86704177937412
      ],
      [
        "▁parca",
        -9.867621506514071
      ],
      [
        "nic",
        -9.868913299425508
      ],
      [
        "▁acestea,",
        -9.870411069027828
      ],
      [
        "▁ocupa",
        -9.870912324733382
      ],
      [
        "ității",
        -9.871192212006521
      ],
      [
        "-am",
        -9.871276504134745
      ],
      [
        "▁observat",
        -9.871437092004495
      ],
      [
        "▁căci",
        -9.87251965895468
      ],
      [
        "▁produselor",
        -9.873013357400984
      ],
      [
        "▁mo",
        -9.874697481097792
      ],
      [
        "▁zece",
        -9.874850138682351
      ],
      [
        "▁companie",
        -9.874941140228252
      ],
      [
        "▁conditiile",
        -9.875542411835866
      ],
      [
        "0",
        -9.876103902247609
      ],
      [
        "▁începutul",
        -9.877035696295229
      ],
      [
        "▁internet",
        -9.877094161972838
      ],
      [
        "▁medic",
        -9.87728550037388
      ],
      [
        "▁târziu",
        -9.878218838366621
      ],
      [
        "▁tipuri",
        -9.878460490782079
      ],
      [
        "▁II",
        -9.878967596714052
      ],
      [
        "▁rezultatele",
        -9.879354473407922
      ],
      [
        "▁omului",
        -9.879500550221493
      ],
      [
        "eşti",
        -9.879906335753637
      ],
      [
        "▁unic",
        -9.880606177357663
      ],
      [
        "tar",
        -9.880866999269127
      ],
      [
        "▁membrii",
        -9.881328541048697
      ],
      [
        "▁dragoste",
        -9.881873640487116
      ],
      [
        "gen",
        -9.883065842405685
      ],
      [
        "▁lăsat",
        -9.883126163487887
      ],
      [
        "▁forum",
        -9.883291975260654
      ],
      [
        "▁Ea",
        -9.88425942603359
      ],
      [
        "▁prezintă",
        -9.885614120567087
      ],
      [
        "ndu-se",
        -9.886286934996848
      ],
      [
        "▁istoric",
        -9.886739359328892
      ],
      [
        "▁alegerile",
        -9.886925947847198
      ],
      [
        "▁dolari",
        -9.887109278191861
      ],
      [
        "▁Universitatea",
        -9.887170973387033
      ],
      [
        "▁analiza",
        -9.88735539564425
      ],
      [
        "lin",
        -9.8885749354688
      ],
      [
        "▁Mircea",
        -9.888758143528591
      ],
      [
        "▁condiţiile",
        -9.888906360762459
      ],
      [
        "tic",
        -9.889290712528938
      ],
      [
        "izat",
        -9.889796922529124
      ],
      [
        "▁pielea",
        -9.890560795933688
      ],
      [
        "▁ambele",
        -9.891129659931668
      ],
      [
        "»",
        -9.891504950091086
      ],
      [
        "ana",
        -9.892752756723702
      ],
      [
        "▁Abonează-te",
        -9.89333147047655
      ],
      [
        "▁calea",
        -9.893407622643991
      ],
      [
        "▁citesc",
        -9.893604216027748
      ],
      [
        "▁CE",
        -9.893769771406847
      ],
      [
        "▁inter",
        -9.894248950301714
      ],
      [
        "▁MAI",
        -9.894430319151649
      ],
      [
        "▁presă",
        -9.894614059565857
      ],
      [
        "▁Legii",
        -9.894778745467756
      ],
      [
        "▁vieţii",
        -9.894821223010691
      ],
      [
        "▁merita",
        -9.894863144996144
      ],
      [
        "âr",
        -9.895718216490884
      ],
      [
        "▁partid",
        -9.895847230092631
      ],
      [
        "▁autor",
        -9.896580672077523
      ],
      [
        "tre",
        -9.896937187289764
      ],
      [
        "oasă",
        -9.897412640663
      ],
      [
        "tri",
        -9.899236072860663
      ],
      [
        "▁sediul",
        -9.899602733549857
      ],
      [
        "▁presupune",
        -9.900783513792243
      ],
      [
        "▁noaptea",
        -9.900790040820695
      ],
      [
        "▁jumatate",
        -9.9010869334911
      ],
      [
        "▁acasa",
        -9.902024932497936
      ],
      [
        "▁Roman",
        -9.903547494697452
      ],
      [
        "▁Sper",
        -9.904513266733147
      ],
      [
        "▁vârstă",
        -9.90500316730324
      ],
      [
        "▁României,",
        -9.905029144527496
      ],
      [
        "mer",
        -9.905140565384556
      ],
      [
        "▁practic",
        -9.905537933340941
      ],
      [
        "▁sănătate",
        -9.905970342982716
      ],
      [
        "▁carti",
        -9.90642875002785
      ],
      [
        "▁conduce",
        -9.906766348429265
      ],
      [
        "▁gust",
        -9.90691421062131
      ],
      [
        "▁Google",
        -9.907351662325341
      ],
      [
        "▁decizie",
        -9.907460337707128
      ],
      [
        "abil",
        -9.90794240731872
      ],
      [
        "▁dincolo",
        -9.908274907422452
      ],
      [
        "▁sunteti",
        -9.908996411537604
      ],
      [
        "▁numar",
        -9.909996556808856
      ],
      [
        "▁precizat",
        -9.910125717187777
      ],
      [
        "▁bugetul",
        -9.910307232382515
      ],
      [
        "cal",
        -9.913316084180373
      ],
      [
        "▁singurul",
        -9.913367726222074
      ],
      [
        "▁grav",
        -9.913420461012702
      ],
      [
        "▁Fii",
        -9.913430143417711
      ],
      [
        "▁publica",
        -9.91382983615582
      ],
      [
        "▁ştie",
        -9.913941398020727
      ],
      [
        "▁copilului",
        -9.914578706997114
      ],
      [
        "▁ras",
        -9.914623523214503
      ],
      [
        "▁Politica",
        -9.915421638172395
      ],
      [
        "▁rand",
        -9.915904503968147
      ],
      [
        "▁penal",
        -9.91634886730358
      ],
      [
        "bil",
        -9.916869494128349
      ],
      [
        "▁concurs",
        -9.917448982981035
      ],
      [
        "▁‘",
        -9.917457399898224
      ],
      [
        "▁ea.",
        -9.918960351053174
      ],
      [
        "sul",
        -9.918976809445724
      ],
      [
        "▁Citeste",
        -9.91898120298449
      ],
      [
        "▁domnul",
        -9.920816065288763
      ],
      [
        "M-am",
        -9.921039481014011
      ],
      [
        "▁scoate",
        -9.921196553329175
      ],
      [
        "▁b)",
        -9.922418553074438
      ],
      [
        "▁China",
        -9.922943163048002
      ],
      [
        "▁România.",
        -9.923201716980518
      ],
      [
        "▁Cat",
        -9.923781281039076
      ],
      [
        "▁scos",
        -9.923961760993006
      ],
      [
        "▁mobil",
        -9.923983713209122
      ],
      [
        "▁euro,",
        -9.924501194393411
      ],
      [
        "aza",
        -9.92460363389532
      ],
      [
        "▁subiect",
        -9.92509080127131
      ],
      [
        "▁practica",
        -9.925877257553172
      ],
      [
        "▁the",
        -9.92592622518003
      ],
      [
        "▁trec",
        -9.926150574872143
      ],
      [
        "escu",
        -9.927373002034711
      ],
      [
        "ka",
        -9.928648736840184
      ],
      [
        "ber",
        -9.928964496816691
      ],
      [
        "▁mijlocul",
        -9.929257667300906
      ],
      [
        "▁imaginea",
        -9.929538518111166
      ],
      [
        "▁problemă",
        -9.92985824978962
      ],
      [
        "▁p.",
        -9.930315267261562
      ],
      [
        "50",
        -9.930456450460028
      ],
      [
        "▁lei.",
        -9.931145923271906
      ],
      [
        "▁utilizator",
        -9.933260847252225
      ],
      [
        "▁situatia",
        -9.933519384936591
      ],
      [
        "▁profit",
        -9.933999250477006
      ],
      [
        "▁speciale",
        -9.934568269410658
      ],
      [
        "▁Be",
        -9.935038920920084
      ],
      [
        "▁Peste",
        -9.93558439927487
      ],
      [
        "▁încearcă",
        -9.935791886051426
      ],
      [
        "▁Sibiu",
        -9.935809166332973
      ],
      [
        "▁aici,",
        -9.936711919980937
      ],
      [
        "▁lună",
        -9.937180036213164
      ],
      [
        "▁legi",
        -9.937408684899886
      ],
      [
        "val",
        -9.937601262885073
      ],
      [
        "▁semnat",
        -9.93770967969239
      ],
      [
        "▁risc",
        -9.9377200144603
      ],
      [
        "▁vigoare",
        -9.937885629037277
      ],
      [
        "▁primesc",
        -9.938265200812456
      ],
      [
        "▁urmeaza",
        -9.939029634634348
      ],
      [
        "▁Hai",
        -9.939349169180677
      ],
      [
        "▁urmează",
        -9.939363809914326
      ],
      [
        "ant",
        -9.941749822940817
      ],
      [
        "▁propus",
        -9.941815378175342
      ],
      [
        "▁puteți",
        -9.941872427309221
      ],
      [
        "▁ordine",
        -9.941935046445895
      ],
      [
        "▁inteleg",
        -9.942485196347237
      ],
      [
        "nici",
        -9.942546246133478
      ],
      [
        "niște",
        -9.942897354040788
      ],
      [
        "▁Liviu",
        -9.942982044372688
      ],
      [
        "▁ţară",
        -9.94313237563591
      ],
      [
        "▁publicată",
        -9.943808830469548
      ],
      [
        "▁Ra",
        -9.943813069289407
      ],
      [
        "ros",
        -9.943870823758857
      ],
      [
        "▁sint",
        -9.94393386824329
      ],
      [
        "▁prezentate",
        -9.944243417851213
      ],
      [
        "▁an,",
        -9.944864877303669
      ],
      [
        "▁for",
        -9.945797675109304
      ],
      [
        "▁Romania,",
        -9.946122305888634
      ],
      [
        "▁CA",
        -9.947408151427268
      ],
      [
        "▁incercat",
        -9.94785865395433
      ],
      [
        "te,",
        -9.948086702333086
      ],
      [
        "▁ușor",
        -9.948396506604844
      ],
      [
        "▁deasupra",
        -9.948423909699788
      ],
      [
        "nță",
        -9.948777062576013
      ],
      [
        "▁conducere",
        -9.949076177558258
      ],
      [
        "▁bar",
        -9.949672000977703
      ],
      [
        "▁parcursul",
        -9.949779745053679
      ],
      [
        "▁Ex",
        -9.94983316756769
      ],
      [
        "▁oricum",
        -9.949889972943929
      ],
      [
        "▁modificarea",
        -9.950034142523915
      ],
      [
        "▁afară",
        -9.950245219290036
      ],
      [
        "ei,",
        -9.950254660740992
      ],
      [
        "▁uşor",
        -9.95027402653426
      ],
      [
        "▁tratamentul",
        -9.950755089654654
      ],
      [
        "▁net",
        -9.95112235706921
      ],
      [
        "▁stim",
        -9.952537211023376
      ],
      [
        "pre",
        -9.952829455133328
      ],
      [
        "▁naturale",
        -9.953065740795186
      ],
      [
        "▁pericol",
        -9.953176203586118
      ],
      [
        "▁eşti",
        -9.953455866072332
      ],
      [
        "▁priveste",
        -9.955051919801104
      ],
      [
        "şte",
        -9.955364485574052
      ],
      [
        "▁Unde",
        -9.955607256458396
      ],
      [
        "▁terminat",
        -9.95572166082555
      ],
      [
        "▁odată",
        -9.956525742690534
      ],
      [
        "▁comanda",
        -9.956893791253666
      ],
      [
        "com",
        -9.956993198984426
      ],
      [
        "▁reușit",
        -9.957050978666956
      ],
      [
        "▁lipsit",
        -9.957524130601303
      ],
      [
        "▁fonduri",
        -9.957668341742455
      ],
      [
        "▁radio",
        -9.958226858286604
      ],
      [
        "▁semne",
        -9.959784611174243
      ],
      [
        "▁Germania",
        -9.96005391501221
      ],
      [
        "▁Aşa",
        -9.960852413408244
      ],
      [
        "▁bucura",
        -9.960973060013952
      ],
      [
        "▁elemente",
        -9.961372591118925
      ],
      [
        "▁aceeaşi",
        -9.961523812455454
      ],
      [
        "▁teritoriul",
        -9.961732849125351
      ],
      [
        "▁doriti",
        -9.962307322708345
      ],
      [
        "▁piese",
        -9.962317038978728
      ],
      [
        "▁societatea",
        -9.96265077856426
      ],
      [
        "▁Iată",
        -9.962977609140285
      ],
      [
        "▁acte",
        -9.963080398760328
      ],
      [
        "▁boala",
        -9.964570124202353
      ],
      [
        "Ceea",
        -9.965157847885019
      ],
      [
        "▁J",
        -9.96579020360858
      ],
      [
        "Îmi",
        -9.966270044053385
      ],
      [
        "ță",
        -9.966366561827865
      ],
      [
        "iste",
        -9.967369415318842
      ],
      [
        "▁decizia",
        -9.967414158220649
      ],
      [
        "▁momente",
        -9.967536619838178
      ],
      [
        "▁medie",
        -9.968415855059122
      ],
      [
        "▁naţional",
        -9.969106637073388
      ],
      [
        "▁Lui",
        -9.9694407967314
      ],
      [
        "▁act",
        -9.970186153612286
      ],
      [
        "▁funcție",
        -9.970350694447081
      ],
      [
        "▁baie",
        -9.970474095491152
      ],
      [
        "▁rost",
        -9.970950617189622
      ],
      [
        "▁consum",
        -9.971199939236069
      ],
      [
        "▁iesit",
        -9.971560311240747
      ],
      [
        "*",
        -9.971979254014178
      ],
      [
        "▁varianta",
        -9.973207194102908
      ],
      [
        "▁economic",
        -9.973323618661126
      ],
      [
        "▁propune",
        -9.973358961295641
      ],
      [
        "▁Bisericii",
        -9.97355597057425
      ],
      [
        "▁PE",
        -9.973864001883586
      ],
      [
        "▁credit",
        -9.974087775970366
      ],
      [
        "▁membri",
        -9.974215819763835
      ],
      [
        "▁Bine",
        -9.974696071310664
      ],
      [
        "sca",
        -9.974746760619833
      ],
      [
        "▁viitorul",
        -9.975452471578496
      ],
      [
        "▁Însă",
        -9.975803918298961
      ],
      [
        "▁mine.",
        -9.976252979810074
      ],
      [
        "▁găsi",
        -9.976726709190551
      ],
      [
        "▁So",
        -9.977152998462914
      ],
      [
        "▁alimente",
        -9.97722366533623
      ],
      [
        "▁ea,",
        -9.97731744808685
      ],
      [
        "▁teme",
        -9.977443499110318
      ],
      [
        "▁țară",
        -9.977530866816931
      ],
      [
        "▁Curtea",
        -9.977770091365905
      ],
      [
        "▁zile,",
        -9.978161719058473
      ],
      [
        "gu",
        -9.978314526798087
      ],
      [
        "ța",
        -9.978575878530926
      ],
      [
        "▁partaja",
        -9.979908949546338
      ],
      [
        "▁Voi",
        -9.981151002331195
      ],
      [
        "rat",
        -9.981373994093339
      ],
      [
        "▁grade",
        -9.981418279966555
      ],
      [
        "ţa",
        -9.981503764205787
      ],
      [
        "▁începând",
        -9.98191909326318
      ],
      [
        "▁Notifică",
        -9.981938447092768
      ],
      [
        "▁bărbat",
        -9.982129827868548
      ],
      [
        "▁uit",
        -9.983867490961046
      ],
      [
        "▁odata",
        -9.983926047368142
      ],
      [
        "▁scoala",
        -9.985868240951842
      ],
      [
        "▁fereastră",
        -9.986813772857786
      ],
      [
        "▁Cristian",
        -9.987163676687937
      ],
      [
        "ten",
        -9.987204818449737
      ],
      [
        "▁caz,",
        -9.987210446366422
      ],
      [
        "▁mijloc",
        -9.987694139539109
      ],
      [
        "▁oră",
        -9.987875749340915
      ],
      [
        "▁umane",
        -9.988263864497323
      ],
      [
        "▁Basescu",
        -9.988462365649712
      ],
      [
        "▁Anul",
        -9.988975167389196
      ],
      [
        "bo",
        -9.98900822043342
      ],
      [
        "son",
        -9.98987781852325
      ],
      [
        "▁frumoasa",
        -9.989941542004548
      ],
      [
        "▁Isus",
        -9.989949889108455
      ],
      [
        "re.",
        -9.990676888947265
      ],
      [
        "▁adauga",
        -9.990781162538195
      ],
      [
        "▁lei,",
        -9.990918113363126
      ],
      [
        "▁permis",
        -9.991286836617157
      ],
      [
        "▁adesea",
        -9.991727640987428
      ],
      [
        "▁română",
        -9.992523886179445
      ],
      [
        "▁animale",
        -9.992584533763544
      ],
      [
        "▁Are",
        -9.993018217211846
      ],
      [
        "ot",
        -9.99315664459981
      ],
      [
        "▁fructe",
        -9.994448458345477
      ],
      [
        "▁socială",
        -9.994534433293907
      ],
      [
        "▁Orice",
        -9.994851240917066
      ],
      [
        "▁k",
        -9.995012012867795
      ],
      [
        "▁ideal",
        -9.995227506277317
      ],
      [
        "▁zone",
        -9.99558409607177
      ],
      [
        "iza",
        -9.995604713651636
      ],
      [
        "▁datorită",
        -9.996674542951467
      ],
      [
        "▁mână",
        -9.996880241520019
      ],
      [
        "▁v-a",
        -9.997197349341253
      ],
      [
        "▁noastre.",
        -9.99902622096544
      ],
      [
        "▁(în",
        -9.999631989684119
      ],
      [
        "▁oferta",
        -9.999644057853057
      ],
      [
        "▁corpul",
        -9.999800851365588
      ],
      [
        "▁sfaturi",
        -10.001211513337129
      ],
      [
        "gar",
        -10.001696006461628
      ],
      [
        "▁realiza",
        -10.001850240338724
      ],
      [
        "▁prezente",
        -10.001955417909556
      ],
      [
        "▁creste",
        -10.002284778429317
      ],
      [
        "▁plastic",
        -10.0023022193064
      ],
      [
        "▁responsabil",
        -10.002539141625455
      ],
      [
        "▁comunicare",
        -10.002678631504654
      ],
      [
        "ască",
        -10.00394178267803
      ],
      [
        "▁frumoasă",
        -10.005614380892558
      ],
      [
        "▁cod",
        -10.005807315977364
      ],
      [
        "▁„A",
        -10.006101903677099
      ],
      [
        "▁include",
        -10.006366735124015
      ],
      [
        "▁Iti",
        -10.006818205071685
      ],
      [
        "▁război",
        -10.007326120623219
      ],
      [
        "▁natural",
        -10.007434339911626
      ],
      [
        "ilor,",
        -10.00890401892342
      ],
      [
        "▁lasat",
        -10.009125074057806
      ],
      [
        "tin",
        -10.009222827441683
      ],
      [
        "vin",
        -10.009268082396446
      ],
      [
        "▁piele",
        -10.0098719701008
      ],
      [
        "▁considera",
        -10.010206228185202
      ],
      [
        "▁flori",
        -10.010686397015672
      ],
      [
        "tal",
        -10.011625255773865
      ],
      [
        "▁DIN",
        -10.012500408897726
      ],
      [
        "▁mâna",
        -10.013456638897665
      ],
      [
        "▁spunea",
        -10.013489027982251
      ],
      [
        "▁cauta",
        -10.0138323520704
      ],
      [
        "â",
        -10.013902558577907
      ],
      [
        "▁permit",
        -10.01513040280513
      ],
      [
        "▁pământ",
        -10.015853490360378
      ],
      [
        "▁Cât",
        -10.016283113159396
      ],
      [
        "▁ăsta",
        -10.01697627799366
      ],
      [
        "▁anterior",
        -10.017702232643645
      ],
      [
        "▁ți-a",
        -10.019075175138532
      ],
      [
        "▁Multumesc",
        -10.019397320504211
      ],
      [
        "▁publicate",
        -10.02002235364675
      ],
      [
        "▁votat",
        -10.0205390190463
      ],
      [
        "▁Na",
        -10.020579475119586
      ],
      [
        "▁secret",
        -10.021016635333199
      ],
      [
        "▁Pre",
        -10.02114941000994
      ],
      [
        "▁respect",
        -10.02207167435214
      ],
      [
        "▁util",
        -10.022186883538327
      ],
      [
        "▁atac",
        -10.022255343791036
      ],
      [
        "▁transmite",
        -10.022828453514459
      ],
      [
        "▁mondial",
        -10.023039313004439
      ],
      [
        "▁condiții",
        -10.023055225787644
      ],
      [
        "▁drag",
        -10.023377897569915
      ],
      [
        "▁nimic.",
        -10.023856972931723
      ],
      [
        "-urile",
        -10.024275942984021
      ],
      [
        "▁subiectul",
        -10.024495048963065
      ],
      [
        "▁rugăm",
        -10.024753730465424
      ],
      [
        "scu",
        -10.02538255313308
      ],
      [
        "▁prietenii",
        -10.02681460383818
      ],
      [
        "▁text",
        -10.02728470074433
      ],
      [
        "▁fa",
        -10.027698914035962
      ],
      [
        "▁tin",
        -10.028118747326907
      ],
      [
        "-ţi",
        -10.028233408365379
      ],
      [
        "▁reuşit",
        -10.028377260262364
      ],
      [
        "▁medical",
        -10.029095997490892
      ],
      [
        "▁(in",
        -10.029343905578514
      ],
      [
        "▁Adresa",
        -10.029449891310179
      ],
      [
        "ff",
        -10.029785418047204
      ],
      [
        "van",
        -10.029903281423886
      ],
      [
        "▁2009",
        -10.0303120190555
      ],
      [
        "▁invatat",
        -10.030560310249083
      ],
      [
        "▁ridica",
        -10.030857235438297
      ],
      [
        "▁tine.",
        -10.031007283508638
      ],
      [
        "Până",
        -10.031009258125385
      ],
      [
        "▁Nord",
        -10.031045038645713
      ],
      [
        "▁dimensiuni",
        -10.031108480745313
      ],
      [
        "ja",
        -10.031375231365763
      ],
      [
        "▁rezultatul",
        -10.03245574102256
      ],
      [
        "▁tras",
        -10.032668228714325
      ],
      [
        "▁Primul",
        -10.03270649125643
      ],
      [
        "tate",
        -10.033186710069074
      ],
      [
        "pentru",
        -10.03359533813867
      ],
      [
        "▁Acestea",
        -10.033790222183438
      ],
      [
        "▁Euro",
        -10.034450093360336
      ],
      [
        "pri",
        -10.035322954745876
      ],
      [
        "▁accident",
        -10.035352630808537
      ],
      [
        "▁Naţional",
        -10.03566291717771
      ],
      [
        "▁realizarea",
        -10.035686548597626
      ],
      [
        "▁considerat",
        -10.035804819221966
      ],
      [
        "▁efecte",
        -10.036461380765175
      ],
      [
        "▁cuprinde",
        -10.036788359000056
      ],
      [
        "▁depinde",
        -10.036939293204568
      ],
      [
        "▁Fa",
        -10.037309747088372
      ],
      [
        "▁prieteni",
        -10.037419906253948
      ],
      [
        "▁companiei",
        -10.037872391546921
      ],
      [
        "onfidențialitate",
        -10.038470569806922
      ],
      [
        "▁fizic",
        -10.038760934634471
      ],
      [
        "vent",
        -10.040024452778539
      ],
      [
        "▁pornire",
        -10.04013554338802
      ],
      [
        "gre",
        -10.040489769562774
      ],
      [
        "iuni",
        -10.040619595253293
      ],
      [
        "▁căror",
        -10.040644383288601
      ],
      [
        "▁Parlamentul",
        -10.040676218909173
      ],
      [
        "▁condamnat",
        -10.040718183515214
      ],
      [
        "▁încercat",
        -10.040844999735576
      ],
      [
        "▁documente",
        -10.041076594954088
      ],
      [
        "▁voie",
        -10.041488374576215
      ],
      [
        "▁(6)",
        -10.0415329315417
      ],
      [
        "▁tine,",
        -10.041646618815331
      ],
      [
        "▁suport",
        -10.042678113951661
      ],
      [
        "▁altul",
        -10.043653530335835
      ],
      [
        "Suntem",
        -10.043692961051054
      ],
      [
        "ran",
        -10.045033455678984
      ],
      [
        "tit",
        -10.047948229191594
      ],
      [
        "▁Internet",
        -10.047991489916658
      ],
      [
        "nţi",
        -10.047995561302677
      ],
      [
        "▁accesul",
        -10.048978434172904
      ],
      [
        "▁activ",
        -10.049819293406305
      ],
      [
        "▁păcate",
        -10.050268751954617
      ],
      [
        "▁spate",
        -10.051476099674307
      ],
      [
        "▁ulterior",
        -10.051603058181101
      ],
      [
        "▁camere",
        -10.05220794757857
      ],
      [
        "-s",
        -10.052348824685147
      ],
      [
        "▁comentariul",
        -10.052599184609322
      ],
      [
        "▁rândul",
        -10.052619087457462
      ],
      [
        "▁categoria",
        -10.052627005091564
      ],
      [
        "▁legat",
        -10.05299989534556
      ],
      [
        "▁lapte",
        -10.053275200048795
      ],
      [
        "▁interiorul",
        -10.053476290185255
      ],
      [
        "▁contul",
        -10.053834692329119
      ],
      [
        "▁bucurie",
        -10.053961958442681
      ],
      [
        "▁Avem",
        -10.054698286878477
      ],
      [
        "ciu",
        -10.055636445282513
      ],
      [
        "▁Alte",
        -10.055694217800092
      ],
      [
        "▁fete",
        -10.056005966244104
      ],
      [
        "▁permanent",
        -10.056055205393182
      ],
      [
        "nat",
        -10.056134400932482
      ],
      [
        "▁(19",
        -10.056432644686268
      ],
      [
        "Foarte",
        -10.05732852918645
      ],
      [
        "ismului",
        -10.057703138542124
      ],
      [
        "▁=",
        -10.057723881606424
      ],
      [
        "iţi",
        -10.05807445553007
      ],
      [
        "▁titlul",
        -10.058554022468664
      ],
      [
        "▁cafea",
        -10.059071652148631
      ],
      [
        "can",
        -10.059673419116612
      ],
      [
        "▁psoriazis",
        -10.059889972041244
      ],
      [
        "▁Parlamentului",
        -10.061409352246448
      ],
      [
        "asca",
        -10.061727327071972
      ],
      [
        "▁nu-l",
        -10.061861331002426
      ],
      [
        "cum",
        -10.061899124046526
      ],
      [
        "▁drepturi",
        -10.06192920072996
      ],
      [
        "▁medicul",
        -10.06205598233514
      ],
      [
        "▁sânge",
        -10.062432046439637
      ],
      [
        "▁proprie",
        -10.062862295404608
      ],
      [
        "▁eficient",
        -10.063095221645515
      ],
      [
        "▁exclusiv",
        -10.063328269072176
      ],
      [
        "cel",
        -10.06337114512117
      ],
      [
        "▁para",
        -10.06363692797439
      ],
      [
        "▁Republicii",
        -10.064206068148131
      ],
      [
        "uta",
        -10.06439789139539
      ],
      [
        "▁oras",
        -10.064547490256174
      ],
      [
        "ătoare",
        -10.065238166031428
      ],
      [
        "▁fabricaţie",
        -10.065315182384614
      ],
      [
        "ho",
        -10.0655546489454
      ],
      [
        "▁Parte",
        -10.0656599301449
      ],
      [
        "▁medicamente",
        -10.065664201327053
      ],
      [
        "▁finalul",
        -10.066147537910531
      ],
      [
        "▁electrice",
        -10.06632025668712
      ],
      [
        "▁interesant",
        -10.066490752267676
      ],
      [
        "▁crema",
        -10.066612505679544
      ],
      [
        "▁fotografii",
        -10.067057623747973
      ],
      [
        "▁site-ului",
        -10.068091466421352
      ],
      [
        "▁ministru",
        -10.06813365366244
      ],
      [
        "▁cuvânt",
        -10.069395861883923
      ],
      [
        "-ar",
        -10.07010793686959
      ],
      [
        "15",
        -10.070141223659068
      ],
      [
        "▁realitate",
        -10.070545785499196
      ],
      [
        "▁observa",
        -10.070567632102076
      ],
      [
        "▁aceea,",
        -10.070581668600049
      ],
      [
        "mul",
        -10.070746116166685
      ],
      [
        "▁folosind",
        -10.071120069823564
      ],
      [
        "▁Mi-a",
        -10.071344825738242
      ],
      [
        "▁TVA",
        -10.071378965874224
      ],
      [
        "▁joaca",
        -10.071645163248515
      ],
      [
        "▁aplicarea",
        -10.072154871482631
      ],
      [
        "atoare",
        -10.072407542313533
      ],
      [
        "▁multor",
        -10.072532851093223
      ],
      [
        "▁Postări",
        -10.072835902166265
      ],
      [
        "▁aş",
        -10.073177627417088
      ],
      [
        "▁PDL",
        -10.073248016479926
      ],
      [
        "▁detaliile",
        -10.073294143723952
      ],
      [
        "▁aplică",
        -10.07461463823434
      ],
      [
        "▁Există",
        -10.075304774587334
      ],
      [
        "▁Abonați-vă",
        -10.075922389270286
      ],
      [
        "▁oricare",
        -10.07624705405918
      ],
      [
        "▁lunii",
        -10.076631406928197
      ],
      [
        "▁dimineata",
        -10.077722555446577
      ],
      [
        "▁vorbi",
        -10.078447849455454
      ],
      [
        "▁întâmplat",
        -10.078464645418482
      ],
      [
        "Vrei",
        -10.078976566045839
      ],
      [
        "▁cancer",
        -10.079149527242174
      ],
      [
        "▁iei",
        -10.079785990812157
      ],
      [
        "▁ajute",
        -10.080010029742265
      ],
      [
        "rit",
        -10.080117791221518
      ],
      [
        "(Se",
        -10.08155620884848
      ],
      [
        "▁Alexandru",
        -10.08161300370041
      ],
      [
        "▁frica",
        -10.081616062370873
      ],
      [
        "▁primar",
        -10.082738487256508
      ],
      [
        "▁accepta",
        -10.083619636146627
      ],
      [
        "▁corp",
        -10.084786860100651
      ],
      [
        "▁dovedit",
        -10.084840189337854
      ],
      [
        "▁euro.",
        -10.085344675208265
      ],
      [
        "▁zi.",
        -10.0862575247379
      ],
      [
        "▁conducerea",
        -10.086361878054785
      ],
      [
        "▁Centrul",
        -10.086542107669413
      ],
      [
        "▁magazin",
        -10.086830576084676
      ],
      [
        "▁rar",
        -10.08709337556443
      ],
      [
        "▁condițiile",
        -10.087640706904178
      ],
      [
        "anta",
        -10.087886302240356
      ],
      [
        "▁pretul",
        -10.088263325172601
      ],
      [
        "?”",
        -10.088395403331262
      ],
      [
        "▁Fi",
        -10.08848801344934
      ],
      [
        "▁profesionale",
        -10.088598164966296
      ],
      [
        "▁compania",
        -10.088859510653478
      ],
      [
        "▁cursul",
        -10.091091778008323
      ],
      [
        "▁puse",
        -10.091125415342201
      ],
      [
        "▁cererea",
        -10.091220179034465
      ],
      [
        "▁vietii",
        -10.091312353615441
      ],
      [
        "▁sanatate",
        -10.091451225544459
      ],
      [
        "▁săptămână",
        -10.09169446767524
      ],
      [
        "▁obtine",
        -10.092289123444111
      ],
      [
        "▁Man",
        -10.092355632122102
      ],
      [
        "▁Statel",
        -10.092380167259453
      ],
      [
        "▁Oamenii",
        -10.093352724107284
      ],
      [
        "▁ciuda",
        -10.09389009379857
      ],
      [
        "▁dreptate",
        -10.094003210525257
      ],
      [
        "▁intreaga",
        -10.094771313009728
      ],
      [
        "eni",
        -10.094851550158177
      ],
      [
        "▁duminică",
        -10.095391401041123
      ],
      [
        "▁mari,",
        -10.095964958311093
      ],
      [
        "▁2000",
        -10.096784831749424
      ],
      [
        "▁modele",
        -10.097627223593552
      ],
      [
        "nța",
        -10.098480827435825
      ],
      [
        "▁individual",
        -10.09860958202776
      ],
      [
        "▁similare",
        -10.099566152134827
      ],
      [
        "▁încredere",
        -10.100027590426011
      ],
      [
        "▁n-au",
        -10.1002920359645
      ],
      [
        "▁Bo",
        -10.100471256580077
      ],
      [
        "▁valori",
        -10.100601675178813
      ],
      [
        "▁telefonul",
        -10.100672057611408
      ],
      [
        "▁obiect",
        -10.100937855802487
      ],
      [
        "bra",
        -10.101316988942408
      ],
      [
        "▁acesteia",
        -10.101925723004623
      ],
      [
        "pat",
        -10.10213059716003
      ],
      [
        "▁legale",
        -10.102214600674007
      ],
      [
        "!\"",
        -10.102396324470053
      ],
      [
        "▁New",
        -10.103080804068615
      ],
      [
        "▁anuntat",
        -10.103175587295159
      ],
      [
        "▁pa",
        -10.103385268987974
      ],
      [
        "iti",
        -10.10387873094926
      ],
      [
        "▁cultura",
        -10.103975480772
      ],
      [
        "▁românilor",
        -10.104063106792074
      ],
      [
        "▁aparut",
        -10.10505436907978
      ],
      [
        "▁Po",
        -10.106125145809326
      ],
      [
        "▁culori",
        -10.106340279939957
      ],
      [
        "▁intră",
        -10.106968919716675
      ],
      [
        "tel",
        -10.108903987505414
      ],
      [
        "▁filmul",
        -10.10952115192394
      ],
      [
        "▁datorita",
        -10.109720393846617
      ],
      [
        "tru",
        -10.110152700320555
      ],
      [
        "▁condiţii",
        -10.110308083306263
      ],
      [
        "ban",
        -10.110682494979734
      ],
      [
        "▁legal",
        -10.111104108057807
      ],
      [
        "▁ministrul",
        -10.111765696370053
      ],
      [
        "▁simti",
        -10.111824679561062
      ],
      [
        "▁Alba",
        -10.11203488058402
      ],
      [
        "▁cauză",
        -10.112967609875238
      ],
      [
        "▁crezut",
        -10.113050090957504
      ],
      [
        "▁parcă",
        -10.116059543495865
      ],
      [
        "▁picioare",
        -10.116067926649894
      ],
      [
        "▁domeniu",
        -10.11610866035393
      ],
      [
        "▁Numai",
        -10.116139823141129
      ],
      [
        "▁timpului",
        -10.116183628547548
      ],
      [
        "▁rezervate",
        -10.116697558194033
      ],
      [
        "▁Ana",
        -10.117271837927373
      ],
      [
        "▁relativ",
        -10.11753953041023
      ],
      [
        "▁Exista",
        -10.117787464081843
      ],
      [
        "▁per",
        -10.118235042732323
      ],
      [
        "▁Așa",
        -10.118378247784854
      ],
      [
        "▁No",
        -10.118703209404693
      ],
      [
        "▁cazare",
        -10.119092575717143
      ],
      [
        "▁suplimentare",
        -10.119308019771411
      ],
      [
        "ită",
        -10.119339777215483
      ],
      [
        "▁stea",
        -10.119691349287555
      ],
      [
        "▁articolele",
        -10.119774225348301
      ],
      [
        "▁faptului",
        -10.119867565886786
      ],
      [
        "▁capacitatea",
        -10.120327097989495
      ],
      [
        "▁acuzat",
        -10.120430197273947
      ],
      [
        "▁cind",
        -10.120989028684928
      ],
      [
        "▁sus,",
        -10.121399331771755
      ],
      [
        "▁state",
        -10.121407256396425
      ],
      [
        "tiv",
        -10.121796053459558
      ],
      [
        "▁b",
        -10.121981445240047
      ],
      [
        "▁Conform",
        -10.12200272296252
      ],
      [
        "▁eventual",
        -10.122011964614824
      ],
      [
        "▁cookie-uri.",
        -10.122436784882822
      ],
      [
        "▁5.",
        -10.12271096219553
      ],
      [
        "▁Desi",
        -10.123411269371132
      ],
      [
        "▁America",
        -10.123562165613965
      ],
      [
        "at,",
        -10.1238642738418
      ],
      [
        "Y",
        -10.12414437954057
      ],
      [
        "▁biserica",
        -10.124306565740799
      ],
      [
        "▁click",
        -10.124315985721276
      ],
      [
        "▁Pai",
        -10.125003726403087
      ],
      [
        "▁opt",
        -10.125384030359527
      ],
      [
        "lit",
        -10.125843397432078
      ],
      [
        "net",
        -10.12640050153605
      ],
      [
        "▁categorie",
        -10.126461997647835
      ],
      [
        "▁statele",
        -10.126609040028873
      ],
      [
        "▁oare",
        -10.127196440932195
      ],
      [
        "▁petrecut",
        -10.12723109592552
      ],
      [
        "▁cuvintele",
        -10.127444621973
      ],
      [
        "▁legume",
        -10.128220530749939
      ],
      [
        "▁acordat",
        -10.12842579494895
      ],
      [
        "▁1989",
        -10.129010657575233
      ],
      [
        "▁ha",
        -10.129104415242491
      ],
      [
        "▁case",
        -10.129595431352346
      ],
      [
        "orii",
        -10.129964464102533
      ],
      [
        "▁oprit",
        -10.130166032664622
      ],
      [
        "▁iarna",
        -10.130242811162166
      ],
      [
        "▁obiecte",
        -10.131591810916728
      ],
      [
        "▁aici:",
        -10.131614175267597
      ],
      [
        "▁firme",
        -10.131822814038692
      ],
      [
        "▁imposibil",
        -10.131975965602038
      ],
      [
        "▁întrebări",
        -10.132059236277527
      ],
      [
        "▁comentariile",
        -10.132544777162842
      ],
      [
        "▁Bucureşti,",
        -10.134314411835796
      ],
      [
        "▁acolo,",
        -10.134837953884828
      ],
      [
        "sa-mi",
        -10.13531842034648
      ],
      [
        "▁larg",
        -10.135450119378273
      ],
      [
        "▁Simona",
        -10.135545561539717
      ],
      [
        "▁familiei",
        -10.13585717480752
      ],
      [
        "▁Dumnezeu.",
        -10.13607612017693
      ],
      [
        "ian",
        -10.136130089346155
      ],
      [
        "▁construit",
        -10.13658277547206
      ],
      [
        "▁Romania.",
        -10.136779609572798
      ],
      [
        "lineatul",
        -10.137895599682142
      ],
      [
        "▁Pana",
        -10.13836661711651
      ],
      [
        "▁printr-un",
        -10.139274990146914
      ],
      [
        "ster",
        -10.139495352604095
      ],
      [
        "▁moarte",
        -10.140588412329613
      ],
      [
        "pro",
        -10.140612147760361
      ],
      [
        "▁interior",
        -10.140839420091707
      ],
      [
        "▁Guvern",
        -10.140916061965262
      ],
      [
        "▁stă",
        -10.141296140075024
      ],
      [
        "ULUI",
        -10.141452543619936
      ],
      [
        "ere",
        -10.141565464212285
      ],
      [
        "log",
        -10.141816775152614
      ],
      [
        "car",
        -10.142277917173686
      ],
      [
        "IT",
        -10.142399707547014
      ],
      [
        "▁obligatorii",
        -10.142417452686455
      ],
      [
        "▁interesul",
        -10.142689864589759
      ],
      [
        "▁noroc",
        -10.142779977302865
      ],
      [
        "▁organizarea",
        -10.142781246590543
      ],
      [
        "▁iese",
        -10.142823343079055
      ],
      [
        "▁surse",
        -10.142925748525359
      ],
      [
        "port",
        -10.143255521360068
      ],
      [
        "▁faceti",
        -10.143306206589118
      ],
      [
        "▁iubit",
        -10.14344327068466
      ],
      [
        "▁plină",
        -10.143877787141669
      ],
      [
        "▁atrage",
        -10.144203465633627
      ],
      [
        "▁convins",
        -10.14466391037192
      ],
      [
        "▁cercetare",
        -10.14579416340807
      ],
      [
        "▁necesară",
        -10.146052796724774
      ],
      [
        "▁pagini",
        -10.146347521724858
      ],
      [
        "▁disponibile",
        -10.146747806141352
      ],
      [
        "▁privește",
        -10.146964352552509
      ],
      [
        "mb",
        -10.147368292723215
      ],
      [
        "▁sport",
        -10.147437094485529
      ],
      [
        "▁Ministerului",
        -10.14756231067785
      ],
      [
        "▁Constantin",
        -10.147661442187411
      ],
      [
        "▁minunat",
        -10.148725428321203
      ],
      [
        "▁procedura",
        -10.149246263247353
      ],
      [
        "▁sala",
        -10.149630871547863
      ],
      [
        "▁circa",
        -10.150131479927529
      ],
      [
        "II",
        -10.150511886648083
      ],
      [
        "ene",
        -10.150516905116941
      ],
      [
        "▁opinia",
        -10.151555602138654
      ],
      [
        "▁folosirea",
        -10.152620156982316
      ],
      [
        "▁General",
        -10.15388246603516
      ],
      [
        "▁cookie",
        -10.154420553198154
      ],
      [
        "▁Trump",
        -10.155026722974593
      ],
      [
        "gan",
        -10.15528924192532
      ],
      [
        "ki",
        -10.155329333875692
      ],
      [
        "▁2008",
        -10.155757332109468
      ],
      [
        "fer",
        -10.155760627552848
      ],
      [
        "▁schimbare",
        -10.15576630565391
      ],
      [
        "ria",
        -10.155972836519236
      ],
      [
        "▁gandit",
        -10.15620181020616
      ],
      [
        "nti",
        -10.156750148329103
      ],
      [
        "▁rece",
        -10.158054655454864
      ],
      [
        "IN",
        -10.15809408707047
      ],
      [
        "▁luptă",
        -10.159144293239747
      ],
      [
        "▁centru",
        -10.159157890568775
      ],
      [
        "seră",
        -10.159995804933896
      ],
      [
        "veţi",
        -10.160437182137413
      ],
      [
        "▁Ministrul",
        -10.160481483302775
      ],
      [
        "▁ajutat",
        -10.16055361362277
      ],
      [
        "▁iubirea",
        -10.161061841556755
      ],
      [
        "▁realizate",
        -10.161585950341472
      ],
      [
        "fic",
        -10.16162182168403
      ],
      [
        "▁spital",
        -10.162060433254386
      ],
      [
        "▁dispune",
        -10.162957638024881
      ],
      [
        "▁Ti",
        -10.163347622026048
      ],
      [
        "▁iubire",
        -10.163692519451306
      ],
      [
        "▁dulce",
        -10.163881792191582
      ],
      [
        "▁plante",
        -10.164041582611002
      ],
      [
        "▁parti",
        -10.164093382673222
      ],
      [
        "▁controlul",
        -10.164384863075032
      ],
      [
        "▁Oficial",
        -10.16576218674617
      ],
      [
        "▁societate",
        -10.165974538428834
      ],
      [
        "asa",
        -10.166177793281413
      ],
      [
        "▁trafic",
        -10.16636040556201
      ],
      [
        "▁masă",
        -10.167571131161475
      ],
      [
        "▁juca",
        -10.167845530836356
      ],
      [
        "▁criza",
        -10.167966892653347
      ],
      [
        "nţe",
        -10.168071036604125
      ],
      [
        "▁existat",
        -10.168873348984787
      ],
      [
        "▁Florin",
        -10.168905347205191
      ],
      [
        "▁oferite",
        -10.17008680421127
      ],
      [
        "▁comunicat",
        -10.17044817081953
      ],
      [
        "▁buget",
        -10.171081442425699
      ],
      [
        "▁românii",
        -10.1711253158273
      ],
      [
        "▁Daniel",
        -10.171353693317236
      ],
      [
        "▁trecut,",
        -10.172111947459893
      ],
      [
        "▁35",
        -10.1721367794292
      ],
      [
        "40",
        -10.172437060783064
      ],
      [
        "▁Ri",
        -10.173606696159206
      ],
      [
        "▁capital",
        -10.173874933914277
      ],
      [
        "IA",
        -10.174203339426402
      ],
      [
        "▁300",
        -10.17471266307399
      ],
      [
        "▁2007",
        -10.17519700293782
      ],
      [
        "▁contractului",
        -10.175292621640056
      ],
      [
        "▁alimentare",
        -10.176089767138436
      ],
      [
        "▁intrebari",
        -10.176522018686079
      ],
      [
        "fin",
        -10.177004747056996
      ],
      [
        "stru",
        -10.17711071804173
      ],
      [
        "▁totuşi",
        -10.17731071865387
      ],
      [
        "▁Du",
        -10.177583144321767
      ],
      [
        "▁dosarul",
        -10.17758661613438
      ],
      [
        "▁lumină",
        -10.17832129688421
      ],
      [
        "▁discutie",
        -10.178595554924224
      ],
      [
        "▁transforma",
        -10.178745842621481
      ],
      [
        "▁Stiri",
        -10.179070089924203
      ],
      [
        "▁Su",
        -10.179080907434676
      ],
      [
        "ly",
        -10.180219151090746
      ],
      [
        "ţe",
        -10.180739908726135
      ],
      [
        "▁profesor",
        -10.18129465916551
      ],
      [
        "▁militare",
        -10.181971382763388
      ],
      [
        "▁sprijinul",
        -10.182361365802771
      ],
      [
        "▁preşedintele",
        -10.182598977082872
      ],
      [
        "▁modificările",
        -10.182981890654466
      ],
      [
        "▁Vasile",
        -10.185516645346544
      ],
      [
        "▁To",
        -10.18581575479404
      ],
      [
        "▁Jocuri",
        -10.185884222801104
      ],
      [
        "▁Paul",
        -10.18604222098823
      ],
      [
        "▁curand",
        -10.18636112262551
      ],
      [
        "▁sincer",
        -10.187298657122808
      ],
      [
        "▁explicat",
        -10.18772362832891
      ],
      [
        "▁lasă",
        -10.188139107463897
      ],
      [
        "▁sã",
        -10.188320072560009
      ],
      [
        "▁urmare,",
        -10.188434410436503
      ],
      [
        "▁mea.",
        -10.189056262006318
      ],
      [
        "▁vârsta",
        -10.189234414477578
      ],
      [
        "▁reducerea",
        -10.189667931823497
      ],
      [
        "▁muncii",
        -10.189859085454668
      ],
      [
        "▁pacate",
        -10.19003555066725
      ],
      [
        "▁materie",
        -10.190439147632086
      ],
      [
        "▁asigură",
        -10.190463211314206
      ],
      [
        "▁volum",
        -10.190522273661536
      ],
      [
        "▁stabili",
        -10.190717160361217
      ],
      [
        "▁anual",
        -10.19092559733252
      ],
      [
        "▁vrem",
        -10.191141594073986
      ],
      [
        "▁priveşte",
        -10.191659654209218
      ],
      [
        "ard",
        -10.19178456841078
      ],
      [
        "▁fiscal",
        -10.19212829605393
      ],
      [
        "▁cumpara",
        -10.192780876548088
      ],
      [
        "▁Introdu",
        -10.193491123509418
      ],
      [
        "▁cuprins",
        -10.193547090777692
      ],
      [
        "▁termenul",
        -10.19358946770075
      ],
      [
        "▁suferit",
        -10.194400302951417
      ],
      [
        "▁ştiri",
        -10.194407110509644
      ],
      [
        "▁da,",
        -10.194599578505125
      ],
      [
        "▁cărți",
        -10.195336493965778
      ],
      [
        "▁hai",
        -10.195396492957599
      ],
      [
        "▁elimina",
        -10.195496602398432
      ],
      [
        "▁linie",
        -10.196977203194349
      ],
      [
        "ător",
        -10.197249137221567
      ],
      [
        "▁pleca",
        -10.197259848504189
      ],
      [
        "▁Pa",
        -10.197294379786067
      ],
      [
        "▁treia",
        -10.197315864326127
      ],
      [
        "▁cald",
        -10.197895773555587
      ],
      [
        "▁păr",
        -10.198198063940222
      ],
      [
        "responsabilitate",
        -10.198366368227795
      ],
      [
        "▁importantă",
        -10.198559036623173
      ],
      [
        "▁obiectiv",
        -10.19873250529854
      ],
      [
        "dul",
        -10.199727492251128
      ],
      [
        "▁FOTO",
        -10.199772497816154
      ],
      [
        "tan",
        -10.20022904027115
      ],
      [
        "▁simple",
        -10.200267801011094
      ],
      [
        "▁incredere",
        -10.200516696738392
      ],
      [
        "nii",
        -10.200781344887135
      ],
      [
        "▁meu,",
        -10.201024890553313
      ],
      [
        "▁(sau",
        -10.20182991110957
      ],
      [
        "▁fericit",
        -10.202089447325978
      ],
      [
        "▁explica",
        -10.202110169520951
      ],
      [
        "▁diferit",
        -10.202113401288136
      ],
      [
        "▁specialitate",
        -10.202354755638783
      ],
      [
        "▁PENTRU",
        -10.202513254114496
      ],
      [
        "▁timp.",
        -10.202640074707755
      ],
      [
        "▁document",
        -10.202902306412753
      ],
      [
        "▁intamplat",
        -10.20312326306361
      ],
      [
        "▁rugam",
        -10.203540242575322
      ],
      [
        "▁Craiova",
        -10.203737829020074
      ],
      [
        "▁aspecte",
        -10.203960242658098
      ],
      [
        "▁pă",
        -10.20480655014901
      ],
      [
        "▁Unul",
        -10.20547569645775
      ],
      [
        "▁situat",
        -10.205582956640683
      ],
      [
        "tina",
        -10.206012985395502
      ],
      [
        "▁ceilalti",
        -10.206169413224544
      ],
      [
        "ură",
        -10.206173618948203
      ],
      [
        "▁atinge",
        -10.206175137203388
      ],
      [
        "▁poarta",
        -10.206185860820336
      ],
      [
        "▁situaţia",
        -10.207390520211685
      ],
      [
        "▁arătat",
        -10.208385409699773
      ],
      [
        "▁incearca",
        -10.208611453589345
      ],
      [
        "col",
        -10.2086359064325
      ],
      [
        "ram",
        -10.208743190945665
      ],
      [
        "▁anti-",
        -10.208968821707755
      ],
      [
        "▁jocul",
        -10.209011254905986
      ],
      [
        "▁supra",
        -10.209262771295997
      ],
      [
        "▁prim",
        -10.209509765189296
      ],
      [
        "▁riscul",
        -10.209516767431767
      ],
      [
        "é",
        -10.209834819963302
      ],
      [
        "ger",
        -10.210177668958803
      ],
      [
        "ris",
        -10.210669714038634
      ],
      [
        "▁alegerea",
        -10.210958216726777
      ],
      [
        "▁venituri",
        -10.210966229833467
      ],
      [
        "▁nascut",
        -10.211164389208452
      ],
      [
        "▁barbat",
        -10.211352165069009
      ],
      [
        "ARE",
        -10.211708900887231
      ],
      [
        "ologie",
        -10.212095097537366
      ],
      [
        "▁Probabil",
        -10.212418756592815
      ],
      [
        "[",
        -10.212997001043641
      ],
      [
        "ante",
        -10.213035511601483
      ],
      [
        "tur",
        -10.21303694435656
      ],
      [
        "uit",
        -10.213545941611955
      ],
      [
        "▁80",
        -10.213745911631799
      ],
      [
        "▁subiecte",
        -10.21382827409725
      ],
      [
        "▁impune",
        -10.214038007300838
      ],
      [
        "ora",
        -10.214448039586092
      ],
      [
        "▁poartă",
        -10.21474614335376
      ],
      [
        "▁ti-a",
        -10.21482684308223
      ],
      [
        "▁Vreau",
        -10.215404962968316
      ],
      [
        "▁ml",
        -10.215925121416749
      ],
      [
        "▁2006",
        -10.216017054183729
      ],
      [
        "▁uite",
        -10.216496864246484
      ],
      [
        "▁preferat",
        -10.21717329795343
      ],
      [
        "▁ţara",
        -10.21728735883486
      ],
      [
        "▁Ele",
        -10.217867430893829
      ],
      [
        "▁invata",
        -10.218651749967018
      ],
      [
        "▁curând",
        -10.219043752440538
      ],
      [
        "▁Române",
        -10.219231675217632
      ],
      [
        "▁interviu",
        -10.219568626470831
      ],
      [
        "▁evita",
        -10.219622641899564
      ],
      [
        "▁Britanie",
        -10.219681064192017
      ],
      [
        "▁recomand",
        -10.219866505213203
      ],
      [
        "ți-vă",
        -10.21989471384649
      ],
      [
        "▁știe",
        -10.22016246946448
      ],
      [
        "▁Astfel",
        -10.220450823285745
      ],
      [
        "▁răspunde",
        -10.220607927341284
      ],
      [
        "▁apropiat",
        -10.22067263435919
      ],
      [
        "▁rata",
        -10.220835855714647
      ],
      [
        "▁dor",
        -10.221178600763983
      ],
      [
        "▁transmis",
        -10.2212185764941
      ],
      [
        "▁româneşti",
        -10.22135380432929
      ],
      [
        "veți",
        -10.221780588241618
      ],
      [
        "▁tipul",
        -10.222030397194057
      ],
      [
        "atul",
        -10.22215269755333
      ],
      [
        "▁întâi",
        -10.222203293114886
      ],
      [
        "▁crearea",
        -10.222559229633648
      ],
      [
        "je",
        -10.22294285077156
      ],
      [
        "▁european",
        -10.223092705453737
      ],
      [
        "▁metoda",
        -10.223398892428033
      ],
      [
        "▁Ad",
        -10.223543386022705
      ],
      [
        "▁lovit",
        -10.22445665879937
      ],
      [
        "-19",
        -10.224566922770231
      ],
      [
        "▁povesti",
        -10.22479957380769
      ],
      [
        "▁Sfântul",
        -10.22500135787964
      ],
      [
        "▁categorii",
        -10.225739560029929
      ],
      [
        "ările",
        -10.226300787441994
      ],
      [
        "▁http://",
        -10.227028304890494
      ],
      [
        "😀",
        -10.227129875169965
      ],
      [
        "lina",
        -10.227352871282847
      ],
      [
        "▁(C",
        -10.227429492788279
      ],
      [
        "▁Halep",
        -10.228379881346502
      ],
      [
        "▁împrumut",
        -10.228520827011874
      ],
      [
        "▁avion",
        -10.229097943376182
      ],
      [
        "▁Ni",
        -10.229514627287287
      ],
      [
        "▁intrebare",
        -10.23006178170401
      ],
      [
        "▁comune",
        -10.230349002662921
      ],
      [
        "▁plată",
        -10.232022507493015
      ],
      [
        "▁doamna",
        -10.23213291499785
      ],
      [
        "▁intelege",
        -10.232808428718943
      ],
      [
        "▁Com",
        -10.232938875470666
      ],
      [
        "▁scrise",
        -10.233039203862777
      ],
      [
        "▁forta",
        -10.233336984356367
      ],
      [
        "▁fiindcă",
        -10.234026662775092
      ],
      [
        "▁dragi",
        -10.234193747649954
      ],
      [
        "▁pielii",
        -10.234368667462974
      ],
      [
        "▁privat",
        -10.234490829897121
      ],
      [
        "▁ne-au",
        -10.234521425239164
      ],
      [
        "▁ofere",
        -10.23453362785963
      ],
      [
        "▁programe",
        -10.234638338826084
      ],
      [
        "nul",
        -10.234893336832926
      ],
      [
        "ii.",
        -10.234931796140255
      ],
      [
        "▁Ho",
        -10.235687967663104
      ],
      [
        "▁stabilite",
        -10.235919460249438
      ],
      [
        "▁Iaşi",
        -10.236156638194473
      ],
      [
        "▁natură",
        -10.236450473762826
      ],
      [
        "▁drepturilor",
        -10.236604242273142
      ],
      [
        "▁fusese",
        -10.236872222884335
      ],
      [
        "mi-au",
        -10.237403611792978
      ],
      [
        "!!",
        -10.237758663931611
      ],
      [
        "▁oferte",
        -10.237837445262116
      ],
      [
        "▁SE",
        -10.237969407531203
      ],
      [
        "ada",
        -10.238021360451912
      ],
      [
        "▁Ş",
        -10.239851684958419
      ],
      [
        "▁bu",
        -10.239902146174604
      ],
      [
        "ron",
        -10.240453212759823
      ],
      [
        "▁70",
        -10.240589047901722
      ],
      [
        "▁rezerva",
        -10.240682934458757
      ],
      [
        "▁recomanda",
        -10.24177254289457
      ],
      [
        "▁guvernul",
        -10.241998893625773
      ],
      [
        "▁SRL",
        -10.242197796187117
      ],
      [
        "▁culturale",
        -10.24225249953614
      ],
      [
        "pînă",
        -10.24358934245523
      ],
      [
        "▁poată",
        -10.243649518312655
      ],
      [
        "▁trăi",
        -10.244222182816987
      ],
      [
        "▁90",
        -10.244251335419776
      ],
      [
        "▁com",
        -10.244382942671766
      ],
      [
        "▁alţii",
        -10.244391344338165
      ],
      [
        "▁tur",
        -10.245074358074072
      ],
      [
        "▁aprobarea",
        -10.24519621474281
      ],
      [
        "▁altfel,",
        -10.24530336896147
      ],
      [
        "▁saptamani",
        -10.245671797071331
      ],
      [
        "RE",
        -10.24598023299163
      ],
      [
        "▁recomandat",
        -10.246585593694352
      ],
      [
        "▁Stat",
        -10.248290880209721
      ],
      [
        "▁parerea",
        -10.24844615955107
      ],
      [
        "▁kg",
        -10.249732060931079
      ],
      [
        "▁generale",
        -10.249779570081554
      ],
      [
        "▁grijă",
        -10.249815573718983
      ],
      [
        "▁vii",
        -10.25022669033892
      ],
      [
        "torilor",
        -10.25033135386236
      ],
      [
        "▁măsura",
        -10.250421583862384
      ],
      [
        "▁economică",
        -10.250783003974313
      ],
      [
        "▁Suceava",
        -10.251090686328965
      ],
      [
        "▁reteta",
        -10.251094166878133
      ],
      [
        "▁fotbal",
        -10.251603228893437
      ],
      [
        "▁prevede",
        -10.251988611954323
      ],
      [
        "-1",
        -10.252439191625427
      ],
      [
        "▁atentie",
        -10.252987973239627
      ],
      [
        "mat",
        -10.253264425850231
      ],
      [
        "19",
        -10.253863730293235
      ],
      [
        "inte",
        -10.255151119785115
      ],
      [
        "ti-va",
        -10.255230711214917
      ],
      [
        "▁Totul",
        -10.255310636497576
      ],
      [
        "▁c)",
        -10.255732439406131
      ],
      [
        "▁dragostea",
        -10.255789124671203
      ],
      [
        "▁gasesc",
        -10.25622099219951
      ],
      [
        "era",
        -10.256238773262947
      ],
      [
        "▁rus",
        -10.256869792204125
      ],
      [
        "▁propriul",
        -10.257186410455052
      ],
      [
        "▁design",
        -10.258461474579995
      ],
      [
        "▁rezervate.",
        -10.258577020534968
      ],
      [
        "▁elevi",
        -10.258776992336525
      ],
      [
        "▁Grecia",
        -10.258780430909962
      ],
      [
        "▁_--",
        -10.258979189960659
      ],
      [
        "▁judecată",
        -10.259024496427056
      ],
      [
        "rna",
        -10.260016325542326
      ],
      [
        "▁general,",
        -10.261395403991008
      ],
      [
        "▁uman",
        -10.261675868322104
      ],
      [
        "▁acestia",
        -10.261831680800222
      ],
      [
        "izeze",
        -10.262304306843253
      ],
      [
        "▁lume.",
        -10.262674475541392
      ],
      [
        "▁Putin",
        -10.262713240559341
      ],
      [
        "▁atent",
        -10.26289005551119
      ],
      [
        "▁(nu",
        -10.262962257209901
      ],
      [
        "▁devin",
        -10.262966456127785
      ],
      [
        "▁solicita",
        -10.263025945157754
      ],
      [
        "TI",
        -10.263481729713611
      ],
      [
        "▁urmatoarele",
        -10.263530927705759
      ],
      [
        "▁lume,",
        -10.263839685214485
      ],
      [
        "▁fapte",
        -10.264390955683611
      ],
      [
        "▁(cu",
        -10.26491314031433
      ],
      [
        "cer",
        -10.2649216382949
      ],
      [
        "▁aveți",
        -10.265071787556796
      ],
      [
        "u’",
        -10.265333769611628
      ],
      [
        "ng",
        -10.265348914712678
      ],
      [
        "▁intotdeauna",
        -10.265854871906795
      ],
      [
        "▁resurse",
        -10.265929525931455
      ],
      [
        "▁Elena",
        -10.266631923126342
      ],
      [
        "▁caci",
        -10.266929466932506
      ],
      [
        "▁bazat",
        -10.267363405923575
      ],
      [
        "▁45",
        -10.267637373016914
      ],
      [
        "▁domenii",
        -10.267842434621349
      ],
      [
        "▁Cod",
        -10.267854791479156
      ],
      [
        "▁Programul",
        -10.267911628925969
      ],
      [
        "▁grea",
        -10.268006105224504
      ],
      [
        "▁Or",
        -10.268147714109936
      ],
      [
        "▁standard",
        -10.26824706095304
      ],
      [
        "▁frică",
        -10.269175217966282
      ],
      [
        "▁apel",
        -10.270359667834878
      ],
      [
        "▁Iata",
        -10.270885913593292
      ],
      [
        "▁treilea",
        -10.270970034126714
      ],
      [
        "▁dedicat",
        -10.271052355445068
      ],
      [
        "▁faza",
        -10.271097552052277
      ],
      [
        "▁cumparat",
        -10.27115005941261
      ],
      [
        "ște",
        -10.271319006215684
      ],
      [
        "te-ai",
        -10.2713651674374
      ],
      [
        "▁egal",
        -10.271485977225538
      ],
      [
        "▁Insa",
        -10.271505013257343
      ],
      [
        "&",
        -10.271616155058535
      ],
      [
        "▁2005",
        -10.272441593634577
      ],
      [
        "▁sange",
        -10.273057984434336
      ],
      [
        "▁vacanta",
        -10.273438701294971
      ],
      [
        "▁vizibil",
        -10.2743504301745
      ],
      [
        "▁titlu",
        -10.2744229827277
      ],
      [
        "▁transformat",
        -10.275466054417091
      ],
      [
        "▁puteţi",
        -10.275756136620448
      ],
      [
        "EI",
        -10.276325701532448
      ],
      [
        "▁galben",
        -10.276608827271467
      ],
      [
        "să-mi",
        -10.276626608982621
      ],
      [
        "▁regim",
        -10.277252720826752
      ],
      [
        "▁strict",
        -10.277602799943843
      ],
      [
        "str",
        -10.277645213282135
      ],
      [
        "bă",
        -10.277712936956679
      ],
      [
        "▁vie",
        -10.277939022440645
      ],
      [
        "▁astia",
        -10.278171790772454
      ],
      [
        "▁bate",
        -10.278190214685022
      ],
      [
        "▁simte",
        -10.278388427649496
      ],
      [
        "tură",
        -10.27847822619736
      ],
      [
        "▁pisici",
        -10.278523953292265
      ],
      [
        "▁textul",
        -10.278746993585099
      ],
      [
        "▁Ia",
        -10.278750430870605
      ],
      [
        "ry",
        -10.278909880234458
      ],
      [
        "▁continuat",
        -10.278920093585299
      ],
      [
        "▁săptămâni",
        -10.279059179585012
      ],
      [
        "▁Chi",
        -10.279246086627353
      ],
      [
        "▁Email",
        -10.279738454339117
      ],
      [
        "▁Proiectul",
        -10.279789974014829
      ],
      [
        "▁h",
        -10.279858624047574
      ],
      [
        "▁Înainte",
        -10.280466923488301
      ],
      [
        "▁penală",
        -10.281017880491163
      ],
      [
        "▁marca",
        -10.281253728120905
      ],
      [
        "▁intrarea",
        -10.281331333598985
      ],
      [
        "▁evaluare",
        -10.281382997585379
      ],
      [
        "▁Go",
        -10.281584433786843
      ],
      [
        "▁cultural",
        -10.28213147200815
      ],
      [
        "▁Camerei",
        -10.282935698365632
      ],
      [
        "▁toamna",
        -10.283532552650573
      ],
      [
        "▁doctor",
        -10.283760701741485
      ],
      [
        "ji",
        -10.284029676230793
      ],
      [
        "▁fond",
        -10.28416593665614
      ],
      [
        "▁mult.",
        -10.284329013172243
      ],
      [
        "▁car",
        -10.284514076237556
      ],
      [
        "▁(8)",
        -10.284640638327367
      ],
      [
        "▁Unii",
        -10.285008980537238
      ],
      [
        "▁precedent",
        -10.285194297412867
      ],
      [
        "▁munte",
        -10.285353215628202
      ],
      [
        "▁ş",
        -10.28542858303131
      ],
      [
        "▁sale,",
        -10.285725504525345
      ],
      [
        "▁2017,",
        -10.286048317138011
      ],
      [
        "▁următorul",
        -10.286175014449778
      ],
      [
        "▁(7)",
        -10.286249885820572
      ],
      [
        "▁gandesc",
        -10.286290512160786
      ],
      [
        "lie",
        -10.286434143542845
      ],
      [
        "ios",
        -10.286547225924977
      ],
      [
        "nia",
        -10.286746099693005
      ],
      [
        "▁înapoi",
        -10.28738033938853
      ],
      [
        "▁juridice",
        -10.287607369773145
      ],
      [
        "▁intereseaza",
        -10.287622110197095
      ],
      [
        "ure",
        -10.287893586850249
      ],
      [
        "▁Lu",
        -10.288670426543284
      ],
      [
        "▁tratat",
        -10.288767439488181
      ],
      [
        "▁lucrări",
        -10.288897380047343
      ],
      [
        "▁dans",
        -10.289778503502777
      ],
      [
        "▁utilizate",
        -10.289983392253957
      ],
      [
        "▁sustine",
        -10.290066721904104
      ],
      [
        "▁taxe",
        -10.290753135097782
      ],
      [
        "▁descoperi",
        -10.290815225384824
      ],
      [
        "▁2,",
        -10.29096617284885
      ],
      [
        "▁echipei",
        -10.29124936547889
      ],
      [
        "▁voturi",
        -10.291377889962707
      ],
      [
        "▁Vlad",
        -10.291471852313734
      ],
      [
        "sor",
        -10.291657648297694
      ],
      [
        "▁revine",
        -10.291941324237516
      ],
      [
        "ft",
        -10.292354788437812
      ],
      [
        "▁consuma",
        -10.292628955844034
      ],
      [
        "▁scena",
        -10.292855520160199
      ],
      [
        "▁noastre,",
        -10.293076216090927
      ],
      [
        "▁Parlament",
        -10.293599048310815
      ],
      [
        "):",
        -10.29372151600251
      ],
      [
        "▁1,",
        -10.293793361658793
      ],
      [
        "▁atins",
        -10.293995725117203
      ],
      [
        "▁Iisus",
        -10.294048113060068
      ],
      [
        "lic",
        -10.294163434806862
      ],
      [
        "▁bat",
        -10.294184298850505
      ],
      [
        "▁citeste",
        -10.294735850386548
      ],
      [
        "▁150",
        -10.294736292982329
      ],
      [
        "țiile",
        -10.294825217971976
      ],
      [
        "▁vinde",
        -10.295385282076428
      ],
      [
        "▁arta",
        -10.296053688253973
      ],
      [
        "▁făcute",
        -10.296093932434019
      ],
      [
        "res",
        -10.297195155585783
      ],
      [
        "▁Bar",
        -10.297529827400496
      ],
      [
        "▁Bogdan",
        -10.298417660160183
      ],
      [
        "▁realitatea",
        -10.298642348940884
      ],
      [
        "▁stai",
        -10.299473414752324
      ],
      [
        "▁context",
        -10.299910613726546
      ],
      [
        "fect",
        -10.300667037902109
      ],
      [
        "▁practică",
        -10.300677156030794
      ],
      [
        "▁siguranță",
        -10.300834256701867
      ],
      [
        "ţele",
        -10.300893210521712
      ],
      [
        "▁structura",
        -10.30092464176856
      ],
      [
        "▁nota",
        -10.300990085017906
      ],
      [
        "▁so",
        -10.301542918777194
      ],
      [
        "▁soare",
        -10.301616455020522
      ],
      [
        "▁6.",
        -10.30162852825106
      ],
      [
        "▁cookie-urile",
        -10.301809578007369
      ],
      [
        "oane",
        -10.302121661168215
      ],
      [
        "tare",
        -10.30216260298551
      ],
      [
        "▁propriu",
        -10.302287324794342
      ],
      [
        "▁fostul",
        -10.302792525863653
      ],
      [
        "▁casei",
        -10.303149796824805
      ],
      [
        "▁mor",
        -10.303207234916503
      ],
      [
        "▁taie",
        -10.30322498215436
      ],
      [
        "▁David",
        -10.303538410009804
      ],
      [
        "▁Craciun",
        -10.30354823080291
      ],
      [
        "▁serviciul",
        -10.303561250408823
      ],
      [
        "▁castigat",
        -10.30423665087741
      ],
      [
        "▁nevoia",
        -10.304519955725361
      ],
      [
        "▁sectorul",
        -10.305027568994998
      ],
      [
        "▁românesc",
        -10.305396033297125
      ],
      [
        "▁masini",
        -10.305584578582033
      ],
      [
        "▁poporul",
        -10.305633518197038
      ],
      [
        "▁popor",
        -10.305638390778835
      ],
      [
        "AR",
        -10.30587958124347
      ],
      [
        "▁dispozitie",
        -10.306194137647903
      ],
      [
        "▁tai",
        -10.30623053479436
      ],
      [
        "12",
        -10.30655572103378
      ],
      [
        "▁intru",
        -10.306810760316331
      ],
      [
        "▁acestora.",
        -10.307155042757678
      ],
      [
        "▁zile.",
        -10.307422641866893
      ],
      [
        "▁folos",
        -10.308338162806793
      ],
      [
        "▁anunţat",
        -10.308747014322712
      ],
      [
        "▁poporului",
        -10.308991502947903
      ],
      [
        "itati",
        -10.30924404755008
      ],
      [
        "▁interesante",
        -10.309475430402514
      ],
      [
        "te.",
        -10.30954999041358
      ],
      [
        "▁stiti",
        -10.309574904455442
      ],
      [
        "▁orele",
        -10.310243105701506
      ],
      [
        "▁continui",
        -10.310416800820338
      ],
      [
        "▁trage",
        -10.310467815425227
      ],
      [
        "▁zonele",
        -10.311512272878797
      ],
      [
        "▁zonă",
        -10.311814910489296
      ],
      [
        "▁căreia",
        -10.31218386911169
      ],
      [
        "▁purta",
        -10.313410237819529
      ],
      [
        "▁muzică",
        -10.313631012610465
      ],
      [
        "▁haine",
        -10.313752214880488
      ],
      [
        "▁raspunde",
        -10.31382939274592
      ],
      [
        ".com",
        -10.314121860847555
      ],
      [
        "▁acceptat",
        -10.314969229831622
      ],
      [
        "▁marcate",
        -10.315167024703598
      ],
      [
        "▁ţine",
        -10.315485158775182
      ],
      [
        "▁Bun",
        -10.315809440802603
      ],
      [
        "▁nou,",
        -10.316114586342998
      ],
      [
        "stă",
        -10.316118273346031
      ],
      [
        "fr",
        -10.316228423901158
      ],
      [
        "▁bolnav",
        -10.316279579793964
      ],
      [
        "▁Gu",
        -10.31671363636001
      ],
      [
        "arul",
        -10.316897609605288
      ],
      [
        "tati",
        -10.317272560914873
      ],
      [
        "▁profil",
        -10.317467811132534
      ],
      [
        "ute",
        -10.317621835116714
      ],
      [
        "▁serios",
        -10.318208890383296
      ],
      [
        "▁echipă",
        -10.318398965195072
      ],
      [
        "▁Trei",
        -10.318578935080925
      ],
      [
        "▁dorim",
        -10.318693952042889
      ],
      [
        "▁ocupat",
        -10.31889742636615
      ],
      [
        "▁lungi",
        -10.318971562440565
      ],
      [
        "▁ţări",
        -10.319062230416648
      ],
      [
        "▁pozitiv",
        -10.319843493313808
      ],
      [
        "▁Monitorul",
        -10.319876728992853
      ],
      [
        "▁me",
        -10.319997082624095
      ],
      [
        "▁Cor",
        -10.320144627425666
      ],
      [
        "anul",
        -10.320295836555037
      ],
      [
        "▁n-o",
        -10.322082244054641
      ],
      [
        "▁bi",
        -10.322173675117543
      ],
      [
        "le-au",
        -10.322450673702006
      ],
      [
        "▁mancare",
        -10.322768819701908
      ],
      [
        "▁gândit",
        -10.322916724694894
      ],
      [
        "▁incep",
        -10.323480897786528
      ],
      [
        "▁contine",
        -10.323507534707517
      ],
      [
        "▁modelul",
        -10.323606161704259
      ],
      [
        "▁castiga",
        -10.323637237110379
      ],
      [
        "▁Ci",
        -10.32439236273116
      ],
      [
        "▁somn",
        -10.325144949337435
      ],
      [
        "▁fotografie",
        -10.325379184130451
      ],
      [
        "▁icon",
        -10.325390767067043
      ],
      [
        "▁militar",
        -10.32553552021347
      ],
      [
        "▁definitiv",
        -10.32584194007546
      ],
      [
        "▁campanie",
        -10.326044099040502
      ],
      [
        "▁vină",
        -10.326110235910837
      ],
      [
        "▁femeia",
        -10.326285584928666
      ],
      [
        "▁electric",
        -10.326371895006515
      ],
      [
        "▁decît",
        -10.326507607381728
      ],
      [
        "▁aparitia",
        -10.32662494314925
      ],
      [
        "▁(S",
        -10.327671257503685
      ],
      [
        "▁aruncat",
        -10.327944340047841
      ],
      [
        "▁utile",
        -10.328018424790983
      ],
      [
        "▁decide",
        -10.328041681634971
      ],
      [
        "▁negru",
        -10.328106493841844
      ],
      [
        "▁căruia",
        -10.328603429603707
      ],
      [
        "▁disponibil",
        -10.329174371393323
      ],
      [
        "▁original",
        -10.329279784678919
      ],
      [
        "don",
        -10.32947915887322
      ],
      [
        "▁completarea",
        -10.329659163613393
      ],
      [
        "▁alcool",
        -10.329694820901217
      ],
      [
        "▁Liga",
        -10.329768976260954
      ],
      [
        "▁Israel",
        -10.330376579546785
      ],
      [
        "▁port",
        -10.330469971195162
      ],
      [
        "▁opri",
        -10.33054295033396
      ],
      [
        "▁Spre",
        -10.330631456440322
      ],
      [
        "sto",
        -10.330987745421922
      ],
      [
        "bul",
        -10.33116287549986
      ],
      [
        "▁su",
        -10.331510927298584
      ],
      [
        "▁crestere",
        -10.331805330546853
      ],
      [
        "▁simpla",
        -10.33357295175163
      ],
      [
        "▁decizii",
        -10.33373570660272
      ],
      [
        "▁recunoscut",
        -10.33438746932702
      ],
      [
        "▁Mondial",
        -10.334398674368902
      ],
      [
        "▁Cartea",
        -10.334551785109326
      ],
      [
        "▁pace",
        -10.33471776464324
      ],
      [
        "▁pornit",
        -10.334754032739196
      ],
      [
        "▁reale",
        -10.335261196742124
      ],
      [
        "▁corpului",
        -10.335578175410976
      ],
      [
        "▁weekend",
        -10.337696008948503
      ],
      [
        "▁obține",
        -10.33801363092813
      ],
      [
        "▁cunoscute",
        -10.33807881496785
      ],
      [
        "▁ș",
        -10.338963617066302
      ],
      [
        "form",
        -10.33924526460979
      ],
      [
        "ent",
        -10.339276794586368
      ],
      [
        "▁Me",
        -10.339631980856883
      ],
      [
        "▁depus",
        -10.339871957791276
      ],
      [
        "▁Deputaţilor",
        -10.340483467066761
      ],
      [
        "cii",
        -10.340756943462019
      ],
      [
        "▁citite",
        -10.340813652581794
      ],
      [
        "▁cadou",
        -10.340830888080863
      ],
      [
        "▁comuna",
        -10.340907508755606
      ],
      [
        "▁Sud",
        -10.341537959331017
      ],
      [
        "tom)",
        -10.341831937340785
      ],
      [
        "▁dispoziții",
        -10.342112396289277
      ],
      [
        "ive",
        -10.342150282673195
      ],
      [
        "▁Car",
        -10.342824509539604
      ],
      [
        "▁chip",
        -10.34305720391804
      ],
      [
        "▁a-l",
        -10.343283518806945
      ],
      [
        "▁aleg",
        -10.343322386775931
      ],
      [
        "▁Oare",
        -10.343827700720052
      ],
      [
        "▁vizitat",
        -10.343862302066672
      ],
      [
        "▁Italia",
        -10.343963114465925
      ],
      [
        "▁libertatea",
        -10.344122070066256
      ],
      [
        "▁sezon",
        -10.344178451843812
      ],
      [
        "▁întâmpla",
        -10.344493553695607
      ],
      [
        "▁2004",
        -10.34457441933828
      ],
      [
        "▁stele",
        -10.34478921925306
      ],
      [
        "▁înţeles",
        -10.345062860215151
      ],
      [
        "▁dr.",
        -10.345110949490596
      ],
      [
        "eri",
        -10.345118247310328
      ],
      [
        "▁marea",
        -10.345206551784733
      ],
      [
        "▁cur",
        -10.345226112081562
      ],
      [
        "▁An",
        -10.34561214921375
      ],
      [
        "▁invitat",
        -10.345827943556376
      ],
      [
        "▁intreb",
        -10.345864639394335
      ],
      [
        "▁încheiat",
        -10.345996581992924
      ],
      [
        "▁contextul",
        -10.346401375900946
      ],
      [
        "▁Publicat",
        -10.347208727800272
      ],
      [
        "▁My",
        -10.34736758263148
      ],
      [
        "▁actual",
        -10.347458120573112
      ],
      [
        "▁dieta",
        -10.347525086183445
      ],
      [
        "▁modern",
        -10.34755886927556
      ],
      [
        "▁mar",
        -10.347842568156615
      ],
      [
        "los",
        -10.347995052044189
      ],
      [
        "▁cerere",
        -10.348279637869751
      ],
      [
        "▁(P",
        -10.34856317761444
      ],
      [
        "▁atras",
        -10.349374788536053
      ],
      [
        "▁schimbarea",
        -10.349392914910908
      ],
      [
        "▁guvernare",
        -10.349474335448164
      ],
      [
        "▁specific",
        -10.349611850431021
      ],
      [
        "▁propriile",
        -10.34972754635411
      ],
      [
        "▁existe",
        -10.350651589713971
      ],
      [
        "▁Crăciun",
        -10.350760719344134
      ],
      [
        "▁pamant",
        -10.350901503018648
      ],
      [
        "▁semnal",
        -10.350917509999261
      ],
      [
        "▁programului",
        -10.35148165182197
      ],
      [
        "▁secolul",
        -10.351827287434098
      ],
      [
        "ta,",
        -10.352154656578204
      ],
      [
        "80",
        -10.352359549889513
      ],
      [
        "▁cărţi",
        -10.352867942206805
      ],
      [
        "▁oricine",
        -10.352920629479568
      ],
      [
        "▁sâmbătă",
        -10.353124082506625
      ],
      [
        "▁lucrează",
        -10.353143991852209
      ],
      [
        "▁deosebire",
        -10.354678905412555
      ],
      [
        "ie.",
        -10.355123401560247
      ],
      [
        "▁populare",
        -10.355238185829148
      ],
      [
        "▁rest",
        -10.355618909573185
      ],
      [
        "bu",
        -10.355666298356368
      ],
      [
        "▁respecta",
        -10.35566848757406
      ],
      [
        "▁ceva.",
        -10.355816463660682
      ],
      [
        "▁Dă",
        -10.356066481388282
      ],
      [
        "▁presedintele",
        -10.356622400498706
      ],
      [
        "▁energia",
        -10.357375157869026
      ],
      [
        "▁promovarea",
        -10.357510039124584
      ],
      [
        "▁n-ar",
        -10.357559311393171
      ],
      [
        "▁aceeași",
        -10.358365960062635
      ],
      [
        "▁contractul",
        -10.35837105710442
      ],
      [
        "▁#",
        -10.358716520509805
      ],
      [
        "▁interne",
        -10.358851007169957
      ],
      [
        "-A",
        -10.359131226012996
      ],
      [
        "▁seria",
        -10.360190214768789
      ],
      [
        "▁laptop",
        -10.3603484259311
      ],
      [
        "▁ele.",
        -10.36096921387496
      ],
      [
        "▁tehnice",
        -10.36121242067694
      ],
      [
        "▁intrare",
        -10.361446698201796
      ],
      [
        "▁surprins",
        -10.361648082617888
      ],
      [
        "▁viteza",
        -10.36167485289501
      ],
      [
        "▁Iasi",
        -10.362141214042063
      ],
      [
        "▁spectacol",
        -10.362260712177022
      ],
      [
        "▁lu",
        -10.362553109338883
      ],
      [
        "▁redus",
        -10.362881721058002
      ],
      [
        "▁trăit",
        -10.36304805405473
      ],
      [
        "▁Pot",
        -10.363467135687065
      ],
      [
        "▁lucru.",
        -10.363488428633334
      ],
      [
        "▁Ka",
        -10.363566679161302
      ],
      [
        "▁culoarea",
        -10.364079591000724
      ],
      [
        "rb",
        -10.364169019514566
      ],
      [
        "▁link",
        -10.36429014983196
      ],
      [
        "IE",
        -10.364392851468807
      ],
      [
        "▁copii,",
        -10.36441727079337
      ],
      [
        "dar",
        -10.364654947933008
      ],
      [
        "▁acolo.",
        -10.364684968372313
      ],
      [
        "▁încep",
        -10.364829808153779
      ],
      [
        "▁durere",
        -10.365000525653585
      ],
      [
        "▁marketing",
        -10.36507415215458
      ],
      [
        "▁directorul",
        -10.36546728022672
      ],
      [
        "▁fix",
        -10.365704210769362
      ],
      [
        "▁efort",
        -10.366232053288632
      ],
      [
        "▁facute",
        -10.366251874899639
      ],
      [
        "▁Fără",
        -10.36641624463174
      ],
      [
        "▁conduc",
        -10.366605886968294
      ],
      [
        "▁bea",
        -10.366813663924919
      ],
      [
        "cep",
        -10.367105854366667
      ],
      [
        "▁frigider",
        -10.36735981566883
      ],
      [
        "ităţi",
        -10.367366150486781
      ],
      [
        "▁business",
        -10.368236081191053
      ],
      [
        "▁!!!",
        -10.368263759307155
      ],
      [
        "▁Printr",
        -10.368686729499537
      ],
      [
        "▁curaj",
        -10.368698796783937
      ],
      [
        "▁impresia",
        -10.36879496171574
      ],
      [
        "▁Politică",
        -10.368810075897857
      ],
      [
        "▁susţine",
        -10.369440010883721
      ],
      [
        "▁situatie",
        -10.369461509636107
      ],
      [
        "▁modificări",
        -10.36946528577653
      ],
      [
        "▁ce-i",
        -10.369597959199904
      ],
      [
        "▁refer",
        -10.369634751225483
      ],
      [
        "cru",
        -10.369677026228434
      ],
      [
        "▁preluat",
        -10.369695090762557
      ],
      [
        "▁pensii",
        -10.370097740642265
      ],
      [
        "scă",
        -10.37064259237362
      ],
      [
        "▁sfarsit",
        -10.37067988966913
      ],
      [
        "▁persoanei",
        -10.370697786202669
      ],
      [
        "▁Banca",
        -10.37071226717959
      ],
      [
        "mân",
        -10.371388806920795
      ],
      [
        "▁comunist",
        -10.371584290237315
      ],
      [
        "▁Omul",
        -10.371711341085321
      ],
      [
        "AS",
        -10.371794290928882
      ],
      [
        "▁lit.",
        -10.371846895860887
      ],
      [
        "bile",
        -10.372355207167125
      ],
      [
        "ilor.",
        -10.372730884366383
      ],
      [
        "▁beneficia",
        -10.37294566742585
      ],
      [
        "▁constatat",
        -10.373417692499633
      ],
      [
        "▁„S",
        -10.373451976015858
      ],
      [
        "▁mesajul",
        -10.373582147768358
      ],
      [
        "▁externe",
        -10.37368605734986
      ],
      [
        "ate,",
        -10.373907004017678
      ],
      [
        "▁Bu",
        -10.373958579686878
      ],
      [
        "▁naționale",
        -10.374060135046214
      ],
      [
        "CE",
        -10.374092971144494
      ],
      [
        "▁mijloace",
        -10.374210654653165
      ],
      [
        "▁v",
        -10.374315511032798
      ],
      [
        "▁secolului",
        -10.37437382199687
      ],
      [
        "▁secrete",
        -10.374415988548698
      ],
      [
[...]
