{
  "version": "1.0",
  "truncation": null,
  "padding": null,
  "added_tokens": [
    {
      "id": 0,
      "content": "[UNK]",
      "single_word": false,
      "lstrip": false,
      "rstrip": false,
      "normalized": false,
      "special": true
    },
    {
      "id": 1,
      "content": "[CLS]",
      "single_word": false,
      "lstrip": false,
      "rstrip": false,
      "normalized": false,
      "special": true
    },
    {
      "id": 2,
      "content": "[SEP]",
      "single_word": false,
      "lstrip": false,
      "rstrip": false,
      "normalized": false,
      "special": true
    },
    {
      "id": 3,
      "content": "[PAD]",
      "single_word": false,
      "lstrip": false,
      "rstrip": false,
      "normalized": false,
      "special": true
    },
    {
      "id": 4,
      "content": "[MASK]",
      "single_word": false,
      "lstrip": false,
      "rstrip": false,
      "normalized": false,
      "special": true
    }
  ],
  "normalizer": {
    "type": "Sequence",
    "normalizers": [
      {
        "type": "Nmt"
      },
      {
        "type": "NFKC"
      },
      {
        "type": "Replace",
        "pattern": {
          "Regex": " {2,}"
        },
        "content": " "
      }
    ]
  },
  "pre_tokenizer": {
    "type": "Metaspace",
    "replacement": "▁",
    "prepend_scheme": "always",
    "split": true
  },
  "post_processor": null,
  "decoder": {
    "type": "Metaspace",
    "replacement": "▁",
    "prepend_scheme": "always",
    "split": true
  },
  "model": {
    "type": "Unigram",
    "unk_id": null,
    "vocab": [
      [
        "[UNK]",
        0.0
      ],
      [
        "[CLS]",
        0.0
      ],
      [
        "[SEP]",
        0.0
      ],
      [
        "[PAD]",
        0.0
      ],
      [
        "[MASK]",
        0.0
      ],
      [
        "▁",
        -2.753020071065068
      ],
      [
        ",",
        -3.0444259583033872
      ],
      [
        "s",
        -3.497221203364685
      ],
      [
        ".",
        -3.637246653104407
      ],
      [
        "▁un",
        -3.9346349044048576
      ],
      [
        "▁ir",
        -4.538047988905326
      ],
      [
        "u",
        -4.75372791444266
      ],
      [
        "i",
        -4.825821380944214
      ],
      [
        "a",
        -4.838545982531883
      ],
      [
        "▁ar",
        -4.89713761995225
      ],
      [
        "▁no",
        -5.095717576377707
      ],
      [
        "▁par",
        -5.1361074571350205
      ],
      [
        "m",
        -5.228803879843969
      ],
      [
        ":",
        -5.365839986183188
      ],
      [
        "▁ka",
        -5.383273264714127
      ],
      [
        "▁uz",
        -5.45104132680116
      ],
      [
        "▁arī",
        -5.598985295714526
      ],
      [
        "▁kas",
        -5.643440979905801
      ],
      [
        "▁kā",
        -5.667655411991106
      ],
      [
        "▁-",
        -5.670633070640044
      ],
      [
        "ā",
        -5.690203388450657
      ],
      [
        "▁–",
        -5.762065313410883
      ],
      [
        "▁vai",
        -5.77934309377525
      ],
      [
        "o",
        -5.8122899364480745
      ],
      [
        "as",
        -5.913995011455372
      ],
      [
        ")",
        -5.94393988009424
      ],
      [
        "”",
        -6.115788333304229
      ],
      [
        "▁to",
        -6.1530669697386
      ],
      [
        "▁bet",
        -6.173629537107507
      ],
      [
        "t",
        -6.182214862191467
      ],
      [
        "?",
        -6.182572208021329
      ],
      [
        "▁lai",
        -6.190564747775298
      ],
      [
        "!",
        -6.190766266721129
      ],
      [
        "▁nav",
        -6.234987386742519
      ],
      [
        "▁ne",
        -6.256512324100669
      ],
      [
        "▁var",
        -6.276407985216931
      ],
      [
        "▁(",
        -6.355606158446472
      ],
      [
        "▁pie",
        -6.4237628983762445
      ],
      [
        "▁tā",
        -6.424074700936121
      ],
      [
        "\"",
        -6.428819673927462
      ],
      [
        "e",
        -6.440312778568682
      ],
      [
        "ās",
        -6.455229228172573
      ],
      [
        "▁bija",
        -6.46276673494876
      ],
      [
        "▁pa",
        -6.49977773108923
      ],
      [
        ";",
        -6.501206314200605
      ],
      [
        "▁pēc",
        -6.505209764748706
      ],
      [
        "▁līdz",
        -6.513241415642419
      ],
      [
        "▁tas",
        -6.518953300588885
      ],
      [
        "▁ko",
        -6.528710735364363
      ],
      [
        "▁Latvijas",
        -6.532225464802046
      ],
      [
        "▁gan",
        -6.559705827071706
      ],
      [
        "▁jau",
        -6.561294843900987
      ],
      [
        "...",
        -6.59737875657637
      ],
      [
        "-",
        -6.670444075923141
      ],
      [
        "▁tikai",
        -6.6721138362187755
      ],
      [
        "os",
        -6.7158372227441205
      ],
      [
        "▁ja",
        -6.796690421881854
      ],
      [
        "▁tiek",
        -6.816784937019639
      ],
      [
        "▁šo",
        -6.818409273186884
      ],
      [
        "▁jo",
        -6.82245150011539
      ],
      [
        "iem",
        -6.862619085832156
      ],
      [
        "em",
        -6.86631673549309
      ],
      [
        "▁savu",
        -6.897624933204961
      ],
      [
        "ot",
        -6.9010183988519636
      ],
      [
        "ie",
        -6.909674604369936
      ],
      [
        "▁gada",
        -6.918019133415317
      ],
      [
        "is",
        -6.944762499000632
      ],
      [
        "▁vēl",
        -6.950039997034578
      ],
      [
        "▁vairāk",
        -6.95447060923291
      ],
      [
        "▁“",
        -6.992120398424468
      ],
      [
        "▁tad",
        -6.994602817007715
      ],
      [
        "ais",
        -7.008851746630443
      ],
      [
        "r",
        -7.010210983184603
      ],
      [
        "am",
        -7.018194233016198
      ],
      [
        "▁būs",
        -7.028615916511587
      ],
      [
        "▁_",
        -7.052339251317203
      ],
      [
        "▁kad",
        -7.077938467223717
      ],
      [
        "▁Ja",
        -7.0793243081567105
      ],
      [
        "▁\"",
        -7.09185271053841
      ],
      [
        "▁ļoti",
        -7.114916161133747
      ],
      [
        "/",
        -7.121409849991016
      ],
      [
        "es",
        -7.122545525487421
      ],
      [
        "▁valsts",
        -7.125159116271863
      ],
      [
        "▁iz",
        -7.144144346697296
      ],
      [
        "i,",
        -7.160475753480878
      ],
      [
        "▁es",
        -7.1664733169245824
      ],
      [
        "n",
        -7.202870973410489
      ],
      [
        "▁laikā",
        -7.204852039189319
      ],
      [
        "▁darba",
        -7.2226504988196485
      ],
      [
        "▁S",
        -7.224245619467165
      ],
      [
        "▁man",
        -7.226199426387753
      ],
      [
        "▁—",
        -7.239043982228319
      ],
      [
        "ja",
        -7.243719132389252
      ],
      [
        "▁kur",
        -7.248723451217344
      ],
      [
        "ām",
        -7.2493862822815345
      ],
      [
        "▁1",
        -7.255996446353095
      ],
      [
        "▁daudz",
        -7.277838631463558
      ],
      [
        "▁mēs",
        -7.28645992651459
      ],
      [
        "▁tās",
        -7.302879350709935
      ],
      [
        "▁ap",
        -7.308716646649161
      ],
      [
        "▁2",
        -7.324625814949085
      ],
      [
        "ies",
        -7.329946800440741
      ],
      [
        "▁bez",
        -7.336609737727439
      ],
      [
        "▁mūsu",
        -7.338543808649064
      ],
      [
        "▁pret",
        -7.341086491749415
      ],
      [
        "iet",
        -7.35451159154395
      ],
      [
        "▁pat",
        -7.378269901430679
      ],
      [
        "▁tika",
        -7.386514249658097
      ],
      [
        "▁tik",
        -7.394378898108686
      ],
      [
        "k",
        -7.399849403032038
      ],
      [
        "▁A",
        -7.410062152844274
      ],
      [
        "ka",
        -7.424762696968351
      ],
      [
        "▁mums",
        -7.429650706730426
      ],
      [
        ").",
        -7.4342236120538665
      ],
      [
        "▁sa",
        -7.435481410174814
      ],
      [
        "▁būtu",
        -7.467206280456029
      ],
      [
        "▁Kā",
        -7.46974858281949
      ],
      [
        "▁visu",
        -7.4738679852350405
      ],
      [
        "▁Un",
        -7.4891078327522695
      ],
      [
        "▁ie",
        -7.508204759722815
      ],
      [
        "▁Lai",
        -7.531308054456618
      ],
      [
        ".lv",
        -7.534397497792735
      ],
      [
        "ta",
        -7.537698773318359
      ],
      [
        "▁3",
        -7.553826816037708
      ],
      [
        "▁Par",
        -7.55692153490372
      ],
      [
        "▁Tā",
        -7.559272439831997
      ],
      [
        "d",
        -7.561978243347214
      ],
      [
        "▁No",
        -7.565113484450203
      ],
      [
        "i.",
        -7.56515226121253
      ],
      [
        "▁pār",
        -7.575216413093939
      ],
      [
        "▁„",
        -7.5763691623640845
      ],
      [
        "▁būt",
        -7.577694739647297
      ],
      [
        "▁viņš",
        -7.5806097103263514
      ],
      [
        "p",
        -7.581820334686746
      ],
      [
        "▁viņa",
        -7.583717146715104
      ],
      [
        "▁gadu",
        -7.5904656761468985
      ],
      [
        "▁Tas",
        -7.595999633311941
      ],
      [
        "▁jūs",
        -7.59727289371356
      ],
      [
        "▁Vai",
        -7.61855747382962
      ],
      [
        "ju",
        -7.626572113944741
      ],
      [
        "▁kaut",
        -7.629879556483733
      ],
      [
        "),",
        -7.632090056323916
      ],
      [
        "z",
        -7.636152717527512
      ],
      [
        "▁1.",
        -7.641999180884007
      ],
      [
        "▁Eiropas",
        -7.643560423293174
      ],
      [
        "▁/",
        -7.656488165237661
      ],
      [
        "š",
        -7.659553477761239
      ],
      [
        "▁Latvijā",
        -7.672166234034789
      ],
      [
        "▁Es",
        -7.674919953533498
      ],
      [
        "S",
        -7.677851322471209
      ],
      [
        "▁varētu",
        -7.679693716468416
      ],
      [
        "▁nekā",
        -7.688224990096053
      ],
      [
        "▁vien",
        -7.696074428628737
      ],
      [
        "▁tam",
        -7.698056693362096
      ],
      [
        "▁5",
        -7.706225771962485
      ],
      [
        "▁kuru",
        -7.708603269019342
      ],
      [
        "▁pirms",
        -7.727694448984474
      ],
      [
        "ī",
        -7.7315690043614005
      ],
      [
        "▁viņu",
        -7.740275871391988
      ],
      [
        "▁gadā",
        -7.74195041447514
      ],
      [
        "tu",
        -7.75507643376752
      ],
      [
        "ajiem",
        -7.7627676966440315
      ],
      [
        "▁4",
        -7.78090341891669
      ],
      [
        "▁Ar",
        -7.782233183289806
      ],
      [
        "▁taču",
        -7.7841460571188215
      ],
      [
        "▁šajā",
        -7.786587008732031
      ],
      [
        "▁kurā",
        -7.790229673133892
      ],
      [
        "▁at",
        -7.798788149217799
      ],
      [
        "▁Rīgas",
        -7.8023806517474625
      ],
      [
        "▁Jūs",
        -7.80427092164526
      ],
      [
        "▁10",
        -7.807164516193691
      ],
      [
        "ē",
        -7.809908543327213
      ],
      [
        "l",
        -7.814534253723796
      ],
      [
        "▁Bet",
        -7.820105229557823
      ],
      [
        "g",
        -7.822442436569583
      ],
      [
        "▁kuri",
        -7.8289327284742605
      ],
      [
        "c",
        -7.829606427098527
      ],
      [
        "▁šī",
        -7.830884402924868
      ],
      [
        "▁to,",
        -7.8329024393509705
      ],
      [
        "▁jā",
        -7.835396249744692
      ],
      [
        "▁kurš",
        -7.851235179641931
      ],
      [
        "▁Valsts",
        -7.864790886941169
      ],
      [
        "▁tur",
        -7.866386639826729
      ],
      [
        "▁tie",
        -7.872015923482584
      ],
      [
        "▁kopā",
        -7.886701081166432
      ],
      [
        "b",
        -7.887477548736973
      ],
      [
        "»",
        -7.901800882566205
      ],
      [
        "▁jums",
        -7.90446784494582
      ],
      [
        "šanas",
        -7.906954964167509
      ],
      [
        "”.",
        -7.917063560468939
      ],
      [
        "▁kuras",
        -7.917496622921146
      ],
      [
        "▁P",
        -7.9247565196300975
      ],
      [
        "ma",
        -7.9260697912840055
      ],
      [
        "v",
        -7.927943131274272
      ],
      [
        "▁kādu",
        -7.928808527871816
      ],
      [
        "▁tiks",
        -7.930431521234015
      ],
      [
        "▁viens",
        -7.930478135388711
      ],
      [
        "▁nu",
        -7.944263103885156
      ],
      [
        "▁B",
        -7.9482131023754565
      ],
      [
        "▁Pēc",
        -7.955454915552872
      ],
      [
        "▁2.",
        -7.958474773069527
      ],
      [
        "▁izglītības",
        -7.964362783783574
      ],
      [
        "▁laika",
        -7.970124448152244
      ],
      [
        "jot",
        -7.970256523360002
      ],
      [
        "▁darbu",
        -7.9729035483291835
      ],
      [
        "▁auto",
        -7.975592166434584
      ],
      [
        "▁aiz",
        -7.9853244576507905
      ],
      [
        "▁starp",
        -7.991041030951221
      ],
      [
        "ti",
        -8.009633295726479
      ],
      [
        "▁tāpēc",
        -8.00997049015519
      ],
      [
        "▁kura",
        -8.028714917740258
      ],
      [
        "▁...",
        -8.030137033660523
      ],
      [
        "▁vienu",
        -8.031887289562036
      ],
      [
        "▁tomēr",
        -8.040368791132718
      ],
      [
        "kā",
        -8.042028236414545
      ],
      [
        "▁jūsu",
        -8.042426864821495
      ],
      [
        "]",
        -8.049817957592326
      ],
      [
        "▁C",
        -8.053667146337377
      ],
      [
        "▁savā",
        -8.059776837688077
      ],
      [
        "▁tieši",
        -8.060347817039462
      ],
      [
        "▁šīs",
        -8.07155077464771
      ],
      [
        "▁viena",
        -8.076326241027989
      ],
      [
        "▁citu",
        -8.07961818966591
      ],
      [
        "ne",
        -8.082929452049417
      ],
      [
        "▁savas",
        -8.08615812134798
      ],
      [
        "A",
        -8.086178135864287
      ],
      [
        "ajā",
        -8.086320018501413
      ],
      [
        "▁6",
        -8.092817779714997
      ],
      [
        "▁vietā",
        -8.093568914315874
      ],
      [
        "▁cik",
        -8.095809200671592
      ],
      [
        "▁dienas",
        -8.096433960505799
      ],
      [
        "▁mājas",
        -8.099663887783716
      ],
      [
        "▁Ir",
        -8.099736504860298
      ],
      [
        "▁Ne",
        -8.10357294223444
      ],
      [
        "▁tiesības",
        -8.106018267598412
      ],
      [
        "▁tagad",
        -8.122829559531715
      ],
      [
        "▁Uz",
        -8.12554921984494
      ],
      [
        "▁viss",
        -8.128559075146526
      ],
      [
        "▁laiku",
        -8.136589045789757
      ],
      [
        "šu",
        -8.139252471955139
      ],
      [
        "at",
        -8.14099208238768
      ],
      [
        "▁iespējams",
        -8.146589354976435
      ],
      [
        "▁izmantot",
        -8.146893259433272
      ],
      [
        "to",
        -8.155514350327191
      ],
      [
        "▁trīs",
        -8.16130984792341
      ],
      [
        "jam",
        -8.167195125479752
      ],
      [
        "▁viņi",
        -8.176483842704181
      ],
      [
        "▁E",
        -8.1824844527598
      ],
      [
        "m.",
        -8.185237886086732
      ],
      [
        "▁bērnu",
        -8.187970057479395
      ],
      [
        "▁20",
        -8.188813601103623
      ],
      [
        "▁visi",
        -8.190278655076826
      ],
      [
        "▁7",
        -8.191971982947713
      ],
      [
        "▁ūdens",
        -8.194979305938542
      ],
      [
        "▁visiem",
        -8.195713986666892
      ],
      [
        "▁pilsētas",
        -8.198500706252803
      ],
      [
        "▁iespēja",
        -8.198966384518268
      ],
      [
        "▁Pa",
        -8.20231760957323
      ],
      [
        "šanu",
        -8.203124749786657
      ],
      [
        "▁kāds",
        -8.204413162203108
      ],
      [
        "▁Man",
        -8.211530346000481
      ],
      [
        "▁Šī",
        -8.211677317318676
      ],
      [
        "▁3.",
        -8.214308029415612
      ],
      [
        "1",
        -8.21521625120677
      ],
      [
        "▁Jūsu",
        -8.221357623182286
      ],
      [
        "▁latviešu",
        -8.236857254007806
      ],
      [
        "▁L",
        -8.237808572901537
      ],
      [
        "▁varat",
        -8.242201714479755
      ],
      [
        "▁visas",
        -8.243508904927532
      ],
      [
        "▁D",
        -8.24715134021665
      ],
      [
        "ku",
        -8.247716418150025
      ],
      [
        "▁labi",
        -8.248522518697563
      ],
      [
        "▁novada",
        -8.249496031127075
      ],
      [
        "▁«",
        -8.253133428887052
      ],
      [
        "▁atrodas",
        -8.255660444107308
      ],
      [
        "kas",
        -8.261291683082437
      ],
      [
        "▁īpaši",
        -8.261421511929717
      ],
      [
        "ar",
        -8.263535921486186
      ],
      [
        "ko",
        -8.265640053858615
      ],
      [
        "▁piemēram,",
        -8.266066345026314
      ],
      [
        "▁€",
        -8.271004480757059
      ],
      [
        "▁esmu",
        -8.272057446564753
      ],
      [
        "”,",
        -8.273815104894652
      ],
      [
        "▁notiek",
        -8.275710722535512
      ],
      [
        "▁nevar",
        -8.278945353511345
      ],
      [
        "y",
        -8.280668462240449
      ],
      [
        "▁eiro",
        -8.281830502929758
      ],
      [
        "ības",
        -8.282735537462585
      ],
      [
        "▁cilvēku",
        -8.283641890083107
      ],
      [
        "▁Mēs",
        -8.288880724170925
      ],
      [
        "▁ziņas",
        -8.290773903233648
      ],
      [
        "U",
        -8.295797956181245
      ],
      [
        "▁iespējas",
        -8.304068700063839
      ],
      [
        "▁•",
        -8.30925412079595
      ],
      [
        "jām",
        -8.30953644762878
      ],
      [
        "▁tu",
        -8.312689879955181
      ],
      [
        "2",
        -8.314397941839779
      ],
      [
        "j",
        -8.314899636343418
      ],
      [
        "▁pasaules",
        -8.317425973984685
      ],
      [
        "▁darbības",
        -8.32093369302116
      ],
      [
        "▁mani",
        -8.3215242726517
      ],
      [
        "no",
        -8.326510415202886
      ],
      [
        "▁tiem",
        -8.329015707608162
      ],
      [
        "▁interneta",
        -8.329043989125335
      ],
      [
        "▁šis",
        -8.329388804606058
      ],
      [
        "tā",
        -8.33377813756821
      ],
      [
        "šana",
        -8.336921341719599
      ],
      [
        "ai",
        -8.33875788993243
      ],
      [
        "▁K",
        -8.339644342273841
      ],
      [
        "▁šeit",
        -8.341358927105711
      ],
      [
        "▁SIA",
        -8.342843423943584
      ],
      [
        "▁informācija",
        -8.343414241335363
      ],
      [
        "▁daļa",
        -8.343566337515826
      ],
      [
        "▁vienmēr",
        -8.343740624425077
      ],
      [
        "ir",
        -8.346610271126151
      ],
      [
        "▁8",
        -8.347321707290739
      ],
      [
        "▁dienu",
        -8.348538440262463
      ],
      [
        "h",
        -8.348739265940356
      ],
      [
        "▁numurs",
        -8.34932004286449
      ],
      [
        "▁tajā",
        -8.349722542149415
      ],
      [
        "▁vietas",
        -8.3505827245265
      ],
      [
        "im",
        -8.35092178010753
      ],
      [
        "nes",
        -8.35119962562295
      ],
      [
        "te",
        -8.352547444155789
      ],
      [
        "▁iespēju",
        -8.353996134542808
      ],
      [
        "▁Jums",
        -8.360649422850702
      ],
      [
        "▁iela",
        -8.361560406753298
      ],
      [
        "▁pats",
        -8.365741449857023
      ],
      [
        "3",
        -8.37407696029713
      ],
      [
        "▁Ko",
        -8.374569887953667
      ],
      [
        "▁noteikumi",
        -8.384319950089356
      ],
      [
        "jā",
        -8.385458152597929
      ],
      [
        "ra",
        -8.391814292994496
      ],
      [
        "▁M",
        -8.399828907118955
      ],
      [
        "na",
        -8.400662889065535
      ],
      [
        "ajām",
        -8.401736270876292
      ],
      [
        "▁15",
        -8.401934362909344
      ],
      [
        "▁12",
        -8.409793937323736
      ],
      [
        "ties",
        -8.410505590538287
      ],
      [
        "▁informācijas",
        -8.414099840042052
      ],
      [
        "▁datu",
        -8.414783857614394
      ],
      [
        "▁katru",
        -8.42505041624731
      ],
      [
        "▁»",
        -8.425186068527903
      ],
      [
        "▁gadījumā",
        -8.425595148224073
      ],
      [
        "▁piedāvā",
        -8.426567975975878
      ],
      [
        "_",
        -8.426738749108354
      ],
      [
        "▁kāda",
        -8.42838199624278
      ],
      [
        "▁sporta",
        -8.432832852867362
      ],
      [
        "▁informāciju",
        -8.434075375016342
      ],
      [
        "pa",
        -8.445958972595866
      ],
      [
        "▁jaunu",
        -8.446646327552793
      ],
      [
        "▁vairs",
        -8.44848069912159
      ],
      [
        "▁©",
        -8.448667143956165
      ],
      [
        "▁Latvija",
        -8.448915601218074
      ],
      [
        "▁spēles",
        -8.44892876081932
      ],
      [
        "▁0",
        -8.451742905904677
      ],
      [
        "▁Kas",
        -8.45192108507369
      ],
      [
        "▁visā",
        -8.455528849297574
      ],
      [
        "▁pakalpojumu",
        -8.45882950610089
      ],
      [
        "em,",
        -8.468934264041831
      ],
      [
        "▁dzīves",
        -8.470238062197424
      ],
      [
        "▁atrast",
        -8.47081452269439
      ],
      [
        "▁sevi",
        -8.471313850222241
      ],
      [
        "▁esam",
        -8.471455858603914
      ],
      [
        "er",
        -8.480528855473052
      ],
      [
        "▁laiks",
        -8.482733390207512
      ],
      [
        "▁Viņš",
        -8.486853877369962
      ],
      [
        "▁reizi",
        -8.488733677286676
      ],
      [
        "▁te",
        -8.492471710518316
      ],
      [
        "▁vienkārši",
        -8.49355870544989
      ],
      [
        "▁V",
        -8.493638319140821
      ],
      [
        "ība",
        -8.500515593286602
      ],
      [
        "ļ",
        -8.500538202921852
      ],
      [
        "▁kultūras",
        -8.500620186417327
      ],
      [
        "▁Sa",
        -8.501474489190926
      ],
      [
        "ņu",
        -8.50446122964846
      ],
      [
        "jiem",
        -8.504903035427283
      ],
      [
        "▁cilvēki",
        -8.505622230105695
      ],
      [
        "▁18",
        -8.506037897977103
      ],
      [
        "▁Kad",
        -8.508692622105064
      ],
      [
        "▁T",
        -8.508895341653202
      ],
      [
        "▁veikt",
        -8.509957284151353
      ],
      [
        "li",
        -8.511939385784018
      ],
      [
        "▁G",
        -8.512042989089926
      ],
      [
        "x",
        -8.513793232741776
      ],
      [
        "▁jeb",
        -8.516713027927057
      ],
      [
        "▁nevis",
        -8.516769543922896
      ],
      [
        "f",
        -8.517235802026955
      ],
      [
        "▁pirmo",
        -8.518881735019638
      ],
      [
        "▁aizsardzības",
        -8.525945721296894
      ],
      [
        "▁To",
        -8.526432605286825
      ],
      [
        "▁naudas",
        -8.526826690727557
      ],
      [
        "▁vismaz",
        -8.52881197595075
      ],
      [
        "▁Iz",
        -8.530338143809177
      ],
      [
        "▁dēļ",
        -8.535316859568416
      ],
      [
        "ums",
        -8.535325350426234
      ],
      [
        "▁viņam",
        -8.539386985152044
      ],
      [
        "ēja",
        -8.542925271407093
      ],
      [
        "I",
        -8.545199489882533
      ],
      [
        "▁Pie",
        -8.546158237577693
      ],
      [
        "▁mācību",
        -8.549574864344548
      ],
      [
        "▁ES",
        -8.549592647876826
      ],
      [
        "▁saskaņā",
        -8.550408915888005
      ],
      [
        "▁kuriem",
        -8.552758730708488
      ],
      [
        "▁viņiem",
        -8.552875437606406
      ],
      [
        "▁4.",
        -8.553485228695695
      ],
      [
        "ību",
        -8.554935243287014
      ],
      [
        "▁personas",
        -8.56205852298635
      ],
      [
        "▁sistēmas",
        -8.562113954685014
      ],
      [
        "▁bērniem",
        -8.563759879641633
      ],
      [
        "▁citiem",
        -8.565327095400864
      ],
      [
        "un",
        -8.573129678735334
      ],
      [
        "▁izmantojot",
        -8.575011154511088
      ],
      [
        "▁30",
        -8.580754589438557
      ],
      [
        "▁nepieciešams",
        -8.58197991511277
      ],
      [
        "▁gadus",
        -8.583798047637146
      ],
      [
        "▁citas",
        -8.583824821683306
      ],
      [
        "▁tiesību",
        -8.589047737767586
      ],
      [
        "▁jābūt",
        -8.590279094551967
      ],
      [
        "▁100",
        -8.59197412500926
      ],
      [
        "▁Arī",
        -8.59266822016099
      ],
      [
        "ina",
        -8.593500258999391
      ],
      [
        "▁attīstības",
        -8.594155601296166
      ],
      [
        "▁I",
        -8.601883255765067
      ],
      [
        "jis",
        -8.60590681324683
      ],
      [
        "▁Tev",
        -8.607162308352962
      ],
      [
        "ēt",
        -8.609751751884057
      ],
      [
        "▁zemes",
        -8.61055518038206
      ],
      [
        "le",
        -8.615263217961159
      ],
      [
        "▁noteikti",
        -8.615795933206144
      ],
      [
        "▁Tu",
        -8.616587080703813
      ],
      [
        "▁Rīga",
        -8.617521220266319
      ],
      [
        "da",
        -8.619150713951761
      ],
      [
        "▁[",
        -8.619413701197127
      ],
      [
        "▁šodien",
        -8.620956690602636
      ],
      [
        "▁9",
        -8.624474084398006
      ],
      [
        "▁vietu",
        -8.629107272677377
      ],
      [
        "▁Ie",
        -8.62960132117657
      ],
      [
        "▁labāk",
        -8.632557969325571
      ],
      [
        "▁izmanto",
        -8.636586176639279
      ],
      [
        "▁nebija",
        -8.641940600414522
      ],
      [
        "uma",
        -8.643031219782785
      ],
      [
        "▁(1)",
        -8.643056228835103
      ],
      [
        "▁viesnīcu",
        -8.646263140402063
      ],
      [
        "▁tālāk",
        -8.646634103464502
      ],
      [
        "▁bieži",
        -8.648274144605313
      ],
      [
        "▁mazāk",
        -8.649381800175536
      ],
      [
        "▁plkst.",
        -8.65082917522983
      ],
      [
        "di",
        -8.651315753363036
      ],
      [
        "▁rakstu",
        -8.652669912035474
      ],
      [
        "▁izvēlēties",
        -8.652881608209553
      ],
      [
        "▁projekta",
        -8.653629835195057
      ],
      [
        "▁atkal",
        -8.659844209329755
      ],
      [
        "4",
        -8.663637376935673
      ],
      [
        "šanās",
        -8.663886382404545
      ],
      [
        "▁Taču",
        -8.663909893191683
      ],
      [
        "▁veselības",
        -8.666578120360075
      ],
      [
        "▁tai",
        -8.667473693544732
      ],
      [
        "ga",
        -8.668193106496936
      ],
      [
        "▁projektu",
        -8.669861083027817
      ],
      [
        "▁gadiem",
        -8.67164307990415
      ],
      [
        "▁tev",
        -8.675621168669961
      ],
      [
        "▁programmas",
        -8.6814272021962
      ],
      [
        "▁Z",
        -8.68559686074881
      ],
      [
        "Šajā",
        -8.686773774336524
      ],
      [
        "▁ģimenes",
        -8.687278488702944
      ],
      [
        "▁5.",
        -8.687708811498904
      ],
      [
        "de",
        -8.687912842952294
      ],
      [
        "(",
        -8.688094409551182
      ],
      [
        "V",
        -8.68859446471228
      ],
      [
        "tas",
        -8.689354933542583
      ],
      [
        "▁notiks",
        -8.690505968784944
      ],
      [
        "re",
        -8.692182135816783
      ],
      [
        "▁liels",
        -8.692737985050485
      ],
      [
        "▁nodrošina",
        -8.69295348192346
      ],
      [
        "M",
        -8.697225753556811
      ],
      [
        "in",
        -8.698551963784807
      ],
      [
        "▁divas",
        -8.701313754362461
      ],
      [
        "ro",
        -8.702167794373832
      ],
      [
        "▁Viņa",
        -8.702422641465994
      ],
      [
        "▁pašvaldības",
        -8.707078223892841
      ],
      [
        "ks",
        -8.707089808056379
      ],
      [
        "▁saņemt",
        -8.711407108205279
      ],
      [
        "al",
        -8.712028435114743
      ],
      [
        "▁kam",
        -8.712356813402183
      ],
      [
        "▁iepriekš",
        -8.712925652083655
      ],
      [
        "▁ielā",
        -8.713663472792328
      ],
      [
        "▁Tomēr",
        -8.713726603022524
      ],
      [
        "iem,",
        -8.716242433945354
      ],
      [
        "▁dažādu",
        -8.718959189776484
      ],
      [
        "▁sev",
        -8.721448273355477
      ],
      [
        "▁Līdz",
        -8.721504252055112
      ],
      [
        "D",
        -8.721805146071897
      ],
      [
        "▁caur",
        -8.722336591072306
      ],
      [
        "vi",
        -8.726026198320291
      ],
      [
        "▁tādu",
        -8.726045282329423
      ],
      [
        "▁vieta",
        -8.727652280972084
      ],
      [
        "▁mākslas",
        -8.728205117289452
      ],
      [
        "▁dabas",
        -8.73330620924644
      ],
      [
        "▁tos",
        -8.734242834489205
      ],
      [
        "▁saviem",
        -8.734769054780955
      ],
      [
        "▁kādā",
        -8.735118418597597
      ],
      [
        "▁sava",
        -8.743262440270634
      ],
      [
        "▁centrs",
        -8.748342758413491
      ],
      [
        "jas",
        -8.748994746789784
      ],
      [
        "▁11",
        -8.749035100926854
      ],
      [
        "▁000",
        -8.749542450561101
      ],
      [
        "▁F",
        -8.74999552837825
      ],
      [
        "▁video",
        -8.750443635379163
      ],
      [
        "▁atbalsta",
        -8.75239650035147
      ],
      [
        "▁Re",
        -8.752412389477367
      ],
      [
        "▁Šis",
        -8.75843834571953
      ],
      [
        "▁dienā",
        -8.75895463063977
      ],
      [
        "▁+",
        -8.761516636304915
      ],
      [
        "īgi",
        -8.763093479620327
      ],
      [
        "▁zem",
        -8.763128137214375
      ],
      [
        "▁šim",
        -8.766304697035597
      ],
      [
        "▁19",
        -8.769490422040596
      ],
      [
        "▁finanšu",
        -8.770519113555451
      ],
      [
        "iz",
        -8.7722290484117
      ],
      [
        "▁pašu",
        -8.772296497025899
      ],
      [
        "▁skaits",
        -8.772699612588113
      ],
      [
        "5",
        -8.77379137016043
      ],
      [
        "▁viesnīcas",
        -8.775439680937
      ],
      [
        "▁bijis",
        -8.776288613627742
      ],
      [
        "la",
        -8.777466963006184
      ],
      [
        "▁valodas",
        -8.77992319406999
      ],
      [
        "▁vispār",
        -8.779993931713877
      ],
      [
        "▁16",
        -8.782626624023692
      ],
      [
        "▁iegūt",
        -8.785615926525455
      ],
      [
        "▁vērā",
        -8.785960478403698
      ],
      [
        "jusi",
        -8.786083101739528
      ],
      [
        "usi",
        -8.786098047888181
      ],
      [
        "▁visus",
        -8.78624467077001
      ],
      [
        "▁ASV",
        -8.786899645417805
      ],
      [
        "▁R",
        -8.788234039872872
      ],
      [
        "▁palīdz",
        -8.788886977947545
      ],
      [
        "▁mērķis",
        -8.788926465403044
      ],
      [
        "▁pasaulē",
        -8.789753235310876
      ],
      [
        "▁6.",
        -8.789781707968714
      ],
      [
        "▁Ap",
        -8.791585807387007
      ],
      [
        "on",
        -8.798276499412914
      ],
      [
        "ed",
        -8.798595859221987
      ],
      [
        "sim",
        -8.804152178560804
      ],
      [
        "em.",
        -8.808160251884534
      ],
      [
        "B",
        -8.808228769004184
      ],
      [
        "ki",
        -8.808902674029827
      ],
      [
        "▁centra",
        -8.809821762201242
      ],
      [
        "▁šobrīd",
        -8.809991696966335
      ],
      [
        "oties",
        -8.81070927123631
      ],
      [
        "uši",
        -8.811831462658581
      ],
      [
        "jos",
        -8.813844673062615
      ],
      [
        "▁lasīt",
        -8.81481956954858
      ],
      [
        "ci",
        -8.815215194141384
      ],
      [
        "▁iedzīvotāju",
        -8.816681008541321
      ],
      [
        "­",
        -8.816865178654236
      ],
      [
        "▁šādu",
        -8.81849618437898
      ],
      [
        "▁tāpat",
        -8.828467205574166
      ],
      [
        "\".",
        -8.828546862585068
      ],
      [
        "▁14",
        -8.828820612940966
      ],
      [
        "▁viegli",
        -8.828920152194925
      ],
      [
        "T",
        -8.829861520240083
      ],
      [
        "▁skolas",
        -8.8316226730105
      ],
      [
        "nu",
        -8.832864328171198
      ],
      [
        "va",
        -8.835276177652348
      ],
      [
        "▁nedaudz",
        -8.835354623529366
      ],
      [
        "▁lietot",
        -8.836827736528047
      ],
      [
        "▁cenu",
        -8.83846514676602
      ],
      [
        "▁2018",
        -8.83923939510461
      ],
      [
        "L",
        -8.839839091210205
      ],
      [
        "▁ļauj",
        -8.842823573131252
      ],
      [
        "▁drošības",
        -8.842825351911022
      ],
      [
        "▁Visas",
        -8.84727349193858
      ],
      [
        "▁vārds",
        -8.847729976168416
      ],
      [
        "▁50",
        -8.849087848571106
      ],
      [
        "lo",
        -8.849848256190834
      ],
      [
        "▁labu",
        -8.850307042724646
      ],
      [
        "▁liela",
        -8.852403700339863
      ],
      [
        "▁8.",
        -8.852957307243829
      ],
      [
        "▁maz",
        -8.853327644067253
      ],
      [
        "▁veidā",
        -8.856241650290102
      ],
      [
        "▁produktu",
        -8.85667663396508
      ],
      [
        "▁daļas",
        -8.856954737057215
      ],
      [
        "▁Tāpat",
        -8.858555921461372
      ],
      [
        "āja",
        -8.85959415018531
      ],
      [
        "▁grupas",
        -8.86042056899618
      ],
      [
        "īs",
        -8.861347680394811
      ],
      [
        "P",
        -8.864151721910574
      ],
      [
        "▁gandrīz",
        -8.865777289013064
      ],
      [
        "▁Jo",
        -8.867656758154748
      ],
      [
        "▁O",
        -8.868708469373356
      ],
      [
        "▁sabiedrības",
        -8.869230812816852
      ],
      [
        "▁varbūt",
        -8.869398660445992
      ],
      [
        "ēm",
        -8.871059437811798
      ],
      [
        "▁parasti",
        -8.871267384127208
      ],
      [
        "▁neko",
        -8.871439215130613
      ],
      [
        "▁cilvēka",
        -8.871834078600463
      ],
      [
        "▁Mūsu",
        -8.87294399361042
      ],
      [
        "▁:)",
        -8.875483828481663
      ],
      [
        "ba",
        -8.876339811833855
      ],
      [
        "▁reizes",
        -8.877180132904286
      ],
      [
        "▁cilvēks",
        -8.87769911329962
      ],
      [
        "▁daļu",
        -8.879110385123816
      ],
      [
        "▁citi",
        -8.87966994555302
      ],
      [
        "▁tiešām",
        -8.880338789392336
      ],
      [
        "▁pirmajā",
        -8.886591314204512
      ],
      [
        "▁ceļu",
        -8.886936196015409
      ],
      [
        "▁Nr.",
        -8.88900754811127
      ],
      [
        "▁13",
        -8.889060700832882
      ],
      [
        "▁Savukārt",
        -8.88929953800769
      ],
      [
        "▁uzņēmumu",
        -8.88961692434303
      ],
      [
        "▁ietvaros",
        -8.890562262044014
      ],
      [
        "▁Krievijas",
        -8.891390527611804
      ],
      [
        "▁esat",
        -8.89159508453442
      ],
      [
        "▁*",
        -8.893662897798858
      ],
      [
        "▁veic",
        -8.894610333572686
      ],
      [
        "▁N",
        -8.895455264948529
      ],
      [
        "▁komentāru",
        -8.89788260696583
      ],
      [
        "▁Darba",
        -8.899732848366199
      ],
      [
        "▁ādas",
        -8.905511263719617
      ],
      [
        "▁Rīgā",
        -8.906586942535544
      ],
      [
        "▁7.",
        -8.913428904486874
      ],
      [
        "ri",
        -8.913824617830265
      ],
      [
        "▁g",
        -8.91522708366201
      ],
      [
        "▁cilvēkiem",
        -8.916453788148234
      ],
      [
        "umu",
        -8.916935785612432
      ],
      [
        "▁ātri",
        -8.91750627440668
      ],
      [
        "▁veida",
        -8.917718004246789
      ],
      [
        "lu",
        -8.918465351248226
      ],
      [
        "6",
        -8.918518283087192
      ],
      [
        "▁nodokļu",
        -8.919196981272428
      ],
      [
        "▁katra",
        -8.920019874640246
      ],
      [
        "▁lielu",
        -8.920471471561012
      ],
      [
        "žu",
        -8.92246841822396
      ],
      [
        "an",
        -8.923312619589382
      ],
      [
        "▁25",
        -8.923948820497586
      ],
      [
        "ša",
        -8.924171616024205
      ],
      [
        "\",",
        -8.925270047208642
      ],
      [
        "▁vienā",
        -8.925800657783977
      ],
      [
        "▁uzņēmuma",
        -8.926087782606574
      ],
      [
        "lē",
        -8.92624829600715
      ],
      [
        "'",
        -8.927553043766952
      ],
      [
        "▁cena",
        -8.932490706347814
      ],
      [
        "▁de",
        -8.93281003459728
      ],
      [
        "▁kāpēc",
        -8.933026618290523
      ],
      [
        "▁sex",
        -8.933140293942497
      ],
      [
        "▁At",
        -8.933729036379113
      ],
      [
        "▁bezmaksas",
        -8.93583637903691
      ],
      [
        "C",
        -8.936842018685319
      ],
      [
        "▁mūs",
        -8.937051466944997
      ],
      [
        "▁Vēl",
        -8.93893244288318
      ],
      [
        "▁Izglītības",
        -8.939742695520179
      ],
      [
        "▁mūzikas",
        -8.939814897422089
      ],
      [
        "ž",
        -8.942778852490491
      ],
      [
        "▁Nav",
        -8.942890961084672
      ],
      [
        "G",
        -8.943621618108121
      ],
      [
        "▁EUR",
        -8.945694703402836
      ],
      [
        "āji",
        -8.946921411862814
      ],
      [
        "ve",
        -8.947149663645977
      ],
      [
        "▁tāda",
        -8.947850013736565
      ],
      [
        "▁tirgus",
        -8.948213983084301
      ],
      [
        "▁politika",
        -8.949700482346094
      ],
      [
        "me",
        -8.950933280113073
      ],
      [
        "dz",
        -8.951533430849945
      ],
      [
        "▁aicina",
        -8.951598547049256
      ],
      [
        "▁Tad",
        -8.951695461612509
      ],
      [
        "7",
        -8.953713054165048
      ],
      [
        "▁budžeta",
        -8.953862940204457
      ],
      [
        "en",
        -8.955889662994474
      ],
      [
        "▁jauna",
        -8.956401137960217
      ],
      [
        "▁esi",
        -8.95669840039854
      ],
      [
        "▁priekš",
        -8.957150296375076
      ],
      [
        "▁tām",
        -8.959894697291219
      ],
      [
        "ū",
        -8.960713990619961
      ],
      [
        "▁veido",
        -8.960736341476949
      ],
      [
        "▁Tāpēc",
        -8.961717413945468
      ],
      [
        "▁numuru",
        -8.962767395283775
      ],
      [
        "▁šogad",
        -8.967162743999845
      ],
      [
        "it",
        -8.967968338433707
      ],
      [
        "ēju",
        -8.96845144718191
      ],
      [
        "▁viņas",
        -8.96938783521733
      ],
      [
        "ņ",
        -8.970214202405913
      ],
      [
        "▁Lasīt",
        -8.970903157396624
      ],
      [
        "▁tā,",
        -8.971166381865533
      ],
      [
        "▁zinātnes",
        -8.971919307960393
      ],
      [
        "▁Kur",
        -8.973731035129433
      ],
      [
        "▁savus",
        -8.973869925801825
      ],
      [
        "▁nekad",
        -8.974934988468238
      ],
      [
        "▁tikt",
        -8.976294690261934
      ],
      [
        "▁strādā",
        -8.978788016139172
      ],
      [
        "du",
        -8.97899767145179
      ],
      [
        "▁Nu",
        -8.982404649592734
      ],
      [
        "▁joprojām",
        -8.982733959721578
      ],
      [
        "▁Jau",
        -8.98298548747929
      ],
      [
        "▁notika",
        -8.98517708810883
      ],
      [
        "▁darbs",
        -8.985232584130728
      ],
      [
        "lā",
        -8.990367390448462
      ],
      [
        "▁kādas",
        -8.991391026626767
      ],
      [
        "zi",
        -8.992448826798698
      ],
      [
        "▁kvalitātes",
        -8.993110159569493
      ],
      [
        "8",
        -8.993219103327313
      ],
      [
        "▁Dieva",
        -8.994039401152687
      ],
      [
        "▁lietošanas",
        -8.994754546659017
      ],
      [
        "▁sniedz",
        -8.995654864237697
      ],
      [
        "juši",
        -8.996202344327427
      ],
      [
        "▁tādēļ",
        -8.99741933327239
      ],
      [
        "▁diena",
        -8.997709094826908
      ],
      [
        "▁kļūst",
        -8.997896891322863
      ],
      [
        "tur",
        -8.998318761118671
      ],
      [
        "▁p",
        -8.998764829292984
      ],
      [
        "▁jautājumu",
        -9.0019710673273
      ],
      [
        "der",
        -9.002464624779055
      ],
      [
        "▁pirmā",
        -9.002990027203257
      ],
      [
        "gu",
        -9.00506645641294
      ],
      [
        "▁jauniešu",
        -9.007277754787278
      ],
      [
        "īgs",
        -9.009110426278918
      ],
      [
        "▁2018.",
        -9.00924034117962
      ],
      [
        "▁darbinieku",
        -9.010407619176622
      ],
      [
        "▁pilnīgi",
        -9.01200926437494
      ],
      [
        "▁šā",
        -9.012040355443958
      ],
      [
        "Ā",
        -9.012983944433376
      ],
      [
        "ēs",
        -9.01307344835837
      ],
      [
        "▁darbojas",
        -9.013599663537839
      ],
      [
        "▁Ministru",
        -9.013636500592465
      ],
      [
        "▁paši",
        -9.016323962687432
      ],
      [
        "▁labot",
        -9.019325191065668
      ],
      [
        "ing",
        -9.02147149746536
      ],
      [
        "▁Pār",
        -9.022787556517068
      ],
      [
        "▁sāk",
        -9.023976602944222
      ],
      [
        "▁nebūs",
        -9.024424372104743
      ],
      [
        "▁Skatīt",
        -9.026410850597669
      ],
      [
        "▁vēlas",
        -9.026438202499397
      ],
      [
        "▁pārāk",
        -9.027533408746596
      ],
      [
        "ter",
        -9.027679799676783
      ],
      [
        "0",
        -9.028325912676156
      ],
      [
        "▁esot",
        -9.028390785585978
      ],
      [
        "ēr",
        -9.030595038036592
      ],
      [
        "▁W",
        -9.03251209271361
      ],
      [
        "vē",
        -9.032943853262863
      ],
      [
        "▁cenas",
        -9.035186778018828
      ],
      [
        "tes",
        -9.038001343189887
      ],
      [
        "▁km",
        -9.03836817282788
      ],
      [
        "▁iestādes",
        -9.039781323632226
      ],
      [
        "us,",
        -9.040804371458911
      ],
      [
        "▁sen",
        -9.041026156233109
      ],
      [
        "▁varēs",
        -9.041151589309623
      ],
      [
        "▁tautas",
        -9.041875899895935
      ],
      [
        "▁tēmu",
        -9.04227863775331
      ],
      [
        "▁sadaļu",
        -9.043154430565718
      ],
      [
        "▁kopš",
        -9.043368366492622
      ],
      [
        "▁īpašuma",
        -9.043931309988315
      ],
      [
        "▁darīt",
        -9.04489144105727
      ],
      [
        "▁Baltijas",
        -9.046883219659943
      ],
      [
        "▁atbilstoši",
        -9.047326299700991
      ],
      [
        "et",
        -9.04836992058479
      ],
      [
        "▁gaisa",
        -9.048847193945065
      ],
      [
        "▁Visi",
        -9.0492536017807
      ],
      [
        "nieku",
        -9.049490527248691
      ],
      [
        "▁U",
        -9.051126200875
      ],
      [
        "▁tāds",
        -9.053092710584837
      ],
      [
        "ināt",
        -9.054987392856361
      ],
      [
        "▁dzīvo",
        -9.056120127970694
      ],
      [
        "ņi",
        -9.056710409001816
      ],
      [
        "▁vēlāk",
        -9.057725392838265
      ],
      [
        "▁naktsmītnes",
        -9.057855767749633
      ],
      [
        "▁Saeimas",
        -9.057977587560234
      ],
      [
        "▁nedēļas",
        -9.058202901508453
      ],
      [
        "▁laikam",
        -9.058395004416154
      ],
      [
        "▁preču",
        -9.059065625604834
      ],
      [
        "▁Lietošana",
        -9.060485193588532
      ],
      [
        "▁9.",
        -9.0633908238723
      ],
      [
        "▁>",
        -9.063399818471133
      ],
      [
        "▁virs",
        -9.063445920616852
      ],
      [
        "▁40",
        -9.064827445419777
      ],
      [
        "iem.",
        -9.067511543155497
      ],
      [
        "▁17",
        -9.068970203184033
      ],
      [
        "jiet",
        -9.07003131951758
      ],
      [
        "▁H",
        -9.072222322365425
      ],
      [
        "▁vadītāja",
        -9.075306465001525
      ],
      [
        "▁pakalpojumi",
        -9.076587406411205
      ],
      [
        "▁iet",
        -9.077261257333003
      ],
      [
        "tē",
        -9.079021813809677
      ],
      [
        "▁b",
        -9.079121204531283
      ],
      [
        "w",
        -9.079239333779036
      ],
      [
        "▁vajag",
        -9.079467953430806
      ],
      [
        "30",
        -9.07985398027727
      ],
      [
        "▁k",
        -9.08039219597113
      ],
      [
        "▁pāris",
        -9.081979074562026
      ],
      [
        "▁pilsētā",
        -9.08495072034233
      ],
      [
        "▁Vairāk",
        -9.085055772230291
      ],
      [
        "▁lietas",
        -9.085289732807398
      ],
      [
        "▁visa",
        -9.085676095960402
      ],
      [
        "▁papildu",
        -9.085851027028209
      ],
      [
        "▁re",
        -9.085975642898571
      ],
      [
        "▁it",
        -9.086548168535423
      ],
      [
        "▁piedalīties",
        -9.087427829846275
      ],
      [
        "▁divi",
        -9.087434040896648
      ],
      [
        "▁kino",
        -9.088160300410788
      ],
      [
        "▁jauno",
        -9.088270057359562
      ],
      [
        "ber",
        -9.090578995602051
      ],
      [
        "ņa",
        -9.09086811340261
      ],
      [
        "ācijas",
        -9.09146067710585
      ],
      [
        "▁Laika",
        -9.093073054930656
      ],
      [
        "▁patīk",
        -9.0948498117606
      ],
      [
        "▁bibliotēkas",
        -9.094984066837373
      ],
      [
        "▁jautājumi",
        -9.095152360095359
      ],
      [
        "▁nosaka",
        -9.095406652243529
      ],
      [
        "▁pasākumu",
        -9.096832994588576
      ],
      [
        "▁sistēma",
        -9.098649334020102
      ],
      [
        "jums",
        -9.099085664398244
      ],
      [
        "nā",
        -9.101012542795585
      ],
      [
        "el",
        -9.102021070389782
      ],
      [
        "īgu",
        -9.103140213519037
      ],
      [
        "▁aptuveni",
        -9.104584432086666
      ],
      [
        "il",
        -9.104604682222742
      ],
      [
        "▁nodrošināt",
        -9.105578292090367
      ],
      [
        "▁e-pastu",
        -9.10626575894553
      ],
      [
        "▁komandas",
        -9.107716173422492
      ],
      [
        "▁neiz",
        -9.10911108469451
      ],
      [
        "▁likuma",
        -9.110596718814282
      ],
      [
        "▁grupa",
        -9.11064278106926
      ],
      [
        "ajam",
        -9.110712166363289
      ],
      [
        "▁pēdējā",
        -9.11110740574528
      ],
      [
        "▁jūras",
        -9.11208013094469
      ],
      [
        "▁tam,",
        -9.112704845059213
      ],
      [
        "▁valstu",
        -9.112913171691412
      ],
      [
        "go",
        -9.113122538974526
      ],
      [
        "▁pati",
        -9.113505714917954
      ],
      [
        "jai",
        -9.114762602431902
      ],
      [
        "▁vides",
        -9.118409518176467
      ],
      [
        "K",
        -9.119450978478135
      ],
      [
        "jās",
        -9.121103970216186
      ],
      [
        "▁www.",
        -9.124329165032876
      ],
      [
        "▁savukārt",
        -9.124395028375222
      ],
      [
        "▁papildus",
        -9.12761053512874
      ],
      [
        "▁kara",
        -9.131553246440868
      ],
      [
        "J",
        -9.131959743417681
      ],
      [
        "ēšanas",
        -9.132245273458977
      ],
      [
        "▁spēkā",
        -9.132361156290859
      ],
      [
        "īga",
        -9.132982548827833
      ],
      [
        "▁Savienības",
        -9.133014074853506
      ],
      [
        "ol",
        -9.133866285125873
      ],
      [
        "āt",
        -9.134176635919772
      ],
      [
        "▁Pirms",
        -9.134691538038027
      ],
      [
        "▁panta",
        -9.135696216984813
      ],
      [
        "ajos",
        -9.136871510815983
      ],
      [
        "ājs",
        -9.136925161967975
      ],
      [
        "▁varam",
        -9.13780214899732
      ],
      [
        "▁attiecībā",
        -9.137948047776174
      ],
      [
        "ce",
        -9.138300236744694
      ],
      [
        "▁bērni",
        -9.138917811879935
      ],
      [
        "tī",
        -9.139676246481658
      ],
      [
        "▁dažādas",
        -9.140859272655938
      ],
      [
        "▁gados",
        -9.140909512206232
      ],
      [
        "ha",
        -9.144532306761997
      ],
      [
        "▁pirmkodu",
        -9.145788740070328
      ],
      [
        ".”",
        -9.146163041140742
      ],
      [
        "▁valodā",
        -9.146196128664236
      ],
      [
        "[labot",
        -9.148435607492376
      ],
      [
        "▁10.",
        -9.149315297956484
      ],
      [
        "▁neviens",
        -9.149851160924726
      ],
      [
        "šanā",
        -9.150134126220303
      ],
      [
        "s”",
        -9.151183857441248
      ],
      [
        "▁laba",
        -9.152276886881705
      ],
      [
        "▁komisijas",
        -9.152744910513736
      ],
      [
        "▁naudu",
        -9.15445557454176
      ],
      [
        "ši",
        -9.1562964673024
      ],
      [
        "lī",
        -9.157679465477088
      ],
      [
        "▁personu",
        -9.157723916151332
      ],
      [
        "▁dod",
        -9.158453362808828
      ],
      [
        "10",
        -9.160693674834707
      ],
      [
        "▁ceļa",
        -9.16235410532915
      ],
      [
        "▁sadarbības",
        -9.163375716317677
      ],
      [
        "00",
        -9.165374967587542
      ],
      [
        "▁Auto",
        -9.166022795759424
      ],
      [
        "▁sirds",
        -9.166414965391493
      ],
      [
        "▁protams,",
        -9.167629105594347
      ],
      [
        "▁nāk",
        -9.16955468370417
      ],
      [
        "▁radīt",
        -9.170232459520733
      ],
      [
        "▁pavisam",
        -9.172807540516859
      ],
      [
        "č",
        -9.17330316121896
      ],
      [
        "ļa",
        -9.173378506210486
      ],
      [
        "▁Lūdzu",
        -9.173658770669157
      ],
      [
        "▁galvenais",
        -9.173688009855915
      ],
      [
        "▁citām",
        -9.175608938639865
      ],
      [
        "or",
        -9.176001614406303
      ],
      [
        "▁svētku",
        -9.176105688457
      ],
      [
        "▁ielas",
        -9.176114771641805
      ],
      [
        "▁diezgan",
        -9.176619394703987
      ],
      [
        "dā",
        -9.177060773055672
      ],
      [
        "▁nekas",
        -9.177176617216972
      ],
      [
        "▁pieejams",
        -9.178398233392809
      ],
      [
        "▁grūti",
        -9.179351991293967
      ],
      [
        "▁izmaiņas",
        -9.180046095636978
      ],
      [
        "▁rezultātā",
        -9.18068714217172
      ],
      [
        "▁maksas",
        -9.181919356631589
      ],
      [
        "▁lapas",
        -9.183095117922157
      ],
      [
        "▁krievu",
        -9.184098158867354
      ],
      [
        "be",
        -9.185662739348622
      ],
      [
        "ijas",
        -9.185721921997853
      ],
      [
        "▁kamēr",
        -9.186671999831692
      ],
      [
        "▁lēmumu",
        -9.188889924494696
      ],
      [
        "āju",
        -9.189905276220081
      ],
      [
        "▁pašā",
        -9.189942778469838
      ],
      [
        "▁nozīmē",
        -9.19079328773634
      ],
      [
        "▁ik",
        -9.19143086797354
      ],
      [
        "▁24",
        -9.19154392898057
      ],
      [
        "▁sākumā",
        -9.195361834895811
      ],
      [
        "▁netiek",
        -9.195955352609085
      ],
      [
        "iņu",
        -9.197266181191047
      ],
      [
        "▁spēlē",
        -9.199709368468795
      ],
      [
        "▁foto",
        -9.200107674244126
      ],
      [
        "▁nepieciešama",
        -9.200520152846927
      ],
      [
        "▁programma",
        -9.20095531519688
      ],
      [
        "▁veids",
        -9.201387546545254
      ],
      [
        "▁Šo",
        -9.202956653428814
      ],
      [
        "▁norāda",
        -9.204187164423566
      ],
      [
        "AS",
        -9.205048401311606
      ],
      [
        "ajai",
        -9.20645595908492
      ],
      [
        "▁jaunas",
        -9.206509275069212
      ],
      [
        "▁darbību",
        -9.206938193357153
      ],
      [
        "▁spēj",
        -9.206973771827958
      ],
      [
        "▁pēdējo",
        -9.207320041275828
      ],
      [
        "▁(2)",
        -9.207735164067183
      ],
      [
        "▁mājās",
        -9.207944500748766
      ],
      [
        "▁Š",
        -9.208375153327417
      ],
      [
        "▁šie",
        -9.20865822059973
      ],
      [
        "iņa",
        -9.21088891383777
      ],
      [
        "▁sniegt",
        -9.210997823011148
      ],
      [
        "▁palīdzību",
        -9.211646766653711
      ],
      [
        "▁Jā",
        -9.213175695580087
      ],
      [
        "▁Te",
        -9.214102426804125
      ],
      [
        "ver",
        -9.21509143953931
      ],
      [
        "▁šiem",
        -9.215456150046911
      ],
      [
        "nieks",
        -9.215494904156545
      ],
      [
        "▁lapu",
        -9.216102538855159
      ],
      [
        "▁mainīt",
        -9.21693638312114
      ],
      [
        "▁pārtikas",
        -9.221078916399755
      ],
      [
        "▁vadītājs",
        -9.221744942347787
      ],
      [
        "▁domes",
        -9.222076904307581
      ],
      [
        "man",
        -9.222886908490338
      ],
      [
        "▁atpakaļ",
        -9.223652063315818
      ],
      [
        "▁brīdī",
        -9.223749771885391
      ],
      [
        "▁skaitā",
        -9.224909152815782
      ],
      [
        "▁gadījumos",
        -9.226804019059808
      ],
      [
        "▁vajadzētu",
        -9.227421578039056
      ],
      [
        "▁beigās",
        -9.227521417753167
      ],
      [
        "īt",
        -9.22828494322344
      ],
      [
        "las",
        -9.228398238598267
      ],
      [
        "▁spēle",
        -9.228496126969755
      ],
      [
        "▁pilnībā",
        -9.228674988340877
      ],
      [
        "▁jautājums",
        -9.231074056906838
      ],
      [
        "▁liek",
        -9.231730668586957
      ],
      [
        "O",
        -9.231748942135832
      ],
      [
        "ču",
        -9.239767020595384
      ],
      [
        "▁Šodien",
        -9.241802998997134
      ],
      [
        "▁paliek",
        -9.242309644522287
      ],
      [
        "▁pirmais",
        -9.24355448421386
      ],
      [
        "iņš",
        -9.243564203190356
      ],
      [
        "par",
        -9.243633129635832
      ],
      [
        "▁dzīvi",
        -9.243793772945931
      ],
      [
        "ap",
        -9.244807836427213
      ],
      [
        "▁Pievienot",
        -9.24512640542423
      ],
      [
        "▁Jā,",
        -9.24622031556267
      ],
      [
        "▁Tie",
        -9.246222218899895
      ],
      [
        "▁Al",
        -9.246553759555137
      ],
      [
        "▁visām",
        -9.24791302467058
      ],
      [
        "gal",
        -9.249129656442147
      ],
      [
        ");",
        -9.250024835915838
      ],
      [
        "▁strādāt",
        -9.250602582981614
      ],
      [
        "▁centrā",
        -9.253069169741188
      ],
      [
        "juma",
        -9.253271313958162
      ],
      [
        "▁šāda",
        -9.253559298566298
      ],
      [
        "▁Tagad",
        -9.253889583574612
      ],
      [
        "▁iegādāties",
        -9.254772727702559
      ],
      [
        "▁Var",
        -9.255923289940075
      ],
      [
        "▁nebūtu",
        -9.256103045702162
      ],
      [
        "▁12.",
        -9.256240633863097
      ],
      [
        "ija",
        -9.256700088737155
      ],
      [
        "▁pieejama",
        -9.258019348061488
      ],
      [
        "E",
        -9.258185308204371
      ],
      [
        "▁Bērnu",
        -9.258457127217985
      ],
      [
        "▁likumā",
        -9.259767340185693
      ],
      [
        "N",
        -9.259917966280364
      ],
      [
        "▁LV",
        -9.261221774566426
      ],
      [
        "▁lietu",
        -9.261852438593667
      ],
      [
        "W",
        -9.262764290364533
      ],
      [
        "▁grāmatas",
        -9.263753258337442
      ],
      [
        "▁programmu",
        -9.26417410139737
      ],
      [
        "▁#",
        -9.264201452065032
      ],
      [
        "▁izdarīt",
        -9.266795159440598
      ],
      [
        "za",
        -9.2668127541856
      ],
      [
        "▁līdzi",
        -9.267835024101075
      ],
      [
        "▁otrā",
        -9.26794569270253
      ],
      [
        "▁Latviešu",
        -9.268476491975541
      ],
      [
        "▁pašvaldību",
        -9.268739131440569
      ],
      [
        "▁blowjob",
        -9.269376034170355
      ],
      [
        "▁jaunā",
        -9.269533885191851
      ],
      [
        "▁sāka",
        -9.269740971193139
      ],
      [
        "▁nemaz",
        -9.270500556657627
      ],
      [
        "bu",
        -9.271679487879936
      ],
      [
        "▁ārpus",
        -9.275282245891283
      ],
      [
        "▁rada",
        -9.276111417168986
      ],
      [
        "▁vairākas",
        -9.277422346785137
      ],
      [
        "▁11.",
        -9.277760283154393
      ],
      [
        "Z",
        -9.283512267183031
      ],
      [
        "▁veidot",
        -9.284875741851128
      ],
      [
        "20",
        -9.285426026254196
      ],
      [
        "▁20.",
        -9.286287947226139
      ],
      [
        "▁lielas",
        -9.286814782637734
      ],
      [
        "▁pamat",
        -9.288263416932697
      ],
      [
        "▁saņem",
        -9.288399092869398
      ],
      [
        "▁redzēt",
        -9.289211335739456
      ],
      [
        "▁tirdzniecības",
        -9.291421473957485
      ],
      [
        "▁pārvaldes",
        -9.291729301346802
      ],
      [
        "▁varu",
        -9.292483235473505
      ],
      [
        "▁sistēmu",
        -9.292842674987106
      ],
      [
        "▁personām",
        -9.294230311879407
      ],
      [
        "▁desmit",
        -9.294738113194814
      ],
      [
        "▁kurus",
        -9.296101339820126
      ],
      [
        "▁ietekmē",
        -9.296276831916849
      ],
      [
        "▁nedrīkst",
        -9.297863600465167
      ],
      [
        "▁Republikas",
        -9.299300584814278
      ],
      [
        "▁iespējams,",
        -9.29960334241509
      ],
      [
        "po",
        -9.30027922492048
      ],
      [
        "▁problēmas",
        -9.301359724217047
      ],
      [
        "▁15.",
        -9.301382628541209
      ],
      [
        "Tavs",
        -9.30283098076844
      ],
      [
        "▁dienesta",
        -9.302833597070304
      ],
      [
        "šanai",
        -9.302926856557841
      ],
      [
        "▁21",
        -9.303296782190454
      ],
      [
        "–",
        -9.30424255332954
      ],
      [
        "▁ministrijas",
        -9.305370126687258
      ],
      [
        "▁vecuma",
        -9.305454694783283
      ],
      [
        "▁noteikt",
        -9.306249719486834
      ],
      [
        "▁13.",
        -9.307585112492252
      ],
      [
        "▁iesaka",
        -9.309351874879859
      ],
      [
        "▁darbi",
        -9.30953427237391
      ],
      [
        "var",
        -9.309581084351581
      ],
      [
        "vu",
        -9.30967643508136
      ],
      [
        "▁laikā.",
        -9.3110879161863
      ],
      [
        "▁Tur",
        -9.312008464245018
      ],
      [
        "▁jauns",
        -9.3131490794066
      ],
      [
        "umi",
        -9.32045012029947
      ],
      [
        "▁pieredze",
        -9.320826590103207
      ],
      [
        "▁vasaras",
        -9.32092083645616
      ],
      [
        "▁nepa",
        -9.32126053503731
      ],
      [
        "▁izveidot",
        -9.32177009848037
      ],
      [
        "▁uzņēmums",
        -9.323343473315013
      ],
      [
        "▁Protams,",
        -9.323407285788267
      ],
      [
        "▁Jānis",
        -9.324088051095888
      ],
      [
        "▁19.",
        -9.324305583402413
      ],
      [
        "▁grib",
        -9.326044944862305
      ],
      [
        "▁ziņā",
        -9.328626188287979
      ],
      [
        "9",
        -9.328965747897039
      ],
      [
        "▁cita",
        -9.32917969184769
      ],
      [
        "▁bijusi",
        -9.331010726497682
      ],
      [
        "▁katram",
        -9.33148594111681
      ],
      [
        "▁spēku",
        -9.33227568386028
      ],
      [
        "▁katrs",
        -9.332745581676317
      ],
      [
        "▁grāmatu",
        -9.334269010320668
      ],
      [
        "▁darbā",
        -9.334491884717611
      ],
      [
        "▁jebkurā",
        -9.334505115211229
      ],
      [
        "met",
        -9.338160150519075
      ],
      [
        "▁2017.",
        -9.340407065628375
      ],
      [
        "▁vārdu",
        -9.34065482574755
      ],
      [
        "sta",
        -9.341362486284785
      ],
      [
        "▁palīdzēt",
        -9.342344682767544
      ],
      [
        "▁18.",
        -9.343378107243504
      ],
      [
        "▁veidu",
        -9.345356600176032
      ],
      [
        "ļu",
        -9.346138290387582
      ],
      [
        "▁daļā",
        -9.348012339511278
      ],
      [
        "▁60",
        -9.349028539686707
      ],
      [
        "▁varēja",
        -9.349257159662574
      ],
      [
        "F",
        -9.349525575215841
      ],
      [
        "50",
        -9.34984779465714
      ],
      [
        "▁daudzi",
        -9.349975803483261
      ],
      [
        "▁nesa",
        -9.350854331447161
      ],
      [
        "rī",
        -9.353634713201167
      ],
      [
        "!”",
        -9.35416166689027
      ],
      [
        "▁pāri",
        -9.355780079093247
      ],
      [
        "▁krāsu",
        -9.356169668445373
      ],
      [
        "▁TV",
        -9.35801345172189
      ],
      [
        "R",
        -9.358107165520527
      ],
      [
        "kop",
        -9.358168214769242
      ],
      [
        "Ī",
        -9.358270396696078
      ],
      [
        "▁turpmāk",
        -9.359122626252848
      ],
      [
        "▁biznesa",
        -9.360586831222836
      ],
      [
        "▁stāsta",
        -9.360695236338756
      ],
      [
        "▁Se",
        -9.360768265948195
      ],
      [
        "▁Pasaules",
        -9.36087509266629
      ],
      [
        "▁lielākā",
        -9.360985513647378
      ],
      [
        "tos",
        -9.361714881569178
      ],
      [
        "▁saistībā",
        -9.361784173710577
      ],
      [
        "▁paredz",
        -9.362155711489853
      ],
      [
        "▁droši",
        -9.362804166102187
      ],
      [
        "▁200",
        -9.363079975365626
      ],
      [
        "▁lapa",
        -9.364636860789627
      ],
      [
        "zī",
        -9.365304626107305
      ],
      [
        "▁labs",
        -9.365350362065271
      ],
      [
        "sies",
        -9.36599825458051
      ],
      [
        "▁preces",
        -9.366634001452367
      ],
      [
        "▁atbalstu",
        -9.367508530570309
      ],
      [
        "gā",
        -9.36866153434854
      ],
      [
        "āk",
        -9.36946294614705
      ],
      [
        "▁22",
        -9.369744324201513
      ],
      [
        "▁saturu",
        -9.370096246831455
      ],
      [
        "▁sievietes",
        -9.370477247474112
      ],
      [
        "▁citus",
        -9.370820623559334
      ],
      [
        "▁paredzēts",
        -9.371399680340954
      ],
      [
        "▁in",
        -9.372168786837562
      ],
      [
        "īgo",
        -9.372353689184523
      ],
      [
        "!!!",
        -9.374321230431942
      ],
      [
        "▁apmēram",
        -9.377803788748075
      ],
      [
        "mas",
        -9.378268400829239
      ],
      [
        "▁saka",
        -9.379965348353323
      ],
      [
        "▁vietnē",
        -9.380213048853138
      ],
      [
        "▁uzreiz",
        -9.380526612071552
      ],
      [
        "▁lauku",
        -9.382349538781328
      ],
      [
        "▁cm",
        -9.384414566410342
      ],
      [
        "▁Tātad",
        -9.38458275140483
      ],
      [
        "▁ikdienas",
        -9.385867550509708
      ],
      [
        "▁vis",
        -9.386702158959405
      ],
      [
        "▁Cena",
        -9.38778565168147
      ],
      [
        "▁tehnika",
        -9.38786774995699
      ],
      [
        "▁projekts",
        -9.388457234749243
      ],
      [
        "▁16.",
        -9.388968828249276
      ],
      [
        "▁garām",
        -9.389873714878124
      ],
      [
        "ķe",
        -9.39008042966288
      ],
      [
        "▁iestāžu",
        -9.390986520367495
      ],
      [
        "▁Kāpēc",
        -9.391548143431375
      ],
      [
        "les",
        -9.391560375881214
      ],
      [
        "▁21.",
        -9.392182815256929
      ],
      [
        "▁klases",
        -9.392447215081354
      ],
      [
        "▁Cik",
        -9.393646278645717
      ],
      [
        "▁zināšanas",
        -9.393650342939797
      ],
      [
        "jo",
        -9.394911420057067
      ],
      [
        "▁visai",
        -9.395938838231064
      ],
      [
        "▁līdzekļu",
        -9.396734778824683
      ],
      [
        "▁dokumentu",
        -9.397117607552797
      ],
      [
        "▁satiksmes",
        -9.397855725652766
      ],
      [
        "▁17.",
        -9.401874738728171
      ],
      [
        "▁Hotels.com",
        -9.402589397292312
      ],
      [
        "▁paša",
        -9.403065717512899
      ],
      [
        "▁tad,",
        -9.403945491843881
      ],
      [
        "▁arvien",
        -9.40418952804551
      ],
      [
        "▁Informācija",
        -9.404482181708417
      ],
      [
        "+",
        -9.405027526196061
      ],
      [
        "▁ziemas",
        -9.405063071502619
      ],
      [
        "dr",
        -9.406296685017848
      ],
      [
        "uz",
        -9.40865395824166
      ],
      [
        "▁enerģijas",
        -9.409138522802106
      ],
      [
        "▁klientu",
        -9.409295767737124
      ],
      [
        "▁koka",
        -9.411140222890147
      ],
      [
        "▁Piemēram,",
        -9.413022461034185
      ],
      [
        "▁kādi",
        -9.414223664662904
      ],
      [
        "▁ātrāk",
        -9.41425022301598
      ],
      [
        "ge",
        -9.416138671872751
      ],
      [
        "▁neno",
        -9.417662772640668
      ],
      [
        "▁atrašanā",
        -9.41767901536783
      ],
      [
        "▁līgumu",
        -9.418463015981771
      ],
      [
        "▁Bez",
        -9.418809098002324
      ],
      [
        "nī",
        -9.418923934931335
      ],
      [
        "▁%",
        -9.419189524756804
      ],
      [
        "bi",
        -9.420112821076499
      ],
      [
        "āciju",
        -9.422534259433844
      ],
      [
        "▁bankas",
        -9.422832370549136
      ],
      [
        "▁ēkas",
        -9.424009229248655
      ],
      [
        "▁persona",
        -9.426929506682733
      ],
      [
        "▁sīkdatnes",
        -9.428110267747602
      ],
      [
        "▁pieejami",
        -9.428589213837197
      ],
      [
        "▁komisija",
        -9.42912330507009
      ],
      [
        "▁ķermeņa",
        -9.42924606528733
      ],
      [
        "▁svētki",
        -9.430944379455779
      ],
      [
        "▁Paldies",
        -9.431126897107351
      ],
      [
        "▁svarīgi",
        -9.431846741046131
      ],
      [
        "▁tādā",
        -9.432061629393775
      ],
      [
        "▁ilgi",
        -9.433568235106964
      ],
      [
        "▁Ka",
        -9.433572295680099
      ],
      [
        "▁bērna",
        -9.433646563074566
      ],
      [
        "▁De",
        -9.434068008037073
      ],
      [
        "▁pus",
        -9.43624976911041
      ],
      [
        "▁laikā,",
        -9.436380268811442
      ],
      [
        "▁Turklāt",
        -9.437296946644253
      ],
      [
        "▁angļu",
        -9.437539475659321
      ],
      [
        "▁matu",
        -9.439702650279365
      ],
      [
        "▁dažādi",
        -9.44028269711864
      ],
      [
        "▁līmeņa",
        -9.440398335294427
      ],
      [
        "▁Viesu",
        -9.441547111615474
      ],
      [
        "ment",
        -9.442406944086382
      ],
      [
        "▁īsti",
        -9.443468900076047
      ],
      [
        "tlants.lv",
        -9.443912371953493
      ],
      [
        "▁Mājas",
        -9.444355984830963
      ],
      [
        "▁datus",
        -9.445115425878614
      ],
      [
        "pi",
        -9.445452778719899
      ],
      [
        "▁pasākumi",
        -9.445720920718895
      ],
      [
        "▁dzīvē",
        -9.44623950581286
      ],
      [
        "ek",
        -9.448446955383503
      ],
      [
        "▁ma",
        -9.44861280898116
      ],
      [
        "▁rodas",
        -9.449804744780899
      ],
      [
        "▁ērti",
        -9.449825845559264
      ],
      [
        "nieki",
        -9.451290596599097
      ],
      [
        "▁vācu",
        -9.451413570387352
      ],
      [
        "▁&",
        -9.45156936252576
      ],
      [
        "▁policijas",
        -9.452743076071553
      ],
      [
        "▁Sludinājumi",
        -9.454323349242642
      ],
      [
        "▁klāt",
        -9.454465292846088
      ],
      [
        "kon",
        -9.454611469471015
      ],
      [
        "▁punktu",
        -9.455039685104463
      ],
      [
        "▁tūrisma",
        -9.455865463267633
      ],
      [
        "▁māju",
        -9.456107800734141
      ],
      [
        "▁grupu",
        -9.45673272165855
      ],
      [
        "▁stundu",
        -9.456734025904879
      ],
      [
        "jumi",
        -9.456786936976304
      ],
      [
        "▁noteikumu",
        -9.457925045374733
      ],
      [
        "*",
        -9.458151910650281
      ],
      [
        "▁šādā",
        -9.458691084686567
      ],
      [
        "▁sociālo",
        -9.459002448876575
      ],
      [
        "▁kopumā",
        -9.460803173670053
      ],
      [
        "▁mana",
        -9.46099056004018
      ],
      [
        "▁pieder",
        -9.461542547208001
      ],
      [
        "▁vidū",
        -9.461838915150622
      ],
      [
        "▁dati",
        -9.462340581993253
      ],
      [
        "ācija",
        -9.463665312980904
      ],
      [
        "▁versija",
        -9.463814866250171
      ],
      [
        "▁pusē",
        -9.463874397427723
      ],
      [
        "▁UN",
        -9.464763074502178
      ],
      [
        "▁atpūtas",
        -9.465235494952339
      ],
      [
        "▁nodrošinātu",
        -9.46589946070587
      ],
      [
        "▁tādas",
        -9.466084496206935
      ],
      [
        "▁uzmanību",
        -9.466939965814959
      ],
      [
        "▁pieņemt",
        -9.468012420907863
      ],
      [
        "▁stundas",
        -9.468049799109444
      ],
      [
        "▁roku",
        -9.469514606658311
      ],
      [
        "▁gads",
        -9.470303099792648
      ],
      [
        "▁mērķi",
        -9.470546687575643
      ],
      [
        "▁telpas",
        -9.470768760594959
      ],
      [
        "▁tehnoloģiju",
        -9.472964664833253
      ],
      [
        "▁tādējādi",
        -9.47296466778364
      ],
      [
        "▁blakus",
        -9.474556096281436
      ],
      [
        "▁divu",
        -9.475083456198902
      ],
      [
        "▁ražošanas",
        -9.476604771181684
      ],
      [
        "▁runā",
        -9.477140373952263
      ],
      [
        "ic",
        -9.477228106916506
      ],
      [
        "▁reklāmas",
        -9.48062312550628
      ],
      [
        "ji",
        -9.480722563966676
      ],
      [
        "▁saglabāt",
        -9.481668149961092
      ],
      [
        "▁pirmās",
        -9.481696292920578
      ],
      [
        "▁gar",
        -9.482225665761067
      ],
      [
        "▁hardcore",
        -9.483209083580949
      ],
      [
        "id",
        -9.485142845615673
      ],
      [
        "▁pareizi",
        -9.485259422619926
      ],
      [
        "▁Mums",
        -9.486327165969765
      ],
      [
        "umā",
        -9.487783956246039
      ],
      [
        "▁nozares",
        -9.488205647642864
      ],
      [
        "▁rokas",
        -9.488481472114188
      ],
      [
        "▁kļuva",
        -9.489485387247214
      ],
      [
        "▁nosaukums",
        -9.489813205023168
      ],
      [
        "▁14.",
        -9.490032431994713
      ],
      [
        "▁tiesas",
        -9.490296596053028
      ],
      [
        "▁(+",
        -9.490750294949608
      ],
      [
        "▁spēli",
        -9.491831346781355
      ],
      [
        "▁lielā",
        -9.491994803928776
      ],
      [
        "▁(3)",
        -9.49362996942463
      ],
      [
        "▁Varbūt",
        -9.493954070431379
      ],
      [
        "H",
        -9.4940400585384
      ],
      [
        "▁studiju",
        -9.496081409523056
      ],
      [
        "▁u.c.",
        -9.496281034941696
      ],
      [
        "▁savām",
        -9.49647980612827
      ],
      [
        "▁Tik",
        -9.497382801943226
      ],
      [
        "ēd",
        -9.499039483324685
      ],
      [
        "''",
        -9.499425670001505
      ],
      [
        "šanos",
        -9.499936889292597
      ],
      [
        "▁diviem",
        -9.500042358019398
      ],
      [
        "dev",
        -9.500163653814322
      ],
      [
        "▁līdzekļi",
        -9.500363562220098
      ],
      [
        "▁novērtēt",
        -9.501491710800309
      ],
      [
        "▁otru",
        -9.502587634056418
      ],
      [
        "mēr",
        -9.502886198348019
      ],
      [
        "▁vēlaties",
        -9.503480054897977
      ],
      [
        "▁dzīve",
        -9.5037944422626
      ],
      [
        "▁otrajā",
        -9.504409569183586
      ],
      [
        "▁satur",
        -9.504525134491699
      ],
      [
        "vien",
        -9.504875992695554
      ],
      [
        "▁ministrija",
        -9.505460248193017
      ],
      [
        "▁komanda",
        -9.506218492155236
      ],
      [
        "▁fonda",
        -9.506792504167045
      ],
      [
        "▁manu",
        -9.507302870579274
      ],
      [
        "pu",
        -9.507479522714215
      ],
      [
        "▁tevi",
        -9.508090391230315
      ],
      [
        "▁mūsdienu",
        -9.508093431162543
      ],
      [
        "▁uzlabot",
        -9.510099378765672
      ],
      [
        "▁Liepājas",
        -9.5101848733691
      ],
      [
        "▁zāles",
        -9.510302061936898
      ],
      [
        "Privātuma",
        -9.510896037266948
      ],
      [
        "▁apmeklēt",
        -9.511116496813791
      ],
      [
        "ad",
        -9.511463063329447
      ],
      [
        "▁neat",
        -9.51164361714567
      ],
      [
        "▁Projekta",
        -9.511717169276029
      ],
      [
        "▁slimības",
        -9.512105388235447
      ],
      [
        "nē",
        -9.512523377105348
      ],
      [
        "▁tīmekļa",
        -9.51295399843086
      ],
      [
        "nis",
        -9.513081584577186
      ],
      [
        "▁cits",
        -9.513841967348654
      ],
      [
        "▁vadības",
        -9.514027883220276
      ],
      [
        "rād",
        -9.515141650846719
      ],
      [
        "▁valdības",
        -9.515491607158667
      ],
      [
        "ēšana",
        -9.51617211986377
      ],
      [
        "▁tiem,",
        -9.516648410148925
      ],
      [
        "gadā",
        -9.517515876305012
      ],
      [
        "▁X",
        -9.51860050274328
      ],
      [
        "▁aug",
        -9.519086866177577
      ],
      [
        "▁tādi",
        -9.520091141871127
      ],
      [
        "▁Tikai",
        -9.520307543912361
      ],
      [
        "▁organizācijas",
        -9.521441762028449
      ],
      [
        "▁kādam",
        -9.521525152082926
      ],
      [
        "▁atjaunot",
        -9.52256524234452
      ],
      [
        "▁partijas",
        -9.523608583147388
      ],
      [
        "▁Dievs",
        -9.52432152097598
      ],
      [
        "▁vecumā",
        -9.524506805370187
      ],
      [
        "gad",
        -9.526071017294772
      ],
      [
        "▁zīme",
        -9.52715592164991
      ],
      [
        "▁bojā",
        -9.527397621565498
      ],
      [
        ".com",
        -9.528369284232628
      ],
      [
        "▁spēlēt",
        -9.530832764248572
      ],
      [
        "▁skolu",
        -9.530844422969245
      ],
      [
        "▁x",
        -9.531259003943187
      ],
      [
        "▁sadarbībā",
        -9.5319838848059
      ],
      [
        "▁valdes",
        -9.532509012142514
      ],
      [
        "▁turklāt",
        -9.532814595722922
      ],
      [
        "▁rīta",
        -9.533048817581182
      ],
      [
        "▁Lo",
        -9.533243308833985
      ],
      [
        "▁deju",
        -9.533736548873676
      ],
      [
        "▁materiālu",
        -9.53389614765049
      ],
      [
        "▁Di",
        -9.534538885320197
      ],
      [
        "gi",
        -9.535472587949625
      ],
      [
        "▁veidi",
        -9.535715829928758
      ],
      [
        "▁neesmu",
        -9.536323402397699
      ],
      [
        "skat",
        -9.536430655850841
      ],
      [
        "per",
        -9.53848826901201
      ],
      [
        "▁Ļoti",
        -9.539250566794479
      ],
      [
        "▁puses",
        -9.539292900932917
      ],
      [
        "▁transporta",
        -9.541256061107978
      ],
      [
        "X",
        -9.542430269874886
      ],
      [
        "▁līmenis",
        -9.542912348433934
      ],
      [
        "▁23",
        -9.543470318583356
      ],
      [
        "▁jomā",
        -9.544492072909248
      ],
      [
        "Esmu",
        -9.54513518073433
      ],
      [
        "▁pastāv",
        -9.54554453664279
      ],
      [
        "▁biju",
        -9.545686988255902
      ],
      [
        "▁runāt",
        -9.545776292951702
      ],
      [
        "▁dzīvot",
        -9.545974533829355
      ],
      [
        "▁viņai",
        -9.546366735271734
      ],
      [
        "▁atbildību",
        -9.546468896013348
      ],
      [
        "▁dalībnieki",
        -9.547155867645092
      ],
      [
        "▁Le",
        -9.547528581764784
      ],
      [
        "▁apskatīt",
        -9.548147590089183
      ],
      [
        "▁galda",
        -9.548625772861417
      ],
      [
        "ļi",
        -9.54947420409052
      ],
      [
        "▁lapā",
        -9.54956823818933
      ],
      [
        "▁sociālās",
        -9.549905896555284
      ],
      [
        "▁atklāj",
        -9.550446982624367
      ],
      [
        "▁rezultāti",
        -9.55149925142644
      ],
      [
        "▁raksta",
        -9.553197827987649
      ],
      [
        "os.",
        -9.553444043855647
      ],
      [
        "kt",
        -9.553617050881352
      ],
      [
        "▁internetā",
        -9.554058263615142
      ],
      [
        "▁krāsas",
        -9.55409935140096
      ],
      [
        "šanu,",
        -9.555319917085386
      ],
      [
        "▁galā",
        -9.556102268004409
      ],
      [
        "sti",
        -9.55627466691242
      ],
      [
        "▁piedalījās",
        -9.556312236785281
      ],
      [
        "▁izmaksas",
        -9.556316663156089
      ],
      [
        "▁grupā",
        -9.556483862216421
      ],
      [
        "▁vairāki",
        -9.558100040895532
      ],
      [
        "▁sākot",
        -9.558510032516606
      ],
      [
        "▁produkti",
        -9.558957241506995
      ],
      [
        "▁mazliet",
        -9.559244758241611
      ],
      [
        "▁sauc",
        -9.559561601238268
      ],
      [
        "vil",
        -9.560479649146279
      ],
      [
        "pil",
        -9.560609589887473
      ],
      [
        "▁dara",
        -9.560796778537124
      ],
      [
        "▁ņemot",
        -9.561856994217198
      ],
      [
        "▁beidzot",
        -9.562522551212036
      ],
      [
        "pie",
        -9.563908764077397
      ],
      [
        "▁attiecas",
        -9.564121180198708
      ],
      [
        "▁2017",
        -9.565039852119627
      ],
      [
        "▁stāv",
        -9.566708482338306
      ],
      [
        "▁priekšā",
        -9.566716394062695
      ],
      [
        "mē",
        -9.567197824603614
      ],
      [
        "kur",
        -9.567251491139483
      ],
      [
        "▁process",
        -9.568316635615922
      ],
      [
        "▁padomes",
        -9.56853834312901
      ],
      [
        "▁izskatās",
        -9.569368209256174
      ],
      [
        "▁salīdzināt",
        -9.570940900969173
      ],
      [
        "▁22.",
        -9.571019956367241
      ],
      [
        "▁otro",
        -9.571182630639859
      ],
      [
        "▁kļūt",
        -9.572725476961022
      ],
      [
        "▁materiāli",
        -9.573163649429006
      ],
      [
        "co",
        -9.575366787150447
      ],
      [
        "▁meklēt",
        -9.575838832374494
      ],
      [
        "dī",
        -9.575994845176517
      ],
      [
        "▁doties",
        -9.57600228757078
      ],
      [
        "▁aktīvi",
        -9.578524291398054
      ],
      [
        "▁vari",
        -9.578631635887861
      ],
      [
        "▁·",
        -9.579609986928393
      ],
      [
        "▁augu",
        -9.579805978848128
      ],
      [
        "▁Ventspils",
        -9.580982880708625
      ],
      [
        "▁iesniegt",
        -9.581168625003277
      ],
      [
        "▁tirgū",
        -9.581673997788279
      ],
      [
        "▁valoda",
        -9.582323904417382
      ],
      [
        "▁nakts",
        -9.583196582750233
      ],
      [
        "▁Viss",
        -9.583401203925142
      ],
      [
        "main",
        -9.583958592080187
      ],
      [
        "▁kuram",
        -9.584168497897057
      ],
      [
        "▁neie",
        -9.584518325953482
      ],
      [
        "▁krūtis",
        -9.584720954656836
      ],
      [
        "▁teritorijā",
        -9.585504754406937
      ],
      [
        "▁filmas",
        -9.586255445657034
      ],
      [
        "lau",
        -9.586965416461936
      ],
      [
        "īšu",
        -9.587348548602925
      ],
      [
        "▁skatīt",
        -9.58794402517475
      ],
      [
        "4.",
        -9.588236812301844
      ],
      [
        "tais",
        -9.58949665948579
      ],
      [
        "▁attiecības",
        -9.589973489610966
      ],
      [
        "▁komentāri",
        -9.590564278135492
      ],
      [
        "ch",
        -9.590667576489796
      ],
      [
        "▁valstī",
        -9.590687411028302
      ],
      [
        "▁vienas",
        -9.591110639803405
      ],
      [
        "tra",
        -9.59130008844986
      ],
      [
        "▁rezultātu",
        -9.591363481564738
      ],
      [
        "▁liecina",
        -9.591865839103576
      ],
      [
        "▁vēstures",
        -9.592845000258075
      ],
      [
        "▁sasniegt",
        -9.5929367583079
      ],
      [
        "▁pietiekami",
        -9.593671313171244
      ],
      [
        "▁sākt",
        -9.594145401231032
      ],
      [
        "▁dot",
        -9.594156686147599
      ],
      [
        "▁būtiski",
        -9.594202580986906
      ],
      [
        "▁piedāvāt",
        -9.595600193656367
      ],
      [
        "▁23.",
        -9.597705293583811
      ],
      [
        "▁viesu",
        -9.598644575822371
      ],
      [
        "▁plāno",
        -9.600012149018172
      ],
      [
        "ins",
        -9.60048125652863
      ],
      [
        "līdz",
        -9.601549238474549
      ],
      [
        "▁atbildes",
        -9.601654785872793
      ],
      [
        "est",
        -9.601946554745059
      ],
      [
        "3.",
        -9.603625860600529
      ],
      [
        "▁turpināt",
        -9.603987335132864
      ],
      [
        "▁pilsētu",
        -9.604546565038245
      ],
      [
        "do",
        -9.605159233494923
      ],
      [
        "▁Aiz",
        -9.605776143742196
      ],
      [
        "▁tipa",
        -9.606514632311853
      ],
      [
        "tru",
        -9.606596049978013
      ],
      [
        "▁gūt",
        -9.607239727448366
      ],
      [
        "}",
        -9.608794707695068
      ],
      [
        "ies,",
        -9.608906966464875
      ],
      [
        "▁utt.",
        -9.609483381985626
      ],
      [
        "▁apdrošināšanas",
        -9.609627449998657
      ],
      [
        "▁gaitā",
        -9.60969881502621
      ],
      [
        "▁Sporta",
        -9.609999965893104
      ],
      [
        "lis",
        -9.610689634458339
      ],
      [
        "▁aprūpes",
        -9.610728656024769
      ],
      [
        "▁Viens",
        -9.611004271917913
      ],
      [
        "▁piedāvājumus",
        -9.611026573445557
      ],
      [
        "▁Latvijai",
        -9.611242186346184
      ],
      [
        "ieties",
        -9.611841787730217
      ],
      [
        "12",
        -9.612694745566365
      ],
      [
        "jumu",
        -9.613870047203498
      ],
      [
        "▁produkts",
        -9.614197692523039
      ],
      [
        "šo",
        -9.615589510186686
      ],
      [
        "▁maksā",
        -9.61767873189455
      ],
      [
        "▁brunete",
        -9.617815983473136
      ],
      [
        "Ē",
        -9.618837616999203
      ],
      [
        "▁meža",
        -9.620039089543624
      ],
      [
        "▁28",
        -9.620097409034443
      ],
      [
        "▁Tajā",
        -9.620247017570783
      ],
      [
        "▁Šeit",
        -9.620596251479284
      ],
      [
        "▁dažādiem",
        -9.62094276740148
      ],
      [
        "▁Kultūras",
        -9.621790566170763
      ],
      [
        "▁Daugavpils",
        -9.62244263435298
      ],
      [
        "▁Pirmā",
        -9.622977409611924
      ],
      [
        "▁vakarā",
        -9.62392735174778
      ],
      [
        "▁pils",
        -9.624107105849674
      ],
      [
        "’",
        -9.624955517936677
      ],
      [
        "▁citā",
        -9.625644021801786
      ],
      [
        "▁skolā",
        -9.62606453789383
      ],
      [
        "kar",
        -9.626107865370049
      ],
      [
        "ušas",
        -9.626584128001205
      ],
      [
        "s\"",
        -9.626860006908053
      ],
      [
        "▁tostarp",
        -9.62723905972318
      ],
      [
        "▁iekārtas",
        -9.631300461273103
      ],
      [
        "▁meklē",
        -9.63136996409002
      ],
      [
        "stu",
        -9.63192042020031
      ],
      [
        "▁darbība",
        -9.633952307608833
      ],
      [
        "▁vietnes",
        -9.634363740767213
      ],
      [
        "dal",
        -9.634404507721058
      ],
      [
        "ūt",
        -9.636744595639612
      ],
      [
        "▁sezonas",
        -9.636966281339282
      ],
      [
        "griez",
        -9.637552600701978
      ],
      [
        "@",
        -9.637635359711851
      ],
      [
        "▁ziņu",
        -9.63783435882425
      ],
      [
        "▁d",
        -9.637857438552988
      ],
      [
        "▁{",
        -9.637963544114717
      ],
      [
        "▁Video",
        -9.63890118204606
      ],
      [
        "▁Viņi",
        -9.63944614973902
      ],
      [
        "▁vienīgi",
        -9.639643163124747
      ],
      [
        "▁“S",
        -9.639873881837811
      ],
      [
        "▁daži",
        -9.640090728173611
      ],
      [
        "S.COM",
        -9.640799159039785
      ],
      [
        "nas",
        -9.641930537061034
      ],
      [
        "▁dažas",
        -9.642338152210286
      ],
      [
        "▁dzīvnieku",
        -9.642495279092344
      ],
      [
        "▁tiešsaistes",
        -9.64258787524838
      ],
      [
        "▁J",
        -9.643326526261866
      ],
      [
        "▁nepie",
        -9.643773243823773
      ],
      [
        "ējs",
        -9.644390523308022
      ],
      [
        "▁25.",
        -9.644791699940328
      ],
      [
        "vār",
        -9.644821261112234
      ],
      [
        "▁AS",
        -9.646428204419555
      ],
      [
        "▁akti",
        -9.646502885252996
      ],
      [
        "▁sieviešu",
        -9.64724873346088
      ],
      [
        "▁ietver",
        -9.647761618516226
      ],
      [
        "▁sejas",
        -9.648056062175257
      ],
      [
        "šanu.",
        -9.648805806342729
      ],
      [
        "▁Kaut",
        -9.650361091321429
      ],
      [
        "▁paš",
        -9.650609049474774
      ],
      [
        "▁lieto",
        -9.650825233081349
      ],
      [
        "▁prasības",
        -9.650952819187427
      ],
      [
        "▁informē",
        -9.651005907275303
      ],
      [
        "▁šādas",
        -9.651398142710606
      ],
      [
        "40",
        -9.651984221995136
      ],
      [
        "▁bērns",
        -9.652272270650883
      ],
      [
        "ībā",
        -9.653077432375241
      ],
      [
        "ze",
        -9.654159756412731
      ],
      [
        "▁Hotel",
        -9.654779943343367
      ],
      [
        "::",
        -9.654848592402955
      ],
      [
        "▁politikas",
        -9.654909551400307
      ],
      [
        "▁galvas",
        -9.655270461030863
      ],
      [
        "hi",
        -9.655435039503697
      ],
      [
        "▁atbalstīt",
        -9.656206941571305
      ],
      [
        "▁labāko",
        -9.656486717373365
      ],
      [
        "▁sacīja",
        -9.656728987335104
      ],
      [
        "vai",
        -9.657587579972349
      ],
      [
        "kārt",
        -9.663970194218937
      ],
      [
        "▁radio",
        -9.664467533419945
      ],
      [
        "▁nedēļā",
        -9.66529886011609
      ],
      [
        "▁iepazīties",
        -9.665644028879766
      ],
      [
        "▁līguma",
        -9.666116240042136
      ],
      [
        "▁aprīlī",
        -9.666371428598675
      ],
      [
        "▁problēmu",
        -9.666947800559665
      ],
      [
        "19",
        -9.66816443428786
      ],
      [
        "▁palīdzības",
        -9.66837496803964
      ],
      [
        "ik",
        -9.66847011070848
      ],
      [
        "port",
        -9.668666228989748
      ],
      [
        "▁spēļu",
        -9.669517156143444
      ],
      [
        "▁Citi",
        -9.66972197722066
      ],
      [
        "▁novembrī",
        -9.669811068289462
      ],
      [
        "▁posmā",
        -9.669898967230615
      ],
      [
        "ak",
        -9.670146382132668
      ],
      [
        "mer",
        -9.67072771715464
      ],
      [
        "▁pieredzi",
        -9.670762048235746
      ],
      [
        "pār",
        -9.671156756151305
      ],
      [
        "ijā",
        -9.67134412600652
      ],
      [
        "▁atbalsts",
        -9.671807684746115
      ],
      [
        "▁Rīgā,",
        -9.672167450421176
      ],
      [
        "min",
        -9.672235822748537
      ],
      [
        "▁atbilst",
        -9.672313587577682
      ],
      [
        "▁LA",
        -9.672863128468645
      ],
      [
        "▁martā",
        -9.673892509935998
      ],
      [
        "▁nozīmē,",
        -9.674417772170345
      ],
      [
        "▁apskatīties",
        -9.674544109844105
      ],
      [
        "reiz",
        -9.674614915999955
      ],
      [
        "▁citādi",
        -9.674936451827143
      ],
      [
        "iju",
        -9.675345888463335
      ],
      [
        "gada",
        -9.675531673572735
      ],
      [
        "▁(19",
        -9.67724100174982
      ],
      [
        "▁šādi",
        -9.677260999579891
      ],
      [
        "▁katrā",
        -9.677308909211781
      ],
      [
        "▁vecākiem",
        -9.677469761967885
      ],
      [
        "▁aktivitātes",
        -9.677515809761832
      ],
      [
        "▁dienām",
        -9.677662787574839
      ],
      [
        "gr",
        -9.678578281200075
      ],
      [
        "res",
        -9.678613398287649
      ],
      [
        "▁samazināt",
        -9.6787955633658
      ],
      [
        "▁El",
        -9.67880248594483
      ],
      [
        "▁telpu",
        -9.678820128993305
      ],
      [
        "▁vecāki",
        -9.678927681250238
      ],
      [
        "ke",
        -9.679553302238713
      ],
      [
        "▁iedzīvotāji",
        -9.680009759228627
      ],
      [
        "nam",
        -9.680174496789057
      ],
      [
        "▁filmu",
        -9.680623927037784
      ],
      [
        "▁500",
        -9.681301716069138
      ],
      [
        "vad",
        -9.68142386416876
      ],
      [
        "▁pagasta",
        -9.681697448629462
      ],
      [
        "ck",
        -9.681791063090898
      ],
      [
        "▁muzeja",
        -9.682826682991067
      ],
      [
        "▁konkursa",
        -9.68338376472352
      ],
      [
        "▁izstāde",
        -9.684129987919295
      ],
      [
        "aud",
        -9.684776731888046
      ],
      [
        "▁šai",
        -9.68491589795184
      ],
      [
        "▁teen",
        -9.685971135648966
      ],
      [
        "viet",
        -9.68717627849345
      ],
      [
        "▁profesionālās",
        -9.687555153492427
      ],
      [
        "▁lielāku",
        -9.687686249546655
      ],
      [
        "▁grāmata",
        -9.688119720712862
      ],
      [
        "▁paldies",
        -9.688676563236356
      ],
      [
        "▁Me",
        -9.688885274327133
      ],
      [
        "▁vērtības",
        -9.688926333814877
      ],
      [
        "▁(L",
        -9.689285624661636
      ],
      [
        "▁maijā",
        -9.691216176549744
      ],
      [
        "▁likumu",
        -9.691233857226067
      ],
      [
        "▁īpašu",
        -9.69222315114969
      ],
      [
        "▁attiecību",
        -9.694056500344683
      ],
      [
        "▁Co",
        -9.69425263041946
      ],
      [
        "▁vairākus",
        -9.695737199069656
      ],
      [
        "▁regulāri",
        -9.696098437708306
      ],
      [
        "▁of",
        -9.699130937051555
      ],
      [
        "rū",
        -9.699306874854663
      ],
      [
        "▁sieviete",
        -9.699369606582634
      ],
      [
        "us.",
        -9.699439970155636
      ],
      [
        "▁tiktu",
        -9.699500937201378
      ],
      [
        "▁La",
        -9.699674111875039
      ],
      [
        "vo",
        -9.700133908854417
      ],
      [
        "▁jebkura",
        -9.70041152797657
      ],
      [
        "▁klientiem",
        -9.70122123929814
      ],
      [
        "▁skaitu",
        -9.702802102446054
      ],
      [
        "ķi",
        -9.703017878656222
      ],
      [
        "▁Latvijā.",
        -9.703034344861308
      ],
      [
        "▁Šobrīd",
        -9.703156424329457
      ],
      [
        "nieka",
        -9.7033291965074
      ],
      [
        "▁Pat",
        -9.703356677124251
      ],
      [
        "▁nosaukumu",
        -9.703882987591179
      ],
      [
        "▁septembrī",
        -9.704122440999114
      ],
      [
        "▁dažādām",
        -9.70511206546305
      ],
      [
        "inā",
        -9.706432064380268
      ],
      [
        "ts,",
        -9.707147334114522
      ],
      [
        "▁jūnijā",
        -9.707867620159597
      ],
      [
        "▁Latvijā,",
        -9.708038580648017
      ],
      [
        "▁atkritumu",
        -9.708968837600715
      ],
      [
        "▁vērts",
        -9.71060451770568
      ],
      [
        "11",
        -9.710781455680745
      ],
      [
        "▁kabineta",
        -9.710818066903038
      ],
      [
        "nd",
        -9.711053785620706
      ],
      [
        "▁eiro.",
        -9.711506389747544
      ],
      [
        "▁vispirms",
        -9.711821331657315
      ],
      [
        "▁dzimšanas",
        -9.71183090078954
      ],
      [
        "▁Mi",
        -9.71241776200527
      ],
      [
        "▁gulta",
        -9.712573783026434
      ],
      [
        "▁paredzēta",
        -9.713177302256115
      ],
      [
        "▁automašīnu",
        -9.713840865817286
      ],
      [
        "▁palīdzība",
        -9.714273078740634
      ],
      [
        "▁interesē",
        -9.714670206797235
      ],
      [
        "▁vietni",
        -9.715359698977622
      ],
      [
        "ām,",
        -9.71552948117677
      ],
      [
        "▁novadā",
        -9.715752482572652
      ],
      [
        "pul",
        -9.715892514461508
      ],
      [
        "▁domāju,",
        -9.715953397553724
      ],
      [
        "laid",
        -9.716278748121606
      ],
      [
        "zo",
        -9.716950264131324
      ],
      [
        "▁turpina",
        -9.717044345106197
      ],
      [
        "▁dziesmu",
        -9.71780459143897
      ],
      [
        "āli",
        -9.718906213806836
      ],
      [
        "▁In",
        -9.719012135281524
      ],
      [
        "▁30.",
        -9.71964635296018
      ],
      [
        "▁pievieno",
        -9.72072792884691
      ],
      [
        "ho",
        -9.72145867066905
      ],
      [
        "ētu",
        -9.721917945988839
      ],
      [
        "▁problēma",
        -9.722133720319217
      ],
      [
        "▁Tieši",
        -9.722224968473462
      ],
      [
        "▁:D",
        -9.722384313320148
      ],
      [
        "▁augstu",
        -9.722469252310002
      ],
      [
        "▁80",
        -9.723221526874456
      ],
      [
        "▁kungs",
        -9.72372312517361
      ],
      [
        "▁kurās",
        -9.724405837819535
      ],
      [
        "ītes",
        -9.72457385093589
      ],
      [
        "▁\"S",
        -9.724591275045812
      ],
      [
        "▁agrāk",
        -9.725942335163374
      ],
      [
        "▁divus",
        -9.726456617667644
      ],
      [
        "▁komandu",
        -9.726607236109981
      ],
      [
        "ena",
        -9.727008685267457
      ],
      [
        "▁nopirkt",
        -9.727775492420175
      ],
      [
        "▁kopējā",
        -9.727813029341775
      ],
      [
        "▁sarakstu",
        -9.728056854851543
      ],
      [
        "▁ikdienā",
        -9.728932722825068
      ],
      [
        "▁2016.",
        -9.72935036723425
      ],
      [
        "īti",
        -9.729553926865252
      ],
      [
        "▁kredītu",
        -9.730619076833449
      ],
      [
        "80",
        -9.732780248928545
      ],
      [
        "tic",
        -9.733059136446894
      ],
      [
        "▁kārtība",
        -9.733164064440633
      ],
      [
        "▁ielu",
        -9.733616976220691
      ],
      [
        "▁galveno",
        -9.73390558255399
      ],
      [
        "▁dalībnieku",
        -9.734393025740381
      ],
      [
        "▁iekšā",
        -9.73510899791907
      ],
      [
        "pat",
        -9.735120537499755
      ],
      [
        "▁uzskata",
        -9.736467455378115
      ],
      [
        "▁rezervēt",
        -9.736524073512104
      ],
      [
        "▁visbiežāk",
        -9.737861901011579
      ],
      [
        "▁Veselības",
        -9.737965444596659
      ],
      [
        "▁nauda",
        -9.738418098500986
      ],
      [
        "vā",
        -9.738435414549535
      ],
      [
        "īna",
        -9.738456980283411
      ],
      [
        "▁idejas",
        -9.7393210866969
      ],
      [
        "▁mēneša",
        -9.739597341618003
      ],
      [
        "▁e-pasta",
        -9.740083609015741
      ],
      [
        "▁īpašumu",
        -9.742855452258098
      ],
      [
        "▁valodu",
        -9.743867683323117
      ],
      [
        "▁kārtas",
        -9.74412472688945
      ],
      [
        "▁saites",
        -9.744874582844728
      ],
      [
        "▁nozīme",
        -9.745332172281799
      ],
      [
        "tiem",
        -9.745882435175359
      ],
      [
        "▁ceļš",
        -9.745941217176824
      ],
      [
        "▁Ra",
        -9.746138966875632
      ],
      [
        "▁prezidenta",
        -9.746415899645644
      ],
      [
        "bo",
        -9.748565685206048
      ],
      [
        "kurām",
        -9.74877744041315
      ],
      [
        "▁Li",
        -9.7492347312147
      ],
      [
        "▁temperatūra",
        -9.749349569019724
      ],
      [
        "▁26",
        -9.749556419691611
      ],
      [
        "▁pērn",
        -9.750771224329956
      ],
      [
        "ini",
        -9.751257355302258
      ],
      [
        "▁vieglāk",
        -9.75154484825137
      ],
      [
        "▁padomju",
        -9.751558671222236
      ],
      [
        "▁cilvēkam",
        -9.751632487093914
      ],
      [
        "ža",
        -9.751943038704887
      ],
      [
        "Y",
        -9.751969314716774
      ],
      [
        "iņ",
        -9.752263658102528
      ],
      [
        "▁patiešām",
        -9.75244862153164
      ],
      [
        "▁labā",
        -9.752755982074667
      ],
      [
        "▁aplūkot",
        -9.754444362647575
      ],
      [
        "▁pasākums",
        -9.755216480603835
      ],
      [
        "▁Viena",
        -9.75592339283988
      ],
      [
        "▁rakstīt",
        -9.756497872000665
      ],
      [
        "ton",
        -9.7566240012525
      ],
      [
        "▁sadarbību",
        -9.756711818228911
      ],
      [
        "▁dažādās",
        -9.758021132356705
      ],
      [
        "▁alus",
        -9.759085995550006
      ],
      [
        "▁nodaļas",
        -9.759804970044835
      ],
      [
        "▁veikta",
        -9.759863111017001
      ],
      [
        "ību,",
        -9.760177524606059
      ],
      [
        "▁pašas",
        -9.76030482965351
      ],
      [
        "▁palielināt",
        -9.76050866761323
      ],
      [
        "▁satura",
        -9.760892599421096
      ],
      [
        "ējās",
        -9.760967071533177
      ],
      [
        "▁mm",
        -9.761247315616117
      ],
      [
        "▁cilvēki,",
        -9.761345016805686
      ],
      [
        "▁prezidents",
        -9.762026699709681
      ],
      [
        "▁saraksts",
        -9.762046561338444
      ],
      [
        "▁formas",
        -9.762322536548682
      ],
      [
        "▁gribu",
        -9.763374119038339
      ],
      [
        "▁Latviju",
        -9.763993301880625
      ],
      [
        "▁attīstīt",
        -9.764183847969372
      ],
      [
        "▁izglītība",
        -9.764683363804703
      ],
      [
        "▁Mobil",
        -9.76475535364264
      ],
      [
        "pe",
        -9.765113944713793
      ],
      [
        "land",
        -9.765674229632907
      ],
      [
        "▁uzņēmumiem",
        -9.765859765569028
      ],
      [
        "▁28.",
        -9.766120354425391
      ],
      [
        "▁(S",
        -9.766307177228805
      ],
      [
        "▁esošo",
        -9.766914624763261
      ],
      [
        "▁uzlabo",
        -9.76719836972265
      ],
      [
        "▁pārdot",
        -9.767329934181056
      ],
      [
        "ona",
        -9.767814199165713
      ],
      [
        "ājiem",
        -9.76796016648645
      ],
      [
        "bal",
        -9.768449196230984
      ],
      [
        "▁kārtībā",
        -9.769716735262055
      ],
      [
        "▁stāsts",
        -9.770044308861248
      ],
      [
        "18",
        -9.770090664970695
      ],
      [
        "▁gadi",
        -9.770343907135386
      ],
      [
        "16",
        -9.771167063015808
      ],
      [
        "▁ministrs",
        -9.771287904788021
      ],
      [
        "gan",
        -9.77171950279618
      ],
      [
        "▁gaismas",
        -9.772597457846457
      ],
      [
        "▁kategorijas",
        -9.772799281858006
      ],
      [
        "ls",
        -9.77291556228477
      ],
      [
        "▁ekonomikas",
        -9.77386144213002
      ],
      [
        "▁24.",
        -9.773948914608832
      ],
      [
        "▁lielāka",
        -9.774324424763183
      ],
      [
        "▁sp",
        -9.775514418961077
      ],
      [
        "14",
        -9.776542656329637
      ],
      [
        "▁''",
        -9.776686080108869
      ],
      [
        "▁Igaunijas",
        -9.777018368345303
      ],
      [
        "▁Zemes",
        -9.777239795377717
      ],
      [
        "▁kop",
        -9.777285503147708
      ],
      [
        "15",
        -9.777549075932235
      ],
      [
        "▁pateicoties",
        -9.777771606304704
      ],
      [
        "▁vārdā",
        -9.778790388640704
      ],
      [
        "▁Foto",
        -9.778976940743597
      ],
      [
        "▁krāsa",
        -9.779051921967358
      ],
      [
        "▁29",
        -9.779184712401024
      ],
      [
        "▁nedēļu",
        -9.779869262928262
      ],
      [
        "▁pašam",
        -9.779993326284647
      ],
      [
        "▁izmantošana",
        -9.780440103952333
      ],
      [
        "▁tehniskā",
        -9.78104766845873
      ],
      [
        "▁attiecīgā",
        -9.781918915549053
      ],
      [
        "▁sēdē",
        -9.781954993227663
      ],
      [
        "▁Vācijas",
        -9.782361116032117
      ],
      [
        "▁reģistrācijas",
        -9.782366250438429
      ],
      [
        "▁vienlaikus",
        -9.78298091554447
      ],
      [
        "▁attālumā",
        -9.783134073644362
      ],
      [
        "▁35",
        -9.784164037503167
      ],
      [
        "▁Jēzus",
        -9.784579763850056
      ],
      [
        "th",
        -9.785416775403256
      ],
      [
        "▁kolēģi",
        -9.78560351799456
      ],
      [
        "ens",
        -9.785964594528334
      ],
      [
        "▁pro",
        -9.785980714097807
      ],
      [
        "▁cilvēkiem,",
        -9.786703554982392
      ],
      [
        "vis",
        -9.787081903507932
      ],
      [
        "▁Mar",
        -9.787154230478489
      ],
      [
        "cis",
        -9.787729744384187
      ],
      [
        "▁tiešsaistē",
        -9.78774742252238
      ],
      [
        "▁pieņem",
        -9.788421637976011
      ],
      [
        "▁teica",
        -9.788691328424942
      ],
      [
        "ent",
        -9.789023816803528
      ],
      [
        "▁f",
        -9.789415527784048
      ],
      [
        "▁Lūdzu,",
        -9.789528069301511
      ],
      [
        "gar",
        -9.789803195945368
      ],
      [
        "▁procesu",
        -9.789819643048622
      ],
      [
        "īgāk",
        -9.79064197294667
      ],
      [
        "▁pavadīt",
        -9.790942402333307
      ],
      [
        "▁tikpat",
        -9.791151912925692
      ],
      [
        "▁sievietēm",
        -9.791410531351598
      ],
      [
        "01",
        -9.791672263182647
      ],
      [
        "kl",
        -9.791885615466501
      ],
      [
        "jies",
        -9.791939059941967
      ],
      [
        "▁garumā",
        -9.792493366479807
      ],
      [
        "▁Mo",
        -9.792763276907367
      ],
      [
        "▁min",
        -9.793212044030868
      ],
      [
        "25",
        -9.79356412524055
      ],
      [
        "▁trešo",
        -9.793744409599544
      ],
      [
        "▁dienās",
        -9.794452205131293
      ],
      [
        "enes",
        -9.79485587503304
      ],
      [
        "▁Komisija",
        -9.795228680256738
      ],
      [
        "brauc",
        -9.79583894473478
      ],
      [
        "▁zīmes",
        -9.796110005740335
      ],
      [
        "▁prieku",
        -9.796160563204957
      ],
      [
        "▁pievienot",
        -9.796284763218779
      ],
      [
        "▁iespējām",
        -9.797968454297521
      ],
      [
        "dom",
        -9.79865364946231
      ],
      [
        "▁dizaina",
        -9.799141204417879
      ],
      [
        "▁māja",
        -9.799255568717248
      ],
      [
        "īja",
        -9.800726821936166
      ],
      [
        "mal",
        -9.801006802383627
      ],
      [
        "▁sadaļā",
        -9.801484307877871
      ],
      [
        "▁nepieciešamo",
        -9.802802116859805
      ],
      [
        "▁mans",
        -9.803058245777716
      ],
      [
        "▁karte",
        -9.803756118242248
      ],
      [
        "lv",
        -9.804546394018796
      ],
      [
        "▁nekādu",
        -9.8051204639928
      ],
      [
        "▁teritorijas",
        -9.805963321427122
      ],
      [
        "2.",
        -9.806397092714661
      ],
      [
        "▁27.",
        -9.806515725509922
      ],
      [
        "Šogad",
        -9.806607655627813
      ],
      [
        "▁naktī",
        -9.806818705708505
      ],
      [
        "▁nākamajā",
        -9.807558203210334
      ],
      [
        "▁pašiem",
        -9.808091167542717
      ],
      [
        "▁ārā",
        -9.808355648283204
      ],
      [
        "▁biedrības",
        -9.808463042248107
      ],
      [
        "▁vārda",
        -9.808502444937439
      ],
      [
        "▁biroja",
        -9.808992897609846
      ],
      [
        "era",
        -9.809934206457834
      ],
      [
        "▁visvairāk",
        -9.810073080724028
      ],
      [
        "▁skaidro",
        -9.810087081228613
      ],
      [
        "▁pašlaik",
        -9.810108094564438
      ],
      [
        "od",
        -9.810267977888884
      ],
      [
        "▁rezerves",
        -9.81040243720805
      ],
      [
        "īšanas",
        -9.810738878982196
      ],
      [
        "ģi",
        -9.812500535733705
      ],
      [
        "▁Jelgavas",
        -9.812790178629388
      ],
      [
        "▁AR",
        -9.812875531056724
      ],
      [
        "▁2014.",
        -9.812993567815745
      ],
      [
        "▁veiksmīgi",
        -9.813365437004844
      ],
      [
        "▁lieliski",
        -9.81352625746225
      ],
      [
        "▁divām",
        -9.813978233631765
      ],
      [
        "▁filma",
        -9.814342516400842
      ],
      [
        "▁Dziesmu",
        -9.814661072564181
      ],
      [
        "▁sastāvā",
        -9.815007864807036
      ],
      [
        "▁varas",
        -9.815780881098124
      ],
      [
        "▁Sākums",
        -9.815893154848297
      ],
      [
        "▁darbinieki",
        -9.815935069728715
      ],
      [
        "▁smagi",
        -9.816732545947708
      ],
      [
        "▁aģentūra",
        -9.817246811341125
      ],
      [
        "▁aizsardzība",
        -9.8172805024276
      ],
      [
        "usies",
        -9.817516157939636
      ],
      [
        "▁70",
        -9.817680409084753
      ],
      [
        "▁uzskata,",
        -9.818329029037091
      ],
      [
        "Finanšu",
        -9.81888961597397
      ],
      [
        "▁Ba",
        -9.819340512233795
      ],
      [
        "ēji",
        -9.819516525918832
      ],
      [
        "str",
        -9.819529850857261
      ],
      [
        "▁norādīja",
        -9.81996562372699
      ],
      [
        "▁teikt",
        -9.821349441410284
      ],
      [
        "▁ml",
        -9.822298813018136
      ],
      [
        "▁likt",
        -9.82282514581951
      ],
      [
        "▁Po",
        -9.823816054543048
      ],
      [
        "▁kartē",
        -9.824284019681038
      ],
      [
        "▁palīdzēs",
        -9.824579692787228
      ],
      [
        "vēl",
        -9.82513972191649
      ],
      [
        "zu",
        -9.825169232965443
      ],
      [
        "▁Jaunā",
        -9.825611203850574
      ],
      [
        "▁lielo",
        -9.825642491378908
      ],
      [
        "▁aktu",
        -9.826132255672313
      ],
      [
        "▁iestādēm",
        -9.827048301154097
      ],
      [
        "▁rīko",
        -9.827342768483964
      ],
      [
        "▁izmantojam",
        -9.827570356487783
      ],
      [
        "▁bijuši",
        -9.828401675579912
      ],
      [
        "22",
        -9.828833915917379
      ],
      [
        "▁mēdz",
        -9.828984775582278
      ],
      [
        "▁automašīnas",
        -9.829486966991153
      ],
      [
        "▁Daudz",
        -9.82962625168587
      ],
      [
        "vas",
        -9.830686215431307
      ],
      [
        "▁(A",
        -9.830698876365105
      ],
      [
        "▁policija",
        -9.8310997603717
      ],
      [
        "▁partneri",
        -9.831582738070086
      ],
      [
        "▁deputāti",
        -9.832007735487892
      ],
      [
        "▁izvēle",
        -9.832102908876049
      ],
      [
        "▁praktiski",
        -9.83227513825987
      ],
      [
        "▁atbild",
        -9.832721042481413
      ],
      [
        "▁di",
        -9.83411488800163
      ],
      [
        "transportlīdzekļ",
        -9.834523528870747
      ],
      [
        "▁Kar",
        -9.835564916736427
      ],
      [
        "Š",
        -9.835618842310225
      ],
      [
        "▁interesanti",
        -9.835649866591524
      ],
      [
        "▁Vārds",
        -9.835662039444486
      ],
      [
        "ris",
        -9.836012457895047
      ],
      [
        "dien",
        -9.836535428040687
      ],
      [
        "▁domā",
        -9.837115875179212
      ],
      [
        "▁braukt",
        -9.837304081228556
      ],
      [
        "liec",
        -9.837641742006412
      ],
      [
        "▁2012.",
        -9.838188033287818
      ],
      [
        "▁(4)",
        -9.838196927706676
      ],
      [
        "▁sākuma",
        -9.838208657041486
      ],
      [
        "kri",
        -9.838900937551731
      ],
      [
        "tik",
        -9.838950485731003
      ],
      [
        "▁medicīnas",
        -9.83938108929755
      ],
      [
        "▁dokumenti",
        -9.839497813923998
      ],
      [
        "▁cenas,",
        -9.839674610299781
      ],
      [
        "jumā",
        -9.840285882791134
      ],
      [
        "tri",
        -9.840313639608313
      ],
      [
        "▁An",
        -9.840640228965828
      ],
      [
        "▁adrese",
        -9.84123771295099
      ],
      [
        "▁Kristus",
        -9.841294222693419
      ],
      [
        "▁decembrī",
        -9.84215669317026
      ],
      [
        "ūr",
        -9.842358373116765
      ],
      [
        "▁Ro",
        -9.842631700607505
      ],
      [
        "90",
        -9.842718661957635
      ],
      [
        "umos",
        -9.842863651202848
      ],
      [
        "pro",
        -9.843237835770667
      ],
      [
        "ķ",
        -9.843647722557662
      ],
      [
        "▁piekrītat",
        -9.843709348373313
      ],
      [
        "lai",
        -9.84394900509832
      ],
      [
        "▁šīm",
        -9.844092898883476
      ],
      [
        "▁masturbācija",
        -9.844704609957667
      ],
      [
        "▁Pēdējā",
        -9.846439967905745
      ],
      [
        "▁piena",
        -9.846950365409015
      ],
      [
        "▁31.",
        -9.847265676385458
      ],
      [
        "▁300",
        -9.848317958880767
      ],
      [
        "▁piedāvājumi",
        -9.84847343161568
      ],
      [
        "▁pārbaudīt",
        -9.848566178626175
      ],
      [
        "▁tehnoloģijas",
        -9.84905323575284
      ],
      [
        "▁kurai",
        -9.849466787329293
      ],
      [
        "▁sekss",
        -9.849716680558114
      ],
      [
        "▁Gr",
        -9.849863251489872
      ],
      [
        "ved",
        -9.849984616788234
      ],
      [
        "».",
        -9.850006843203698
      ],
      [
        "izēt",
        -9.850308925528672
      ],
      [
        "des",
        -9.850733718730275
      ],
      [
        "▁sākas",
        -9.851010673222628
      ],
      [
        "▁2015.",
        -9.851031469736935
      ],
      [
        "gas",
        -9.852189545503037
      ],
      [
        "▁piedalās",
        -9.85270782108467
      ],
      [
        "):",
        -9.85444944424409
      ],
      [
        "▁muzejs",
        -9.854518332647439
      ],
      [
        "▁drīz",
        -9.854800069340401
      ],
      [
        "▁gadā.",
        -9.85495325782964
      ],
      [
        "īgā",
        -9.85502965590295
      ],
      [
        "▁Vis",
        -9.855205578288077
      ],
      [
        "▁izraisīt",
        -9.855246834121473
      ],
      [
        "▁biedrība",
        -9.855518006886662
      ],
      [
        "▁vadība",
        -9.855575935008918
      ],
      [
        "ana",
        -9.856126763801315
      ],
      [
        "▁ērtībām",
        -9.856139851103219
      ],
      [
        "▁kredīts",
        -9.856161273249299
      ],
      [
        "▁A.",
        -9.85732910561801
      ],
      [
        "▁situāciju",
        -9.857737828743396
      ],
      [
        "▁deva",
        -9.85845414695306
      ],
      [
        "▁and",
        -9.858751814633672
      ],
      [
        "▁ietekme",
        -9.85919386283869
      ],
      [
        "ika",
        -9.85990965873405
      ],
      [
        "▁nespēj",
        -9.860146806842923
      ],
      [
        "s.lv",
        -9.860149421233523
      ],
      [
        "▁darbu,",
        -9.860644823001046
      ],
      [
        "▁bērnam",
        -9.860906561797119
      ],
      [
        "▁nesen",
        -9.861104559355525
      ],
      [
        "▁ha",
        -9.861319889378457
      ],
      [
        "▁The",
        -9.861440985617108
      ],
      [
        "▁dziesmas",
        -9.861633586416243
      ],
      [
        "▁maksājumu",
        -9.861969364490662
      ],
      [
        "▁tikšanās",
        -9.862978217262214
      ],
      [
        "▁lūdzu",
        -9.864946303046267
      ],
      [
        "īšana",
        -9.865450771272048
      ],
      [
        "mes",
        -9.865664615527901
      ],
      [
        "tās",
        -9.865925753739972
      ],
      [
        "▁uzdevums",
        -9.866030994375759
      ],
      [
        "▁uzņēmumi",
        -9.86698612811809
      ],
      [
        "▁l",
        -9.867877955460553
      ],
      [
        "▁trim",
        -9.867939956257365
      ],
      [
        "▁sanāk",
        -9.867961179998183
      ],
      [
        "▁attīstība",
        -9.868544096382927
      ],
      [
        "tāl",
        -9.868870953802691
      ],
      [
        "ES",
        -9.869119413997858
      ],
      [
        "▁meitene",
        -9.869475980363362
      ],
      [
        "▁dažādus",
        -9.869571328791041
      ],
      [
        "▁jauniešiem",
        -9.869701824940332
      ],
      [
        "▁ietekmi",
        -9.87003706318124
      ],
      [
        "▁galvenokārt",
        -9.87010998086303
      ],
      [
        "▁acīm",
        -9.870176173723902
      ],
      [
        "dot",
        -9.870505024814312
      ],
      [
        "ons",
        -9.871185669882234
      ],
      [
        "kla",
        -9.871864420040286
      ],
      [
        "▁jebkuru",
        -9.87201568068621
      ],
      [
        "ama",
        -9.872350848335778
      ],
      [
        "▁līdzīgi",
        -9.872526435915047
      ],
      [
        "iešu",
        -9.872533393652326
      ],
      [
        "▁jautājumiem",
        -9.872719232024735
      ],
      [
        "ten",
        -9.872926582168256
      ],
      [
        "niekiem",
        -9.873880053738725
      ],
      [
        "niece",
        -9.873907996024425
      ],
      [
        "▁īstenot",
        -9.87428032330742
      ],
      [
        "▁skats",
        -9.875756458443936
      ],
      [
        "▁veikalā",
        -9.875885172678345
      ],
      [
        "▁pagaidām",
        -9.876056565849229
      ],
      [
        "▁periodā",
        -9.876107545206748
      ],
      [
        "▁minūtes",
        -9.87705796629621
      ],
      [
        "▁vislabāk",
        -9.877301364167716
      ],
      [
        "-1",
        -9.877597241750209
      ],
      [
        "či",
        -9.878202587701207
      ],
      [
        "▁ieguldījumu",
        -9.878264211876765
      ],
      [
        "▁priekšsēdētājs",
        -9.878565882505718
      ],
      [
        "▁neap",
        -9.879242396097602
      ],
      [
        "dos",
        -9.8794351691451
      ],
      [
        "īr",
        -9.879665157613704
      ],
      [
        "Tādēļ",
        -9.880306298917432
      ],
      [
        "▁stikla",
        -9.880594460791276
      ],
      [
        "70",
        -9.880751217228376
      ],
      [
        "▁pasaulē.",
        -9.880906979136803
      ],
      [
        "cer",
        -9.881094327223217
      ],
      [
        "ep",
        -9.881470206114301
      ],
      [
        "ējam",
        -9.88190656391561
      ],
      [
        "▁likums",
        -9.882216395086978
      ],
      [
        "▁lielāko",
        -9.88328725104715
      ],
      [
        "▁labo",
        -9.883609441030256
      ],
      [
        "tie",
        -9.883613211040121
      ],
      [
        "▁pārstāvji",
        -9.884014234641132
      ],
      [
        "griež",
        -9.884303882067709
      ],
      [
        "▁lietotāju",
        -9.884338346163513
      ],
      [
        "iņi",
        -9.884787373470168
      ],
      [
        "▁domāt",
        -9.885240679918773
      ],
      [
        "▁gluži",
        -9.885343916839924
      ],
      [
        "▁vajadzībām",
        -9.885999240445539
      ],
      [
        "▁situācija",
        -9.886028326961583
      ],
      [
        "▁saules",
        -9.886252676449097
      ],
      [
        "▁Visu",
        -9.886892162502697
      ],
      [
        "▁gadsimta",
        -9.887327445347694
      ],
      [
        "▁pedagogu",
        -9.88768450710344
      ],
      [
        "▁teātra",
        -9.887685625711992
      ],
      [
        "▁plāns",
        -9.887732959323344
      ],
      [
        "▁saņēma",
        -9.88791343909393
      ],
      [
        "▁VID",
        -9.888057303661768
      ],
      [
        "▁atzīt",
        -9.888058969686892
      ],
      [
        "▁augstas",
        -9.88822479144352
      ],
      [
        "▁priekšsēdētāja",
        -9.888282667876943
      ],
      [
        "▁piešķir",
        -9.888912968857397
      ],
      [
        "ģ",
        -9.889251672863228
      ],
      [
        "miem",
        -9.889857393188294
      ],
      [
        "▁izņemot",
        -9.890627658208864
      ],
      [
        "▁Augstākā",
        -9.890691602906134
      ],
      [
        "▁prom",
        -9.891186282037108
      ],
      [
        "▁zemi",
        -9.891485956172799
      ],
      [
        "▁lietus",
        -9.893630987806063
      ],
      [
        "▁Pro",
        -9.894195669856602
      ],
      [
        "ven",
        -9.8942481062954
      ],
      [
        "prāt",
        -9.894284725827653
      ],
      [
        "ča",
        -9.894964174149273
      ],
      [
        "▁uzsākt",
        -9.895175536466732
      ],
      [
        "▁vīriešu",
        -9.896034091710089
      ],
      [
        "▁plānots",
        -9.89605709850164
      ],
      [
        "▁šķiet",
        -9.896334844937424
      ],
      [
        "▁sastāv",
        -9.896557990335797
      ],
      [
        "▁big",
        -9.896570049822637
      ],
      [
        "▁Valmieras",
        -9.897185120181172
      ],
      [
        "▁2013.",
        -9.897786158195235
      ],
      [
        "▁dalībniekiem",
        -9.898369209884601
      ],
      [
        "▁pamatā",
        -9.898588196887829
      ],
      [
        "▁27",
        -9.898875349492549
      ],
      [
        "▁ciet",
        -9.8989008807146
      ],
      [
        "ami",
        -9.899377978387289
      ],
      [
        "▁iemeslu",
        -9.899625366411886
      ],
      [
        "▁bāzes",
        -9.899767794147524
      ],
      [
        "ākais",
        -9.90023449146187
      ],
      [
        "▁Alūksnes",
        -9.90057589407839
      ],
      [
        "▁pieņemts",
        -9.900815162949367
      ],
      [
        "droš",
        -9.901493058584698
      ],
      [
        "13",
        -9.901696816468736
      ],
      [
        "▁gultas",
        -9.902358603386869
      ],
      [
        "▁Ziemassvētku",
        -9.903368796685431
      ],
      [
        "val",
        -9.904903811886665
      ],
      [
        "04",
        -9.906869819320717
      ],
      [
        "▁līdzekļus",
        -9.907127583939676
      ],
      [
        "iņā",
        -9.907277007311901
      ],
      [
        "rad",
        -9.907277274375925
      ],
      [
        "▁ņemt",
        -9.907309443734748
      ],
      [
        "▁atstāt",
        -9.90731679755795
      ],
      [
        "▁izmantotas",
        -9.90761665603096
      ],
      [
        "▁v",
        -9.908282671409985
      ],
      [
        "▁biežāk",
        -9.908337617477137
      ],
      [
        "cē",
        -9.909091150365747
      ],
      [
        "ceļ",
        -9.909349868039126
      ],
      [
        "▁Interneta",
        -9.910611973429532
      ],
      [
        "▁Gada",
        -9.910913849980908
      ],
      [
        "▁izmantošanas",
        -9.910988346112184
      ],
      [
        "▁zālē",
        -9.911303759892622
      ],
      [
        "▁vārdiem",
        -9.91142894927131
      ],
      [
        "▁vērtība",
        -9.911454794833528
      ],
      [
        "▁plānošanas",
        -9.911467783605858
      ],
      [
        "vēlēšanu",
        -9.911936979976247
      ],
      [
        "▁Ziņas",
        -9.911956741698768
      ],
      [
        "▁daudziem",
        -9.91197929817838
      ],
      [
        "▁nodokļa",
        -9.912926715757244
      ],
      [
        "▁sabiedrisko",
        -9.912929933623625
      ],
      [
        "▁ierīces",
        -9.912933200844467
      ],
      [
        "▁citās",
        -9.91300332136475
      ],
      [
        "▁organizēt",
        -9.913067854344638
      ],
      [
        "▁labākais",
        -9.913201662149508
      ],
      [
        "▁sezonā",
        -9.91321268255368
      ],
      [
        "▁gr",
        -9.913288599208219
      ],
      [
        "ner",
        -9.913317011257796
      ],
      [
        "▁cauri",
        -9.913511360680335
      ],
      [
        "▁divguļamā",
        -9.91414425818192
      ],
      [
        "▁lēmuma",
        -9.914174035104768
      ],
      [
        "▁objektu",
        -9.914216193168446
      ],
      [
        "▁kontroles",
        -9.914678834272895
      ],
      [
        "▁turpinās",
        -9.915723534740996
      ],
      [
        "17",
        -9.915811193898842
      ],
      [
        "▁puse",
        -9.915881832506736
      ],
      [
        "▁26.",
        -9.916705042090353
      ],
      [
        "▁summa",
        -9.916906505031404
      ],
      [
        "eks",
        -9.916972105290604
      ],
      [
        "pras",
        -9.917041507820437
      ],
      [
        "▁raksti",
        -9.917823199257871
      ],
      [
        "▁organizāciju",
        -9.919031474145417
      ],
      [
        "ski",
        -9.919486757707062
      ],
      [
        "dar",
        -9.920272075214017
      ],
      [
        "▁vidēji",
        -9.92039638644847
      ],
      [
        "▁ēku",
        -9.920624645732023
      ],
      [
        "▁autors",
        -9.921031634319675
      ],
      [
        "▁Lietuvas",
        -9.921216237525499
      ],
      [
        "▁miljonus",
        -9.921301167682099
      ],
      [
        "rie",
        -9.921534744701074
      ],
      [
        "▁labas",
        -9.921822974952427
      ],
      [
        "▁februārī",
        -9.921873310807921
      ],
      [
        "▁programmā",
        -9.922335652763493
      ],
      [
        "▁jāno",
        -9.922666929884926
      ],
      [
        "▁veicināt",
        -9.92351090042432
      ],
      [
        "ējis",
        -9.923631377309622
      ],
      [
        "▁šoreiz",
        -9.924117527572658
      ],
      [
        "▁teikt,",
        -9.925073236175171
      ],
      [
        "zin",
        -9.92518560084653
      ],
      [
        "▁maksa",
        -9.92553894313122
      ],
      [
        "▁punkts",
        -9.925751257632113
      ],
      [
        "▁vasarā",
        -9.925785531527321
      ],
      [
        "1.",
        -9.92588967026959
      ],
      [
        "▁jaunās",
        -9.926392106256642
      ],
      [
        "27",
        -9.926565815435577
      ],
      [
        "▁formā",
        -9.926754642330309
      ],
      [
        "▁brīdi",
        -9.927977465261417
      ],
      [
        "▁realizēt",
        -9.928632979965975
      ],
      [
        "▁vienam",
        -9.928705773122017
      ],
      [
        "iena",
        -9.928734816399542
      ],
      [
        "cen",
        -9.928772335859172
      ],
      [
        "▁spēlēs",
        -9.92919677489158
      ],
      [
        "▁saistīti",
        -9.92961108016992
      ],
      [
        "▁kartes",
        -9.929769307556718
      ],
      [
        "▁procesa",
        -9.93032145384912
      ],
      [
        "ind",
        -9.930564704183883
      ],
      [
        "▁atzīst",
        -9.930873664991395
      ],
      [
        "▁apakš",
        -9.931239548150273
      ],
      [
        "▁nepār",
        -9.931428621121983
      ],
      [
        "▁Eiropā",
        -9.93213955468185
      ],
      [
        "▁la",
        -9.932194349279762
      ],
      [
        "60",
        -9.932372875031051
      ],
      [
        "▁sabiedrība",
        -9.932767080153752
      ],
      [
        "▁Ha",
        -9.933114941990265
      ],
      [
        "▁piegāde",
        -9.933420054374313
      ],
      [
        "ves",
        -9.933745105704244
      ],
      [
        "▁iepriekšējā",
        -9.934020724345096
      ],
      [
        "▁Starp",
        -9.934577470801345
      ],
      [
        ".LV",
        -9.93471781308345
      ],
      [
        "▁panākt",
        -9.935016448254618
      ],
      [
        "▁Ak",
        -9.935173754183172
      ],
      [
        "▁c",
        -9.935335229476017
      ],
      [
        "ion",
        -9.935653376082406
      ],
      [
        "ošā",
        -9.9360313953591
      ],
      [
        "▁vecāku",
        -9.936244991639743
      ],
      [
        "▁Kāda",
        -9.93625702692558
      ],
      [
        "▁atlaides",
        -9.936725496503572
      ],
      [
        "▁pamata",
        -9.936767443154803
      ],
      [
        "vī",
        -9.936979286554646
      ],
      [
        "▁_--",
        -9.937371934669542
      ],
      [
        "▁šķiet,",
        -9.937399313402219
      ],
      [
        "ID:",
        -9.937407004487564
      ],
      [
        "▁priekšlikumu",
        -9.937498412292994
      ],
      [
        "▁izpildīt",
        -9.938009153960138
      ],
      [
        "amo",
        -9.938303840534196
      ],
      [
        "skait",
        -9.938355077548803
      ],
      [
        "▁uzzināt",
        -9.938530106030711
      ],
      [
        "▁mērā",
        -9.938612385940868
      ],
      [
        "▁Iespējams",
        -9.938659527889698
      ],
      [
        "▁reģiona",
        -9.938923634485526
      ],
      [
        "▁Šie",
        -9.940268793138458
      ],
      [
        "▁gribas",
        -9.940799944214922
      ],
      [
        "▁valstīs",
        -9.941631124517999
      ],
      [
        "▁slimību",
        -9.941639284847327
      ],
      [
        "▁galvenā",
        -9.942529823964481
      ],
      [
        "▁mūzika",
        -9.942587531771384
      ],
      [
        "▁drošu",
        -9.94259415635284
      ],
      [
        "▁mēnesī",
        -9.94283989085292
      ],
      [
        "▁pasākuma",
        -9.94292733544679
      ],
      [
        "iskā",
        -9.943035253950802
      ],
      [
        "▁zināt",
        -9.943788815375111
      ],
      [
        "▁atsauksmes",
        -9.944342098543622
      ],
      [
        "▁pašvaldība",
        -9.944506847403982
      ],
      [
        "▁konkursā",
        -9.945087832308513
      ],
      [
        "▁izglītību",
        -9.945088335872686
      ],
      [
        "▁lēmums",
        -9.945104769103484
      ],
      [
        "▁noteiktā",
        -9.945957648769532
      ],
      [
        "Saskaņā",
        -9.946345241895013
      ],
      [
        "03",
        -9.946359820732154
      ],
      [
        "ust",
        -9.946395820368721
      ],
      [
        "▁Nacionālā",
        -9.94646999365013
      ],
      [
        "▁izteikt",
        -9.946879595876865
      ],
      [
        "liek",
        -9.94704861735002
      ],
      [
        "▁vēlēšanās",
        -9.948480438984072
      ],
      [
        "▁Papildus",
        -9.94850053637454
      ],
      [
        "▁lietotāji",
        -9.94897605784144
      ],
      [
        "▁vel",
        -9.949117896014801
      ],
      [
        "fer",
        -9.949829855910526
      ],
      [
        "▁vēsture",
        -9.950549486087226
      ],
      [
        "pus",
        -9.951160162417583
      ],
      [
        "manis",
        -9.951819811487734
      ],
      [
        "▁reizēm",
        -9.952301565100207
      ],
      [
        "▁redzams",
        -9.952742184327317
      ],
      [
        "▁150",
        -9.952752687851067
      ],
      [
        "▁vakar",
        -9.95357622977414
      ],
      [
        "▁miljoni",
        -9.953868262135316
      ],
      [
        "▁ideju",
        -9.953954597485287
      ],
      [
        "▁skolēnu",
        -9.954245852402671
      ],
      [
        "▁vienīgais",
        -9.954345892516567
      ],
      [
        "▁kvalitāte",
        -9.954388436311758
      ],
      [
        "▁nozarē",
        -9.954627501296361
      ],
      [
        "▁amata",
        -9.954646533712367
      ],
      [
        "26",
        -9.955017651650383
      ],
      [
        "▁materiāla",
        -9.955060365170624
      ],
      [
        "▁gatavi",
        -9.95536321935494
      ],
      [
        "Cēsu",
        -9.95536626832857
      ],
      [
        "▁(no",
        -9.955593987115275
      ],
      [
        "▁apgūt",
        -9.955775414374289
      ],
      [
        "▁ceļā",
        -9.955867687786073
      ],
      [
        "ēj",
        -9.956018089057793
      ],
      [
        "fe",
        -9.956465799084256
      ],
      [
        "▁otra",
        -9.956633838999428
      ],
      [
        "▁karti",
        -9.957256715635681
      ],
      [
        "▁attīstību",
        -9.95750757206332
      ],
      [
        "▁al",
        -9.957532143069137
      ],
      [
        "▁minēto",
        -9.957678131823663
      ],
      [
        "▁čempionāta",
        -9.957737702950116
      ],
      [
        "▁izdrāzt",
        -9.957737867584804
      ],
      [
        "▁kon",
        -9.957766762254472
      ],
      [
        "mp",
        -9.958187916211276
      ],
      [
        "īte",
        -9.958188484990561
      ],
      [
        "▁jaun",
        -9.958234868532772
      ],
      [
        "▁lētāk",
        -9.958707806800824
      ],
      [
        "ist",
        -9.958728315329484
      ],
      [
        "▁laiku,",
        -9.960175009769245
      ],
      [
        "▁mēnesi",
        -9.961104103419
      ],
      [
        "▁telpās",
        -9.961371449605213
      ],
      [
        "▁namā",
        -9.961970716164686
      ],
      [
        "▁mīlestība",
        -9.962297379280862
      ],
      [
        "▁skola",
        -9.962536648470614
      ],
      [
        "▁seko",
        -9.962583357715307
      ],
      [
        "▁funkciju",
        -9.963164599600475
      ],
      [
        "domā",
        -9.963491929596923
      ],
      [
        "▁valstis",
        -9.963545287144655
      ],
      [
        "IE",
        -9.96376863026498
      ],
      [
        "▁Tiek",
        -9.963864707354983
      ],
      [
        "▁dienests",
        -9.964123637408447
      ],
      [
        "▁iedzīvotājiem",
        -9.964219775816478
      ],
      [
        "▁apskates",
        -9.964277134190855
      ],
      [
        "▁vadītāju",
        -9.964440348104095
      ],
      [
        "▁svēt",
        -9.96447573781441
      ],
      [
        "īgas",
        -9.965054226637076
      ],
      [
        "▁savam",
        -9.96539089259929
      ],
      [
        "36",
        -9.965912787000411
      ],
      [
        "▁on",
        -9.966781567744505
      ],
      [
        "▁pateikt",
        -9.967187717785743
      ],
      [
        "▁pieteikties",
        -9.967215582494678
      ],
      [
        "▁projekti",
        -9.967312201254671
      ],
      [
        "āts",
        -9.967534150106093
      ],
      [
        "▁neuz",
        -9.96766613267107
      ],
      [
        "▁pētījumu",
        -9.96803183460902
      ],
      [
        "45",
        -9.968108942381024
      ],
      [
        "▁pārbaudes",
        -9.968368531135203
      ],
      [
        "▁vadīt",
        -9.969613164874424
      ],
      [
        "ināšana",
        -9.970269804434075
      ],
      [
        "▁iekārtu",
        -9.970565558339583
      ],
      [
        "▁līdzeklis",
        -9.971373992339725
      ],
      [
        "ušies",
        -9.971690072705716
      ],
      [
        "▁papīra",
        -9.971947800227891
      ],
      [
        "▁jāšanās",
        -9.97208071485161
      ],
      [
        "▁Starptautiskā",
        -9.97257847997302
      ],
      [
        "▁piedāvājumu",
        -9.973022098933686
      ],
      [
        "▁likumprojektu",
        -9.97313264545201
      ],
      [
        "pā",
        -9.973769260186351
      ],
      [
        "▁Bal",
        -9.973832700035711
      ],
      [
        "▁prasa",
        -9.973852745955373
      ],
      [
        "ly",
        -9.973933414072668
      ],
      [
        "▁pieredzes",
        -9.974169113857386
      ],
      [
        "6.",
        -9.974440782258483
      ],
      [
        "▁1)",
        -9.974443027639277
      ],
      [
        "▁Amerikas",
        -9.974504139254385
      ],
      [
        "▁sāpes",
        -9.974779405547554
      ],
      [
        "▁nomas",
        -9.974808410227617
      ],
      [
        "▁reizē",
        -9.975560060763879
      ],
      [
        "one",
        -9.975734486362276
      ],
      [
        "▁saistīts",
        -9.975743021703803
      ],
      [
        "up",
        -9.976569247857391
      ],
      [
        "ālā",
        -9.977197567792302
      ],
      [
        "āj",
        -9.978147146961987
      ],
      [
        "lauksaimniecības",
        -9.978208979024473
      ],
      [
        "▁kontrole",
        -9.978274180962131
      ],
      [
        "▁eļļas",
        -9.978770574514762
      ],
      [
        "ējot",
        -9.979121958756043
      ],
      [
        "gul",
        -9.97949434313138
      ],
      [
        "▁viesi",
        -9.981238950285565
      ],
      [
        "▁cum",
        -9.981322863193558
      ],
      [
        "iņas",
        -9.981589376298299
      ],
      [
        "▁oktobrī",
        -9.981887637648768
      ],
      [
        "▁vērā,",
        -9.982201451125054
      ],
      [
        "▁Komisijas",
        -9.983327843468892
      ],
      [
        "▁dzelzceļa",
        -9.983530801840397
      ],
      [
        "▁tehnikas",
        -9.983851073571685
      ],
      [
        "stāv",
        -9.984113748685541
      ],
      [
        "pel",
        -9.984433354866816
      ],
      [
        "▁padarīt",
        -9.984466663695184
      ],
      [
        "ijs",
        -9.984518952214277
      ],
      [
        "▁līgums",
        -9.984634472121517
      ],
      [
        "jušies",
        -9.984703436362308
      ],
      [
        "▁dāvanu",
        -9.984836184896576
      ],
      [
        "▁adresi",
        -9.98483633262246
      ],
      [
        "▁nevajag",
        -9.984956050800141
      ],
      [
        "kais",
        -9.985209582068403
      ],
      [
        "ino",
        -9.986065833988164
      ],
      [
        "▁noteiktu",
        -9.986131967340516
      ],
      [
        "▁gatavs",
        -9.986145123668951
      ],
      [
        "ry",
        -9.986169717839152
      ],
      [
        "īšanu",
        -9.986189183075679
      ],
      [
        "▁labi,",
        -9.986237210079032
      ],
      [
        "▁raksturo",
        -9.986350530444927
      ],
      [
        "cent",
        -9.98657135983899
      ],
      [
        "▁sabiedrībā",
        -9.987019536330571
      ],
      [
        "▁metāla",
        -9.987080761730326
      ],
      [
        "▁apkārt",
        -9.987145501969035
      ],
      [
        "▁veikals",
        -9.987167721728188
      ],
      [
        "▁patika",
        -9.987213981442814
      ],
      [
        "▁“T",
        -9.987376818798655
      ],
      [
        "▁St",
        -9.987510261704273
      ],
      [
        "▁darbus",
        -9.987563051793995
      ],
      [
        "▁robežas",
        -9.987729258898206
      ],
      [
        "▁padara",
        -9.98801092756355
      ],
      [
        "▁viedokli",
        -9.988819333266768
      ],
      [
        "▁akciju",
        -9.988895460787838
      ],
      [
        "▁vērtē",
        -9.98946563027432
      ],
      [
        "▁valdība",
        -9.989914699257536
      ],
      [
        "ži",
        -9.990056641057654
      ],
      [
        "loģi",
        -9.9900696785675
      ],
      [
        "▁Turpinot",
        -9.99008244783112
      ],
      [
        "▁Ma",
        -9.990256504018813
      ],
      [
        "▁uzsver",
        -9.990684409839805
      ],
      [
        "▁jāiz",
        -9.991654705396643
      ],
      [
        "tal",
        -9.991876254268728
      ],
      [
        "▁g.",
        -9.992178482957913
      ],
      [
        "▁45",
        -9.992542058390416
      ],
      [
        "▁\"M",
        -9.99282010453233
      ],
      [
        "▁pasūtīt",
        -9.992888269517987
      ],
      [
        "pl",
        -9.993213421329004
      ],
      [
        "▁vidi",
        -9.993449538151747
      ],
      [
        "▁nodaļa",
        -9.993519347990041
      ],
      [
        "īju",
        -9.994185385064142
      ],
      [
        "▁laukumā",
        -9.994225247912247
      ],
      [
        "Kāds",
        -9.994809290380026
      ],
      [
        "▁durvis",
        -9.995144835562911
      ],
      [
        "▁aprīkojums",
        -9.995357432341788
      ],
      [
        "▁pirmsskolas",
        -9.995559983712539
      ],
      [
        "▁masu",
        -9.995783688649919
      ],
      [
        "▁90",
        -9.995952613282224
      ],
      [
        "▁Sadarbība",
        -9.996945716171941
      ],
      [
        "▁balvas",
        -9.997188242363098
      ],
      [
        "▁Tevi",
        -9.997275352319715
      ],
      [
        "▁Viņu",
        -9.997465766176997
      ],
      [
        "▁iegūtu",
        -9.997706024166488
      ],
      [
        "▁porno",
        -9.997906349594853
      ],
      [
        "▁vidē",
        -9.998169443237266
      ],
      [
        "▁punktā",
        -9.99821680655419
      ],
      [
        "▁jūlijā",
        -9.999304806919643
      ],
      [
        "sko",
        -9.999959170287493
      ],
      [
        "▁augsta",
        -10.000179766631838
      ],
      [
        "▁vārdi",
        -10.000503615084678
      ],
      [
        "▁“B",
        -10.00086597523897
      ],
      [
        "▁laiks,",
        -10.001013456228524
      ],
      [
        "▁pieejamas",
        -10.001362158727318
      ],
      [
        "....",
        -10.00167389201593
      ],
      [
        "▁\"T",
        -10.001890577521184
      ],
      [
        "▁nogalē",
        -10.002012921260857
      ],
      [
        "▁jauni",
        -10.002015478536798
      ],
      [
        "dzi",
        -10.002214006697983
      ],
      [
        "kal",
        -10.002463293797609
      ],
      [
        "▁(P",
        -10.002585830075851
      ],
      [
        "dē",
        -10.00309634559344
      ],
      [
        "ācijā",
        -10.00316773779894
      ],
      [
        "▁vērtējumus",
        -10.003410269318273
      ],
      [
        "▁vietām",
        -10.00353088589365
      ],
      [
        "▁gadam",
        -10.003681060720336
      ],
      [
        "kst",
        -10.003753178437577
      ],
      [
        "▁augustā",
        -10.004011912157349
      ],
      [
        "▁J.",
        -10.00437168922586
      ],
      [
        "iks",
        -10.00484041646941
      ],
      [
        "eg",
        -10.005098864472334
      ],
      [
        "▁aicināti",
        -10.005211622208265
      ],
      [
        "▁asins",
        -10.005213153427983
      ],
      [
        "ība,",
        -10.005306923972682
      ],
      [
        "▁nākotnē",
        -10.005473430744399
      ],
      [
        "▁mīl",
        -10.005503454458983
      ],
      [
        "24",
        -10.005978889590711
      ],
      [
        "▁jaunie",
        -10.007085831418108
      ],
      [
        "▁iekš",
        -10.007172297308527
      ],
      [
        "sku",
        -10.00735740657754
      ],
      [
        "ināšanas",
        -10.00738374263403
      ],
      [
        "▁prot",
        -10.007722913640055
      ],
      [
        "▁pārvalde",
        -10.008000325811185
      ],
      [
        "“",
        -10.008155807499762
      ],
      [
        "▁ēst",
        -10.008413494614157
      ],
      [
        "ier",
        -10.008707986895818
      ],
      [
        "aug",
        -10.00948612936034
      ],
      [
        "▁29.",
        -10.009507175070446
      ],
      [
        "▁sludinājumu",
        -10.010052371672074
      ],
      [
        "▁sevišķi",
        -10.010339733481384
      ],
      [
        "AM",
        -10.011061251467948
      ],
      [
        "▁vērtību",
        -10.011310871423209
      ],
      [
        "▁saprast",
        -10.011594856380365
      ],
      [
        "▁pilnu",
        -10.01181118530527
      ],
      [
        "▁tauku",
        -10.011846347679828
      ],
      [
        "▁izstrāde",
        -10.011922892558701
      ],
      [
        "▁lieta",
        -10.012287925602399
      ],
      [
        "!\"",
        -10.012351825010754
      ],
      [
        "▁LU",
        -10.013381692895734
      ],
      [
        "▁tiesu",
        -10.013629071018617
      ],
      [
        "▁centru",
        -10.013630442724356
      ],
      [
        "▁organizē",
        -10.01397249704231
      ],
      [
        "tek",
        -10.014487850149468
      ],
      [
        "▁zemāk",
        -10.014633131850667
      ],
      [
        "▁(2",
        -10.014647517886804
      ],
      [
        "▁daudzas",
        -10.014963054349142
      ],
      [
        "▁gadā,",
        -10.015123000367888
      ],
      [
        "▁preses",
        -10.015143513849534
      ],
      [
        "▁punkta",
        -10.015255034778614
      ],
      [
        "ateicoties",
        -10.015336785061333
      ],
      [
        "▁bērns,",
        -10.01550801106374
      ],
      [
        "▁dažādos",
        -10.015599124387613
      ],
      [
        "▁būvniecības",
        -10.015619507590223
      ],
      [
        "▁ražot",
        -10.016021004361104
      ],
      [
        "ine",
        -10.016958196526936
      ],
      [
        "▁pakalpojumus",
        -10.017105640629076
      ],
      [
        "▁tuvu",
        -10.017546497027551
      ],
      [
        "▁viesnīca",
        -10.017682036105867
      ],
      [
        "▁ieviest",
        -10.018490198773069
      ],
      [
        "▁skolēniem",
        -10.018554570837596
      ],
      [
        "▁pasaule",
        -10.01856359482408
      ],
      [
        "oša",
        -10.018726061689103
      ],
      [
        "▁degvielas",
        -10.018801168199158
      ],
      [
        "▁patiesībā",
        -10.01944016884891
      ],
      [
        "▁noteikumiem",
        -10.020250675058596
      ],
      [
        "▁speciālisti",
        -10.020585829896834
      ],
      [
        "▁lomu",
        -10.020956054265417
      ],
      [
        "pes",
        -10.021151302209727
      ],
      [
        "▁darbiniekiem",
        -10.021256517992857
      ],
      [
        "▁kr",
        -10.021353010475638
      ],
      [
        "▁jaunus",
        -10.021385690645317
      ],
      [
        "▁Iesaki",
        -10.021463379131458
      ],
      [
        "▁analīze",
        -10.021553084670643
      ],
      [
        "eri",
        -10.02191149681779
      ],
      [
        "▁rezultāts",
        -10.022148915849424
      ],
      [
        "▁2)",
        -10.022247333497548
      ],
      [
        "▁\"Latvijas",
        -10.022456414789158
      ],
      [
        "▁vietā,",
        -10.022629363431127
      ],
      [
        "▁tak",
        -10.022967047583794
      ],
      [
        "▁janvārī",
        -10.0235498178859
      ],
      [
        "▁manā",
        -10.024508359232136
      ],
      [
        "▁tiesā",
        -10.024517792786838
      ],
      [
        "▁gaida",
        -10.024529771498372
      ],
      [
        "kļu",
        -10.024681753768753
      ],
      [
        "▁saistīta",
        -10.025072141773597
      ],
      [
        "▁elektro",
        -10.026550334439696
      ],
      [
        "▁100%",
        -10.026664925497416
      ],
      [
        "▁starpā",
        -10.026783942327068
      ],
      [
        "▁jaunieši",
        -10.02712912389968
      ],
      [
        "▁balvu",
        -10.02766740980508
      ],
      [
        "▁caurules",
        -10.028747650621726
      ],
      [
        "▁iegūst",
        -10.029055338311228
      ],
      [
        "▁parādās",
        -10.029257066484533
      ],
      [
        "▁skolēni",
        -10.029332067396385
      ],
      [
        "▁Mācību",
        -10.029582421016656
      ],
      [
        "tin",
        -10.029896587108183
      ],
      [
        "▁kārtību",
        -10.030766590381749
      ],
      [
        "▁Vi",
        -10.031362104413805
      ],
      [
        "▁sadarbība",
        -10.032217845534749
      ],
      [
        "▁logu",
        -10.032505169294883
      ],
      [
        "▁top",
        -10.032517964502109
      ],
      [
        "▁tīklu",
        -10.032519004456894
      ],
      [
        "▁tātad",
        -10.032612534648418
      ],
      [
        "▁klubs",
        -10.032814177702193
      ],
      [
        "▁ideja",
        -10.033061894129943
      ],
      [
        "▁visos",
        -10.034340731207706
      ],
      [
        "▁negrib",
        -10.034424965606942
      ],
      [
        "▁šos",
        -10.03481338875264
      ],
      [
        "▁zelta",
        -10.035215550223201
      ],
      [
        "▁(3",
        -10.035321157451353
      ],
      [
        "▁II",
        -10.035399280497437
      ],
      [
        "▁vīrietis",
        -10.03658555700137
      ],
      [
        "▁vajadzības",
        -10.036652286795995
      ],
      [
        "▁ikviens",
        -10.037234724086971
      ],
      [
        "▁acu",
        -10.037893515230525
      ],
      [
        "▁pasta",
        -10.03843703790317
      ],
      [
        "▁gala",
        -10.038613191746295
      ],
      [
        "pē",
        -10.038727033547403
      ],
      [
        "▁pu",
        -10.038919074366774
      ],
      [
        "▁ilgāk",
        -10.039074886253003
      ],
      [
        "▁māc",
        -10.03940513582598
      ],
      [
        "▁nāves",
        -10.039567008766184
      ],
      [
        "▁rotaļlietas",
        -10.03979404908716
      ],
      [
        "▁http://www.",
        -10.039962691158337
      ],
      [
        "▁nama",
        -10.040031781499081
      ],
      [
        "joties",
        -10.040284133955232
      ],
      [
        "▁banku",
        -10.04033028908776
      ],
      [
        "▁savai",
        -10.040948728247972
      ],
      [
        "šana,",
        -10.041269457859578
      ],
      [
        "▁Brīvības",
        -10.041703716645245
      ],
      [
        "▁lielāks",
        -10.041815370731534
      ],
      [
        "šā",
        -10.042472255030962
      ],
      [
        "▁raksts",
        -10.042613328204942
      ],
      [
        "▁zeme",
        -10.04269532630099
      ],
      [
        "▁vēlreiz",
        -10.042728854095852
      ],
      [
        "▁Preču",
        -10.042775722044833
      ],
      [
        "▁iespējamo",
        -10.043139314306513
      ],
      [
        "▁īpašā",
        -10.043377855920415
      ],
      [
        "▁devās",
        -10.043777906967431
      ],
      [
        "▁baudīt",
        -10.043787166042264
      ],
      [
        "▁LIZDA",
        -10.044112735318947
      ],
      [
        "▁projektā",
        -10.044114302427348
      ],
      [
        "▁nodot",
        -10.04422730295328
      ],
      [
        "▁uztur",
        -10.04433738924025
      ],
      [
        "▁algas",
        -10.044420966215185
      ],
      [
        "kš",
        -10.045116995851684
      ],
      [
        "▁darbam",
        -10.045851176059958
      ],
      [
        "▁zaudē",
        -10.046105292707283
      ],
      [
        "▁vajadzīgs",
        -10.046204713014728
      ],
      [
        "▁Zem",
        -10.046449518117146
      ],
      [
        "▁Latgales",
        -10.046482249635151
      ],
      [
        "▁fonds",
        -10.04721836307224
      ],
      [
        "ajās",
        -10.047393564589527
      ],
      [
        "lija",
        -10.047435391952776
      ],
      [
        "▁veicina",
        -10.047488760551918
      ],
      [
        "▁mājā",
        -10.048106347265124
      ],
      [
        "▁runa",
        -10.048171947146631
      ],
      [
        "▁Val",
        -10.048561772324886
      ],
      [
        "▁apraksts",
        -10.048619142518888
      ],
      [
        "ķī",
        -10.048931962255605
      ],
      [
        "▁atsevišķi",
        -10.049000878449597
      ],
      [
        "fa",
        -10.049218903547832
      ],
      [
        "ēta",
        -10.049230325796865
      ],
      [
        "▁neviena",
        -10.04957145750166
      ],
      [
        "▁tiesa",
        -10.049588136062308
      ],
      [
        "▁ievērot",
        -10.049649574096666
      ],
      [
        "eni",
        -10.04977183545099
      ],
      [
        "▁lietotājiem",
        -10.05030566684567
      ],
      [
        "▁pilsēta",
        -10.050352278726342
      ],
      [
        "▁ņem",
        -10.050388725601085
      ],
      [
        "▁skaita",
        -10.050742130589429
      ],
      [
        "▁produktus",
        -10.050987179833875
      ],
      [
        "tam",
        -10.051756823076019
      ],
      [
        "▁Kopš",
        -10.052412123044535
      ],
      [
        "▁pusi",
        -10.052565962995708
      ],
      [
        "▁gāzes",
        -10.053476215038144
      ],
      [
        "▁ceļojumu",
        -10.053955717593041
      ],
      [
        "35",
        -10.053972190927102
      ],
      [
        "▁atklāt",
        -10.054323394013581
      ],
      [
        "▁plānu",
        -10.054619322612183
      ],
      [
        "vel",
        -10.055439593088177
      ],
      [
        "▁uzturēt",
        -10.055814037039799
      ],
      [
        "ec",
        -10.056124282801585
      ],
      [
        "▁sacensības",
        -10.05648457324504
      ],
      [
        "āks",
        -10.056532331351239
      ],
      [
        "▁abi",
        -10.05714120830553
      ],
      [
        "▁div",
        -10.057228560267346
      ],
      [
        "tro",
        -10.057448309825126
      ],
      [
        "IS",
        -10.057779383058463
      ],
      [
        "▁Dabas",
        -10.058124967214018
      ],
      [
        "▁iestāde",
        -10.05834608153622
      ],
      [
        "▁kodu",
        -10.058938336917985
      ],
      [
        "▁izdevumu",
        -10.058939881092634
      ],
      [
        "▁patiesi",
        -10.059165872903403
      ],
      [
        "100",
        -10.060202053573168
      ],
      [
        "rg",
        -10.060204049584186
      ],
      [
        "▁kods",
        -10.060222664242701
      ],
      [
        "▁valstīm",
        -10.060305986861838
      ],
      [
        "inu",
        -10.060471335651368
      ],
      [
        "▁Da",
        -10.060770032413913
      ],
      [
        "▁gribētu",
        -10.060966059836304
      ],
      [
        "ovs",
        -10.061087169628465
      ],
      [
        "▁plašu",
        -10.061127504689356
      ],
      [
        "▁pieejamā",
        -10.061460763609055
      ],
      [
        "▁izvērsta",
        -10.062027886334274
      ],
      [
        "nāk",
        -10.062296738720903
      ],
      [
        "34",
        -10.06229768273218
      ],
      [
        "▁spēja",
        -10.062807479363927
      ],
      [
        "kam",
        -10.063360817387787
      ],
      [
        "▁Na",
        -10.063431335018665
      ],
      [
        "▁(C",
        -10.063984333661306
      ],
      [
        "▁rīkot",
        -10.064441899520698
      ],
      [
        "▁aktiem",
        -10.064521048338625
      ],
      [
        "▁līmenī",
        -10.0645898442272
      ],
      [
        "▁atkarīgs",
        -10.065173086079596
      ],
      [
        "kli",
        -10.06520162255347
      ],
      [
        "▁partiju",
        -10.065208194436742
      ],
      [
        "āmies",
        -10.06577087214377
      ],
      [
        ",bet",
        -10.066350054852773
      ],
      [
        "TI",
        -10.066661888540413
      ],
      [
        "—",
        -10.066680294238822
      ],
      [
        "▁mēnešiem",
        -10.06668322958669
      ],
      [
        "lik",
        -10.067344356270485
      ],
      [
        "▁Diemžēl",
        -10.06761736901839
      ],
      [
        "▁Kopienas",
        -10.067991742552879
      ],
      [
        "21",
        -10.068274940881
      ],
      [
        "▁ēd",
        -10.068907009247953
      ],
      [
        "▁1000",
        -10.068989682170795
      ],
      [
        "▁izvirzīt",
        -10.069035352536705
      ],
      [
        "▁Reklāma",
        -10.069078902447233
      ],
      [
        "▁attēlus",
        -10.070274686953821
      ],
      [
        "▁izstrādāt",
        -10.070829286789268
      ],
      [
        "kuros",
        -10.071026301071246
      ],
      [
        "▁valstij",
        -10.071045277252384
      ],
      [
        "▁Kontakti",
        -10.071325524881846
      ],
      [
        "▁darb",
        -10.07168558117669
      ],
      [
        "ig",
        -10.071802814102345
      ],
      [
        "▁ikvienam",
        -10.07189461822417
      ],
      [
        "▁iesniedz",
        -10.072086152060432
      ],
      [
        "▁ādu",
        -10.072308924912232
      ],
      [
        "▁sākās",
        -10.072665715091706
      ],
      [
        "▁jāpa",
        -10.072985856492746
      ],
      [
        "▁Kr",
        -10.073081383726919
      ],
      [
        "▁uzņemt",
        -10.073110449124655
      ],
      [
        "▁dzied",
        -10.073126538395567
      ],
      [
        "▁vietne",
        -10.07321487684223
      ],
      [
        "▁mo",
        -10.074201421446075
      ],
      [
        "▁Lu",
        -10.074252674046603
      ],
      [
        "▁spēju",
        -10.074322742576092
      ],
      [
        "▁“Par",
        -10.074737377972177
      ],
      [
        "7.",
        -10.074978042203563
      ],
      [
        "▁tālu",
        -10.075009015103333
      ],
      [
        "jumiem",
        -10.075075630134187
      ],
      [
        "ob",
        -10.075099970102048
      ],
      [
        "▁cenšas",
        -10.075126391239703
      ],
      [
        "▁Vec",
        -10.075326720541076
      ],
      [
        "▁Ūdens",
        -10.0753406542036
      ],
      [
        "▁saimniecības",
        -10.07557644154764
      ],
      [
        "ātu",
        -10.07586747732789
      ],
      [
        "ces",
        -10.075897953473923
      ],
      [
        "▁bibliotēka",
        -10.0763855277241
      ],
      [
        "▁darboties",
        -10.076408627519637
      ],
      [
        "cēl",
        -10.077699771047588
      ],
      [
        "▁kādreiz",
        -10.07893207697871
      ],
      [
        "23",
        -10.079089244634094
      ],
      [
        "▁svarīga",
        -10.079458543392825
      ],
      [
        "▁Sociālā",
        -10.079471805321077
      ],
      [
        "▁Jaun",
        -10.080594859641893
      ],
      [
        "▁studentu",
        -10.080915165827252
      ],
      [
        "▁piešķirt",
        -10.081986567056953
      ],
      [
        "ene",
        -10.082052136279911
      ],
      [
        "veida",
        -10.082176942382603
      ],
      [
        "▁forma",
        -10.082278077466077
      ],
      [
        "ēties",
        -10.082561129558416
      ],
      [
        "istu",
        -10.082586554930884
      ],
      [
        "tor",
        -10.082634428664754
      ],
      [
        "ers",
        -10.082671014037583
      ],
      [
        "▁rīcībā",
        -10.082965720410193
      ],
      [
        "▁piemērots",
        -10.083118166447186
      ],
      [
        "▁ūdeni",
        -10.08318286918395
      ],
      [
        "▁skatu",
        -10.083284968207803
      ],
      [
        "▁metodes",
        -10.08330977761749
      ],
      [
        "šas",
        -10.083518855249718
      ],
      [
        "▁eiro,",
        -10.083961587644698
      ],
      [
        "▁nākamo",
        -10.084022960487381
      ],
      [
        "▁Ž",
        -10.08416780684626
      ],
      [
        "▁Universitātes",
        -10.084314066394594
      ],
      [
        "lin",
        -10.084550609776812
      ],
      [
        "▁tuvāk",
        -10.084707107084308
      ],
      [
        "▁zināms,",
        -10.085070537244938
      ],
      [
        "▁kredīta",
        -10.08519010962069
      ],
      [
        "▁sīkdatņu",
        -10.08519498984241
      ],
      [
        "▁Windows",
        -10.085194990001126
      ],
      [
        "▁risinājumu",
        -10.086196676307107
      ],
      [
        "darb",
        -10.086448202631622
      ],
      [
        "▁Lielā",
        -10.08648059761418
      ],
      [
        "▁mašīnas",
        -10.086823087050474
      ],
      [
        "iņām",
        -10.086934867592092
      ],
      [
        "▁procesā",
        -10.08698117190194
      ],
      [
        "▁loma",
        -10.087045112582816
      ],
      [
        "▁kārtā",
        -10.087417922102839
      ],
      [
        "▁pilna",
        -10.08783470556282
      ],
      [
        "bas",
        -10.088040010151705
      ],
      [
        "▁e-",
        -10.088072924597492
      ],
      [
        "▁domas",
        -10.088274218495616
      ],
      [
        "bol",
        -10.088453020381095
      ],
      [
        "▁virzienā",
        -10.088569341027924
      ],
      [
        "āna",
        -10.089150572317264
      ],
      [
        "end",
        -10.089433371066018
      ],
      [
        "▁sacensību",
        -10.089542826669835
      ],
      [
        "▁ģimeni",
        -10.089544460469341
      ],
      [
        "▁portāls",
        -10.089546809998811
      ],
      [
        "▁Standarta",
        -10.089986655949836
      ],
      [
        "▁aizvien",
        -10.090153991338251
      ],
      [
        "▁resursu",
        -10.090852939679625
      ],
      [
        "▁pensiju",
        -10.090996478802307
      ],
      [
        "▁apstākļos",
        -10.091002054724713
      ],
      [
        "lim",
        -10.091355951740947
      ],
      [
        "▁vietas,",
        -10.091517704968437
      ],
      [
        "▁beigām",
        -10.09175775479469
      ],
      [
        "▁prasmes",
        -10.091836105657695
      ],
      [
        "▁ģimenē",
        -10.091958473959693
      ],
      [
        "▁izdevumi",
        -10.092312492680442
      ],
      [
        "▁termiņš",
        -10.09245457553812
      ],
      [
        "▁kustības",
        -10.092481783581004
      ],
      [
        "▁skaidri",
        -10.092481985934223
      ],
      [
        "lab",
        -10.09265310652285
      ],
      [
        "▁ievērojami",
        -10.092889998659764
      ],
      [
        "33",
        -10.092907542375436
      ],
      [
        "▁jaunais",
        -10.09294939408353
      ],
      [
        "▁interešu",
        -10.093973311486188
      ],
      [
        "▁32",
        -10.094060580398624
      ],
      [
        "▁atļaujas",
        -10.094091613912829
      ],
      [
        "cel",
        -10.094668824737928
      ],
      [
        "▁kārtības",
        -10.095124888381712
      ],
      [
        "▁parāda",
        -10.095234711899945
      ],
      [
        "▁kust",
        -10.095263922582786
      ],
      [
        "▁viņus",
        -10.095308436901508
      ],
      [
        "▁sakarā",
        -10.095379532095409
      ],
      [
        "▁ieteicams",
        -10.095426160278064
      ],
      [
        "▁cumshot",
        -10.096076796916432
      ],
      [
        "▁(M",
        -10.096721834080187
      ],
      [
        "▁Ls",
        -10.096776081255237
      ],
      [
        "▁nepieciešami",
        -10.097099814785189
      ],
      [
        "cu",
        -10.097358671934616
      ],
      [
        "▁Pārdod",
        -10.097644397193308
      ],
      [
        "teic",
        -10.097661849827222
      ],
      [
        "▁gadījumu",
        -10.097689475480422
      ],
      [
        "▁ģimene",
        -10.097746424275272
      ],
      [
        "inām",
        -10.097826629247436
      ],
      [
        "▁Gan",
        -10.097958920386013
      ],
      [
        "▁aizdevumu",
        -10.09834659261789
      ],
      [
        "tors",
        -10.098586465585399
      ],
      [
        "▁ārsta",
        -10.098609338958642
      ],
      [
        "▁skolotāju",
        -10.099764373937692
      ],
      [
        "▁termiņu",
        -10.099766114883568
      ],
      [
        "▁liecina,",
        -10.099840644763061
      ],
      [
        "▁tiesībām",
        -10.1000405629373
      ],
      [
        "▁Bo",
        -10.100072664152078
      ],
      [
        "▁Raksti",
        -10.100156425169704
      ],
      [
        "▁\"B",
        -10.100495070380491
      ],
      [
        "▁latu",
        -10.100935221518732
      ],
      [
        "inās",
        -10.101087657973885
      ],
      [
        "▁krietni",
        -10.101486351414138
      ],
      [
        "▁sistēmā",
        -10.102282910690155
      ],
      [
        "ņiem",
        -10.102624445115323
      ],
      [
        "38",
        -10.102808136754023
      ],
      [
        "ību.",
        -10.103213370747245
      ],
      [
        "dod",
        -10.10345328677791
      ],
      [
        "▁dzirdēt",
        -10.10368539327639
      ],
      [
        "US",
        -10.103707901703261
      ],
      [
        "IN",
        -10.103761071691856
      ],
      [
        "▁piemērota",
        -10.103995080867715
      ],
      [
        "▁datoru",
        -10.104102373514317
      ],
      [
        "▁rīkoties",
        -10.104450942559362
      ],
      [
        "▁nākotnes",
        -10.104559324157336
      ],
      [
        "▁pirkt",
        -10.104613574446539
      ],
      [
        "▁zobu",
        -10.104734311936845
      ],
      [
        "▁(1",
        -10.10499779059512
      ],
      [
        "▁tālruni",
        -10.105027776090814
      ],
      [
        "▁sociālā",
        -10.105128142461037
      ],
      [
        "▁vidusskolas",
        -10.105625801282953
      ],
      [
        "▁skolotāja",
        -10.105650781453779
      ],
      [
        "▁ārvalstu",
        -10.105656454902114
      ],
      [
        "▁datiem",
        -10.105778491052451
      ],
      [
        "▁tuvumā",
        -10.105797335532632
      ],
      [
        "▁noteikta",
        -10.105930615358414
      ],
      [
        "▁Ku",
        -10.105989137315674
      ],
      [
        "▁diev",
        -10.106807608809351
      ],
      [
        "▁the",
        -10.106843234678582
      ],
      [
        "▁izvēles",
        -10.106987785332569
      ],
      [
        "▁Bar",
        -10.107115700528066
      ],
      [
        "▁pakalpojuma",
        -10.107125813000948
      ],
      [
        "▁starptautisko",
        -10.10712648485898
      ],
      [
        "vin",
        -10.107287096490817
      ],
      [
        "▁neatkarīgi",
        -10.10731040369167
      ],
      [
        "▁Galvenā",
        -10.108237429768057
      ],
      [
        "TA",
        -10.108523385141076
      ],
      [
        "▁mobilo",
        -10.10872821743308
      ],
      [
        "▁Y",
        -10.108814498095363
      ],
      [
        "▁kg",
        -10.109046777771265
      ],
      [
        "ca",
        -10.10914562027688
      ],
      [
        "▁h",
        -10.109167784844526
      ],
      [
        "▁drīkst",
        -10.109431194264188
      ],
      [
        "▁tērauda",
        -10.110086530669388
      ],
      [
        "▁kalpo",
        -10.110258503457441
      ],
      [
        "▁Savu",
        -10.110270645969164
      ],
      [
        "▁braukšanas",
        -10.110564740187403
      ],
      [
        "▁līmeni",
        -10.110623523585268
      ],
      [
        "▁lieliska",
        -10.110707467920754
      ],
      [
        "▁vairākiem",
        -10.110867526828304
      ],
      [
        "▁izveidota",
        -10.111258688746343
      ],
      [
        "▁saukt",
        -10.111336940081834
      ],
      [
        "bra",
        -10.111356683272703
      ],
      [
        "▁vieta,",
        -10.111442509054852
      ],
      [
        "▁Pu",
        -10.111444905862811
      ],
      [
        "▁plāna",
        -10.111637747428345
      ],
      [
        "ras",
        -10.112556876280955
      ],
      [
        "▁norisināsies",
        -10.112687884819046
      ],
      [
        "▁izplatīt",
        -10.11301215095771
      ],
      [
        "▁apmācību",
        -10.113272166339243
      ],
      [
        "iens",
        -10.114106492307034
      ],
      [
        "▁informāciju,",
        -10.114488458433263
      ],
      [
        "▁brīža",
        -10.11462767348496
      ],
      [
        "▁iespējama",
        -10.114647919411965
      ],
      [
        "▁augstākās",
        -10.115023576760095
      ],
      [
        "▁skaņas",
        -10.115064328470229
      ],
      [
        "▁galvu",
        -10.115378513376456
      ],
      [
        "▁Juridiskā",
        -10.11563779833593
      ],
      [
        "▁redz",
        -10.115816211292803
      ],
      [
        "▁mediju",
        -10.116121561900197
      ],
      [
        "▁pulksten",
        -10.11676356835535
      ],
      [
        "kor",
        -10.116773284792671
      ],
      [
        "dienas",
        -10.1172758359012
      ],
      [
        "a)",
        -10.117570821012855
      ],
      [
        "▁dome",
        -10.117725302167706
      ],
      [
        "ēšanu",
        -10.117774257465447
      ],
      [
        "▁jāveic",
        -10.117786779490183
      ],
      [
        "he",
        -10.11864592320427
      ],
      [
        "rd",
        -10.118673645018664
      ],
      [
        "▁Tautas",
        -10.119360161831526
      ],
      [
        "▁min.",
        -10.120885219032141
      ],
      [
        "bri",
        -10.121214393290632
      ],
      [
        "▁rajona",
        -10.122046190867021
      ],
      [
        "42",
        -10.12245632046498
      ],
      [
        "▁padome",
        -10.122656255018434
      ],
      [
        "hu",
        -10.12322868390265
      ],
      [
        "▁norādīt",
        -10.123480271530118
      ],
      [
        "▁veikalu",
        -10.123523624306685
      ],
      [
        "▁apstākļi",
        -10.124457646957271
      ],
      [
        "▁I.",
        -10.124481717273174
      ],
      [
        "▁iepazīt",
        -10.124602940537903
      ],
      [
        "den",
        -10.124983417384893
      ],
      [
        "ībām",
        -10.125114772168804
      ],
      [
        "tēm",
        -10.125400267338328
      ],
      [
        "▁Google",
        -10.12567592785112
      ],
      [
        "▁gaļas",
        -10.12570747004213
      ],
      [
        "▁Cita",
        -10.126121968419131
      ],
      [
        "▁Bezmaksas",
        -10.126531118565383
      ],
      [
        "▁armijas",
        -10.126683810077076
      ],
      [
        "5.",
        -10.127071077967498
      ],
      [
        "int",
        -10.127085173698891
      ],
      [
        "▁lūdzu,",
        -10.12714925243904
      ],
      [
        "▁nosacījumi",
        -10.12766804518197
      ],
      [
        "▁veica",
        -10.127756909588435
      ],
      [
        "▁porn",
        -10.127949291061494
      ],
      [
        "▁putnu",
        -10.12809378493529
      ],
      [
        "▁miljoniem",
        -10.128106011620797
      ],
      [
        "▁reiz",
        -10.128180431065754
      ],
      [
        "▁mazo",
        -10.129022339081168
      ],
      [
        "▁reāli",
        -10.129141304407733
      ],
      [
        "▁netiks",
        -10.129256623249763
      ],
      [
        "ķu",
        -10.129288812084035
      ],
      [
        "▁prātā",
        -10.129819542258488
      ],
      [
        "▁baznīcas",
        -10.130016318262934
      ],
      [
        "▁Rēzeknes",
        -10.130139970059378
      ],
      [
        "▁citos",
        -10.1302040619213
      ],
      [
        "▁iestādēs",
        -10.130408094804855
      ],
      [
        "▁Mākslas",
        -10.130485691583498
      ],
      [
        "vid",
        -10.130835611665605
      ],
      [
        "isma",
        -10.130982849761264
      ],
      [
        "▁mūziku",
        -10.131061011241002
      ],
      [
        "▁rūpīgi",
        -10.131186893383957
      ],
      [
        "▁sevī",
        -10.131623912343006
      ],
      [
        "rin",
        -10.131988393424335
      ],
      [
        "▁2011",
        -10.132124937943619
      ],
      [
        "▁atbildēt",
        -10.132158806939422
      ],
      [
        "▁“D",
        -10.132253918043752
      ],
      [
        "▁attiecīgi",
        -10.132612376903833
      ],
      [
        "▁sevis",
        -10.132727915984434
      ],
      [
        "tika",
        -10.133487053527363
      ],
      [
        "āta",
        -10.133717958910854
      ],
      [
        "šķi",
        -10.134063173405282
      ],
      [
        "ies.",
        -10.134079657781129
      ],
      [
        "▁miljonu",
        -10.134321412086916
      ],
      [
        "ac",
        -10.134326085083766
      ],
      [
        "ans",
        -10.13434790360183
      ],
      [
        "▁koku",
        -10.134670641611034
      ],
      [
        "▁kļūs",
        -10.134865210446641
      ],
      [
        "āns",
        -10.134959354719324
      ],
      [
        "ieši",
        -10.135147699101259
      ],
      [
        "▁soda",
        -10.135153328544252
      ],
      [
        "▁lietas,",
        -10.135169029110934
      ],
      [
        "08",
        -10.135259211587968
      ],
      [
        "▁po",
        -10.135404146506634
      ],
      [
        "▁produkta",
        -10.135613372854259
      ],
      [
        "▁nelielu",
        -10.13562747493036
      ],
      [
        "▁sagatavot",
        -10.135696975821638
      ],
      [
        "▁Katra",
        -10.13576141581079
      ],
      [
        "▁karaļa",
        -10.135912345638829
      ],
      [
        "▁vēlme",
        -10.136008056014733
      ],
      [
        "▁parādīt",
        -10.136532251990014
      ],
      [
        "dus",
        -10.136670423768303
      ],
      [
        "▁ēka",
        -10.13684789788924
      ],
      [
        "▁pieprasīt",
        -10.136928141878347
      ],
      [
        "▁apjoms",
        -10.137326289475116
      ],
      [
        "▁Komentāri",
        -10.137764824376033
      ],
      [
        "▁atļauju",
        -10.137807331947478
      ],
      [
        "ņā",
        -10.13787453457947
      ],
      [
        "dams",
        -10.138511540768723
      ],
      [
        "ang",
        -10.138622371799851
      ],
      [
        "▁iemesls",
        -10.13865999275016
      ],
      [
        "▁mūsdienās",
        -10.13866307032579
      ],
      [
        "▁nākamā",
        -10.138732539777735
      ],
      [
        "▁politiskā",
        -10.13875976819346
      ],
      [
        "▁notikumu",
        -10.139024116064867
      ],
      [
        "▁izdevumus",
        -10.139386908773199
      ],
      [
        "▁brauc",
        -10.139425125204834
      ],
      [
        "▁Priekšsēdētājs",
        -10.139779662606255
      ],
      [
        "▁cīņā",
        -10.140186580377037
      ],
      [
        "▁apstrādes",
        -10.140196501840895
      ],
      [
        "▁aizmirst",
        -10.140429179503556
      ],
      [
        "▁(5)",
        -10.140690030907942
      ],
      [
        "veicot",
        -10.141160534954288
      ],
      [
        "▁Tam",
        -10.141493113852832
      ],
      [
        "▁vajadzīga",
        -10.14157792752663
      ],
      [
        "▁izcelsmes",
        -10.141689712149944
      ],
      [
        "VIDEO)",
        -10.141709589649077
      ],
      [
        "ienu",
        -10.14175858590363
      ],
      [
        "▁jāņem",
        -10.142050609325949
      ],
      [
        "gur",
        -10.142784503896962
      ],
      [
        "▁Sp",
        -10.142980913817837
      ],
      [
        "▁kravas",
        -10.14310538262042
      ],
      [
        "▁Kal",
        -10.143179343696863
      ],
      [
        "▁ieguva",
        -10.143247274848385
      ],
      [
        "mon",
        -10.143633242051333
      ],
      [
        "▁pl",
        -10.143670255507399
      ],
      [
        "▁pasākumiem",
        -10.143950832489967
      ],
      [
        "āra",
        -10.144519918527857
      ],
      [
        "ināja",
        -10.144605630626955
      ],
      [
        "snieg",
        -10.144913880593563
      ],
      [
        "▁fondu",
        -10.145026100412418
      ],
      [
        "▁kustību",
        -10.145285071952085
      ],
      [
        "▁tic",
        -10.14529441594986
      ],
      [
        "lie",
        -10.145588595880206
      ],
      [
        "▁koncertu",
        -10.145633181592329
      ],
      [
        "▁īpaša",
        -10.145842372542266
      ],
      [
        "dur",
        -10.146272705100085
      ],
      [
        "nekustamā",
        -10.146375200651292
      ],
      [
        "īnu",
        -10.1467905524399
      ],
      [
        "▁atsevišķu",
        -10.146812768432538
      ],
      [
        "▁pieteikumu",
        -10.147008552889744
      ],
      [
        "▁2000",
        -10.147186776523192
      ],
      [
        "▁piedāvājam",
        -10.147380201837306
      ],
      [
        "▁franču",
        -10.147856347026435
      ],
      [
        "▁atkarībā",
        -10.147892490359029
      ],
      [
        "▁dažāda",
        -10.148589643868764
      ],
      [
        "▁tekstu",
        -10.149408311064715
      ],
      [
        "▁uzvaru",
        -10.14945091590527
      ],
      [
        "▁rokām",
        -10.149701907169511
      ],
      [
        "cija",
        -10.150369871614732
      ],
      [
        "▁cieš",
        -10.150737598346762
      ],
      [
        "ita",
        -10.150843716889064
      ],
      [
        "▁četru",
        -10.150908993468917
      ],
      [
        "▁LETA",
        -10.150983769436099
      ],
      [
        "▁acis",
        -10.151162530508767
      ],
      [
        "▁attīstībai",
        -10.151382847196153
      ],
      [
        "▁2016",
        -10.151509608575454
      ],
      [
        "▁zaudēt",
        -10.151539120950098
      ],
      [
        "▁mēnešu",
        -10.151651363783643
      ],
      [
        "▁jauniem",
        -10.151830071693082
      ],
      [
        "▁numura",
        -10.15248876811376
      ],
      [
        "▁stipri",
        -10.152564802162846
      ],
      [
        "▁maksāt",
        -10.152570311575676
      ],
      [
        "▁palikt",
        -10.152682947083047
      ],
      [
        "▁Maz",
        -10.152949544338494
      ],
      [
        "▁(ar",
        -10.153384873632605
      ],
      [
        "▁darīt,",
        -10.15339411868441
      ],
      [
        "▁mikro",
        -10.153689618581764
      ],
      [
        "▁Ho",
        -10.15446883372936
      ],
      [
        "▁“Latvijas",
        -10.154575616195903
      ],
      [
        "▁kluba",
        -10.1546224568084
      ],
      [
        "▁izlases",
        -10.154747665751383
      ],
      [
        "▁Darbs",
        -10.154863803862895
      ],
      [
        "▁piemērotas",
        -10.155248008798123
      ],
      [
        "▁sienas",
        -10.155524122497766
      ],
      [
        "▁penis",
        -10.15568457051631
      ],
      [
        "jušas",
        -10.155753062942827
      ],
      [
        "▁saņemšanas",
        -10.155784907718541
      ],
      [
        "dīt",
        -10.156066958566761
      ],
      [
        "▁attēlu",
        -10.156490350679196
      ],
      [
        "▁sald",
        -10.156785760734259
      ],
      [
        "▁ērtības",
        -10.15713620504815
      ],
      [
        "▁izstādes",
        -10.157568414689408
      ],
      [
        "▁bildes",
        -10.157957677100867
      ],
      [
        "▁apmērā",
        -10.158039669400617
      ],
      [
        "▁risku",
        -10.158395462673361
      ],
      [
        "▁Noteikumi",
        -10.158424573680506
      ],
      [
        "▁@",
        -10.158677549309001
      ],
      [
        "ošanas",
        -10.159139239346056
      ],
      [
        "isko",
        -10.15927189151341
      ],
      [
        "▁2009.",
        -10.159667313430688
      ],
      [
        "▁online",
        -10.160278331430128
      ],
      [
        "▁izmērs",
        -10.160296454820447
      ],
      [
        "▁manas",
        -10.161047332348282
      ],
      [
        "amies",
        -10.161154899043092
      ],
      [
        "▁da",
        -10.161395838950057
      ],
      [
        "▁sabiedrību",
        -10.161882735858
      ],
      [
        "▁netika",
        -10.16194014315116
      ],
      [
        "▁Francijas",
        -10.162337839284103
      ],
      [
        "▁procedūras",
        -10.16237644000103
      ],
      [
        "ķē",
        -10.163068879186667
      ],
      [
        "▁uzraudzības",
        -10.163162048386054
      ],
      [
        "▁uzņēmējdarbības",
        -10.163264611944378
      ],
      [
        "▁mazu",
        -10.163308269091115
      ],
      [
        "▁izraisa",
        -10.16347095742183
      ],
      [
        "▁informēt",
        -10.163561072381121
      ],
      [
        "▁sakot",
        -10.163742954805418
      ],
      [
        "▁pasauli",
        -10.163743641417867
      ],
      [
        "▁vie",
        -10.164573718731797
      ],
      [
        "▁apstiprināt",
        -10.164607985241851
      ],
      [
        "▁Mu",
        -10.164631740421056
      ],
      [
        "99",
        -10.164811522423264
      ],
      [
        "▁stundām",
        -10.165032526658841
      ],
      [
        "▁Pirmais",
        -10.165123005364343
      ],
      [
        "▁procentu",
        -10.165259813980278
      ],
      [
        "▁koncerts",
        -10.165702820363915
      ],
      [
        "▁vil",
        -10.166003798725445
      ],
      [
        "▁piedāvājums",
        -10.166124868693114
      ],
      [
        "likum",
        -10.166481739754083
      ],
      [
        "▁objekta",
        -10.166503849629645
      ],
      [
        "▁risinājums",
        -10.166507010476085
      ],
      [
        "▁=",
        -10.166899603238003
      ],
      [
        "▁lūdz",
        -10.167140466199603
      ],
      [
        "▁futbola",
        -10.16807492272027
      ],
      [
        "▁gaidīt",
        -10.168392450791666
      ],
      [
        "е",
        -10.168926216548773
      ],
      [
        "klāj",
        -10.169393742158256
      ],
      [
        "km",
        -10.169641561437485
      ],
      [
        "▁nodrošinot",
        -10.169646506844526
      ],
      [
        "▁ārstu",
        -10.169759818579855
      ],
      [
        "▁'",
        -10.169887983706323
      ],
      [
        "vei",
        -10.169934671755815
      ],
      [
        "▁faktiski",
        -10.170043966793635
      ],
      [
        "▁funkcijas",
        -10.170277744752205
      ],
      [
        "▁nodarbības",
        -10.170995993234357
      ],
      [
        "▁attieksme",
        -10.171220842884509
      ],
      [
        "ājam",
        -10.171569064417946
      ],
      [
        "▁brīvā",
        -10.171833724079772
      ],
      [
        "ītis",
        -10.172655679638435
      ],
      [
        "oni",
        -10.172869140299056
      ],
      [
        "▁noteikts",
        -10.173560556720052
      ],
      [
        "▁Datu",
        -10.174170886935126
      ],
      [
        "▁japāna",
        -10.174385779434711
      ],
      [
        "▁āda",
        -10.174574619329928
      ],
      [
        "kos",
        -10.174645506624962
      ],
      [
        "▁daudzums",
        -10.17515470063838
      ],
      [
        "▁riepas",
        -10.175543775844094
      ],
      [
        "[",
        -10.175582027617292
      ],
      [
        "▁materiāls",
        -10.17564646241221
      ],
      [
        "▁spēka",
        -10.175895175999901
      ],
      [
        "▁portālā",
        -10.175965352097364
      ],
      [
        "šķī",
        -10.176357813827256
      ],
      [
        "▁celt",
        -10.176530237772562
      ],
      [
        "▁kopīgi",
        -10.176718514718921
      ],
      [
        "▁vēsturē",
        -10.176742035443784
      ],
      [
        "▁sniegs",
        -10.176916819260597
      ],
      [
        "TM",
        -10.177521027199354
      ],
      [
        "▁izstādē",
        -10.177547345327149
      ],
      [
        "28",
        -10.178452269175672
      ],
      [
        "iski",
        -10.178583402918601
      ],
      [
        "▁NE",
        -10.178671260085906
      ],
      [
        "▁“P",
        -10.178782321104446
      ],
      [
        "pr",
        -10.179211025585616
      ],
      [
        "▁virsmas",
        -10.179329568953671
      ],
      [
        "▁personai",
        -10.179909572636728
      ],
      [
        "īta",
        -10.180009638915777
      ],
      [
        "▁versiju",
        -10.180102174690582
      ],
      [
        "▁Vakar",
        -10.180126394775314
      ],
      [
        "▁Viesnīcas",
        -10.180326180508564
      ],
      [
        "ide",
        -10.180604431854666
      ],
      [
        "▁mājaslapā",
        -10.180725711671661
      ],
      [
        "▁saņemtu",
        -10.181018361876966
      ],
      [
        "ok",
        -10.181130852440525
      ],
      [
        "van",
        -10.181244947014195
      ],
      [
        "āka",
        -10.18138105796128
      ],
      [
        "▁zāle",
        -10.181459486063336
      ],
      [
        "āku",
        -10.181471197184592
      ],
      [
        "▁tīkla",
        -10.182199435199022
      ],
      [
        "▁Mani",
        -10.182248819096252
      ],
      [
        "▁gatava",
        -10.182366906311508
      ],
      [
        "▁apjomu",
        -10.1824144614536
      ],
      [
        "▁finansējuma",
        -10.182591509040428
      ],
      [
        "▁augstāk",
        -10.182992102804647
      ],
      [
        "▁ievad",
        -10.183297502739393
      ],
      [
        "▁šāds",
        -10.18390233550426
      ],
      [
        "Aicinām",
        -10.183910312500622
      ],
      [
        "▁noskatīties",
        -10.18391267755754
      ],
      [
        "ld",
        -10.183923429156941
      ],
      [
        "▁mamma",
        -10.18393605654726
      ],
      [
        "lam",
        -10.184667562821275
      ],
      [
        "ciet",
        -10.185197040242645
      ],
      [
        "ušās",
        -10.185886818814346
      ],
      [
        "▁vietās",
        -10.185903661606169
      ],
      [
        "▁uzdevumu",
        -10.186092957837145
      ],
      [
        "▁bo",
        -10.186150563433745
      ],
      [
        "▁meitenes",
        -10.186746688262028
      ],
      [
        "sil",
        -10.186927755499422
      ],
      [
        "▁gadiem,",
        -10.187075337183858
      ],
      [
        "▁datora",
        -10.187165037186041
      ],
      [
        "▁atzina",
        -10.187326523953356
      ],
      [
        "▁“A",
        -10.187381051909593
      ],
      [
        "▁Teātris",
        -10.1876345125861
      ],
      [
        "▁pārstāvis",
        -10.187922592338865
      ],
      [
        "▁izveido",
        -10.188091654724664
      ],
      [
        "▁citiem!",
        -10.188270541418937
      ],
      [
        "▁jumta",
        -10.188599838603798
      ],
      [
        "▁telefonu",
        -10.188848784290434
      ],
      [
        "▁mutē",
        -10.189023569643455
      ],
      [
        "▁lielākais",
        -10.18907129218222
      ],
      [
        "zem",
        -10.189425828605152
      ],
      [
        "▁izmēra",
        -10.189552358221864
      ],
      [
        "▁atšķiras",
        -10.189569501044634
      ],
      [
        "▁domu",
        -10.189747162459774
      ],
      [
        "▁prasībām",
        -10.189765162857649
      ],
      [
        "▁2011.",
        -10.189800297391876
      ],
      [
        "eta",
        -10.190015285281323
      ],
      [
        "Vides",
        -10.190226776716528
      ],
      [
        "len",
        -10.190455413233305
      ],
      [
        "▁laukums",
        -10.19068808804088
      ],
      [
        "ger",
        -10.19075676209619
      ],
      [
        "▁nonāk",
        -10.19102811914676
      ],
      [
        "▁normatīvaj",
        -10.191124481235766
      ],
      [
        "▁biedru",
        -10.191586471059969
      ],
      [
        "▁Ga",
        -10.19160294714522
      ],
      [
        "pas",
        -10.191674141493628
      ],
      [
        "▁strauji",
        -10.191924668986822
      ],
      [
        "▁uzlabotu",
        -10.191974387943379
      ],
      [
        "▁soli",
        -10.192080019969723
      ],
      [
        "▁kausa",
        -10.19234565122773
      ],
      [
        "▁reti",
        -10.192534704878668
      ],
      [
        "ster",
        -10.192650485637996
      ],
      [
        "▁(5",
        -10.19284255278613
      ],
      [
        "▁pretī",
        -10.193195899423884
      ],
      [
        "lēm",
        -10.193291410563509
      ],
      [
        "ošu",
        -10.193746093266478
      ],
      [
        "▁skaidrs,",
        -10.193783438732838
      ],
      [
        "▁fotogrāfijas",
        -10.194226625888124
      ],
      [
        "ēti",
        -10.195052105574387
      ],
      [
        "▁uzņēmumā",
        -10.195212073884917
      ],
      [
        "▁klasē",
        -10.19542090722518
      ],
      [
        "▁nevaru",
        -10.195917253118226
      ],
      [
        "▁atbildi",
        -10.196153987928856
      ],
      [
        "▁Sal",
        -10.196325233192756
      ],
      [
        "▁algu",
        -10.196454987476232
      ],
      [
        "▁diemžēl",
        -10.196761472310559
      ],
      [
        "▁finansējums",
        -10.19686084390046
      ],
      [
        "▁padomi",
        -10.19711453997412
      ],
      [
        "▁skan",
        -10.197416453290181
      ],
      [
        "ģe",
        -10.19758719401915
      ],
      [
        "▁Tiesa",
        -10.197902649904767
      ],
      [
        "▁mēbeles",
        -10.19795838125833
      ],
      [
        "▁Be",
        -10.197973421931628
      ],
      [
        "▁izmantošanu",
        -10.197996963904115
      ],
      [
        "▁ass",
        -10.198068579359134
      ],
      [
        "▁papildināt",
        -10.198239620440223
      ],
      [
        "▁zāļu",
        -10.198398268139782
      ],
      [
        "ron",
        -10.19842500146677
      ],
      [
        "▁st",
        -10.198519871523779
      ],
      [
        "8.",
        -10.198818207644223
      ],
      [
        "▁dodas",
        -10.198883905605237
      ],
      [
        "das",
        -10.198885639319068
      ],
      [
        "▁400",
[...]
