{
  "version": "1.0",
  "truncation": null,
  "padding": null,
  "added_tokens": [
    {
      "id": 0,
      "content": "[UNK]",
      "single_word": false,
      "lstrip": false,
      "rstrip": false,
      "normalized": false,
      "special": true
    },
    {
      "id": 1,
      "content": "[CLS]",
      "single_word": false,
      "lstrip": false,
      "rstrip": false,
      "normalized": false,
      "special": true
    },
    {
      "id": 2,
      "content": "[SEP]",
      "single_word": false,
      "lstrip": false,
      "rstrip": false,
      "normalized": false,
      "special": true
    },
    {
      "id": 3,
      "content": "[PAD]",
      "single_word": false,
      "lstrip": false,
      "rstrip": false,
      "normalized": false,
      "special": true
    },
    {
      "id": 4,
      "content": "[MASK]",
      "single_word": false,
      "lstrip": false,
      "rstrip": false,
      "normalized": false,
      "special": true
    }
  ],
  "normalizer": {
    "type": "Sequence",
    "normalizers": [
      {
        "type": "Nmt"
      },
      {
        "type": "NFKC"
      },
      {
        "type": "Replace",
        "pattern": {
          "Regex": " {2,}"
        },
        "content": " "
      }
    ]
  },
  "pre_tokenizer": {
    "type": "Metaspace",
    "replacement": "▁",
    "prepend_scheme": "always",
    "split": true
  },
  "post_processor": null,
  "decoder": {
    "type": "Metaspace",
    "replacement": "▁",
    "prepend_scheme": "always",
    "split": true
  },
  "model": {
    "type": "Unigram",
    "unk_id": null,
    "vocab": [
      [
        "[UNK]",
        0.0
      ],
      [
        "[CLS]",
        0.0
      ],
      [
        "[SEP]",
        0.0
      ],
      [
        "[PAD]",
        0.0
      ],
      [
        "[MASK]",
        0.0
      ],
      [
        "▁",
        -2.9181233329847682
      ],
      [
        "▁।",
        -3.4560412958509144
      ],
      [
        "को",
        -3.7855130463064963
      ],
      [
        ",",
        -4.342343657261091
      ],
      [
        "▁र",
        -4.3674024768732185
      ],
      [
        "मा",
        -4.449429177313048
      ],
      [
        "ले",
        -4.5243750940437195
      ],
      [
        "▁छ",
        -4.541714230362009
      ],
      [
        "का",
        -4.780656018465196
      ],
      [
        "लाई",
        -5.019187127968685
      ],
      [
        "▁पनि",
        -5.0707809560126265
      ],
      [
        "▁भएको",
        -5.2873482069222995
      ],
      [
        "▁लागि",
        -5.468198366454654
      ],
      [
        "▁गरेको",
        -5.624904883712002
      ],
      [
        "▁गर्न",
        -5.6566907340898105
      ],
      [
        "▁छन्",
        -5.6651934761225
      ],
      [
        "▁गर्ने",
        -5.675472796260422
      ],
      [
        "▁हो",
        -5.787206442006507
      ],
      [
        "▁तथा",
        -5.836130207959368
      ],
      [
        "बाट",
        -5.857335534959407
      ],
      [
        "▁यो",
        -5.886704285446859
      ],
      [
        "▁नेपाल",
        -5.891569999184188
      ],
      [
        "▁भने",
        -5.927526057283753
      ],
      [
        "▁एक",
        -5.936856989495233
      ],
      [
        "▁हुने",
        -6.075133656791349
      ],
      [
        "।",
        -6.151810205901331
      ],
      [
        "▁नेपाली",
        -6.154976686975846
      ],
      [
        "’",
        -6.162508877263965
      ],
      [
        "▁नै",
        -6.162872399405773
      ],
      [
        "▁थियो",
        -6.242307638257074
      ],
      [
        "▁रहेको",
        -6.269821731789111
      ],
      [
        "...",
        -6.285534409501887
      ],
      [
        "र",
        -6.346784556840998
      ],
      [
        "▁?",
        -6.352707358380346
      ],
      [
        "▁गरेका",
        -6.382063537792998
      ],
      [
        "▁छ।",
        -6.385119134276488
      ],
      [
        "▁काम",
        -6.392955476713423
      ],
      [
        "न",
        -6.418160889510736
      ],
      [
        ")",
        -6.470448996370674
      ],
      [
        "▁उनले",
        -6.486002604077775
      ],
      [
        "▁गरिएको",
        -6.528914244614731
      ],
      [
        "▁तर",
        -6.574865499404744
      ],
      [
        "▁गर्दै",
        -6.585739167568791
      ],
      [
        "े",
        -6.590891668088757
      ],
      [
        "▁:",
        -6.622987258952227
      ],
      [
        "▁त",
        -6.645010435928093
      ],
      [
        "▁‘",
        -6.6503347217142785
      ],
      [
        "▁भन्ने",
        -6.651166871308453
      ],
      [
        "▁आफ्नो",
        -6.677561275704065
      ],
      [
        "▁हजार",
        -6.679791419405515
      ],
      [
        "▁दिन",
        -6.679914609734473
      ],
      [
        "▁गरी",
        -6.680139965414714
      ],
      [
        "▁दुई",
        -6.684955336710411
      ],
      [
        "▁भएका",
        -6.685640287582489
      ],
      [
        "▁नयाँ",
        -6.6927744418156525
      ],
      [
        "▁हुन",
        -6.703519148669351
      ],
      [
        "ा",
        -6.710858294379143
      ],
      [
        "▁कुरा",
        -6.718353159048448
      ],
      [
        "▁_",
        -6.746687733528198
      ],
      [
        "▁मा",
        -6.7484569441123465
      ],
      [
        "ी",
        -6.765875433323016
      ],
      [
        "▁केही",
        -6.767810570525789
      ],
      [
        "▁सबै",
        -6.788770474195051
      ],
      [
        "▁१",
        -6.797939059503122
      ],
      [
        "▁काठमाडौं",
        -6.80266956925319
      ],
      [
        "▁म",
        -6.808170284940166
      ],
      [
        "▁थिए",
        -6.809136154273878
      ],
      [
        "▁अध्यक्ष",
        -6.81354950522279
      ],
      [
        "▁हुन्छ",
        -6.8283634677757075
      ],
      [
        "▁प्रदेश",
        -6.838347404242803
      ],
      [
        "▁धेरै",
        -6.850803469056055
      ],
      [
        "▁२",
        -6.856628725955121
      ],
      [
        "▁प्रधानमन्त्री",
        -6.858962135297622
      ],
      [
        "▁के",
        -6.85984159387014
      ],
      [
        "▁जानकारी",
        -6.862498627751453
      ],
      [
        "▁आज",
        -6.875612545919287
      ],
      [
        "▁(",
        -6.884056530850957
      ],
      [
        "▁कुनै",
        -6.888794906485604
      ],
      [
        "▁लाख",
        -6.891761810716547
      ],
      [
        "▁कारण",
        -6.912969745476422
      ],
      [
        "▁–",
        -6.919295403933342
      ],
      [
        ":",
        -6.924132100893875
      ],
      [
        "▁यस",
        -6.931551068912951
      ],
      [
        "▁हाम्रो",
        -6.931933740431399
      ],
      [
        "▁-",
        -6.9403890283033896
      ],
      [
        "▁गते",
        -6.947197247174826
      ],
      [
        "▁वर्ष",
        -6.947488754496533
      ],
      [
        "सँग",
        -6.949821049838439
      ],
      [
        "▁प्रहरी",
        -6.949987810779689
      ],
      [
        "▁सय",
        -6.960041519910218
      ],
      [
        "▁छैन",
        -6.967459259024226
      ],
      [
        "-",
        -6.96925616370239
      ],
      [
        "▁जिल्ला",
        -6.974335383454738
      ],
      [
        "▁रुपमा",
        -6.998723713568797
      ],
      [
        "▁पहिलो",
        -7.002562137440309
      ],
      [
        "ो",
        -7.004022446052467
      ],
      [
        "▁मात्र",
        -7.009187338909506
      ],
      [
        "▁प्रमुख",
        -7.01992703129922
      ],
      [
        "▁राष्ट्रिय",
        -7.0232452536159204
      ],
      [
        "▁सरकारले",
        -7.024149930539394
      ],
      [
        "▁विकास",
        -7.0279967330229915
      ],
      [
        "▁कार्यक्रम",
        -7.0308674010920456
      ],
      [
        "▁अहिले",
        -7.03213323779867
      ],
      [
        "▁५",
        -7.034274485207012
      ],
      [
        "ै",
        -7.039911246868346
      ],
      [
        "▁स्थानीय",
        -7.04138470064194
      ],
      [
        "▁३",
        -7.043141872188404
      ],
      [
        "▁निर्माण",
        -7.044834918175477
      ],
      [
        "हरु",
        -7.045218867504607
      ],
      [
        "▁बढी",
        -7.046908313592809
      ],
      [
        "▁जना",
        -7.064057113449826
      ],
      [
        "▁वा",
        -7.0700925093523335
      ],
      [
        "▁भए",
        -7.093546377228575
      ],
      [
        "▁गरेर",
        -7.103734873773764
      ],
      [
        "▁यस्तो",
        -7.117794198533025
      ],
      [
        "▁आएको",
        -7.1219208819429465
      ],
      [
        "▁१०",
        -7.127862883301507
      ],
      [
        "▁समेत",
        -7.128402144187238
      ],
      [
        "▁हुन्",
        -7.139264446486656
      ],
      [
        "–",
        -7.148515523707053
      ],
      [
        "▁मृत्यु",
        -7.153063881864902
      ],
      [
        "▁अनुसार",
        -7.153684959159515
      ],
      [
        "▁अब",
        -7.164183825250172
      ],
      [
        "▁पार्टी",
        -7.170127256394933
      ],
      [
        "क",
        -7.170884524557151
      ],
      [
        "▁सार्वजनिक",
        -7.180878907739409
      ],
      [
        "कै",
        -7.181577346924001
      ],
      [
        "▁समय",
        -7.204856466770522
      ],
      [
        "▁विभिन्न",
        -7.207851133589866
      ],
      [
        "▁त्यो",
        -7.210541013776298
      ],
      [
        "▁६",
        -7.223701660151521
      ],
      [
        "▁रहेका",
        -7.230181737868515
      ],
      [
        "▁!",
        -7.232348943325395
      ],
      [
        "▁४",
        -7.236603509570109
      ],
      [
        "▁सेवा",
        -7.240574625266817
      ],
      [
        "▁एउटा",
        -7.249839393697309
      ],
      [
        "▁कार्यालय",
        -7.255353377100905
      ],
      [
        "▁भन्दै",
        -7.258781584692882
      ],
      [
        "▁गरे",
        -7.259196429842941
      ],
      [
        ".",
        -7.267833158849008
      ],
      [
        "की",
        -7.2698378814324265
      ],
      [
        "▁निर्वाचन",
        -7.272526893527509
      ],
      [
        "▁भयो",
        -7.285498746706562
      ],
      [
        "▁तीन",
        -7.285699173915226
      ],
      [
        "▁छन्।",
        -7.286108150140739
      ],
      [
        "▁बताए",
        -7.297631403559787
      ],
      [
        "▁सुरु",
        -7.29866335150559
      ],
      [
        "▁घर",
        -7.302104201492908
      ],
      [
        "पछि",
        -7.310465286007382
      ],
      [
        "▁आर्थिक",
        -7.311329553459627
      ],
      [
        "▁मेरो",
        -7.313767015236566
      ],
      [
        "▁गर्दा",
        -7.314690275832836
      ],
      [
        "▁उक्त",
        -7.324449901463376
      ],
      [
        "▁प्रयोग",
        -7.336944396760483
      ],
      [
        "▁बारेमा",
        -7.337554892261473
      ],
      [
        "▁समस्या",
        -7.339989520587572
      ],
      [
        "▁हामी",
        -7.359576511125471
      ],
      [
        "हरू",
        -7.360718288998049
      ],
      [
        "▁दिने",
        -7.362706262595349
      ],
      [
        "▁सरकार",
        -7.363007677077983
      ],
      [
        "▁क्षेत्रमा",
        -7.36515679280066
      ],
      [
        "▁उनको",
        -7.367581860522282
      ],
      [
        "▁भन्दा",
        -7.368472783421392
      ],
      [
        "▁करोड",
        -7.37579410793664
      ],
      [
        "▁सम्पन्न",
        -7.377717873529749
      ],
      [
        "▁७",
        -7.388386526437971
      ],
      [
        "▁अन्य",
        -7.40135867430587
      ],
      [
        "▁निर्णय",
        -7.401469823026371
      ],
      [
        "▁नेता",
        -7.40561452826403
      ],
      [
        "▁उनी",
        -7.409065069785671
      ],
      [
        "▁पक्राउ",
        -7.411557475263825
      ],
      [
        "▁आयोजना",
        -7.4124433624819535
      ],
      [
        "▁सहयोग",
        -7.433415968474927
      ],
      [
        "▁जनाएको",
        -7.456534618127238
      ],
      [
        "▁समाचार",
        -7.458470610244682
      ],
      [
        "▁पटक",
        -7.463574403562127
      ],
      [
        "▁नेपालको",
        -7.479209976247862
      ],
      [
        "ि",
        -7.483747320691524
      ],
      [
        "▁यी",
        -7.486325827964341
      ],
      [
        "▁सूचना",
        -7.486331441923401
      ],
      [
        "स",
        -7.48746272653468
      ],
      [
        "▁भनेर",
        -7.489584132020541
      ],
      [
        "▁गर्नु",
        -7.492057817144142
      ],
      [
        "▁सो",
        -7.4945073642828905
      ],
      [
        "▁कि",
        -7.498795746087831
      ],
      [
        "▁महिला",
        -7.499661898279506
      ],
      [
        "▁व्यवस्था",
        -7.5016877099941635
      ],
      [
        "▁माग",
        -7.505985963167333
      ],
      [
        "मै",
        -7.510322446522441
      ],
      [
        "▁देखि",
        -7.514321514499583
      ],
      [
        "▁स्वास्थ्य",
        -7.514416037375135
      ],
      [
        "▁अघि",
        -7.519662164584901
      ],
      [
        "▁प्रतिशत",
        -7.524187687025089
      ],
      [
        "▁मैले",
        -7.542216698547646
      ],
      [
        "▁मन्त्री",
        -7.547265889224768
      ],
      [
        "▁क्षेत्र",
        -7.549267348825596
      ],
      [
        "देखि",
        -7.549797125733734
      ],
      [
        "भन्दा",
        -7.559486426915065
      ],
      [
        "▁दिएको",
        -7.566172306588276
      ],
      [
        "▁“",
        -7.5716196188796925
      ],
      [
        "ल",
        -7.577531270764023
      ],
      [
        "'",
        -7.586311908190778
      ],
      [
        "▁प्राप्त",
        -7.5961523975884795
      ],
      [
        "▁रुपैयाँ",
        -7.597474702345028
      ],
      [
        "▁नेपालमा",
        -7.599488688300836
      ],
      [
        "त",
        -7.612989655589102
      ],
      [
        "▁वटा",
        -7.622519032460081
      ],
      [
        "▁१५",
        -7.631805366907548
      ],
      [
        "▁पर्ने",
        -7.6324026781132694
      ],
      [
        "म",
        -7.633887149151118
      ],
      [
        "▁।’",
        -7.639823431078197
      ],
      [
        "▁माओवादी",
        -7.642534586500336
      ],
      [
        "▁थप",
        -7.645942066554477
      ],
      [
        "ु",
        -7.646498030176721
      ],
      [
        "▁गर्नुहोस्",
        -7.647129826905113
      ],
      [
        "सम्म",
        -7.647778267808139
      ],
      [
        "▁२०",
        -7.648080930301484
      ],
      [
        "▁सदस्य",
        -7.649723850017068
      ],
      [
        "▁तर,",
        -7.651181173213608
      ],
      [
        "▁९",
        -7.651493674121982
      ],
      [
        "▁८",
        -7.65770895338359
      ],
      [
        "▁१२",
        -7.659189003822036
      ],
      [
        "/",
        -7.6631637135659165
      ],
      [
        "▁राम्रो",
        -7.663968840189202
      ],
      [
        "▁लागेको",
        -7.673763219499747
      ],
      [
        "▁काठमाडौँ",
        -7.674284130311781
      ],
      [
        "▁हो।",
        -7.676683824806128
      ],
      [
        "▁रूपमा",
        -7.678535059430436
      ],
      [
        "▁ठूलो",
        -7.681951758485358
      ],
      [
        "▁मलाई",
        -7.687356263617023
      ],
      [
        "▁...",
        -7.689607438541589
      ],
      [
        "▁भने,",
        -7.6914313597817205
      ],
      [
        "▁११",
        -7.702338982604569
      ],
      [
        "▁दोस्रो",
        -7.704131986793428
      ],
      [
        "▁कसरी",
        -7.704635811179196
      ],
      [
        "▁यहाँ",
        -7.711047374481604
      ],
      [
        "▁मन",
        -7.713937969174493
      ],
      [
        "▁योजना",
        -7.7233596116846535
      ],
      [
        "▁भिडियो",
        -7.724025545190782
      ],
      [
        "▁कार्यक्रममा",
        -7.727579716246014
      ],
      [
        "▁जारी",
        -7.728111364479123
      ],
      [
        "▁संविधान",
        -7.728470475211948
      ],
      [
        "▁क्रममा",
        -7.730665129679023
      ],
      [
        "▁सन्",
        -7.733817569558143
      ],
      [
        "▁प्रहरीले",
        -7.734645952710274
      ],
      [
        "▁कम",
        -7.745879901765324
      ],
      [
        "्",
        -7.74682152419618
      ],
      [
        "▁मात्रै",
        -7.747679017525455
      ],
      [
        "▁उहाँले",
        -7.747930377098328
      ],
      [
        "▁बनाउन",
        -7.749416892675997
      ],
      [
        "▁वडा",
        -7.751466431994931
      ],
      [
        "▁नाम",
        -7.75223268377966
      ],
      [
        "▁सामाजिक",
        -7.755760808128086
      ],
      [
        "▁पाँच",
        -7.75732455623557
      ],
      [
        "▁अवस्था",
        -7.757930807284517
      ],
      [
        "▁घोषणा",
        -7.773146994074919
      ],
      [
        "▁राजनीतिक",
        -7.77728683262006
      ],
      [
        "▁सडक",
        -7.7793948243379045
      ],
      [
        "▁आवश्यक",
        -7.780939179842594
      ],
      [
        "▁सञ्चालन",
        -7.786078366492111
      ],
      [
        "▁गएको",
        -7.790838637520274
      ],
      [
        "▁विषयमा",
        -7.79188746208402
      ],
      [
        "▁तयारी",
        -7.7922520593177325
      ],
      [
        "▁थियो।",
        -7.793939218708845
      ],
      [
        "▁भारतीय",
        -7.799357049728407
      ],
      [
        "▁चार",
        -7.799841067864884
      ],
      [
        "▁अर्को",
        -7.8050621270094815
      ],
      [
        "▁आएका",
        -7.808133888648296
      ],
      [
        "▁मत",
        -7.810046499102887
      ],
      [
        "▁प्रतिक्रिया",
        -7.810970420987887
      ],
      [
        "सहित",
        -7.81162794946696
      ],
      [
        "▁'",
        -7.8132271360877485
      ],
      [
        "▁डा.",
        -7.815411542580446
      ],
      [
        "▁किन",
        -7.815992461042123
      ],
      [
        "▁साथ",
        -7.8209758189965655
      ],
      [
        "सँगै",
        -7.824557727541064
      ],
      [
        "▁खेल",
        -7.8280055528836865
      ],
      [
        "▁देश",
        -7.830153769951707
      ],
      [
        "▁दर्ता",
        -7.830906639069365
      ],
      [
        "▁रकम",
        -7.831600760322251
      ],
      [
        "▁नेकपा",
        -7.833947322307528
      ],
      [
        "▁दिए",
        -7.836653121270473
      ],
      [
        "▁अगाडि",
        -7.837062091687715
      ],
      [
        "▁गत",
        -7.839257616641172
      ],
      [
        "▁पछि",
        -7.839367016523637
      ],
      [
        "▁पूर्व",
        -7.840146975500213
      ],
      [
        "ः",
        -7.842550340891632
      ],
      [
        "▁बनाउने",
        -7.847120276625157
      ],
      [
        "▁आउने",
        -7.853545397215278
      ],
      [
        "▁हुँदा",
        -7.857987890662635
      ],
      [
        "▁खर्च",
        -7.86224665290832
      ],
      [
        "▁काठमाडौं,",
        -7.8623923386890535
      ],
      [
        "”",
        -7.863746503415529
      ],
      [
        "▁गीत",
        -7.865107063951488
      ],
      [
        "▁एमाले",
        -7.865562154741745
      ],
      [
        "▁शिक्षा",
        -7.874167019440531
      ],
      [
        "▁२५",
        -7.878248699702084
      ],
      [
        "▁भएर",
        -7.884774177765667
      ],
      [
        "▁समिति",
        -7.893797748846371
      ],
      [
        "▁छलफल",
        -7.893938981781432
      ],
      [
        "▁उत्पादन",
        -7.895797501819562
      ],
      [
        "हरुको",
        -7.89658742660197
      ],
      [
        "▁तयार",
        -7.897011556271231
      ],
      [
        "▁हुँदै",
        -7.898145444655169
      ],
      [
        "▁परेको",
        -7.898672487299468
      ],
      [
        "▁बन्द",
        -7.898916432465464
      ],
      [
        "▁कार्य",
        -7.904494571161344
      ],
      [
        "ँ",
        -7.910733612314004
      ],
      [
        "▁घाइते",
        -7.910807132259784
      ],
      [
        "▁राष्ट्रपति",
        -7.911321916443587
      ],
      [
        "स्थित",
        -7.916211923285601
      ],
      [
        "▁अर्ब",
        -7.918226096769093
      ],
      [
        "▁बेला",
        -7.919514824279938
      ],
      [
        "▁अनि",
        -7.923214911974798
      ],
      [
        "▁पूरा",
        -7.925030137363217
      ],
      [
        "▁जनाको",
        -7.928019482465176
      ],
      [
        "▁मूल्य",
        -7.928216020896704
      ],
      [
        "▁अवस्थामा",
        -7.928462618688295
      ],
      [
        "▁बताएका",
        -7.92960884570569
      ],
      [
        "▁नम्बर",
        -7.9338309320477425
      ],
      [
        "▁ओली",
        -7.934380180051971
      ],
      [
        "▁जाने",
        -7.938838616776884
      ],
      [
        "▁भएपछि",
        -7.943993358088143
      ],
      [
        "▁भइरहेको",
        -7.944909275565868
      ],
      [
        "▁सबैभन्दा",
        -7.948057934360273
      ],
      [
        "▁हुनेछ",
        -7.948593975777113
      ],
      [
        "▁कृषि",
        -7.949163942225816
      ],
      [
        "▁चलचित्र",
        -7.949183739846633
      ],
      [
        "▁५०",
        -7.950524740966323
      ],
      [
        "▁छ,",
        -7.953325180929342
      ],
      [
        "समेत",
        -7.954023525228772
      ],
      [
        "▁लगानी",
        -7.958576250044379
      ],
      [
        "▁सुरक्षा",
        -7.963812897984308
      ],
      [
        "▁सरकारको",
        -7.964229794244824
      ],
      [
        "▁थाहा",
        -7.9674966762230195
      ],
      [
        "ित",
        -7.971347187220871
      ],
      [
        "▁३०",
        -7.972267030215535
      ],
      [
        "माथि",
        -7.97940449284518
      ],
      [
        "▁हामीले",
        -7.980410576132375
      ],
      [
        "▁फिल्म",
        -7.980647373602002
      ],
      [
        "▁नगरपालिका",
        -7.982883422898269
      ],
      [
        "▁उल्लेख",
        -7.987658172824695
      ],
      [
        "▁कति",
        -7.987757397982875
      ],
      [
        "▁पत्रकार",
        -7.989341644897275
      ],
      [
        "▁रु",
        -7.992061431519254
      ],
      [
        "▁विश्व",
        -7.9939645925470035
      ],
      [
        "▁निकै",
        -7.995238503357703
      ],
      [
        "▁मुख्य",
        -7.996415278468248
      ],
      [
        "▁घटना",
        -7.996575739514006
      ],
      [
        "बारे",
        -7.998951972354455
      ],
      [
        "▁विशेष",
        -7.99944633263914
      ],
      [
        "▁बैठक",
        -8.000590026634269
      ],
      [
        "▁सफल",
        -8.004135452796652
      ],
      [
        "द्वारा",
        -8.004358177840558
      ],
      [
        "▁भारत",
        -8.007847347600533
      ],
      [
        "▁नागरिक",
        -8.00832071865242
      ],
      [
        "▁साथै",
        -8.009019856684585
      ],
      [
        "▁अन्तर्राष्ट्रिय",
        -8.01430137568285
      ],
      [
        "▁बताउनुभयो",
        -8.01634643128265
      ],
      [
        "▁अन्तिम",
        -8.016936314099791
      ],
      [
        "▁१३",
        -8.019174144327076
      ],
      [
        "▁सक्ने",
        -8.025534343668422
      ],
      [
        "▁२०७५",
        -8.032075780913395
      ],
      [
        "▁गरिने",
        -8.032942273204846
      ],
      [
        "य",
        -8.034234909861446
      ],
      [
        "▁समयमा",
        -8.034774735320985
      ],
      [
        "▁विद्यार्थी",
        -8.036313878978993
      ],
      [
        "▁यसको",
        -8.039241959690328
      ],
      [
        "▁सम्पर्क",
        -8.045667208059374
      ],
      [
        "▁खेलमा",
        -8.055104851566742
      ],
      [
        "▁शर्मा",
        -8.057569655043954
      ],
      [
        "▁१४",
        -8.057739393770106
      ],
      [
        "▁२०७४",
        -8.061614175100441
      ],
      [
        "छ",
        -8.063422641796798
      ],
      [
        "▁१८",
        -8.069363864090217
      ],
      [
        "▁थिए।",
        -8.069477237639695
      ],
      [
        "▁पैसा",
        -8.073268869959964
      ],
      [
        "▁सरकारी",
        -8.073699699981056
      ],
      [
        "▁युवा",
        -8.078671815271528
      ],
      [
        "▁नेपालले",
        -8.07882306291727
      ],
      [
        "▁केन्द्रीय",
        -8.080910699530072
      ],
      [
        "▁ती",
        -8.082470563260717
      ],
      [
        "▁बजेट",
        -8.088063855617692
      ],
      [
        "ं",
        -8.089034907083262
      ],
      [
        "▁हत्या",
        -8.09416266037305
      ],
      [
        "ता",
        -8.097094223877916
      ],
      [
        "▁परेका",
        -8.09830350223333
      ],
      [
        "▁आगामी",
        -8.10047583114242
      ],
      [
        "▁जुन",
        -8.106143184069124
      ],
      [
        "हरुले",
        -8.108219416644182
      ],
      [
        "▁दिएका",
        -8.108656949838782
      ],
      [
        "▁उपचार",
        -8.111317715218314
      ],
      [
        "▁होइन",
        -8.111958258755395
      ],
      [
        "▁लिएर",
        -8.113508699943633
      ],
      [
        "▁१६",
        -8.116134242967654
      ],
      [
        "▁अस्पताल",
        -8.116259772416786
      ],
      [
        "▁नं.",
        -8.11838798316213
      ],
      [
        "▁केन्द्र",
        -8.119428794911386
      ],
      [
        "▁जस्तो",
        -8.121578247356368
      ],
      [
        "▁शेयर",
        -8.12212619786177
      ],
      [
        "▁एवं",
        -8.123972892357038
      ],
      [
        "▁हरेक",
        -8.123998553580423
      ],
      [
        "▁करिब",
        -8.12486522563271
      ],
      [
        "▁नीति",
        -8.125345175968036
      ],
      [
        "▁भएकाले",
        -8.127710699481808
      ],
      [
        "▁जीवन",
        -8.128153736004526
      ],
      [
        "▁विषय",
        -8.130925431495601
      ],
      [
        "?",
        -8.134417886811995
      ],
      [
        "▁छु",
        -8.144107849075342
      ],
      [
        "▁यसरी",
        -8.149087604999943
      ],
      [
        "▁केपी",
        -8.150151368587824
      ],
      [
        "▁लामो",
        -8.152621513654413
      ],
      [
        "▁प्रदान",
        -8.153017449855614
      ],
      [
        "▁अध्ययन",
        -8.154230250826759
      ],
      [
        "▁बुधबार",
        -8.154341930811233
      ],
      [
        "▁अनुसन्धान",
        -8.154621303105689
      ],
      [
        "▁यही",
        -8.154650028913116
      ],
      [
        "▁शुरु",
        -8.156337293439526
      ],
      [
        "▁अधिकार",
        -8.15755934427776
      ],
      [
        "▁सहभागी",
        -8.158961261694708
      ],
      [
        "▁स्थानमा",
        -8.161190318358573
      ],
      [
        "▁माघ",
        -8.161469253516172
      ],
      [
        "▁नं",
        -8.162383373374102
      ],
      [
        "▁सकिन्छ",
        -8.162543559099618
      ],
      [
        "▁स्थापना",
        -8.1647660439164
      ],
      [
        "▁एकता",
        -8.164817754074056
      ],
      [
        "▁परिवर्तन",
        -8.166063808377048
      ],
      [
        "▁खबर",
        -8.168164982766019
      ],
      [
        "▁१७",
        -8.16926900916362
      ],
      [
        "▁यस्ता",
        -8.170684175770628
      ],
      [
        "▁आग्रह",
        -8.171856780852318
      ],
      [
        "▁सहमति",
        -8.173461660295878
      ],
      [
        "▁सम्म",
        -8.17351739251149
      ],
      [
        "▁उपलब्ध",
        -8.174740926749802
      ],
      [
        "▁साउन",
        -8.180844649409917
      ],
      [
        "▁पछिल्लो",
        -8.186495546282648
      ],
      [
        "▁पुगेको",
        -8.188957700272494
      ],
      [
        "▁अझै",
        -8.190093557205827
      ],
      [
        "▁बिहान",
        -8.192271765792222
      ],
      [
        "▁गर्नुपर्ने",
        -8.19228724433721
      ],
      [
        "▁उच्च",
        -8.196843688485927
      ],
      [
        "▁पानी",
        -8.197874128455712
      ],
      [
        "▁दैनिक",
        -8.198553825168103
      ],
      [
        "▁राष्ट्र",
        -8.19953081129013
      ],
      [
        "प",
        -8.200474672503072
      ],
      [
        "▁संयुक्त",
        -8.200989701607998
      ],
      [
        "▁उद्योग",
        -8.20448666024397
      ],
      [
        "बीच",
        -8.204898660188121
      ],
      [
        "▁असोज",
        -8.205984659840368
      ],
      [
        "▁दुवै",
        -8.208835108938738
      ],
      [
        "▁आजको",
        -8.209575452310323
      ],
      [
        "▁होला",
        -8.210237517236804
      ],
      [
        "▁निर्देशन",
        -8.210922337528293
      ],
      [
        "▁तपाईको",
        -8.211587565657993
      ],
      [
        "▁सोमबार",
        -8.211734960454434
      ],
      [
        "▁प्रस्ताव",
        -8.21261728877655
      ],
      [
        "▁वर्षको",
        -8.21809599138851
      ],
      [
        "▁दल",
        -8.220526267252447
      ],
      [
        "▁पाउने",
        -8.221410755780903
      ],
      [
        "▁उनलाई",
        -8.223523111191644
      ],
      [
        "▁त्यसैले",
        -8.224185323520175
      ],
      [
        "▁जेठ",
        -8.225376000266419
      ],
      [
        "▁असार",
        -8.227682416722962
      ],
      [
        "▁आफ्नै",
        -8.228031495428866
      ],
      [
        "▁२१",
        -8.228668797917281
      ],
      [
        "▁बजे",
        -8.230106406611828
      ],
      [
        "▁१९",
        -8.23114985695919
      ],
      [
        "हरुलाई",
        -8.235059972462336
      ],
      [
        "▁सम्बन्ध",
        -8.235092712294238
      ],
      [
        "▁सक्छ",
        -8.236442830084762
      ],
      [
        "▁गठन",
        -8.239594746103949
      ],
      [
        "▁महिना",
        -8.242284417100977
      ],
      [
        "▁थापा",
        -8.251651029455287
      ],
      [
        "▁व्यवस्थापन",
        -8.255016970264315
      ],
      [
        "▁लिन",
        -8.255809960636133
      ],
      [
        "▁बनेको",
        -8.25777554806555
      ],
      [
        "▁बाँकी",
        -8.264108620493705
      ],
      [
        "▁अ",
        -8.26460307847131
      ],
      [
        "▁उम्मेदवार",
        -8.266037313114927
      ],
      [
        "▁बजारमा",
        -8.267706120074328
      ],
      [
        "▁नि",
        -8.268357496674797
      ],
      [
        "▁चुनाव",
        -8.27186359324925
      ],
      [
        "▁कर्मचारी",
        -8.273793879845782
      ],
      [
        "s",
        -8.279137818794945
      ],
      [
        "▁कर",
        -8.279184801194795
      ],
      [
        "▁हाल",
        -8.279707205158557
      ],
      [
        "▁नेपालका",
        -8.281739181513085
      ],
      [
        "▁बैंक",
        -8.28347681056968
      ],
      [
        "▁सम्बन्धित",
        -8.285656149316306
      ],
      [
        "▁दुर्घटना",
        -8.28839955820801
      ],
      [
        "▁देखिएको",
        -8.292456477334614
      ],
      [
        "▁बस",
        -8.292688009309213
      ],
      [
        "▁बजार",
        -8.293492953980206
      ],
      [
        "▁शुक्रबार",
        -8.295237256715884
      ],
      [
        "▁वितरण",
        -8.295715816537594
      ],
      [
        "▁क्रिकेट",
        -8.298400941916961
      ],
      [
        "▁२४",
        -8.298667199482987
      ],
      [
        "▁फागुन",
        -8.299843775867501
      ],
      [
        "▁आधारमा",
        -8.300325291948988
      ],
      [
        "▁सम्झौता",
        -8.301963794266735
      ],
      [
        "▁सहित",
        -8.302149578974666
      ],
      [
        "▁त्यसको",
        -8.303130088286004
      ],
      [
        "▁तपाईं",
        -8.304778101150493
      ],
      [
        "▁»",
        -8.305557692432224
      ],
      [
        "▁गाउँपालिका",
        -8.30558439712322
      ],
      [
        "▁आफ्ना",
        -8.306256330236593
      ],
      [
        "▁प्रक्रिया",
        -8.306950393284035
      ],
      [
        "▁सभा",
        -8.31067552471201
      ],
      [
        "▁प्रवेश",
        -8.313558136255507
      ],
      [
        "▁जिल्लामा",
        -8.314500958739929
      ],
      [
        "▁विश्वास",
        -8.319302782856408
      ],
      [
        "▁ओलीले",
        -8.320030050730587
      ],
      [
        "▁नभएको",
        -8.321320767009912
      ],
      [
        "▁प्रेम",
        -8.323937249876074
      ],
      [
        "▁मंसिर",
        -8.32714816030044
      ],
      [
        "▁२८",
        -8.329472834401573
      ],
      [
        "ट",
        -8.334219867687198
      ],
      [
        "▁२२",
        -8.3357843981577
      ],
      [
        "▁ज्यान",
        -8.33898949877515
      ],
      [
        "▁श्रेष्ठ",
        -8.341964114324192
      ],
      [
        "▁तेस्रो",
        -8.342883720354168
      ],
      [
        "\"",
        -8.34378474062977
      ],
      [
        "▁फेरि",
        -8.34722608184514
      ],
      [
        "▁पर्यटन",
        -8.348393351237387
      ],
      [
        "राज",
        -8.351470648916589
      ],
      [
        "प्रति",
        -8.354440995760568
      ],
      [
        "▁कांग्रेस",
        -8.361167897483282
      ],
      [
        "▁सुन",
        -8.36717434137008
      ],
      [
        "▁संघीय",
        -8.36981819021314
      ],
      [
        "▁बढेको",
        -8.37291243687713
      ],
      [
        "▁संख्या",
        -8.377034862511929
      ],
      [
        "▁२७",
        -8.382130794661101
      ],
      [
        "▁उत्तर",
        -8.3836269608486
      ],
      [
        "▁ध्यान",
        -8.384136709811871
      ],
      [
        "▁नगर",
        -8.389370780225908
      ],
      [
        "▁त्यहाँ",
        -8.390226877709729
      ],
      [
        "▁कार्यान्वयन",
        -8.391046002686057
      ],
      [
        "▁नेतृत्व",
        -8.391409769857873
      ],
      [
        "▁भनेको",
        -8.39282508607249
      ],
      [
        "▁अधिकारी",
        -8.393784970649353
      ],
      [
        "▁शक्ति",
        -8.395247778630168
      ],
      [
        "▁अरु",
        -8.395829477910215
      ],
      [
        "▁गोल",
        -8.396988608734855
      ],
      [
        "▁हुनु",
        -8.397347030212874
      ],
      [
        "▁यस्तै",
        -8.400021694935694
      ],
      [
        "▁घरमा",
        -8.403158366758996
      ],
      [
        "▁मंगलबार",
        -8.4045302949695
      ],
      [
        "▁सम्मान",
        -8.405920156342317
      ],
      [
        "▁दिनुभयो",
        -8.408058172164989
      ],
      [
        "▁पर्छ",
        -8.40951116584708
      ],
      [
        "▁पोखरा",
        -8.409812459418546
      ],
      [
        "▁प्रयास",
        -8.415015836141597
      ],
      [
        "▁प्रस्तुत",
        -8.416622124879304
      ],
      [
        "▁बस्ने",
        -8.41940484076497
      ],
      [
        "▁ठाउँमा",
        -8.419555954238684
      ],
      [
        "▁व्यक्त",
        -8.421368182993298
      ],
      [
        "▁सवारी",
        -8.421508469670881
      ],
      [
        "▁यसले",
        -8.425056676629753
      ],
      [
        "▁आइतबार",
        -8.425775627077156
      ],
      [
        "▁बाटो",
        -8.426253441591205
      ],
      [
        "▁अमेरिकी",
        -8.427937618069038
      ],
      [
        "▁सांसद",
        -8.427997777751502
      ],
      [
        "▁सम्बन्धी",
        -8.430837150887594
      ],
      [
        "▁प्रविधि",
        -8.433149088797117
      ],
      [
        "▁यसअघि",
        -8.43368224998583
      ],
      [
        "▁विश्वकप",
        -8.433990993807754
      ],
      [
        "▁कुन",
        -8.435104502367967
      ],
      [
        "▁भनाइ",
        -8.435495107843163
      ],
      [
        "▁पुस",
        -8.43807685139179
      ],
      [
        "▁२९",
        -8.438911757186068
      ],
      [
        "▁त्यही",
        -8.439667576575319
      ],
      [
        "▁विद्यालय",
        -8.441181205337065
      ],
      [
        "▁शनिबार",
        -8.441193083952541
      ],
      [
        "▁भदौ",
        -8.442681813335088
      ],
      [
        "▁लक्ष्य",
        -8.445482162422639
      ],
      [
        "▁विवरण",
        -8.447110610480252
      ],
      [
        "▁सचिव",
        -8.448400761859748
      ],
      [
        "▁२३",
        -8.449384321548182
      ],
      [
        "▁सात",
        -8.450651579963685
      ],
      [
        "▁पहिले",
        -8.452865243564506
      ],
      [
        "▁अवसरमा",
        -8.453679962367858
      ],
      [
        "▁सामान्य",
        -8.455888080027353
      ],
      [
        "▁दुर्घटनामा",
        -8.457005312244895
      ],
      [
        "▁कस्तो",
        -8.458097333554933
      ],
      [
        "▁जान",
        -8.458708800359082
      ],
      [
        "▁भूमिका",
        -8.460732050858292
      ],
      [
        "▁आरोप",
        -8.461771322776492
      ],
      [
        "▁त्यसपछि",
        -8.463224047175123
      ],
      [
        "हरूको",
        -8.464253926799786
      ],
      [
        "▁फुटबल",
        -8.464761071752553
      ],
      [
        "▁अभियान",
        -8.464916916054861
      ],
      [
        "िक",
        -8.467458607364287
      ],
      [
        "▁दक्षिण",
        -8.468588093227627
      ],
      [
        "▁सुधार",
        -8.46911939949274
      ],
      [
        "▁गरिरहेको",
        -8.469583565199814
      ],
      [
        "मध्ये",
        -8.469951549768979
      ],
      [
        "▁जनता",
        -8.47056421793771
      ],
      [
        "▁मुद्दा",
        -8.470939422158352
      ],
      [
        "लगायत",
        -8.471731392328193
      ],
      [
        "▁वर्षीय",
        -8.472226845689999
      ],
      [
        "▁गरि",
        -8.473362987399437
      ],
      [
        "▁प्रकाशित",
        -8.473528290015539
      ],
      [
        "▁वैशाख",
        -8.473710437106174
      ],
      [
        "▁सकिने",
        -8.47526312216802
      ],
      [
        "▁त्यस्तै",
        -8.476253332890447
      ],
      [
        "▁त्यस",
        -8.478208413533297
      ],
      [
        "व",
        -8.479318751778536
      ],
      [
        "▁बारे",
        -8.481486027376913
      ],
      [
        "▁अधिकृत",
        -8.482319479951187
      ],
      [
        "▁नहुने",
        -8.486098412212645
      ],
      [
        "▁मन्त्रालय",
        -8.487233015629336
      ],
      [
        "▁संघ",
        -8.48792617711975
      ],
      [
        "▁यात्रा",
        -8.488628031090428
      ],
      [
        "▁हात",
        -8.489225305066936
      ],
      [
        "▁राजधानी",
        -8.493855686412935
      ],
      [
        "▁व्यक्ति",
        -8.495194760144502
      ],
      [
        "▁२६",
        -8.497270031112489
      ],
      [
        "▁समाज",
        -8.49959230392868
      ],
      [
        "▁अवसर",
        -8.501120189552502
      ],
      [
        "▁News",
        -8.502130027352553
      ],
      [
        "▁मिति",
        -8.502988709140071
      ],
      [
        "▁Home",
        -8.504896090031721
      ],
      [
        "▁यसमा",
        -8.505548932116898
      ],
      [
        "▁हो,",
        -8.507504004850944
      ],
      [
        "बहादुर",
        -8.508244969593687
      ],
      [
        "▁प्रदर्शन",
        -8.509922053750724
      ],
      [
        "▁जग्गा",
        -8.509933904163645
      ],
      [
        "▁राज्य",
        -8.51119072315094
      ],
      [
        "▁देशको",
        -8.51631406311417
      ],
      [
        "▁तपाईंको",
        -8.516393557114963
      ],
      [
        "▁बाहिर",
        -8.520990687293981
      ],
      [
        "▁हामीलाई",
        -8.5220227821677
      ],
      [
        "▁सम्भावना",
        -8.52383297284158
      ],
      [
        "▁लिने",
        -8.524040891646582
      ],
      [
        "▁गर्नुभएको",
        -8.524159985401592
      ],
      [
        "▁प्रशासन",
        -8.526158908579458
      ],
      [
        "▁औं",
        -8.52740475349433
      ],
      [
        "▁।”",
        -8.528423739605069
      ],
      [
        "ज",
        -8.52851623138322
      ],
      [
        "▁आफू",
        -8.530052603206425
      ],
      [
        "ब",
        -8.532759126325399
      ],
      [
        "▁जवाफ",
        -8.533142923602771
      ],
      [
        "▁भाग",
        -8.534168552640285
      ],
      [
        "▁पत्र",
        -8.534970762541217
      ],
      [
        "▁निर्देशक",
        -8.535192501413125
      ],
      [
        "▁मिडिया",
        -8.536652217642402
      ],
      [
        "▁डा",
        -8.53875517661336
      ],
      [
        "▁मुख्यमन्त्री",
        -8.538948981864307
      ],
      [
        "सम्बन्धी",
        -8.540983258265118
      ],
      [
        "▁/",
        -8.541444881872021
      ],
      [
        "▁फरक",
        -8.541554441562164
      ],
      [
        "▁ऐन",
        -8.542002073950147
      ],
      [
        "▁काठमाडौँ,",
        -8.542110430197132
      ],
      [
        "▁समूह",
        -8.54530026733994
      ],
      [
        "▁महत्वपूर्ण",
        -8.5454943828064
      ],
      [
        "▁आन्दोलन",
        -8.545555386388678
      ],
      [
        "▁गर्छ",
        -8.546903867967526
      ],
      [
        "▁सुझाव",
        -8.547682709655621
      ],
      [
        "▁४०",
        -8.549240335262619
      ],
      [
        "▁पराजित",
        -8.54964224746144
      ],
      [
        "▁संस्था",
        -8.551029047454088
      ],
      [
        "▁बिहीबार",
        -8.552832873939359
      ],
      [
        "▁लिएको",
        -8.553213124137958
      ],
      [
        "ीय",
        -8.554473747237795
      ],
      [
        "▁निजी",
        -8.555086664554947
      ],
      [
        "▁मतदान",
        -8.555280813089878
      ],
      [
        "▁विचार",
        -8.556461200726504
      ],
      [
        "तर्फ",
        -8.558958672022865
      ],
      [
        "▁फोन",
        -8.559680485204991
      ],
      [
        "▁बन्ने",
        -8.560355997708356
      ],
      [
        "▁प्रश्न",
        -8.563324272797612
      ],
      [
        "ड",
        -8.564174968686377
      ],
      [
        "हरूले",
        -8.565448676390098
      ],
      [
        "▁\"",
        -8.567150319425547
      ],
      [
        "▁वृद्धि",
        -8.57055947264423
      ],
      [
        "▁व्यापार",
        -8.571306989669932
      ],
      [
        "▁दिनुहोस्",
        -8.57252121632435
      ],
      [
        "▁निर्वाचनमा",
        -8.572882600669296
      ],
      [
        "▁सहित)",
        -8.573270778233244
      ],
      [
        "▁भ्रमण",
        -8.573802351849139
      ],
      [
        "▁हुँदैन",
        -8.574830346709877
      ],
      [
        "▁अर्थ",
        -8.576464128652223
      ],
      [
        "▁बर्ष",
        -8.576598696017115
      ],
      [
        "▁स",
        -8.578332614973284
      ],
      [
        "ला",
        -8.578564972473945
      ],
      [
        "▁गरेपछि",
        -8.579019105767212
      ],
      [
        "▁बिक्री",
        -8.579252090968533
      ],
      [
        "▁पूर्ण",
        -8.580143922784401
      ],
      [
        "▁भारतको",
        -8.58124557459918
      ],
      [
        "▁कानुन",
        -8.581264805463022
      ],
      [
        "▁आउन",
        -8.581686488461314
      ],
      [
        "▁बैठकमा",
        -8.584246333338077
      ],
      [
        "▁गम्भीर",
        -8.584596004502142
      ],
      [
        "▁प्रतिनिधिसभा",
        -8.585283350759617
      ],
      [
        "▁ए",
        -8.586677175603793
      ],
      [
        "▁उनका",
        -8.589640619407735
      ],
      [
        "▁2018",
        -8.591131236546772
      ],
      [
        "▁वर्षमा",
        -8.591588893781118
      ],
      [
        "▁संशोधन",
        -8.59222084277609
      ],
      [
        "▁गाउँ",
        -8.59326234305621
      ],
      [
        "▁रहने",
        -8.59334588059043
      ],
      [
        "▁समितिको",
        -8.594017173806442
      ],
      [
        "▁सम्बोधन",
        -8.594958707841094
      ],
      [
        "▁कायम",
        -8.595542928464916
      ],
      [
        "▁बैंकले",
        -8.59685777533702
      ],
      [
        "▁कम्पनी",
        -8.599473717646514
      ],
      [
        "▁सुविधा",
        -8.602707919127369
      ],
      [
        "▁सेयर",
        -8.602809345736194
      ],
      [
        "▁बन्न",
        -8.60344330093606
      ],
      [
        "▁भवन",
        -8.606395559597939
      ],
      [
        "▁अफ",
        -8.607062784255898
      ],
      [
        "▁कारोबार",
        -8.612011612105093
      ],
      [
        "▁शान्ति",
        -8.61285731733723
      ],
      [
        "▁वातावरण",
        -8.612877851639825
      ],
      [
        "▁जोड",
        -8.613621450221
      ],
      [
        "▁लाग्ने",
        -8.615104137808776
      ],
      [
        "▁जसले",
        -8.617371080943208
      ],
      [
        "प्रसाद",
        -8.618786291178337
      ],
      [
        "अनुसार",
        -8.621149172049154
      ],
      [
        "ने",
        -8.622258616904656
      ],
      [
        "▁सम्पूर्ण",
        -8.622459566976394
      ],
      [
        "▁प्रदेशसभा",
        -8.62309327355944
      ],
      [
        "▁बैठकले",
        -8.623374437004184
      ],
      [
        "▁जनताको",
        -8.624193026741224
      ],
      [
        "▁बताए।",
        -8.624857710575261
      ],
      [
        "▁भित्र",
        -8.62724173550976
      ],
      [
        "▁हेर्न",
        -8.627996450312512
      ],
      [
        "▁सकेको",
        -8.62831585850326
      ],
      [
        "०",
        -8.628655849993985
      ],
      [
        "ई",
        -8.630221212912392
      ],
      [
        "▁गराउने",
        -8.63154479434363
      ],
      [
        "▁जो",
        -8.634188223925051
      ],
      [
        "▁यसलाई",
        -8.634449675409629
      ],
      [
        "श",
        -8.636347810982333
      ],
      [
        "▁टोली",
        -8.639222650595812
      ],
      [
        "▁प्रतियोगिता",
        -8.639970275876713
      ],
      [
        "▁जस्तै",
        -8.64310236946442
      ],
      [
        "▁यौन",
        -8.643294007236005
      ],
      [
        "▁विदेशी",
        -8.644440724348215
      ],
      [
        "▁प्रचण्ड",
        -8.64777807791701
      ],
      [
        "▁कात्तिक",
        -8.65531328393202
      ],
      [
        "▁गर्नुभयो",
        -8.655978783103592
      ],
      [
        "▁उसले",
        -8.65636745289823
      ],
      [
        "▁अहिलेसम्म",
        -8.65675036218169
      ],
      [
        "▁पढ्नुहोस्",
        -8.65749914906967
      ],
      [
        "▁बनाएको",
        -8.659499828397596
      ],
      [
        "▁गरिरहेका",
        -8.661119518858182
      ],
      [
        "▁क्षेत्रको",
        -8.662249085042305
      ],
      [
        "काे",
        -8.662298726416978
      ],
      [
        "▁Nepal",
        -8.663049446624605
      ],
      [
        "▁कथा",
        -8.66654423453419
      ],
      [
        "▁रोग",
        -8.668685205426968
      ],
      [
        "▁देशमा",
        -8.669776104208989
      ],
      [
        "▁लिग",
        -8.671195644661694
      ],
      [
        "▁दाबी",
        -8.671548396163004
      ],
      [
        "▁बसेको",
        -8.677449434588159
      ],
      [
        "द",
        -8.678095635951845
      ],
      [
        "ह",
        -8.67825838952054
      ],
      [
        "▁विजयी",
        -8.680342165312256
      ],
      [
        "▁सम्बन्धमा",
        -8.680444041124588
      ],
      [
        "▁खरिद",
        -8.685218539975128
      ],
      [
        "▁चीन",
        -8.686495073863384
      ],
      [
        "▁कम्पनीले",
        -8.688265528545495
      ],
      [
        "▁नाममा",
        -8.690113556415298
      ],
      [
        "▁चर्चा",
        -8.691214738976274
      ],
      [
        "▁लाग्छ",
        -8.691307812872836
      ],
      [
        "▁आयोजित",
        -8.692285933967673
      ],
      [
        "▁रन",
        -8.69335372683689
      ],
      [
        "▁सभापति",
        -8.694084758674187
      ],
      [
        "▁जे",
        -8.695577983478804
      ],
      [
        "▁सम्मेलन",
        -8.695924166339863
      ],
      [
        "▁चैत",
        -8.696803939244688
      ],
      [
        "▁होइन,",
        -8.697124456094468
      ],
      [
        "▁थालेको",
        -8.699664262033743
      ],
      [
        "▁राख्ने",
        -8.699976259232914
      ],
      [
        "▁सहज",
        -8.700971122478759
      ],
      [
        "(",
        -8.701477508625103
      ],
      [
        "▁देखिन्छ",
        -8.701676867124032
      ],
      [
        "न्",
        -8.702732956751
      ],
      [
        "▁दिवस",
        -8.705287277414762
      ],
      [
        "▁शाखा",
        -8.708427752322766
      ],
      [
        "▁छैन।",
        -8.708983039103622
      ],
      [
        "▁केहि",
        -8.709654021978102
      ],
      [
        "▁आमा",
        -8.70996741349469
      ],
      [
        "▁तहको",
        -8.710857622523974
      ],
      [
        "▁मान्छे",
        -8.710994764199713
      ],
      [
        "▁अमेरिका",
        -8.712777705655713
      ],
      [
        "▁लगायतका",
        -8.71730791875452
      ],
      [
        "▁विवाह",
        -8.71743890835303
      ],
      [
        "▁यदि",
        -8.71769171428518
      ],
      [
        "▁उत्कृष्ट",
        -8.718486343144232
      ],
      [
        "▁फिर्ता",
        -8.720299965310973
      ],
      [
        "▁क्षति",
        -8.721709437376727
      ],
      [
        "▁पुरा",
        -8.721870060232263
      ],
      [
        "▁हुनुहुन्छ",
        -8.72208274027125
      ],
      [
        "▁संकलन",
        -8.723882635544228
      ],
      [
        "▁गाडी",
        -8.724681891264819
      ],
      [
        "▁कार्की",
        -8.72599787863685
      ],
      [
        "▁चरणमा",
        -8.72799386010523
      ],
      [
        "▁विस्तार",
        -8.728315937091761
      ],
      [
        "स्",
        -8.72890968966879
      ],
      [
        "▁राति",
        -8.730575671622544
      ],
      [
        "▁कक्षा",
        -8.731272084378617
      ],
      [
        "▁साहित्य",
        -8.733128250055337
      ],
      [
        "▁जिम्मेवारी",
        -8.735982288366877
      ],
      [
        "▁तत्काल",
        -8.737266989965313
      ],
      [
        "▁भई",
        -8.737573807904443
      ],
      [
        "]",
        -8.737845136306452
      ],
      [
        "▁निर्वाचित",
        -8.738231889615221
      ],
      [
        "▁विज्ञापन",
        -8.73916782477831
      ],
      [
        "▁प्रतिवेदन",
        -8.739790880426341
      ],
      [
        "▁स्थान",
        -8.742135906419632
      ],
      [
        "▁आवश्यकता",
        -8.742406343188119
      ],
      [
        "▁मन्त्रालयले",
        -8.745534213414462
      ],
      [
        "▁छैनन्",
        -8.745695259734543
      ],
      [
        "▁दिनमा",
        -8.74657535721298
      ],
      [
        "मार्फत",
        -8.746844475820964
      ],
      [
        "▁राख्न",
        -8.748740051282542
      ],
      [
        "▁पार्टीको",
        -8.749793776902528
      ],
      [
        "▁प्रति",
        -8.750602038252586
      ],
      [
        "▁संयोजक",
        -8.750866512757996
      ],
      [
        "▁बताइएको",
        -8.752068874485357
      ],
      [
        "पनि",
        -8.752619460439249
      ],
      [
        "▁पहिचान",
        -8.753667898145789
      ],
      [
        "▁प्रभावित",
        -8.75392868856796
      ],
      [
        "▁अस्पतालमा",
        -8.75781166350766
      ],
      [
        "▁प्रतिनिधि",
        -8.758688310738595
      ],
      [
        "▁सोही",
        -8.759070897808511
      ],
      [
        "▁भाषा",
        -8.759195623669605
      ],
      [
        "▁खेलाडी",
        -8.761205421349125
      ],
      [
        "▁यति",
        -8.762690387195057
      ],
      [
        "▁गराउन",
        -8.762949558156432
      ],
      [
        "▁(भिडियो",
        -8.764035468033946
      ],
      [
        "री",
        -8.764157337617917
      ],
      [
        "▁नियन्त्रण",
        -8.764634920899475
      ],
      [
        "▁बनाएर",
        -8.76643874753934
      ],
      [
        "▁संरक्षण",
        -8.767713893114383
      ],
      [
        "▁टिम",
        -8.76828836684064
      ],
      [
        "▁वन",
        -8.768333588392935
      ],
      [
        "▁मानव",
        -8.768549635659639
      ],
      [
        "▁समाधान",
        -8.768785381052641
      ],
      [
        "▁कतिपय",
        -8.77091174097007
      ],
      [
        "▁छन",
        -8.771489475336441
      ],
      [
        "▁कहिले",
        -8.772293988253368
      ],
      [
        "▁थापाले",
        -8.77257900581292
      ],
      [
        "▁प्रवक्ता",
        -8.774441564012651
      ],
      [
        "▁छौं",
        -8.774733621707487
      ],
      [
        "▁पाएको",
        -8.775579162550759
      ],
      [
        "▁दाहाल",
        -8.775768880193857
      ],
      [
        "्स",
        -8.781989851879693
      ],
      [
        "भित्र",
        -8.783994014718012
      ],
      [
        "▁पुरस्कार",
        -8.784840386248383
      ],
      [
        "!",
        -8.784960517428026
      ],
      [
        "▁मोबाइल",
        -8.785132594250458
      ],
      [
        "▁सर्वोच्च",
        -8.786224366136501
      ],
      [
        "▁३१",
        -8.786483865561799
      ],
      [
        "▁पार्टीका",
        -8.787290083049081
      ],
      [
        "▁आफूले",
        -8.787301396018979
      ],
      [
        "▁जित",
        -8.787333834623725
      ],
      [
        "▁लागू",
        -8.790338469265748
      ],
      [
        "▁समितिले",
        -8.791049016674002
      ],
      [
        "▁लेख",
        -8.791247585873636
      ],
      [
        "यो",
        -8.791273786004624
      ],
      [
        "▁भण्डारी",
        -8.792007249236425
      ],
      [
        "▁Read",
        -8.794098345460185
      ],
      [
        "..",
        -8.795061525959394
      ],
      [
        "▁पुगेका",
        -8.795901112309199
      ],
      [
        "▁स्वागत",
        -8.796368583313523
      ],
      [
        "▁हुन्छ।",
        -8.798369602396413
      ],
      [
        "▁हुन्छन्",
        -8.79870624802253
      ],
      [
        "▁आयोगले",
        -8.800420608542344
      ],
      [
        "▁तहमा",
        -8.801497730372674
      ],
      [
        "▁अनलाइन",
        -8.801959848125321
      ],
      [
        "▁क्षमता",
        -8.802471164551232
      ],
      [
        "▁यादव",
        -8.802507237101008
      ],
      [
        "▁लागी",
        -8.80471378802995
      ],
      [
        "▁आदेश",
        -8.80621824094678
      ],
      [
        "कुमार",
        -8.806811930611419
      ],
      [
        "▁सपना",
        -8.807981526567158
      ],
      [
        "▁व्यवसायी",
        -8.808508445634464
      ],
      [
        "▁सामग्री",
        -8.809606811164302
      ],
      [
        "▁जति",
        -8.810852984580874
      ],
      [
        "▁मुलुक",
        -8.811013379007358
      ],
      [
        "▁खान",
        -8.81249036448698
      ],
      [
        "▁भन्न",
        -8.812977237014032
      ],
      [
        "▁अन्तर्गत",
        -8.813559779332131
      ],
      [
        "▁विदेश",
        -8.815642216958429
      ],
      [
        "▁विवाद",
        -8.818280572265618
      ],
      [
        "▁गायक",
        -8.819092917459079
      ],
      [
        "▁काँग्रेस",
        -8.820976470022558
      ],
      [
        "▁सहभागिता",
        -8.82123640783518
      ],
      [
        "▁कम्युनिष्ट",
        -8.824397465349682
      ],
      [
        "▁नतिजा",
        -8.825054639167572
      ],
      [
        "▁on",
        -8.82526075692303
      ],
      [
        "▁प्रत्येक",
        -8.826011037959937
      ],
      [
        "▁६०",
        -8.828557322210722
      ],
      [
        "▁आठ",
        -8.828711886531657
      ],
      [
        "▁कसैले",
        -8.828906308401198
      ],
      [
        "▁हुन्।",
        -8.830808090320666
      ],
      [
        "▁सुरक्षित",
        -8.831541426680854
      ],
      [
        "▁ऋण",
        -8.83187709792416
      ],
      [
        "▁साँझ",
        -8.832645062287922
      ],
      [
        "▁गरेकी",
        -8.832787960965902
      ],
      [
        "▁भइसकेको",
        -8.833357848560453
      ],
      [
        "▁फोटो",
        -8.834319377559494
      ],
      [
        "िङ",
        -8.835128127499043
      ],
      [
        "▁साल",
        -8.837424142957804
      ],
      [
        "▁सहकारी",
        -8.838094060480747
      ],
      [
        "▁ठाउँ",
        -8.843055511157216
      ],
      [
        "▁एउटै",
        -8.843229961541175
      ],
      [
        "▁रासस",
        -8.845257345607102
      ],
      [
        "▁विमान",
        -8.84666792419279
      ],
      [
        "▁चितवन",
        -8.848093694702655
      ],
      [
        "▁त्यस्तो",
        -8.84848904704551
      ],
      [
        "▁प्राविधिक",
        -8.849375865699558
      ],
      [
        "▁अदालत",
        -8.850644077811939
      ],
      [
        "▁उद्घाटन",
        -8.850829082779924
      ],
      [
        "▁न्याय",
        -8.851190165738444
      ],
      [
        "▁ठूला",
        -8.851375761386917
      ],
      [
        "▁अनुभव",
        -8.85225591840967
      ],
      [
        "▁विरोध",
        -8.853611919701041
      ],
      [
        "ना",
        -8.853647349898111
      ],
      [
        "▁राखेर",
        -8.854231991110765
      ],
      [
        "▁पुरुष",
        -8.854652451609477
      ],
      [
        "▁यातायात",
        -8.855881948629326
      ],
      [
        "▁पक्षमा",
        -8.857178131296353
      ],
      [
        "इ",
        -8.861614390559808
      ],
      [
        "▁परिवार",
        -8.86429321035115
      ],
      [
        "▁कहाँ",
        -8.864392105208399
      ],
      [
        "▁विभाग",
        -8.864771803190436
      ],
      [
        "▁आफूलाई",
        -8.86491037153235
      ],
      [
        "▁चिनियाँ",
        -8.865700041285423
      ],
      [
        "▁भूकम्प",
        -8.865963437648258
      ],
      [
        "▁more",
        -8.866549712251311
      ],
      [
        "▁संलग्न",
        -8.867369463065359
      ],
      [
        "▁माथि",
        -8.86779132853593
      ],
      [
        "▁उद्देश्य",
        -8.87214349834052
      ],
      [
        "▁परीक्षा",
        -8.872785071273505
      ],
      [
        "▁पूर्वाधार",
        -8.87310290355986
      ],
      [
        "▁अन्त्य",
        -8.873297382747147
      ],
      [
        "▁स्पष्ट",
        -8.873567467552029
      ],
      [
        "▁समन्वय",
        -8.874939717620435
      ],
      [
        "▁कारबाही",
        -8.875074959311384
      ],
      [
        "▁कलाकार",
        -8.876137069998908
      ],
      [
        "▁लगायत",
        -8.876419208127466
      ],
      [
        "▁संगठन",
        -8.879242831176644
      ],
      [
        "▁तह",
        -8.883359026740335
      ],
      [
        "▁कार्यकारी",
        -8.883909840777022
      ],
      [
        "▁मधेस",
        -8.88401253043861
      ],
      [
        "▁उपाध्यक्ष",
        -8.885202599411453
      ],
      [
        "▁छोरा",
        -8.885249837520988
      ],
      [
        "▁मार्फत",
        -8.885833432832001
      ],
      [
        "▁क्लब",
        -8.891063931093726
      ],
      [
        "▁चर्चित",
        -8.891380492154365
      ],
      [
        "▁पारित",
        -8.892830197232595
      ],
      [
        "▁विकेट",
        -8.893121456517914
      ],
      [
        "▁फोरम",
        -8.89568656704099
      ],
      [
        "▁गोली",
        -8.895894014150073
      ],
      [
        "▁घण्टा",
        -8.895923495483544
      ],
      [
        "▁विद्युत्",
        -8.896042708700524
      ],
      [
        "▁केसी",
        -8.896414957064628
      ],
      [
        "▁उहाँ",
        -8.89817764830689
      ],
      [
        "▁स्रोत",
        -8.898502522146849
      ],
      [
        "▁बैंकको",
        -8.903079162751418
      ],
      [
        "▁आन्तरिक",
        -8.903565056458854
      ],
      [
        "▁ल्याउन",
        -8.903825660287282
      ],
      [
        "विरुद्ध",
        -8.904275389003537
      ],
      [
        "वा",
        -8.904293648652876
      ],
      [
        "_",
        -8.904629771506066
      ],
      [
        "▁क्षेत्रका",
        -8.90483753090138
      ],
      [
        "▁यसका",
        -8.905352240858406
      ],
      [
        "▁संसदीय",
        -8.90570202336255
      ],
      [
        "▁जिल्लाको",
        -8.905905297703752
      ],
      [
        "▁थिएन",
        -8.907770046198511
      ],
      [
        "▁गर्नुपर्छ",
        -8.909896820404658
      ],
      [
        "▁पुग्ने",
        -8.911179922759999
      ],
      [
        "▁त्यसलाई",
        -8.911799240502312
      ],
      [
        "हरुमा",
        -8.911819112433506
      ],
      [
        "▁Nepali",
        -8.917078251976722
      ],
      [
        "▁सरकारलाई",
        -8.91814242964407
      ],
      [
        "बाटै",
        -8.918189170358364
      ],
      [
        "▁प्रभाव",
        -8.918973026602401
      ],
      [
        "▁शुभकामना",
        -8.922365877549375
      ],
      [
        "▁शैक्षिक",
        -8.9237685899781
      ],
      [
        "तिर",
        -8.924094814833767
      ],
      [
        "▁सीमा",
        -8.924346403927162
      ],
      [
        "▁कला",
        -8.925073941798122
      ],
      [
        "▁जस्ता",
        -8.92593764413528
      ],
      [
        "▁या",
        -8.926500732581513
      ],
      [
        "▁जेल",
        -8.930147376849453
      ],
      [
        "ौ",
        -8.930659818371062
      ],
      [
        "▁माया",
        -8.930930193511422
      ],
      [
        "▁अझ",
        -8.93095017547693
      ],
      [
        "▁सफलता",
        -8.932253937234822
      ],
      [
        "▁आधार",
        -8.932579419997193
      ],
      [
        "▁३५",
        -8.932848032008163
      ],
      [
        "▁किसान",
        -8.933480561003277
      ],
      [
        "▁कविता",
        -8.933890777046054
      ],
      [
        "▁आम्दानी",
        -8.936154129565574
      ],
      [
        "▁समितिका",
        -8.936384556664375
      ],
      [
        "▁नसकेको",
        -8.936564527575559
      ],
      [
        "▁पक्ष",
        -8.937374837805454
      ],
      [
        "हरूलाई",
        -8.938405289061361
      ],
      [
        "▁देशका",
        -8.939773572423308
      ],
      [
        "▁एकै",
        -8.940095727675635
      ],
      [
        "ग",
        -8.94043156465565
      ],
      [
        "▁प्रहार",
        -8.940982947828218
      ],
      [
        "▁बम",
        -8.941107028383202
      ],
      [
        "▁उहाँको",
        -8.9422957478464
      ],
      [
        "▁विधेयक",
        -8.943465948334293
      ],
      [
        "▁पाउन",
        -8.943713118902458
      ],
      [
        "▁अनुमान",
        -8.943972988678379
      ],
      [
        "संग",
        -8.94570698209729
      ],
      [
        "▁सिर्जना",
        -8.9464706933243
      ],
      [
        "▁प्रणाली",
        -8.94665485995136
      ],
      [
        "▁वरिष्ठ",
        -8.949175627335105
      ],
      [
        "▁कान्तिपुर",
        -8.952950335080015
      ],
      [
        "▁श्रेष्ठले",
        -8.956165583540635
      ],
      [
        "▁असर",
        -8.956683712255735
      ],
      [
        "ए",
        -8.957142765754522
      ],
      [
        "▁फाइदा",
        -8.957737043127597
      ],
      [
        "▁बिरामी",
        -8.958154913914477
      ],
      [
        "लाइ",
        -8.959290136459732
      ],
      [
        "▁जब",
        -8.960380650739296
      ],
      [
        "▁भर्ना",
        -8.963123896151547
      ],
      [
        "▁तर्फबाट",
        -8.96351779127838
      ],
      [
        "▁पोष्ट",
        -8.965812967156353
      ],
      [
        "▁राई",
        -8.96636654576253
      ],
      [
        "▁सानो",
        -8.966848162705894
      ],
      [
        "▁हुनुपर्ने",
        -8.96694062483799
      ],
      [
        "▁वैदेशिक",
        -8.968814267505575
      ],
      [
        "▁रहेछ",
        -8.972694346287511
      ],
      [
        "▁जरुरी",
        -8.973356382574151
      ],
      [
        "▁छनोट",
        -8.97366812880966
      ],
      [
        "▁चरणको",
        -8.974237237035464
      ],
      [
        "▁व्यवसाय",
        -8.977157318450107
      ],
      [
        "▁उपाधि",
        -8.977284419120956
      ],
      [
        "▁मतदाता",
        -8.977550441558703
      ],
      [
        "▁कोही",
        -8.978751957143295
      ],
      [
        "▁पुन",
        -8.98059111744591
      ],
      [
        "▁छोरी",
        -8.98103081297032
      ],
      [
        "▁बालबालिका",
        -8.981054330838742
      ],
      [
        "▁मानिस",
        -8.981745147342345
      ],
      [
        "▁प्रेस",
        -8.982305693245387
      ],
      [
        "▁हाम्रा",
        -8.983377287212402
      ],
      [
        "▁साढे",
        -8.983923197421667
      ],
      [
        "▁छिन्",
        -8.98398073982121
      ],
      [
        "▁शब्द",
        -8.98536175520389
      ],
      [
        "▁कमजोर",
        -8.98617905326444
      ],
      [
        "थ",
        -8.986510443447019
      ],
      [
        "ख",
        -8.988272702471678
      ],
      [
        "▁केन्द्रका",
        -8.988797088027646
      ],
      [
        "▁राखेको",
        -8.98922232798978
      ],
      [
        "ली",
        -8.989584726487607
      ],
      [
        "▁कप",
        -8.989874849032862
      ],
      [
        "▁गर्छन्",
        -8.990155469324373
      ],
      [
        "भ",
        -8.990687614778544
      ],
      [
        "▁बहादुर",
        -8.993020865641546
      ],
      [
        "▁आयो",
        -8.994325576268869
      ],
      [
        "▁राखिएको",
        -8.995393037402758
      ],
      [
        "▁सञ्चालनमा",
        -8.995751539729792
      ],
      [
        "▁निधन",
        -8.995830137055883
      ],
      [
        "▁फेसबुक",
        -8.996079649045562
      ],
      [
        "▁उमेर",
        -8.996510017188553
      ],
      [
        "▁आक्रमण",
        -8.997805651665495
      ],
      [
        "▁शिक्षक",
        -8.99790303059724
      ],
      [
        "▁निर्मला",
        -8.998980052506814
      ],
      [
        "▁धारणा",
        -8.999304039361672
      ],
      [
        "▁भएन",
        -8.999670306045246
      ],
      [
        "▁निम्ति",
        -9.00078534284009
      ],
      [
        "▁बताउँदै",
        -9.000920619419018
      ],
      [
        "▁अभाव",
        -9.001463050011036
      ],
      [
        "▁पीडित",
        -9.001804656328929
      ],
      [
        "▁राजनीति",
        -9.002093208187452
      ],
      [
        "▁रोजगारी",
        -9.002618742448853
      ],
      [
        "▁बलात्कार",
        -9.003706063024651
      ],
      [
        "▁पुस्तक",
        -9.00507727514341
      ],
      [
        "▁वार्षिक",
        -9.006024813276415
      ],
      [
        "▁अधिकांश",
        -9.006110031933385
      ],
      [
        "▁उसको",
        -9.009260769456517
      ],
      [
        "▁शेरबहादुर",
        -9.009303172181408
      ],
      [
        "▁वाम",
        -9.009844602316248
      ],
      [
        "▁ल्याउने",
        -9.009914750169482
      ],
      [
        "▁—",
        -9.011035238805551
      ],
      [
        "▁अभिनय",
        -9.011755789083763
      ],
      [
        "▁फेला",
        -9.012059514536379
      ],
      [
        "▁डलर",
        -9.01251912558005
      ],
      [
        "▁पुनः",
        -9.013584584829427
      ],
      [
        "▁श्री",
        -9.013775865525673
      ],
      [
        "▁आ",
        -9.013906947608469
      ],
      [
        "▁दलका",
        -9.015296743939672
      ],
      [
        "▁कुल",
        -9.015509442030018
      ],
      [
        "▁भेट",
        -9.016423134395193
      ],
      [
        "▁आयोग",
        -9.016796983854132
      ],
      [
        "▁नियमित",
        -9.018535755033643
      ],
      [
        "▁जहाँ",
        -9.018943591173908
      ],
      [
        "▁आयोजक",
        -9.019257761736254
      ],
      [
        "▁बाढी",
        -9.021999156148844
      ],
      [
        "▁वार्ता",
        -9.022055403131954
      ],
      [
        "▁३३",
        -9.022473024036927
      ],
      [
        "▁२०१८",
        -9.023449093404231
      ],
      [
        "▁बढ्दै",
        -9.02658826568824
      ],
      [
        "▁दिइएको",
        -9.027472583754022
      ],
      [
        "▁हुनुपर्छ",
        -9.028307112500073
      ],
      [
        "▁लगाउने",
        -9.028636665865124
      ],
      [
        "▁मधेसी",
        -9.02956964741388
      ],
      [
        "▁जम्मा",
        -9.030417970186683
      ],
      [
        ";",
        -9.031427163237847
      ],
      [
        "▁राजा",
        -9.031869914308688
      ],
      [
        "▁३२",
        -9.03218700833585
      ],
      [
        "▁सिंह",
        -9.03234253192131
      ],
      [
        "▁ल्याएको",
        -9.032980843030558
      ],
      [
        "▁यसै",
        -9.033809609956865
      ],
      [
        "▁उडान",
        -9.034537259069577
      ],
      [
        "▁भन्छन्,",
        -9.037307741577735
      ],
      [
        "▁इतिहास",
        -9.037500156426551
      ],
      [
        "▁टोलीले",
        -9.04183471283486
      ],
      [
        "▁सु",
        -9.042578722445068
      ],
      [
        "▁दिनु",
        -9.043473865857633
      ],
      [
        "▁जिल्लाका",
        -9.043622563032454
      ],
      [
        "▁पुर्",
        -9.043839213544711
      ],
      [
        "▁तामाङ",
        -9.0465136822293
      ],
      [
        "▁क्लिक",
        -9.04702063794959
      ],
      [
        "▁वर्षीया",
        -9.049837758238663
      ],
      [
        "▁गएका",
        -9.051287611434482
      ],
      [
        "या",
        -9.051354659833322
      ],
      [
        "▁वाणिज्य",
        -9.052403585376567
      ],
      [
        "▁गलत",
        -9.052883303812425
      ],
      [
        "▁प्रहरीको",
        -9.053403870424498
      ],
      [
        "▁प्रकाश",
        -9.054662070677157
      ],
      [
        "▁मध्ये",
        -9.05483575886063
      ],
      [
        "▁पुष्पकमल",
        -9.055395087336075
      ],
      [
        "▁विमानस्थल",
        -9.055749654199879
      ],
      [
        "▁स्थायी",
        -9.057852702922348
      ],
      [
        "▁पौडेल",
        -9.058642534768719
      ],
      [
        "▁निरन्तर",
        -9.058996335760003
      ],
      [
        "▁बा",
        -9.059572444564175
      ],
      [
        "▁योगदान",
        -9.059824747337377
      ],
      [
        "▁संचालन",
        -9.060654354868474
      ],
      [
        "▁पुल",
        -9.060679572613902
      ],
      [
        "▁खेलकुद",
        -9.061658491982746
      ],
      [
        "▁घरेलु",
        -9.061815225708996
      ],
      [
        "▁हेर्नुहोस",
        -9.063349449439468
      ],
      [
        "▁उनीहरुले",
        -9.063506785972528
      ],
      [
        "▁प्रथम",
        -9.06372633679674
      ],
      [
        "▁राजपा",
        -9.063784615718554
      ],
      [
        "▁दर",
        -9.065605812678013
      ],
      [
        "▁संरचना",
        -9.06571452192603
      ],
      [
        "▁नियन्त्रणमा",
        -9.066865396805067
      ],
      [
        "▁नियम",
        -9.069553266938204
      ],
      [
        "▁खुसी",
        -9.071459946548263
      ],
      [
        "▁ब",
        -9.072157938853739
      ],
      [
        "▁उनीहरु",
        -9.072515370893568
      ],
      [
        "▁परीक्षण",
        -9.073024263271943
      ],
      [
        "▁काममा",
        -9.073153862469105
      ],
      [
        "▁७०",
        -9.07359441262204
      ],
      [
        "▁परिणाम",
        -9.07389926313121
      ],
      [
        "▁भनी",
        -9.07400973788555
      ],
      [
        "▁सञ्चार",
        -9.074954269183866
      ],
      [
        "▁दलित",
        -9.076018591363844
      ],
      [
        "▁लोकतान्त्रिक",
        -9.077737600765188
      ],
      [
        "▁चुनावी",
        -9.078650643182243
      ],
      [
        "▁शुल्क",
        -9.078981682950518
      ],
      [
        "▁देउवा",
        -9.08109524242495
      ],
      [
        "▁गाविस",
        -9.08162830379196
      ],
      [
        "▁त्यति",
        -9.081848868904494
      ],
      [
        "▁नसक्ने",
        -9.082277207107012
      ],
      [
        "▁प्र",
        -9.08249251700078
      ],
      [
        "▁आँखा",
        -9.082927478049236
      ],
      [
        "▁तय",
        -9.083076714956661
      ],
      [
        "▁गुनासो",
        -9.08348881823177
      ],
      [
        "▁दलको",
        -9.085458455767622
      ],
      [
        "▁महिनामा",
        -9.086261286174324
      ],
      [
        "▁सल्लाह",
        -9.089419406481655
      ],
      [
        "▁खाना",
        -9.090460297745569
      ],
      [
        "▁बनेका",
        -9.090703584971543
      ],
      [
        "▁बढाउन",
        -9.09111698556119
      ],
      [
        "▁गर्",
        -9.09127918294766
      ],
      [
        "उ",
        -9.091843944354942
      ],
      [
        "▁प्रतिकृया",
        -9.09219664889224
      ],
      [
        "▁साधन",
        -9.092289451973574
      ],
      [
        "▁त्रिभुवन",
        -9.092410570137886
      ],
      [
        "▁कार्यपालिका",
        -9.092857809555985
      ],
      [
        "च",
        -9.09295704051836
      ],
      [
        "▁त्यसमा",
        -9.093869758635396
      ],
      [
        "▁लागेका",
        -9.094432119423008
      ],
      [
        "▁पद",
        -9.095754196870667
      ],
      [
        "▁भनिएको",
        -9.09626725397856
      ],
      [
        ".com",
        -9.09765938215415
      ],
      [
        "▁अनुगमन",
        -9.099834142402758
      ],
      [
        "▁साझा",
        -9.100081617590387
      ],
      [
        "▁कर्णाली",
        -9.101581039420854
      ],
      [
        "▁प्रतिस्पर्धा",
        -9.10165075990474
      ],
      [
        "▁(भिडियो)",
        -9.101849550252854
      ],
      [
        "▁कार्यालयमा",
        -9.102364886955062
      ],
      [
        "▁पहल",
        -9.103171544414893
      ],
      [
        "▁अंक",
        -9.103821288952107
      ],
      [
        "▁प्रकाशन",
        -9.104080422972736
      ],
      [
        "▁पो",
        -9.1044316757751
      ],
      [
        "▁कुमार",
        -9.10488652642344
      ],
      [
        "▁जन्म",
        -9.105921060323213
      ],
      [
        "▁बलियो",
        -9.106128390378021
      ],
      [
        "▁मान्यता",
        -9.106727855522323
      ],
      [
        "▁ओलीको",
        -9.10715815403297
      ],
      [
        "▁द",
        -9.108344199020358
      ],
      [
        "▁सकारात्मक",
        -9.108577113275594
      ],
      [
        "▁पेश",
        -9.109178805574112
      ],
      [
        "▁शव",
        -9.110302350989564
      ],
      [
        "▁अपराध",
        -9.11045354370276
      ],
      [
        "ण",
        -9.110568177314057
      ],
      [
        "▁सालमा",
        -9.111235232013081
      ],
      [
        "▁खुला",
        -9.111763717796013
      ],
      [
        "▁कार्यालयले",
        -9.113018525968794
      ],
      [
        "▁तालिम",
        -9.113203878271879
      ],
      [
        "▁संग",
        -9.113443272409501
      ],
      [
        "▁स्थित",
        -9.11518847889944
      ],
      [
        "▁नेतृत्वको",
        -9.116377057789101
      ],
      [
        "▁औषधि",
        -9.11670792866667
      ],
      [
        "▁दिँदै",
        -9.11706304970387
      ],
      [
        "▁पाएका",
        -9.117646313262071
      ],
      [
        "▁तपाई",
        -9.117694604356988
      ],
      [
        "▁गृहमन्त्री",
        -9.117886997952748
      ],
      [
        "▁क्यान्सर",
        -9.118430624359764
      ],
      [
        "▁काठमाडौंमा",
        -9.121511434890504
      ],
      [
        "▁बस्नेत",
        -9.123465395908294
      ],
      [
        "▁छन्,",
        -9.12372630835651
      ],
      [
        "▁अधिकारीले",
        -9.124568913852663
      ],
      [
        "▁कृष्ण",
        -9.124868882545766
      ],
      [
        "िन",
        -9.12492162723008
      ],
      [
        "▁सिफारिस",
        -9.125806263970102
      ],
      [
        "▁सक्रिय",
        -9.126426945964614
      ],
      [
        "▁इ",
        -9.127237894060126
      ],
      [
        "▁गृह",
        -9.12850799062393
      ],
      [
        "’,",
        -9.129136315001016
      ],
      [
        "▁आदि",
        -9.13053388595851
      ],
      [
        "▁आवाज",
        -9.132387059264286
      ],
      [
        "▁बन्दै",
        -9.13313087300122
      ],
      [
        "जी",
        -9.13380420314843
      ],
      [
        "▁गुरुङ",
        -9.134531677765324
      ],
      [
        "▁सप्तरी",
        -9.135927098862208
      ],
      [
        "ौं",
        -9.136166482039666
      ],
      [
        "▁जनालाई",
        -9.136657200128042
      ],
      [
        "▁खेती",
        -9.137968184345468
      ],
      [
        "▁विज्ञान",
        -9.138055471279527
      ],
      [
        "▁पाए",
        -9.13860908040946
      ],
      [
        "▁कडा",
        -9.138680935606125
      ],
      [
        "▁पुरानो",
        -9.138993148384746
      ],
      [
        "▁कम्पनीको",
        -9.139224354405348
      ],
      [
        "▁प्रभावकारी",
        -9.140167416193623
      ],
      [
        "▁बसेर",
        -9.14117105679401
      ],
      [
        "▁जाँदा",
        -9.141620872546158
      ],
      [
        "▁कांग्रेसका",
        -9.143037135000652
      ],
      [
        "▁वित्तीय",
        -9.14321529346302
      ],
      [
        "▁प्रत्यक्ष",
        -9.143244888014934
      ],
      [
        "▁गरे।",
        -9.143293048639341
      ],
      [
        "▁२०७३",
        -9.143831124971703
      ],
      [
        "▁रेल",
        -9.14423121438767
      ],
      [
        "▁विकासका",
        -9.14460556400164
      ],
      [
        "▁श्रम",
        -9.14608968217058
      ],
      [
        "▁प्रतियोगितामा",
        -9.146361327382426
      ],
      [
        "लगायतका",
        -9.147279676071324
      ],
      [
        "▁तत्कालीन",
        -9.147458608868273
      ],
      [
        "▁शुभ",
        -9.147615627637343
      ],
      [
        "▁बल",
        -9.147995642343766
      ],
      [
        "▁धर्म",
        -9.14925043298338
      ],
      [
        "▁तरकारी",
        -9.14975212675704
      ],
      [
        "▁‘म",
        -9.149928034879945
      ],
      [
        "▁दिउँसो",
        -9.150072140292162
      ],
      [
        "▁गर्नुहोस",
        -9.151578419004787
      ],
      [
        "▁स्थापित",
        -9.15255997481501
      ],
      [
        "▁अघिल्लो",
        -9.153046094788802
      ],
      [
        "▁मिटर",
        -9.15333559225374
      ],
      [
        "▁अनुरोध",
        -9.154053815087337
      ],
      [
        "▁उपभोक्ता",
        -9.154917684722879
      ],
      [
        "▁४५",
        -9.155028311265866
      ],
      [
        "▁कारणले",
        -9.15572670307711
      ],
      [
        "▁सम्पत्ति",
        -9.155870234848667
      ],
      [
        "▁साधारण",
        -9.15634756858863
      ],
      [
        "▁राम",
        -9.157066636878863
      ],
      [
        "▁संगीत",
        -9.157109816856728
      ],
      [
        "▁भन्नुभयो",
        -9.157699307295125
      ],
      [
        "▁२०७२",
        -9.158233895310111
      ],
      [
        "▁पारेको",
        -9.159168760809031
      ],
      [
        "▁बीच",
        -9.160847750852191
      ],
      [
        "▁कार्यक्रमको",
        -9.162479503228028
      ],
      [
        "▁सामुदायिक",
        -9.162998284425775
      ],
      [
        "▁कहिल्यै",
        -9.163440319744971
      ],
      [
        "▁प्रतिबद्धता",
        -9.164852057284806
      ],
      [
        "▁हेर्ने",
        -9.165120848776747
      ],
      [
        "▁लाग्यो",
        -9.165314673825351
      ],
      [
        "नै",
        -9.16622658634824
      ],
      [
        "ू",
        -9.166861297529586
      ],
      [
        "▁गरिएका",
        -9.168089018684395
      ],
      [
        "▁८०",
        -9.168966351055666
      ],
      [
        "▁दशमलव",
        -9.169457630993827
      ],
      [
        "▁चयन",
        -9.169876443924382
      ],
      [
        "▁राहत",
        -9.170232578243983
      ],
      [
        "▁निकाय",
        -9.170493541451714
      ],
      [
        "▁बैशाख",
        -9.17087311842977
      ],
      [
        "▁अनुमति",
        -9.172143386354083
      ],
      [
        "▁सबैलाई",
        -9.172863770840891
      ],
      [
        "▁कम्तीमा",
        -9.173471242131992
      ],
      [
        "पूर्ण",
        -9.175628254811269
      ],
      [
        "▁ऊर्जा",
        -9.175708805490265
      ],
      [
        "▁खाता",
        -9.177612313045357
      ],
      [
        "▁रिलिज",
        -9.178956057562935
      ],
      [
        "▁खाने",
        -9.179414152058275
      ],
      [
        "▁महिलाको",
        -9.179465351061651
      ],
      [
        "▁स्वतन्त्र",
        -9.179822978403365
      ],
      [
        "▁प",
        -9.179882285907397
      ],
      [
        "▁प्रदेशको",
        -9.179987853965617
      ],
      [
        "▁नगद",
        -9.18035870609773
      ],
      [
        "▁आए",
        -9.180488977230937
      ],
      [
        "▁उद्धार",
        -9.180679562173111
      ],
      [
        "▁आवेदन",
        -9.181681920084621
      ],
      [
        "▁दिएर",
        -9.18171911795503
      ],
      [
        "▁कार्तिक",
        -9.183108027954535
      ],
      [
        "▁भन्नुभयो,",
        -9.185677019431388
      ],
      [
        "▁उ",
        -9.185864339575296
      ],
      [
        "▁गोविन्द",
        -9.187369123074443
      ],
      [
        "▁पार्ने",
        -9.187803436506137
      ],
      [
        "▁दिनुहोस",
        -9.18962158662908
      ],
      [
        "▁कानून",
        -9.189667026300473
      ],
      [
        "▁पत्रिका",
        -9.189729075363609
      ],
      [
        "▁लिएका",
        -9.19010131169886
      ],
      [
        "▁पौडेलले",
        -9.190581366345647
      ],
      [
        "▁मगर",
        -9.190839950904394
      ],
      [
        "▁एमालेका",
        -9.191032640416593
      ],
      [
        "▁गतेदेखि",
        -9.191432192328453
      ],
      [
        "▁बि",
        -9.191456900641938
      ],
      [
        "▁भएपनि",
        -9.191893900353424
      ],
      [
        "▁परी",
        -9.192104231960194
      ],
      [
        "▁हुँ",
        -9.192468977145786
      ],
      [
        "▁वर्षदेखि",
        -9.19281344143087
      ],
      [
        "▁भौतिक",
        -9.19283563499701
      ],
      [
        "▁साता",
        -9.19286654329779
      ],
      [
        "दा",
        -9.192971306626983
      ],
      [
        "▁बढ्ने",
        -9.192978917845842
      ],
      [
        "▁प्रचण्डले",
        -9.193443046192911
      ],
      [
        "▁आम",
        -9.193813839720711
      ],
      [
        "▁रेडियो",
        -9.193919164924903
      ],
      [
        "▁गएर",
        -9.194793145849026
      ],
      [
        "▁शरीर",
        -9.194853761282033
      ],
      [
        "▁कार्यकर्ता",
        -9.195599058581266
      ],
      [
        "▁पश्चिम",
        -9.195921860678403
      ],
      [
        "▁हेर्नुहोस्",
        -9.196411256884433
      ],
      [
        "▁चालक",
        -9.196624249503982
      ],
      [
        "▁कुराकानी",
        -9.196928687416865
      ],
      [
        "▁ललितपुर",
        -9.197516896798824
      ],
      [
        "▁ग्राहक",
        -9.197876472708765
      ],
      [
        "▁अरू",
        -9.198991283435888
      ],
      [
        "▁मुलुकको",
        -9.199057232759863
      ],
      [
        "—",
        -9.19931764838686
      ],
      [
        "▁अनुदान",
        -9.199747566303987
      ],
      [
        "▁मन्दिर",
        -9.201089033703358
      ],
      [
        "▁जनताले",
        -9.201269045255907
      ],
      [
        "▁सन्देश",
        -9.202467344316398
      ],
      [
        "▁पर्यटक",
        -9.202558729958866
      ],
      [
        "▁चासो",
        -9.204497942119007
      ],
      [
        "▁साना",
        -9.204667390900873
      ],
      [
        "▁मेडिकल",
        -9.204989043865616
      ],
      [
        "▁राशिफल",
        -9.205028565323353
      ],
      [
        "▁भनाई",
        -9.205209318045311
      ],
      [
        "▁विकल्प",
        -9.206136898757425
      ],
      [
        "▁परियोजना",
        -9.208175760496548
      ],
      [
        "▁आरोपमा",
        -9.209567392155817
      ],
      [
        "▁डिभिजन",
        -9.21005373112764
      ],
      [
        "▁यादवले",
        -9.21023153018061
      ],
      [
        "▁हुनेछ।",
        -9.211716141101633
      ],
      [
        "▁हालसम्म",
        -9.213058227169267
      ],
      [
        "▁भारतले",
        -9.213219679409143
      ],
      [
        "▁एजेन्सी",
        -9.215073011144101
      ],
      [
        "▁प्रधान",
        -9.215847538110818
      ],
      [
        "जस्ता",
        -9.216437695006245
      ],
      [
        "छन्",
        -9.216539135739444
      ],
      [
        "▁मिनेट",
        -9.216977663649196
      ],
      [
        "▁विगत",
        -9.217101865333701
      ],
      [
        "▁चेतावनी",
        -9.217151531249401
      ],
      [
        "▁[...]",
        -9.219987675328483
      ],
      [
        "▁गरिन्छ",
        -9.219998995530208
      ],
      [
        "▁बालिका",
        -9.221013457287741
      ],
      [
        "▁बस्न",
        -9.221932778131915
      ],
      [
        "▁उनीहरुको",
        -9.222491884078007
      ],
      [
        "▁सि",
        -9.222588205234757
      ],
      [
        "▁सजाय",
        -9.223887120418645
      ],
      [
        "▁सबैको",
        -9.224989954166267
      ],
      [
        "▁सुचना",
        -9.22505381099337
      ],
      [
        "▁चुनावमा",
        -9.22529282929203
      ],
      [
        "▁नेतृत्वमा",
        -9.226019720514174
      ],
      [
        "▁वि",
        -9.227285163988546
      ],
      [
        "▁साउदी",
        -9.227351762204972
      ],
      [
        "▁लगाउन",
        -9.228113103412403
      ],
      [
        "▁थियो,",
        -9.229086853953637
      ],
      [
        "▁काठमाडौ",
        -9.22938202039963
      ],
      [
        "▁मोटरसाइकल",
        -9.229705748925024
      ],
      [
        "▁खड्का",
        -9.230079978957455
      ],
      [
        "▁लगाएको",
        -9.230626922486442
      ],
      [
        "▁विराटनगर",
        -9.23080632044902
      ],
      [
        "▁लाभ",
        -9.230835553182265
      ],
      [
        "▁नगरपालिकाको",
        -9.23090738074597
      ],
      [
        "▁भट्टराई",
        -9.231707118043662
      ],
      [
        "▁विश्वविद्यालय",
        -9.231757139746922
      ],
      [
        "२",
        -9.23194519131189
      ],
      [
        "▁देउवाले",
        -9.232544619640965
      ],
      [
        "▁सजिलो",
        -9.232563888861067
      ],
      [
        "▁रोजगार",
        -9.233293924379197
      ],
      [
        "▁वर्तमान",
        -9.233306310559376
      ],
      [
        "▁सशस्त्र",
        -9.233609652251044
      ],
      [
        "▁आयोजनामा",
        -9.233694565822256
      ],
      [
        "▁उम्मेदवारी",
        -9.233733437598438
      ],
      [
        "▁आशा",
        -9.23530976055293
      ],
      [
        "▁बढाउने",
        -9.235892921002034
      ],
      [
        "▁कार्यरत",
        -9.237192707872806
      ],
      [
        "्न",
        -9.240460457001035
      ],
      [
        "मात्र",
        -9.241002411299409
      ],
      [
        "▁नगर्ने",
        -9.24106718854708
      ],
      [
        "नु",
        -9.241341506371857
      ],
      [
        "▁चिन्ता",
        -9.24149250089033
      ],
      [
        "्दै",
        -9.241861860140293
      ],
      [
        "▁बढ्न",
        -9.242040276004676
      ],
      [
        "▁निर्धारण",
        -9.242244491904879
      ],
      [
        "▁खुशी",
        -9.242373494833448
      ],
      [
        "▁नभए",
        -9.243313650484154
      ],
      [
        "▁नौ",
        -9.243323631184154
      ],
      [
        "▁निर्माणका",
        -9.244964904512917
      ],
      [
        "▁धार्मिक",
        -9.246364732439947
      ],
      [
        "▁हासिल",
        -9.248070135477969
      ],
      [
        "▁तल",
        -9.248410527947613
      ],
      [
        "▁थालेका",
        -9.250370833498447
      ],
      [
        "▁पत्ता",
        -9.251613865276589
      ],
      [
        "▁ज्ञान",
        -9.251822164006054
      ],
      [
        "▁बुद्ध",
        -9.251888234787772
      ],
      [
        "▁म्युजिक",
        -9.252562934863352
      ],
      [
        "▁लामा",
        -9.252767626274206
      ],
      [
        "▁एकीकृत",
        -9.253453601320645
      ],
      [
        "▁भारतमा",
        -9.254294917789851
      ],
      [
        "▁चुनौती",
        -9.25471547697588
      ],
      [
        "▁पढिएक",
        -9.256173231026636
      ],
      [
        "▁धान",
        -9.257420410312726
      ],
      [
        "▁झण्डै",
        -9.257730998668837
      ],
      [
        "र्",
        -9.257822946038782
      ],
      [
        "▁सोच",
        -9.259310956902834
      ],
      [
        "▁अपेक्षा",
        -9.261297780202263
      ],
      [
        "नी",
        -9.263227269328942
      ],
      [
        "▁समर्थन",
        -9.26337501905409
      ],
      [
        "▁जन",
        -9.264784416525957
      ],
      [
        "▁बराबरको",
        -9.26628664939308
      ],
      [
        "▁गराएको",
        -9.266406612156542
      ],
      [
        "▁आयात",
        -9.26673279766328
      ],
      [
        "▁सत्य",
        -9.268207027005015
      ],
      [
        "▁ख",
        -9.268535649959738
      ],
      [
        "▁भन्नु",
        -9.27089678832063
      ],
      [
        "▁गर्दछ",
        -9.271172251713683
      ],
      [
        "▁सम्मेलनमा",
        -9.271521109271944
      ],
      [
        "▁बाल",
        -9.271712852120636
      ],
      [
        "▁सहकार्य",
        -9.272001654600814
      ],
      [
        "सहितको",
        -9.272886791924257
      ],
      [
        "▁क्रम",
        -9.274910263006355
      ],
      [
        "▁अवार्ड",
        -9.275403776501182
      ],
      [
        "अन्तर्गत",
        -9.276925044711614
      ],
      [
        "जस्तो",
        -9.277022509973747
      ],
      [
        "▁स्कुल",
        -9.278128856553206
      ],
      [
        "▁नागरिकता",
        -9.278332500559113
      ],
      [
        "▁सही",
        -9.278609197829663
      ],
      [
        "▁अर्थात्",
        -9.278818578485964
      ],
      [
        "▁प्राथमिकता",
        -9.278992369033578
      ],
      [
        "▁कोष",
        -9.279771446247604
      ],
      [
        "▁मुलुकमा",
        -9.281219498669405
      ],
      [
        "▁अदालतले",
        -9.283850385884758
      ],
      [
        "▁सामान",
        -9.283980125525456
      ],
      [
        "▁दर्शक",
        -9.284995165385801
      ],
      [
        "▁ऐतिहासिक",
        -9.285779121363529
      ],
      [
        "लाल",
        -9.286262230393765
      ],
      [
        "▁आएर",
        -9.287228738366384
      ],
      [
        "▁मेरा",
        -9.28723838015602
      ],
      [
        "▁प्रदेशमा",
        -9.288278630717608
      ],
      [
        "▁बिहे",
        -9.288967943612803
      ],
      [
        "▁सभामुख",
        -9.289043824221046
      ],
      [
        "▁भक्तपुर",
        -9.290517416058243
      ],
      [
        "▁छैन,",
        -9.290933296324486
      ],
      [
        "हा",
        -9.291556579769242
      ],
      [
        "्य",
        -9.292301685596975
      ],
      [
        "▁सञ्जाल",
        -9.29281686911604
      ],
      [
        "▁मोर्चा",
        -9.293199006787292
      ],
      [
        "▁मृत्यु,",
        -9.293277435988523
      ],
      [
        "▁उपचारका",
        -9.293773832086927
      ],
      [
        "▁यात्रु",
        -9.297900184072862
      ],
      [
        "▁कारवाही",
        -9.298997939619895
      ],
      [
        "▁बिना",
        -9.299907073394774
      ],
      [
        "▁काठमाण्डौ",
        -9.300623004986235
      ],
      [
        "▁उजुरी",
        -9.30284440564175
      ],
      [
        "▁भोट",
        -9.302944838081178
      ],
      [
        "ति",
        -9.303501301596677
      ],
      [
        "▁विद्युत",
        -9.303797070261265
      ],
      [
        "▁पास",
        -9.303922179744589
      ],
      [
        "▁सुन्दर",
        -9.304417225844253
      ],
      [
        "▁अभ्यास",
        -9.304642371574992
      ],
      [
        "m",
        -9.30492227066871
      ],
      [
        "▁तिहार",
        -9.305255053312699
      ],
      [
        "▁सम्पादक",
        -9.305613356836618
      ],
      [
        "▁कम्युनिस्ट",
        -9.30617694547103
      ],
      [
        "▁महासचिव",
        -9.306315481399666
      ],
      [
        "गत",
        -9.306580443674072
      ],
      [
        "▁नियुक्त",
        -9.308129779583739
      ],
      [
        "▁कांग्रेसले",
        -9.308330719136157
      ],
      [
        "▁होस्",
        -9.308381280586694
      ],
      [
        "▁प्रचार",
        -9.308525550790591
      ],
      [
        "▁ऊ",
        -9.309381261453886
      ],
      [
        "▁मिनेटमा",
        -9.309940787956002
      ],
      [
        "▁गरिनेछ",
        -9.310273528730695
      ],
      [
        "▁क्षेत्रीय",
        -9.311331151759422
      ],
      [
        "▁मिस",
        -9.311466043183323
      ],
      [
        "▁बाध्य",
        -9.311544142596084
      ],
      [
        "▁डाक्टर",
        -9.311550603856352
      ],
      [
        "e",
        -9.31167145232787
      ],
      [
        "▁हेर्दा",
        -9.312091202841788
      ],
      [
        "▁महत्व",
        -9.312281475777347
      ],
      [
        "▁थिएँ",
        -9.315650586082464
      ],
      [
        "▁जानु",
        -9.315971971046018
      ],
      [
        "▁गतेसम्म",
        -9.316199408786527
      ],
      [
        "▁लोक",
        -9.317916530519035
      ],
      [
        "▁अहिलेको",
        -9.317925483463513
      ],
      [
        "▁सम्भव",
        -9.320044413078053
      ],
      [
        "▁युवती",
        -9.320047465704636
      ],
      [
        "▁कुरामा",
        -9.320775243475975
      ],
      [
        "▁व्यक्तिगत",
        -9.32126449480123
      ],
      [
        "▁सञ्चालक",
        -9.321819963745291
      ],
      [
        "▁समाजवादी",
        -9.321937545131973
      ],
      [
        "▁भयो।",
        -9.32243002092823
      ],
      [
        "▁समुदाय",
        -9.322903042837478
      ],
      [
        "▁केसीले",
        -9.323329320814489
      ],
      [
        "▁चौथो",
        -9.324204421412773
      ],
      [
        "▁खोजी",
        -9.324355945632195
      ],
      [
        "्ने",
        -9.325284328743965
      ],
      [
        "फ",
        -9.325610372835833
      ],
      [
        "▁शीर्ष",
        -9.327983150401568
      ],
      [
        "▁हुन्छ,",
        -9.328402847153402
      ],
      [
        ",’",
        -9.328826580151823
      ],
      [
        "d",
        -9.328917997774617
      ],
      [
        "▁हस्ताक्षर",
        -9.33100438001577
      ],
      [
        "▁मेला",
        -9.331152545586704
      ],
      [
        "▁चीनको",
        -9.333100858114909
      ],
      [
        "▁केन्द्रित",
        -9.33328016534882
      ],
      [
        "▁बीमा",
        -9.333344509161034
      ],
      [
        "▁अगाडी",
        -9.333405074053914
      ],
      [
        "▁सडकमा",
        -9.33458615411135
      ],
      [
        "▁कोइराला",
        -9.33583837023766
      ],
      [
        "▁कतै",
        -9.335840496628993
      ],
      [
        "▁[",
        -9.335859861134335
      ],
      [
        "▁होटल",
        -9.33601184187327
      ],
      [
        "▁बताउँछन्",
        -9.336775138692284
      ],
      [
        "▁यसो",
        -9.337146407583582
      ],
      [
        "ङ",
        -9.33800508309179
      ],
      [
        "▁मनोरञ्जन",
        -9.338840395977485
      ],
      [
        "▁सम्बन्धि",
        -9.339784801836272
      ],
      [
        "▁इन्टरनेट",
        -9.339955179697029
      ],
      [
        "▁दिए।",
        -9.3401339207202
      ],
      [
        "▁पूजा",
        -9.340701633959943
      ],
      [
        "▁व",
        -9.340889248637215
      ],
      [
        "▁पार्न",
        -9.340971974683754
      ],
      [
        "▁अष्ट्रेलिया",
        -9.341641387316326
      ],
      [
        "▁बाबुराम",
        -9.341656952024595
      ],
      [
        "▁किलो",
        -9.341919796544621
      ],
      [
        "▁दुःख",
        -9.342236810358905
      ],
      [
        "▁कमल",
        -9.343105165389176
      ],
      [
        "▁निर्वाचनको",
        -9.343229906084419
      ],
      [
        "▁तलब",
        -9.343239131606055
      ],
      [
        "▁श्रीमती",
        -9.345919001372973
      ],
      [
        "▁मिलेर",
        -9.34653210024576
      ],
      [
        "▁निःशुल्क",
        -9.346722082525115
      ],
      [
        "▁छुट",
        -9.347662154355145
      ],
      [
        "▁रनको",
        -9.34858128223479
      ],
      [
        "▁उपयुक्त",
        -9.348651280789618
      ],
      [
        "▁पुग्न",
        -9.348989532308293
      ],
      [
        "४",
        -9.351084940755625
      ],
      [
        "▁ट्राफिक",
        -9.35122172529832
      ],
      [
        "▁विद्यालयमा",
        -9.351436217626567
      ],
      [
        "▁हस्तान्तरण",
        -9.354279770374719
      ],
      [
        "▁दिल्ली",
        -9.35431678408731
      ],
      [
        "ओ",
        -9.35486575380439
      ],
      [
        "▁जहाज",
        -9.355648965072206
      ],
      [
        "▁संस्कृति",
        -9.355973912054075
      ],
      [
        "▁मन्त्रालयका",
        -9.356507905008762
      ],
      [
        "▁भएकी",
        -9.356916257788885
      ],
      [
        "नाथ",
        -9.357983632332548
      ],
      [
        "▁सदरमुकाम",
        -9.35855417742658
      ],
      [
        "▁भनेका",
        -9.360560137520704
      ],
      [
        "▁भोलि",
        -9.363300360414941
      ],
      [
        "▁आयोगको",
        -9.36345791293737
      ],
      [
        "▁नदी",
        -9.364036170979784
      ],
      [
        "▁खारेज",
        -9.364533479384903
      ],
      [
        "▁गाउँमा",
        -9.364683270901605
      ],
      [
        "▁संसद",
        -9.36517500682876
      ],
      [
        "▁दाहालले",
        -9.365587020374619
      ],
      [
        "▁प्रगति",
        -9.365920533148657
      ],
      [
        "▁५५",
        -9.366293419999963
      ],
      [
        "▁पढ्न",
        -9.36646041394906
      ],
      [
        "▁नेपाललाई",
        -9.36664567398427
      ],
      [
        "डी",
        -9.366702836852195
      ],
      [
        "▁औपचारिक",
        -9.366872258058706
      ],
      [
        "▁लगातार",
        -9.367359072800907
      ],
      [
        "पुर",
        -9.36789189362453
      ],
      [
        "▁निर्माणको",
        -9.371238859268187
      ],
      [
        "▁हालै",
        -9.376149451109386
      ],
      [
        "▁त्यसो",
        -9.376196121019872
      ],
      [
        "▁खानेपानी",
        -9.376511288242108
      ],
      [
        "▁किलोमिटर",
        -9.377285570042378
      ],
      [
        "▁सेक्स",
        -9.378043756069896
      ],
      [
        "▁कानुनी",
        -9.378826301855614
      ],
      [
        "टी",
        -9.37934526870455
      ],
      [
        "▁कलेज",
        -9.379363628613575
      ],
      [
        "▁टिप्पणी",
        -9.379588661367418
      ],
      [
        "▁पदमा",
        -9.380386089476556
      ],
      [
        "▁शर्माले",
        -9.38050400171575
      ],
      [
        "▁आगलागी",
        -9.380567896556752
      ],
      [
        "▁संसद्",
        -9.380935045391704
      ],
      [
        "हरूमा",
        -9.381346749927722
      ],
      [
        "▁महासंघ",
        -9.38174260475215
      ],
      [
        "▁नेताहरु",
        -9.382204690875813
      ],
      [
        "▁हिजो",
        -9.382920421554658
      ],
      [
        "ध",
        -9.383459709648818
      ],
      [
        "▁उपत्यका",
        -9.383718241555789
      ],
      [
        "▁विरुद्ध",
        -9.383767049530093
      ],
      [
        "▁नहुँदा",
        -9.384113307792255
      ],
      [
        "▁गरिसकेको",
        -9.384135867132105
      ],
      [
        "▁संघका",
        -9.38476630678494
      ],
      [
        "▁आधा",
        -9.3874574356126
      ],
      [
        "▁बच्चा",
        -9.388106301027875
      ],
      [
        "टा",
        -9.389076594856764
      ],
      [
        "▁प्राकृतिक",
        -9.390112501637763
      ],
      [
        "▁पर्व",
        -9.390478231382268
      ],
      [
        "▁गठबन्धन",
        -9.390971907232338
      ],
      [
        "▁प्रमाणपत्र",
        -9.391567986562922
      ],
      [
        "▁थिइन्",
        -9.392346909901581
      ],
      [
        "▁सेना",
        -9.392987054696437
      ],
      [
        "▁सरकारका",
        -9.393244836882673
      ],
      [
        "▁टेलिकम",
        -9.39349310460585
      ],
      [
        "▁हप्ता",
        -9.3952513888023
      ],
      [
        "▁सैनिक",
        -9.395576612255596
      ],
      [
        "▁भ्रष्टाचार",
        -9.395663335787937
      ],
      [
        "लो",
        -9.395983350157188
      ],
      [
        "▁A",
        -9.396348494605297
      ],
      [
        "▁मेगावाट",
        -9.3970985168747
      ],
      [
        "के",
        -9.397677141450538
      ],
      [
        "३",
        -9.399405199369452
      ],
      [
        "▁गोप्य",
        -9.399973604942371
      ],
      [
        "▁एवम्",
        -9.400259033150347
      ],
      [
        "▁कामदार",
        -9.400338554612414
      ],
      [
        "▁उनीहरू",
        -9.400576922183664
      ],
      [
        "▁खेल्ने",
        -9.401191007005561
      ],
      [
        "▁पार्टीले",
        -9.401417827325982
      ],
      [
        "▁चौधरी",
        -9.401509268353141
      ],
      [
        "▁अनिवार्य",
        -9.402522019978003
      ],
      [
        "▁त्यसका",
        -9.403275257537402
      ],
      [
        "▁केन्द्रमा",
        -9.403773386315219
      ],
      [
        "▁विजय",
        -9.40386564533408
      ],
      [
        "▁एसिया",
        -9.405103740461755
      ],
      [
        "▁संघको",
        -9.4056097695643
      ],
      [
        "▁प्रिमियर",
        -9.40593640147781
      ],
      [
        "▁भ्रमणमा",
        -9.406245772489703
      ],
      [
        "▁छिटो",
        -9.406332298171332
      ],
      [
        "▁अभिनेत्री",
        -9.407228850568618
      ],
      [
        "▁चिकित्सक",
        -9.407944090728087
      ],
      [
        "▁गणतन्त्र",
        -9.407988862683549
      ],
      [
        "▁अमेरिकामा",
        -9.409974240145043
      ],
      [
        "सी",
        -9.410177949618703
      ],
      [
        "▁जनाएका",
        -9.411789441030152
      ],
      [
        "▁सबैले",
        -9.412693057024395
      ],
      [
        "▁गए",
        -9.414211389500968
      ],
      [
        "i",
        -9.415726347753985
      ],
      [
        "▁बहस",
        -9.415884103356184
      ],
      [
        "ाइ",
        -9.416295607246319
      ],
      [
        "▁परे",
        -9.417360188562746
      ],
      [
        "▁पर्यटकीय",
        -9.419897252464612
      ],
      [
        "▁S",
        -9.419993152612285
      ],
      [
        "▁घिमिरे",
        -9.420438499480309
      ],
      [
        "▁उपस्थित",
        -9.420557958406722
      ],
      [
        "▁राजीनामा",
        -9.420581188798831
      ],
      [
        "▁तथ्य",
        -9.421345404348337
      ],
      [
        "▁मूल",
        -9.42154077428955
      ],
      [
        "▁भेला",
        -9.422699138552339
      ],
      [
        "▁धन्यवाद",
        -9.423230527988357
      ],
      [
        "▁९०",
        -9.42340551698032
      ],
      [
        "▁स्थिति",
        -9.42353640212429
      ],
      [
        "▁परिचालन",
        -9.424059309804122
      ],
      [
        "▁लाग्न",
        -9.424091793638581
      ],
      [
        "▁उपाय",
        -9.425804417288592
      ],
      [
        "▁उचित",
        -9.425817696806453
      ],
      [
        "▁बोर्ड",
        -9.426772233532285
      ],
      [
        "▁आधारित",
        -9.427240848808653
      ],
      [
        "▁पहिला",
        -9.427902281865494
      ],
      [
        "िया",
        -9.428048378593907
      ],
      [
        "▁निश्चित",
        -9.428119880332169
      ],
      [
        "▁इच्छा",
        -9.429616612997808
      ],
      [
        "▁मैदानमा",
        -9.430008978644768
      ],
      [
        "▁समावेश",
        -9.430502346266703
      ],
      [
        "▁तिमी",
        -9.430901684872467
      ],
      [
        "▁छनौट",
        -9.434560254529554
      ],
      [
        "▁नजिक",
        -9.43481007923828
      ],
      [
        "▁लागेर",
        -9.43541000636137
      ],
      [
        "▁विदेशमा",
        -9.436027927404503
      ],
      [
        "▁थुप्रै",
        -9.436348072859062
      ],
      [
        "▁चोरी",
        -9.43669195050049
      ],
      [
        "▁अर्का",
        -9.436927158195953
      ],
      [
        "▁प्रमाण",
        -9.437033308083656
      ],
      [
        "रुपमा",
        -9.43756636384918
      ],
      [
        "▁पोखरेल",
        -9.438413191872753
      ],
      [
        "राम",
        -9.439344650956572
      ],
      [
        "▁भण्डारीले",
        -9.439357358448508
      ],
      [
        "▁सरकारमा",
        -9.439844399494572
      ],
      [
        "r",
        -9.440532454173173
      ],
      [
        "▁गर्ने,",
        -9.441003755780041
      ],
      [
        "जा",
        -9.442065650787267
      ],
      [
        "▁राजदूत",
        -9.442514324600094
      ],
      [
        "▁दुबै",
        -9.442778105986543
      ],
      [
        "▁बढि",
        -9.443188443098524
      ],
      [
        "▁यता",
        -9.443600214248526
      ],
      [
        "▁कोरिया",
        -9.443847038699039
      ],
      [
        "▁अवधिमा",
        -9.445140770607207
      ],
      [
        "▁शेर्पा",
        -9.446479213088125
      ],
      [
        "▁धन",
        -9.446485253655098
      ],
      [
        "।’",
        -9.446670608867151
      ],
      [
        "्या",
        -9.44683036238088
      ],
      [
        "▁वर्षपछि",
        -9.44709568777225
      ],
      [
        "दिन",
        -9.44736154345349
      ],
      [
        "िय",
        -9.447618784789082
      ],
      [
        "▁सत्ता",
        -9.44788665196368
      ],
      [
        "▁समृद्धि",
        -9.448630535648569
      ],
      [
        "▁नाफा",
        -9.448855908270737
      ],
      [
        "▁प्रतियोगिताको",
        -9.448892686963045
      ],
      [
        "▁नभई",
        -9.449321190529897
      ],
      [
        "▁हक",
        -9.449590690379647
      ],
      [
        "▁जिम्मा",
        -9.44967677629137
      ],
      [
        "▁कार्यालयका",
        -9.45023045023683
      ],
      [
        "▁जापान",
        -9.451426340548743
      ],
      [
        "▁गर्यो",
        -9.451834330944102
      ],
      [
        "▁सकेन",
        -9.452456407526046
      ],
      [
        "▁विक",
        -9.45246553636585
      ],
      [
        "▁तपाईंले",
        -9.452478009237566
      ],
      [
        "l",
        -9.452641211213901
      ],
      [
        "÷",
        -9.452835778605948
      ],
      [
        "▁व्यावसायिक",
        -9.453854686169691
      ],
      [
        "▁गरियो",
        -9.454792794399413
      ],
      [
        "▁महोत्सव",
        -9.455708183267156
      ],
      [
        "▁विश्लेषण",
        -9.455748767363923
      ],
      [
        "▁निकालिए",
        -9.456165627753279
      ],
      [
        "▁गाह्रो",
        -9.459524394346307
      ],
      [
        "▁गतिविधि",
        -9.460334080781434
      ],
      [
        "▁सदस्यीय",
        -9.46068892053009
      ],
      [
        "▁एमालेले",
        -9.461521620986447
      ],
      [
        "▁महिनाको",
        -9.463224152012195
      ],
      [
        "▁२०१७",
        -9.463409674593846
      ],
      [
        "▁नारायण",
        -9.463437619607998
      ],
      [
        "▁भन्छन्",
        -9.463777462259898
      ],
      [
        "वि",
        -9.464525785051197
      ],
      [
        "▁एकजना",
        -9.465150510861555
      ],
      [
        "▁महसुस",
        -9.465877520509059
      ],
      [
        "▁बनाएका",
        -9.465931942051935
      ],
      [
        "▁अमेरिकाको",
        -9.46607888608775
      ],
      [
        "▁सम्पादन",
        -9.468074340500884
      ],
      [
        "▁कर्जा",
        -9.468391437806602
      ],
      [
        "▁चाहना",
        -9.468560791003899
      ],
      [
        "▁हिंसा",
        -9.469183496657799
      ],
      [
        "▁गर्छु",
        -9.470427472592336
      ],
      [
        "▁पदाधिकारी",
        -9.471113238471549
      ],
      [
        "▁व्यक्तिको",
        -9.471453598933365
      ],
      [
        "▁जोखिम",
        -9.471498129430726
      ],
      [
        "▁आउँछ",
        -9.471833779463784
      ],
      [
        "▁तिम्रो",
        -9.471990966717087
      ],
      [
        "y",
        -9.472199691082338
      ],
      [
        "▁ठुलो",
        -9.473226714791837
      ],
      [
        "▁पुगेर",
        -9.474699303017315
      ],
      [
        "नि",
        -9.475005521799162
      ],
      [
        "▁हुँदैछ",
        -9.475945983820402
      ],
      [
        "▁त्यसले",
        -9.476000351638119
      ],
      [
        "▁‘हामी",
        -9.476807186699112
      ],
      [
        "▁प्रजातन्त्र",
        -9.477248421756709
      ],
      [
        "▁पाइने",
        -9.477514072183844
      ],
      [
        "▁साथी",
        -9.47781876498842
      ],
      [
        "▁अर्थमन्त्री",
        -9.47831565161528
      ],
      [
        "▁शहर",
        -9.47923005175344
      ],
      [
        "▁भत्ता",
        -9.479418063585735
      ],
      [
        "▁बताउनुभएको",
        -9.479574158511028
      ],
      [
        "▁उनीहरुलाई",
        -9.479691350600831
      ],
      [
        "▁झापा",
        -9.481016973987932
      ],
      [
        "▁एकीकरण",
        -9.48113581254626
      ],
      [
        "▁पहुँच",
        -9.482767945145579
      ],
      [
        "▁तुलनामा",
        -9.484530948496046
      ],
      [
        "▁पाइन्छ",
        -9.484873620978284
      ],
      [
        "▁समाजमा",
        -9.485294394024201
      ],
      [
        "▁छानबिन",
        -9.485987810012226
      ],
      [
        "▁कसले",
        -9.486414030197068
      ],
      [
        "▁फेरी",
        -9.486744604813728
      ],
      [
        "▁रुचि",
        -9.487061854351634
      ],
      [
        "▁लक्ष्मी",
        -9.487289540469636
      ],
      [
        "पा",
        -9.488518031653935
      ],
      [
        "▁नायिका",
        -9.48865199006105
      ],
      [
        "▁कमी",
        -9.489262017844272
      ],
      [
        "▁पदार्थ",
        -9.48942614533788
      ],
      [
        "▁च",
        -9.490020573768492
      ],
      [
        "▁उनीहरूले",
        -9.49017312733609
      ],
      [
        "▁व्यवहार",
        -9.490767772484762
      ],
      [
        "▁समान",
        -9.491469295598948
      ],
      [
        "▁टिकट",
        -9.492360751522941
      ],
      [
        "▁रोक्न",
        -9.492404632484266
      ],
      [
        "▁सेवन",
        -9.492504646979272
      ],
      [
        "▁बेपत्ता",
        -9.492509379723064
      ],
      [
        "▁कालो",
        -9.495041133445485
      ],
      [
        "ाई",
        -9.495353223572891
      ],
      [
        "▁समानुपातिक",
        -9.495430060892122
      ],
      [
        "▁मधेश",
        -9.496643122336652
      ],
      [
        "▁लक्षित",
        -9.49681565757832
      ],
      [
        "▁विभागले",
        -9.497005067138439
      ],
      [
        "▁मे",
        -9.497418528276457
      ],
      [
        "▁गर्नका",
        -9.4976724115619
      ],
      [
        "▁मध्य",
        -9.49886311446729
      ],
      [
        "▁परिचय",
        -9.499007238341182
      ],
      [
        "▁बोल्दै",
        -9.500164946972404
      ],
      [
        "▁चैत्र",
        -9.501702972329019
      ],
      [
        "▁मेयर",
        -9.501959968777687
      ],
      [
        "बी",
        -9.502084319829116
      ],
      [
        "▁पहिरो",
        -9.503145907313726
      ],
      [
        "▁सचिवालय",
        -9.503307737134493
      ],
      [
        "▁पर्न",
        -9.504453313051116
      ],
      [
        "▁छौँ",
        -9.504908019207594
      ],
      [
        "▁छिमेकी",
        -9.505954408975102
      ],
      [
        "▁औँ",
        -9.506071725196957
      ],
      [
        "▁सगरमाथा",
        -9.506555058841954
      ],
      [
        "सा",
        -9.506860289387411
      ],
      [
        "▁Previous",
        -9.507605071959556
      ],
      [
        "▁कार",
        -9.50884400538361
      ],
      [
        "▁सक्छन्",
        -9.50916039131261
      ],
      [
        "९",
        -9.510051073957902
      ],
      [
        "▁दबाब",
        -9.510136563993415
      ],
      [
        "▁डेढ",
        -9.510207273324987
      ],
      [
        "▁वर्षा",
        -9.510224632163737
      ],
      [
        "▁जीवनमा",
        -9.512256727372986
      ],
      [
        "▁केसीको",
        -9.512587070511568
      ],
      [
        "▁आलोचना",
        -9.513224451601115
      ],
      [
        "▁जनतालाई",
        -9.513966052843084
      ],
      [
        "ar",
        -9.51426584805532
      ],
      [
        "▁उपस्थिति",
        -9.515009603124355
      ],
      [
        "▁बसेका",
        -9.515390880870395
      ],
      [
        "▁गर",
        -9.517300410903204
      ],
      [
        "▁रुप",
        -9.518224172371864
      ],
      [
        "▁(भिडियोसहित)",
        -9.519291169928813
      ],
      [
        "म्",
        -9.520378148408415
      ],
      [
        "▁जनकपुर",
        -9.520670313101249
      ],
      [
        "▁राजेन्द्र",
        -9.52074157616962
      ],
      [
        "▁लगाएर",
        -9.520760587352957
      ],
      [
        "▁आगो",
        -9.52105982682999
      ],
      [
        "▁सक्नुहुन्छ",
        -9.521152258311051
      ],
      [
        "▁सन्दर्भमा",
        -9.523043462772
      ],
      [
        "▁संघर्ष",
        -9.523317979041089
      ],
      [
        "▁बताएको",
        -9.523496565721267
      ],
      [
        "▁लेखक",
        -9.523985449287183
      ],
      [
        "▁जसमा",
        -9.524246128382915
      ],
      [
        "▁मानिसहरु",
        -9.52515704537558
      ],
      [
        "▁नजिकै",
        -9.525975542027862
      ],
      [
        "▁३६",
        -9.526664241802559
      ],
      [
        "▁बस्ती",
        -9.526788275120097
      ],
      [
        "▁फैसला",
        -9.527176597648177
      ],
      [
        "▁सक्छ।",
        -9.528538389998253
      ],
      [
        "▁शासन",
        -9.52927599493074
      ],
      [
        "▁बुटवल",
        -9.529834450376793
      ],
      [
        "▁जलविद्युत्",
        -9.529911571070983
      ],
      [
        "ियो",
        -9.530129353706926
      ],
      [
        "▁सांस्कृतिक",
        -9.530454394977328
      ],
      [
        "▁कमिटी",
        -9.53082790303291
      ],
      [
        "▁हैन",
        -9.531060628761253
      ],
      [
        "▁मापदण्ड",
        -9.531110502287842
      ],
      [
        "▁सल्लाहकार",
        -9.531528616044518
      ],
      [
        "▁पोखरामा",
        -9.531534962740107
      ],
      [
        "▁ज",
        -9.531615909480678
      ],
      [
        "▁खतरा",
        -9.531912624121976
      ],
      [
        "▁अदालतमा",
        -9.532169559633301
      ],
      [
        "ती",
        -9.532294068287495
      ],
      [
        "५",
        -9.532526173700948
      ],
      [
        "▁बाहेक",
        -9.533857113213386
      ],
      [
        "▁मतगणना",
        -9.533871180865518
      ],
      [
        "▁अर्थात",
        -9.533961532377782
      ],
      [
        "▁Next",
        -9.534077345184453
      ],
      [
        "▁साह",
        -9.534905244878225
      ],
      [
        "▁ग",
        -9.535865346987073
      ],
      [
        "मान",
        -9.536982384696778
      ],
      [
        "▁दश",
        -9.53831335947137
      ],
      [
        "▁निवेदन",
        -9.538342533156992
      ],
      [
        "▁अलि",
        -9.538594539668814
      ],
      [
        "▁त्यसै",
        -9.538789955353842
      ],
      [
        "▁राखेका",
        -9.53959482183801
      ],
      [
        "▁बागलुङ",
        -9.539800330467756
      ],
      [
        "▁प्रधानमन्त्रीको",
        -9.541482232965395
      ],
      [
        "▁भट्टराईले",
        -9.542334254619355
      ],
      [
        "▁७५",
        -9.54418798564988
      ],
      [
        "▁धनगढी",
        -9.544255346055893
      ],
      [
        "▁नगरी",
        -9.544512369202607
      ],
      [
        "▁मानसिक",
        -9.545091124998194
      ],
      [
        "िने",
        -9.546879179755656
      ],
      [
        "लार्इ",
        -9.546890540362686
      ],
      [
        "▁त्यस्ता",
        -9.547223585868387
      ],
      [
        "▁दिनको",
        -9.5485385642969
      ],
      [
        "▁संकेत",
        -9.550099569412332
      ],
      [
        "▁नक्कली",
        -9.551139370838992
      ],
      [
        "▁उपेन्द्र",
        -9.55184032524454
      ],
      [
        "▁बलिउड",
        -9.551874456397737
      ],
      [
        "▁सं",
        -9.552036641398999
      ],
      [
        "▁आह्वान",
        -9.552068248563632
      ],
      [
        "▁रद्द",
        -9.55282767209987
      ],
      [
        "▁अभिनेता",
        -9.553140759523956
      ],
      [
        "बाहेक",
        -9.553273165894852
      ],
      [
        "६",
        -9.553307900215895
      ],
      [
        "डा",
        -9.55349097083387
      ],
      [
        "▁लुम्बिनी",
        -9.553696674035777
      ],
      [
        "▁गौतम",
        -9.554200287358043
      ],
      [
        "सित",
        -9.554416664037962
      ],
      [
        "▁क्याम्पस",
        -9.555149988037961
      ],
      [
        "ाउने",
        -9.555949704969741
      ],
      [
        "▁भन्सार",
        -9.556035990143794
      ],
      [
        "▁वस्तु",
        -9.557703490877822
      ],
      [
        "c",
        -9.557946953399703
      ],
      [
        "▁चलाउन",
        -9.55808395790535
      ],
      [
        "▁अस्थायी",
        -9.559030099533881
      ],
      [
        "▁समयदेखि",
        -9.559582191105559
      ],
      [
        "वाट",
        -9.56005289435489
      ],
      [
        "▁सकिएको",
        -9.561239372186089
      ],
      [
        "▁गयो",
        -9.56133277548972
      ],
      [
        "▁सक्दैन",
        -9.56177145156979
      ],
      [
        "▁सिट",
        -9.56292320439831
      ],
      [
        "▁मौका",
        -9.563132607727912
      ],
      [
        "▁६५",
        -9.56381341202836
      ],
      [
        "▁मुख",
        -9.563878258255015
      ],
      [
        "▁पाइएको",
        -9.564240516078423
      ],
      [
        "▁खनाल",
        -9.564466101229339
      ],
      [
        "▁तयारीमा",
        -9.564598703651804
      ],
      [
        "▁फिल्ममा",
        -9.564711056984544
      ],
      [
        "▁हुन्थ्यो",
        -9.564761494279757
      ],
      [
        "▁सहायक",
        -9.565019420102942
      ],
      [
        "▁बीचमा",
        -9.565157260349565
      ],
      [
        "्र",
        -9.566092815189698
      ],
      [
        "▁उपरीक्षक",
        -9.56702285053865
      ],
      [
        "▁तपाईंलाई",
        -9.567310572793135
      ],
      [
        "▁स्थगित",
        -9.56802792179398
      ],
      [
        "ुपर्ने",
        -9.568631321284219
      ],
      [
        "▁डट",
        -9.56918324762939
      ],
      [
        "▁ग्यास",
        -9.569203580087514
      ],
      [
        "▁ग्रहण",
        -9.570088154790437
      ],
      [
        "▁खुल्ला",
        -9.572416229741213
      ],
      [
        "▁रगत",
        -9.572526940411006
      ],
      [
        "▁बुझ्न",
        -9.573890917703299
      ],
      [
        "▁शक्तिशाली",
        -9.574098027729507
      ],
      [
        "▁यसैगरी",
        -9.574169805377904
      ],
      [
        "▁आयोजनाको",
        -9.575108811917866
      ],
      [
        "▁जनाइएको",
        -9.576726836506797
      ],
      [
        "वादी",
        -9.576987290038819
      ],
      [
        "▁संसदमा",
        -9.577341095175047
      ],
      [
        "▁भरतपुर",
        -9.577344965137524
      ],
      [
        "▁पर्वत",
        -9.578447285718937
      ],
      [
        "▁शाह",
        -9.579366918783766
      ],
      [
        "▁दिवसको",
        -9.579687854212773
      ],
      [
        "बीचको",
        -9.58004043942367
      ],
      [
        "▁पाकिस्तान",
        -9.580103643328968
      ],
      [
        "▁रेकर्ड",
        -9.580385363659598
      ],
      [
        "▁नभएर",
        -9.580590236439315
      ],
      [
        "▁बमोजिम",
        -9.582080034107696
      ],
      [
        "▁इमेल",
        -9.582230201136262
      ],
      [
        "ङ्ग",
        -9.582577343844477
      ],
      [
        "▁बताउनु",
        -9.583469288782517
      ],
      [
        "▁युनिकोड",
        -9.584247400576153
      ],
      [
        "▁मासु",
        -9.584463082396297
      ],
      [
        "▁जाँच",
        -9.585046286928936
      ],
      [
        "▁तोकिएको",
        -9.585715256459315
      ],
      [
        "▁सहयोगमा",
        -9.586355489414851
      ],
      [
        "▁हवाई",
        -9.588339864880954
      ],
      [
        "▁मङ्सिर",
        -9.588460595624674
      ],
      [
        "▁मलेसिया",
        -9.589118223614426
      ],
      [
        "▁नरेन्द्र",
        -9.589370217376818
      ],
      [
        "▁आधिकारिक",
        -9.590397899435917
      ],
      [
        "▁टुंगो",
        -9.59043925539795
      ],
      [
        "▁लागिएको",
        -9.591040284293294
      ],
      [
        "▁एन",
        -9.591182916904483
      ],
      [
        "▁बिजुली",
        -9.591534859114866
      ],
      [
        "▁३८",
        -9.59175077479767
      ],
      [
        "▁भुक्तानी",
        -9.591997375966196
      ],
      [
        "्दा",
        -9.592205338105952
      ],
      [
        "▁पुगे",
        -9.592250800079782
      ],
      [
        "▁प्रदेशका",
        -9.592579823404224
      ],
      [
        "▁पठाउने",
        -9.592660006566742
      ],
      [
        "▁मामिला",
        -9.59329209553394
      ],
      [
        "▁उपयोग",
        -9.593370245570416
      ],
      [
        "▁सञ्चालित",
        -9.593508587695652
      ],
      [
        "▁आजदेखि",
        -9.595281508710595
      ],
      [
        "▁आधुनिक",
        -9.595513379580616
      ],
      [
        "▁तराई",
        -9.595883121396888
      ],
      [
        "▁चिया",
        -9.596036248615176
      ],
      [
        "▁प्रसाद",
        -9.596425409873238
      ],
      [
        "▁सेन्टर",
        -9.596436062567157
      ],
      [
        "▁व्यवस्थित",
        -9.596617913567222
      ],
      [
        "▁वर्षसम्म",
        -9.596722169980602
      ],
      [
        "▁गीतमा",
        -9.597108456228856
      ],
      [
        "▁गर्नेछ",
        -9.598505389485933
      ],
      [
        "▁देख्न",
        -9.598560191449247
      ],
      [
        "▁जनसंख्या",
        -9.598664827852716
      ],
      [
        "▁रमेश",
        -9.598988939594776
      ],
      [
        "▁मोरङ",
        -9.599642137361935
      ],
      [
        "जस्तै",
        -9.599705017986757
      ],
      [
        "▁उसलाई",
        -9.599747333251404
      ],
      [
        "▁कमेन्ट",
        -9.59990242388632
      ],
      [
        "▁कांग्रेसको",
        -9.600288211239652
      ],
      [
        "▁वर्षअघि",
        -9.602660880068546
      ],
      [
        "▁संस्थाले",
        -9.60268671484014
      ],
      [
        "▁जसको",
        -9.602973388401939
      ],
      [
        "▁पुनर्निर्माण",
        -9.603250928238431
      ],
      [
        "▁जागिर",
        -9.603478309449532
      ],
      [
        "▁अति",
        -9.603522619127784
      ],
      [
        "▁अलग",
        -9.603603637610185
      ],
      [
        "▁प्रसारण",
        -9.603881268646443
      ],
      [
        "▁नष्ट",
        -9.603910192244925
      ],
      [
        "▁मन्त्रालयको",
        -9.604583704901522
      ],
      [
        "▁विमानस्थलमा",
        -9.606130752744184
      ],
      [
        "▁थोरै",
        -9.606453971102814
      ],
      [
        "▁कु",
        -9.606955634176748
      ],
      [
        "▁गोरखा",
        -9.607043912229727
      ],
      [
        "▁गति",
        -9.60776152697545
      ],
      [
        "बि",
        -9.607891949507387
      ],
      [
        "▁आएपछि",
        -9.608029943628242
      ],
      [
        "▁सब",
        -9.608663047704436
      ],
      [
        "▁टाइप",
        -9.609085889660296
      ],
      [
        "▁१.",
        -9.609673803477389
      ],
      [
        "▁पोस्ट",
        -9.610933948802016
      ],
      [
        "▁पर्याप्त",
        -9.611186698367604
      ],
      [
        "▁स्वीकार",
        -9.611919394574766
      ],
      [
        "▁परिवारको",
        -9.611976514750925
      ],
      [
        "▁कसैलाई",
        -9.611999704589008
      ],
      [
        "▁कार्यदल",
        -9.612165737352537
      ],
      [
        "▁जनाले",
        -9.612521275170579
      ],
      [
        "▁देखिने",
        -9.612696618728421
      ],
      [
        "▁सालको",
        -9.612739584878629
      ],
      [
        "▁संस्थाको",
        -9.612805888863114
      ],
      [
        "▁दिनुपर्ने",
        -9.613458528121004
      ],
      [
        "▁Comments",
        -9.614363347150409
      ],
      [
        "▁बस्दै",
        -9.615256865429775
      ],
      [
        "▁निर्माणमा",
        -9.616112122332863
      ],
      [
        "▁ओ",
        -9.616119643481174
      ],
      [
        "▁मदिरा",
        -9.6163047702041
      ],
      [
        "▁खेल्न",
        -9.617039537520858
      ],
      [
        "▁असफल",
        -9.618770997773481
      ],
      [
        "▁वेबसाइट",
        -9.618830262619078
      ],
      [
        "▁अन्तराष्ट्रिय",
        -9.619008138342178
      ],
      [
        "▁बनाए",
        -9.619165922129506
      ],
      [
        "▁ठीक",
        -9.619417557610497
      ],
      [
        "▁गराएका",
        -9.619652216506488
      ],
      [
        "▁प्रारम्भिक",
        -9.619723036196929
      ],
      [
        "▁कञ्चनपुर",
        -9.620039663565876
      ],
      [
        "▁दावी",
        -9.620687484118612
      ],
      [
        "▁पछाडि",
        -9.621246523230464
      ],
      [
        "▁गजल",
        -9.62126131802783
      ],
      [
        "▁रे",
        -9.621587673663191
      ],
      [
        "▁आई",
        -9.623203005783243
      ],
      [
        "ठ",
        -9.623232900062442
      ],
      [
        "»",
        -9.624071930400323
      ],
      [
        "िएको",
        -9.624703716374558
      ],
      [
        "▁प्रतिष्ठान",
        -9.625342861898929
      ],
      [
        "khabar.com",
        -9.625608537069585
      ],
      [
        "▁गाई",
        -9.626061322487086
      ],
      [
        "▁चन्द",
        -9.62633420102413
      ],
      [
        "▁दुरुपयोग",
        -9.627051441037947
      ],
      [
        "▁समयमै",
        -9.627902182120355
      ],
      [
        "▁सी",
        -9.628114926348545
      ],
      [
        "▁मौसम",
        -9.628417665142962
      ],
      [
        "▁धनी",
        -9.63022125608056
      ],
      [
        "▁संघीयता",
        -9.63026056084508
      ],
      [
        "▁भावना",
        -9.630665967608518
      ],
      [
        "▁प्रशिक्षण",
        -9.632482763275473
      ],
      [
        "▁बहुमत",
        -9.63362264001228
      ],
      [
        "▁प्रशिक्षक",
        -9.633935177368357
      ],
      [
        "▁समृद्धिको",
        -9.63402624600699
      ],
      [
        "▁प्रतिशतले",
        -9.634862203682076
      ],
      [
        "▁मद्दत",
        -9.63562136137391
      ],
      [
        "सि",
        -9.63659689676974
      ],
      [
        "▁कदम",
        -9.63680145545067
      ],
      [
        "ंग",
        -9.63682132717669
      ],
      [
        "▁मधेशी",
        -9.637032281546038
      ],
      [
        "▁अर्थतन्त्र",
        -9.637037179980204
      ],
      [
        "▁सहयोगी",
        -9.638018826580664
      ],
      [
        "▁तरिका",
        -9.638372070854995
      ],
      [
        "▁अन्तर",
        -9.638444734503121
      ],
      [
        "▁उपकरण",
        -9.638775631316541
      ],
      [
        "▁ह",
        -9.63915579731039
      ],
      [
        "▁मासिक",
        -9.639279834370914
      ],
      [
        "▁ज्ञवाली",
        -9.639839037251576
      ],
      [
        "▁कुराहरु",
        -9.640220845646194
      ],
      [
        "▁पोखरेलले",
        -9.640236802798675
      ],
      [
        "▁सन्दीप",
        -9.640475450319808
      ],
      [
        "▁पीडा",
        -9.640486821851747
      ],
      [
        "▁ना",
        -9.640702322554642
      ],
      [
        "▁निर्यात",
        -9.640777499909444
      ],
      [
        "▁जेष्ठ",
        -9.641011437822065
      ],
      [
        "▁शाक्य",
        -9.641014938258497
      ],
      [
        "७",
        -9.641244694122033
      ],
      [
        "▁ज्ञानेन्द्र",
        -9.642143734009027
      ],
      [
        "▁प्रधानन्यायाधीश",
        -9.642408366043183
      ],
      [
        "▁टाढा",
        -9.642839635203549
      ],
      [
        "▁युद्ध",
        -9.64300310749448
      ],
      [
        "▁पुराना",
        -9.643265728597388
      ],
      [
        "लि",
        -9.644034060167655
      ],
      [
        "▁निरन्तरता",
        -9.644545233176823
      ],
      [
        "▁मोदी",
        -9.64465527978544
      ],
      [
        "दै",
        -9.64490115892048
      ],
      [
        "▁साप्ताहिक",
        -9.644916621911717
      ],
      [
        "रु",
        -9.64577061965823
      ],
      [
        "▁लि.",
        -9.64581340622303
      ],
      [
        "▁तर्क",
        -9.646255955261111
      ],
      [
        "▁हिसाबले",
        -9.646423195975242
      ],
      [
        "▁टेलिभिजन",
        -9.647593512190895
      ],
      [
        "▁किनभने",
        -9.647941366928247
      ],
      [
        "▁राज",
        -9.648690848374526
      ],
      [
        "▁५१",
        -9.648807807023264
      ],
      [
        "▁विजेता",
        -9.648947118850899
      ],
      [
        "▁भारतका",
        -9.649259314100295
      ],
      [
        "▁चिकित्सा",
        -9.649341226930872
      ],
      [
        "१",
        -9.650706695417904
      ],
      [
        "अ",
        -9.652697181119837
      ],
      [
        "▁बढ्दो",
        -9.652991049533835
      ],
      [
        "▁बाबु",
        -9.65461236585936
      ],
      [
        "▁कार्ड",
        -9.65569880964039
      ],
      [
        "▁आयोगका",
        -9.655892863916721
      ],
      [
        "▁बिदा",
        -9.655901197799244
      ],
      [
        "▁छोटो",
        -9.656781263084298
      ],
      [
        "▁विकासमा",
        -9.65679320194209
      ],
      [
        "▁नेप्से",
        -9.6570651970253
      ],
      [
        "▁विधि",
        -9.657675713063345
      ],
      [
        "▁भएमा",
        -9.657770334824026
      ],
      [
        "▁अभिभावक",
        -9.657876871631139
      ],
      [
        "▁म्याद",
        -9.658465919882214
      ],
      [
        "▁समृद्ध",
        -9.658874261714978
      ],
      [
        "▁महिलाले",
        -9.658910615149374
      ],
      [
        "▁जनशक्ति",
        -9.659602957085674
      ],
      [
        "▁स्वीकृत",
        -9.659775724207252
      ],
      [
        "▁लिए",
        -9.659949969834681
      ],
      [
        "▁पारेर",
        -9.661688172419865
      ],
      [
        "▁उदाहरण",
        -9.66173919501931
      ],
      [
        "▁केन्द्रले",
        -9.661817545019293
      ],
      [
        "जन",
        -9.662488725555487
      ],
      [
        "▁ब्लग",
        -9.662890287952077
      ],
      [
        "▁वर्ग",
        -9.66360965923936
      ],
      [
        "बा",
        -9.664524721774967
      ],
      [
        "▁पुष्टि",
        -9.665111398091245
      ],
      [
        "▁समुदायको",
        -9.666113043871732
      ],
      [
        "▁देखाएको",
        -9.66613547501791
      ],
      [
        "▁देखिएका",
        -9.666540948171043
      ],
      [
        "▁गल्ती",
        -9.667160593239863
      ],
      [
        "▁महेन्द्र",
        -9.668275598685273
      ],
      [
        "▁निर्वाह",
        -9.668481469386276
      ],
      [
        "▁\"https://ne.",
        -9.669541257311327
      ],
      [
        "र्स",
        -9.669574171204427
      ],
      [
        "▁महिलालाई",
        -9.669633409828835
      ],
      [
        "▁व्यक्तिले",
        -9.670187364638986
      ],
      [
        "▁बिभिन्न",
        -9.670661535030876
      ],
      [
        "▁नेपालीको",
        -9.670903650318408
      ],
      [
        "▁उप",
        -9.671925958332867
      ],
      [
        "▁सूर्य",
        -9.672428608999336
      ],
      [
        "▁पूर्वी",
        -9.672485379024877
      ],
      [
        "▁यहि",
        -9.672919066175037
      ],
      [
        "▁राप्रपा",
        -9.673328176728665
      ],
      [
        "▁सिनेमा",
        -9.673982434886316
      ],
      [
        "▁ला",
        -9.674332936612108
      ],
      [
        "कि",
        -9.674424037866821
      ],
      [
        "▁कप्तान",
        -9.67453373397231
      ],
      [
        "▁आनन्द",
        -9.674839360329342
      ],
      [
        "▁स्टार",
        -9.675200528616568
      ],
      [
        "▁जमिन",
        -9.67521705995382
      ],
      [
        "▁त्यसैगरी",
        -9.675602635972671
      ],
      [
        "▁स्थानिय",
        -9.676770440591259
      ],
      [
        "▁नव",
        -9.676850100108833
      ],
      [
        "▁लागु",
        -9.676963352949674
      ],
      [
        "▁सर्वाधिक",
        -9.677360710847186
      ],
      [
        "▁खर्ब",
        -9.678497604178647
      ],
      [
        "▁निर्माता",
        -9.679587058954455
      ],
      [
        "▁अध्यक्षतामा",
        -9.67993938463837
      ],
      [
        "▁स्वदेश",
        -9.68043472817563
      ],
      [
        "▁जनजाति",
        -9.68101882235025
      ],
      [
        "▁परि",
        -9.681191378668998
      ],
      [
        "▁राज्यको",
        -9.682138866653625
      ],
      [
        "▁तहका",
        -9.682257309480434
      ],
      [
        "▁राजविराज,",
        -9.683267777669862
      ],
      [
        "▁३७",
        -9.683592705237489
      ],
      [
        "▁मानिसको",
        -9.683649199229887
      ],
      [
        "▁पाण्डे",
        -9.683761832596932
      ],
      [
        "▁जाँदै",
        -9.684509205584405
      ],
      [
        "▁नोट",
        -9.685118615569392
      ],
      [
        "▁परिवारका",
        -9.685156057835853
      ],
      [
        "▁सके",
        -9.6852875560512
      ],
      [
        "▁गर्नुहोला",
        -9.685404062369072
      ],
      [
        "▁वर्षका",
        -9.687854225411808
      ],
      [
        "▁चाहिँ",
        -9.688071547974719
      ],
      [
        "▁हिमाल",
        -9.688756399802237
      ],
      [
        "▁राष्ट्रियसभा",
        -9.688811395901336
      ],
      [
        "▁खाली",
        -9.689960961946198
      ],
      [
        "▁गायिका",
        -9.690978869745159
      ],
      [
        "▁पुग्यो",
        -9.691311874448115
      ],
      [
        "▁विष्णु",
        -9.69140759325093
      ],
      [
        "▁व्यस्त",
        -9.691865722192656
      ],
      [
        "▁हार",
        -9.692332905320326
      ],
      [
        "▁सहर",
        -9.69284139414224
      ],
      [
        "▁नदिने",
        -9.692845662543863
      ],
      [
        "▁गैर",
        -9.693324622209218
      ],
      [
        "▁है",
        -9.693339573100733
      ],
      [
        "ाले",
        -9.694264085190996
      ],
      [
        "▁एण्ड",
        -9.69456793717766
      ],
      [
        "▁अनुहार",
        -9.695161871443156
      ],
      [
        "▁विस्तृत",
        -9.696017621645549
      ],
      [
        "▁उनीहरूको",
        -9.696266017199196
      ],
      [
        "▁सेनाको",
        -9.696659376778996
      ],
      [
        "▁तथ्यांक",
        -9.697272016958845
      ],
      [
        "▁सुरुवात",
        -9.697575312394514
      ],
      [
        "अघि",
        -9.698410578006989
      ],
      [
        "▁अथवा",
        -9.698577856424606
      ],
      [
        "ौँ",
        -9.698963513662237
      ],
      [
        "▁article",
        -9.699378090903672
      ],
      [
        "▁उहाँलाई",
        -9.699902335621378
      ],
      [
        "▁लोकतन्त्र",
        -9.702280090046315
      ],
      [
        "▁पार",
        -9.702555897067741
      ],
      [
        "▁रहे",
        -9.702612970904479
      ],
      [
        "▁आफै",
        -9.702843929763713
      ],
      [
        "▁खोज",
        -9.703237757806887
      ],
      [
        "▁सचेत",
        -9.703651437549336
      ],
      [
        "▁विविध",
        -9.70371278251121
      ],
      [
        "▁सूची",
        -9.704127940128684
      ],
      [
        "▁वर्षे",
        -9.704182027827656
      ],
      [
        "▁पठाउन",
        -9.704243107567997
      ],
      [
        "▁ओभरमा",
        -9.704436823190575
      ],
      [
        "▁आफु",
        -9.704557564628793
      ],
      [
        "▁४२",
        -9.704767951218297
      ],
      [
        "▁एकताको",
        -9.705066133240116
      ],
      [
        "▁हल",
        -9.707299957789967
      ],
      [
        "▁न्यायाधीश",
        -9.707446139553397
      ],
      [
        "▁उपमहानगरपालिका",
        -9.70768908445671
      ],
      [
        "▁पर",
        -9.708000885013837
      ],
      [
        "▁अभिव्यक्ति",
        -9.708163450206026
      ],
      [
        "▁काठमाडौं–",
        -9.708631462514518
      ],
      [
        "▁भेटघाट",
        -9.70919669321427
      ],
      [
        "▁समायोजन",
        -9.709282208454118
      ],
      [
        "भर",
        -9.710162615262009
      ],
      [
        "▁समग्र",
        -9.710409342296327
      ],
      [
        "औं",
        -9.71093612195154
      ],
      [
        "▁दर्शन",
        -9.711046969616644
      ],
      [
        "▁रोक",
        -9.711476888061089
      ],
      [
        "▁ध्यानाकर्षण",
        -9.711592918195148
      ],
      [
        "▁राजनीतिमा",
        -9.711985692579812
      ],
      [
        "▁कार्यक्रमका",
        -9.712450857582802
      ],
      [
        ".....",
        -9.712533013074857
      ],
      [
        "▁जडान",
        -9.7127560244559
      ],
      [
        "▁२.",
        -9.712773073700694
      ],
      [
        "▁चन्द्र",
        -9.712869200501752
      ],
      [
        "▁रहेर",
        -9.71342935550771
      ],
      [
        "▁लोकप्रिय",
        -9.714278428230049
      ],
      [
        "▁दूध",
        -9.714361669163226
      ],
      [
        "▁जसरी",
        -9.715003891208642
      ],
      [
        "▁कित्ता",
        -9.715657310946739
      ],
      [
        "),",
        -9.717734243672481
      ],
      [
        "▁परराष्ट्र",
        -9.717867264667465
      ],
      [
        "▁घटनामा",
        -9.718757757691261
      ],
      [
        "▁कतार",
        -9.719384943329942
      ],
      [
        "▁कसैको",
        -9.719891864333565
      ],
      [
        "▁लाइन",
        -9.720204133886513
      ],
      [
        "▁गुरुङले",
        -9.720508392893171
      ],
      [
        "▁मार्ग",
        -9.721354097555714
      ],
      [
        "▁संविधानको",
        -9.72210078613996
      ],
      [
        "▁आपूर्ति",
        -9.722501904736438
      ],
      [
        "▁मञ्च",
        -9.722728777085177
      ],
      [
        "▁१००",
        -9.723263911422988
      ],
      [
        "▁अख्तियार",
        -9.723984122375466
      ],
      [
        "▁अञ्चल",
        -9.725216749150075
      ],
      [
        "▁आत्महत्या",
        -9.725219902950474
      ],
      [
        "▁अवैध",
        -9.725304851951176
      ],
      [
        "आ",
        -9.726934642972939
      ],
      [
        "▁एप",
        -9.72786008019116
      ],
      [
        "▁तालिका",
        -9.72800656277949
      ],
      [
        "▁शिखर",
        -9.72807875087686
      ],
      [
        "▁उमेरमा",
        -9.728626620399286
      ],
      [
        "▁महतो",
        -9.728808901379143
      ],
      [
        "▁तस्बिर",
        -9.728956983459216
      ],
      [
        "▁गन्तव्य",
        -9.729299627613253
      ],
      [
        "▁ताजा",
        -9.729524791882199
      ],
      [
        "▁कैद",
        -9.729694469557344
      ],
      [
        "▁बढाएको",
        -9.729844862743917
      ],
      [
        "▁मर्मत",
        -9.730276591440301
      ],
      [
        "▁पुलिस",
        -9.730504503435668
      ],
      [
        "प्रधानमन्त्री",
        -9.731155325324924
      ],
      [
        "▁पसल",
        -9.731961009905689
      ],
      [
        "▁शिव",
        -9.733057349967927
      ],
      [
        "प्र",
        -9.73310811230764
      ],
      [
        "▁केन्द्रको",
        -9.733153312989522
      ],
      [
        "▁?’",
        -9.733268721494028
      ],
      [
        "▁जल",
        -9.73327370290079
      ],
      [
        "▁राउत",
        -9.733485531788794
      ],
      [
        "▁नियुक्ति",
        -9.733723193507515
      ],
      [
        "ृ",
        -9.733885918690575
      ],
      [
        "▁राजस्व",
        -9.73391011604966
      ],
      [
        "▁मोडल",
        -9.734215915288923
      ],
      [
        "▁पा",
        -9.735245150594869
      ],
      [
        "▁स्वतन्त्रता",
        -9.73531140845182
      ],
      [
        "▁गुणस्तर",
        -9.735535319957894
      ],
      [
        "▁संवाददाता",
        -9.736278890330796
      ],
      [
        "▁माध्यम",
        -9.736719161839384
      ],
      [
        "▁बढ्यो",
        -9.737411738417736
      ],
      [
        "▁News,",
        -9.738178215100792
      ],
      [
        "▁आउनु",
        -9.738352824514372
      ],
      [
        "▁पत्रकारिता",
        -9.739010195066212
      ],
      [
        "▁दर्जन",
        -9.739741144778215
      ],
      [
        "▁मृतक",
        -9.740230256055241
      ],
      [
        "▁ढंगले",
        -9.74089497056389
      ],
      [
        "▁नाटक",
        -9.74129415461186
      ],
      [
        "▁विभागका",
        -9.741372316409114
      ],
      [
        "▁राजधानीमा",
        -9.742193187964668
      ],
      [
        "छ।",
        -9.743264277905071
      ],
      [
        "ात्मक",
        -9.743875661442072
      ],
      [
        "▁रक्षा",
        -9.744420581454957
      ],
      [
        "▁प्रकारका",
        -9.74446921186669
      ],
      [
        "▁स्वीकृति",
        -9.744817985917926
      ],
      [
        "▁परिवारलाई",
        -9.745030407685451
      ],
      [
        "▁भर",
        -9.745535123075928
      ],
      [
        "▁अत्यन्त",
        -9.74557514439683
      ],
      [
        "▁नसक्दा",
        -9.745847159648225
      ],
      [
        "▁खोजेको",
        -9.747161522161056
      ],
      [
        "n",
        -9.74726007665064
      ],
      [
        "▁दोषी",
        -9.747363225459566
      ],
      [
        "▁बुँदे",
        -9.747928806032313
      ],
      [
        "्छ",
        -9.748149842999542
      ],
      [
        "▁आर्मी",
        -9.748269114020047
      ],
      [
        "▁रहन",
        -9.748514493742439
      ],
      [
        "▁गण्डकी",
        -9.748587045991215
      ],
      [
        "▁माथिल्लो",
        -9.748602397290453
      ],
      [
        "▁आय",
        -9.748750375109127
      ],
      [
        "▁प्रवाह",
        -9.748864566588685
      ],
      [
        "▁व्यक्तिलाई",
        -9.74975771268625
      ],
      [
        "▁पहिलोपटक",
        -9.750165489048351
      ],
      [
        "▁सलमान",
        -9.750753464269746
      ],
      [
        "▁संस्थागत",
        -9.750952474285171
      ],
      [
        "▁अर्याल",
        -9.752216069633796
      ],
      [
        "▁दीपक",
        -9.752785538694337
      ],
      [
        "झ",
        -9.752829882639857
      ],
      [
        "▁बने",
        -9.75344898619607
      ],
      [
        "▁प्रावधान",
        -9.754278693704563
      ],
      [
        "▁निर्वाचनका",
        -9.75444119458643
      ],
      [
        "▁सधैं",
        -9.754830343878446
      ],
      [
        "▁चलचित्रमा",
        -9.754985643683113
      ],
      [
        "▁स्मृति",
        -9.755525102990172
      ],
      [
        "▁समूहले",
        -9.755545217701503
      ],
      [
        "▁निकट",
        -9.755862466148992
      ],
      [
        "▁टु",
        -9.756007267029629
      ],
      [
        "▁तिन",
        -9.756092391270768
      ],
      [
        "▁तर्फ",
        -9.756777373186424
      ],
      [
        "▁गीतको",
        -9.75812635955064
      ],
      [
        "▁जितेको",
        -9.758176627777194
      ],
      [
        "▁भर्खरै",
        -9.758182806640399
      ],
      [
        "▁लि",
        -9.758626910502137
      ],
      [
        "करीब",
        -9.759160281555712
      ],
      [
        "▁घटेको",
        -9.759612539545133
      ],
      [
        "▁थालेपछि",
        -9.759806490353421
      ],
      [
        "▁खेलको",
        -9.75995812670522
      ],
      [
        "▁एस",
        -9.76000693116766
      ],
      [
        "▁दिनुभएको",
        -9.760177349559317
      ],
      [
        "▁मिल्ने",
        -9.760319621380141
      ],
      [
        "▁जिम्मेवार",
        -9.760544840098412
      ],
      [
        "▁तरिकाले",
        -9.761650649100641
      ],
      [
        "▁नुवाकोट",
        -9.761966915067244
      ],
      [
        "▁सिटी",
        -9.762478903810738
      ],
      [
        "▁थाले",
        -9.764176757935857
      ],
      [
        "▁भनिन्,",
        -9.765070047012014
      ],
      [
        "▁महानगरपालिका",
        -9.765581409706149
      ],
      [
        "▁of",
        -9.765591321203066
      ],
      [
        "▁लेख्ने",
        -9.766693229597681
      ],
      [
        "▁योग",
        -9.766846322296871
      ],
      [
        "▁नगरेको",
        -9.767000447785435
      ],
      [
        "पी",
        -9.767576692909731
      ],
      [
        "▁विश्वका",
        -9.767784412769863
      ],
      [
        "▁आफैं",
        -9.76833629838409
      ],
      [
        "▁ट्रेलर",
        -9.768427005195672
      ],
      [
        "▁इलाम",
        -9.768876089628357
      ],
      [
        "▁झन्डै",
        -9.768886842283386
      ],
      [
        "▁प्रतिनिधित्व",
        -9.769000888225506
      ],
      [
        "▁भाडा",
        -9.769298107327579
      ],
      [
        "▁करोडको",
        -9.769330325633142
      ],
      [
        "▁चालु",
        -9.769597701886134
      ],
      [
        "▁मह",
        -9.769664074440637
      ],
      [
        "सिंह",
        -9.771663973398267
      ],
      [
        "▁प्रवद्र्धन",
        -9.772159138172984
      ],
      [
        "द्धारा",
        -9.774087621056708
      ],
      [
        "मी",
        -9.774197939176673
      ],
      [
        "▁कार्यान्वयनमा",
        -9.774669304596447
      ],
      [
        "▁गोपाल",
        -9.774796156234903
      ],
      [
        "▁M",
        -9.775579186297959
      ],
      [
        "▁लगाएका",
        -9.776969062174857
      ],
      [
        "▁तोकेको",
        -9.777326121141652
      ],
      [
        "▁सफा",
        -9.777382139471104
      ],
      [
        "▁नामक",
        -9.777416578395423
      ],
      [
        "▁व्यवसायिक",
        -9.777540112113147
      ],
      [
        "▁३४",
        -9.777629856456866
      ],
      [
        "▁महानगरीय",
        -9.777659947156659
      ],
      [
        "▁प्रकारको",
        -9.777918234623067
      ],
      [
        "▁डर",
        -9.778012954779836
      ],
      [
        "▁संघले",
        -9.778589460545119
      ],
      [
        "एको",
        -9.779355498935939
      ],
      [
        "▁साथमा",
        -9.77985315408508
      ],
      [
        "▁प्राधिकरणले",
        -9.779910255356636
      ],
      [
        "▁भ",
        -9.779952877762431
      ],
      [
        "▁धादिङ",
        -9.780000474125412
      ],
      [
        "▁संवैधानिक",
        -9.780049224860429
      ],
      [
        "▁नगरपालिकाका",
        -9.780229321860702
      ],
      [
        "▁पहाडी",
        -9.780434711960996
      ],
      [
        "▁चिसो",
        -9.781005323110517
      ],
      [
        "▁केवल",
        -9.781710971057763
      ],
      [
        "ाउन",
        -9.78172935343436
      ],
      [
        "▁रिपोर्ट",
        -9.781738430293878
      ],
      [
        "▁दोश्रो",
        -9.781966830719652
      ],
      [
        "▁तपाईँको",
        -9.78206283097667
      ],
      [
        "▁ट्रक",
        -9.782184824495115
      ],
      [
        "▁नपाउने",
        -9.782588631110197
      ],
      [
        "▁बचत",
        -9.782769348989063
      ],
      [
        "▁भविष्य",
        -9.78326425459186
      ],
      [
        "▁लिखित",
        -9.783816072242322
      ],
      [
        "▁हरि",
        -9.78387244118896
      ],
      [
        "▁अधिवेशन",
        -9.784110960062062
      ],
      [
        "▁बेलामा",
        -9.784357691300258
      ],
      [
        "▁समीक्षा",
        -9.784557959228689
      ],
      [
        "▁नसके",
        -9.784844336549341
      ],
      [
        "wikipedia.org/w",
        -9.785058860653788
      ],
      [
        "▁यसबाट",
        -9.785616859527046
      ],
      [
        "▁डिजिटल",
        -9.785782449879278
      ],
      [
        "▁अभियानमा",
        -9.7862705636733
      ],
      [
        "▁कपडा",
        -9.786977347041836
      ],
      [
        "▁सन्तान",
        -9.787719990703975
      ],
      [
        "▁चलाउने",
        -9.788079801223612
      ],
      [
        "▁मदन",
        -9.788798145080644
      ],
      [
        "▁रचना",
        -9.790738924844051
      ],
      [
        "▁तपाईले",
        -9.791251577225056
      ],
      [
        "▁मुक्त",
        -9.7917244690167
      ],
      [
        "a",
        -9.792204692003285
      ],
      [
        "▁आचार्य",
        -9.792252949563096
      ],
      [
        "नन्",
        -9.792372270670548
      ],
      [
        "▁सामना",
        -9.79260005393142
      ],
      [
        "▁सूचीमा",
        -9.792703783328562
      ],
      [
        "▁पोखरा,",
        -9.792885715683404
      ],
      [
        "▁सम",
        -9.795298611703405
      ],
      [
        "▁सिद्धान्त",
        -9.796009639698958
      ],
      [
        "▁समितिमा",
        -9.796277531912734
      ],
      [
        "▁परम्परा",
        -9.797219222847275
      ],
      [
        "▁प्रतिबन्ध",
        -9.797279703279926
      ],
      [
        "▁नम्बरको",
        -9.797404687984251
      ],
      [
        "▁रमाइलो",
        -9.797819506407002
      ],
      [
        "▁डाउनलोड",
        -9.798434344300304
      ],
      [
        "▁रेग्मी",
        -9.798492658118857
      ],
      [
        "▁यु",
        -9.798607669969527
      ],
      [
        "▁दिनसम्म",
        -9.798745420639047
      ],
      [
        "▁बनाउनु",
        -9.798792682326436
      ],
      [
        "▁बनाइएको",
        -9.798912393988564
      ],
      [
        "▁हकप्रद",
        -9.79925022622373
      ],
      [
        "▁हुनसक्छ",
        -9.799439332759675
      ],
      [
        "▁फाइनल",
        -9.799863104198376
      ],
      [
        "▁निष्कर्ष",
        -9.799918897103641
      ],
      [
        "▁कर्मचारीको",
        -9.800718150860394
      ],
      [
        "▁चर्चामा",
        -9.801097768259998
      ],
      [
        "सँगको",
        -9.80193734344674
      ],
      [
        "▁हेरेर",
        -9.802149061747635
      ],
      [
        "▁सीमित",
        -9.802743235017486
      ],
      [
        "▁लगानीकर्ता",
        -9.802745198024
      ],
      [
        "▁डे",
        -9.803246367704126
      ],
      [
        "▁चाँडै",
        -9.803365936514595
      ],
      [
        "▁तनाव",
        -9.803681042575086
      ],
      [
        "▁सेनाले",
        -9.803859364200642
      ],
      [
        "▁बजेसम्म",
        -9.804939822833152
      ],
      [
        "▁म्याग्दी",
        -9.805058425836872
      ],
      [
        "▁वि.सं.",
        -9.805422491806944
      ],
      [
        "▁भाउ",
        -9.805453436295451
      ],
      [
        "▁about",
        -9.806498010574831
      ],
      [
        "▁विकासको",
        -9.807197933822222
      ],
      [
        "▁नगर्न",
        -9.807428279385142
      ],
      [
        "सहित)",
        -9.807760610433531
      ],
      [
        "▁छुट्टै",
        -9.808141232105989
      ],
      [
        "▁रामबहादुर",
        -9.80945810335988
      ],
      [
        "▁काँग्रेसका",
        -9.809538293263643
      ],
      [
        "▁चीनले",
        -9.81046834734859
      ],
      [
        "▁एनआरएन",
        -9.810689161433224
      ],
      [
        "युक्त",
        -9.811166571484257
      ],
      [
        "▁कम्प्युटर",
        -9.811257154664883
      ],
      [
        "▁अनलाईन",
        -9.811735830556774
      ],
      [
        "▁चल्ने",
        -9.811755006257219
      ],
      [
        "▁प्रकरण",
        -9.811875255205027
      ],
      [
        "▁माध्यमबाट",
        -9.81229588572509
      ],
      [
        "▁पृष्ठ",
        -9.812601633824933
      ],
      [
        "%",
        -9.813274517660306
      ],
      [
        "▁देशभर",
        -9.813646011022644
      ],
      [
        "▁भो",
        -9.81427231955222
      ],
      [
        "मात्रै",
        -9.814418376015677
      ],
      [
        "▁दाङ",
        -9.814679926936178
      ],
      [
        "▁बंगलादेश",
        -9.815005312717238
      ],
      [
        "▁बसोबास",
        -9.815472923245805
      ],
      [
        "▁हङकङ",
        -9.815552430349126
      ],
      [
        "▁खाद्य",
        -9.81558890188887
      ],
      [
        "▁बालक",
        -9.815650834914397
      ],
      [
        "▁महरा",
        -9.816322373494582
      ],
      [
        "▁बेलायत",
        -9.816882344123961
      ],
      [
        "▁रु.",
        -9.817243116195515
      ],
      [
        "▁नारा",
        -9.817657161427523
      ],
      [
        "▁शारीरिक",
        -9.81768500860635
      ],
      [
        "▁हित",
        -9.819052691128084
      ],
      [
        "▁यहाँका",
        -9.819242915565436
      ],
      [
        "औँ",
        -9.81936509820646
      ],
      [
        "▁तस्करी",
        -9.819682216721914
      ],
      [
        "▁राईले",
        -9.820558074984582
      ],
      [
        "▁मानिन्छ",
        -9.82057709526999
      ],
      [
        "▁फूल",
        -9.821465868810755
      ],
      [
        "▁ठेकेदार",
        -9.821931617836281
      ],
      [
        "▁पठाएको",
        -9.822497315713584
      ],
      [
        "▁नरहेको",
        -9.822596693524638
      ],
      [
        "▁माछा",
        -9.822881820525751
      ],
      [
        "▁भाषाको",
        -9.823029447566153
      ],
      [
        "▁३९",
        -9.823264520465976
      ],
      [
        "▁भाइ",
        -9.823632843265505
      ],
      [
        "▁महत",
        -9.82396538181495
      ],
      [
        "▁आइ",
        -9.824961891561589
      ],
      [
        "▁पर्दैन",
        -9.825014920421316
      ],
      [
        "▁उत्पन्न",
        -9.825532490413636
      ],
      [
        "▁४८",
        -9.825882911064232
      ],
      [
        "▁व्यक्तिहरु",
        -9.826013992815106
      ],
      [
        "▁झन्",
        -9.82631946823416
      ],
      [
        "▁Online",
        -9.827497263912445
      ],
      [
        "▁प्रधानमन्त्रीले",
        -9.827803860186233
      ],
      [
        "▁आफूहरु",
        -9.828766831830752
      ],
      [
        "▁निवास",
        -9.828839725656298
      ],
      [
        "▁युएई",
        -9.829089226202452
      ],
      [
        "▁सायद",
        -9.830082107906506
      ],
      [
        "▁पर्",
        -9.830978100355175
      ],
      [
        "▁परामर्श",
        -9.83103766551265
      ],
      [
        "▁सुन्न",
        -9.831669781913359
      ],
      [
        "▁हतियार",
        -9.831705516036163
      ],
      [
        "▁खुट्टा",
        -9.832457121414876
      ],
      [
        "▁सकेका",
        -9.833194381607935
      ],
      [
        "▁छ,’",
        -9.833900309347921
      ],
      [
        "▁भाद्र",
        -9.833988197208926
      ],
      [
        "▁२०१६",
        -9.834287551347973
      ],
      [
        "▁प्रदीप",
        -9.834856141261774
      ],
      [
        "▁व्यापक",
        -9.834977984473374
      ],
      [
        "▁पशुपति",
        -9.835491226244365
      ],
      [
        "▁पोर्टल",
        -9.835751904386772
      ],
      [
        "▁गणेश",
        -9.835945986435942
      ],
      [
        "▁भेटवार्ता",
        -9.836307802830005
      ],
      [
        "▁कार्यमा",
        -9.836574594732834
      ],
      [
        "▁तेल",
        -9.836642727170899
      ],
      [
        "▁आजै",
        -9.836874505578267
      ],
      [
        "▁सरल",
        -9.836930376305435
      ],
      [
        "मूलक",
        -9.837472669965916
      ],
      [
        "▁सरुवा",
        -9.83766534395835
      ],
      [
        "▁फिल्मको",
        -9.838344322620793
      ],
      [
        "▁विद्यार्थीहरु",
        -9.838474264001952
      ],
      [
        "▁आमाको",
        -9.838789575096051
      ],
      [
        "▁अन्नपूर्ण",
        -9.839336835894308
      ],
      [
        "▁लागत",
        -9.839352383874182
      ],
      [
        "▁बन्यो",
        -9.839491362587921
      ],
      [
        "▁विनियोजन",
        -9.839566016248003
      ],
      [
        "▁बाध्यता",
        -9.839700757222964
      ],
      [
        "वी",
        -9.841673229168999
      ],
      [
        "▁विसं",
        -9.841682753620479
      ],
      [
        "▁हुनाले",
        -9.841980302574928
      ],
      [
        "▁धारा",
        -9.84248426817431
      ],
      [
        "▁हार्दिक",
        -9.842888182702888
      ],
      [
        "▁मैदान",
        -9.843167529828676
      ],
      [
        "▁फाइनलमा",
        -9.843188640258086
      ],
      [
        "▁!!",
        -9.843544736775524
      ],
      [
        "▁औद्योगिक",
        -9.843794801426572
      ],
      [
        "▁ट्रम्पले",
        -9.843822406977981
      ],
      [
        "▁देखियो",
        -9.84393496828941
      ],
      [
        "▁पेट्रोलियम",
        -9.844219966217487
      ],
      [
        "▁शिक्षण",
        -9.844517752068752
      ],
      [
        "▁मनमा",
        -9.845618680387254
      ],
      [
        "▁लिमिटेड",
        -9.84595382394935
      ],
      [
        "▁तीव्र",
        -9.846346100855873
      ],
      [
        "▁संसार",
        -9.846501808670668
      ],
      [
        "▁B",
        -9.847173961590743
      ],
      [
        "▁धरान",
        -9.848674216523005
      ],
      [
        "▁पढ्ने",
        -9.849156122651083
      ],
      [
        "▁राज्यले",
        -9.849783311562446
      ],
      [
        "▁2",
        -9.850192710008162
      ],
      [
        "सम्मको",
        -9.851159620677826
      ],
      [
        "▁भइरहेका",
        -9.851250028993059
      ],
      [
        "▁ईमेल",
        -9.852222564497886
      ],
      [
        "▁कुवेत",
        -9.852434681983208
      ],
      [
        "▁घटनास्थल",
        -9.85246970372281
      ],
      [
        "▁दशैं",
        -9.852484350822923
      ],
      [
        "▁थापाको",
        -9.852583173341419
      ],
      [
        "▁स्थल",
        -9.85271053179934
      ],
      [
        "▁सर",
        -9.852850530598285
      ],
      [
        "▁आफैँ",
        -9.85292951180676
      ],
      [
        "▁टीका",
        -9.853455403771022
      ],
      [
        "▁अवरुद्ध",
        -9.85354094641867
      ],
      [
        "मन्त्री",
        -9.85357664176436
      ],
      [
        "▁आव",
        -9.855141108117236
      ],
      [
        "▁मन्त्रिपरिषद्",
        -9.855412103294276
      ],
      [
        "▁डि",
        -9.855872892751158
      ],
      [
        "▁खोज्ने",
        -9.856064625934646
      ],
      [
        "▁नामावली",
        -9.856212970734479
      ],
      [
        "▁रियल",
        -9.856437921086222
      ],
      [
        "▁पार्क",
        -9.857245326455793
      ],
      [
        "▁४३",
        -9.85769232343199
      ],
      [
        "▁अंश",
        -9.85771191323902
      ],
      [
        "▁खुलेको",
        -9.857828806794918
      ],
      [
        "‘",
        -9.858335506590645
      ],
      [
        "▁उपलब्धि",
        -9.85920189806381
      ],
      [
        "▁मात्रामा",
        -9.859446070857302
      ],
      [
        "▁किसिमको",
        -9.859482662849786
      ],
      [
        "गरी",
        -9.859847789672132
      ],
      [
        "▁सवै",
        -9.86048318637531
      ],
      [
        "▁सङ्ख्या",
        -9.86067594271098
      ],
      [
        "▁महिलाहरु",
        -9.861220647994546
      ],
      [
        "▁इलाका",
        -9.861995885754975
      ],
      [
        "▁अवरोध",
        -9.86240775086801
      ],
      [
        "▁क्षेत्रलाई",
        -9.86242601888464
      ],
      [
        "▁समाजको",
        -9.862814571309741
      ],
      [
        "▁आकर्षण",
        -9.862952406753513
      ],
      [
        "▁अग्रता",
        -9.863014171000069
      ],
      [
        "ुपर्छ",
        -9.864994223513769
      ],
      [
        "जु",
        -9.865391972135106
      ],
      [
        "▁न्युज",
        -9.866082768186264
      ],
      [
        "▁ढोका",
        -9.866097020147265
      ],
      [
        "▁हातमा",
        -9.866673072071729
      ],
      [
        "▁डिसेम्बर",
        -9.866692145141414
      ],
      [
        "▁हे",
        -9.867090062897638
      ],
      [
        "▁ठगी",
        -9.86731369492285
      ],
      [
        "▁रह्यो",
        -9.867511993172062
      ],
      [
        "▁विगतमा",
        -9.867669004713463
      ],
      [
        "▁आउँदा",
        -9.868385485025991
      ],
      [
        "▁बाहिरी",
        -9.868933118313638
      ],
      [
        "▁एमालेको",
        -9.869758556177022
      ],
      [
        "▁प्रबन्ध",
        -9.86998706733078
      ],
      [
        "▁P",
        -9.871530728599543
      ],
      [
        "▁फ",
        -9.872419298922665
      ],
      [
        "▁बोनस",
        -9.873808371752954
      ],
      [
        "g",
        -9.874067323092287
      ],
      [
        "▁पर्दछ",
        -9.874668328674254
      ],
      [
        "p",
        -9.87573058761377
      ],
      [
        "▁थिए,",
        -9.876035079156058
      ],
      [
        "▁छाला",
        -9.876630787950475
      ],
      [
        "▁अव",
        -9.87727711102104
      ],
      [
        "▁भागमा",
        -9.877295980532992
      ],
      [
        "▁घरको",
        -9.878213852519028
      ],
      [
        "▁कार्यालयको",
        -9.87830736209079
      ],
      [
        "▁विहान",
        -9.878453828001494
      ],
      [
        "al",
        -9.878807000836225
      ],
      [
        "▁फल",
        -9.87897312140456
      ],
      [
        "▁जनप्रतिनिधि",
        -9.879070689106651
      ],
      [
        "▁पर्दा",
        -9.879162103688053
      ],
      [
        "गो",
        -9.880277874570538
      ],
      [
        "▁राजविराज",
        -9.881337347413542
      ],
      [
        "▁मृत",
        -9.881735157899707
      ],
      [
        "▁ॐ",
        -9.88238413182528
      ],
      [
        "▁नागरिकलाई",
        -9.883863655009826
      ],
      [
        "्ग",
        -9.884170958072588
      ],
      [
        "▁प्राधिकरण",
        -9.88449035540574
      ],
      [
        "▁आधारभूत",
        -9.884808126947902
      ],
      [
        "▁बोकेर",
        -9.886281641180963
      ],
      [
        "▁४१",
        -9.886728266919349
      ],
      [
        "▁एयर",
        -9.886791848780252
      ],
      [
        "▁परिषद्",
        -9.886952787578196
      ],
      [
        "पत्र",
        -9.88702635273344
      ],
      [
        "▁बैंकका",
        -9.888608850259656
      ],
      [
        "▁भा",
        -9.889429630492623
      ],
      [
        "▁माओवादीले",
        -9.890438536880794
      ],
      [
        "▁माधव",
        -9.89081920009481
      ],
      [
        "टि",
        -9.891073521385142
      ],
      [
        "▁संग्रह",
        -9.89152061286432
      ],
      [
        "▁नियमावली",
        -9.891688028565758
      ],
      [
        "▁भेट्न",
        -9.892000258394848
      ],
      [
        "▁दिनदेखि",
        -9.892314969414233
      ],
      [
        "▁न्यूज",
        -9.894422182114818
      ],
      [
        "▁देखी",
        -9.895209352753177
      ],
      [
        "▁मुद्दामा",
        -9.895332124976331
      ],
      [
        "▁निरीक्षक",
        -9.895889690607065
      ],
      [
        "▁बीबीसी",
        -9.895901823958171
      ],
      [
        "▁गरिसकेका",
        -9.89630179792761
      ],
      [
        "▁शीर्षकहरु",
        -9.8964262800488
      ],
      [
        "▁वर्षभित्र",
        -9.896652446401056
      ],
      [
        "▁चलिरहेको",
        -9.897306594206249
      ],
      [
        "▁बनाउँदै",
        -9.897311520685516
      ],
      [
        "▁यात्रामा",
        -9.897671347966984
      ],
      [
        "▁परिषद",
        -9.898255684576018
      ],
      [
        "▁लेख्न",
        -9.900864407164974
      ],
      [
        "▁ठहर",
        -9.901011650042012
      ],
      [
        "“",
        -9.901575377510913
      ],
      [
        "▁मुटु",
        -9.901880062899712
      ],
      [
        "▁अतिथि",
        -9.902944258655296
      ],
      [
        "▁संयोजन",
        -9.903065397022768
      ],
      [
        "▁सक्षम",
        -9.903556869516812
      ],
      [
        "▁लगभग",
        -9.903656073799684
      ],
      [
        "▁यहाँको",
        -9.90392924885645
      ],
      [
        "▁महाधिवेशन",
        -9.904027459668438
      ],
      [
        "▁सभाको",
        -9.905423163663396
      ],
      [
        "▁च्याम्पियनसिप",
        -9.90571314363276
      ],
      [
        "▁फरार",
        -9.905758516193936
      ],
      [
        "▁नवलपरासी",
        -9.905873894734878
      ],
      [
        "▁युनियन",
        -9.906455455077985
      ],
      [
        "▁गित",
        -9.906997978896063
      ],
      [
        "▁विद्यादेवी",
        -9.907138890163896
      ],
      [
        "▁शंका",
        -9.90720316177038
      ],
      [
        "▁४४",
        -9.90727318938696
      ],
      [
        "▁राख्दै",
        -9.907660469320343
      ],
      [
        "ुवा",
        -9.90783889625826
      ],
      [
        "▁खोला",
        -9.908467891425847
      ],
      [
        "▁सुशासन",
        -9.908546366716337
      ],
      [
        "▁घुस",
        -9.910002763959529
      ],
      [
        "▁2017",
        -9.910010789767856
      ],
      [
        "▁नभएका",
        -9.910122934509634
      ],
      [
        "▁न्यू",
        -9.910417040401374
      ],
      [
        "दी",
        -9.911891063361796
      ],
      [
        "▁यसपटक",
        -9.912288811401105
      ],
      [
        "ing",
        -9.912317115354181
      ],
      [
        "▁नगरपालिकाले",
        -9.912358667921204
      ],
      [
        "▁रातो",
        -9.913679164890052
      ],
      [
        "▁संख्यामा",
        -9.91453659208204
      ],
      [
        "▁भूमि",
        -9.914921656019041
      ],
      [
        "▁एकल",
        -9.91523027310375
      ],
      [
        "▁जोड्ने",
        -9.916550439629384
      ],
      [
        "▁स्वर",
        -9.916675309227738
      ],
      [
        "▁सहायता",
        -9.917047090403793
      ],
      [
        "▁दियो",
        -9.917904103089437
      ],
      [
        "▁दायित्व",
        -9.917905192901479
      ],
      [
        "▁कोरियाली",
        -9.91868031975352
      ],
      [
        "▁ल्याएर",
        -9.919517085111819
      ],
      [
        "नगर",
        -9.919620935637967
      ],
      [
        "▁न्यूनतम",
        -9.919740752919578
      ],
      [
        "▁भिसा",
        -9.919756931075597
      ],
      [
        "२०",
        -9.920617784973707
      ],
      [
        "▁तारा",
        -9.920763285871661
      ],
      [
        "▁©",
        -9.920884571717783
      ],
      [
        "▁ठक्करबाट",
        -9.920964639400353
      ],
      [
        "▁गणना",
        -9.921359096544881
      ],
      [
        "▁कल",
        -9.921642481658385
      ],
      [
        "▁विस्फोट",
        -9.921747487454944
      ],
      [
        "▁फोहोर",
        -9.921860769439473
      ],
      [
        "▁गराए",
        -9.922043481874876
      ],
      [
        "▁महा",
        -9.922263428979463
      ],
      [
        "▁आदिवासी",
        -9.922786916445936
      ],
      [
        "▁भैरहेको",
        -9.92281121861156
      ],
      [
        "▁मनाउने",
        -9.923015483631204
      ],
      [
        "ेश",
        -9.92339497832585
      ],
      [
        "▁५२",
        -9.92356134124962
      ],
      [
        "▁नगरपालिकामा",
        -9.923757107561675
      ],
      [
        "▁चलेको",
        -9.923766280474462
      ],
      [
        "▁अनुसारको",
        -9.923927946678859
      ],
      [
        "▁खनालले",
        -9.9239527246399
      ],
      [
        "▁::",
        -9.924656320152803
      ],
      [
        "▁स्मरण",
        -9.92525851268963
      ],
      [
        "▁लेखेको",
        -9.925585195049813
      ],
      [
        "u",
        -9.92572191461834
      ],
      [
        "▁नेताहरू",
        -9.925853357868336
      ],
      [
        "८",
        -9.926052236461771
      ],
      [
        "▁खासै",
        -9.926395272796325
      ],
      [
        "ष",
        -9.926497445494984
      ],
      [
        "▁रुपैया",
        -9.926650424227393
      ],
      [
        "▁हेरिएको",
        -9.927134174337109
      ],
      [
        "▁हुनेछन्",
        -9.927379428028514
      ],
      [
        "▁मोहन",
        -9.92764433874284
      ],
      [
        "▁संविधानसभा",
        -9.928015800565323
      ],
      [
        "▁नायब",
        -9.92851743361592
      ],
      [
        "▁शैली",
        -9.928619456363244
      ],
      [
        "▁नायक",
        -9.929676189749326
      ],
      [
        "▁५६",
        -9.930158808070262
      ],
      [
        "▁हुदै",
        -9.930274464430198
      ],
      [
        "▁सक्नु",
        -9.930873196873328
      ],
      [
        "▁अतिरिक्त",
        -9.931322331946518
      ],
      [
        "▁विपक्षी",
        -9.931499975309325
      ],
      [
        "▁बरु",
        -9.931569132182137
      ],
      [
        "▁अवलोकन",
        -9.93189036269886
      ],
      [
        "▁मानिसले",
        -9.931969460523195
      ],
      [
        "▁भै",
        -9.93224284092079
      ],
      [
        "▁शिविर",
        -9.932792657800361
      ],
      [
        "▁ठेक्का",
        -9.93285362168816
      ],
      [
        "index.php?title=",
        -9.932888727971168
      ],
      [
        "▁आत्मा",
        -9.935453593298384
      ],
      [
        "▁कार्यविधि",
        -9.935668105798353
      ],
      [
        "▁आकर्षित",
        -9.935760416965387
      ],
      [
        "▁सभामा",
        -9.93577065339803
      ],
      [
        "▁आकर्षक",
        -9.935770988987965
      ],
      [
        "▁कर्मचारीलाई",
        -9.935785476101662
      ],
      [
        "▁बानी",
        -9.936090881845843
      ],
      [
        "▁मुक्ति",
        -9.936988739214204
      ],
      [
        "▁कार्यालय,",
        -9.937331365996922
      ],
      [
        "▁नाका",
        -9.93798052922628
      ],
      [
        "▁प्रा.",
        -9.938040150434313
      ],
      [
        "▁घाटा",
        -9.938208304618714
      ],
      [
        "▁बिहिबार",
        -9.938578660820959
      ],
      [
        "▁मकवानपुर",
        -9.939613350542844
      ],
      [
        "▁जान्छ",
        -9.939874841461858
      ],
      [
        "▁एक्लै",
        -9.93995408919838
      ],
      [
        "▁सजिलै",
        -9.940119458869127
      ],
      [
        "▁कैलाली",
        -9.94063937302632
      ],
      [
        "▁ने",
        -9.941517317671202
      ],
      [
        "▁पुर्व",
        -9.941635732723295
      ],
      [
        "▁४९",
        -9.942845999839243
      ],
      [
        "▁लु",
        -9.942877310897668
      ],
      [
        "▁केन्द्रिय",
        -9.943534672113536
      ],
      [
        "▁गगन",
        -9.944143832283151
      ],
      [
        "छु",
        -9.944682664930713
      ],
      [
        "गा",
        -9.945010728497408
      ],
      [
        "▁दृश्य",
        -9.945267922420836
      ],
      [
        "▁(फोटो",
        -9.946347459117954
      ],
      [
        "▁प्रयोगकर्ता",
        -9.946847369899302
      ],
      [
        "▁नया",
        -9.946996659611576
      ],
      [
        "▁ग्रामीण",
        -9.947020658692576
      ],
      [
        "▁जसलाई",
        -9.947378351351471
      ],
      [
        "▁सङ्घीय",
        -9.94738649050145
      ],
      [
        "▁अर्जुन",
        -9.94762164702689
      ],
      [
        "िङ्ग",
        -9.948276977204955
      ],
      [
        "▁साइट",
        -9.94877710219296
      ],
      [
        "डि",
        -9.948789973527042
      ],
      [
        "▁प्रा.लि.",
        -9.948876286271279
      ],
      [
        "▁पशु",
        -9.948897302194094
      ],
      [
        "▁मौलिक",
        -9.948953615622749
      ],
      [
        "▁पाठक",
        -9.94969781513755
      ],
      [
        "▁देखेर",
        -9.949713624022628
      ],
      [
        "▁उपहार",
        -9.949738947409942
      ],
      [
        "▁पाठ",
        -9.950079240293736
      ],
      [
        "▁संस्थापक",
        -9.950313831737308
      ],
      [
        "▁भाषामा",
        -9.950385764141298
      ],
      [
        "▁ब्याटिङ",
        -9.951162145754253
      ],
      [
        "▁महाशाखा",
        -9.951414761199624
      ],
      [
        "▁C",
        -9.951673681127254
      ],
      [
        "▁कठिन",
        -9.951734467669327
      ],
      [
        "▁निकुञ्ज",
        -9.95205620311916
      ],
      [
        "▁केटी",
        -9.952175135607634
      ],
      [
        "▁हटाउन",
        -9.952467602984846
      ],
      [
        "▁जि",
        -9.952600196321203
      ],
      [
        "▁बढेर",
        -9.954904548099812
      ],
      [
        "त्र",
        -9.95533157676368
      ],
      [
        "▁प्रष्ट",
        -9.955540028729873
      ],
      [
        "▁पहाड",
        -9.955761240197358
      ],
      [
        "▁वडाध्यक्ष",
        -9.956338880639818
      ],
      [
        "▁कोइरालाले",
        -9.957227046359566
      ],
      [
        "भा",
        -9.95729555808888
      ],
      [
        "▁नेताहरुले",
        -9.957308913419158
      ],
      [
        "▁छिट्टै",
        -9.957610486831996
      ],
      [
        "ण्ड",
        -9.95764943288329
      ],
      [
        "▁अध्यक्षमा",
        -9.95785358202804
      ],
      [
        "▁आन्दोलनमा",
        -9.957876969293103
      ],
      [
        "▁बोलको",
        -9.95877817854315
      ],
      [
        "▁(रासस)",
        -9.959224046305764
      ],
      [
        "▁अवधारणा",
        -9.959661424193483
      ],
      [
        "▁तिमीलाई",
        -9.960105719932127
      ],
      [
        "▁गरिब",
        -9.960899680058636
      ],
      [
        "▁हुनुभएको",
        -9.962035904467456
      ],
      [
        "▁काठमाडौंको",
        -9.962100432761277
      ],
      [
        "▁२,",
        -9.962155673580916
      ],
      [
        "एका",
        -9.962254442172725
      ],
      [
        "▁R",
        -9.962311809481662
      ],
      [
        "▁मानिसहरू",
        -9.962369005264854
      ],
      [
        "▁राशि",
        -9.962504632940401
      ],
      [
        "▁खराब",
        -9.96258932202404
      ],
      [
        "▁आवास",
        -9.962593016610043
      ],
      [
        "▁सञ्जालमा",
        -9.96263747506439
      ],
      [
        "▁विधान",
        -9.962970233663935
      ],
      [
        "▁युवराज",
        -9.96301113940849
      ],
      [
        "▁बैङ्क",
        -9.964765765808547
      ],
      [
        "▁सिंहले",
        -9.965095701347732
      ],
      [
        "▁द्वन्द्व",
        -9.96527333333896
      ],
      [
        "▁शो",
        -9.965503281510138
      ],
      [
        "▁पत्नी",
        -9.966692297795836
      ],
      [
        "▁साझेदारी",
        -9.967256705840473
      ],
      [
        "▁राजमार्ग",
        -9.967955576201057
      ],
      [
        "▁सस्तो",
        -9.968247754768782
      ],
      [
        "▁दोहोरो",
        -9.968294740956413
      ],
      [
        "▁अरब",
        -9.970948142459747
      ],
      [
        "▁बजेदेखि",
        -9.971226965039264
      ],
      [
        "▁हिमाली",
        -9.97127144109552
      ],
      [
        "▁टाउको",
        -9.971885560260516
      ],
      [
        "▁रात",
        -9.972002319433381
      ],
      [
        "▁वटै",
        -9.972727421153863
      ],
      [
        "▁युग",
        -9.972830196796828
      ],
      [
        "▁आयुक्त",
        -9.972895960048465
      ],
      [
        "▁स्रोतले",
        -9.972948178681326
      ],
      [
        "्यो",
        -9.97339520215031
      ],
      [
        "▁कवि",
        -9.9739568031607
      ],
      [
        "▁अनेक",
        -9.974664954973749
      ],
      [
        "▁प्रमाणित",
        -9.974841602217552
      ],
      [
        "▁आउट",
        -9.976235449836816
      ],
      [
        "▁घन्टा",
        -9.976309235686884
      ],
      [
        "▁पाउनु",
        -9.97640721955497
      ],
      [
        "▁छौ",
        -9.97738732594627
      ],
      [
        "▁गुरु",
        -9.9776221293802
      ],
      [
        "▁मेसिन",
        -9.977739349919226
      ],
      [
        "▁राती",
        -9.978481503069956
      ],
      [
        "▁तथ्याङ्क",
        -9.978798556911961
      ],
      [
        "▁नमः",
        -9.978869621585147
      ],
      [
        "▁तपाईलाई",
        -9.979312291398521
      ],
      [
        "▁सुशील",
        -9.979794738712362
      ],
      [
        "▁बैतडी",
        -9.979799523427726
      ],
      [
        "▁प्रदर्शनमा",
        -9.9804293981883
      ],
      [
        "▁दायर",
        -9.98059362840942
      ],
      [
        "▁शाही",
        -9.981381759769206
      ],
      [
        "घ",
        -9.981401676301704
      ],
      [
        "▁चलन",
        -9.98141642451524
      ],
      [
        "▁इन्धन",
        -9.981833553305592
      ],
      [
        "▁बरामद",
        -9.981845876467332
      ],
      [
        "ुभएको",
        -9.981961365347662
      ],
      [
        "▁तिर",
        -9.982298662315774
      ],
      [
        "▁महासंघका",
        -9.982466472242397
      ],
      [
        "▁प्रवृत्ति",
        -9.982486819534873
      ],
      [
        "पन",
        -9.982737200215619
      ],
      [
        "▁रेखा",
        -9.982809145610954
      ],
      [
        "आर",
        -9.982969331662098
      ],
      [
        "▁अभियुक्त",
        -9.98337249377635
      ],
      [
        "▁बार्सिलोना",
        -9.983824710242942
      ],
      [
        "पटक",
        -9.983824737037637
      ],
      [
        "▁3",
        -9.984033939408693
      ],
      [
        "▁हजुर",
        -9.98413867984365
      ],
      [
        "▁लैजाने",
        -9.984438653174081
      ],
      [
        "स्ट",
        -9.984586598595104
      ],
      [
        "▁समूहको",
        -9.984730538191219
      ],
      [
        "▁यतिबेला",
        -9.984938374192065
      ],
      [
        "▁शंकर",
        -9.985059214653845
      ],
      [
        "▁मै",
        -9.985326633581419
      ],
      [
        "▁सरकारसँग",
        -9.985553919090638
      ],
      [
        "▁खतिवडा",
        -9.986947505821401
      ],
      [
        "▁गुणस्तरीय",
        -9.987276237552912
      ],
      [
        "▁६१",
        -9.987500325746291
      ],
      [
        "▁समारोहमा",
        -9.98808871369306
      ],
      [
        "▁मनाङ",
        -9.988575585384103
      ],
      [
        "▁‘यो",
        -9.988772709168039
      ],
      [
        "▁जलविद्युत",
        -9.988907293495895
      ],
      [
        "▁पढाइ",
        -9.989402955229853
      ],
      [
        "▁ग्यालरी",
        -9.989465019205
      ],
      [
        "▁५४",
        -9.989767378500666
      ],
      [
        "▁सिरहा",
        -9.990224791097038
      ],
      [
        "▁लेखा",
        -9.990783752371694
      ],
      [
        "▁जरिवाना",
        -9.990990863006154
      ],
      [
        "▁नकारात्मक",
        -9.990992258370454
      ],
      [
        "▁नपर्ने",
        -9.991132366100121
      ],
      [
        "▁सम्मानित",
        -9.991147393498538
      ],
      [
        "▁हराएको",
        -9.991570268023597
      ],
      [
        "▁राख्नु",
        -9.99169401235229
      ],
      [
        "▁रंग",
        -9.992058777608033
      ],
      [
        "▁जोडिएको",
        -9.992265015926062
      ],
      [
        "▁उठाउन",
        -9.992544727773415
      ],
      [
        "▁राणा",
        -9.992602519117481
      ],
      [
        "रहेको",
        -9.99288350639334
      ],
      [
        "▁तब",
        -9.993170872637084
      ],
      [
        "▁खण्डमा",
        -9.993617995380458
      ],
      [
        "गु",
        -9.99371340091787
      ],
      [
        "▁अखिल",
        -9.993713881985865
      ],
      [
        "▁३.",
        -9.994578079028528
      ],
      [
        "▁ओलीलाई",
        -9.995202389981976
      ],
      [
        "▁शहीद",
        -9.995238241893697
      ],
      [
        "िंग",
        -9.99525337029928
      ],
      [
        "▁लेखन",
        -9.995632427784953
      ],
      [
        "▁आत्मनिर्भर",
        -9.996788844866051
      ],
      [
        "▁४६",
        -9.996848968532287
      ],
      [
        "▁सा",
        -9.997034253421965
      ],
      [
        "▁बिकास",
        -9.997341499592466
      ],
      [
        "▁समयसम्म",
        -9.998108887579152
      ],
      [
        "▁चालू",
        -9.998749344739998
      ],
      [
        "▁मस्यौदा",
        -9.99900611345865
      ],
      [
        "▁नृत्य",
        -9.999136890267987
      ],
      [
        "▁एशिया",
        -9.999935676284714
      ],
      [
        "▁बयान",
        -10.000928888431906
      ],
      [
        "▁चौकी",
        -10.001023008686598
      ],
      [
        "▁श्रावण",
        -10.001084451961901
      ],
      [
        "▁क्षेत्रबाट",
        -10.001439541500247
      ],
      [
        "▁रामचन्द्र",
        -10.0014924890517
      ],
      [
        "▁सामूहिक",
        -10.001793093199424
      ],
      [
        "▁स्मार्टफोन",
        -10.002501419801014
      ],
      [
        "▁हल्ला",
        -10.00311272600106
      ],
      [
        "▁स्वस्थ",
        -10.003419230865447
      ],
      [
        "▁मन्त्रालयमा",
        -10.003506570129058
      ],
      [
        "▁विप्लव",
        -10.00356785723985
      ],
      [
        "▁लोडसेडिङ",
        -10.004815290349597
      ],
      [
        "▁जोडी",
        -10.00482913304673
      ],
      [
        "▁सुनिश्चित",
        -10.005459803808673
      ],
      [
        "▁कृषक",
        -10.00624922063904
      ],
      [
        "▁भारतबाट",
        -10.006406278927471
      ],
      [
        "▁फारम",
        -10.0069952193458
      ],
      [
        "▁माध्यमिक",
        -10.007448262397546
      ],
      [
        "▁जोशी",
        -10.007514255682878
      ],
      [
        "▁कूल",
        -10.007716075608828
      ],
      [
        "सु",
        -10.00778576782885
      ],
      [
        "▁स्वार्थ",
        -10.008238977398987
      ],
      [
        "▁६४",
        -10.008582461054246
      ],
      [
        "▁अत्यधिक",
        -10.008689539655256
      ],
      [
        "▁अप",
        -10.009468737970273
      ],
      [
        "▁प्रियंका",
        -10.009862806791418
      ],
      [
        "▁पेस",
        -10.010020690032361
      ],
      [
        "▁जिप",
        -10.010131823241903
      ],
      [
        "▁नमुना",
        -10.01065542383694
      ],
      [
        "क्स",
        -10.010681553731544
      ],
      [
        "▁पछिल्ला",
        -10.011324577864897
      ],
      [
        "▁•",
        -10.011907695143112
      ],
      [
        "▁news",
        -10.011992833776105
      ],
      [
        "▁त्यतिबेला",
        -10.01228304607408
      ],
      [
        "▁विज्ञापनको",
        -10.012367642678004
      ],
      [
        "▁गर्भवती",
        -10.01244781637994
      ],
      [
        "▁प्रक्रियामा",
        -10.012508683926294
      ],
      [
        "▁बलमा",
        -10.012738630883707
      ],
      [
        "▁थारु",
        -10.012788441859954
      ],
      [
        "▁अबको",
        -10.013190102549515
      ],
      [
        "▁निगमले",
        -10.013270961061073
      ],
      [
        "▁रणनीति",
        -10.013431748200798
      ],
      [
        "▁सिजन",
        -10.013680818400395
      ],
      [
        "▁उस्तै",
        -10.013792190371717
      ],
      [
        "▁बर्षको",
        -10.014309879498626
      ],
      [
        "▁उपराष्ट्रपति",
        -10.014472042362826
      ],
      [
        "ढ",
        -10.014603014586974
      ],
      [
        "िन्",
        -10.014783684798546
      ],
      [
        "▁बाटोमा",
        -10.014844993909378
      ],
      [
        "जन्य",
        -10.01542873245165
      ],
      [
        "▁आफन्त",
        -10.015797843808727
      ],
      [
        "▁सम्पदा",
        -10.016324523119685
      ],
      [
        "जि",
        -10.01650981313838
      ],
      [
        "▁लेखेका",
        -10.016937677807935
      ],
      [
        "▁अवधि",
        -10.018262984615319
      ],
      [
        "▁सम्झना",
        -10.018631666015146
      ],
      [
        "▁प्रकट",
        -10.01903566508064
      ],
      [
        "▁देखाउन",
        -10.019296338471662
      ],
      [
        "▁समझदारी",
        -10.01982279540469
      ],
      [
        "▁जीवनको",
        -10.019951310988294
      ],
      [
        "▁सुख",
        -10.02075264265746
      ],
      [
        "▁१,",
        -10.021019492135125
      ],
      [
        "▁भयो,",
        -10.021855189998726
      ],
      [
        "होस्",
        -10.022103559959591
      ],
      [
        "▁धनकुटा",
        -10.022170297982017
      ],
      [
        "▁श्रेष्ठ,",
        -10.022282945721141
      ],
      [
        "▁डाटा",
        -10.022577236585578
      ],
      [
        "▁नाकाबन्दी",
        -10.022745473473488
      ],
      [
        "▁प्राथमिकतामा",
        -10.02288178854856
      ],
      [
        "▁विद्यार्थीको",
        -10.022976513787002
      ],
      [
        "▁दमक",
        -10.023054924964644
      ],
      [
        "▁अा",
        -10.023506520000325
      ],
      [
        "w",
        -10.023770538212432
      ],
      [
        "▁बे",
        -10.02448286988692
      ],
      [
        "▁किम",
        -10.024576114385711
      ],
      [
        "नेपाल",
        -10.025023589833765
      ],
      [
        "▁आउँदै",
        -10.025040693567195
      ],
      [
        "▁ठेगाना",
        -10.026625562727888
      ],
      [
        "▁सामाग्री",
        -10.026834392080708
      ],
      [
        "▁(एमाले)",
        -10.026932197159685
      ],
      [
        "▁४७",
        -10.026966311379987
      ],
      [
        "▁सेप्टेम्बर",
        -10.027114042036763
      ],
      [
        "▁पक्षले",
        -10.02756081000863
      ],
      [
        "ाएर",
        -10.027947567144444
      ],
      [
        "▁जीप",
        -10.028029201278969
      ],
      [
        "ाउ",
        -10.028260399270856
      ],
      [
        "।”",
        -10.028492765534455
      ],
      [
        "▁खालको",
        -10.029083322324002
      ],
      [
        "▁पारस",
        -10.029501436001556
      ],
      [
        "▁अशोक",
        -10.0301158739951
      ],
      [
        "▁भाग्य",
        -10.030493636333993
      ],
      [
        "▁न्यून",
        -10.030544633543931
      ],
      [
        "▁महान",
        -10.030671443237825
      ],
      [
        "▁विद्युतीय",
        -10.030702583528303
      ],
      [
        "▁नेताले",
        -10.03138005154635
      ],
      [
        "▁बाँके",
        -10.031838769297412
      ],
      [
        "▁तिनीहरू",
        -10.032260433008332
      ],
      [
        "▁प्रभु",
        -10.033212104090069
      ],
      [
        "▁प्रस्थान",
        -10.033361179108892
      ],
      [
        "▁जर्मनी",
        -10.03373965459097
      ],
      [
        "▁किरण",
        -10.034246469077946
      ],
      [
        "▁तपाइको",
        -10.034689315687531
      ],
      [
        "▁परिस्थिति",
        -10.034799446083898
      ],
      [
        "▁वास्तविक",
        -10.03482726298037
      ],
      [
        "▁पराजुली",
        -10.035115421147335
      ],
      [
        "k",
        -10.035428355716654
      ],
      [
        "▁लाग्दैन",
        -10.03628736230285
      ],
      [
        "दिने",
        -10.0363116457192
      ],
      [
        "▁पवित्र",
        -10.036517443032672
      ],
      [
        "▁हस्तक्षेप",
        -10.038132615965885
      ],
      [
        "▁सह",
        -10.038325742165203
      ],
      [
        "▁आकाश",
        -10.039026737241807
      ],
      [
        "▁भ्रमणका",
        -10.03909753028056
      ],
      [
        "▁लाभांश",
        -10.039742331412373
      ],
      [
        "▁बुबा",
        -10.040130426464472
      ],
      [
        "▁छोडेर",
        -10.040148915303615
      ],
      [
        "▁दुईवटा",
        -10.040386856568809
      ],
      [
        "▁इन",
        -10.040832789780694
      ],
      [
        "कु",
        -10.041003865174385
      ],
      [
        "▁सेवामा",
        -10.041185693758734
      ],
      [
        "▁छठ",
        -10.041472767258064
      ],
      [
        "▁चाहेको",
        -10.042059227920703
      ],
      [
        "▁अचम्म",
        -10.042427111075508
      ],
      [
        "▁परिसर",
        -10.042708989006666
      ],
      [
        "▁देशलाई",
        -10.04378636241675
      ],
      [
        "▁संक्रमण",
        -10.044598330541
      ],
      [
        "▁मुलुकका",
        -10.04472304859812
      ],
      [
        "▁त्यस्तै,",
        -10.045451988833035
      ],
      [
        "▁ट्रम्प",
        -10.04613401295791
      ],
      [
        "▁उर्जा",
        -10.046156765779735
      ],
      [
        "▁सापकोटा",
        -10.046401155556602
      ],
      [
        "▁समाप्त",
        -10.046950312516191
      ],
      [
        "▁राजश्व",
        -10.047848591467073
      ],
      [
        "▁अपहरण",
        -10.047981625301947
      ],
      [
        "▁ल्याइएको",
        -10.048673566961273
      ],
      [
        "▁संस्थाका",
        -10.048938250695947
      ],
      [
        "▁नराम्रो",
        -10.0496127016512
      ],
      [
        "▁देखिए",
        -10.049692093028117
      ],
      [
        "▁वैज्ञानिक",
        -10.049891119340742
      ],
      [
        "▁आएकी",
        -10.051126483702294
      ],
      [
        "h",
        -10.052550826265673
      ],
      [
        "▁संस्थाहरु",
        -10.053608213897125
      ],
      [
        "खा",
        -10.053815773006106
      ],
      [
        "भित्रै",
        -10.054199289965709
      ],
      [
        "दि",
        -10.054924073303276
      ],
      [
        "▁नदीमा",
        -10.055684484470955
      ],
      [
        "▁बढुवा",
        -10.056015580427331
      ],
      [
        "▁सहारा",
        -10.056038496823707
      ],
      [
        "▁आर",
        -10.056156594531146
      ],
      [
        "▁बोल्न",
        -10.056215650917098
      ],
      [
        "▁निवासी",
        -10.05761553367594
      ],
      [
        "▁शनिवार",
        -10.05763639541739
      ],
      [
        "▁ठक्कर",
        -10.058051012460556
      ],
      [
        "▁यथार्थ",
        -10.058383284451725
      ],
      [
        "▁क्रान्ति",
        -10.058425522545315
      ],
      [
        "▁५३",
        -10.059134260537759
      ],
      [
        "वाद",
        -10.059698484402569
      ],
      [
        "▁सन्तोष",
        -10.060388387029997
      ],
      [
        "▁आउँदो",
        -10.060497849485827
      ],
      [
        "▁कर्म",
        -10.061560236601357
      ],
      [
        "▁थान",
        -10.061919537866899
      ],
      [
        "▁आशंका",
        -10.062393618098433
      ],
      [
        "▁देखाउने",
        -10.06250429229882
      ],
      [
        "▁सार्बजनिक",
        -10.062563873064523
      ],
      [
        "▁विज्ञप्ति",
        -10.063316188540483
      ],
      [
        "▁समाचार,",
        -10.063378643638163
      ],
      [
        "6",
        -10.06349285323307
      ],
      [
        "▁अनशन",
        -10.064067771600978
      ],
      [
        "▁युवाहरु",
        -10.065638032285264
      ],
      [
        "▁भनिन्छ",
        -10.065796692039486
      ],
      [
        "▁मोदीले",
        -10.065902388676193
      ],
      [
        "▁प्रा",
        -10.06603279602107
      ],
      [
        "▁बढे",
        -10.066150712031632
      ],
      [
        "▁लेखनाथ",
        -10.066180364675802
      ],
      [
        "▁जाति",
        -10.066304599054707
      ],
      [
        "▁६३",
        -10.066547240774021
      ],
      [
        "▁उपप्रधानमन्त्री",
        -10.066779165918934
      ],
      [
        "▁नारी",
        -10.066865159213304
      ],
      [
        "▁व्यक्तित्व",
        -10.067447982116995
      ],
      [
        "▁दिइने",
        -10.067643112707318
      ],
      [
        "चाहिँ",
        -10.068248191563933
      ],
      [
        "▁२०१५",
        -10.06835830882273
      ],
      [
        "▁पु",
        -10.068720761626235
      ],
      [
        "▁पुँजी",
        -10.069130199482917
      ],
      [
        "▁ति",
        -10.069174574576426
      ],
      [
        "▁खड्काले",
        -10.069406007825652
      ],
      [
        "▁नवराज",
        -10.069531688974084
      ],
      [
        "▁ठाकुर",
        -10.069742367197968
      ],
      [
        "▁लेखिएको",
        -10.070455957563679
      ],
      [
        "▁दफा",
        -10.070946519163774
      ],
      [
        "▁श्रीमान",
        -10.07133701040633
      ],
      [
        "▁जय",
        -10.071753558764133
      ],
      [
        "▁किशोरी",
        -10.072040587764045
      ],
      [
        "▁गुमाए",
        -10.072083983133211
      ],
      [
        "▁रौतहट",
        -10.072281404093848
      ],
      [
        "▁विनोद",
        -10.072692490435413
      ],
      [
        "▁प्रविधिको",
        -10.073478419624653
      ],
      [
        "▁एकदमै",
        -10.07407029903316
      ],
      [
        "▁प्रतिवद्धता",
        -10.074241198666797
      ],
      [
        "▁अङ्क",
        -10.074658282948278
      ],
      [
        "▁पार्दै",
        -10.074809482812455
      ],
      [
        "▁थालिएको",
        -10.075839762600868
      ],
      [
        "▁लिटर",
        -10.075842936265307
      ],
      [
        "▁गरिबी",
        -10.075844961042163
      ],
      [
        "▁किन्न",
        -10.076321385611344
      ],
      [
        "o",
        -10.076674795237182
      ],
      [
        "▁७२",
        -10.076692487403665
      ],
      [
        "ही",
        -10.07714223339869
      ],
      [
        "▁सीप",
        -10.077233576968275
      ],
      [
        "▁भेटिएको",
        -10.07730154096382
      ],
      [
        "▁बोल्ने",
        -10.077301816206903
      ],
      [
        "▁आयल",
        -10.077535390604705
      ],
      [
        "▁ऐन,",
        -10.07758777872155
      ],
      [
        "▁कर्मचारीले",
        -10.078175030772321
      ],
      [
        "▁खास",
        -10.079838429120018
      ],
      [
        "▁संवाद",
        -10.079950883978269
      ],
      [
        "▁बैंकिङ",
        -10.080677929675225
      ],
      [
        "▁भएकै",
        -10.08086884193968
      ],
      [
        "▁भनिन्",
        -10.08126721451481
      ],
      [
        "▁पृथ्वी",
        -10.081447099987473
      ],
      [
        "▁५८",
        -10.081468633069665
      ],
      [
        "▁*",
        -10.081895037514823
      ],
      [
        "ष्ट",
        -10.082891199647701
      ],
      [
        "▁‘अ",
        -10.083236884606094
      ],
      [
        "▁पालना",
        -10.08369421387909
      ],
      [
        "▁मूल्यमा",
        -10.08387460248542
      ],
      [
        "1",
        -10.084069105912173
      ],
      [
        "▁भैरहवा",
        -10.084152037704667
      ],
      [
        "▁सुर्खेत",
        -10.084302261141875
      ],
      [
        "क्",
        -10.084528786281144
      ],
      [
        "▁चरण",
        -10.084596985495835
      ],
      [
        "▁औ",
        -10.084748375500563
      ],
      [
        "▁दिनेश",
        -10.08508253406963
      ],
      [
        "▁गो",
        -10.085259541031036
      ],
      [
        "▁विष्ट",
        -10.085280855851877
      ],
      [
        "▁सुनको",
        -10.086027569656613
      ],
      [
        "▁चित्त",
        -10.086033922323342
      ],
      [
        "पि",
        -10.08616779818028
      ],
      [
        "▁बाली",
        -10.086276494509658
      ],
[...]
