{
  "version": "1.0",
  "truncation": null,
  "padding": null,
  "added_tokens": [
    {
      "id": 0,
      "content": "[UNK]",
      "single_word": false,
      "lstrip": false,
      "rstrip": false,
      "normalized": false,
      "special": true
    },
    {
      "id": 1,
      "content": "[CLS]",
      "single_word": false,
      "lstrip": false,
      "rstrip": false,
      "normalized": false,
      "special": true
    },
    {
      "id": 2,
      "content": "[SEP]",
      "single_word": false,
      "lstrip": false,
      "rstrip": false,
      "normalized": false,
      "special": true
    },
    {
      "id": 3,
      "content": "[PAD]",
      "single_word": false,
      "lstrip": false,
      "rstrip": false,
      "normalized": false,
      "special": true
    },
    {
      "id": 4,
      "content": "[MASK]",
      "single_word": false,
      "lstrip": false,
      "rstrip": false,
      "normalized": false,
      "special": true
    }
  ],
  "normalizer": {
    "type": "Sequence",
    "normalizers": [
      {
        "type": "Nmt"
      },
      {
        "type": "NFKC"
      },
      {
        "type": "Replace",
        "pattern": {
          "Regex": " {2,}"
        },
        "content": " "
      }
    ]
  },
  "pre_tokenizer": {
    "type": "Metaspace",
    "replacement": "▁",
    "prepend_scheme": "always",
    "split": true
  },
  "post_processor": null,
  "decoder": {
    "type": "Metaspace",
    "replacement": "▁",
    "prepend_scheme": "always",
    "split": true
  },
  "model": {
    "type": "Unigram",
    "unk_id": null,
    "vocab": [
      [
        "[UNK]",
        0.0
      ],
      [
        "[CLS]",
        0.0
      ],
      [
        "[SEP]",
        0.0
      ],
      [
        "[PAD]",
        0.0
      ],
      [
        "[MASK]",
        0.0
      ],
      [
        "▁",
        -2.6080163168831003
      ],
      [
        ",",
        -3.050827206864229
      ],
      [
        ".",
        -3.550643406667989
      ],
      [
        "▁ir",
        -3.981515101086142
      ],
      [
        "s",
        -4.312314207823601
      ],
      [
        "o",
        -4.4703142107510185
      ],
      [
        "i",
        -4.8349819653391215
      ],
      [
        "ų",
        -4.95288894397239
      ],
      [
        "▁–",
        -5.244665290492879
      ],
      [
        "▁su",
        -5.32048364903763
      ],
      [
        "▁į",
        -5.332737978646838
      ],
      [
        "▁kad",
        -5.350580089480637
      ],
      [
        ":",
        -5.405927012987073
      ],
      [
        "as",
        -5.473667449524363
      ],
      [
        "▁iš",
        -5.476461009991816
      ],
      [
        "a",
        -5.603899335130302
      ],
      [
        "▁-",
        -5.613821662119703
      ],
      [
        "▁yra",
        -5.618809426819816
      ],
      [
        "us",
        -5.7307770735484365
      ],
      [
        "ą",
        -5.771747938641321
      ],
      [
        "e",
        -5.792572550373837
      ],
      [
        "▁ne",
        -5.811280928270179
      ],
      [
        "“",
        -5.826708580030068
      ],
      [
        "os",
        -5.84445916067626
      ],
      [
        "ai",
        -5.876001184436555
      ],
      [
        ")",
        -5.953832452143141
      ],
      [
        "u",
        -5.98441362880145
      ],
      [
        "▁ar",
        -6.116535146902628
      ],
      [
        "▁(",
        -6.146344213019168
      ],
      [
        "▁kaip",
        -6.1511991652354965
      ],
      [
        "▁buvo",
        -6.175746942352166
      ],
      [
        "▁tai",
        -6.1781444540812895
      ],
      [
        "?",
        -6.188632204382728
      ],
      [
        "▁savo",
        -6.202773690858033
      ],
      [
        "▁tik",
        -6.235149150196435
      ],
      [
        "▁apie",
        -6.289436769495847
      ],
      [
        "▁nuo",
        -6.347151730875517
      ],
      [
        "is",
        -6.375585653314976
      ],
      [
        "▁„",
        -6.411751196222651
      ],
      [
        "▁per",
        -6.418075230754887
      ],
      [
        "▁bet",
        -6.442186953520649
      ],
      [
        "▁Lietuvos",
        -6.472963556718883
      ],
      [
        "ė",
        -6.4765838816970405
      ],
      [
        "▁už",
        -6.486825421624339
      ],
      [
        "▁gali",
        -6.4901630507796835
      ],
      [
        "ti",
        -6.496387886618477
      ],
      [
        "...",
        -6.514542439813098
      ],
      [
        "▁m.",
        -6.613060069331363
      ],
      [
        "▁taip",
        -6.642127300377677
      ],
      [
        "-",
        -6.657982013709281
      ],
      [
        "\"",
        -6.67370933443333
      ],
      [
        "į",
        -6.681707259382444
      ],
      [
        "▁bei",
        -6.699599342322225
      ],
      [
        "me",
        -6.715065028158575
      ],
      [
        "▁kai",
        -6.72933975300292
      ],
      [
        "▁pat",
        -6.743997762590714
      ],
      [
        "▁dar",
        -6.749626474601055
      ],
      [
        "▁dėl",
        -6.754534596290208
      ],
      [
        "▁jau",
        -6.766975023731941
      ],
      [
        "▁po",
        -6.791099013341581
      ],
      [
        ";",
        -6.834907314807044
      ],
      [
        "▁labai",
        -6.848523262022766
      ],
      [
        "▁iki",
        -6.850799241912108
      ],
      [
        "▁būti",
        -6.856639287479112
      ],
      [
        "t",
        -6.879740102302328
      ],
      [
        "k",
        -6.880274399178868
      ],
      [
        "▁jų",
        -6.897024893455505
      ],
      [
        "▁metų",
        -6.905805389872082
      ],
      [
        "te",
        -6.914295508033694
      ],
      [
        "ę",
        -6.916718394533966
      ],
      [
        "▁arba",
        -6.946991995609848
      ],
      [
        "▁turi",
        -6.951886379759632
      ],
      [
        "s,",
        -6.956610374866948
      ],
      [
        "r",
        -6.963192755127899
      ],
      [
        "m",
        -6.967827737622773
      ],
      [
        "▁1",
        -6.982444577740477
      ],
      [
        "▁prie",
        -6.989009563724077
      ],
      [
        "▁kas",
        -6.9993877470153265
      ],
      [
        "▁pa",
        -7.0035320909877825
      ],
      [
        "!",
        -7.0094674303305045
      ],
      [
        "▁_",
        -7.011495952611687
      ],
      [
        "▁jis",
        -7.033165062738615
      ],
      [
        "▁jo",
        -7.039475901870107
      ],
      [
        "▁metu",
        -7.051820325747025
      ],
      [
        "▁nes",
        -7.059347076309326
      ],
      [
        "ių",
        -7.060463991178796
      ],
      [
        "ės",
        -7.063996069290971
      ],
      [
        "▁bus",
        -7.08139954639077
      ],
      [
        "▁2",
        -7.084456202385239
      ],
      [
        "▁daugiau",
        -7.100928679390963
      ],
      [
        "“,",
        -7.139903620246917
      ],
      [
        "/",
        -7.146631409295011
      ],
      [
        "▁nei",
        -7.173258491272655
      ],
      [
        "d",
        -7.2040808917075285
      ],
      [
        ").",
        -7.224886699591202
      ],
      [
        "▁S",
        -7.228831381884776
      ],
      [
        "▁d.",
        -7.244099111991481
      ],
      [
        "▁galima",
        -7.2445687975295865
      ],
      [
        "▁mūsų",
        -7.246842790576352
      ],
      [
        "je",
        -7.259252242705401
      ],
      [
        "▁prieš",
        -7.261670588309601
      ],
      [
        "▁Tai",
        -7.2701798416122365
      ],
      [
        "▁be",
        -7.273044638491825
      ],
      [
        "▁kurie",
        -7.281999955390415
      ],
      [
        "▁O",
        -7.289354889431225
      ],
      [
        "▁tačiau",
        -7.301591504112057
      ],
      [
        "▁daug",
        -7.3076957636778275
      ],
      [
        "▁tiek",
        -7.317255041405408
      ],
      [
        "ta",
        -7.320727957418709
      ],
      [
        "ma",
        -7.323197382183592
      ],
      [
        "▁jos",
        -7.333051909013106
      ],
      [
        "▁kur",
        -7.339221256886097
      ],
      [
        "▁\"",
        -7.351955929763703
      ],
      [
        "▁3",
        -7.357159609825226
      ],
      [
        "▁net",
        -7.366875232848816
      ],
      [
        "▁darbo",
        -7.378577208416353
      ],
      [
        "tų",
        -7.39757765207294
      ],
      [
        "oje",
        -7.414277629364417
      ],
      [
        "▁reikia",
        -7.414528068004065
      ],
      [
        "▁būtų",
        -7.429393227234819
      ],
      [
        "es",
        -7.432462002971283
      ],
      [
        "▁nėra",
        -7.43268730403566
      ],
      [
        "▁jei",
        -7.437633957448892
      ],
      [
        "▁jie",
        -7.453026389570315
      ],
      [
        "▁pagal",
        -7.459428025713423
      ],
      [
        "▁to",
        -7.471044932242524
      ],
      [
        "mi",
        -7.50780792186217
      ],
      [
        "p",
        -7.509238149086352
      ],
      [
        "g",
        -7.510844176786621
      ],
      [
        "▁ant",
        -7.539928991181526
      ],
      [
        "ais",
        -7.543607417142743
      ],
      [
        "as,",
        -7.54606870652723
      ],
      [
        "▁kalba",
        -7.55440298042191
      ],
      [
        "n",
        -7.55555770161083
      ],
      [
        "uose",
        -7.557870764896753
      ],
      [
        "▁4",
        -7.563288428814952
      ],
      [
        "▁ką",
        -7.565088433281769
      ],
      [
        "tas",
        -7.570046883593436
      ],
      [
        "▁5",
        -7.583988243199652
      ],
      [
        "▁jog",
        -7.585426546386483
      ],
      [
        "y",
        -7.591594075655189
      ],
      [
        "▁Vilniaus",
        -7.596925071087419
      ],
      [
        "ui",
        -7.601868504957013
      ],
      [
        "▁kuris",
        -7.610375785263875
      ],
      [
        "),",
        -7.612694849681487
      ],
      [
        "▁čia",
        -7.618285613411377
      ],
      [
        "▁10",
        -7.629843069999383
      ],
      [
        "▁ji",
        -7.630902963853837
      ],
      [
        "▁A",
        -7.638391326573064
      ],
      [
        "kite",
        -7.63881139155923
      ],
      [
        "nt",
        -7.650218635629377
      ],
      [
        "▁Tačiau",
        -7.654130496978906
      ],
      [
        "▁nors",
        -7.6646692649454895
      ],
      [
        "▁Ar",
        -7.665660306487068
      ],
      [
        "▁Iš",
        -7.668985084725188
      ],
      [
        "am",
        -7.6737702155211345
      ],
      [
        "▁Kauno",
        -7.678227132786683
      ],
      [
        "S",
        -7.679387273979573
      ],
      [
        "▁vis",
        -7.6804253566713
      ],
      [
        "mas",
        -7.680600671092861
      ],
      [
        "omis",
        -7.6815130125330064
      ],
      [
        "▁nu",
        -7.684191439859271
      ],
      [
        "▁Kaip",
        -7.684618681981027
      ],
      [
        "▁todėl",
        -7.685630379191419
      ],
      [
        "▁Jei",
        -7.688449142262154
      ],
      [
        ".lt",
        -7.690810642581168
      ],
      [
        "imo",
        -7.699445422407376
      ],
      [
        "ai,",
        -7.709547118698302
      ],
      [
        "▁man",
        -7.70989551428973
      ],
      [
        "▁g.",
        -7.714614408021676
      ],
      [
        "▁Ne",
        -7.721363836691243
      ],
      [
        "▁teisės",
        -7.730757949969778
      ],
      [
        "▁Europos",
        -7.735666316030432
      ],
      [
        "▁Ir",
        -7.736465495730162
      ],
      [
        "▁Lietuvoje",
        -7.743354401334088
      ],
      [
        "“.",
        -7.749440055185554
      ],
      [
        "▁kuri",
        -7.7539619072754835
      ],
      [
        "▁8",
        -7.759533340619212
      ],
      [
        "▁/",
        -7.775076652970913
      ],
      [
        "▁Jūsų",
        -7.7847968825035565
      ],
      [
        "▁6",
        -7.7856660219720855
      ],
      [
        "mo",
        -7.798203190086102
      ],
      [
        "▁kurios",
        -7.798596208826304
      ],
      [
        "b",
        -7.7988482640383285
      ],
      [
        "▁mano",
        -7.80052839387619
      ],
      [
        "▁tikrai",
        -7.81086179665961
      ],
      [
        "▁vienas",
        -7.813854906766425
      ],
      [
        "▁Į",
        -7.81511388390777
      ],
      [
        "▁K",
        -7.8211698399557985
      ],
      [
        "ams",
        -7.824500269842872
      ],
      [
        "▁P",
        -7.8279298490871465
      ],
      [
        "▁aš",
        -7.832084746064369
      ],
      [
        "▁UAB",
        -7.834069745142253
      ],
      [
        "▁tarp",
        -7.840164727352519
      ],
      [
        "▁kartą",
        -7.844675818778146
      ],
      [
        "▁mes",
        -7.8570268083058
      ],
      [
        "▁dabar",
        -7.858300904109175
      ],
      [
        "inės",
        -7.8686191953834825
      ],
      [
        "▁jį",
        -7.874388218152825
      ],
      [
        "▁metais",
        -7.878035111478905
      ],
      [
        "inė",
        -7.880966394956147
      ],
      [
        "š",
        -7.883246296011542
      ],
      [
        "ą,",
        -7.885054929899722
      ],
      [
        "as.",
        -7.888870971431659
      ],
      [
        "iai",
        -7.89060379794314
      ],
      [
        "▁juos",
        -7.895366573495652
      ],
      [
        "imas",
        -7.901915016484109
      ],
      [
        "▁pasi",
        -7.90565811756157
      ],
      [
        "▁Su",
        -7.919396529715918
      ],
      [
        "au",
        -7.921820458650759
      ],
      [
        "inių",
        -7.924279835226518
      ],
      [
        "▁Taip",
        -7.927049085943709
      ],
      [
        "ųjų",
        -7.927619468052777
      ],
      [
        "▁Bet",
        -7.927657656724287
      ],
      [
        "]",
        -7.936315941283828
      ],
      [
        "▁tam",
        -7.938289355151872
      ],
      [
        "ame",
        -7.941574034191898
      ],
      [
        "▁kitų",
        -7.946291682098673
      ],
      [
        "mis",
        -7.954351430290531
      ],
      [
        "ęs",
        -7.955110026504974
      ],
      [
        "▁tuo",
        -7.958370789107027
      ],
      [
        "▁Pa",
        -7.9662740487881845
      ],
      [
        "▁to,",
        -7.971616854581475
      ],
      [
        "iu",
        -7.990727218959625
      ],
      [
        "▁galite",
        -7.995497200024721
      ],
      [
        "l",
        -7.99859857533232
      ],
      [
        "▁at",
        -8.00788879805051
      ],
      [
        "tos",
        -8.009991380889025
      ],
      [
        "▁18",
        -8.012909300751206
      ],
      [
        "ir",
        -8.013530998829134
      ],
      [
        "▁Po",
        -8.018819232978425
      ],
      [
        "▁15",
        -8.020000993039078
      ],
      [
        "▁12",
        -8.020355220355881
      ],
      [
        "▁7",
        -8.021340717343465
      ],
      [
        "tu",
        -8.023178066533555
      ],
      [
        "▁Be",
        -8.023733040437515
      ],
      [
        "ose",
        -8.03578589089512
      ],
      [
        "aus",
        -8.037782434111737
      ],
      [
        "inis",
        -8.049586845735373
      ],
      [
        "”",
        -8.059086735569078
      ],
      [
        "▁valstybės",
        -8.059246494360751
      ],
      [
        "▁20",
        -8.059626374149689
      ],
      [
        "▁kurių",
        -8.060266694601605
      ],
      [
        "▁ko",
        -8.06318984274396
      ],
      [
        "ant",
        -8.063294452264742
      ],
      [
        "▁proc.",
        -8.064486238279446
      ],
      [
        "▁miesto",
        -8.065157026998085
      ],
      [
        "▁jūsų",
        -8.06579670701638
      ],
      [
        "▁vieną",
        -8.068199765389881
      ],
      [
        "to",
        -8.071241190564281
      ],
      [
        "z",
        -8.077556636395515
      ],
      [
        "ą.",
        -8.079034402012779
      ],
      [
        "▁visi",
        -8.081481542310343
      ],
      [
        "▁Ši",
        -8.08947494977776
      ],
      [
        "▁Kai",
        -8.09056597845413
      ],
      [
        "▁žmonių",
        -8.095841402033878
      ],
      [
        "▁kiek",
        -8.097562306639363
      ],
      [
        "▁gal",
        -8.099827607395143
      ],
      [
        "▁val.",
        -8.106644148830416
      ],
      [
        "▁kartu",
        -8.107479849580944
      ],
      [
        "▁pasaulio",
        -8.10858891715314
      ],
      [
        "▁šį",
        -8.122150056979967
      ],
      [
        "▁B",
        -8.12690737921621
      ],
      [
        "▁ap",
        -8.128703017148448
      ],
      [
        "ei",
        -8.129708576657512
      ],
      [
        "▁A.",
        -8.133339184208678
      ],
      [
        "▁dieną",
        -8.13487941673874
      ],
      [
        "▁2018",
        -8.137274911951486
      ],
      [
        "▁D",
        -8.140953383328503
      ],
      [
        "▁sakė",
        -8.142053176603767
      ],
      [
        "▁pas",
        -8.153746191060835
      ],
      [
        "▁Jis",
        -8.16068881894748
      ],
      [
        "▁metus",
        -8.162095327880243
      ],
      [
        "▁G",
        -8.16303597689528
      ],
      [
        "mos",
        -8.163079595759362
      ],
      [
        "v",
        -8.164480767723346
      ],
      [
        "▁Visos",
        -8.169703878531848
      ],
      [
        "▁informacija",
        -8.17375089748774
      ],
      [
        "▁viena",
        -8.17581518260663
      ],
      [
        "O",
        -8.192412898207635
      ],
      [
        "▁jums",
        -8.196897973073243
      ],
      [
        "ys",
        -8.203800734592374
      ],
      [
        "iniai",
        -8.20381489383149
      ],
      [
        "▁©",
        -8.208071656483883
      ],
      [
        "ojo",
        -8.210534532560649
      ],
      [
        "h",
        -8.2122339293611
      ],
      [
        "▁kaina",
        -8.214781913617621
      ],
      [
        "▁pri",
        -8.224006052926045
      ],
      [
        "▁C",
        -8.233052951125023
      ],
      [
        "ž",
        -8.237621249736293
      ],
      [
        "▁L",
        -8.238063546775281
      ],
      [
        "3",
        -8.248325341290151
      ],
      [
        "▁Per",
        -8.249244626978106
      ],
      [
        "jo",
        -8.25051577382827
      ],
      [
        "▁9",
        -8.259194115273795
      ],
      [
        "ntis",
        -8.259509024338152
      ],
      [
        "▁r.",
        -8.261945054661355
      ],
      [
        "▁laiko",
        -8.263852763699125
      ],
      [
        "▁jam",
        -8.267971174300284
      ],
      [
        "▁kol",
        -8.272811816894782
      ],
      [
        "ar",
        -8.273078503242466
      ],
      [
        "A",
        -8.275070890228571
      ],
      [
        "▁šios",
        -8.275498756875907
      ],
      [
        "▁M",
        -8.280516705632653
      ],
      [
        "▁JAV",
        -8.281699381369089
      ],
      [
        "▁du",
        -8.281785654922608
      ],
      [
        "▁savivaldybės",
        -8.283085930827891
      ],
      [
        "▁T",
        -8.284301349706553
      ],
      [
        "▁rajono",
        -8.288029933579804
      ],
      [
        "▁30",
        -8.289658294356268
      ],
      [
        "oji",
        -8.291024772354888
      ],
      [
        "▁visus",
        -8.292540735214118
      ],
      [
        "▁V",
        -8.293195006969592
      ],
      [
        "▁tai,",
        -8.295966521809964
      ],
      [
        "▁žmonės",
        -8.29962263214591
      ],
      [
        "▁ją",
        -8.300862856528171
      ],
      [
        "+",
        -8.304699787637349
      ],
      [
        "1",
        -8.30744750475821
      ],
      [
        "▁tiesiog",
        -8.315432331382036
      ],
      [
        "▁vaikų",
        -8.319183539904481
      ],
      [
        "▁E",
        -8.320861174841742
      ],
      [
        "▁visų",
        -8.32600551441133
      ],
      [
        "▁nepa",
        -8.326292875486574
      ],
      [
        "▁turėtų",
        -8.327457681826676
      ],
      [
        "▁€",
        -8.328790536036081
      ],
      [
        "c",
        -8.329035694809392
      ],
      [
        "\",",
        -8.330916607965598
      ],
      [
        "▁toliau",
        -8.332865130132484
      ],
      [
        "in",
        -8.337866394620807
      ],
      [
        "▁•",
        -8.34402454023388
      ],
      [
        "inio",
        -8.344537839115164
      ],
      [
        "▁kultūros",
        -8.345712215535146
      ],
      [
        "▁Daugiau",
        -8.350207938141295
      ],
      [
        "tą",
        -8.35600007877246
      ],
      [
        "▁visą",
        -8.358529442890513
      ],
      [
        "▁jeigu",
        -8.362587794425362
      ],
      [
        "▁ten",
        -8.365631714653787
      ],
      [
        "▁pats",
        -8.366275766601554
      ],
      [
        "oms",
        -8.372672771299154
      ],
      [
        "▁mums",
        -8.373868130020233
      ],
      [
        "▁Lietuva",
        -8.37685490198648
      ],
      [
        "▁Apie",
        -8.37739250317057
      ],
      [
        "▁tą",
        -8.378506030517313
      ],
      [
        "▁16",
        -8.380734686281377
      ],
      [
        "▁Nuo",
        -8.381371204468147
      ],
      [
        "▁100",
        -8.38264315833773
      ],
      [
        "na",
        -8.386027037882041
      ],
      [
        "▁šių",
        -8.388562704649225
      ],
      [
        "▁gyvenimo",
        -8.390488161088214
      ],
      [
        "▁susi",
        -8.391457193330991
      ],
      [
        "▁oro",
        -8.395879350236576
      ],
      [
        "▁šio",
        -8.39608179096922
      ],
      [
        "osios",
        -8.401840463546625
      ],
      [
        "▁šalies",
        -8.402256869866637
      ],
      [
        "a,",
        -8.407726144918788
      ],
      [
        "▁dalis",
        -8.408392350306091
      ],
      [
        "mą",
        -8.4103251488245
      ],
      [
        "ūs",
        -8.410502232748552
      ],
      [
        "­",
        -8.412263301953118
      ],
      [
        "umo",
        -8.4126135202254
      ],
      [
        "▁vėl",
        -8.414501376672485
      ],
      [
        "ms",
        -8.41552380341967
      ],
      [
        "ja",
        -8.417397329874984
      ],
      [
        "Jeigu",
        -8.420855573142632
      ],
      [
        "ius",
        -8.423494292699239
      ],
      [
        "gi",
        -8.42424832620416
      ],
      [
        "j",
        -8.424477812678477
      ],
      [
        "sta",
        -8.428473455615803
      ],
      [
        "▁šiuo",
        -8.431623850564067
      ],
      [
        "▁informacijos",
        -8.431793233748822
      ],
      [
        "▁ši",
        -8.432603828962655
      ],
      [
        "▁gerai",
        -8.435868936944434
      ],
      [
        "▁14",
        -8.436628880300615
      ],
      [
        "▁apsaugos",
        -8.436657505985902
      ],
      [
        "al",
        -8.437734493749002
      ],
      [
        "▁tada",
        -8.441525444851152
      ],
      [
        "▁13",
        -8.445957203973887
      ],
      [
        "▁lietuvių",
        -8.450030613871025
      ],
      [
        "kurį",
        -8.450126370275786
      ],
      [
        "2",
        -8.45219151986836
      ],
      [
        "▁labiau",
        -8.457265092281226
      ],
      [
        "▁paslaugų",
        -8.46163013139717
      ],
      [
        "▁nieko",
        -8.463830238713157
      ],
      [
        "▁11",
        -8.465730757642657
      ],
      [
        "en",
        -8.466380477125483
      ],
      [
        "▁vandens",
        -8.466617795527334
      ],
      [
        "ne",
        -8.46707128113313
      ],
      [
        "▁vietos",
        -8.467119858725367
      ],
      [
        "▁kuo",
        -8.467713842059428
      ],
      [
        "▁žmogaus",
        -8.468910185466754
      ],
      [
        "▁17",
        -8.469908070765541
      ],
      [
        "▁dienos",
        -8.47125832890408
      ],
      [
        "▁toks",
        -8.476261975808768
      ],
      [
        "▁Kas",
        -8.48072344899276
      ],
      [
        "▁sako",
        -8.483815980654068
      ],
      [
        "▁I",
        -8.485272356820635
      ],
      [
        "▁ES",
        -8.488527507323145
      ],
      [
        "inį",
        -8.489961161057142
      ],
      [
        "nti",
        -8.490420785183817
      ],
      [
        "dami",
        -8.490577524078953
      ],
      [
        "ai.",
        -8.49414730245388
      ],
      [
        "▁veiklos",
        -8.498984487286455
      ],
      [
        "K",
        -8.505456985583685
      ],
      [
        "▁visa",
        -8.510039312086418
      ],
      [
        "no",
        -8.514883698194492
      ],
      [
        "7",
        -8.517848673865684
      ],
      [
        "▁sveikatos",
        -8.51893606022478
      ],
      [
        "ra",
        -8.52033993626231
      ],
      [
        "ntys",
        -8.52040262401445
      ],
      [
        "er",
        -8.526664922519348
      ],
      [
        "▁tokia",
        -8.526770095845505
      ],
      [
        "▁paslaugos",
        -8.527382443358086
      ],
      [
        "damas",
        -8.527965517967788
      ],
      [
        "▁žemės",
        -8.528899422063141
      ],
      [
        "▁2017",
        -8.529416789671506
      ],
      [
        "tik",
        -8.532438253459246
      ],
      [
        "▁dažnai",
        -8.53381825026493
      ],
      [
        "x",
        -8.534457346543492
      ],
      [
        "▁puslapis",
        -8.534669641713519
      ],
      [
        "▁ypač",
        -8.536117885751258
      ],
      [
        "▁Aš",
        -8.537144245857318
      ],
      [
        "▁visada",
        -8.540742208137774
      ],
      [
        "▁Dėl",
        -8.542574372580951
      ],
      [
        "[",
        -8.542728548961252
      ],
      [
        "▁pra",
        -8.543299002581746
      ],
      [
        "▁V.",
        -8.543343418622314
      ],
      [
        "V",
        -8.546461837099972
      ],
      [
        "▁jūs",
        -8.5480004091033
      ],
      [
        "▁būdu",
        -8.548635760817234
      ],
      [
        "▁g",
        -8.55208248962005
      ],
      [
        "▁jiems",
        -8.552379510462067
      ],
      [
        "▁beveik",
        -8.553576285150884
      ],
      [
        "▁Labai",
        -8.55528472212757
      ],
      [
        "▁visas",
        -8.55729037682151
      ],
      [
        "usi",
        -8.56180236466884
      ],
      [
        "ka",
        -8.566918605556122
      ],
      [
        "▁Jūs",
        -8.567757864387163
      ],
      [
        "▁kurio",
        -8.568234955264028
      ],
      [
        "▁verslo",
        -8.56973651898496
      ],
      [
        "ieji",
        -8.570336785580889
      ],
      [
        "▁R",
        -8.570423022628576
      ],
      [
        "▁kiti",
        -8.570454620487768
      ],
      [
        "▁tūkst.",
        -8.57269638747813
      ],
      [
        "inę",
        -8.577052311982456
      ],
      [
        "▁viskas",
        -8.57870053581462
      ],
      [
        "▁atsi",
        -8.579185046993382
      ],
      [
        "▁J.",
        -8.582158578670583
      ],
      [
        "ite",
        -8.58449989834129
      ],
      [
        "_",
        -8.58599255736508
      ],
      [
        "▁F",
        -8.586266772584946
      ],
      [
        "▁duomenų",
        -8.588398094928584
      ],
      [
        "▁negali",
        -8.588627285405172
      ],
      [
        "▁gauti",
        -8.59237775393275
      ],
      [
        "▁cm",
        -8.597314799939145
      ],
      [
        "▁Todėl",
        -8.597532589272145
      ],
      [
        "▁nebuvo",
        -8.598333224066828
      ],
      [
        "▁sistemos",
        -8.598696677635496
      ],
      [
        "a.",
        -8.599062243744886
      ],
      [
        "▁Rusijos",
        -8.599134829318267
      ],
      [
        "▁Jo",
        -8.603305151970876
      ],
      [
        "ėjo",
        -8.604931542333983
      ],
      [
        "imą",
        -8.605502817309839
      ],
      [
        "▁J",
        -8.609181077203797
      ],
      [
        "▁kitą",
        -8.609526916919744
      ],
      [
        "▁kitos",
        -8.610499927069963
      ],
      [
        "▁Seimo",
        -8.610968574097146
      ],
      [
        "▁Klaipėdos",
        -8.613569717754448
      ],
      [
        "▁visiškai",
        -8.614479639893219
      ],
      [
        "on",
        -8.616075255049171
      ],
      [
        "▁25",
        -8.618773938322912
      ],
      [
        "ko",
        -8.619574239596687
      ],
      [
        "▁mažiau",
        -8.619658646336276
      ],
      [
        "▁laikas",
        -8.621505468297798
      ],
      [
        "▁šią",
        -8.625243307014586
      ],
      [
        "▁Jums",
        -8.627540421253784
      ],
      [
        "tekstą",
        -8.62787092429015
      ],
      [
        "▁nori",
        -8.628238839332631
      ],
      [
        "▁Respublikos",
        -8.630082727431791
      ],
      [
        "itin",
        -8.631275513219002
      ],
      [
        "▁vien",
        -8.633552845453455
      ],
      [
        "5",
        -8.63519003310953
      ],
      [
        "avo",
        -8.63569210249215
      ],
      [
        "▁šis",
        -8.635842575686572
      ],
      [
        "▁tapo",
        -8.635843363869345
      ],
      [
        "–",
        -8.636592755719509
      ],
      [
        "▁visai",
        -8.638060786629733
      ],
      [
        "·",
        -8.639943133552595
      ],
      [
        "▁namų",
        -8.640106450884055
      ],
      [
        "▁įmonės",
        -8.640649503272725
      ],
      [
        "▁kuriuos",
        -8.641306632163516
      ],
      [
        "8",
        -8.641509606967265
      ],
      [
        "▁interneto",
        -8.642754950104589
      ],
      [
        "ems",
        -8.644094163937659
      ],
      [
        "▁»",
        -8.649147656652431
      ],
      [
        "tar",
        -8.652103221965902
      ],
      [
        "D",
        -8.654763142194687
      ],
      [
        "▁žmogus",
        -8.655847314211078
      ],
      [
        "ijos",
        -8.656212213918739
      ],
      [
        "iau",
        -8.656346120934701
      ],
      [
        "▁kada",
        -8.656898107046516
      ],
      [
        "▁IT",
        -8.659160687012143
      ],
      [
        "▁Tik",
        -8.661005846715227
      ],
      [
        "▁tad",
        -8.663474021346442
      ],
      [
        "davo",
        -8.664893710963765
      ],
      [
        "mų",
        -8.66585934097091
      ],
      [
        "▁galėtų",
        -8.666102080303624
      ],
      [
        "uoti",
        -8.670756422940489
      ],
      [
        "le",
        -8.672187574824584
      ],
      [
        "▁Šiuo",
        -8.672550965406465
      ],
      [
        "▁tu",
        -8.673329764869944
      ],
      [
        "▁Už",
        -8.676074713261377
      ],
      [
        "▁veikia",
        -8.67967421250431
      ],
      [
        "4",
        -8.681336111073076
      ],
      [
        "an",
        -8.68352596709773
      ],
      [
        "▁vėliau",
        -8.685639620354495
      ],
      [
        "ur",
        -8.687182984933319
      ],
      [
        "▁tokių",
        -8.69259673092535
      ],
      [
        "▁tas",
        -8.693608774181492
      ],
      [
        "▁50",
        -8.694895769591177
      ],
      [
        "men",
        -8.696277026406989
      ],
      [
        "▁de",
        -8.69684375037848
      ],
      [
        "▁laiką",
        -8.701812430972016
      ],
      [
        "redaguoti",
        -8.703189447630804
      ],
      [
        "▁šiandien",
        -8.704166501426865
      ],
      [
        "▁Dar",
        -8.704484895863208
      ],
      [
        "Mūsų",
        -8.711039282231788
      ],
      [
        "▁visuomenės",
        -8.713281156651888
      ],
      [
        "G",
        -8.716749173191392
      ],
      [
        "▁dvi",
        -8.719019246095378
      ],
      [
        "M",
        -8.719756300281567
      ],
      [
        "AS",
        -8.719802481821116
      ],
      [
        "▁2016",
        -8.719871240648914
      ],
      [
        "▁mus",
        -8.72040507874403
      ],
      [
        "u,",
        -8.72136289255809
      ],
      [
        "▁Gal",
        -8.721816793065512
      ],
      [
        "▁atveju",
        -8.721861995183248
      ],
      [
        "f",
        -8.722310756450682
      ],
      [
        "▁kokybės",
        -8.723293664770637
      ],
      [
        "▁kodėl",
        -8.724338626142826
      ],
      [
        "▁R.",
        -8.72434800410872
      ],
      [
        "▁Mes",
        -8.7245538840182
      ],
      [
        "▁darbą",
        -8.724651176506374
      ],
      [
        "▁šalių",
        -8.727954268769048
      ],
      [
        "ina",
        -8.73056196115186
      ],
      [
        "va",
        -8.734569183885204
      ],
      [
        "ju",
        -8.735707852054045
      ],
      [
        "ing",
        -8.737274261399028
      ],
      [
        "e.",
        -8.740672811255273
      ],
      [
        "▁kambarys",
        -8.742080133349276
      ],
      [
        "▁Čia",
        -8.74289513290292
      ],
      [
        "mu",
        -8.746331729431947
      ],
      [
        "▁Mokslas",
        -8.746888996481239
      ],
      [
        "uoju",
        -8.747428506236469
      ],
      [
        "P",
        -8.749622146396277
      ],
      [
        "OS",
        -8.749907580420835
      ],
      [
        "iems",
        -8.75002941852469
      ],
      [
        "▁kalbos",
        -8.750345462485424
      ],
      [
        "im",
        -8.751223696237187
      ],
      [
        "de",
        -8.752669433514832
      ],
      [
        "jų",
        -8.75355800062076
      ],
      [
        "▁naują",
        -8.760835696176589
      ],
      [
        "▁prekės",
        -8.760868449295636
      ],
      [
        "Nors",
        -8.760905560958937
      ],
      [
        "▁24",
        -8.763639374479762
      ],
      [
        "▁bent",
        -8.764783136974277
      ],
      [
        "▁viki",
        -8.767285087030148
      ],
      [
        "kuriame",
        -8.767744315890805
      ],
      [
        "tai",
        -8.768569745180928
      ],
      [
        "\".",
        -8.769173775602967
      ],
      [
        "▁kurioje",
        -8.770018781392675
      ],
      [
        "▁turėjo",
        -8.770253250160518
      ],
      [
        "ū",
        -8.771020740831911
      ],
      [
        "▁sveikata",
        -8.771383059003075
      ],
      [
        "▁mokykla)",
        -8.772172550100237
      ],
      [
        "vo",
        -8.773282510624671
      ],
      [
        "▁svetainėje",
        -8.773579077153066
      ],
      [
        "▁pagrindinė",
        -8.776200810225319
      ],
      [
        "▁viso",
        -8.777790477313253
      ],
      [
        "▁informaciją",
        -8.778648816115766
      ],
      [
        "pa",
        -8.779921119949869
      ],
      [
        "▁19",
        -8.780220485236644
      ],
      [
        "▁el.",
        -8.781114704847646
      ],
      [
        "▁mln.",
        -8.781395502483043
      ],
      [
        "▁Pasak",
        -8.783184512248074
      ],
      [
        "et",
        -8.79107785305352
      ],
      [
        "▁vos",
        -8.794998812759477
      ],
      [
        "▁geriau",
        -8.795039045509618
      ],
      [
        "man",
        -8.79544209359818
      ],
      [
        "▁Nr.",
        -8.796890440357366
      ],
      [
        "▁vaikams",
        -8.79759378993369
      ],
      [
        "▁pro",
        -8.799327414693721
      ],
      [
        "ni",
        -8.801365368832569
      ],
      [
        "▁visiems",
        -8.80167536710427
      ],
      [
        "it",
        -8.802272243096972
      ],
      [
        "▁sau",
        -8.802802557744815
      ],
      [
        "▁vyksta",
        -8.803729041957892
      ],
      [
        "▁amžiaus",
        -8.806143470448692
      ],
      [
        "avimo",
        -8.809179145106569
      ],
      [
        "▁Visi",
        -8.811247981138514
      ],
      [
        "avimas",
        -8.812680870800083
      ],
      [
        "▁maisto",
        -8.813166791392147
      ],
      [
        "▁Jie",
        -8.81345941605483
      ],
      [
        "▁puikiai",
        -8.815200827626857
      ],
      [
        "▁asmens",
        -8.817305593515577
      ],
      [
        "do",
        -8.81870134515153
      ],
      [
        "▁politika",
        -8.819356247140131
      ],
      [
        "▁kitus",
        -8.82024723863656
      ],
      [
        "▁priklauso",
        -8.822983558414737
      ],
      [
        "▁Ji",
        -8.827069334009067
      ],
      [
        "▁mane",
        -8.828283395679989
      ],
      [
        "kai",
        -8.828698998299167
      ],
      [
        "▁redaguoti",
        -8.829872843360082
      ],
      [
        "▁[",
        -8.83202511039331
      ],
      [
        "ime",
        -8.832298772351155
      ],
      [
        "▁21",
        -8.832440276435225
      ],
      [
        "▁—",
        -8.835653113122586
      ],
      [
        "▁ilgis",
        -8.83632597815976
      ],
      [
        "▁visos",
        -8.837522334914832
      ],
      [
        "▁Taigi",
        -8.838527421356098
      ],
      [
        "▁gyventojų",
        -8.838634157884
      ],
      [
        "▁padeda",
        -8.84095984435043
      ],
      [
        "▁Vilniuje",
        -8.841590708246997
      ],
      [
        "▁N",
        -8.842251307700762
      ],
      [
        "▁saugomos",
        -8.842540632259837
      ],
      [
        "ines",
        -8.84357234981143
      ],
      [
        "u.",
        -8.844455470698293
      ],
      [
        "ver",
        -8.845135649816978
      ],
      [
        "▁Vis",
        -8.846804878939743
      ],
      [
        "il",
        -8.848224722030404
      ],
      [
        "▁M.",
        -8.849177741744533
      ],
      [
        "▁rasti",
        -8.8499565054953
      ],
      [
        "▁centras",
        -8.850065034241087
      ],
      [
        "▁22",
        -8.850773165225206
      ],
      [
        "6",
        -8.852287815287077
      ],
      [
        "Ų",
        -8.856252820792202
      ],
      [
        "▁Man",
        -8.856398908691293
      ],
      [
        "▁„S",
        -8.860040084568222
      ],
      [
        "▁Darbo",
        -8.86222718425368
      ],
      [
        "vi",
        -8.863775820483585
      ],
      [
        "▁automobilių",
        -8.8653948987481
      ],
      [
        "▁Lietuvą",
        -8.86546362575191
      ],
      [
        "T",
        -8.866201140857271
      ],
      [
        "▁naudoti",
        -8.867466921051196
      ],
      [
        "▁dirbti",
        -8.867553199204208
      ],
      [
        "▁neturi",
        -8.868272884653292
      ],
      [
        "▁Re",
        -8.868731968502672
      ],
      [
        "kurią",
        -8.870494507941686
      ],
      [
        "ve",
        -8.874236663792836
      ],
      [
        "▁pradėjo",
        -8.876979436460928
      ],
      [
        "0",
        -8.877249266071448
      ],
      [
        "ga",
        -8.878441245653862
      ],
      [
        "šioje",
        -8.880376130172294
      ],
      [
        "▁centro",
        -8.884303938501706
      ],
      [
        "▁užsienio",
        -8.886052897989918
      ],
      [
        "Šis",
        -8.886912882346035
      ],
      [
        "var",
        -8.887875023833976
      ],
      [
        "▁patys",
        -8.88894545467919
      ],
      [
        "L",
        -8.88944267323918
      ],
      [
        "▁Š",
        -8.89033663015676
      ],
      [
        "▁šeimos",
        -8.891576195333187
      ],
      [
        "▁kokia",
        -8.894062932051146
      ],
      [
        "ją",
        -8.894819892406064
      ],
      [
        "ija",
        -8.897495655498947
      ],
      [
        "▁grupės",
        -8.89895107162124
      ],
      [
        "▁nesu",
        -8.899164114539722
      ],
      [
        "umas",
        -8.899960594050256
      ],
      [
        "▁sporto",
        -8.902394955897092
      ],
      [
        "▁ūkio",
        -8.905986966762075
      ],
      [
        "▁40",
        -8.907194691467673
      ],
      [
        "▁atlikti",
        -8.907252811623675
      ],
      [
        "▁mokslo",
        -8.907887845255903
      ],
      [
        "▁*",
        -8.909996938286366
      ],
      [
        "B",
        -8.910651939308053
      ],
      [
        "w",
        -8.913402228748982
      ],
      [
        "▁>",
        -8.914587705978127
      ],
      [
        "▁greitai",
        -8.915844160990133
      ],
      [
        "▁valdymo",
        -8.915992304641973
      ],
      [
        "▁kitas",
        -8.917960358610848
      ],
      [
        "▁išsi",
        -8.91899502453384
      ],
      [
        "nčių",
        -8.919603820175755
      ],
      [
        "uk",
        -8.920579136853743
      ],
      [
        "čių",
        -8.923996586651898
      ],
      [
        "▁vieno",
        -8.928958058867998
      ],
      [
        "▁prekybos",
        -8.929311150856282
      ],
      [
        "at",
        -8.930603518994493
      ],
      [
        "▁nuolat",
        -8.931505273078574
      ],
      [
        "▁Prieš",
        -8.932546743585267
      ],
      [
        "Susiję",
        -8.933641925959629
      ],
      [
        "▁ta",
        -8.933805672648235
      ],
      [
        "uoja",
        -8.934066828624829
      ],
      [
        "▁vaikai",
        -8.934695222737355
      ],
      [
        "▁žaidimas",
        -8.935414122774734
      ],
      [
        "(",
        -8.940086894068456
      ],
      [
        "▁LRT",
        -8.942521082807048
      ],
      [
        "▁būna",
        -8.942560051135729
      ],
      [
        "▁padaryti",
        -8.947021572140521
      ],
      [
        "▁pinigų",
        -8.950327991379636
      ],
      [
        "▁kurias",
        -8.950396484543813
      ],
      [
        "ine",
        -8.950426674089641
      ],
      [
        "ak",
        -8.952085509607304
      ],
      [
        "▁(Lietuvi",
        -8.95250688008721
      ],
      [
        "▁mėn.",
        -8.953739985640603
      ],
      [
        "▁mokyklos",
        -8.954623215762112
      ],
      [
        "▁m",
        -8.954890067543221
      ],
      [
        "▁įvairių",
        -8.95524457499306
      ],
      [
        "ter",
        -8.955887432253817
      ],
      [
        "sime",
        -8.956434976058745
      ],
      [
        "▁leidžia",
        -8.957952664618382
      ],
      [
        "▁galimybę",
        -8.958071119105746
      ],
      [
        "▁paieška",
        -8.958170982513149
      ],
      [
        "▁D.",
        -8.958885518906595
      ],
      [
        "▁pati",
        -8.959727989374471
      ],
      [
        "▁Lietuvai",
        -8.959788087836209
      ],
      [
        "kas",
        -8.960656318546778
      ],
      [
        "▁vietoje",
        -8.960716773654148
      ],
      [
        "dė",
        -8.961471396233334
      ],
      [
        "▁0",
        -8.961519630231557
      ],
      [
        "▁Mano",
        -8.961557572097554
      ],
      [
        "▁jas",
        -8.962780190236046
      ],
      [
        "▁Dabar",
        -8.965539830796649
      ],
      [
        "asis",
        -8.966291458714194
      ],
      [
        "▁atrodo",
        -8.9671166020544
      ],
      [
        "▁dažniausiai",
        -8.968597173429615
      ],
      [
        "▁dėmesį",
        -8.971167194986677
      ],
      [
        "▁save",
        -8.97246106343614
      ],
      [
        "▁meno",
        -8.972910407220077
      ],
      [
        "▁veiklą",
        -8.973050238858857
      ],
      [
        "▁daryti",
        -8.973348789548371
      ],
      [
        "▁kartais",
        -8.973667615206626
      ],
      [
        "▁a.",
        -8.979589218431038
      ],
      [
        "▁svarbu",
        -8.979701585364904
      ],
      [
        "▁sistema",
        -8.980795349238386
      ],
      [
        "▁sunku",
        -8.981120481914342
      ],
      [
        "lė",
        -8.981622185212128
      ],
      [
        "tis",
        -8.981698781353723
      ],
      [
        "▁transporto",
        -8.98551917005543
      ],
      [
        "▁tinka",
        -8.986358859353613
      ],
      [
        "▁2015",
        -8.98677370541619
      ],
      [
        "da",
        -8.987172918177336
      ],
      [
        "▁diena",
        -8.989193062608116
      ],
      [
        "▁reiškia",
        -8.989474154938284
      ],
      [
        "min",
        -8.989819676798813
      ],
      [
        "▁būtina",
        -8.991443426698577
      ],
      [
        "▁H",
        -8.992596393974805
      ],
      [
        "▁Šiandien",
        -8.993610729249246
      ],
      [
        "▁nebe",
        -8.994851794942887
      ],
      [
        "▁Panevėžio",
        -8.995059551044365
      ],
      [
        "▁tie",
        -8.997123841064024
      ],
      [
        "▁23",
        -8.997475774619051
      ],
      [
        "▁km",
        -8.999875315985168
      ],
      [
        "▁kainos",
        -9.0015593029317
      ],
      [
        "▁teigia",
        -9.003116691571147
      ],
      [
        "▁žinios",
        -9.003727030237986
      ],
      [
        "▁niekada",
        -9.004270069753542
      ],
      [
        "▁didelis",
        -9.0052607684355
      ],
      [
        "iškai",
        -9.00608412566735
      ],
      [
        "siu",
        -9.008288005938839
      ],
      [
        "▁kelių",
        -9.008656673815935
      ],
      [
        "▁Jau",
        -9.012300653599166
      ],
      [
        "▁darbų",
        -9.012657451731691
      ],
      [
        "▁2012",
        -9.012804694977419
      ],
      [
        "inius",
        -9.017900675389921
      ],
      [
        "▁prekių",
        -9.01928255644437
      ],
      [
        "▁pasaulyje",
        -9.020036413786704
      ],
      [
        "ino",
        -9.022756096551554
      ],
      [
        "▁2013",
        -9.025052159231528
      ],
      [
        "lo",
        -9.025321657066158
      ],
      [
        "site",
        -9.02832261965747
      ],
      [
        "▁priežiūros",
        -9.028414104392049
      ],
      [
        "mus",
        -9.02883288157923
      ],
      [
        "▁leisti",
        -9.031492502188225
      ],
      [
        "▁nesi",
        -9.031991657080127
      ],
      [
        "el",
        -9.032292708547061
      ],
      [
        "▁27",
        -9.032431964679382
      ],
      [
        "re",
        -9.032651927667251
      ],
      [
        "▁sudaro",
        -9.03842739267515
      ],
      [
        "▁vieta",
        -9.039918402295616
      ],
      [
        "yje",
        -9.040107256425285
      ],
      [
        "▁straipsniai",
        -9.040298594368377
      ],
      [
        "W",
        -9.040619926864682
      ],
      [
        "▁eurų",
        -9.042522594737452
      ],
      [
        "du",
        -9.043268969067803
      ],
      [
        "▁tampa",
        -9.0441477991554
      ],
      [
        "▁kita",
        -9.04455335012885
      ],
      [
        "▁tikslas",
        -9.045920751080496
      ],
      [
        "▁padėti",
        -9.048234020918027
      ],
      [
        "▁skaičius",
        -9.051686454574252
      ],
      [
        "dar",
        -9.05200072729386
      ],
      [
        "▁progimnazija)",
        -9.05294817122346
      ],
      [
        "kart",
        -9.052975784433855
      ],
      [
        "▁lyg",
        -9.053695654309024
      ],
      [
        "▁naujienos",
        -9.055148605322822
      ],
      [
        "▁būtent",
        -9.056002048873228
      ],
      [
        "ty",
        -9.056301801194055
      ],
      [
        "iš",
        -9.056808736817324
      ],
      [
        "▁anksčiau",
        -9.058230279849203
      ],
      [
        "▁dienų",
        -9.060450915783083
      ],
      [
        "▁online",
        -9.063406784294138
      ],
      [
        "ad",
        -9.06394575674789
      ],
      [
        "jau",
        -9.064251301046337
      ],
      [
        "▁rasite",
        -9.064779997027356
      ],
      [
        "▁pašto",
        -9.065969020475293
      ],
      [
        "▁viską",
        -9.066426971924214
      ],
      [
        "▁28",
        -9.068418730037909
      ],
      [
        "▁mokykla",
        -9.069440086421114
      ],
      [
        "nio",
        -9.070273951579235
      ],
      [
        "▁teisę",
        -9.071091088001772
      ],
      [
        "ul",
        -9.071583751492703
      ],
      [
        "▁1.",
        -9.071978895102916
      ],
      [
        "▁IR",
        -9.072858005618855
      ],
      [
        "R",
        -9.074400248900467
      ],
      [
        "▁teigė",
        -9.074779147574286
      ],
      [
        "ku",
        -9.074794683912613
      ],
      [
        "ži",
        -9.075367422491487
      ],
      [
        "▁2014",
        -9.077496375873022
      ],
      [
        "▁Baltijos",
        -9.078884084654819
      ],
      [
        "▁programos",
        -9.080820851923583
      ],
      [
        "'",
        -9.081253574610791
      ],
      [
        "▁Vilnius",
        -9.08207835336281
      ],
      [
        "▁Naujausi",
        -9.083385970919526
      ],
      [
        "▁užtikrinti",
        -9.083845989127656
      ],
      [
        "▁Na",
        -9.084468805179256
      ],
      [
        "▁mieste",
        -9.08465125746756
      ],
      [
        "▁jai",
        -9.085000979880123
      ],
      [
        "tus",
        -9.085486989147283
      ],
      [
        "▁nė",
        -9.085529638508362
      ],
      [
        "▁jokių",
        -9.086377873095131
      ],
      [
        "▁priemonės",
        -9.087561767133938
      ],
      [
        "▁Ką",
        -9.089098478140254
      ],
      [
        "mės",
        -9.089391297709938
      ],
      [
        "▁Kaune",
        -9.089533742969621
      ],
      [
        "▁šiek",
        -9.08983027978578
      ],
      [
        "▁Yra",
        -9.091481176030847
      ],
      [
        "▁Tuo",
        -9.09189074068206
      ],
      [
        "▁:)",
        -9.092582417053757
      ],
      [
        "▁tokio",
        -9.09295874492199
      ],
      [
        "▁kelias",
        -9.092963985301804
      ],
      [
        "▁darbuotojų",
        -9.093620115812996
      ],
      [
        "dama",
        -9.093930159635143
      ],
      [
        "▁savaitę",
        -9.095657483287974
      ],
      [
        "▁x",
        -9.097800904120392
      ],
      [
        "▁Šeima",
        -9.111030558563904
      ],
      [
        "▁pateikti",
        -9.11202462862028
      ],
      [
        "▁turėti",
        -9.11359910195183
      ],
      [
        "▁tokie",
        -9.11392804869077
      ],
      [
        "▁kartus",
        -9.114463369324938
      ],
      [
        "▁mėnesį",
        -9.114739199751476
      ],
      [
        "▁vietą",
        -9.115868693773479
      ],
      [
        "▁koks",
        -9.11655044551469
      ],
      [
        "▁tau",
        -9.11782783139512
      ],
      [
        "▁tuomet",
        -9.12140923849277
      ],
      [
        "▁dviejų",
        -9.122255594841782
      ],
      [
        "▁odos",
        -9.122871073150893
      ],
      [
        "▁šiol",
        -9.123053154377025
      ],
      [
        "▁labiausiai",
        -9.123682634736646
      ],
      [
        "▁įsigyti",
        -9.124127906351646
      ],
      [
        "▁įsi",
        -9.124832572093563
      ],
      [
        "▁naujų",
        -9.126668482305963
      ],
      [
        "▁rodo",
        -9.126758867595072
      ],
      [
        "▁priemonių",
        -9.128302304019611
      ],
      [
        "▁Naujienos",
        -9.12926118318365
      ],
      [
        "▁veikla",
        -9.12940726187397
      ],
      [
        "▁Tad",
        -9.130260784313185
      ],
      [
        "▁tokios",
        -9.132296076769716
      ],
      [
        "li",
        -9.132636641172247
      ],
      [
        "▁karo",
        -9.132685260571048
      ],
      [
        "▁komandos",
        -9.13330402108554
      ],
      [
        "N",
        -9.13425099725647
      ],
      [
        "ios",
        -9.134982467578238
      ],
      [
        "lik",
        -9.13499916697398
      ],
      [
        "▁vadovas",
        -9.136751229339337
      ],
      [
        "▁projekto",
        -9.136990874774476
      ],
      [
        "▁cm.",
        -9.140107808634726
      ],
      [
        "▁pirmą",
        -9.141436146188015
      ],
      [
        "ly",
        -9.141823752048523
      ],
      [
        "▁neiš",
        -9.14344077926192
      ],
      [
        "tė",
        -9.143961566301718
      ],
      [
        "val",
        -9.144550734735327
      ],
      [
        "ki",
        -9.144559559394352
      ],
      [
        "▁kovo",
        -9.145256461203616
      ],
      [
        "literatūra,",
        -9.145871886220581
      ],
      [
        "▁Kur",
        -9.146578992929246
      ],
      [
        "▁nebus",
        -9.147507761418282
      ],
      [
        "▁vyko",
        -9.148386366124642
      ],
      [
        "▁spalvos",
        -9.149929359761327
      ],
      [
        "▁esu",
        -9.15039805655549
      ],
      [
        "▁sukurti",
        -9.150544955329789
      ],
      [
        "▁At",
        -9.151924782296897
      ],
      [
        "▁įrašai",
        -9.152878962343697
      ],
      [
        "ch",
        -9.153681329949405
      ],
      [
        "▁gana",
        -9.154459321401784
      ],
      [
        "▁paslaugas",
        -9.154857308168118
      ],
      [
        "▁skaitykite",
        -9.155190968721172
      ],
      [
        "▁turto",
        -9.156513109594906
      ],
      [
        "s“",
        -9.156853448164409
      ],
      [
        "inti",
        -9.15693674299905
      ],
      [
        "la",
        -9.157547977423526
      ],
      [
        "▁(1)",
        -9.1577612837094
      ],
      [
        "▁dirba",
        -9.15802982974403
      ],
      [
        "▁reikėtų",
        -9.159550523367152
      ],
      [
        "▁pakeisti",
        -9.159696062357458
      ],
      [
        "▁irgi",
        -9.162163725869474
      ],
      [
        "▁muzikos",
        -9.163739313297567
      ],
      [
        "▁skirta",
        -9.164421837875153
      ],
      [
        "▁vaiko",
        -9.164853409188549
      ],
      [
        "▁darbas",
        -9.165267465357507
      ],
      [
        "00",
        -9.165415167186957
      ],
      [
        "ci",
        -9.165772723473623
      ],
      [
        "▁naujas",
        -9.166740829553113
      ],
      [
        "čiau",
        -9.167871638913464
      ],
      [
        "▁klasės",
        -9.168351714843183
      ],
      [
        "▁S.",
        -9.169003044176215
      ],
      [
        "▁re",
        -9.169110662225638
      ],
      [
        "▁niekas",
        -9.16938668374442
      ],
      [
        "I",
        -9.169418694516455
      ],
      [
        "▁kūno",
        -9.16987460479231
      ],
      [
        "C",
        -9.170476344282287
      ],
      [
        "▁karto",
        -9.1712644033484
      ],
      [
        "▁sausio",
        -9.172322825731628
      ],
      [
        "▁rugsėjo",
        -9.173807957989395
      ],
      [
        "om",
        -9.176156671664463
      ],
      [
        "tės",
        -9.176445634471774
      ],
      [
        "sto",
        -9.1777347742314
      ],
      [
        "ut",
        -9.17794406920855
      ],
      [
        "nčios",
        -9.180116034767202
      ],
      [
        "▁tarybos",
        -9.180593603998961
      ],
      [
        "▁rinkimų",
        -9.181189650092831
      ],
      [
        "lio",
        -9.182676786970692
      ],
      [
        "▁(angl.",
        -9.18294975578843
      ],
      [
        "▁asmenų",
        -9.18544745069974
      ],
      [
        "▁sav.",
        -9.186443761139202
      ],
      [
        "▁skyriaus",
        -9.186554523362293
      ],
      [
        "▁Šio",
        -9.190437525362718
      ],
      [
        "ti,",
        -9.190924024699523
      ],
      [
        "▁kino",
        -9.191138217958626
      ],
      [
        "▁dalyvauti",
        -9.191370850480828
      ],
      [
        "▁Ap",
        -9.192410460059175
      ],
      [
        "▁Įmonės",
        -9.192966924201663
      ],
      [
        "▁Šiaulių",
        -9.192979928830933
      ],
      [
        "▁Kad",
        -9.194458410384312
      ],
      [
        "go",
        -9.194514055896237
      ],
      [
        "▁turime",
        -9.19457972932065
      ],
      [
        "▁vyks",
        -9.195889770790572
      ],
      [
        "▁kam",
        -9.19598537234433
      ],
      [
        "▁gegužės",
        -9.197160871748682
      ],
      [
        "▁nariai",
        -9.1981560957913
      ],
      [
        "▁min.",
        -9.198405690803579
      ],
      [
        "▁narių",
        -9.200043013320096
      ],
      [
        "▁universiteto",
        -9.20023197291798
      ],
      [
        "▁skirti",
        -9.203648096041746
      ],
      [
        "▁galėsite",
        -9.203673103405551
      ],
      [
        ");",
        -9.203786783827319
      ],
      [
        "imu",
        -9.204121306955173
      ],
      [
        "nis",
        -9.204706010278091
      ],
      [
        "▁kiekvienas",
        -9.206194729800368
      ],
      [
        "šiame",
        -9.206895170460719
      ],
      [
        "iz",
        -9.208515248530833
      ],
      [
        "▁nusi",
        -9.208678407014308
      ],
      [
        "▁vieš",
        -9.209073269364174
      ],
      [
        "▁teisių",
        -9.209431621824141
      ],
      [
        "▁tris",
        -9.210907848096387
      ],
      [
        "▁mat",
        -9.211674870692882
      ],
      [
        "▁policijos",
        -9.212138336898498
      ],
      [
        "▁26",
        -9.212908674753212
      ],
      [
        "▁grupė",
        -9.215089850725107
      ],
      [
        "▁lapkričio",
        -9.215202176715096
      ],
      [
        "umą",
        -9.216244854463325
      ],
      [
        "▁šie",
        -9.218300277431116
      ],
      [
        "▁įranga",
        -9.220068685801973
      ],
      [
        "▁kiekvieną",
        -9.220172221043732
      ],
      [
        "imui",
        -9.22077033226968
      ],
      [
        "yti",
        -9.221426881787568
      ],
      [
        "▁Juk",
        -9.222149097420798
      ],
      [
        "▁programa",
        -9.224711228870397
      ],
      [
        "▁www.",
        -9.228000190668208
      ],
      [
        "um",
        -9.23013966443375
      ],
      [
        "▁gyvenimą",
        -9.231906546121106
      ],
      [
        "kel",
        -9.232611333137982
      ],
      [
        "AI",
        -9.23456446001472
      ],
      [
        "▁produktų",
        -9.234631483502215
      ],
      [
        "m.",
        -9.235231660233051
      ],
      [
        "▁suteikia",
        -9.235323941950128
      ],
      [
        "▁of",
        -9.23537545321468
      ],
      [
        "▁Sąjungos",
        -9.235836337711273
      ],
      [
        "▁nauja",
        -9.23601407764485
      ],
      [
        "▁įstatymo",
        -9.23622759625838
      ],
      [
        "▁gruodžio",
        -9.236583007464125
      ],
      [
        "šk",
        -9.237141490883435
      ],
      [
        "aug",
        -9.237501168904858
      ],
      [
        "▁kasdien",
        -9.239052336133113
      ],
      [
        "lių",
        -9.240795556084542
      ],
      [
        "▁žmonėms",
        -9.24141498331377
      ],
      [
        "J",
        -9.242557036030917
      ],
      [
        "▁komanda",
        -9.242579162764756
      ],
      [
        "\"Lietuvos",
        -9.243410724039581
      ],
      [
        "▁užsi",
        -9.244893590833106
      ],
      [
        "▁gyvena",
        -9.245031416263384
      ],
      [
        "▁didelė",
        -9.245243007384026
      ],
      [
        "▁gyventi",
        -9.246518322554795
      ],
      [
        "▁dydžio",
        -9.246634884295636
      ],
      [
        "▁paštu",
        -9.246721231414451
      ],
      [
        "▁laukia",
        -9.247043895336223
      ],
      [
        "▁valdžios",
        -9.247908458572699
      ],
      [
        "Norėdami",
        -9.24793707621322
      ],
      [
        "▁siūlo",
        -9.248093240482198
      ],
      [
        "▁istorijos",
        -9.252393789583483
      ],
      [
        "▁tvarka",
        -9.254767463997092
      ],
      [
        "E",
        -9.255232788573371
      ],
      [
        "20",
        -9.256286814700571
      ],
      [
        "▁gimnazija)",
        -9.257293552008488
      ],
      [
        "▁kitaip",
        -9.258133726021038
      ],
      [
        "▁kelio",
        -9.25875180739122
      ],
      [
        "▁slapukus",
        -9.259209375265211
      ],
      [
        "50",
        -9.259431614835803
      ],
      [
        "▁kitais",
        -9.259480135373718
      ],
      [
        "▁dalį",
        -9.259502721455704
      ],
      [
        "▁„K",
        -9.260160401204647
      ],
      [
        "▁galime",
        -9.260737361446441
      ],
      [
        "▁tokį",
        -9.260781797577858
      ],
      [
        "▁Pagrindinis",
        -9.260820438530029
      ],
      [
        "▁Ko",
        -9.2611989947786
      ],
      [
        "nes",
        -9.261326736549506
      ],
      [
        "per",
        -9.262614229079688
      ],
      [
        "9",
        -9.264255786561701
      ],
      [
        "ėje",
        -9.266492129102897
      ],
      [
        "▁Vieš",
        -9.266953905324911
      ],
      [
        "nos",
        -9.272000720739058
      ],
      [
        "ams,",
        -9.273368591497213
      ],
      [
        "▁spalio",
        -9.273788762570014
      ],
      [
        "ais.",
        -9.274430866429423
      ],
      [
        "▁60",
        -9.274829352381259
      ],
      [
        "▁įmonių",
        -9.275258858745563
      ],
      [
        "ke",
        -9.275806717815819
      ],
      [
        "trauk",
        -9.277392781955065
      ],
      [
        "▁Or",
        -9.277647109563983
      ],
      [
        "▁pradėti",
        -9.278516316698731
      ],
      [
        "▁dienomis",
        -9.281428012652281
      ],
      [
        "kal",
        -9.282893604951493
      ],
      [
        "iais",
        -9.283018984972568
      ],
      [
        "▁knygą",
        -9.285289103144914
      ],
      [
        "čiu",
        -9.285913922614942
      ],
      [
        "▁žinoma",
        -9.28728579880109
      ],
      [
        "mok",
        -9.287377608305848
      ],
      [
        "či",
        -9.287491769496434
      ],
      [
        "▁tavo",
        -9.288916174226049
      ],
      [
        "▁kelis",
        -9.290595174227288
      ],
      [
        "▁partijos",
        -9.291680079438827
      ],
      [
        "▁kuriuo",
        -9.292270915455589
      ],
      [
        "nių",
        -9.293662272670488
      ],
      [
        "▁pagalbos",
        -9.293715382471545
      ],
      [
        "▁31",
        -9.293896255797272
      ],
      [
        "▁29",
        -9.29417260140318
      ],
      [
        "▁pirma",
        -9.294387119057326
      ],
      [
        "as:",
        -9.295520263721553
      ],
      [
        "vir",
        -9.295750101747778
      ],
      [
        "▁kito",
        -9.296105741615177
      ],
      [
        "tin",
        -9.297228532014783
      ],
      [
        "mat",
        -9.298024663515378
      ],
      [
        "č",
        -9.298646370640522
      ],
      [
        "▁istorija",
        -9.29947616898071
      ],
      [
        "▁2011",
        -9.30066889050852
      ],
      [
        "▁elektros",
        -9.30069381204936
      ],
      [
        "uosius",
        -9.301304630331458
      ],
      [
        "▁švent",
        -9.303971028616091
      ],
      [
        "▁priimti",
        -9.304014668443148
      ],
      [
        "▁vienu",
        -9.304722997752613
      ],
      [
        "▁pavyzdžiui,",
        -9.30574341275939
      ],
      [
        "▁juk",
        -9.306316216854386
      ],
      [
        "▁šalia",
        -9.30666318499441
      ],
      [
        "▁privalo",
        -9.308264435012743
      ],
      [
        "ge",
        -9.308447867789473
      ],
      [
        "▁norite",
        -9.308536812177937
      ],
      [
        "▁Nu",
        -9.309015649848437
      ],
      [
        "lis",
        -9.309049000226432
      ],
      [
        "▁La",
        -9.311851800230638
      ],
      [
        "▁mažai",
        -9.312844087603606
      ],
      [
        "▁rinkos",
        -9.313669495887142
      ],
      [
        "▁internetu",
        -9.31476377370744
      ],
      [
        "▁tapti",
        -9.31512192043829
      ],
      [
        "▁keitimai",
        -9.315328055020872
      ],
      [
        "▁Ž",
        -9.315478314511507
      ],
      [
        "▁2.",
        -9.315636437680585
      ],
      [
        "▁Kodėl",
        -9.315811520164283
      ],
      [
        "▁dalyvavo",
        -9.316695098122516
      ],
      [
        "▁balandžio",
        -9.317369764752415
      ],
      [
        "ntį",
        -9.318646714345542
      ],
      [
        "▁(Angl",
        -9.31872959305588
      ],
      [
        "▁mygtuką",
        -9.320124433918414
      ],
      [
        "▁medžiagų",
        -9.320156534788481
      ],
      [
        "▁galėjo",
        -9.320921457757958
      ],
      [
        "ed",
        -9.320996768876814
      ],
      [
        "▁birželio",
        -9.321140193992075
      ],
      [
        "gy",
        -9.32147929238312
      ],
      [
        "ąją",
        -9.321615959936324
      ],
      [
        "▁skirtas",
        -9.32279010691201
      ],
      [
        "▁virš",
        -9.322995126328294
      ],
      [
        "▁vidaus",
        -9.324955940115306
      ],
      [
        "▁duomenis",
        -9.32527678227296
      ],
      [
        "▁Dievo",
        -9.325517150405622
      ],
      [
        "nas",
        -9.326718278946672
      ],
      [
        "▁Mat",
        -9.328302876619235
      ],
      [
        "▁saugumo",
        -9.329822529282009
      ],
      [
        "▁negu",
        -9.330493845772818
      ],
      [
        "▁juo",
        -9.330581465786294
      ],
      [
        "▁aplinkos",
        -9.332419682206428
      ],
      [
        "▁pasiekti",
        -9.333205162832513
      ],
      [
        "▁t.",
        -9.33362972831434
      ],
      [
        "rė",
        -9.334112579411425
      ],
      [
        "▁lengvai",
        -9.334527219332411
      ],
      [
        "ry",
        -9.33561829303008
      ],
      [
        "▁teismo",
        -9.335948900487178
      ],
      [
        "▁Pagal",
        -9.335972340258
      ],
      [
        "jus",
        -9.336314194716188
      ],
      [
        "▁straipsnis",
        -9.336711651994705
      ],
      [
        "▁tarnybos",
        -9.336755747977387
      ],
      [
        "▁centre",
        -9.338243487656296
      ],
      [
        "▁naujo",
        -9.339692558174168
      ],
      [
        "▁knyga",
        -9.339824675964344
      ],
      [
        "čiai",
        -9.340225096184241
      ],
      [
        "▁energijos",
        -9.340258670717326
      ],
      [
        "gal",
        -9.340623524620424
      ],
      [
        "▁namuose",
        -9.341483632663529
      ],
      [
        "ti.",
        -9.34296201489764
      ],
      [
        "▁Kaunas",
        -9.343137973733956
      ],
      [
        "kur",
        -9.343153637696808
      ],
      [
        "▁kuria",
        -9.34322090802338
      ],
      [
        "▁ministerijos",
        -9.343761268550644
      ],
      [
        "▁kalbėjo",
        -9.344563715366721
      ],
      [
        "iniu",
        -9.344619468999326
      ],
      [
        "▁duomenys",
        -9.344718140039458
      ],
      [
        "▁keletą",
        -9.345171165293795
      ],
      [
        "▁G.",
        -9.34614421682744
      ],
      [
        "▁kar",
        -9.347592187658968
      ],
      [
        "Š",
        -9.351112794603882
      ],
      [
        "ik",
        -9.352071047321832
      ],
      [
        "▁„T",
        -9.352295820758167
      ],
      [
        "▁namo",
        -9.352886992719919
      ],
      [
        "▁Net",
        -9.35396671550997
      ],
      [
        "▁forma",
        -9.353978226040738
      ],
      [
        "▁p",
        -9.354047313155148
      ],
      [
        "ėti",
        -9.355372100611046
      ],
      [
        "▁Jos",
        -9.356556041938713
      ],
      [
        "ba",
        -9.357189366367173
      ],
      [
        "nė",
        -9.357356455527125
      ],
      [
        "▁vienos",
        -9.358364857088738
      ],
      [
        "▁tyrimų",
        -9.359382411342306
      ],
      [
        "▁pažinimas",
        -9.360221423158631
      ],
      [
        "▁pagalba",
        -9.361010040848132
      ],
      [
        "▁litų",
        -9.361357335891263
      ],
      [
        "F",
        -9.361923365419592
      ],
      [
        "▁paprastai",
        -9.362348169334634
      ],
      [
        "▁apsi",
        -9.363340834546825
      ],
      [
        "ref",
        -9.36403158779314
      ],
      [
        "▁švietimo",
        -9.365810522767253
      ],
      [
        "Skaityti",
        -9.366006737737548
      ],
      [
        "▁siekia",
        -9.366399225827656
      ],
      [
        "10",
        -9.366627983730922
      ],
      [
        "▁ml",
        -9.366789114242213
      ],
      [
        "▁atstovai",
        -9.368171962726501
      ],
      [
        "čio",
        -9.368738124163375
      ],
      [
        "▁kelia",
        -9.370699766185993
      ],
      [
        "ąjį",
        -9.371516453035799
      ],
      [
        "▁„Lietuvos",
        -9.371694653406397
      ],
      [
        "elių",
        -9.373061196752158
      ],
      [
        "▁ligos",
        -9.373149580749454
      ],
      [
        "▁slapukai",
        -9.373323901132494
      ],
      [
        "▁sen",
        -9.375557363603429
      ],
      [
        "▁kelionės",
        -9.375622217231793
      ],
      [
        "oja",
        -9.37847998457351
      ],
      [
        "▁siekiant",
        -9.378910155883087
      ],
      [
        "▁tos",
        -9.379303183846552
      ],
      [
        "▁Šv.",
        -9.380245131956068
      ],
      [
        "▁šalyje",
        -9.382390367622916
      ],
      [
        "ėja",
        -9.382513924795843
      ],
      [
        "▁laiku",
        -9.38443542657716
      ],
      [
        "▁Visa",
        -9.385381988154982
      ],
      [
        "▁(19",
        -9.385392129542119
      ],
      [
        "▁žinios\"",
        -9.386677275250024
      ],
      [
        "tro",
        -9.386773543307857
      ],
      [
        "▁l",
        -9.387209886865573
      ],
      [
        "tra",
        -9.387421684241334
      ],
      [
        "▁mokesčių",
        -9.38762164375213
      ],
      [
        "▁Pavyzdžiui",
        -9.389092801902947
      ],
      [
        "▁K.",
        -9.38953701290902
      ],
      [
        "▁vasario",
        -9.390983688905179
      ],
      [
        "▁ilgai",
        -9.392085464920969
      ],
      [
        "▁II",
        -9.392085647041053
      ],
      [
        "▁seksas",
        -9.392172946073703
      ],
      [
        "▁liepos",
        -9.393973904291405
      ],
      [
        "▁L.",
        -9.394795145115237
      ],
      [
        "▁esame",
        -9.395984574052907
      ],
      [
        "▁dalies",
        -9.396588349574252
      ],
      [
        "▁Al",
        -9.396720806089899
      ],
      [
        "nai",
        -9.397099229732405
      ],
      [
        "teko",
        -9.397485652001588
      ],
      [
        "aitė",
        -9.398113185996477
      ],
      [
        "▁Pri",
        -9.398270078467974
      ],
      [
        "▁tiesų",
        -9.400264083429395
      ],
      [
        "▁turite",
        -9.400462392260813
      ],
      [
        "▁#",
        -9.400954110285014
      ],
      [
        "▁skyrius",
        -9.401006081829163
      ],
      [
        "▁medžiagos",
        -9.401147774645048
      ],
      [
        "▁technologijos",
        -9.401546652135604
      ],
      [
        "▁dėlto",
        -9.401741919927048
      ],
      [
        "vil",
        -9.404314844554886
      ],
      [
        "▁200",
        -9.404921981361417
      ],
      [
        "▁gi",
        -9.405100475820275
      ],
      [
        "”,",
        -9.406080990930926
      ],
      [
        "▁Kol",
        -9.407430306217426
      ],
      [
        "U",
        -9.409504823416915
      ],
      [
        "▁knygos",
        -9.409611375933027
      ],
      [
        "▁dėmesio",
        -9.410883825594897
      ],
      [
        "▁darbai",
        -9.411242863003302
      ],
      [
        "▁vardas",
        -9.412431829749753
      ],
      [
        "▁straipsnį",
        -9.41372070031742
      ],
      [
        "▁šventės",
        -9.414010315870902
      ],
      [
        "▁ieško",
        -9.414363661509668
      ],
      [
        "ome",
        -9.416195965835692
      ],
      [
        "40",
        -9.41624802290407
      ],
      [
        "H",
        -9.416608255148402
      ],
      [
        "gu",
        -9.416819048100448
      ],
      [
        "▁kitiems",
        -9.417145513448443
      ],
      [
        "▁Kar",
        -9.41769194462457
      ],
      [
        "▁įrankiai",
        -9.418981630559145
      ],
      [
        "▁vietų",
        -9.41901533997157
      ],
      [
        "▁galbūt",
        -9.41904486745247
      ],
      [
        "▁(0)",
        -9.419299052228233
      ],
      [
        "▁esate",
        -9.419774551260135
      ],
      [
        "▁tarsi",
        -9.419947980627967
      ],
      [
        "▁paramos",
        -9.422187951716847
      ],
      [
        "▁+",
        -9.422569007838499
      ],
      [
        "Biologija",
        -9.422814526962403
      ],
      [
        "ais,",
        -9.42378059330919
      ],
      [
        "▁statybos",
        -9.424317514873685
      ],
      [
        "▁nustatyti",
        -9.424384214635428
      ],
      [
        "▁dydis",
        -9.425345082779986
      ],
      [
        "▁gyvenimas",
        -9.426019810233138
      ],
      [
        "▁vaizdo",
        -9.427161517901894
      ],
      [
        "▁ties",
        -9.427414529755264
      ],
      [
        "▁„A",
        -9.428040728009275
      ],
      [
        "▁jaunimo",
        -9.428557428324844
      ],
      [
        "▁vaikas",
        -9.429000032324211
      ],
      [
        "▁cm,",
        -9.429519971738928
      ],
      [
        "▁reikalų",
        -9.431456633242453
      ],
      [
        "▁gyventojai",
        -9.432646041194111
      ],
      [
        "ol",
        -9.43378829111196
      ],
      [
        "ui,",
        -9.437896499313855
      ],
      [
        "▁bendrovė",
        -9.439248512642646
      ],
      [
        "▁ligų",
        -9.44070141773956
      ],
      [
        "▁Pasi",
        -9.440866921506746
      ],
      [
        "▁El.",
        -9.441827929254185
      ],
      [
        "▁galimybė",
        -9.444280912180592
      ],
      [
        "▁maždaug",
        -9.444363627328562
      ],
      [
        "▁Iki",
        -9.445024754321729
      ],
      [
        "▁tokiu",
        -9.44529992272011
      ],
      [
        "ntiems",
        -9.44681642837583
      ],
      [
        "▁žino",
        -9.447389897498148
      ],
      [
        "▁nenu",
        -9.447697744615166
      ],
      [
        "šal",
        -9.448180335650953
      ],
      [
        "▁prisi",
        -9.448656957149668
      ],
      [
        "▁nustatyta",
        -9.44932909736439
      ],
      [
        "ras",
        -9.450345122970182
      ],
      [
        "▁naujos",
        -9.450890448096619
      ],
      [
        "▁W",
        -9.45121694265917
      ],
      [
        "ama",
        -9.452136469393892
      ],
      [
        "▁technologijų",
        -9.452162958224891
      ],
      [
        "un",
        -9.452257779090237
      ],
      [
        "▁link",
        -9.452447654543594
      ],
      [
        "▁savivaldybė",
        -9.452879281010883
      ],
      [
        "elio",
        -9.452928157041853
      ],
      [
        "ties",
        -9.453167168873563
      ],
      [
        "▁pakankamai",
        -9.45373148008582
      ],
      [
        "▁geras",
        -9.454129678497305
      ],
      [
        "liu",
        -9.45517665699829
      ],
      [
        "das",
        -9.455678192328191
      ],
      [
        "▁Lenkijos",
        -9.455976702277594
      ],
      [
        "▁sutikimą",
        -9.456076019565574
      ],
      [
        "▁krepšinio",
        -9.456850794093416
      ],
      [
        "▁padės",
        -9.458238867064631
      ],
      [
        "▁trys",
        -9.459234024551957
      ],
      [
        "▁bendruomenės",
        -9.459923540893541
      ],
      [
        "ek",
        -9.461235446298794
      ],
      [
        "▁keli",
        -9.461459100903168
      ],
      [
        "▁tuos",
        -9.462611434995829
      ],
      [
        "▁dokumentų",
        -9.462802922309608
      ],
      [
        "▁rezultatai",
        -9.463252605885998
      ],
      [
        "▁netgi",
        -9.463427720238123
      ],
      [
        "▁kurti",
        -9.46360330925165
      ],
      [
        "▁80",
        -9.4636925431011
      ],
      [
        "▁būdas",
        -9.464875530703885
      ],
      [
        "▁formos",
        -9.465263603752671
      ],
      [
        "▁puiki",
        -9.466488646028381
      ],
      [
        "▁par",
        -9.466528517969483
      ],
      [
        "Svečių",
        -9.466656418343884
      ],
      [
        "▁Vokietijos",
        -9.466689649774821
      ],
      [
        "▁pradeda",
        -9.466718078855354
      ],
      [
        "▁2010",
        -9.46818123529959
      ],
      [
        "mai",
        -9.468502764408171
      ],
      [
        "iams",
        -9.470046573901765
      ],
      [
        "▁ugdymo",
        -9.472730952955121
      ],
      [
        "kė",
        -9.473032811403392
      ],
      [
        "▁pasirinkti",
        -9.473250193219215
      ],
      [
        "▁turės",
        -9.474102131563752
      ],
      [
        "raš",
        -9.474801855473345
      ],
      [
        "▁Tel.",
        -9.474888441900037
      ],
      [
        "▁šiemet",
        -9.475347000102554
      ],
      [
        "▁darbus",
        -9.47579135950501
      ],
      [
        "jos",
        -9.47713413447411
      ],
      [
        "▁maž",
        -9.477828984627056
      ],
      [
        "dr",
        -9.478615295560886
      ],
      [
        "inimo",
        -9.479199366559408
      ],
      [
        "▁Įmon",
        -9.480894853147646
      ],
      [
        "▁kt.",
        -9.481348804502993
      ],
      [
        "▁Tam",
        -9.481673396202883
      ],
      [
        "vai",
        -9.4823026364203
      ],
      [
        "▁Pra",
        -9.482561607228305
      ],
      [
        "▁daro",
        -9.48270247516751
      ],
      [
        "▁namai",
        -9.483179036148531
      ],
      [
        "▁galės",
        -9.484740943428395
      ],
      [
        "document",
        -9.484807883213747
      ],
      [
        "▁projektų",
        -9.484932828390608
      ],
      [
        "ink",
        -9.485550835751638
      ],
      [
        "▁šilumos",
        -9.485673935301524
      ],
      [
        "▁gera",
        -9.485780470546802
      ],
      [
        "▁pradžioje",
        -9.486132125466384
      ],
      [
        "vy",
        -9.48641051281934
      ],
      [
        "▁35",
        -9.487130539034766
      ],
      [
        "▁šiuos",
        -9.4877245653154
      ],
      [
        "gerokai",
        -9.488424941961856
      ],
      [
        "acija",
        -9.488667578241731
      ],
      [
        "der",
        -9.488988254300743
      ],
      [
        "▁šia",
        -9.489392573635453
      ],
      [
        "▁E.",
        -9.489680965984622
      ],
      [
        "▁gamybos",
        -9.489790001417521
      ],
      [
        "cation.",
        -9.490495682444323
      ],
      [
        "kadangi",
        -9.49088701006314
      ],
      [
        "ven",
        -9.490963619062924
      ],
      [
        "▁atitinka",
        -9.492573334368847
      ],
      [
        "▁žinių",
        -9.493206817671933
      ],
      [
        "▁Amerikos",
        -9.493758327009775
      ],
      [
        "▁manau",
        -9.495443939031606
      ],
      [
        "▁k.",
        -9.49647673450822
      ],
      [
        "▁Kelionės",
        -9.497204959923755
      ],
      [
        "▁tipo",
        -9.497526423479112
      ],
      [
        "nės",
        -9.49791296130986
      ],
      [
        "up",
        -9.49828009555996
      ],
      [
        "tais",
        -9.498350010899294
      ],
      [
        "kuriems",
        -9.4985127510664
      ],
      [
        "▁euro",
        -9.499076352940548
      ],
      [
        "▁in",
        -9.500970641424637
      ],
      [
        "▁3.",
        -9.5020681265499
      ],
      [
        "▁sutarties",
        -9.50363862859826
      ],
      [
        "ger",
        -9.503668481121759
      ],
      [
        "ber",
        -9.503733055875372
      ],
      [
        "ha",
        -9.504121911019343
      ],
      [
        "vė",
        -9.504162348757376
      ],
      [
        "▁vyras",
        -9.504375305698346
      ],
      [
        "ėjimas",
        -9.506065314258235
      ],
      [
        "▁patirtį",
        -9.506368793603894
      ],
      [
        "▁metai",
        -9.506743376119022
      ],
      [
        "▁%",
        -9.507839241266652
      ],
      [
        "▁geros",
        -9.508107199826586
      ],
      [
        "ika",
        -9.51123820652738
      ],
      [
        "▁direktorius",
        -9.511903227609988
      ],
      [
        "▁Nor",
        -9.514643079373514
      ],
      [
        "rink",
        -9.514919352180797
      ],
      [
        "▁Vienas",
        -9.514948868177495
      ],
      [
        "▁krašto",
        -9.515327637179272
      ],
      [
        "▁neat",
        -9.515574570880656
      ],
      [
        "▁tenka",
        -9.516654910928207
      ],
      [
        "▁įstaigos",
        -9.516974351970244
      ],
      [
        "▁Lietuvių",
        -9.517643506801953
      ],
      [
        "acijos",
        -9.520258564376931
      ],
      [
        "▁De",
        -9.520877261348907
      ],
      [
        "ap",
        -9.521454751206921
      ],
      [
        "bo",
        -9.521517188333952
      ],
      [
        "▁medžiaga",
        -9.521758093408973
      ],
      [
        "▁kyla",
        -9.52182820265717
      ],
      [
        "▁taisyklės",
        -9.522309903522423
      ],
      [
        "imų",
        -9.522969016233404
      ],
      [
        "▁duomenimis",
        -9.525309281458028
      ],
      [
        "▁jus",
        -9.525423694578024
      ],
      [
        "▁Prie",
        -9.525932982846182
      ],
      [
        "▁pavadinimas",
        -9.527080329512568
      ],
      [
        "▁žinoti",
        -9.527260881395204
      ],
      [
        "▁p.",
        -9.527357280843395
      ],
      [
        "▁pačiu",
        -9.528053759686674
      ],
      [
        "nčius",
        -9.528186375142951
      ],
      [
        "▁nereikia",
        -9.528890073176127
      ],
      [
        "▁greičiau",
        -9.529118027919665
      ],
      [
        "▁širdies",
        -9.52954725099786
      ],
      [
        "▁kaimo",
        -9.530307438225998
      ],
      [
        "▁lėšų",
        -9.53038362960636
      ],
      [
        "▁Anot",
        -9.531252671166452
      ],
      [
        "▁di",
        -9.532476431584724
      ],
      [
        "▁vakar",
        -9.533212681270577
      ],
      [
        "▁m.)",
        -9.533791624959864
      ],
      [
        "tas,",
        -9.533855042989952
      ],
      [
        "▁tiesiogiai",
        -9.534400267011492
      ],
      [
        "▁nemažai",
        -9.534601374021218
      ],
      [
        "▁gero",
        -9.535150296547316
      ],
      [
        "ėjimo",
        -9.535295912579617
      ],
      [
        "▁technika",
        -9.53536585642739
      ],
      [
        "▁verta",
        -9.535749174817692
      ],
      [
        "imai",
        -9.536129131280362
      ],
      [
        "▁pak",
        -9.536294402213045
      ],
      [
        "kšt",
        -9.537284302540668
      ],
      [
        ".lo",
        -9.53728482507249
      ],
      [
        "▁žaidimai",
        -9.539382776134591
      ],
      [
        "▁veido",
        -9.539876468671334
      ],
      [
        "▁rašo",
        -9.541091852924133
      ],
      [
        "▁gydymo",
        -9.541561135629617
      ],
      [
        "▁mokymo",
        -9.543126246886384
      ],
      [
        "▁tyrimo",
        -9.543310464229322
      ],
      [
        "zi",
        -9.544166435265893
      ],
      [
        "▁Z",
        -9.544213083039192
      ],
      [
        "▁Li",
        -9.545362953809338
      ],
      [
        "▁lengva",
        -9.546068310262331
      ],
      [
        "bi",
        -9.546637265619433
      ],
      [
        "▁galimybės",
        -9.547468656952638
      ],
      [
        "kri",
        -9.547762998881048
      ],
      [
        "▁naudojami",
        -9.550141330794485
      ],
      [
        "US",
        -9.550458812517178
      ],
      [
        "▁politikos",
        -9.55100186043276
      ],
      [
        "▁atlieka",
        -9.551297981334546
      ],
      [
        "▁atvejais",
        -9.55210694994038
      ],
      [
        "▁bendrovės",
        -9.554217194075228
      ],
      [
        "▁Alytaus",
        -9.554288918226796
      ],
      [
        "▁kviečia",
        -9.554585174321323
      ],
      [
        "▁Kita",
        -9.554831835207988
      ],
      [
        "▁Ra",
        -9.555249579873728
      ],
      [
        "▁problemų",
        -9.555501758008617
      ],
      [
        "gin",
        -9.556992687325451
      ],
      [
        "ui.",
        -9.558593862722404
      ],
      [
        "eliai",
        -9.56014308353727
      ],
      [
        "ck",
        -9.56041669843912
      ],
      [
        "▁Tu",
        -9.561209704818495
      ],
      [
        "25",
        -9.562300259650815
      ],
      [
        "▁Sportas",
        -9.563877501687259
      ],
      [
        "▁rugpjūčio",
        -9.564274951276461
      ],
      [
        "▁įmanoma",
        -9.567292948392096
      ],
      [
        "ion",
        -9.567846066199543
      ],
      [
        "▁kreiptis",
        -9.568458001152637
      ],
      [
        "▁U",
        -9.5687513191887
      ],
      [
        "▁ka",
        -9.569200045293758
      ],
      [
        "▁internete",
        -9.569729369128956
      ],
      [
        "inėje",
        -9.570144829125592
      ],
      [
        "pi",
        -9.570229420172062
      ],
      [
        "▁pabaigoje",
        -9.570273359051802
      ],
      [
        "▁projektą",
        -9.570283951570401
      ],
      [
        "▁jūros",
        -9.571050554661838
      ],
      [
        "16",
        -9.571260924877873
      ],
      [
        "▁teigimu",
        -9.572043143120585
      ],
      [
        "kar",
        -9.57272753212687
      ],
      [
        "▁veiksmų",
        -9.572891859254884
      ],
      [
        "ši",
        -9.573024233128347
      ],
      [
        "▁Le",
        -9.57333093856506
      ],
      [
        "dom",
        -9.573661753468425
      ],
      [
        "▁sąlygos",
        -9.574102091172488
      ],
      [
        "▁P.",
        -9.574124236619069
      ],
      [
        "▁2013-201",
        -9.57431877148354
      ],
      [
        "vin",
        -9.574471143701537
      ],
      [
        "▁Tada",
        -9.57452955309009
      ],
      [
        "▁To",
        -9.574615866078705
      ],
      [
        "land",
        -9.574655071942878
      ],
      [
        "▁pirkti",
        -9.575338132166209
      ],
      [
        "▁dienas",
        -9.57696531356018
      ],
      [
        "ton",
        -9.577106977215365
      ],
      [
        "▁ieškoti",
        -9.577948547421649
      ],
      [
        "▁nuoma",
        -9.578732856857778
      ],
      [
        "▁renginiai",
        -9.57912239127764
      ],
      [
        "nu",
        -9.57967618441765
      ],
      [
        "▁sutinkate",
        -9.581200467885441
      ],
      [
        "▁norint",
        -9.58132307318705
      ],
      [
        "▁Nauja",
        -9.581579864988953
      ],
      [
        "▁banko",
        -9.581656808119309
      ],
      [
        "▁paskutinį",
        -9.58259294012619
      ],
      [
        "▁galimybes",
        -9.583465564882388
      ],
      [
        "▁įmonė",
        -9.583480476451491
      ],
      [
        "▁Se",
        -9.583917617462365
      ],
      [
        "veik",
        -9.58429341067837
      ],
      [
        "▁4.",
        -9.584526585606982
      ],
      [
        "▁sritys",
        -9.5845375978755
      ],
      [
        "▁liko",
        -9.585867885294071
      ],
      [
        "▁vnt.",
        -9.585958760197137
      ],
      [
        "▁Kadangi",
        -9.58643550968581
      ],
      [
        "▁pačios",
        -9.586891762549486
      ],
      [
        "▁keisti",
        -9.587349592263811
      ],
      [
        "usios",
        -9.590128124044286
      ],
      [
        "▁2008",
        -9.590389342428042
      ],
      [
        "▁sprendimas",
        -9.590663547339922
      ],
      [
        "tri",
        -9.590976718195257
      ],
      [
        "ėjus",
        -9.59149797347347
      ],
      [
        "▁dauguma",
        -9.59338501883979
      ],
      [
        "tel",
        -9.59388045659532
      ],
      [
        "▁ministerija",
        -9.594440182942105
      ],
      [
        "Vaikų",
        -9.596042988255185
      ],
      [
        "▁moterų",
        -9.596987513638108
      ],
      [
        "▁mama",
        -9.597418457627654
      ],
      [
        "▁Dydis",
        -9.598090205249024
      ],
      [
        "ami",
        -9.598383552449103
      ],
      [
        "▁vaikus",
        -9.598594176046007
      ],
      [
        "▁turėtumėte",
        -9.59971173134646
      ],
      [
        "▁pirmininkas",
        -9.599985503760085
      ],
      [
        "vok",
        -9.600321692303016
      ],
      [
        "▁klausimai",
        -9.600802614249492
      ],
      [
        "▁2009",
        -9.603145296673333
      ],
      [
        "iame",
        -9.604038880708906
      ],
      [
        "▁Kiek",
        -9.604072210151788
      ],
      [
        "▁Europoje",
        -9.605908944616768
      ],
      [
        "bai",
        -9.60596510995493
      ],
      [
        "▁atsiranda",
        -9.606099493118279
      ],
      [
        "pil",
        -9.606162385826238
      ],
      [
        "ies",
        -9.606535391196537
      ],
      [
        "▁organizacijos",
        -9.607566655496827
      ],
      [
        "▁gamtos",
        -9.608628379906646
      ],
      [
        "▁ra",
        -9.609203593486745
      ],
      [
        "▁pradžios",
        -9.610675947093906
      ],
      [
        "▁kalbėti",
        -9.611047496831429
      ],
      [
        "▁kelią",
        -9.611676491759987
      ],
      [
        "▁Gali",
        -9.611732243992966
      ],
      [
        "▁naudoja",
        -9.61180813883326
      ],
      [
        "▁žmonių,",
        -9.612906028986242
      ],
      [
        "din",
        -9.613255377430024
      ],
      [
        "▁Ant",
        -9.613294140652476
      ],
      [
        "▁įstaigų",
        -9.613433192957714
      ],
      [
        "▁vartoti",
        -9.613674186887174
      ],
      [
        "iam",
        -9.61465943291734
      ],
      [
        "▁(8",
        -9.614880543303196
      ],
      [
        "▁nebūtų",
        -9.614932695779949
      ],
      [
        "▁ministras",
        -9.615382406132305
      ],
      [
        "Y",
        -9.615780260824337
      ],
      [
        "▁svarbi",
        -9.615922053410477
      ],
      [
        "▁mm",
        -9.616734195466474
      ],
      [
        "▁įgyvendinti",
        -9.616955125406694
      ],
      [
        "▁Nes",
        -9.619236625296912
      ],
      [
        "▁Du",
        -9.619667332485117
      ],
      [
        "avimą",
        -9.619840216916536
      ],
      [
        "▁(1",
        -9.620023854682914
      ],
      [
        "cm,",
        -9.620125001094632
      ],
      [
        "▁paieškos",
        -9.621336153426222
      ],
      [
        "▁Valstybės",
        -9.622055953029811
      ],
      [
        "18",
        -9.622199581863704
      ],
      [
        "▁valdžia",
        -9.623121206465889
      ],
      [
        "▁klausimą",
        -9.623148253298325
      ],
      [
        "60",
        -9.62315408258099
      ],
      [
        "▁tėvų",
        -9.62362088583303
      ],
      [
        "▁rinktis",
        -9.624211072011654
      ],
      [
        "▁plėtros",
        -9.62455929159713
      ],
      [
        "kalb",
        -9.62526692839678
      ],
      [
        "▁blowjob",
        -9.62548155416495
      ],
      [
        "ymas",
        -9.62583765249298
      ],
      [
        "▁kartų",
        -9.625870545164233
      ],
      [
        "▁straipsnio",
        -9.626417632077326
      ],
      [
        "▁Buvo",
        -9.626807714578785
      ],
      [
        "▁tarnyba",
        -9.62684978281155
      ],
      [
        "▁medicinos",
        -9.627348101925971
      ],
      [
        "yn",
        -9.627506255059366
      ],
      [
        "▁pareigūnai",
        -9.62778759211948
      ],
      [
        "pačią",
        -9.628067442447085
      ],
      [
        "form",
        -9.628128587611648
      ],
      [
        "▁gavo",
        -9.628333230226687
      ],
      [
        "uot",
        -9.629222079051967
      ],
      [
        "▁naudotis",
        -9.629495413159741
      ],
      [
        "99",
        -9.629762092696069
      ],
      [
        "kan",
        -9.630156584083059
      ],
      [
        "▁prezidentas",
        -9.631139353685322
      ],
      [
        "▁45",
        -9.631150026211607
      ],
      [
        "11",
        -9.631172556365618
      ],
      [
        "▁tokią",
        -9.632033484410886
      ],
      [
        "▁Daug",
        -9.632246629030437
      ],
      [
        "tor",
        -9.63230358660843
      ],
      [
        "ment",
        -9.633037497307654
      ],
      [
        "uotas",
        -9.633499926645896
      ],
      [
        "▁Tarybos",
        -9.633781375344855
      ],
      [
        "po",
        -9.633814045247554
      ],
      [
        "pl",
        -9.634156966720383
      ],
      [
        "▁meilės",
        -9.634210110746896
      ],
      [
        "▁svarbus",
        -9.634711003934214
      ],
      [
        "▁taikomos",
        -9.63497360997781
      ],
      [
        "▁dešimt",
        -9.635048216320046
      ],
      [
        "Z",
        -9.635346021905915
      ],
      [
        "▁bendra",
        -9.635821832478477
      ],
      [
        "▁projektas",
        -9.635950238461282
      ],
      [
        "rod",
        -9.63600082924306
      ],
      [
        "auti",
        -9.636042363678623
      ],
      [
        "▁Šiaurės",
        -9.63635448793821
      ],
      [
        "▁Pro",
        -9.63771143015353
      ],
      [
        "▁valstybių",
        -9.63772191362784
      ],
      [
        "▁pasakojo",
        -9.637993379319456
      ],
      [
        "ijoje",
        -9.638498264701623
      ],
      [
        "▁besi",
        -9.638943303558744
      ],
      [
        "▁TV",
        -9.639312148217044
      ],
      [
        "▁telefonu",
        -9.640164106978819
      ],
      [
        "za",
        -9.640811618686106
      ],
      [
        "bal",
        -9.641245037118772
      ],
      [
        "ams.",
        -9.641412829960839
      ],
      [
        "▁kraujo",
        -9.641645388386653
      ],
      [
        "▁kokios",
        -9.642052981294292
      ],
      [
        "▁plotis",
        -9.642124895482267
      ],
      [
        "vert",
        -9.642185589494428
      ],
      [
        "Parsisiųsti",
        -9.642407187482675
      ],
      [
        "▁Prekės",
        -9.642861522453043
      ],
      [
        "em",
        -9.642948125513453
      ],
      [
        "ąsias",
        -9.643586651752223
      ],
      [
        "▁(2)",
        -9.64372949174036
      ],
      [
        "▁patinka",
        -9.643790176490015
      ],
      [
        "uota",
        -9.643853958134159
      ],
      [
        "▁pranešė",
        -9.644435720668461
      ],
      [
        "▁įvyko",
        -9.644474250688358
      ],
      [
        "▁komentarą",
        -9.645256184676816
      ],
      [
        "Kultūros",
        -9.645627971902472
      ],
      [
        "ten",
        -9.646157832943878
      ],
      [
        "▁Joki",
        -9.647195930502708
      ],
      [
        "ymo",
        -9.647352923120703
      ],
      [
        "▁šeima",
        -9.648274741509471
      ],
      [
        "▁atšaukti",
        -9.64852357166577
      ],
      [
        "▁sienos",
        -9.649291626353595
      ],
      [
        "imas,",
        -9.649778484403008
      ],
      [
        "▁skelbimai",
        -9.65002676105646
      ],
      [
        "aud",
        -9.650422077022487
      ],
      [
        "▁meniu",
        -9.650450506709346
      ],
      [
        "15",
        -9.651380948716925
      ],
      [
        "▁kuriam",
        -9.652275987874644
      ],
      [
        "Matematika",
        -9.652893452042779
      ],
      [
        "▁sprendimą",
        -9.652973367920982
      ],
      [
        "▁situacija",
        -9.653514628774914
      ],
      [
        "elis",
        -9.654446693059235
      ],
      [
        "▁moteris",
        -9.654772324345725
      ],
      [
        "▁mėnesio",
        -9.65481202156571
      ],
      [
        "▁Valstybinė",
        -9.654875927432254
      ],
      [
        "▁36",
        -9.655501036286246
      ],
      [
        "▁mokinių",
        -9.655971028274713
      ],
      [
        "▁papai",
        -9.657477179548888
      ],
      [
        "▁šalyse",
        -9.658347931634022
      ],
      [
        "▁galvos",
        -9.659826153141974
      ],
      [
        "rai",
        -9.659870284750301
      ],
      [
        "▁Ka",
        -9.660881793802826
      ],
      [
        "▁priežiūra",
        -9.66131896615166
      ],
      [
        "▁Rodyti",
        -9.661616632757674
      ],
      [
        "jimas",
        -9.66195658936813
      ],
      [
        "inys",
        -9.662451012103883
      ],
      [
        "nčią",
        -9.663277541545872
      ],
      [
        "▁dideli",
        -9.663611823274683
      ],
      [
        "jimo",
        -9.664301464795955
      ],
      [
        "30",
        -9.66442627051897
      ],
      [
        "▁slapukus.",
        -9.664865899100384
      ],
      [
        "▁negalima",
        -9.664934561218395
      ],
      [
        "▁32",
        -9.66559384318088
      ],
      [
        "jai",
        -9.666278756249511
      ],
      [
        "90",
        -9.666843977723307
      ],
      [
        "iškas",
        -9.667328587660808
      ],
      [
        "▁rajone",
        -9.667330825785058
      ],
      [
        "▁tyrimai",
        -9.667442105151242
      ],
      [
        "▁&",
        -9.667459952803743
      ],
      [
        "▁tikrųjų",
        -9.667470816154903
      ],
      [
        "ting",
        -9.667554528357595
      ],
      [
        "▁kažką",
        -9.668345261020574
      ],
      [
        "▁tema",
        -9.668349836920731
      ],
      [
        "▁vertės",
        -9.669447143540069
      ],
      [
        "▁Naujas",
        -9.669561283030307
      ],
      [
        "▁srityje",
        -9.670580787969385
      ],
      [
        "▁narys",
        -9.671030267523076
      ],
      [
        "▁proga",
        -9.671660764820118
      ],
      [
        "14",
        -9.671731645854516
      ],
      [
        "▁paroda",
        -9.672063996033394
      ],
      [
        "▁Vyriausybės",
        -9.672915758606742
      ],
      [
        "@",
        -9.673331856433018
      ],
      [
        "ėjau",
        -9.673363924999112
      ],
      [
        "▁trijų",
        -9.67339990385836
      ],
      [
        "ėsi",
        -9.67352544449092
      ],
      [
        "▁šalis",
        -9.673529176389223
      ],
      [
        "▁kainą",
        -9.674097355425804
      ],
      [
        "▁tėvai",
        -9.67417235960268
      ],
      [
        "▁automobilio",
        -9.67518119563586
      ],
      [
        "▁tokius",
        -9.67547212671464
      ],
      [
        "▁uždrausti",
        -9.676679471174513
      ],
      [
        "▁klausimas",
        -9.67733469851604
      ],
      [
        "▁lygio",
        -9.677582249457917
      ],
      [
        "▁val",
        -9.67830726522934
      ],
      [
        "▁priemonė",
        -9.67853555242909
      ],
      [
        "▁galimybių",
        -9.679109173928707
      ],
      [
        "▁klausimų",
        -9.679119776604903
      ],
      [
        "▁mokykloje",
        -9.68009281277859
      ],
      [
        "▁kažkas",
        -9.680092863081754
      ],
      [
        "▁regiono",
        -9.68019274476301
      ],
      [
        "Ą",
        -9.681058510254278
      ],
      [
        "az",
        -9.681299671917031
      ],
      [
        "▁Ro",
        -9.681940861020127
      ],
      [
        "▁vasaros",
        -9.682760973639493
      ],
      [
        "str",
        -9.682794902003625
      ],
      [
        "▁Galima",
        -9.682836936584525
      ],
      [
        "▁video",
        -9.68340787012047
      ],
      [
        "▁portale",
        -9.684040757642979
      ],
      [
        "ano",
        -9.684238522434368
      ],
      [
        "esni",
        -9.684642590535496
      ],
      [
        "ykite",
        -9.68478628685985
      ],
      [
        "▁Kit",
        -9.684857573575787
      ],
      [
        "▁nemokamai",
        -9.685797381534066
      ],
      [
        "▁naudojimo",
        -9.686311087464082
      ],
      [
        "▁sutartis",
        -9.687724351397067
      ],
      [
        "IS",
        -9.68835233812662
      ],
      [
        "*",
        -9.689169123688108
      ],
      [
        "▁vadovė",
        -9.68992664449104
      ],
      [
        "▁vykdo",
        -9.690172124098213
      ],
      [
        "▁bar",
        -9.690415156159187
      ],
      [
        "lin",
        -9.690506908476014
      ],
      [
        "▁muzika",
        -9.69055516349654
      ],
      [
        "▁Žemės",
        -9.6911715007306
      ],
      [
        "▁X",
        -9.691940782516937
      ],
      [
        "▁al",
        -9.691948341776941
      ],
      [
        "gim",
        -9.692649152057704
      ],
      [
        "▁naršyklėje",
        -9.693006849931443
      ],
      [
        "bar",
        -9.693308824612004
      ],
      [
        "▁Sen",
        -9.696433853979155
      ],
      [
        "▁ekonomikos",
        -9.697984436933787
      ],
      [
        "▁patį",
        -9.698111918997302
      ],
      [
        "▁aišku",
        -9.698645047179483
      ],
      [
        "Ė",
        -9.698684680399847
      ],
      [
        "▁klientų",
        -9.700989147690073
      ],
      [
        "▁kuriuose",
        -9.701022883026543
      ],
      [
        "žin",
        -9.701214499417219
      ],
      [
        "▁pirmiausia",
        -9.701465248881435
      ],
      [
        "▁Savo",
        -9.701466453624183
      ],
      [
        "ac",
        -9.701509702441674
      ],
      [
        "▁kon",
        -9.701528872183342
      ],
      [
        "dy",
        -9.701646446813601
      ],
      [
        "št",
        -9.702123607416585
      ],
      [
        "▁geriausią",
        -9.702697822078818
      ],
      [
        "▁esmės",
        -9.703051325901153
      ],
      [
        "▁šventė",
        -9.703245108427133
      ],
      [
        "▁gerą",
        -9.703261129398857
      ],
      [
        "▁projektai",
        -9.703309510834725
      ],
      [
        "mer",
        -9.703914487225571
      ],
      [
        "Šiame",
        -9.704511798329099
      ],
      [
        "▁asmuo",
        -9.70502874311274
      ],
      [
        "▁žmogui",
        -9.70605065627943
      ],
      [
        "ėmis",
        -9.706120750481077
      ],
      [
        "▁dalys",
        -9.706145483979409
      ],
      [
        "▁kokybę",
        -9.706230299763229
      ],
      [
        "45",
        -9.707590252585259
      ],
      [
        "▁Vakarų",
        -9.707680479735037
      ],
      [
        "▁Rusija",
        -9.708133972613961
      ],
      [
        "▁pr.",
        -9.70823424040339
      ],
      [
        "▁tarpu",
        -9.708441718492637
      ],
      [
        "IN",
        -9.708496717381902
      ],
      [
        "▁valstybė",
        -9.709166059161007
      ],
      [
        "▁pieno",
        -9.709227191787644
      ],
      [
        "tume",
        -9.710065596075474
      ],
      [
        "▁anglų",
        -9.710817580469467
      ],
      [
        "-ųjų",
        -9.711102971470138
      ],
      [
        "▁komisija",
        -9.71125308775159
      ],
      [
        "ip",
        -9.711306589058701
      ],
      [
        "▁funkcijos",
        -9.712119497489358
      ],
      [
        "den",
        -9.712218014883815
      ],
      [
        "▁būklės",
        -9.712624346873408
      ],
      [
        "▁dujų",
        -9.712800672526058
      ],
      [
        "kit",
        -9.71363255002693
      ],
      [
        "▁kambario",
        -9.713683312833306
      ],
      [
        "▁miestą",
        -9.714154026010142
      ],
      [
        "th",
        -9.714164664072662
      ],
      [
        "▁aplink",
        -9.714830535308494
      ],
      [
        "▁pamatyti",
        -9.715116540433938
      ],
      [
        "▁Eur",
        -9.715169295917438
      ],
      [
        "kon",
        -9.71600241240615
      ],
      [
        "lės",
        -9.71651422228788
      ],
      [
        "▁pasaulį",
        -9.716924887604826
      ],
      [
        "▁pusės",
        -9.717193158700635
      ],
      [
        "nus",
        -9.717265943584726
      ],
      [
        "▁atsirado",
        -9.717303948176568
      ],
      [
        "▁siųsti",
        -9.717880353188878
      ],
      [
        "▁prekyba",
        -9.718126138850993
      ],
      [
        "▁pačių",
        -9.719214029031818
      ],
      [
        "▁galiu",
        -9.719306420890657
      ],
      [
        "▁skirtingų",
        -9.71962396304326
      ],
      [
        "▁sėkmingai",
        -9.719808664349435
      ],
      [
        "tur",
        -9.721088783305605
      ],
      [
        "▁paskelbė",
        -9.721307618141925
      ],
      [
        "▁Slapuk",
        -9.721308006483703
      ],
      [
        "▁svetainės",
        -9.721696651610337
      ],
      [
        "▁studijų",
        -9.722331362326747
      ],
      [
        "sis",
        -9.722620300374096
      ],
      [
        "▁EUR",
        -9.723150328876525
      ],
      [
        "▁f",
        -9.72440670797931
      ],
      [
        "X",
        -9.72498880584126
      ],
      [
        "19",
        -9.726129580333396
      ],
      [
        "▁įrašas",
        -9.72648971581366
      ],
      [
        "▁teisė",
        -9.727083245193773
      ],
      [
        "▁dalyviai",
        -9.727481253878665
      ],
      [
        "tį",
        -9.727780840040442
      ],
      [
        "stat",
        -9.728104689974284
      ],
      [
        "35",
        -9.728968425725043
      ],
      [
        "▁lauko",
        -9.729565433686282
      ],
      [
        "▁kiekis",
        -9.729639634321746
      ],
      [
        "▁Mo",
        -9.729915433765601
      ],
      [
        "24",
        -9.730447290214265
      ],
      [
        "joms",
        -9.730958016777901
      ],
      [
        "▁tikras",
        -9.731204043994257
      ],
      [
        "▁esant",
        -9.731392892226001
      ],
      [
        "▁gauna",
        -9.731744185241423
      ],
      [
        "▁sąlygas",
        -9.732016547832801
      ],
      [
        "ta,",
        -9.732138009929677
      ],
      [
        "ate",
        -9.73242935483134
      ],
      [
        "▁mokyklų",
        -9.73265682967942
      ],
      [
        "▁Viena",
        -9.733132918184374
      ],
      [
        "vers",
        -9.733512709188721
      ],
      [
        "▁Šį",
        -9.733644189468148
      ],
      [
        "12",
        -9.733900127794726
      ],
      [
        "klaus",
        -9.73458122076925
      ],
      [
        "▁sek",
        -9.735164112853976
      ],
      [
        "▁nuoroda",
        -9.73525720196995
      ],
      [
        "▁kasmet",
        -9.736623515121074
      ],
      [
        "▁eismo",
        -9.736930519062952
      ],
      [
        "▁draudimo",
        -9.73739109844184
      ],
      [
        "Žinoma,",
        -9.737770094763599
      ],
      [
        "▁d",
        -9.739079390748977
      ],
      [
        "▁Kaina",
        -9.73926790713245
      ],
      [
        "▁teikia",
        -9.740496644317494
      ],
      [
        "uš",
        -9.740521170445458
      ],
      [
        "dien",
        -9.740610894053168
      ],
      [
        "ins",
        -9.741323089888853
      ],
      [
        "▁prasidėjo",
        -9.742060196933599
      ],
      [
        "▁000",
        -9.742840609174724
      ],
      [
        "▁saus",
        -9.743085695482463
      ],
      [
        "▁lieka",
        -9.743475285789748
      ],
      [
        "▁metų.",
        -9.743844267841926
      ],
      [
        "▁apsauga",
        -9.744199385044968
      ],
      [
        "▁žmogų",
        -9.744279846565334
      ],
      [
        "teik",
        -9.744357514538589
      ],
      [
        "▁mokslų",
        -9.744408880450699
      ],
      [
        "▁matyti",
        -9.744464996644147
      ],
      [
        "▁minučių",
        -9.745122063170177
      ],
      [
        "▁naujus",
        -9.746011973172791
      ],
      [
        "▁38",
        -9.746977497109718
      ],
      [
        "”.",
        -9.74702974415851
      ],
      [
        "▁nauji",
        -9.74729563962055
      ],
      [
        "▁bendr",
        -9.74793290720108
      ],
      [
        "niai",
        -9.748158124261177
      ],
      [
        "▁adresu",
        -9.748194704603113
      ],
      [
        "Tiesa,",
        -9.748255220387197
      ],
      [
        "▁mėnesių",
        -9.748347612113998
      ],
      [
        "▁anksto",
        -9.748351558173656
      ],
      [
        "▁išvengti",
        -9.748693673422228
      ],
      [
        "▁kal",
        -9.74939379425361
      ],
      [
        "zin",
        -9.751460990301453
      ],
      [
        "▁visuomet",
        -9.75156872195673
      ],
      [
        "▁veikti",
        -9.751853109750893
      ],
      [
        "nčio",
        -9.752254690944135
      ],
      [
        "▁70",
        -9.752454832596982
      ],
      [
        "vad",
        -9.752536381372598
      ],
      [
        "▁NATO",
        -9.75257531325326
      ],
      [
        "aitis",
        -9.75320780727182
      ],
      [
        "▁Latvijos",
        -9.753633584903913
      ],
      [
        "▁pareiškė",
        -9.753650056751535
      ],
      [
        "’",
        -9.754043155167434
      ],
      [
        "eji",
        -9.754272100528352
      ],
      [
        "inas",
        -9.75447572057611
      ],
      [
        "▁atsakymą",
        -9.754715215576635
      ],
      [
        "lu",
        -9.755976730742358
      ],
      [
        "laid",
        -9.756168870886905
      ],
      [
        "▁tri",
        -9.756595962393778
      ],
      [
        "čius",
        -9.757071391872117
      ],
      [
        "▁tinkamai",
        -9.757159310398768
      ],
      [
        "laik",
        -9.757847591220717
      ],
      [
        "▁komisijos",
        -9.757881927784487
      ],
      [
        "▁bri",
        -9.758054401000376
      ],
      [
        "liai",
        -9.758209949932418
      ],
      [
        "▁daugelis",
        -9.758735090008106
      ],
      [
        "▁sąjungos",
        -9.759802013919092
      ],
      [
        "▁garso",
        -9.760051471435556
      ],
      [
        "▁naudojame",
        -9.76038367659279
      ],
      [
        "▁kokį",
        -9.761112406021478
      ],
      [
        "o\"",
        -9.761930801250124
      ],
      [
        "ji",
        -9.762053779890167
      ],
      [
        "▁sezono",
        -9.762148311007756
      ],
      [
        "▁500",
        -9.763330006661892
      ],
      [
        "▁pradžių",
        -9.763382697766268
      ],
      [
        "co",
        -9.764256873418589
      ],
      [
        "▁saugomos.",
        -9.764308457459089
      ],
      [
        "▁300",
        -9.764561253662588
      ],
      [
        "▁produktai",
        -9.765392933723493
      ],
      [
        "▁Pasaulio",
        -9.765758383801126
      ],
      [
        "▁stalo",
        -9.766452780355264
      ],
      [
        "▁paskui",
        -9.766743508978381
      ],
      [
        "▁naudojant",
        -9.766745260630287
      ],
      [
        "▁pirkimo",
        -9.767153256291044
      ],
      [
        "▁sezoną",
        -9.767507203539447
      ],
      [
        "▁pradinė",
        -9.767758692925849
      ],
      [
        "ėms",
        -9.76863081601579
      ],
      [
        "▁kg",
        -9.769409018720303
      ],
      [
        "▁papildomos",
        -9.77068628976197
      ],
      [
        "▁\"S",
        -9.77074522552668
      ],
      [
        "▁mirties",
        -9.770881994447539
      ],
      [
        "ce",
        -9.771122082158948
      ],
      [
        "▁paties",
        -9.771924913457486
      ],
      [
        "▁pan.",
        -9.772602716569526
      ],
      [
        "toje",
        -9.772670269743745
      ],
      [
        "ym",
        -9.772676263749322
      ],
      [
        "▁tol",
        -9.773976476404258
      ],
      [
        "kime",
        -9.774012464819156
      ],
      [
        "ng",
        -9.774749625591637
      ],
      [
        "▁dažniau",
        -9.774921655880412
      ],
      [
        "ytė",
        -9.775613971289772
      ],
      [
        "▁data",
        -9.775926354940307
      ],
      [
        "▁adresas",
        -9.776819000657163
      ],
      [
        "▁dalyvauja",
        -9.777605324718582
      ],
      [
        "▁(2",
        -9.77814884746615
      ],
      [
        "▁miestas",
        -9.778336346517161
      ],
      [
        "▁dokumentus",
        -9.779015638901019
      ],
      [
        "▁sutartį",
        -9.779481607555926
      ],
      [
        "▁atsakomybė",
        -9.779715738887495
      ],
      [
        "▁Rytų",
        -9.779868751256316
      ],
      [
        "▁kontaktai",
        -9.780480252957474
      ],
      [
        "kin",
        -9.780547775027259
      ],
      [
        "lie",
        -9.78089093783001
      ],
      [
        "naršyti",
        -9.78121678739943
      ],
      [
        "visoje",
        -9.782619534131488
      ],
      [
        "▁pajamų",
        -9.782674166848299
      ],
      [
        "▁keistas",
        -9.783333629970443
      ],
      [
        "▁mokėti",
        -9.783985288927358
      ],
      [
        "▁filmas",
        -9.784656156599517
      ],
      [
        "hi",
        -9.784772439741365
      ],
      [
        "▁kultūra",
        -9.78665042630428
      ],
      [
        "▁kiekvieno",
        -9.786995979738222
      ],
      [
        "▁Prancūzijos",
        -9.78712389706594
      ],
      [
        "▁Maž",
        -9.787197163614456
      ],
      [
        "▁dantų",
        -9.787312274791974
      ],
      [
        "▁paskyrą",
        -9.78768244386341
      ],
      [
        "tek",
        -9.787964026716775
      ],
      [
        "▁34",
        -9.78809323847067
      ],
      [
        "▁Tarp",
        -9.788179707448315
      ],
      [
        "▁vieni",
        -9.78843516226738
      ],
      [
        "kl",
        -9.792509737895335
      ],
      [
        "ho",
        -9.79335179736155
      ],
      [
        "čia",
        -9.793448826098949
      ],
      [
        "▁knygų",
        -9.793742661804908
      ],
      [
        "▁AB",
        -9.793757173790716
      ],
      [
        "▁futbolo",
        -9.79378947744075
      ],
      [
        "▁žaisti",
        -9.794277632257803
      ],
      [
        "▁sprendimai",
        -9.794741891012348
      ],
      [
        "▁įvertinti",
        -9.794813818312875
      ],
      [
        "▁pusę",
        -9.795107653202544
      ],
      [
        "▁žmones",
        -9.795438365578708
      ],
      [
        "▁viduje",
        -9.79601795311952
      ],
      [
        "ingas",
        -9.797114733417942
      ],
      [
        "▁(ne",
        -9.797160115949769
      ],
      [
        "▁teismas",
        -9.797694318415726
      ],
      [
        "tum",
        -9.797790139368505
      ],
      [
        "▁graži",
        -9.797870857232027
      ],
      [
        "▁teatro",
        -9.798466247083027
      ],
      [
        "lip",
        -9.79931415511985
      ],
      [
        "▁komentarai",
        -9.800296074371854
      ],
      [
        "▁skrydžiai",
        -9.80139590800232
      ],
      [
        "tyv",
        -9.803680098921202
      ],
      [
        "▁pernai",
        -9.80392712482981
      ],
      [
        "py",
        -9.804362095575327
      ],
      [
        "utė",
        -9.805368205948717
      ],
      [
        ".com",
        -9.806312064803578
      ],
      [
        "▁mėnesius",
        -9.80652264160734
      ],
      [
        "▁eiti",
        -9.80654775321024
      ],
      [
        "▁IP",
        -9.807913657724354
      ],
      [
        "ybės",
        -9.807926503845128
      ],
      [
        "▁santykių",
        -9.808112618613105
      ],
      [
        "▁suteikti",
        -9.808508217247763
      ],
      [
        "▁nepri",
        -9.808621149967582
      ],
      [
        "▁vanduo",
        -9.808831612504573
      ],
      [
        "▁turiu",
        -9.809096398024359
      ],
      [
        "▁kredito",
        -9.809163521421286
      ],
      [
        "▁mokiniai",
        -9.80955402253772
      ],
      [
        "▁sp",
        -9.809686600183802
      ],
      [
        "▁Ilgis",
        -9.810083341761668
      ],
      [
        "▁Dievas",
        -9.81311153762201
      ],
      [
        "osi",
        -9.81332013347214
      ],
      [
        "▁aiškiai",
        -9.813951595611737
      ],
      [
        "17",
        -9.81398444591197
      ],
      [
        "▁jais",
        -9.81442091509863
      ],
      [
        "▁sumažinti",
        -9.814453838004066
      ],
      [
        "-aisiais",
        -9.81477775946378
      ],
      [
        "▁televizijos",
        -9.814989041199086
      ],
      [
        "dal",
        -9.815039213197526
      ],
      [
        "▁dalykų",
        -9.815227596189512
      ],
      [
        "70",
        -9.815233162642413
      ],
      [
        "▁prekes",
        -9.81527865627518
      ],
      [
        "▁teikti",
        -9.815700161283404
      ],
      [
        "▁pasiūlymai",
        -9.815952355218611
      ],
      [
        "ima",
        -9.815999715148473
      ],
      [
        "▁klubas",
        -9.816064302885017
      ],
      [
        "▁gyvenime",
        -9.81646772248467
      ],
      [
        "▁finansų",
        -9.816514726970157
      ],
      [
        "▁ger",
        -9.816631888531141
      ],
      [
        "pra",
        -9.816885929476358
      ],
      [
        "vaizd",
        -9.817372693828183
      ],
      [
        "▁eina",
        -9.817552101554043
      ],
      [
        "▁Val",
        -9.817573821328557
      ],
      [
        "▁(A",
        -9.817672009471082
      ],
      [
        "▁taškų",
        -9.817706658519555
      ],
      [
        "▁naudoti.",
        -9.817971855414783
      ],
      [
        "▁Keisti",
        -9.818209570423857
      ],
      [
        "▁Va",
        -9.818392715741382
      ],
      [
        "▁pasakyti",
        -9.818959118100336
      ],
      [
        "▁saulės",
        -9.819682726158456
      ],
      [
        "▁sprendimo",
        -9.820470379849713
      ],
      [
        "▁rankų",
        -9.820581055052163
      ],
      [
        "ėjęs",
        -9.820671242027771
      ],
      [
        "ybė",
        -9.82094233499599
      ],
      [
        "▁prezidento",
        -9.821013570058053
      ],
      [
        "80",
        -9.82119388016487
      ],
      [
        "▁hardcore",
        -9.821604161091535
      ],
      [
        "▁b",
        -9.821693162221322
      ],
      [
        "▁(S",
        -9.822077078360206
      ],
      [
        "▁liga",
        -9.823482035340845
      ],
      [
        "iui",
        -9.82445974013812
      ],
      [
        "band",
        -9.824882513695766
      ],
      [
        "▁administracijos",
        -9.825013255099616
      ],
      [
        "▁naršym",
        -9.825054756673676
      ],
      [
        "▁PDF",
        -9.82507608234615
      ],
      [
        "dirb",
        -9.82542478749184
      ],
      [
        "cm.",
        -9.826372982721672
      ],
      [
        "▁Vard",
        -9.826439131410108
      ],
      [
        "ukas",
        -9.826615103073728
      ],
      [
        "▁programą",
        -9.827737968622975
      ],
      [
        "▁Mobili",
        -9.827805036950554
      ],
      [
        "lia",
        -9.828166283902817
      ],
      [
        "tinė",
        -9.828837260273257
      ],
      [
        "▁puslapiai",
        -9.82892255239315
      ],
      [
        "mon",
        -9.829143599807328
      ],
      [
        "be",
        -9.829353350280394
      ],
      [
        "▁institucijų",
        -9.829576867620561
      ],
      [
        "▁sąrašą",
        -9.82957689893206
      ],
      [
        "▁savęs",
        -9.830391471069166
      ],
      [
        "▁daugiausia",
        -9.83055710263842
      ],
      [
        "▁reikės",
        -9.831222276729982
      ],
      [
        "▁lengviau",
        -9.831471629349458
      ],
      [
        "▁pasirodė",
        -9.832020270118736
      ],
      [
        "▁Pietų",
        -9.83254218059254
      ],
      [
        "elyje",
        -9.83270557691682
      ],
      [
        "▁naudojamas",
        -9.832974385961897
      ],
      [
        "▁39",
        -9.833642015044834
      ],
      [
        "▁dr.",
        -9.833776981288874
      ],
      [
        "▁biudžeto",
        -9.834161402353722
      ],
      [
        "▁laisvės",
        -9.834486039104231
      ],
      [
        "▁(„",
        -9.834808126216107
      ],
      [
        "mp",
        -9.835141234582007
      ],
      [
        "▁90",
        -9.835284978870408
      ],
      [
        "ze",
        -9.836566827874872
      ],
      [
        "yk",
        -9.836752089467218
      ],
      [
        "kos",
        -9.837115195194688
      ],
      [
        "imą,",
        -9.837435637524115
      ],
      [
        "▁tvarkymo",
        -9.837647911550214
      ],
      [
        "gen",
        -9.837890304396927
      ],
      [
        "auja",
        -9.837893211389979
      ],
      [
        "ūk",
        -9.838080387175388
      ],
      [
        "Manau,",
        -9.838292863853841
      ],
      [
        "▁literatūros",
        -9.838767977147556
      ],
      [
        "tak",
        -9.841608211545623
      ],
      [
        "▁reali",
        -9.841936270364902
      ],
      [
        "▁lauk",
        -9.842044787804596
      ],
      [
        "▁įstatymų",
        -9.842235266239225
      ],
      [
        "▁sąrašas",
        -9.842235298550076
      ],
      [
        "kų",
        -9.842262830097596
      ],
      [
        "▁nustatymus",
        -9.842497231012413
      ],
      [
        "▁galva",
        -9.842589872380993
      ],
      [
        "▁muziejus",
        -9.842982960295792
      ],
      [
        "ic",
        -9.84311968924567
      ],
      [
        "▁priežastis",
        -9.843394286608937
      ],
      [
        "nor",
        -9.843514712227854
      ],
      [
        "▁Lt",
        -9.84353771903271
      ],
      [
        "▁dalyje",
        -9.843656671003302
      ],
      [
        "▁plaukų",
        -9.843762253906132
      ],
      [
        "▁auga",
        -9.844392891191955
      ],
      [
        "▁kokio",
        -9.845210821012568
      ],
      [
        "29",
        -9.846164886000548
      ],
      [
        "▁Sausio",
        -9.846944369328302
      ],
      [
        "▁įstaiga",
        -9.84716526329543
      ],
      [
        "▁(V",
        -9.847810176069812
      ],
      [
        "▁didelės",
        -9.848006234752294
      ],
      [
        "▁Reikia",
        -9.848087101800768
      ],
      [
        "▁Lietuvoje.",
        -9.848143700975381
      ],
      [
        "les",
        -9.849638548511392
      ],
      [
        "Esu",
        -9.849936195708231
      ],
      [
        "lzinios.lt",
        -9.850374845028163
      ],
      [
        "▁vasarą",
        -9.850569046735107
      ],
      [
        "▁blog",
        -9.850602624765342
      ],
      [
        "▁dokumentai",
        -9.850980189702533
      ],
      [
        "▁Mi",
        -9.851863095112588
      ],
      [
        "ką",
        -9.8523622430639
      ],
      [
        "▁An",
        -9.852527579013984
      ],
      [
        "▁vartotojų",
        -9.852543229361736
      ],
      [
        "▁jame",
        -9.852931963357534
      ],
      [
        "▁Na,",
        -9.85301038931252
      ],
      [
        "▁uždar",
        -9.85343564127832
      ],
      [
        "vas",
        -9.854246529186309
      ],
      [
        "Straipsnis",
        -9.854446180895746
      ],
      [
        "▁laikais",
        -9.854483670988788
      ],
      [
        "nį",
        -9.854810717274663
      ],
      [
        "▁kokie",
        -9.855376906431495
      ],
      [
        "▁mintis",
        -9.855961418480664
      ],
      [
        "▁reklamos",
        -9.856229686977503
      ],
      [
        "▁dviem",
        -9.856518620217305
      ],
      [
        "lyg",
        -9.856545500885312
      ],
      [
        "ner",
        -9.856943416176325
      ],
      [
        "▁Deja,",
        -9.857187682463088
      ],
      [
        "▁planas",
        -9.858035133641422
      ],
      [
        "▁Mar",
        -9.858165309577263
      ],
      [
        "▁2007",
        -9.85897262015586
      ],
      [
        "end",
        -9.859790134263083
      ],
      [
        "▁žmona",
        -9.85981700716366
      ],
      [
        "▁Informacija",
        -9.859907587648953
      ],
      [
        "▁jokio",
        -9.86013276773755
      ],
      [
        "▁buvusi",
        -9.860475261215946
      ],
      [
        "▁priemones",
        -9.861113857999374
      ],
      [
        "▁Turi",
        -9.861168014233517
      ],
      [
        "TA",
        -9.862199026556997
      ],
      [
        "▁Viskas",
        -9.862439098606725
      ],
      [
        "esnis",
        -9.862827738315687
      ],
      [
        "ike",
        -9.86300158772158
      ],
      [
        "vel",
        -9.86327925544515
      ],
      [
        "cm",
        -9.863431554912843
      ],
      [
        "nų",
        -9.86354188114877
      ],
      [
        "▁sprendimus",
        -9.86416137234695
      ],
      [
        "­n",
        -9.864448804798746
      ],
      [
        "▁pavyko",
        -9.864581578905419
      ],
      [
        "▁ženklai",
        -9.864627079708981
      ],
      [
        "▁37",
        -9.864803141056246
      ],
      [
        "kuriose",
        -9.865658669750268
      ],
      [
        "22",
        -9.866083390605215
      ],
      [
        "€",
        -9.866350329602835
      ],
      [
        "▁buvau",
        -9.866874445001331
      ],
      [
        "Ž",
        -9.868948629748575
      ],
      [
        "▁pasakoja",
        -9.869907693941556
      ],
      [
        "▁Term",
        -9.869944944722437
      ],
      [
        "▁asilas",
        -9.870490864952487
      ],
      [
        "▁myli",
        -9.871725949276223
      ],
      [
        "▁dalyvių",
        -9.872814999437544
      ],
      [
        "and",
        -9.87369704822606
      ],
      [
        "▁Ukrainos",
        -9.874002657863908
      ],
      [
        "▁renginių",
        -9.874135606264337
      ],
      [
        "anti",
        -9.874962502167108
      ],
      [
        "▁vietas",
        -9.875158843801417
      ],
      [
        "graf",
        -9.876365695733202
      ],
      [
        "▁tinklo",
        -9.876428284517624
      ],
      [
        "ininkų",
        -9.876618009812287
      ],
      [
        "gė",
        -9.878369615549293
      ],
      [
        "▁paveldo",
        -9.87879593876798
      ],
      [
        "avi",
        -9.878797423232328
      ],
      [
        "▁socialinės",
        -9.878875136860852
      ],
      [
        "vės",
        -9.879320161621798
      ],
      [
        "▁T.",
        -9.879389009482919
      ],
      [
        "▁sprendimų",
        -9.879997859374761
      ],
      [
        "▁puikus",
        -9.88028525999325
      ],
      [
        "▁tikrą",
        -9.880655912212688
      ],
      [
        "▁bal",
        -9.880975250519455
      ],
      [
        "▁speciali",
        -9.88111951590684
      ],
      [
        "▁visur",
        -9.88163930485272
      ],
      [
        "▁pirmasis",
        -9.881683216019134
      ],
      [
        "▁kodas",
        -9.882205581807412
      ],
      [
        "▁sistemoje",
        -9.882406052341532
      ],
      [
        "▁naktį",
        -9.882423135501895
      ],
      [
        "▁LT",
        -9.882540178551505
      ],
      [
        "jam",
        -9.882604732539576
      ],
      [
        "▁aktų",
        -9.883008007432986
      ],
      [
        "▁įtakos",
        -9.883631967032796
      ],
      [
        "▁trūksta",
        -9.884276615278829
      ],
      [
        "▁įvairios",
        -9.885035336365235
      ],
      [
        "bu",
        -9.885320200069094
      ],
      [
        "iška",
        -9.885323824792206
      ],
      [
        "▁spręsti",
        -9.885713820530231
      ],
      [
        "▁peržiūra",
        -9.88576377072458
      ],
      [
        "▁sukelia",
        -9.88616962267297
      ],
      [
        "vis",
        -9.886441395768422
      ],
      [
        "▁Vėliau",
        -9.886478849782184
      ],
      [
        "▁Štai",
        -9.887782286146077
      ],
      [
        "▁daugybė",
        -9.887846411426093
      ],
      [
        "▁nelabai",
        -9.887998797667105
      ],
      [
        "už",
        -9.888032815647417
      ],
      [
        "▁lietuviai",
        -9.888490594074783
      ],
      [
        "▁pramonės",
        -9.888878999949263
      ],
      [
        "▁„Ne",
        -9.889188263254727
      ],
      [
        "imą.",
        -9.889604543743356
      ],
      [
        "▁esą",
        -9.889717984030487
      ],
      [
        "▁sunkiai",
        -9.889754057825078
      ],
      [
        "▁kalbą",
        -9.890437578915527
      ],
      [
        "▁teks",
        -9.890466325623965
      ],
      [
        "▁vykdyti",
        -9.890652264267477
      ],
      [
        "▁atliekų",
        -9.890946292696682
      ],
      [
        "▁tyrimas",
        -9.891220362039027
      ],
      [
        "▁Svetainės",
        -9.891598608839855
      ],
      [
        "▁San",
        -9.892083283589407
      ],
      [
        "▁medžiagą",
        -9.89215886785782
      ],
      [
        "▁III",
        -9.892167408118752
      ],
      [
        "▁Vilkaviškio",
        -9.892674232388027
      ],
      [
        "▁telefono",
        -9.893315356381567
      ],
      [
        "▁In",
        -9.893700134929716
      ],
      [
        "ag",
        -9.894126098641692
      ],
      [
        "▁akis",
        -9.894264394783098
      ],
      [
        "▁Tokiu",
        -9.894420189497772
      ],
      [
        "▁eilės",
        -9.894506231008634
      ],
      [
        "▁juoda",
        -9.896762968943438
      ],
      [
        "jung",
        -9.897105139233851
      ],
      [
        "▁Šie",
        -9.897193276256708
      ],
      [
        "▁asmenys",
        -9.897226792001138
      ],
      [
        "▁Spausdinti",
        -9.898317158262715
      ],
      [
        "▁kokių",
        -9.898485234783267
      ],
      [
        "▁tave",
        -9.898495382235334
      ],
      [
        "▁pateikiamas",
        -9.898653873486076
      ],
      [
        "lan",
        -9.899311674702837
      ],
      [
        "nę",
        -9.89993610328484
      ],
      [
        "▁savivaldybių",
        -9.90065472850952
      ],
      [
        "▁įrangos",
        -9.901208663208429
      ],
      [
        "yr",
        -9.901271956187145
      ],
      [
        "iki",
        -9.901442325684267
      ],
      [
        "esnė",
        -9.901468160466166
      ],
      [
        "▁pvz.",
        -9.901807141010059
      ],
      [
        "▁asmenims",
        -9.901883285639538
      ],
      [
        "▁pristatymas",
        -9.901883797788077
      ],
      [
        "▁„E",
        -9.902563321607627
      ],
      [
        "ang",
        -9.903824672382735
      ],
      [
        "▁priežasčių",
        -9.903978611828474
      ],
      [
        "▁nuotr.",
        -9.904345794904419
      ],
      [
        "▁puslapyje",
        -9.905577820656776
      ],
      [
        "Nuotraukų",
        -9.905619825296707
      ],
      [
        "▁Vytauto",
        -9.905698001703684
      ],
      [
        "▁klubo",
        -9.905782015223643
      ],
      [
        "▁ilgiau",
        -9.906323390077224
      ],
      [
        "sen",
        -9.906930936516252
      ],
      [
        "▁išlaikyti",
        -9.906942152021331
      ],
      [
        "▁skiriasi",
        -9.907010147547979
      ],
      [
        "ali",
        -9.907129734384093
      ],
      [
        "▁geriausia",
        -9.907137945223562
      ],
      [
        "▁nuorodas",
        -9.907449795730745
      ],
      [
        "­k",
        -9.907604094155591
      ],
      [
        "bin",
        -9.907860501962448
      ],
      [
        "▁LR",
        -9.907893119064601
      ],
      [
        "▁Kiti",
        -9.908042604759538
      ],
      [
        "▁direktoriaus",
        -9.908048545158621
      ],
      [
        "▁problemos",
        -9.908083308162944
      ],
      [
        "▁atstovas",
        -9.908628663110058
      ],
      [
        "▁pareigas",
        -9.909517460658623
      ],
      [
        "▁(L",
        -9.909560880546728
      ],
      [
        "▁dizaino",
        -9.909705742900684
      ],
      [
        "▁sistemą",
        -9.9100338486564
      ],
      [
        "▁spalvų",
        -9.910236179132482
      ],
      [
        "vos",
        -9.910436942516718
      ],
      [
        "▁Ta",
        -9.910865000305053
      ],
      [
        "▁toli",
        -9.91162731408808
      ],
      [
        "▁pardavimo",
        -9.911792854512466
      ],
      [
        "▁rinkoje",
        -9.912332087292842
      ],
      [
        "tų,",
        -9.912989372489662
      ],
      [
        "▁turinio",
        -9.913014836003326
      ],
      [
        "▁noriu",
        -9.913376090818279
      ],
      [
        "▁PA",
        -9.913755020116561
      ],
      [
        "int",
        -9.913777139104985
      ],
      [
        "▁garantijų",
        -9.914252225015723
      ],
      [
        "▁tautos",
        -9.914369857655766
      ],
      [
        "ist",
        -9.914426866187439
      ],
      [
        "šūdas",
        -9.914530368924607
      ],
      [
        "▁Vikipedijos",
        -9.91460253983001
      ],
      [
        "▁sudaryti",
        -9.914814423323211
      ],
      [
        "▁„G",
        -9.91503905216452
      ],
      [
        "▁štai",
        -9.915126268941465
      ],
      [
        "▁laikotarpiu",
        -9.916253364043328
      ],
      [
        "antis",
        -9.916670999582298
      ],
      [
        "▁Vytautas",
        -9.916745413197201
      ],
      [
        "▁miestų",
        -9.916771972510265
      ],
      [
        "33",
        -9.917152333747435
      ],
      [
        "▁vaikui",
        -9.91720161294503
      ],
      [
        "cijos",
        -9.917238327758394
      ],
      [
        "▁vyrų",
        -9.917980168831626
      ],
      [
        "▁prognozė",
        -9.91822088461367
      ],
      [
        "▁turizmo",
        -9.918350759662111
      ],
      [
        "▁33",
        -9.919429337296926
      ],
      [
        "kis",
        -9.920319182965017
      ],
      [
        "▁reikalauja",
        -9.920839486336316
      ],
      [
        "-ąją",
        -9.92134115585469
      ],
      [
        "▁„C",
        -9.92212610028712
      ],
      [
        "usių",
        -9.92237230281825
      ],
      [
        "▁aktyviai",
        -9.922832370406134
      ],
      [
        "▁moka",
        -9.922856281807622
      ],
      [
        "Beje,",
        -9.923532850424976
      ],
      [
        "▁[...]",
        -9.92408863934913
      ],
      [
        "aš",
        -9.924271512564095
      ],
      [
        "▁kainų",
        -9.924393652433668
      ],
      [
        "▁departamento",
        -9.925516164561682
      ],
      [
        "▁procesas",
        -9.925516499825896
      ],
      [
        "ent",
        -9.925642430767649
      ],
      [
        "ajame",
        -9.925826805120087
      ],
      [
        "▁laikyti",
        -9.926060359473148
      ],
      [
        "▁darbuotojai",
        -9.926338373728534
      ],
      [
        "▁pasiūlyti",
        -9.926440001455175
      ],
      [
        "gar",
        -9.926660990418185
      ],
      [
        "▁galo",
        -9.926667440366463
      ],
      [
        "rank",
        -9.926887488486699
      ],
      [
        "▁metus.",
        -9.927277655052013
      ],
      [
        "▁gaus",
        -9.927684576677773
      ],
      [
        "▁svarbiausia",
        -9.928336206588725
      ],
      [
        "▁vaizdas",
        -9.928596657264775
      ],
      [
        "naud",
        -9.928775749035772
      ],
      [
        "95",
        -9.928862043629845
      ],
      [
        "▁pagrindinis",
        -9.92935422446831
      ],
      [
        "▁atrodo,",
        -9.929620043816165
      ],
      [
        "▁problema",
        -9.929957640868022
      ],
      [
        "lei",
        -9.93026261580702
      ],
      [
        "▁dirbo",
        -9.930524905713337
      ],
      [
        "▁Kitos",
        -9.930816809404341
      ],
      [
        "auk",
        -9.931462919043575
      ],
      [
        "ienė",
        -9.931553561825233
      ],
      [
        "viešųjų",
        -9.93169267327223
      ],
      [
        "▁primena",
        -9.9321586674975
      ],
      [
        "▁šviesos",
        -9.933133856600168
      ],
      [
        "▁žmonės,",
        -9.933257605920918
      ],
      [
        "las",
        -9.933994144524124
      ],
      [
        "▁namus",
        -9.934360396124601
      ],
      [
        "▁valandų",
        -9.934366978211504
      ],
      [
        "▁neseniai",
        -9.934372344424116
      ],
      [
        "tinis",
        -9.934983789091028
      ],
      [
        "▁valdymas",
        -9.935938108892236
      ],
      [
        "▁rezultatų",
        -9.936274929261147
      ],
      [
        "▁Naršy",
        -9.936424481229478
      ],
      [
        "▁na",
        -9.936832609781021
      ],
      [
        "▁viešbučių",
        -9.936908732856828
      ],
      [
        "21",
        -9.937751772991799
      ],
      [
        "eg",
        -9.938274098403403
      ],
      [
        "▁„B",
        -9.939601474977362
      ],
      [
        "▁skatina",
        -9.939879286316517
      ],
      [
        "▁tur",
        -9.940154046146864
      ],
      [
        "▁žodžių",
        -9.94073800394743
      ],
      [
        "kelbiu.lt",
        -9.940776245528053
      ],
      [
        "▁kiekį",
        -9.941065610421111
      ],
      [
        "rie",
        -9.941473460559969
      ],
      [
        "Sukurti",
        -9.942028477624248
      ],
      [
        "▁nusprendė",
        -9.942124678865337
      ],
      [
        "▁geriausias",
        -9.942589111419185
      ],
      [
        "▁pasak",
        -9.942667721370118
      ],
      [
        "▁mokytis",
        -9.94369839190728
      ],
      [
        "▁medžio",
        -9.94377139394706
      ],
      [
        "ved",
        -9.944890316260317
      ],
      [
        "▁PVM",
        -9.944967723682993
      ],
      [
        "▁pusė",
        -9.94535476768662
      ],
      [
        "▁užtikrina",
        -9.94566778213004
      ],
      [
        "ini",
        -9.945792322042465
      ],
      [
        "▁tipas:",
        -9.945843888138675
      ],
      [
        "▁kontrolės",
        -9.94601755604159
      ],
      [
        "par",
        -9.946276710436873
      ],
      [
        "▁2000",
        -9.946589610874067
      ],
      [
        "▁buvęs",
        -9.946605155147285
      ],
      [
        "▁turtas",
        -9.946647914474502
      ],
      [
        "▁specialistų",
        -9.94844563945103
      ],
      [
        "▁dalykai",
        -9.948489823483232
      ],
      [
        "tumėte",
        -9.948667219744522
      ],
      [
        "▁ligoninės",
        -9.948854893324889
      ],
      [
        "▁„P",
        -9.948914297120975
      ],
      [
        "▁kokybė",
        -9.949567992255956
      ],
      [
        "puol",
        -9.949667243722374
      ],
      [
        "▁gatvės",
        -9.949673656828868
      ],
      [
        "ėjusi",
        -9.949697396247341
      ],
      [
        "umu",
        -9.949738907373952
      ],
      [
        "▁metrų",
        -9.949741823056435
      ],
      [
        "▁stebėti",
        -9.949821597680607
      ],
      [
        "▁„Pa",
        -9.949844425971143
      ],
      [
        "fer",
        -9.950308583352012
      ],
      [
        "lį",
        -9.950381068548651
      ],
      [
        "▁lygos",
        -9.950469701089245
      ],
      [
        "▁rungtynes",
        -9.951011490730458
      ],
      [
        "▁aptarim",
        -9.951095798467804
      ],
      [
        "▁laikų",
        -9.951506886756963
      ],
      [
        "šiais",
        -9.951513302839025
      ],
      [
        "rim",
        -9.95152934658666
      ],
      [
        "ytų",
        -9.952135740128075
      ],
      [
        "▁suma",
        -9.952332987572078
      ],
      [
        "▁va",
        -9.95235520577987
      ],
      [
        "01",
        -9.953388003574224
      ],
      [
        "▁apgyvendinimo",
        -9.953699312413828
      ],
      [
        "▁118",
        -9.954275174563133
      ],
      [
        "pe",
        -9.954730975275764
      ],
      [
        "▁reikalingas",
        -9.954965800546614
      ],
      [
        "▁Bo",
        -9.955242443215912
      ],
      [
        "log",
        -9.955853776088773
      ],
      [
        "fik",
        -9.956234456055862
      ],
      [
        "▁specialistai",
        -9.956364709727948
      ],
      [
        "▁pasakė",
        -9.956867486976408
      ],
      [
        "▁patirties",
        -9.95751525483884
      ],
      [
        "▁Dažnai",
        -9.95752803070318
      ],
      [
        "­ti",
        -9.95796481055953
      ],
      [
        "▁išties",
        -9.958573603974843
      ],
      [
        "▁santykius",
        -9.958685895012714
      ],
      [
        "▁silpn",
        -9.958814040086793
      ],
      [
        "▁pasaulis",
        -9.958837109744346
      ],
      [
        "▁santykiai",
        -9.958855470409672
      ],
      [
        "▁42",
        -9.959044596056355
      ],
      [
        "▁savaitės",
        -9.959305940578787
      ],
      [
        "▁susiję",
        -9.959462703700181
      ],
      [
        "▁Jus",
        -9.95980800941526
      ],
      [
        "▁pagalbą",
        -9.960120668368521
      ],
      [
        "▁pasaulini",
        -9.960741442127276
      ],
      [
        "▁elektronini",
        -9.962342592479768
      ],
      [
        "▁prasideda",
        -9.962477088979561
      ],
      [
        "▁netoli",
        -9.963206928056039
      ],
      [
        "▁rūšių",
        -9.964249636606372
      ],
      [
        "▁seniai",
        -9.964476178128809
      ],
      [
        "auskas",
        -9.964634818857794
      ],
      [
        "37",
        -9.96477090417552
      ],
      [
        "▁sk",
        -9.964954285339978
      ],
      [
        "▁palyginti",
        -9.965030270320835
      ],
      [
        "▁Da",
        -9.965145374316677
      ],
      [
        "zo",
        -9.965688830607455
      ],
      [
        "▁padarė",
        -9.965835528992834
      ],
      [
        "▁nepasi",
        -9.965867837349222
      ],
      [
        "▁Lietuvoje,",
        -9.966639192784294
      ],
      [
        "▁ėmė",
        -9.966954268622478
      ],
      [
        "ą;",
        -9.967090519223614
      ],
      [
        "lai",
        -9.967236457128458
      ],
      [
        "▁žiūrėti",
        -9.967293452551843
      ],
      [
        "▁istoriją",
        -9.967711597665629
      ],
      [
        "▁viešojo",
        -9.967842901354249
      ],
      [
        "fe",
        -9.968938722687865
      ],
      [
        "▁mokyklą",
        -9.969253221813693
      ],
      [
        "▁moterys",
        -9.969253255249559
      ],
      [
        "▁susijusi",
        -9.969642529185041
      ],
      [
        "▁parodė",
        -9.969695230752517
      ],
      [
        "▁leis",
        -9.970188759101358
      ],
      [
        "▁būstą",
        -9.970281798255904
      ],
      [
        "▁situaciją",
        -9.97056882411954
      ],
      [
        "▁41",
        -9.970696017796282
      ],
      [
        "▁apskritai",
        -9.971034016664776
      ],
      [
        "▁Pu",
        -9.97117106698913
      ],
      [
        "lit",
        -9.971344199080349
      ],
      [
        "▁gamyba",
        -9.971483946330705
      ],
      [
        "džio",
        -9.97246453958857
      ],
      [
        "75",
        -9.972542556777308
      ],
      [
        "▁mėgsta",
        -9.973085108197049
      ],
      [
        "▁reikalinga",
        -9.973185354814245
      ],
      [
        "▁organizacijų",
        -9.973247363409289
      ],
      [
        "▁Tinka",
        -9.973313297822806
      ],
      [
        "iuose",
        -9.973807412203385
      ],
      [
        "ma,",
        -9.973897127677645
      ],
      [
        "▁2006",
        -9.974097377708645
      ],
      [
        "VšĮ",
        -9.974527870533677
      ],
      [
        "▁Marijampolės",
        -9.974772415033389
      ],
      [
        "▁palikti",
        -9.975196204533301
      ],
      [
        "ža",
        -9.97535885462338
      ],
      [
        "mis.",
        -9.975894908092886
      ],
      [
        "▁Kėdainių",
        -9.97728011288553
      ],
      [
        "▁Pas",
        -9.9775367161287
      ],
      [
        "kus",
        -9.977648529939
      ],
      [
        "▁rusų",
        -9.977675771327526
      ],
      [
        "36",
        -9.977856736262723
      ],
      [
        "▁taryba",
        -9.978150191467126
      ],
      [
        "▁vardu",
        -9.978267917757528
      ],
      [
        "▁Di",
        -9.978377787401763
      ],
      [
        "umą,",
        -9.97844171453145
      ],
      [
        "▁galerija",
        -9.978606482682956
      ],
      [
        "▁pakeisdam",
        -9.979184113417393
      ],
      [
        "analinis",
        -9.979367203042502
      ],
      [
        "Asmeniniai",
        -9.979400537635616
      ],
      [
        "▁baldai",
        -9.979402717374997
      ],
      [
        "▁naujienų",
        -9.979830240196911
      ],
      [
        "▁Me",
        -9.979978321905422
      ],
      [
        "▁5.",
        -9.980410863005647
      ],
      [
        "13",
        -9.980719991328549
      ],
      [
        "kom",
        -9.980951449777418
      ],
      [
        "▁+370",
        -9.981036143928607
      ],
      [
        "▁turbūt",
        -9.981177643995554
      ],
      [
        "▁užsisakyti",
        -9.981210608967794
      ],
      [
        "ims",
        -9.982131911737106
      ],
      [
        "▁atliko",
        -9.982627778374681
      ],
      [
        "lent",
        -9.983174935015867
      ],
      [
        "inu",
        -9.983714806569921
      ],
      [
        "🙂",
        -9.983822824831044
      ],
      [
        "cija",
        -9.983837678382114
      ],
      [
        "▁Kuo",
        -9.984135036300312
      ],
      [
        "kokią",
        -9.985200526010686
      ],
      [
        "▁kovos",
        -9.985419258660158
      ],
      [
        "▁suprasti",
        -9.985477504082313
      ],
      [
        "▁atostogų",
        -9.986553747042414
      ],
      [
        "▁Jonas",
        -9.98679708389573
      ],
      [
        "amas",
        -9.98754960238395
      ],
      [
        "▁vyrai",
        -9.987767209965956
      ],
      [
        "▁Atsitiktinis",
        -9.98783353321974
      ],
      [
        "▁paskirties",
        -9.988010270387182
      ],
      [
        "49",
        -9.988062957502413
      ],
      [
        "▁Nuolatinė",
        -9.988152454898914
      ],
      [
        "▁Kurti",
        -9.988652458682694
      ],
      [
        "rd",
        -9.988779090485298
      ],
      [
        "žu",
        -9.990377706946557
      ],
      [
        "▁įskaitant",
        -9.990602680666413
      ],
      [
        "▁gydytojas",
        -9.990738410411254
      ],
      [
        "▁pinigus",
        -9.99086542624103
      ],
      [
        "Dėl",
        -9.990922730451295
      ],
      [
        "rin",
        -9.991171443382381
      ],
      [
        "▁taps",
        -9.991182320410507
      ],
      [
        "▁Y",
        -9.991575135932994
      ],
      [
        "▁jaunas",
        -9.991845592119844
      ],
      [
        "▁Ten",
        -9.992379846967069
      ],
      [
        "pal",
        -9.992602312994132
      ],
      [
        "▁(18",
        -9.992989950127404
      ],
      [
        "▁nepra",
        -9.993064857692126
      ],
      [
        "▁No",
        -9.993805786094464
      ],
      [
        "▁nežino",
        -9.994034632994891
      ],
      [
        "▁vaistų",
        -9.994957826657934
      ],
      [
        "elės",
        -9.995051597582709
      ],
      [
        "aisiais",
        -9.995192452423193
      ],
      [
        "▁vertė",
        -9.995566387315996
      ],
      [
        "▁Par",
        -9.99566238031709
      ],
      [
        "▁foto",
        -9.99572693925576
      ],
      [
        "▁Kiekvienas",
        -9.99581369837156
      ],
      [
        "▁susipažinti",
        -9.99590382246954
      ],
      [
        "▁laimėjo",
        -9.996280280558942
      ],
      [
        "▁kiekvienam",
        -9.9963281317686
      ],
      [
        "▁aukštos",
        -9.996465702742949
      ],
      [
        "▁dieną,",
        -9.996937603544666
      ],
      [
        "▁puslapį",
        -9.997254909514488
      ],
      [
        "cookies).",
        -9.997525611034256
      ],
      [
        "▁Ma",
        -9.997957775964185
      ],
      [
        "vie",
        -9.998008471635561
      ],
      [
        "-1",
        -9.998144470843433
      ],
      [
        "len",
        -9.998153851925203
      ],
      [
        "▁partija",
        -9.998783147701666
      ],
      [
        "▁atgal",
        -9.999301912749475
      ],
      [
        "res",
        -9.99932499829172
      ],
      [
        "▁Ačiū",
        -10.001339966169986
      ],
      [
        "▁ateityje",
        -10.001384158312772
      ],
      [
        "▁tyrimą",
        -10.001601027532516
      ],
      [
        "▁(3)",
        -10.001754770843162
      ],
      [
        "pecialieji",
        -10.002168885690537
      ],
      [
        "▁I.",
        -10.002204361077345
      ],
      [
        "jaus",
        -10.002393394212314
      ],
      [
        "▁idėja",
        -10.002607219731924
      ],
      [
        "▁mumis",
        -10.002811468441582
      ],
      [
        "ininkai",
        -10.00284578437386
      ],
      [
        "▁Cituo",
        -10.00344181242815
      ],
      [
        "▁kontroliuoti",
        -10.004039279129426
      ],
      [
        "eksportuoti",
        -10.004536704512578
      ],
      [
        "▁trump",
        -10.004545171555232
      ],
      [
        "▁visais",
        -10.004615096732179
      ],
      [
        "▁srityse",
        -10.004989194982167
      ],
      [
        "▁rašyti",
        -10.005395341348695
      ],
      [
        "▁men",
        -10.005819508315033
      ],
      [
        "-10",
        -10.005822446861902
      ],
      [
        "▁Tuomet",
        -10.005889537181876
      ],
      [
        "▁2004",
        -10.006706907770623
      ],
      [
        "▁žodžiai",
        -10.007231861392086
      ],
      [
        "55",
        -10.007235562800156
      ],
      [
        "por",
        -10.007245141948578
      ],
      [
        "▁info@",
        -10.008106219627209
      ],
      [
        "▁kūrimas",
        -10.00816220196001
      ],
      [
        "inimas",
        -10.008425785217929
      ],
      [
        "▁ja",
        -10.00844151650119
      ],
      [
        "▁jokios",
        -10.008883024743433
      ],
      [
        "▁Bendr",
        -10.009259303597968
      ],
      [
        "000",
        -10.009356064320134
      ],
      [
        "džių",
        -10.009784012165259
      ],
      [
        "▁spaudai",
        -10.009801339895791
      ],
      [
        "▁(5",
        -10.009854426749287
      ],
      [
        "inėmis",
        -10.01022827697251
      ],
      [
        "▁sakyti",
        -10.010713871190848
      ],
      [
        "▁ateina",
        -10.011108094499985
      ],
      [
        "▁B.",
        -10.011470900922241
      ],
      [
        "▁dieną.",
        -10.01179056091338
      ],
      [
        "▁y.",
        -10.011834481118523
      ],
      [
        "TI",
        -10.01201303272737
      ],
      [
        "onas",
        -10.012222403011346
      ],
      [
        "mm",
        -10.012451725572337
      ],
      [
        "38",
        -10.01330171545634
      ],
      [
        "▁laik",
        -10.013412863547906
      ],
      [
        "port",
        -10.013563448396326
      ],
      [
        "▁rinktinės",
        -10.01367659159672
      ],
      [
        "▁sąlygos.",
        -10.014364081197048
      ],
      [
        "▁bažnyčios",
        -10.016368182559908
      ],
      [
        "▁„M",
        -10.01639243357355
      ],
      [
        "▁piliečių",
        -10.01639586574396
      ],
      [
        "89",
        -10.016675742838817
      ],
      [
        "iški",
        -10.017711471258087
      ],
      [
        "▁sistemų",
        -10.017747436574584
      ],
      [
        "amos",
        -10.01776302703354
      ],
      [
        "-19",
        -10.018364884407692
      ],
      [
        "▁būsim",
        -10.018494370031755
      ],
      [
        "Galbūt",
        -10.018643703527022
      ],
      [
        "▁pasirinkimas",
        -10.018677473179388
      ],
      [
        "Jungtinės",
        -10.018783206450912
      ],
      [
        "▁(su",
        -10.019056163315557
      ],
      [
        "avičius",
        -10.019089439079337
      ],
      [
        "TO",
        -10.019432631753432
      ],
      [
        "▁did",
        -10.02000674414645
      ],
      [
        "▁filmo",
        -10.020475271268566
      ],
      [
        "▁saugos",
        -10.020712111848038
      ],
      [
        "▁nurodyti",
        -10.021069635342505
      ],
      [
        "▁46",
        -10.021229059677964
      ],
      [
        "▁mini",
        -10.021559997060177
      ],
      [
        "iniams",
        -10.021809560247714
      ],
      [
        "▁Vai",
        -10.021924976845707
      ],
      [
        "tiniai",
        -10.022054114034471
      ],
      [
        "▁moterims",
        -10.023283730313015
      ],
      [
        "▁Kalėdų",
        -10.024030703768402
      ],
      [
        "▁parduotuvė",
        -10.024952181598568
      ],
      [
        ":00",
        -10.026195710340271
      ],
      [
        "ny",
        -10.026934763339124
      ],
      [
        "imus",
        -10.027115161319854
      ],
      [
        "▁įdomi",
        -10.02722597260627
      ],
      [
        "▁programų",
        -10.027344561192878
      ],
      [
        "▁teises",
        -10.027562921822277
      ],
      [
        "ėjimą",
        -10.028292730293847
      ],
      [
        "dėti",
        -10.02856278001998
      ],
      [
        "▁metais.",
        -10.028822491751846
      ],
      [
        "▁spaudos",
        -10.029696462339913
      ],
      [
        "▁parduoti",
        -10.030032885836842
      ],
      [
        "AL",
        -10.030333551267898
      ],
      [
        "▁institucijos",
        -10.030366982073648
      ],
      [
        "▁sen.",
        -10.030827227511502
      ],
      [
        "AR",
        -10.031364816595753
      ],
      [
        "liau",
        -10.031853193235133
      ],
      [
        "▁tikra",
        -10.032552641010232
      ],
      [
        "pen",
        -10.032772948811957
      ],
      [
        "▁vardą",
        -10.033413364844769
      ],
      [
        "‘",
        -10.033594550641315
      ],
      [
        "–19",
        -10.03372992517115
      ],
      [
        "▁As",
        -10.033761158247458
      ],
      [
        "▁joje",
        -10.034177032278352
      ],
      [
        "pu",
        -10.034267159813385
      ],
      [
        "laisvosios",
        -10.034752495267135
      ],
      [
        "▁Taip,",
        -10.035512677243005
      ],
      [
        "ausi",
        -10.035762559361316
      ],
      [
        "▁matyt",
        -10.035790075416948
      ],
      [
        "▁vienam",
        -10.036069892960374
      ],
      [
        "▁vakarą",
        -10.03670763581112
      ],
      [
        "▁nuomone,",
        -10.036872601347774
      ],
      [
        "uko",
        -10.036886542595205
      ],
      [
        "▁kainuoja",
        -10.03693651963432
      ],
      [
        "lap",
        -10.036982376541847
      ],
      [
        "kuriais",
        -10.037088410378178
      ],
      [
        "39",
        -10.037162312801511
      ],
      [
        "▁sąlygų",
        -10.037260212409919
      ],
      [
        "▁150",
        -10.037597383123035
      ],
      [
        "ov",
        -10.038623493392137
      ],
      [
        "▁pasakyti,",
        -10.038626216769943
      ],
      [
        "▁DELFI",
        -10.040079093807297
      ],
      [
        "▁stiliaus",
        -10.04008026774705
      ],
      [
        "▁reikėjo",
        -10.040217774508992
      ],
      [
        "▁Bar",
        -10.04079974344868
      ],
      [
        "▁asociacijos",
        -10.04149150452831
      ],
      [
        "▁naršyklės",
        -10.042297991781176
      ],
      [
        "▁Toks",
        -10.042566599642402
      ],
      [
        "uv",
        -10.042615748688554
      ],
      [
        "▁savi",
        -10.043496583237939
      ],
      [
        "val.",
        -10.04357176532463
      ],
      [
        "▁Hotel",
        -10.043836949690572
      ],
      [
        "▁Vikipedij",
        -10.044158991977088
      ],
      [
        "▁priedai",
        -10.044247126429404
      ],
      [
        "▁iškart",
        -10.044388851540202
      ],
      [
        "▁lemia",
        -10.0446131626544
      ],
      [
        "iant",
        -10.045303126678565
      ],
      [
        "▁Gim",
        -10.045747263803321
      ],
      [
        "iai,",
        -10.046464058719334
      ],
      [
        "ukai",
        -10.046722591585556
      ],
      [
        "▁tvirtina",
        -10.04684251795483
      ],
      [
        "27",
        -10.047160550192793
      ],
      [
        "▁klausimus",
        -10.047410298133748
      ],
      [
        "oj",
        -10.047629616091495
      ],
      [
        "▁paprasta",
        -10.048403452444944
      ],
      [
        "▁didelį",
        -10.048617860372865
      ],
      [
        "▁stat",
        -10.04861992970237
      ],
      [
        "imas.",
        -10.049145689091686
      ],
      [
        "▁Sa",
        -10.049324041034534
      ],
      [
        "▁taigi",
        -10.049458499623976
      ],
      [
        "▁kompanija",
        -10.050008306548953
      ],
      [
        "▁Ba",
        -10.05040764002314
      ],
      [
        "▁(4",
        -10.05132617348821
      ],
      [
        "▁studentų",
        -10.051801212720491
      ],
      [
        "arba",
        -10.05230851914753
      ],
      [
        "▁manęs",
        -10.052490044124884
      ],
      [
        "plan",
        -10.052605385352026
      ],
      [
        "▁truputį",
        -10.05286341191033
      ],
      [
        "▁Lo",
        -10.053032875980987
      ],
      [
        "▁įvairi",
        -10.053069527369507
      ],
      [
        "▁esi",
        -10.053590219952891
      ],
      [
        "▁savimi",
        -10.054000688405505
      ],
      [
        "▁apygardos",
        -10.054294036349678
      ],
      [
        "▁SU",
        -10.054417626560493
      ],
      [
        "▁ima",
        -10.054628209234615
      ],
      [
        "▁antrą",
        -10.055435164017329
      ],
      [
        "▁pasiūlymus",
        -10.055526901425445
      ],
      [
        "▁poveikį",
        -10.055728943178519
      ],
      [
        "Share",
        -10.055860624751832
      ],
      [
        "▁auto",
        -10.056212301512716
      ],
      [
        "▁struktūra",
        -10.057161346056553
      ],
      [
        "▁44",
        -10.05734521791543
      ],
      [
        "kš",
        -10.057438783628172
      ],
      [
        "▁Ger",
        -10.057698213108429
      ],
      [
        "TE",
        -10.057977346921788
      ],
      [
        "▁bando",
        -10.05929586040166
      ],
      [
        "▁šalys",
        -10.05975241503032
      ],
      [
        "▁pora",
        -10.059955469995703
      ],
      [
        "eris",
        -10.060005892381927
      ],
      [
        "▁nuotraukų",
        -10.060064176580031
      ],
      [
        "▁versija",
        -10.060080232690204
      ],
      [
        "▁ženklas",
        -10.060155155625903
      ],
      [
        "▁pabrėžė",
        -10.060194330583343
      ],
      [
        "tojas",
        -10.06060273902587
      ],
      [
        "▁litų.",
        -10.061170346378457
      ],
      [
        "▁Kovo",
        -10.061319612177272
      ],
      [
        "gos",
        -10.06155649731543
      ],
      [
        "▁fondas",
        -10.061616328212555
      ],
      [
        "▁Kon",
        -10.062428020978139
      ],
      [
        "pūlingas",
        -10.06293027795208
      ],
      [
        "82",
        -10.06308903287195
      ],
      [
        "nk",
        -10.063149533120578
      ],
      [
        "▁esanči",
        -10.063313552486473
      ],
      [
        "▁gale",
        -10.06331872793232
      ],
      [
        "▁pabaigos",
        -10.064109469385292
      ],
      [
        "▁automobilį",
        -10.06436599735476
      ],
      [
        "26",
        -10.064743715144811
      ],
      [
        "▁filmų",
        -10.065933341322413
      ],
      [
        "ele",
        -10.066279076499573
      ],
      [
        "▁metams",
        -10.06664689270799
      ],
      [
        "▁kilo",
        -10.066896760882742
      ],
      [
        "▁Creative",
        -10.066961865093537
      ],
      [
        "rio",
        -10.067052995579395
      ],
      [
        "▁literatūra",
        -10.067356333746348
      ],
      [
        "ana",
        -10.067364914987504
      ],
      [
        "▁sukurta",
        -10.06776848117641
      ],
      [
        "▁kodą",
        -10.068070603607246
      ],
      [
        "▁Vyriausybė",
        -10.0684321463791
      ],
      [
        "▁(M",
        -10.068440447452048
      ],
      [
        "▁Parašykite",
        -10.068840122877146
      ],
      [
        "▁šalį",
        -10.069650853957185
      ],
      [
        "▁tvarkos",
        -10.070174302200375
      ],
      [
        "▁t.y.",
        -10.070217137245848
      ],
      [
        "▁eurų.",
        -10.070368423944839
      ],
      [
        "umas,",
        -10.070410581022545
      ],
      [
        "uotų",
        -10.07042743564444
      ],
      [
        "▁didesnis",
        -10.070794568696959
      ],
      [
        "Į",
        -10.071233906138922
      ],
      [
        "spr",
        -10.0716671305794
      ],
      [
        "unetė",
        -10.072151287770428
      ],
      [
        "ėme",
        -10.072476236151546
      ],
      [
        "▁lova",
        -10.072520528219442
      ],
      [
        "iniais",
        -10.072627339384622
      ],
      [
        "tinių",
        -10.073218514999212
      ],
      [
        "▁šiaip",
        -10.073683067227721
      ],
      [
        "rag",
        -10.074408536167127
      ],
      [
        "▁Prekių",
        -10.076023211430593
      ],
      [
        "▁žaidimų",
        -10.07602882140247
      ],
      [
        "▁technikos",
        -10.076118527808331
      ],
      [
        "▁atrodė",
        -10.076182476888619
      ],
      [
        "▁numatyta",
        -10.076964827505957
      ],
      [
        "▁geriausiai",
        -10.077046677538759
      ],
      [
        "▁spalva",
        -10.077228975857548
      ],
      [
        "▁numeris",
        -10.077469636286484
      ],
      [
        ".info",
        -10.077923092130566
      ],
      [
        "▁Būtent",
        -10.07893333247415
      ],
      [
        "▁t.t.",
        -10.078956883249282
      ],
      [
        "-12",
        -10.078993005907456
      ],
      [
        "▁tiksliai",
        -10.079366238633213
      ],
      [
        "izmo",
        -10.080155548615366
      ],
      [
        "umą.",
        -10.08033256843244
      ],
      [
        "▁Tekstas",
        -10.080405702197574
      ],
      [
        "▁atsakomybės",
        -10.080737294869074
      ],
      [
        "reg",
        -10.080880702058042
      ],
      [
        "▁250",
        -10.080906742133514
      ],
      [
        "elį",
        -10.08098145530941
      ],
      [
        "▁organizacija",
        -10.081017652486205
      ],
      [
        "▁48",
        -10.08103958648557
      ],
      [
        "▁radijo",
        -10.081291526778596
      ],
      [
        "▁nenori",
        -10.08142568385753
      ],
      [
        "▁rezultatus",
        -10.081437238801232
      ],
      [
        "▁(3",
        -10.081462725824183
      ],
      [
        "▁Tokia",
        -10.081526851404087
      ],
      [
        "tojo",
        -10.081670011704144
      ],
      [
        "▁pradžia",
        -10.081718280605386
      ],
      [
        "▁siekti",
        -10.08301451719208
      ],
      [
        "▁Commons",
        -10.08334488338072
      ],
      [
        "65",
        -10.083685202961341
      ],
      [
        "▁dalin",
        -10.08431748196808
      ],
      [
        "tinės",
        -10.084559955012672
      ],
      [
        "▁atitinkam",
        -10.084582655834723
      ],
      [
        "dyti",
        -10.084806111055574
      ],
      [
        "▁kuriai",
        -10.084882446408141
      ],
      [
        "▁rank",
        -10.085001147135394
      ],
      [
        "▁kavos",
        -10.085017635330882
      ],
      [
        "▁atsako",
        -10.085511724389274
      ],
      [
        "▁skaičių",
        -10.086119035656107
      ],
      [
        "▁Licencij",
        -10.086296736301376
      ],
      [
        "▁srities",
        -10.086296758307164
      ],
      [
        "▁Kartais",
        -10.086409605857122
      ],
      [
        "▁skelbia",
        -10.086562495911604
      ],
      [
        "esančius",
        -10.086963126155638
      ],
      [
        "truk",
        -10.086978350660212
      ],
      [
        "▁pasiekė",
        -10.087310675619264
      ],
      [
        "▁patirtis",
        -10.087887477488108
      ],
      [
        "▁ryto",
        -10.088435966520152
      ],
      [
        "niu",
        -10.088772323084477
      ],
      [
        "→",
        -10.089257449313731
      ],
      [
        "bl",
        -10.08963740401503
      ],
      [
        "▁tel.",
        -10.089827823829694
      ],
      [
        "damiesi",
        -10.09092946451684
      ],
      [
        "▁imtis",
        -10.091524400869485
      ],
      [
        "ler",
        -10.09161408731643
      ],
      [
        "▁Si",
        -10.091739729583324
      ],
      [
        "▁balta",
        -10.092442217890987
      ],
      [
        "yt",
        -10.09300368234349
      ],
      [
        "▁skaityti",
        -10.093485580303422
      ],
      [
        "▁nedaug",
        -10.093864100988789
      ],
      [
        "▁Viešbučiai",
        -10.094370473422497
      ],
      [
        "▁Verslo",
        -10.095336576192164
      ],
      [
        "▁dydį",
        -10.095403254209687
      ],
      [
        "Temos",
        -10.095646453035034
      ],
      [
        "▁~",
        -10.09598304917004
      ],
      [
        "▁teism",
        -10.096391103850902
      ],
      [
        "▁kūdikis",
        -10.096697961989328
      ],
      [
        "▁rungtynių",
        -10.096697965491511
      ],
      [
        "23",
        -10.096711620401901
      ],
      [
        "▁didelio",
        -10.096984206292127
      ],
      [
        "▁vykusi",
        -10.097013082723869
      ],
      [
        "ab",
        -10.097703426764006
      ],
      [
        "▁Attribution",
        -10.098192726768726
      ],
      [
        "▁Ja",
        -10.098276744963302
      ],
      [
        "▁Teisinė",
        -10.099014820085568
      ],
      [
        "▁žydų",
        -10.099442545623493
      ],
      [
        "▁sod",
        -10.100157139802054
      ],
      [
        "▁kiet",
        -10.100343335156548
      ],
      [
        "34",
        -10.10065269943211
      ],
      [
        "ininkas",
        -10.10075922118466
      ],
      [
        "▁parodyti",
        -10.101022531162396
      ],
      [
        "eik",
        -10.101142530119454
      ],
      [
        "ros",
        -10.101176924709819
      ],
      [
        "▁pobūdžio",
        -10.101188997744547
      ],
      [
        "-Al",
        -10.101578113512279
      ],
      [
        "van",
        -10.101584742372872
      ],
      [
        "▁jėga",
        -10.101654020103076
      ],
      [
        "▁sex",
        -10.101676107997307
      ],
      [
        "▁analizė",
        -10.102343867309413
      ],
      [
        "▁įtaką",
        -10.102726822470164
      ],
      [
        "▁gyventojams",
        -10.102746622411168
      ],
      [
        "vart",
        -10.102875464063333
      ],
      [
        "▁Prienų",
        -10.102957135718526
      ],
      [
        "▁ind",
        -10.103086799305657
      ],
      [
        "▁dalių",
        -10.10351471150911
      ],
      [
        "▁persi",
        -10.103540519920067
      ],
      [
        "▁Susi",
        -10.104094214621957
      ],
      [
        "▁remontas",
        -10.104694036316216
      ],
      [
        "uojant",
        -10.105366701031132
      ],
      [
        "torių",
        -10.105540804140801
      ],
      [
        "erio",
        -10.10562652399097
      ],
      [
        "▁automobilis",
        -10.105700302331297
      ],
      [
        "▁ryšio",
        -10.10570600976595
      ],
      [
        "59",
        -10.105824108741182
      ],
      [
        "▁Svarbu",
        -10.105868285307608
      ],
      [
        "▁pad",
        -10.106499322711695
      ],
      [
        "ykl",
        -10.10700673167565
      ],
      [
        "▁juod",
        -10.10720717301161
      ],
      [
        "▁virtuvė",
        -10.107390740365844
      ],
      [
        "▁vertinimo",
        -10.10749598410997
      ],
      [
        "▁nekilnojam",
        -10.107746985107177
      ],
      [
        "▁Use",
        -10.107875690324388
      ],
      [
        "▁Ver",
        -10.10805548225392
      ],
      [
        "art",
        -10.109101154186853
      ],
      [
        "▁N.",
        -10.109139051894353
      ],
      [
        "▁pirmas",
        -10.109368068379673
      ],
      [
        "5)",
        -10.109702844747307
      ],
      [
        "▁drauge",
        -10.10971106191844
      ],
      [
        "▁Jono",
        -10.11032527820473
      ],
      [
        "▁salėje",
        -10.110728668217817
      ],
      [
        "▁san",
        -10.110977587398697
      ],
      [
        "▁med",
        -10.111199932705244
      ],
      [
        "▁(K",
        -10.1112743300326
      ],
      [
        "elė",
        -10.111502172671123
      ],
      [
        "anas",
        -10.111556404574657
      ],
      [
        "▁viešbučio",
        -10.11174717519469
      ],
      [
        "ietis",
        -10.11191188728635
      ],
      [
        "28",
        -10.111998110734842
      ],
      [
        "▁vadovo",
        -10.112190739851794
      ],
      [
        "▁vienoje",
        -10.112243187926214
      ],
      [
        "▁parduotuvės",
        -10.112406405406706
      ],
      [
        "-2",
        -10.112485181001169
      ],
      [
        "▁panaši",
        -10.112756105281631
      ],
      [
        "▁mirė",
        -10.11277519063034
      ],
      [
        "▁gyvūnų",
        -10.11280382956774
      ],
      [
        "▁Kinijos",
        -10.11333588684559
      ],
      [
        "▁pagrindinių",
        -10.113339252973105
      ],
      [
        "32",
        -10.113391352885657
      ],
      [
        "dos",
        -10.113635425703666
      ],
      [
        "▁Atsi",
        -10.113665895437457
      ],
      [
        "iausias",
        -10.113782535424352
      ],
      [
        "▁pigiau",
        -10.113923550906208
      ],
      [
        "▁dalykus",
        -10.114291816413072
      ],
      [
        "kio",
        -10.114693657634335
      ],
      [
        "▁slaptažodį",
        -10.114784356127865
      ],
      [
        "▁geriausių",
        -10.115411761529554
      ],
      [
        "si,",
        -10.11558294169915
      ],
      [
        "▁bylos",
        -10.115594211266483
      ],
      [
        "as“",
        -10.115670354849318
      ],
      [
        "%",
        -10.117764867537769
      ],
      [
        "▁Klaipėda",
        -10.11783366485602
      ],
      [
        "▁apylinkės",
        -10.117847422663086
      ],
      [
        "uz",
        -10.118342633480403
      ],
      [
        "ėmė",
        -10.118572396372922
      ],
      [
        "ybę",
        -10.118757736078713
      ],
      [
        "▁Pasaulis",
        -10.119440765052762
      ],
      [
        "▁naujienas",
        -10.120452442165115
      ],
      [
        "▁enciklopedijos.",
        -10.120600563785617
      ],
      [
        "▁daugelio",
        -10.120679613045699
      ],
      [
        "kienė",
        -10.120692481408204
      ],
      [
        "a)",
        -10.121289642731636
      ],
      [
        "▁oda",
        -10.1217022199299
      ],
      [
        "▁valdybos",
        -10.122444564609895
      ],
      [
        "▁pinigai",
        -10.122880045313604
      ],
      [
        "▁didesnė",
        -10.12294882420709
      ],
      [
        "06",
        -10.123170726876985
      ],
      [
        "gan",
        -10.12350910623809
      ],
      [
        "▁Aplinkos",
        -10.123984667149667
      ],
      [
        "vertus,",
        -10.12431378128691
      ],
      [
        "vėj",
        -10.125930981513342
      ],
      [
        "▁draudžiama",
        -10.126061877421664
      ],
      [
        "▁Do",
        -10.126523538467575
      ],
      [
        "igūs",
        -10.126716907066658
      ],
      [
        "▁naudinga",
        -10.127021415601458
      ],
      [
        "▁televizija",
        -10.127028771070885
      ],
      [
        "▁reklama",
        -10.127028854675512
      ],
      [
        "▁reikalavimai",
        -10.127037447288565
      ],
      [
        "Biržų",
        -10.127354668174313
      ],
      [
        "ep",
        -10.127952477170835
      ],
      [
        "▁LŽ",
        -10.12818260007614
      ],
      [
        "▁netrukus",
        -10.128577991863919
      ],
      [
        "▁nurodyta",
        -10.128942829901462
      ],
      [
        "pin",
        -10.13054010197272
      ],
      [
        "ON",
        -10.130581217591114
      ],
      [
        "cijų",
        -10.131449180160878
      ],
      [
        "▁atvejų",
        -10.131656106664185
      ],
      [
        "▁Ge",
        -10.131701131843862
      ],
      [
        "▁gatvėje",
        -10.132032259253503
      ],
      [
        "▁planą",
        -10.132270824471266
      ],
      [
        "▁padėjo",
        -10.133082676890833
      ],
      [
        "▁akių",
        -10.13318736235056
      ],
      [
        "▁porą",
        -10.133583050339865
      ],
      [
        "▁Darbas",
        -10.133657033066719
      ],
      [
        "▁„D",
        -10.133666933035668
      ],
      [
        "▁taisyklių",
        -10.134754426989918
      ],
      [
        "▁bažnyčia",
        -10.134762828527133
      ],
      [
        "▁pirkimų",
        -10.134828937500593
      ],
      [
        "92",
        -10.135471419799206
      ],
      [
        "▁Kategorijos:",
        -10.13602702611881
      ],
      [
        "▁rankas",
        -10.136727056255946
      ],
      [
        "kitės",
        -10.136857557557413
      ],
      [
        "▁žmonių.",
        -10.136866727743431
      ],
      [
        "tys",
        -10.1370985503577
      ],
      [
        "▁kelionė",
        -10.137362542292795
      ],
      [
        "▁ketina",
        -10.137710226573795
      ],
      [
        "lę",
        -10.137768908190306
      ],
      [
        "▁tūkstančių",
        -10.137862538692598
      ],
      [
        "▁rūmų",
        -10.137906804840007
      ],
      [
        "duomenys",
        -10.138861068113535
      ],
      [
        "ding",
        -10.139334966729656
      ],
      [
        "▁projektus",
        -10.139377155631902
      ],
      [
        "▁paskolos",
        -10.139421018897911
      ],
      [
        "▁atsisakyti",
        -10.139506128775537
      ],
      [
        "▁kelionę",
        -10.139545319853246
      ],
      [
        "▁pastato",
        -10.140075700406427
      ],
      [
        "▁švies",
        -10.140097722032422
      ],
      [
        "▁siekiama",
        -10.140131446228748
      ],
      [
        "inėti",
        -10.140411292136767
      ],
      [
        "son",
        -10.141140398997617
      ],
      [
        "▁žemiau",
        -10.141193432456175
      ],
      [
        "daug",
        -10.141417611825052
      ],
      [
        "▁(4)",
        -10.141704960571865
      ],
      [
        "▁dolerių",
        -10.141899828091827
      ],
      [
        "▁komiteto",
        -10.14254250465029
      ],
      [
        "slapukų",
        -10.142567924204563
      ],
      [
        "?“",
        -10.142930409461568
      ],
      [
        "▁didžiausia",
        -10.142994469723508
      ],
      [
        "eli",
        -10.143397284511064
      ],
      [
        "lt",
        -10.143556210621057
      ],
      [
        "MO",
        -10.143576954676615
      ],
      [
        "▁poveikio",
        -10.144107660626624
      ],
      [
        "▁gyveno",
        -10.144192085379988
      ],
      [
        "­r",
        -10.144313726824791
      ],
      [
        "nuo",
        -10.144379746347283
      ],
      [
        "▁nuotrauka",
        -10.144529352591332
      ],
      [
        "EN",
        -10.14457741738606
      ],
      [
        "▁Vakar",
        -10.144777816704295
      ],
      [
        "▁Parduoda",
        -10.145422946414566
      ],
      [
        "iniame",
        -10.145624162617214
      ],
      [
        "Ypač",
        -10.145675107973297
      ],
      [
        "▁poveikis",
        -10.145678727042466
      ],
      [
        "▁vokiečių",
        -10.145678825224808
      ],
      [
        "nd",
        -10.14584546711763
      ],
      [
        "dav",
        -10.146192323863582
      ],
      [
        "▁Spalva",
        -10.146395334643236
      ],
      [
        "▁patvirtino",
        -10.14724486464408
      ],
      [
        "▁darbui",
        -10.14763494712378
      ],
      [
        "fa",
        -10.1477238571796
      ],
      [
        "▁pa­",
        -10.148050111109358
      ],
      [
        "inga",
        -10.14847371460953
      ],
      [
        "▁apskrities",
        -10.148826554412182
      ],
      [
        "▁socialinių",
        -10.148953019884242
      ],
      [
        "▁(pa",
        -10.149267133131456
      ],
      [
        "▁sukūrė",
        -10.149480855436796
      ],
      [
        "▁didžiausias",
        -10.149985914684258
      ],
      [
        "▁socialinio",
        -10.150304879874891
      ],
      [
        "▁pasinaudoti",
        -10.150475612243122
      ],
      [
        "iausia",
        -10.150533849512328
      ],
      [
        "ard",
        -10.150871176609318
      ],
      [
        "▁svetainė",
        -10.151083029718146
      ],
      [
        "▁Naudo",
        -10.152567496240401
      ],
      [
        "▁pažinti",
        -10.1526288714631
      ],
      [
        "▁prašome",
        -10.153263713900056
      ],
      [
        "avimui",
        -10.153358980190792
      ],
      [
        "kių",
        -10.153608796313952
      ],
      [
        "▁Detalia",
        -10.153840546763444
      ],
      [
        "▁problemas",
        -10.154492368693454
      ],
      [
        "▁teikiam",
        -10.154623266321352
      ],
      [
        "lig",
        -10.154978599511862
      ],
      [
        "▁laikotarpį",
        -10.155131263597763
      ],
      [
        "▁kompiuterio",
        -10.155262309238477
      ],
      [
        "▁vadovai",
        -10.155768826173873
      ],
      [
        "▁galioja",
        -10.155773853292509
      ],
      [
        "▁išskyrus",
        -10.155800592304736
      ],
      [
        "mas,",
        -10.15596489921183
      ],
      [
        "▁viešai",
        -10.156162371692595
      ],
      [
        "▁rizikos",
        -10.156715963701336
      ],
      [
        "▁neretai",
        -10.156724282711014
      ],
      [
        "a“",
        -10.15673360347401
      ],
      [
        "evičius",
        -10.156860053995775
      ],
      [
        "one",
        -10.156893248429446
      ],
      [
        "▁apskaitos",
        -10.156978962189333
      ],
      [
        "▁klaus",
        -10.157620821087404
      ],
      [
        "▁sostinės",
        -10.15818265968798
      ],
      [
        "▁kompanijos",
        -10.158303323276293
      ],
      [
        "AX",
        -10.158325924287471
      ],
      [
        "▁Balt",
        -10.158712731873086
      ],
      [
        "▁didelių",
        -10.158952541565977
      ],
      [
        "est",
        -10.15960886618678
      ],
      [
        "▁Vokietijoje",
        -10.159893084378709
      ],
      [
        "▁žiniasklaidos",
        -10.159893132794432
      ],
      [
        "mal",
        -10.16035064747067
      ],
      [
        "▁pašalin",
        -10.160880811020462
      ],
      [
        "▁maža",
        -10.160943461704402
      ],
      [
        "▁muziejaus",
        -10.161485439896579
      ],
      [
        "▁cukraus",
        -10.16152271257003
      ],
      [
        "dži",
        -10.161812807708724
      ],
      [
        "▁(pvz.",
        -10.162421694403118
      ],
      [
        "▁mažiausiai",
        -10.1627605490287
      ],
      [
        "rit",
        -10.162809062372332
      ],
      [
        "▁temperatūra",
        -10.162845900357317
      ],
      [
        "▁pagrindu",
        -10.162884950824939
      ],
      [
        "ES",
        -10.163024883605658
      ],
      [
        "▁El",
        -10.163420198977125
      ],
      [
        "▁tikriausiai",
        -10.163685396922189
      ],
      [
        "▁neįmanoma",
        -10.163784204260184
      ],
      [
        "bendradarbiavimo",
        -10.16398623014591
      ],
      [
        "85",
        -10.16426672389149
      ],
      [
        "▁sukelti",
        -10.164435343614596
      ],
      [
        "▁naudojama",
        -10.164476311692457
      ],
      [
        "Jų",
        -10.16465722499092
      ],
      [
        "▁1000",
        -10.164793523462002
      ],
      [
        "pro",
        -10.164923542818459
      ],
      [
        "šo",
        -10.165117641069477
      ],
      [
        "▁Internetu",
        -10.165242210806596
      ],
      [
        "▁gražiai",
        -10.16532592860602
      ],
      [
        "▁Vaizdo",
        -10.165434865767594
      ],
      [
        "mui",
        -10.1656651386606
      ],
      [
        "▁priima",
        -10.166195758906557
      ],
      [
        "pernelyg",
        -10.166376658748188
      ],
      [
        "▁LED",
        -10.166520218184399
      ],
      [
        "▁teritorijoje",
        -10.166749083882511
      ],
      [
        "▁proceso",
        -10.167211977735716
      ],
      [
        "▁Bal",
        -10.167350155048009
      ],
      [
        "pažin",
        -10.167467235851266
      ],
      [
        "imi",
        -10.167489302307011
      ],
      [
        "▁žaidimo",
        -10.168009662962527
      ],
      [
        "▁blok",
        -10.168309230772827
      ],
      [
        "uos",
        -10.168652882780101
      ],
      [
        "):",
        -10.168877983643394
      ],
      [
        "▁tobul",
        -10.169143863201763
      ],
      [
        "dėjo",
        -10.169368110046518
      ],
      [
        "▁laipsnių",
        -10.16949138233651
      ],
      [
        "▁nuomonę",
        -10.169881229275415
      ],
      [
        "09",
        -10.170261458146062
      ],
      [
        "▁alkoholio",
        -10.170290934352574
      ],
      [
        "▁tekstas",
        -10.170358747361623
      ],
      [
        "žym",
        -10.170549029336463
      ],
      [
        "▁žem",
        -10.170838688401604
      ],
      [
        "ėlių",
        -10.170862675541692
      ],
      [
        "tal",
        -10.17121190945688
      ],
      [
        "▁\"M",
        -10.171243467064908
      ],
      [
        "▁būdų",
        -10.17128078204949
      ],
      [
        "▁atsakyti",
        -10.171300669367984
      ],
      [
        "▁stovi",
        -10.17133450719544
      ],
      [
        "43",
        -10.171733522217227
      ],
      [
        "48",
        -10.17173577856198
      ],
      [
        "Nėra",
        -10.17191815033802
      ],
      [
        "▁naudos",
        -10.172071082476648
      ],
      [
        "▁BNS",
        -10.172198566035025
      ],
      [
        "sek",
        -10.172286383973905
      ],
      [
        "jimą",
        -10.172580104386896
      ],
      [
        "▁sunki",
        -10.17312509684092
      ],
      [
        "lyje",
        -10.173166373816313
      ],
      [
        "▁turtą",
        -10.173172135705881
      ],
      [
        "ėjai",
        -10.173700846533011
      ],
      [
        "▁neap",
        -10.173797973010988
      ],
      [
        "▁uosto",
        -10.173845882546289
      ],
      [
        "▁laisvę",
        -10.174786288140925
      ],
      [
        "▁patiko",
        -10.1748917027318
      ],
      [
        "rd.",
        -10.175072569507
      ],
      [
        "esnės",
        -10.175502483732078
      ],
      [
        "▁žinias",
        -10.175627984649832
      ],
      [
        "▁15min.lt",
        -10.175821533655412
      ],
      [
        "▁Lu",
        -10.17594054328617
      ],
      [
        "▁dėka",
        -10.176141626438152
      ],
      [
        "ymą",
        -10.176155274443566
      ],
      [
        "ves",
        -10.176163234470604
      ],
      [
        "mė",
        -10.176213124788344
      ],
      [
        "▁neuž",
        -10.176390564125004
      ],
      [
        "▁tikėtis",
        -10.177036608080295
      ],
      [
        "▁ryšių",
        -10.177583004519658
      ],
      [
        "▁konkurso",
        -10.177590948640113
      ],
      [
        "bė",
        -10.178044031964106
      ],
      [
        "Trakų",
        -10.178181003777025
      ],
      [
        "▁raudon",
        -10.178394253853899
      ],
      [
        "▁valandos",
        -10.17917239794458
      ],
      [
        "▁Kitas",
        -10.17929335123987
      ],
      [
        "▁paštas:",
        -10.179718546812017
      ],
      [
        "kia",
        -10.179817034001958
      ],
      [
        "▁pagaliau",
        -10.180480437618517
      ],
      [
        "▁parašyti",
        -10.18059083823639
      ],
      [
        "▁stipriai",
        -10.181119936633603
      ],
      [
        "▁stal",
        -10.181187291226607
      ],
      [
        "▁Bažnyčios",
        -10.181391060803808
      ],
      [
        "tan",
        -10.18215445047429
      ],
      [
        "▁Uždar",
        -10.18349996935822
      ],
      [
        "inta",
        -10.183569172357773
      ],
      [
        "▁Vi",
        -10.183767249028893
      ],
      [
        "▁„F",
        -10.183887135039617
      ],
      [
        "▁se",
        -10.184126850669461
      ],
      [
        "▁svečių",
        -10.184170640030164
      ],
      [
        "▁bendrauti",
        -10.184205016872076
      ],
      [
        "▁jaučia",
        -10.185214680649223
      ],
      [
        "▁organ",
        -10.185252444045425
      ],
      [
        "▁svetim",
        -10.185412806951057
      ],
      [
        "▁Savivaldybės",
        -10.185939810008499
      ],
      [
        "▁pašalinti",
        -10.185946677769543
      ],
      [
        "▁atėjo",
        -10.186019752459583
      ],
      [
        "▁gražus",
        -10.186077769354466
      ],
      [
        "▁praktikos",
        -10.186282236425118
      ],
      [
        "rib",
        -10.18635333481328
      ],
      [
        "▁Interneto",
        -10.18661468007269
      ],
      [
        "▁padėtis",
        -10.186779703868236
      ],
      [
        "iškių",
        -10.18756800681933
      ],
      [
        "53",
        -10.187589596731753
      ],
      [
        "▁užsienyje",
        -10.188074310162515
      ],
      [
        "57",
        -10.18864468243991
      ],
      [
        "▁didelę",
        -10.188990352346954
      ],
      [
        "▁vaiką",
        -10.18906058045527
      ],
      [
        "51",
        -10.189063969329151
      ],
      [
        "▁pranešimą",
        -10.189135432811671
      ],
      [
        "▁paramą",
        -10.189224696186905
      ],
      [
        "▁ministro",
        -10.189264812681767
      ],
      [
        "ket",
        -10.189547654761082
      ],
      [
        "▁abu",
        -10.189738566347934
      ],
      [
        "▁poreikius",
        -10.190031265918428
      ],
      [
        "▁patvirtina",
        -10.19016402860309
      ],
      [
        "▁investicijų",
        -10.190590163514837
      ],
      [
        "▁reikalavimų",
        -10.190595478331257
      ],
      [
        "žio",
        -10.19079012880647
      ],
      [
        "Veiksmo",
        -10.19148902469723
      ],
      [
        "▁Te",
        -10.191996871353936
      ],
      [
        "Siekdami",
        -10.192233742752087
      ],
      [
        "▁žodžio",
        -10.192235903868886
      ],
      [
        "▁įvairius",
        -10.192780909433406
      ],
      [
        "▁stipri",
        -10.193258017448688
      ],
      [
        "▁siūl",
        -10.1937542982043
      ],
      [
        "▁Vilkaviškyje",
        -10.193876928432191
      ],
      [
        "▁Šių",
        -10.193989699406256
      ],
      [
        "▁žodžius",
        -10.194031502576568
      ],
      [
        "ša",
        -10.194069585767362
      ],
      [
        "oma",
        -10.194079466824281
      ],
      [
        "▁mar",
        -10.19512441056677
      ],
      [
        "▁globos",
        -10.195607483118525
      ],
      [
        "▁akcinė",
        -10.195665077999745
      ],
      [
        "▁autorius",
        -10.195764672020509
      ],
      [
        "▁generalini",
        -10.195794439000213
      ],
      [
        "▁kitomis",
        -10.196530908783757
      ],
      [
        "▁pirmo",
        -10.19657698818273
      ],
      [
        "▁gydymas",
        -10.197198307524506
      ],
      [
        "▁Žmonės",
        -10.197313601022586
      ],
      [
        "▁kitu",
        -10.198287686280288
      ],
      [
        "▁sudarė",
        -10.19833371520911
      ],
      [
        "▁mokesčio",
        -10.198827444174828
      ],
      [
        "▁iPhone",
        -10.198849623471986
      ],
      [
        "tiems,",
        -10.19896708106454
      ],
      [
        "▁aiškino",
        -10.199206823031297
      ],
      [
        "▁keturi",
        -10.19946129953459
      ],
      [
        "▁kartos",
        -10.199658016188666
      ],
      [
        "ien",
        -10.200363603683693
      ],
      [
        "ajam",
        -10.201052063367776
      ],
      [
        "▁(6",
        -10.201054472121207
      ],
      [
        "▁Ha",
        -10.201936282947072
      ],
      [
        "tem",
        -10.202007733514742
      ],
      [
        "žiū",
        -10.20201521767999
      ],
      [
        "▁Apple",
        -10.202309064089974
      ],
      [
        "▁čempionato",
        -10.202616266035417
      ],
      [
        "31",
        -10.202850836663956
      ],
      [
        "OR",
        -10.203522822657671
      ],
      [
        "▁automobiliai",
        -10.203802595682252
      ],
      [
        "▁vandenį",
        -10.20386255048843
      ],
      [
        "▁kilmės",
        -10.203918863808424
      ],
      [
        "▁kokiu",
        -10.203967128574778
      ],
      [
        "mar",
        -10.204043948715075
      ],
      [
        "▁įvertinimas",
        -10.204455031694643
      ],
      [
        "▁visko",
        -10.204542429559517
      ],
      [
        "▁aiški",
        -10.204838729837931
      ],
      [
        "47",
        -10.205094271538753
      ],
      [
        "▁papildomai",
        -10.205184412638177
      ],
      [
        "▁valg",
        -10.20540330976558
      ],
      [
        "▁ateities",
        -10.205776367710078
      ],
      [
        "▁padidinti",
        -10.206373030823265
      ],
      [
        "▁filmai",
        -10.206580701334172
      ],
      [
        "▁pus",
        -10.206693906766768
      ],
      [
        "▁for",
        -10.206710357410099
      ],
      [
        "▁Viki",
        -10.207076903647208
      ],
      [
        "↑",
[...]
