{
  "version": "1.0",
  "truncation": null,
  "padding": null,
  "added_tokens": [
    {
      "id": 0,
      "content": "[UNK]",
      "single_word": false,
      "lstrip": false,
      "rstrip": false,
      "normalized": false,
      "special": true
    },
    {
      "id": 1,
      "content": "[CLS]",
      "single_word": false,
      "lstrip": false,
      "rstrip": false,
      "normalized": false,
      "special": true
    },
    {
      "id": 2,
      "content": "[SEP]",
      "single_word": false,
      "lstrip": false,
      "rstrip": false,
      "normalized": false,
      "special": true
    },
    {
      "id": 3,
      "content": "[PAD]",
      "single_word": false,
      "lstrip": false,
      "rstrip": false,
      "normalized": false,
      "special": true
    },
    {
      "id": 4,
      "content": "[MASK]",
      "single_word": false,
      "lstrip": false,
      "rstrip": false,
      "normalized": false,
      "special": true
    }
  ],
  "normalizer": {
    "type": "Sequence",
    "normalizers": [
      {
        "type": "Nmt"
      },
      {
        "type": "NFKC"
      },
      {
        "type": "Replace",
        "pattern": {
          "Regex": " {2,}"
        },
        "content": " "
      }
    ]
  },
  "pre_tokenizer": {
    "type": "Metaspace",
    "replacement": "▁",
    "prepend_scheme": "always",
    "split": true
  },
  "post_processor": null,
  "decoder": {
    "type": "Metaspace",
    "replacement": "▁",
    "prepend_scheme": "always",
    "split": true
  },
  "model": {
    "type": "Unigram",
    "unk_id": null,
    "vocab": [
      [
        "[UNK]",
        0.0
      ],
      [
        "[CLS]",
        0.0
      ],
      [
        "[SEP]",
        0.0
      ],
      [
        "[PAD]",
        0.0
      ],
      [
        "[MASK]",
        0.0
      ],
      [
        "▁",
        -2.9652650702543735
      ],
      [
        ",",
        -3.492218867690811
      ],
      [
        "▁ve",
        -4.086866324408925
      ],
      [
        "▁bir",
        -4.355359501128577
      ],
      [
        ".",
        -4.483599843941491
      ],
      [
        "n",
        -4.822617628838355
      ],
      [
        "▁bu",
        -5.309484140343107
      ],
      [
        "▁için",
        -5.343093713571749
      ],
      [
        "e",
        -5.412195349376736
      ],
      [
        "a",
        -5.446150417104693
      ],
      [
        "▁de",
        -5.480642865633122
      ],
      [
        "▁da",
        -5.519985672062996
      ],
      [
        "▁ile",
        -5.5598421113875816
      ],
      [
        ":",
        -5.688215702614423
      ],
      [
        "i",
        -5.696689492334874
      ],
      [
        ")",
        -5.701888233713207
      ],
      [
        "▁çok",
        -5.852203369627956
      ],
      [
        "▁olarak",
        -5.893316178846305
      ],
      [
        "▁Bu",
        -5.898540172819677
      ],
      [
        "ler",
        -6.080115759292756
      ],
      [
        "...",
        -6.092077477512062
      ],
      [
        "▁daha",
        -6.096116968248273
      ],
      [
        "”",
        -6.097103710362877
      ],
      [
        "lar",
        -6.100915859153966
      ],
      [
        "▁olan",
        -6.125181393583675
      ],
      [
        "▁-",
        -6.149806774305873
      ],
      [
        "▁en",
        -6.153579314470422
      ],
      [
        "m",
        -6.172131465521302
      ],
      [
        "k",
        -6.202470102741408
      ],
      [
        "da",
        -6.249927641778742
      ],
      [
        "de",
        -6.269866694160214
      ],
      [
        "▁(",
        -6.2841353583367905
      ],
      [
        "na",
        -6.3019539637646815
      ],
      [
        "▁gibi",
        -6.303509112380151
      ],
      [
        "nin",
        -6.305808137636861
      ],
      [
        "leri",
        -6.330685485540073
      ],
      [
        "▁kadar",
        -6.3441336415174465
      ],
      [
        "ne",
        -6.350031657509108
      ],
      [
        "in",
        -6.369365715286333
      ],
      [
        "-",
        -6.415114716214326
      ],
      [
        "ları",
        -6.432636087348818
      ],
      [
        "ya",
        -6.454813285251635
      ],
      [
        "▁her",
        -6.47281336432968
      ],
      [
        "\"",
        -6.47486659468502
      ],
      [
        "li",
        -6.506579141726199
      ],
      [
        ";",
        -6.518025552976605
      ],
      [
        "ki",
        -6.529033380881593
      ],
      [
        "▁“",
        -6.54821946483529
      ],
      [
        "ye",
        -6.555125410592574
      ],
      [
        "nın",
        -6.572860143507047
      ],
      [
        "▁ne",
        -6.587027109179811
      ],
      [
        "la",
        -6.615731481098752
      ],
      [
        "le",
        -6.628222216050871
      ],
      [
        "den",
        -6.630776326248135
      ],
      [
        "▁sonra",
        -6.660182508874557
      ],
      [
        "ı",
        -6.671147874638391
      ],
      [
        "dan",
        -6.702189273821931
      ],
      [
        "▁o",
        -6.712725870218119
      ],
      [
        "si",
        -6.758786496946765
      ],
      [
        "!",
        -6.759091845035488
      ],
      [
        "p",
        -6.785338530196547
      ],
      [
        "?",
        -6.8011339749456035
      ],
      [
        "lı",
        -6.84010287837509
      ],
      [
        "▁iyi",
        -6.908503599705291
      ],
      [
        "▁Bir",
        -6.909664713366812
      ],
      [
        "▁ise",
        -6.9126983147838015
      ],
      [
        "▁zaman",
        -6.935859032965453
      ],
      [
        "▁ama",
        -6.939472702313095
      ],
      [
        "▁veya",
        -6.9457727342495215
      ],
      [
        "▁ya",
        -6.9486457676246705
      ],
      [
        "▁büyük",
        -6.959088123152169
      ],
      [
        "t",
        -6.959943955833138
      ],
      [
        "▁\"",
        -6.9668374913248705
      ],
      [
        "▁yeni",
        -6.973892037843921
      ],
      [
        "ni",
        -6.975874458551264
      ],
      [
        "s",
        -6.988574780747264
      ],
      [
        "lerin",
        -6.9959256561168655
      ],
      [
        "▁yer",
        -6.998692583186893
      ],
      [
        "▁ilk",
        -7.001595560960494
      ],
      [
        "▁1",
        -7.039072125913632
      ],
      [
        "’",
        -7.042665231854871
      ],
      [
        "▁2",
        -7.058749805792047
      ],
      [
        "'",
        -7.063547889276457
      ],
      [
        "▁olduğu",
        -7.065979285277587
      ],
      [
        "ların",
        -7.0919120180306106
      ],
      [
        "▁tarafından",
        -7.094755048924526
      ],
      [
        "z",
        -7.096705746848736
      ],
      [
        "▁3",
        -7.143633177094474
      ],
      [
        "▁önce",
        -7.143667240045357
      ],
      [
        "▁var",
        -7.143868571903301
      ],
      [
        "▁ki",
        -7.150553957054365
      ],
      [
        "u",
        -7.176103053527591
      ],
      [
        "▁gün",
        -7.182044134215717
      ],
      [
        "▁#",
        -7.183203867201961
      ],
      [
        "te",
        -7.186961023315257
      ],
      [
        "dir.",
        -7.207099719167925
      ],
      [
        "▁O",
        -7.208379828010896
      ],
      [
        "▁şekilde",
        -7.211867689551873
      ],
      [
        "▁yıl",
        -7.212400009704041
      ],
      [
        "r",
        -7.218480440060533
      ],
      [
        "yi",
        -7.219613874596513
      ],
      [
        "▁iki",
        -7.22014124473529
      ],
      [
        "▁göre",
        -7.222196405464988
      ],
      [
        "ın",
        -7.222775904950062
      ],
      [
        "▁olduğunu",
        -7.237693296943055
      ],
      [
        "▁ilgili",
        -7.248407503073084
      ],
      [
        "lere",
        -7.251782547685117
      ],
      [
        "▁son",
        -7.260418108689564
      ],
      [
        "y",
        -7.262980171735341
      ],
      [
        "sı",
        -7.26554624972783
      ],
      [
        "ma",
        -7.270548179825308
      ],
      [
        "▁güzel",
        -7.2733612699070935
      ],
      [
        "▁–",
        -7.287557351174353
      ],
      [
        "yla",
        -7.292104572916413
      ],
      [
        "ta",
        -7.30540467509832
      ],
      [
        "lara",
        -7.311512790376655
      ],
      [
        "▁tüm",
        -7.318242133817803
      ],
      [
        "▁devam",
        -7.31851000987691
      ],
      [
        "en",
        -7.319262919044705
      ],
      [
        "▁diye",
        -7.3239409102501405
      ],
      [
        "lik",
        -7.330277787929052
      ],
      [
        "▁içinde",
        -7.331598674610072
      ],
      [
        "▁fazla",
        -7.341906393533446
      ],
      [
        "an",
        -7.349012587581933
      ],
      [
        "/",
        -7.355695453392729
      ],
      [
        "yle",
        -7.358609384299779
      ],
      [
        "▁önemli",
        -7.372290179292353
      ],
      [
        "▁Türk",
        -7.391408259420324
      ],
      [
        "▁Türkiye",
        -7.391591428284375
      ],
      [
        "larını",
        -7.392037148370655
      ],
      [
        "l",
        -7.397740414193898
      ],
      [
        "▁arasında",
        -7.398293095618209
      ],
      [
        "lerini",
        -7.403023256526575
      ],
      [
        "nda",
        -7.412695759838945
      ],
      [
        "dır.",
        -7.424559814189372
      ],
      [
        "▁hem",
        -7.424767597357636
      ],
      [
        "▁şey",
        -7.426519640738107
      ],
      [
        "▁5",
        -7.433576117142307
      ],
      [
        "▁4",
        -7.444564899524085
      ],
      [
        "▁ben",
        -7.450831157469381
      ],
      [
        "▁aynı",
        -7.454808511323003
      ],
      [
        "yı",
        -7.467929314401715
      ],
      [
        "nı",
        -7.468717961771393
      ],
      [
        "▁kendi",
        -7.476440139168922
      ],
      [
        "▁karşı",
        -7.4945203369233955
      ],
      [
        "▁nasıl",
        -7.498704847555578
      ],
      [
        "er",
        -7.514097435825896
      ],
      [
        "..",
        -7.515797378302583
      ],
      [
        "me",
        -7.517825885113933
      ],
      [
        "▁10",
        -7.537934347329106
      ],
      [
        "▁sadece",
        -7.542019498431001
      ],
      [
        "▁bile",
        -7.546261868997842
      ],
      [
        "▁diğer",
        -7.54721763412242
      ],
      [
        "tan",
        -7.554814095374365
      ],
      [
        "▁2018",
        -7.571441270068872
      ],
      [
        "▁sahip",
        -7.576616230056553
      ],
      [
        "sa",
        -7.577346010266654
      ],
      [
        "d",
        -7.578545744259923
      ],
      [
        "▁A",
        -7.57991475595429
      ],
      [
        "▁tek",
        -7.5939232838356165
      ],
      [
        "▁iş",
        -7.595307363832264
      ],
      [
        "▁birlikte",
        -7.595850717653361
      ],
      [
        "▁olmak",
        -7.600140973489857
      ],
      [
        "o",
        -7.602857423227682
      ],
      [
        "ca",
        -7.603595461733169
      ],
      [
        "▁alan",
        -7.621242552716113
      ],
      [
        "▁var.",
        -7.62981494738318
      ],
      [
        "’in",
        -7.63173275463088
      ],
      [
        "▁farklı",
        -7.634531114901931
      ],
      [
        "▁eden",
        -7.635110960932037
      ],
      [
        "▁yılında",
        -7.653213231210556
      ],
      [
        "ten",
        -7.655605130156015
      ],
      [
        "▁gelen",
        -7.666705503346542
      ],
      [
        "▁doğru",
        -7.68736532997111
      ],
      [
        "lu",
        -7.688115784888675
      ],
      [
        "▁S",
        -7.688837033548825
      ],
      [
        "nde",
        -7.691314195326784
      ],
      [
        "’ın",
        -7.711220793206353
      ],
      [
        "▁hiç",
        -7.71174598010588
      ],
      [
        "’da",
        -7.712788667240364
      ],
      [
        "▁özel",
        -7.716405348898055
      ],
      [
        "lık",
        -7.719330063925247
      ],
      [
        "▁az",
        -7.722658165130985
      ],
      [
        "ndan",
        -7.7388087447451355
      ],
      [
        "▁başka",
        -7.742550674752053
      ],
      [
        "▁‘",
        -7.748481369996412
      ],
      [
        "se",
        -7.760850228700864
      ],
      [
        "larda",
        -7.771179780302397
      ],
      [
        "▁bin",
        -7.771781848022227
      ],
      [
        "di",
        -7.772453746053932
      ],
      [
        "▁yapılan",
        -7.781468736381994
      ],
      [
        "▁bilgi",
        -7.782289037646018
      ],
      [
        "▁Her",
        -7.7825817125623775
      ],
      [
        "lar.",
        -7.791575609257206
      ],
      [
        "▁Başkanı",
        -7.791632959803801
      ],
      [
        "▁/",
        -7.793992341988719
      ],
      [
        "larının",
        -7.794907017524652
      ],
      [
        "▁6",
        -7.795095101907258
      ],
      [
        "'in",
        -7.799066659435578
      ],
      [
        "lerine",
        -7.800285193554059
      ],
      [
        "▁İstanbul",
        -7.813457760269964
      ],
      [
        "▁bulunan",
        -7.82078085549799
      ],
      [
        "’de",
        -7.840781933806225
      ],
      [
        "▁su",
        -7.842322831026278
      ],
      [
        "ini",
        -7.846325012567668
      ],
      [
        "▁kişi",
        -7.851714322935836
      ],
      [
        "ce",
        -7.857887756547434
      ],
      [
        "▁olması",
        -7.8604217375937
      ],
      [
        "▁Ne",
        -7.862478703624262
      ],
      [
        "▁Ve",
        -7.865343719586686
      ],
      [
        "lerden",
        -7.865493347089856
      ],
      [
        "lerde",
        -7.867757920704687
      ],
      [
        "larına",
        -7.870173592061539
      ],
      [
        "mi",
        -7.870659245131581
      ],
      [
        "’nin",
        -7.872494960226122
      ],
      [
        "▁değil",
        -7.873750132013072
      ],
      [
        "'ın",
        -7.874953077566353
      ],
      [
        "lerinin",
        -7.875992611766938
      ],
      [
        "▁B",
        -7.87641140447888
      ],
      [
        "miz",
        -7.8766188801740125
      ],
      [
        "▁Genel",
        -7.877937336527687
      ],
      [
        "▁C",
        -7.886560100938642
      ],
      [
        "▁insan",
        -7.889708879442631
      ],
      [
        "▁biri",
        -7.891766769586958
      ],
      [
        "▁hakkında",
        -7.8976828424778915
      ],
      [
        "▁15",
        -7.900138965106677
      ],
      [
        "▁_",
        -7.902274921548875
      ],
      [
        "▁Ben",
        -7.9031166824426045
      ],
      [
        "▁uygun",
        -7.906736717705794
      ],
      [
        "▁Eğitim",
        -7.910702783981499
      ],
      [
        "▁üzerine",
        -7.912503548034996
      ],
      [
        "▁En",
        -7.916588542871155
      ],
      [
        "'da",
        -7.9195280861768715
      ],
      [
        "▁kabul",
        -7.919851690422956
      ],
      [
        "▁üzerinde",
        -7.928386271807696
      ],
      [
        "▁K",
        -7.929989469636913
      ],
      [
        "▁ortaya",
        -7.93033515777317
      ],
      [
        "▁üzere",
        -7.930814016181857
      ],
      [
        "niz",
        -7.931215329755082
      ],
      [
        "▁Ama",
        -7.934425984696565
      ],
      [
        "▁uzun",
        -7.941190191191623
      ],
      [
        "un",
        -7.942445255903035
      ],
      [
        "▁böyle",
        -7.943523170929657
      ],
      [
        "ü",
        -7.944693740706166
      ],
      [
        "▁yok",
        -7.945720389683242
      ],
      [
        "▁benim",
        -7.950977413828397
      ],
      [
        "lar,",
        -7.955318192908237
      ],
      [
        "▁7",
        -7.955805033034007
      ],
      [
        "▁ay",
        -7.960834923495341
      ],
      [
        "ler,",
        -7.961406477197562
      ],
      [
        "ine",
        -7.962848746762884
      ],
      [
        "▁Dr.",
        -7.963205088479663
      ],
      [
        "▁hizmet",
        -7.9658118896518815
      ],
      [
        "▁şu",
        -7.966612123621795
      ],
      [
        "▁oldu.",
        -7.972471811369683
      ],
      [
        "lardan",
        -7.972584087021325
      ],
      [
        "▁yüksek",
        -7.9741111785010865
      ],
      [
        "’a",
        -7.9762867245403815
      ],
      [
        "▁tam",
        -7.979113702284501
      ],
      [
        "h",
        -7.981093385617525
      ],
      [
        "▁bütün",
        -7.984170301182006
      ],
      [
        "al",
        -7.991361954475517
      ],
      [
        "▁Yeni",
        -7.991987216007566
      ],
      [
        "ci",
        -7.994140308749143
      ],
      [
        "nden",
        -7.99453095130729
      ],
      [
        "▁neden",
        -7.999118429183389
      ],
      [
        "▁etmek",
        -7.9995966980071795
      ],
      [
        "▁ancak",
        -8.001941582041702
      ],
      [
        "K",
        -8.00246067066687
      ],
      [
        "im",
        -8.010813103267711
      ],
      [
        "▁saat",
        -8.0127299362369
      ],
      [
        "▁eğitim",
        -8.019834049260858
      ],
      [
        "▁20",
        -8.029630435692932
      ],
      [
        "▁açık",
        -8.031649127236959
      ],
      [
        "▁Üniversitesi",
        -8.032277482381541
      ],
      [
        "lerle",
        -8.040886466347299
      ],
      [
        "▁konusunda",
        -8.044267100298164
      ],
      [
        "’nın",
        -8.045173861169335
      ],
      [
        "'de",
        -8.04905409798798
      ],
      [
        "▁an",
        -8.050867691382955
      ],
      [
        "g",
        -8.056120546152588
      ],
      [
        "nız",
        -8.057359003700583
      ],
      [
        "▁yine",
        -8.061123624059235
      ],
      [
        "f",
        -8.06126362171805
      ],
      [
        "▁mi",
        -8.065469851843298
      ],
      [
        "▁Ancak",
        -8.066802166695124
      ],
      [
        "mız",
        -8.071391089038515
      ],
      [
        "▁D",
        -8.074803241373745
      ],
      [
        "▁bunu",
        -8.075850135238168
      ],
      [
        "▁dedi.",
        -8.082706525467778
      ],
      [
        "▁süre",
        -8.084995931688901
      ],
      [
        "▁dikkat",
        -8.085237913529067
      ],
      [
        "▁kez",
        -8.088149227716938
      ],
      [
        "▁size",
        -8.096614958563386
      ],
      [
        "▁bazı",
        -8.098622367068565
      ],
      [
        "(",
        -8.099548837681912
      ],
      [
        "'nin",
        -8.110241938034864
      ],
      [
        "▁biraz",
        -8.116367495924802
      ],
      [
        "arak",
        -8.116772009988605
      ],
      [
        "▁içerisinde",
        -8.117840934782253
      ],
      [
        "dir",
        -8.119928695901425
      ],
      [
        "ş",
        -8.122209344934175
      ],
      [
        "▁para",
        -8.12423458864888
      ],
      [
        "▁zamanda",
        -8.130979111506408
      ],
      [
        "▁8",
        -8.133148135858878
      ],
      [
        "▁E",
        -8.134744403026836
      ],
      [
        "▁bana",
        -8.13775798265868
      ],
      [
        "b",
        -8.13958523291069
      ],
      [
        "sini",
        -8.145876186885562
      ],
      [
        "▁artık",
        -8.150391237268941
      ],
      [
        "▁günü",
        -8.150872904835245
      ],
      [
        "lerinden",
        -8.150981537023263
      ],
      [
        "▁yakın",
        -8.152727234186811
      ],
      [
        "▁onu",
        -8.15416294800065
      ],
      [
        "▁yerine",
        -8.155857928966205
      ],
      [
        "larla",
        -8.15700565915619
      ],
      [
        "▁geri",
        -8.161558436498098
      ],
      [
        "▁yol",
        -8.163301456094954
      ],
      [
        "larında",
        -8.168572585849862
      ],
      [
        "▁edilen",
        -8.16940015311129
      ],
      [
        "▁Daha",
        -8.17933011210027
      ],
      [
        "▁karar",
        -8.180646365431732
      ],
      [
        "▁birçok",
        -8.18185928307369
      ],
      [
        "▁VE",
        -8.183189832695811
      ],
      [
        "▁12",
        -8.184166071007711
      ],
      [
        "▁ifade",
        -8.190250156883481
      ],
      [
        "siz",
        -8.191035186586296
      ],
      [
        "di.",
        -8.192286614979368
      ],
      [
        "▁hemen",
        -8.200420740049127
      ],
      [
        "▁18",
        -8.201042612536412
      ],
      [
        "▁Allah",
        -8.204020043949184
      ],
      [
        "sine",
        -8.204949647128318
      ],
      [
        "▁kısa",
        -8.207757957867573
      ],
      [
        "▁söz",
        -8.20885350442507
      ],
      [
        "▁30",
        -8.208905827815855
      ],
      [
        "ti",
        -8.213490858365699
      ],
      [
        "ler.",
        -8.214600418558021
      ],
      [
        "tir.",
        -8.221784749500069
      ],
      [
        "▁onun",
        -8.2296826384301
      ],
      [
        "▁pek",
        -8.243460053078561
      ],
      [
        "▁eski",
        -8.24359433918242
      ],
      [
        "▁Dünya",
        -8.24361087988602
      ],
      [
        "▁Çok",
        -8.243800337242046
      ],
      [
        "lerinde",
        -8.244029267830129
      ],
      [
        "▁yaptığı",
        -8.246368755712288
      ],
      [
        "▁2017",
        -8.247698430273209
      ],
      [
        "larından",
        -8.24842023745335
      ],
      [
        "▁'",
        -8.250928903880107
      ],
      [
        "’e",
        -8.25093189140037
      ],
      [
        "▁yapan",
        -8.252165656760234
      ],
      [
        "at",
        -8.253193566214
      ],
      [
        "▁hiçbir",
        -8.253231133047546
      ],
      [
        "ir",
        -8.254110452954905
      ],
      [
        "'a",
        -8.258127382602924
      ],
      [
        "1",
        -8.261909634387262
      ],
      [
        "▁G",
        -8.263994358237111
      ],
      [
        "▁gereken",
        -8.2666992294521
      ],
      [
        "▁hafta",
        -8.270383645313686
      ],
      [
        "c",
        -8.278859287464758
      ],
      [
        "ını",
        -8.281498133413677
      ],
      [
        "▁etti.",
        -8.282976197982705
      ],
      [
        "mak",
        -8.284394590076948
      ],
      [
        "ken",
        -8.284452765018491
      ],
      [
        "▁olsa",
        -8.289898976380897
      ],
      [
        "▁yapmak",
        -8.290563302946728
      ],
      [
        "▁sosyal",
        -8.291722601469496
      ],
      [
        "▁Çünkü",
        -8.29354994324745
      ],
      [
        "A",
        -8.298531542743937
      ],
      [
        "mış",
        -8.299935139612302
      ],
      [
        "▁geçen",
        -8.30067294346837
      ],
      [
        "S",
        -8.3010948637518
      ],
      [
        "▁biz",
        -8.30284679854161
      ],
      [
        "▁dünya",
        -8.304204309408526
      ],
      [
        "▁T",
        -8.30710142365199
      ],
      [
        "▁tercih",
        -8.310436444293433
      ],
      [
        "▁küçük",
        -8.311392043429754
      ],
      [
        "▁yüzde",
        -8.312801565399539
      ],
      [
        "İ",
        -8.31774702803944
      ],
      [
        "▁vardır.",
        -8.32271771127938
      ],
      [
        "▁tekrar",
        -8.324331693022778
      ],
      [
        "lan",
        -8.331674976254735
      ],
      [
        "ç",
        -8.342520145129315
      ],
      [
        "m.",
        -8.34291465280774
      ],
      [
        "▁milyon",
        -8.343165518524888
      ],
      [
        "'nın",
        -8.343614995495797
      ],
      [
        "▁Ayrıca",
        -8.343650138563513
      ],
      [
        "▁TL",
        -8.34451059731743
      ],
      [
        "▁Son",
        -8.346226796245404
      ],
      [
        "▁çalışma",
        -8.346843545607141
      ],
      [
        "▁oldukça",
        -8.347192669497721
      ],
      [
        "ar",
        -8.347613425597688
      ],
      [
        "▁hareket",
        -8.350862320573516
      ],
      [
        "M",
        -8.362447393289509
      ],
      [
        "dır",
        -8.364970320542131
      ],
      [
        "-i",
        -8.369502613988473
      ],
      [
        "▁üç",
        -8.371489933537612
      ],
      [
        "▁göz",
        -8.372756518594137
      ],
      [
        "il",
        -8.373901224534363
      ],
      [
        "sını",
        -8.374458257791202
      ],
      [
        "▁olur.",
        -8.377592832606938
      ],
      [
        "▁altında",
        -8.389100167531184
      ],
      [
        "▁P",
        -8.392482933434886
      ],
      [
        "▁11",
        -8.393031130055135
      ],
      [
        "▁destek",
        -8.39343793664893
      ],
      [
        "▁olsun",
        -8.399505577021424
      ],
      [
        "2",
        -8.399842001493017
      ],
      [
        "î",
        -8.4004130394597
      ],
      [
        "▁9",
        -8.401822524974843
      ],
      [
        "3",
        -8.404492702981607
      ],
      [
        "▁bağlı",
        -8.408378586212102
      ],
      [
        "▁zor",
        -8.410267579818786
      ],
      [
        "▁ait",
        -8.41105672991459
      ],
      [
        "▁Bunun",
        -8.411446896664248
      ],
      [
        "▁veren",
        -8.411666349404575
      ],
      [
        "▁beni",
        -8.411706724812666
      ],
      [
        "▁mı",
        -8.413472516835562
      ],
      [
        "­",
        -8.416244243435086
      ],
      [
        "▁F",
        -8.418165669098602
      ],
      [
        "▁Ali",
        -8.418962485259385
      ],
      [
        "▁Eylül",
        -8.422028983190158
      ],
      [
        "nun",
        -8.422272960728396
      ],
      [
        "▁Avrupa",
        -8.424526914768414
      ],
      [
        "▁mi?",
        -8.425802452493961
      ],
      [
        "▁bizim",
        -8.426531577815
      ],
      [
        "▁16",
        -8.430591905687503
      ],
      [
        "▁takip",
        -8.434219352863854
      ],
      [
        "▁yani",
        -8.434575358575717
      ],
      [
        "▁İlk",
        -8.43727858232882
      ],
      [
        "▁24",
        -8.438246700587948
      ],
      [
        "▁sıra",
        -8.43892606339249
      ],
      [
        "▁durum",
        -8.439098404300113
      ],
      [
        "N",
        -8.44181671552202
      ],
      [
        "▁anda",
        -8.442073111053391
      ],
      [
        "▁ara",
        -8.443755898046012
      ],
      [
        "▁Eğer",
        -8.445086711898181
      ],
      [
        "lü",
        -8.447168702985296
      ],
      [
        "▁bunun",
        -8.447420373193848
      ],
      [
        "▁ardından",
        -8.448671915280896
      ],
      [
        "▁ev",
        -8.449366924570521
      ],
      [
        "▁tarihi",
        -8.44946414490182
      ],
      [
        "erek",
        -8.449747594894957
      ],
      [
        "▁M",
        -8.451207937947403
      ],
      [
        "dı.",
        -8.452022880974372
      ],
      [
        "▁elde",
        -8.452196702805944
      ],
      [
        "▁konu",
        -8.45393581106861
      ],
      [
        "▁yardımcı",
        -8.454931949870135
      ],
      [
        "▁14",
        -8.455034829339906
      ],
      [
        "▁gece",
        -8.457370571362523
      ],
      [
        "inde",
        -8.457874382616467
      ],
      [
        "sel",
        -8.461627849990618
      ],
      [
        "ip",
        -8.46177014196715
      ],
      [
        "ik",
        -8.462518530627328
      ],
      [
        "▁sahibi",
        -8.464792523484755
      ],
      [
        "▁ki,",
        -8.465059277207791
      ],
      [
        "▁1.",
        -8.466055065055714
      ],
      [
        "▁herhangi",
        -8.468112346024016
      ],
      [
        "T",
        -8.468956600570476
      ],
      [
        "ra",
        -8.469698746697937
      ],
      [
        "▁bize",
        -8.469976869475069
      ],
      [
        "'e",
        -8.470391453526236
      ],
      [
        "▁kadın",
        -8.471200049455916
      ],
      [
        "daki",
        -8.471620786036956
      ],
      [
        "▁konuda",
        -8.47492084098477
      ],
      [
        "▁değil,",
        -8.477505769338617
      ],
      [
        "]",
        -8.481047631880447
      ],
      [
        "▁boyunca",
        -8.481057459162784
      ],
      [
        "▁gerek",
        -8.481557090493215
      ],
      [
        "▁ona",
        -8.483892710423184
      ],
      [
        "▁teşekkür",
        -8.485290203773575
      ],
      [
        "▁genel",
        -8.485926676064272
      ],
      [
        "▁sizin",
        -8.488943084137365
      ],
      [
        "▁olmayan",
        -8.48935129626367
      ],
      [
        "▁gerçek",
        -8.489623444117536
      ],
      [
        "▁...",
        -8.494631178259851
      ],
      [
        "▁yeniden",
        -8.495153273037019
      ],
      [
        "▁2.",
        -8.495212987292437
      ],
      [
        "▁kolay",
        -8.495234706659879
      ],
      [
        "um",
        -8.50007451330034
      ],
      [
        "’un",
        -8.500117986219001
      ],
      [
        "I",
        -8.503185172232994
      ],
      [
        "▁kontrol",
        -8.505016564994278
      ],
      [
        "▁hep",
        -8.50853323699655
      ],
      [
        "▁Milli",
        -8.509395595085609
      ],
      [
        "▁17",
        -8.511100905009116
      ],
      [
        "▁13",
        -8.511513554976013
      ],
      [
        "E",
        -8.512763315698049
      ],
      [
        "v",
        -8.51296505329478
      ],
      [
        "▁*",
        -8.51494488291334
      ],
      [
        "▁bugün",
        -8.515536210267305
      ],
      [
        "▁kötü",
        -8.518003763753017
      ],
      [
        "▁ziyaret",
        -8.518515658042974
      ],
      [
        "▁oldu",
        -8.521677233314701
      ],
      [
        "▁burada",
        -8.522005962986196
      ],
      [
        "▁İl",
        -8.523098659752518
      ],
      [
        "▁Belediye",
        -8.523635484144805
      ],
      [
        "▁ikinci",
        -8.523732990155668
      ],
      [
        "▁almak",
        -8.524152972157752
      ],
      [
        "▁hava",
        -8.524350702384757
      ],
      [
        "▁olacak",
        -8.525199219014004
      ],
      [
        "▁I",
        -8.526598673876473
      ],
      [
        "nızı",
        -8.530396624649917
      ],
      [
        "▁şöyle",
        -8.530532343435674
      ],
      [
        "▁2016",
        -8.53134907769676
      ],
      [
        "ına",
        -8.53234131564662
      ],
      [
        "▁Ankara",
        -8.532664280985893
      ],
      [
        "▁özellikle",
        -8.532946150223546
      ],
      [
        "▁iç",
        -8.533204188934167
      ],
      [
        "▁Kasım",
        -8.53363660793061
      ],
      [
        "su",
        -8.533917441663922
      ],
      [
        "▁Mehmet",
        -8.536043032621672
      ],
      [
        "inin",
        -8.537239023287404
      ],
      [
        "▁sağlık",
        -8.541778465993032
      ],
      [
        "▁yok.",
        -8.543091896900641
      ],
      [
        "▁derece",
        -8.545813104548202
      ],
      [
        "▁adı",
        -8.546040801064319
      ],
      [
        "el",
        -8.54841808544015
      ],
      [
        "▁25",
        -8.54847781247969
      ],
      [
        "▁üzerinden",
        -8.550075729503822
      ],
      [
        "▁öyle",
        -8.550777356690425
      ],
      [
        "▁hangi",
        -8.552448861258114
      ],
      [
        "tır.",
        -8.55481638258781
      ],
      [
        "▁çocuk",
        -8.556588321674882
      ],
      [
        "▁dolayı",
        -8.558977460538761
      ],
      [
        "G",
        -8.560689491321368
      ],
      [
        "▁yaz",
        -8.56175470936537
      ],
      [
        "▁dışında",
        -8.56321456043916
      ],
      [
        "lama",
        -8.563216680423606
      ],
      [
        "mek",
        -8.563412127116028
      ],
      [
        "▁Ekim",
        -8.564652772590254
      ],
      [
        "▁olabilir.",
        -8.568053074399444
      ],
      [
        "▁değil.",
        -8.568586638394116
      ],
      [
        "▁Aralık",
        -8.572028092804596
      ],
      [
        "▁Biz",
        -8.572297020502623
      ],
      [
        "▁H",
        -8.574439454428703
      ],
      [
        "acak",
        -8.574880156080422
      ],
      [
        "▁çıkan",
        -8.583046495113782
      ],
      [
        "▁olur",
        -8.58656159187007
      ],
      [
        "mı",
        -8.587772635805468
      ],
      [
        "miş",
        -8.587954876332391
      ],
      [
        "▁konusu",
        -8.591465638978564
      ],
      [
        "nizi",
        -8.593116904705036
      ],
      [
        "▁Anadolu",
        -8.593416998455252
      ],
      [
        "▁tarihinde",
        -8.594284318523153
      ],
      [
        "▁Mart",
        -8.59479065842229
      ],
      [
        "▁yönelik",
        -8.595171329808087
      ],
      [
        "▁yardım",
        -8.595459950764281
      ],
      [
        "▁Büyük",
        -8.59601523727893
      ],
      [
        "▁Parti",
        -8.597568725627394
      ],
      [
        "▁Temmuz",
        -8.598525735815505
      ],
      [
        "▁hızlı",
        -8.599113753257456
      ],
      [
        "deki",
        -8.600627674105391
      ],
      [
        "▁ediyor.",
        -8.600919582869743
      ],
      [
        "sal",
        -8.601144892275531
      ],
      [
        "▁2015",
        -8.607502365775227
      ],
      [
        "sız",
        -8.608151633425488
      ],
      [
        "liği",
        -8.612225393292396
      ],
      [
        "▁el",
        -8.613713571410337
      ],
      [
        "),",
        -8.61561816904463
      ],
      [
        "▁yaklaşık",
        -8.61657417895312
      ],
      [
        "▁ayrı",
        -8.616864924496221
      ],
      [
        "▁sene",
        -8.617295896957847
      ],
      [
        "▁yanı",
        -8.61746841844287
      ],
      [
        "7",
        -8.619309483324548
      ],
      [
        "▁türlü",
        -8.619870304807048
      ],
      [
        "▁değildir.",
        -8.622568520742327
      ],
      [
        "▁»",
        -8.622752039199119
      ],
      [
        "5",
        -8.623800926793296
      ],
      [
        "x",
        -8.626172723938843
      ],
      [
        ".com",
        -8.626579180131582
      ],
      [
        "re",
        -8.626932529852036
      ],
      [
        "▁Türkçe",
        -8.628356295277236
      ],
      [
        "▁gerekli",
        -8.63322641218332
      ],
      [
        "▁insanlar",
        -8.63519454295596
      ],
      [
        "▁19",
        -8.635913836528427
      ],
      [
        "▁ana",
        -8.636183876297745
      ],
      [
        "▁yemek",
        -8.640291400538903
      ],
      [
        "▁üst",
        -8.640806040108727
      ],
      [
        "▁sık",
        -8.641275287954889
      ],
      [
        "▁belli",
        -8.642900209149166
      ],
      [
        "▁bi",
        -8.644565834155747
      ],
      [
        "▁:)",
        -8.646244431465787
      ],
      [
        "▁nedeniyle",
        -8.648449999042882
      ],
      [
        "▁ettiği",
        -8.650525926004718
      ],
      [
        "sına",
        -8.65269371848368
      ],
      [
        "▁hale",
        -8.653862977143552
      ],
      [
        "’dan",
        -8.655311244337735
      ],
      [
        "▁Prof.",
        -8.656843585152586
      ],
      [
        "▁olup",
        -8.658258858185466
      ],
      [
        "▁mu",
        -8.66040091500237
      ],
      [
        "ım",
        -8.662507993439487
      ],
      [
        "▁adet",
        -8.663507468601177
      ],
      [
        "du",
        -8.664384279876945
      ],
      [
        ").",
        -8.668035635386394
      ],
      [
        "▁100",
        -8.668955608530995
      ],
      [
        "▁Kurulu",
        -8.669408495912748
      ],
      [
        "▁mümkün",
        -8.67187152765821
      ],
      [
        "cı",
        -8.674952581224185
      ],
      [
        "’den",
        -8.675014599014103
      ],
      [
        "▁ABD",
        -8.675934224536364
      ],
      [
        "▁İşte",
        -8.676191305207784
      ],
      [
        "ri",
        -8.676370847701
      ],
      [
        "▁yüzden",
        -8.676447290187808
      ],
      [
        "▁cevap",
        -8.676659126485387
      ],
      [
        "6",
        -8.679527466088427
      ],
      [
        "sinde",
        -8.679640774396898
      ],
      [
        "iz",
        -8.680591282606118
      ],
      [
        "▁ön",
        -8.68111413402469
      ],
      [
        "▁rağmen",
        -8.682137779478772
      ],
      [
        "▁mı?",
        -8.682781230839868
      ],
      [
        "▁ülke",
        -8.68340579081888
      ],
      [
        "luk",
        -8.684298564864159
      ],
      [
        "▁ürün",
        -8.685628480500162
      ],
      [
        "▁görev",
        -8.686421578972844
      ],
      [
        "L",
        -8.686826581163736
      ],
      [
        "▁Özel",
        -8.687044327167655
      ],
      [
        "▁Fakat",
        -8.687927817426122
      ],
      [
        "▁çeşitli",
        -8.689334452321846
      ],
      [
        "▁arada",
        -8.689346392910533
      ],
      [
        "▁izle",
        -8.689622272060117
      ],
      [
        "▁sizi",
        -8.68974961766112
      ],
      [
        "▁kaç",
        -8.690651752358
      ],
      [
        "man",
        -8.691062336996833
      ],
      [
        "▁sen",
        -8.69247069108729
      ],
      [
        "▁olma",
        -8.693093371822805
      ],
      [
        "’i",
        -8.695998714958357
      ],
      [
        "▁siz",
        -8.697597563050168
      ],
      [
        "▁kitap",
        -8.698472706073327
      ],
      [
        "▁temel",
        -8.698504780868307
      ],
      [
        "et",
        -8.69956300323773
      ],
      [
        "▁Mayıs",
        -8.69961751375658
      ],
      [
        "ması",
        -8.700743373027072
      ],
      [
        "▁AK",
        -8.701807466760902
      ],
      [
        "▁3.",
        -8.703795931824754
      ],
      [
        "▁oyun",
        -8.704927826803235
      ],
      [
        "▁haber",
        -8.705196089341348
      ],
      [
        "ıp",
        -8.706766433640508
      ],
      [
        "’ye",
        -8.70886613294281
      ],
      [
        "▁Ak",
        -8.712620600849574
      ],
      [
        "▁yerde",
        -8.7129630924075
      ],
      [
        "▁Merkezi",
        -8.714062071090709
      ],
      [
        "▁dakika",
        -8.715661075009253
      ],
      [
        "▁devlet",
        -8.715940547773162
      ],
      [
        "▁İyi",
        -8.716906148029494
      ],
      [
        "▁beraber",
        -8.717715169934747
      ],
      [
        "sin",
        -8.717933450421128
      ],
      [
        "▁İş",
        -8.718586089803576
      ],
      [
        "▁fark",
        -8.718721688194423
      ],
      [
        "▁başladı.",
        -8.719097905955993
      ],
      [
        "▁Tüm",
        -8.721666870292305
      ],
      [
        "lığı",
        -8.722989015611631
      ],
      [
        "ve",
        -8.725430748663442
      ],
      [
        "▁Sosyal",
        -8.730930987542223
      ],
      [
        "▁Spor",
        -8.730991836900303
      ],
      [
        "▁şeyler",
        -8.73522394664659
      ],
      [
        "maya",
        -8.735307720815657
      ],
      [
        "▁gerçekten",
        -8.736115787028679
      ],
      [
        "▁internet",
        -8.73805011385859
      ],
      [
        "▁ek",
        -8.739186841977173
      ],
      [
        "tir",
        -8.740203547153884
      ],
      [
        "▁nedenle",
        -8.743044944371562
      ],
      [
        "▁sürekli",
        -8.745189406629502
      ],
      [
        "'dan",
        -8.745293576874879
      ],
      [
        "'den",
        -8.746115433157614
      ],
      [
        "▁Ocak",
        -8.74691157482793
      ],
      [
        "▁tedavi",
        -8.747366912215226
      ],
      [
        "▁Mustafa",
        -8.74744218467448
      ],
      [
        "tı",
        -8.747463328983464
      ],
      [
        "▁tavsiye",
        -8.748318280691983
      ],
      [
        "▁yaşam",
        -8.748325750515864
      ],
      [
        "▁adam",
        -8.748351818534932
      ],
      [
        "▁Türkiye’de",
        -8.7484584194313
      ],
      [
        "is",
        -8.749760675453171
      ],
      [
        "▁ilişkin",
        -8.749820745750604
      ],
      [
        "’ya",
        -8.750106481972031
      ],
      [
        "▁kapsamında",
        -8.752466382404334
      ],
      [
        "▁başarılı",
        -8.752682230012688
      ],
      [
        "▁Türkiye’nin",
        -8.752877999362996
      ],
      [
        "▁proje",
        -8.753763887537154
      ],
      [
        "▁etme",
        -8.754721228827776
      ],
      [
        "4",
        -8.757260162801508
      ],
      [
        "▁birkaç",
        -8.757338291791774
      ],
      [
        "dur.",
        -8.760601928635335
      ],
      [
        "▁Nisan",
        -8.760942125956195
      ],
      [
        "▁0",
        -8.761265725510228
      ],
      [
        "▁sonunda",
        -8.763091833598258
      ],
      [
        "▁şimdi",
        -8.763296881896558
      ],
      [
        "▁50",
        -8.765466512677696
      ],
      [
        "▁mutlu",
        -8.768527558517341
      ],
      [
        "▁şeyi",
        -8.768528079249057
      ],
      [
        "'un",
        -8.768922000176039
      ],
      [
        "▁kız",
        -8.768952914495046
      ],
      [
        "▁Su",
        -8.769426658095922
      ],
      [
        "▁gerekir.",
        -8.771941904471186
      ],
      [
        "▁yazı",
        -8.772541350010226
      ],
      [
        "8",
        -8.773083375358711
      ],
      [
        "▁yorum",
        -8.774045448287504
      ],
      [
        "▁23",
        -8.775558127059677
      ],
      [
        "B",
        -8.777877402329592
      ],
      [
        "ında",
        -8.77804362302612
      ],
      [
        "ır",
        -8.778934240641398
      ],
      [
        "on",
        -8.779669938961598
      ],
      [
        "sinin",
        -8.779837428807303
      ],
      [
        "▁Yani",
        -8.782137121077035
      ],
      [
        "▁çünkü",
        -8.782140173740785
      ],
      [
        "▁sorun",
        -8.782540839528817
      ],
      [
        "▁olacaktır.",
        -8.782596243991462
      ],
      [
        "▁?",
        -8.783010757008817
      ],
      [
        "▁Hz.",
        -8.783173741541077
      ],
      [
        "▁hak",
        -8.784356237578258
      ],
      [
        "▁durumda",
        -8.785897299437499
      ],
      [
        "▁geldi.",
        -8.786042022465168
      ],
      [
        "▁hazır",
        -8.786473992233086
      ],
      [
        "▁açısından",
        -8.78719060218506
      ],
      [
        "▁ortak",
        -8.78794846090486
      ],
      [
        "▁aile",
        -8.788858593881233
      ],
      [
        "▁itibaren",
        -8.790155527107562
      ],
      [
        "▁kendini",
        -8.790523860617407
      ],
      [
        "ter",
        -8.790742106960572
      ],
      [
        "▁yanında",
        -8.792697558517467
      ],
      [
        "bi",
        -8.794182775339134
      ],
      [
        "▁Haziran",
        -8.795232389308397
      ],
      [
        "▁genç",
        -8.795309284167274
      ],
      [
        "▁İ",
        -8.796695405771093
      ],
      [
        "▁kat",
        -8.798222732243703
      ],
      [
        "ak",
        -8.798336412020276
      ],
      [
        "▁doğal",
        -8.798393432985034
      ],
      [
        "▁(1)",
        -8.798876276528581
      ],
      [
        "ecek",
        -8.799686306546414
      ],
      [
        "▁yılı",
        -8.800658490099345
      ],
      [
        "▁Osmanlı",
        -8.801614899020397
      ],
      [
        "▁iletişim",
        -8.804637739565432
      ],
      [
        "▁zaten",
        -8.804850330290144
      ],
      [
        "▁izin",
        -8.805244780043482
      ],
      [
        "▁güçlü",
        -8.80646532007599
      ],
      [
        "▁kalan",
        -8.809144487198612
      ],
      [
        "▁Başkan",
        -8.809174961009873
      ],
      [
        "▁söyledi.",
        -8.809941897398268
      ],
      [
        "▁film",
        -8.810565056541527
      ],
      [
        "ün",
        -8.815437324644083
      ],
      [
        "▁ele",
        -8.816550244090998
      ],
      [
        "▁kullan",
        -8.820096201801025
      ],
      [
        "▁baş",
        -8.821914472354134
      ],
      [
        "▁Bugün",
        -8.824698472998254
      ],
      [
        "çe",
        -8.825285235636212
      ],
      [
        "it",
        -8.830147967017151
      ],
      [
        "▁çalışan",
        -8.831386139077228
      ],
      [
        "▁fakat",
        -8.835442595235268
      ],
      [
        "▁insanların",
        -8.836469313945246
      ],
      [
        "▁halinde",
        -8.838626684605302
      ],
      [
        "▁kan",
        -8.8402629879415
      ],
      [
        "dı",
        -8.84030479503058
      ],
      [
        "▁verilen",
        -8.840872734125483
      ],
      [
        "▁anne",
        -8.841707550152062
      ],
      [
        "▁Ana",
        -8.842029511193726
      ],
      [
        "▁sayesinde",
        -8.844097301932216
      ],
      [
        "nu",
        -8.845103074665172
      ],
      [
        "▁eder.",
        -8.846844795092025
      ],
      [
        "▁yana",
        -8.847897446452691
      ],
      [
        "▁Ahmet",
        -8.848281324852787
      ],
      [
        "▁uygulama",
        -8.850860656915039
      ],
      [
        "▁sayılı",
        -8.850896126394984
      ],
      [
        "▁tamamen",
        -8.851910598312688
      ],
      [
        "▁enerji",
        -8.851997458416442
      ],
      [
        "▁Fakültesi",
        -8.852322988147431
      ],
      [
        "▁et",
        -8.853392989532814
      ],
      [
        "dığı",
        -8.853468202187162
      ],
      [
        "▁ilgi",
        -8.85494234894384
      ],
      [
        "▁gelir",
        -8.855774069531579
      ],
      [
        "▁Teknik",
        -8.857662587143402
      ],
      [
        "▁olacak.",
        -8.858343592331945
      ],
      [
        "▁haline",
        -8.859428328835342
      ],
      [
        "▁dahil",
        -8.859446914827508
      ],
      [
        "▁sistemi",
        -8.860004422177628
      ],
      [
        "▁verdiği",
        -8.860012552469938
      ],
      [
        "▁U",
        -8.860392389133276
      ],
      [
        "▁́",
        -8.860431087763146
      ],
      [
        "▁hatta",
        -8.861187246981803
      ],
      [
        "C",
        -8.861448225884656
      ],
      [
        "▁yanlış",
        -8.862031980396326
      ],
      [
        "du.",
        -8.863171714117911
      ],
      [
        "▁İçin",
        -8.863294034129389
      ],
      [
        "▁geniş",
        -8.864014125309506
      ],
      [
        "▁kimse",
        -8.865964764149945
      ],
      [
        "leriyle",
        -8.867009160675837
      ],
      [
        "▁Şimdi",
        -8.867572108211627
      ],
      [
        "▁sana",
        -8.869651792683435
      ],
      [
        "▁defa",
        -8.869779249720255
      ],
      [
        "tır",
        -8.870235740296057
      ],
      [
        "▁kişinin",
        -8.870305556809758
      ],
      [
        "▁varsa",
        -8.871499309142841
      ],
      [
        "▁yere",
        -8.872338340037754
      ],
      [
        "be",
        -8.873379903123972
      ],
      [
        "▁mutlaka",
        -8.875464133739381
      ],
      [
        "▁Ay",
        -8.87634240427094
      ],
      [
        "▁Devlet",
        -8.876848760938609
      ],
      [
        "▁teknik",
        -8.876911217375499
      ],
      [
        "min",
        -8.877348269140658
      ],
      [
        "▁Sağlık",
        -8.878591405031598
      ],
      [
        "▁22",
        -8.879993289109306
      ],
      [
        "▁De",
        -8.881086022019485
      ],
      [
        "ul",
        -8.881173488449592
      ],
      [
        "▁düzenlenen",
        -8.882167840880582
      ],
      [
        "F",
        -8.884790068507762
      ],
      [
        "'i",
        -8.885255603689409
      ],
      [
        "▁belki",
        -8.89051673161958
      ],
      [
        "▁tür",
        -8.89112142039314
      ],
      [
        "larıyla",
        -8.8928780302046
      ],
      [
        "▁adına",
        -8.893238994884275
      ],
      [
        "▁Tek",
        -8.894069440152276
      ],
      [
        "▁Müdürlüğü",
        -8.894075235362045
      ],
      [
        "▁21",
        -8.896464186452532
      ],
      [
        "▁Nasıl",
        -8.896574069643243
      ],
      [
        "▁şeklinde",
        -8.897778059524583
      ],
      [
        "▁erkek",
        -8.899112773727083
      ],
      [
        "▁Kültür",
        -8.899837461316148
      ],
      [
        "▁•",
        -8.900428333778327
      ],
      [
        "▁bizi",
        -8.90067237754893
      ],
      [
        "▁al",
        -8.904143687308867
      ],
      [
        "▁dünyanın",
        -8.904168590102934
      ],
      [
        "▁telefon",
        -8.905116038926842
      ],
      [
        "▁aslında",
        -8.90594191269997
      ],
      [
        "us",
        -8.906264921915684
      ],
      [
        "▁rahat",
        -8.90808181437647
      ],
      [
        "▁değer",
        -8.910022009582136
      ],
      [
        "▁mücadele",
        -8.910129902191937
      ],
      [
        "▁durumu",
        -8.910490952104198
      ],
      [
        "▁vermek",
        -8.910848512795173
      ],
      [
        "ları,",
        -8.912161016465767
      ],
      [
        "▁ciddi",
        -8.912311525134928
      ],
      [
        "va",
        -8.912564252602973
      ],
      [
        "▁yıllık",
        -8.913036053509245
      ],
      [
        "▁Aynı",
        -8.913175444326763
      ],
      [
        "yan",
        -8.914729893042576
      ],
      [
        "’ı",
        -8.91586384936221
      ],
      [
        "▁yolu",
        -8.916627416751766
      ],
      [
        "leri,",
        -8.917405702648143
      ],
      [
        "çi",
        -8.918027273602437
      ],
      [
        "maktadır.",
        -8.918399914466843
      ],
      [
        "▁parti",
        -8.921520131696653
      ],
      [
        "▁sırasında",
        -8.921686848158735
      ],
      [
        "▁sayısı",
        -8.922080341234057
      ],
      [
        "D",
        -8.923547538822008
      ],
      [
        "▁geç",
        -8.923604752990789
      ],
      [
        "▁başında",
        -8.923847714195333
      ],
      [
        "len",
        -8.923975976453825
      ],
      [
        "▁2014",
        -8.924763570921336
      ],
      [
        "abilirsiniz.",
        -8.92686537791549
      ],
      [
        "▁Yönetim",
        -8.927572124621804
      ],
      [
        "▁hala",
        -8.927655359678564
      ],
      [
        "▁buna",
        -8.928077276197115
      ],
      [
        "▁Bakanlığı",
        -8.928587311548702
      ],
      [
        "'ye",
        -8.929691310664799
      ],
      [
        "ol",
        -8.929943369446292
      ],
      [
        "▁Cumhurbaşkanı",
        -8.930514669756413
      ],
      [
        "▁dönem",
        -8.931270068938364
      ],
      [
        "Y",
        -8.932015011550305
      ],
      [
        "gi",
        -8.932173675004563
      ],
      [
        "▁Ağustos",
        -8.933247316128114
      ],
      [
        "_",
        -8.93444497277623
      ],
      [
        "▁yüz",
        -8.937116186008769
      ],
      [
        "▁28",
        -8.937117663286363
      ],
      [
        "▁dile",
        -8.937385933178877
      ],
      [
        "H",
        -8.937620543479593
      ],
      [
        "▁araya",
        -8.938321569158813
      ],
      [
        "▁herkes",
        -8.939924054510186
      ],
      [
        "ba",
        -8.941073019698614
      ],
      [
        "▁adım",
        -8.941135536789517
      ],
      [
        "▁işi",
        -8.942703684744794
      ],
      [
        "O",
        -8.943569985286809
      ],
      [
        "▁bulunduğu",
        -8.94381123852483
      ],
      [
        "▁başına",
        -8.943876768281152
      ],
      [
        "▁kim",
        -8.944752580369117
      ],
      [
        "▁aldığı",
        -8.944940716869333
      ],
      [
        "▁güç",
        -8.945518364306587
      ],
      [
        "▁Y",
        -8.94572999073823
      ],
      [
        "▁at",
        -8.946871278598035
      ],
      [
        "ge",
        -8.948819166541309
      ],
      [
        "leme",
        -8.949093509586492
      ],
      [
        "▁40",
        -8.951137027262238
      ],
      [
        "▁ekonomik",
        -8.95221385585965
      ],
      [
        "▁din",
        -8.95330867228025
      ],
      [
        "▁El",
        -8.953413444862477
      ],
      [
        "▁yaş",
        -8.953622633357874
      ],
      [
        "▁N",
        -8.95391051229957
      ],
      [
        "▁soru",
        -8.954576629356623
      ],
      [
        "mizi",
        -8.955033897268144
      ],
      [
        "oğlu",
        -8.955223508914719
      ],
      [
        "▁[",
        -8.959632442865942
      ],
      [
        "▁Şubat",
        -8.960467823899315
      ],
      [
        "bu",
        -8.96427968041965
      ],
      [
        "▁alma",
        -8.96480559863857
      ],
      [
        "▁Bakanı",
        -8.964938933789924
      ],
      [
        "▁zorunda",
        -8.965077808176087
      ],
      [
        "▁imza",
        -8.965541234653589
      ],
      [
        "mektedir.",
        -8.965542255577752
      ],
      [
        "▁siyasi",
        -8.967882501165068
      ],
      [
        "z.",
        -8.968599273006223
      ],
      [
        "▁Ya",
        -8.970880437055893
      ],
      [
        "han",
        -8.971971468055376
      ],
      [
        "▁isteyen",
        -8.972781530981173
      ],
      [
        "▁Tam",
        -8.974848704011094
      ],
      [
        "▁hayat",
        -8.975104725903375
      ],
      [
        "▁İnsan",
        -8.975749975486044
      ],
      [
        "▁beri",
        -8.978001194438843
      ],
      [
        "▁merkezi",
        -8.978182838288694
      ],
      [
        "▁giriş",
        -8.98011044200765
      ],
      [
        "adlı",
        -8.980641756956388
      ],
      [
        "▁takım",
        -8.981335769774708
      ],
      [
        "▁dolu",
        -8.981533091880308
      ],
      [
        "P",
        -8.982098508392513
      ],
      [
        "▁meydana",
        -8.985458752880959
      ],
      [
        "▁İslam",
        -8.986462712694525
      ],
      [
        "▁Uluslararası",
        -8.987551908866774
      ],
      [
        "yu",
        -8.98790349941669
      ],
      [
        "▁%",
        -8.990787847602494
      ],
      [
        "▁dönemde",
        -8.991094050303204
      ],
      [
        "▁sonucu",
        -8.99114207865486
      ],
      [
        "mesi",
        -8.991514029655866
      ],
      [
        "▁spor",
        -8.993187840798008
      ],
      [
        "▁gelecek",
        -8.995091555427948
      ],
      [
        "▁kullanılan",
        -8.996616888211907
      ],
      [
        "▁cok",
        -8.998485552537208
      ],
      [
        "▁alt",
        -8.998659733981913
      ],
      [
        "▁Güzel",
        -9.000318583336377
      ],
      [
        "siniz.",
        -9.00040604989092
      ],
      [
        "▁yeri",
        -9.00086497966955
      ],
      [
        "▁savaş",
        -9.001350564128478
      ],
      [
        "▁şehir",
        -9.00136793428457
      ],
      [
        "▁ayrıca",
        -9.00142156965178
      ],
      [
        "▁ses",
        -9.002738419065373
      ],
      [
        "▁yabancı",
        -9.00480532889311
      ],
      [
        "▁uzak",
        -9.005353811325222
      ],
      [
        "▁İlçe",
        -9.007183774229434
      ],
      [
        "▁çıkar",
        -9.008431286343221
      ],
      [
        "▁günlük",
        -9.011852692269972
      ],
      [
        "to",
        -9.01190353114801
      ],
      [
        "cu",
        -9.01310223311154
      ],
      [
        "▁29",
        -9.0133293491635
      ],
      [
        "mızı",
        -9.013368868965927
      ],
      [
        "▁web",
        -9.016598060791306
      ],
      [
        "unu",
        -9.0166828236491
      ],
      [
        "▁saç",
        -9.01747571829592
      ],
      [
        "tu",
        -9.018142128926431
      ],
      [
        "▁oluyor.",
        -9.018953299551704
      ],
      [
        "ha",
        -9.019584805500411
      ],
      [
        "▁Sonra",
        -9.020000570390632
      ],
      [
        "▁satın",
        -9.020892530454585
      ],
      [
        "▁onlar",
        -9.02313266200888
      ],
      [
        "LAR",
        -9.023405416361644
      ],
      [
        "▁merak",
        -9.023450395775065
      ],
      [
        "san",
        -9.024029964521414
      ],
      [
        "ça",
        -9.024446499930999
      ],
      [
        "▁yapılacak",
        -9.025473474003752
      ],
      [
        "▁arasındaki",
        -9.026773814292492
      ],
      [
        "▁yönetim",
        -9.026935398994077
      ],
      [
        "uz",
        -9.027545279471067
      ],
      [
        "▁senin",
        -9.028298774953614
      ],
      [
        "▁renk",
        -9.028698475093176
      ],
      [
        "ek",
        -9.02878175313436
      ],
      [
        "▁olmadığı",
        -9.029445677722821
      ],
      [
        "▁onları",
        -9.029550526419456
      ],
      [
        "▁ihtiyaç",
        -9.029789856307936
      ],
      [
        "▁2012",
        -9.030043285856184
      ],
      [
        "▁R",
        -9.030143003399942
      ],
      [
        "▁Sen",
        -9.031041251499408
      ],
      [
        "▁zarar",
        -9.034018761968198
      ],
      [
        "▁olursa",
        -9.034992870245059
      ],
      [
        "LER",
        -9.036253518598599
      ],
      [
        "▁@",
        -9.037060290482064
      ],
      [
        "▁seçim",
        -9.03710157049623
      ],
      [
        "▁etkili",
        -9.037292240243172
      ],
      [
        "▁medya",
        -9.041710045234693
      ],
      [
        "▁dört",
        -9.041791102643597
      ],
      [
        "▁yoktur.",
        -9.041886429951923
      ],
      [
        "▁canlı",
        -9.041973473735261
      ],
      [
        "▁ederek",
        -9.042169015779772
      ],
      [
        "▁hedef",
        -9.04235493653728
      ],
      [
        "▁teslim",
        -9.045381783147171
      ],
      [
        "'ya",
        -9.045936933334296
      ],
      [
        "30",
        -9.046154843345416
      ],
      [
        "▁yoğun",
        -9.046192688399138
      ],
      [
        "▁önem",
        -9.046210373833595
      ],
      [
        "▁onların",
        -9.048602152885962
      ],
      [
        "▁oluşan",
        -9.049249297624169
      ],
      [
        "▁27",
        -9.049979309526833
      ],
      [
        "▁günde",
        -9.052061803471418
      ],
      [
        "or",
        -9.052196504285813
      ],
      [
        "iş",
        -9.05232262767051
      ],
      [
        "▁kendisine",
        -9.05279377095746
      ],
      [
        "▁aldı.",
        -9.053195425229099
      ],
      [
        "▁verdi.",
        -9.053643945180212
      ],
      [
        "ur",
        -9.054451215208033
      ],
      [
        "▁sonrası",
        -9.055891593623683
      ],
      [
        "▁çözüm",
        -9.056355040420097
      ],
      [
        "▁amacıyla",
        -9.060055094855732
      ],
      [
        "[...]",
        -9.060537669689529
      ],
      [
        "▁edilmesi",
        -9.061720834084593
      ],
      [
        "▁ağır",
        -9.061800431641942
      ],
      [
        "▁26",
        -9.062356113777405
      ],
      [
        "▁başlayan",
        -9.063197123537659
      ],
      [
        "▁Kemal",
        -9.06501094074315
      ],
      [
        "▁araç",
        -9.065051194742164
      ],
      [
        "▁sağ",
        -9.065494703542228
      ],
      [
        "▁insanın",
        -9.065726175255936
      ],
      [
        "ver",
        -9.066540291648124
      ],
      [
        "▁Çocuk",
        -9.067579742299523
      ],
      [
        "V",
        -9.06774689901763
      ],
      [
        "▁bak",
        -9.067943425541227
      ],
      [
        "▁olabilir",
        -9.06807451973141
      ],
      [
        "▁Bey",
        -9.068783572655807
      ],
      [
        "▁resmi",
        -9.068792880539984
      ],
      [
        "▁gerekiyor.",
        -9.07015358556973
      ],
      [
        "j",
        -9.07063077598374
      ],
      [
        "▁örnek",
        -9.071723075117358
      ],
      [
        "▁bilgiler",
        -9.074617757665976
      ],
      [
        "▁Bunu",
        -9.075974134315178
      ],
      [
        "▁üretim",
        -9.075980733153266
      ],
      [
        "▁halde",
        -9.076017247839117
      ],
      [
        "▁İzmir",
        -9.077547002260559
      ],
      [
        "sında",
        -9.077576083143713
      ],
      [
        "tik",
        -9.078554857309129
      ],
      [
        "▁arama",
        -9.078827463839323
      ],
      [
        "▁dair",
        -9.079688669032445
      ],
      [
        "▁Al",
        -9.080075785937813
      ],
      [
        "▁başarı",
        -9.081063061032498
      ],
      [
        "ının",
        -9.081483029627503
      ],
      [
        "▁uluslararası",
        -9.081932295171345
      ],
      [
        "R",
        -9.08203321411829
      ],
      [
        "▁Yüksek",
        -9.08311167821336
      ],
      [
        "▁arası",
        -9.083233655334535
      ],
      [
        "▁s",
        -9.084718305830577
      ],
      [
        "ktan",
        -9.084770464959297
      ],
      [
        "▁Müdürü",
        -9.085433948936886
      ],
      [
        "▁kredi",
        -9.085997267385656
      ],
      [
        "▁Z",
        -9.087331365049863
      ],
      [
        "▁yapma",
        -9.087364439298216
      ],
      [
        "▁görmek",
        -9.089360892125214
      ],
      [
        "▁yaşayan",
        -9.09052919588829
      ],
      [
        "▁yoksa",
        -9.091505240419355
      ],
      [
        "▁Özellikle",
        -9.092644144704412
      ],
      [
        "▁demek",
        -9.092902401625953
      ],
      [
        "▁on",
        -9.09430052066708
      ],
      [
        "▁yeterli",
        -9.09638578019788
      ],
      [
        "▁Burada",
        -9.09659299438307
      ],
      [
        "▁okul",
        -9.09701537165246
      ],
      [
        "▁ders",
        -9.097656505627038
      ],
      [
        "▁tespit",
        -9.097733118585854
      ],
      [
        "▁sağlıklı",
        -9.09914572621405
      ],
      [
        "▁yayın",
        -9.09945859048832
      ],
      [
        "▁müzik",
        -9.099481644017066
      ],
      [
        "▁2013",
        -9.09959556036543
      ],
      [
        "▁bölge",
        -9.099668820294141
      ],
      [
        "▁tarih",
        -9.099872379754181
      ],
      [
        "▁Sayfa",
        -9.100479935757516
      ],
      [
        "▁alanında",
        -9.101479406460045
      ],
      [
        "▁göre,",
        -9.101722112826645
      ],
      [
        "▁dil",
        -9.104183130125708
      ],
      [
        "▁fotoğraf",
        -9.104326191418732
      ],
      [
        "▁geldi",
        -9.1062584113759
      ],
      [
        "▁oy",
        -9.106820219474335
      ],
      [
        "▁güvenlik",
        -9.106885917437138
      ],
      [
        "sanız",
        -9.107072849639339
      ],
      [
        "'ı",
        -9.107217630555175
      ],
      [
        "▁Diğer",
        -9.108298359736125
      ],
      [
        "▁başvuru",
        -9.108653129657407
      ],
      [
        "ür",
        -9.109149465425597
      ],
      [
        "ğ",
        -9.110575315675138
      ],
      [
        "▁Benim",
        -9.11059501798854
      ],
      [
        "▁4.",
        -9.110884740676967
      ],
      [
        "▁ince",
        -9.112007769901247
      ],
      [
        "▁orta",
        -9.113396518971552
      ],
      [
        "▁bulunmaktadır.",
        -9.113834123419094
      ],
      [
        "ed",
        -9.114640702843253
      ],
      [
        "U",
        -9.114762041520127
      ],
      [
        "▁hizmeti",
        -9.116363546168472
      ],
      [
        "▁Şu",
        -9.117766080318919
      ],
      [
        "▁yatırım",
        -9.118216589478038
      ],
      [
        "▁ünlü",
        -9.118590186086212
      ],
      [
        "▁Belediyesi",
        -9.118837852444518
      ],
      [
        "▁olmuş",
        -9.119041978246521
      ],
      [
        "▁Kara",
        -9.120078554202387
      ],
      [
        "▁İki",
        -9.121615334076463
      ],
      [
        "▁araştırma",
        -9.122326666528254
      ],
      [
        "ken,",
        -9.12302997940541
      ],
      [
        "▁Ç",
        -9.124056828513101
      ],
      [
        "▁ayında",
        -9.124217347055325
      ],
      [
        "▁toplam",
        -9.124681337061435
      ],
      [
        "çı",
        -9.126277713214646
      ],
      [
        "k.",
        -9.126835516202622
      ],
      [
        "ga",
        -9.126964990685654
      ],
      [
        "▁altına",
        -9.128524506925759
      ],
      [
        "ay",
        -9.12885857082064
      ],
      [
        "9",
        -9.131039477134081
      ],
      [
        "▁Bölüm",
        -9.134180568880039
      ],
      [
        "▁sanat",
        -9.134208296180843
      ],
      [
        "▁Er",
        -9.135006229959668
      ],
      [
        "Sİ",
        -9.1350293508469
      ],
      [
        "▁satış",
        -9.136492838638631
      ],
      [
        "▁dizi",
        -9.13680730487135
      ],
      [
        "sen",
        -9.137125052788024
      ],
      [
        "▁sayfa",
        -9.138270586613558
      ],
      [
        "▁kendine",
        -9.139915922434326
      ],
      [
        "▁beyaz",
        -9.140071450428405
      ],
      [
        "za",
        -9.140960758134266
      ],
      [
        "▁hoş",
        -9.141480193553438
      ],
      [
        "▁Ticaret",
        -9.142527367690064
      ],
      [
        "▁Haber",
        -9.144145975886937
      ],
      [
        "▁Cumhuriyet",
        -9.144680987513066
      ],
      [
        "dur",
        -9.145490597515394
      ],
      [
        "▁parça",
        -9.146628404884515
      ],
      [
        "▁bol",
        -9.146981259030518
      ],
      [
        "Lİ",
        -9.147497293700848
      ],
      [
        "▁Peki",
        -9.14784166286098
      ],
      [
        "▁acı",
        -9.148418916056457
      ],
      [
        "nca",
        -9.150886971119586
      ],
      [
        "▁Sayın",
        -9.152662715079952
      ],
      [
        "▁il",
        -9.153099896633176
      ],
      [
        "▁eğer",
        -9.153443377162318
      ],
      [
        "▁talep",
        -9.153899868323327
      ],
      [
        "es",
        -9.155036224430848
      ],
      [
        "st",
        -9.15641682238402
      ],
      [
        "sının",
        -9.156922954510726
      ],
      [
        "▁onlara",
        -9.158124113381472
      ],
      [
        "▁vardı.",
        -9.1587950858579
      ],
      [
        "▁ileri",
        -9.160769966509628
      ],
      [
        "▁beş",
        -9.160794691073978
      ],
      [
        "▁öğrenci",
        -9.161259228983011
      ],
      [
        "▁sistem",
        -9.161325069667548
      ],
      [
        "▁can",
        -9.162553598798738
      ],
      [
        "▁seni",
        -9.163038327583049
      ],
      [
        "▁toplum",
        -9.164398900495058
      ],
      [
        "▁hasta",
        -9.16481811012321
      ],
      [
        "▁yandan",
        -9.165510024023018
      ],
      [
        "▁neler",
        -9.166580287896668
      ],
      [
        "▁tane",
        -9.16737024637862
      ],
      [
        "▁grup",
        -9.168027598208056
      ],
      [
        "0",
        -9.168158945665798
      ],
      [
        "▁dış",
        -9.168216338465935
      ],
      [
        "▁Büyükşehir",
        -9.168323521871972
      ],
      [
        "▁bundan",
        -9.169090134254233
      ],
      [
        "▁çoğu",
        -9.170578648944325
      ],
      [
        "▁harika",
        -9.170787312076953
      ],
      [
        "▁marka",
        -9.17096570776245
      ],
      [
        "Ç",
        -9.171226637578727
      ],
      [
        "▁Derneği",
        -9.172026448035373
      ],
      [
        "▁Re",
        -9.172394927360717
      ],
      [
        "▁orada",
        -9.172714766510424
      ],
      [
        "▁Sadece",
        -9.174573833248424
      ],
      [
        "sın",
        -9.17508025471742
      ],
      [
        "▁güven",
        -9.175130117507877
      ],
      [
        "▁2010",
        -9.175473666713561
      ],
      [
        "▁oyuncu",
        -9.17649478038311
      ],
      [
        "os",
        -9.177321601490242
      ],
      [
        "▁kilo",
        -9.177486205290842
      ],
      [
        "▁dünyada",
        -9.17867310714097
      ],
      [
        "lük",
        -9.178914516625095
      ],
      [
        "LI",
        -9.17922413144423
      ],
      [
        "▁önceki",
        -9.180154300754777
      ],
      [
        "▁önünde",
        -9.180270072920887
      ],
      [
        "▁Doğu",
        -9.180478944454354
      ],
      [
        "▁üye",
        -9.181913661178946
      ],
      [
        "▁içi",
        -9.182104623602283
      ],
      [
        "▁normal",
        -9.182371670847491
      ],
      [
        "▁Bilgi",
        -9.182773379837744
      ],
      [
        "▁mevcut",
        -9.18296702324776
      ],
      [
        "▁düşük",
        -9.184312800001539
      ],
      [
        "▁sonrasında",
        -9.184754089087171
      ],
      [
        "▁ederim.",
        -9.185517155657154
      ],
      [
        "▁madde",
        -9.186576345754563
      ],
      [
        "LERİ",
        -9.186994026311694
      ],
      [
        "▁olmadığını",
        -9.18857919857286
      ],
      [
        "▁yapı",
        -9.190932170682967
      ],
      [
        "kan",
        -9.191494931319786
      ],
      [
        "▁ödeme",
        -9.192143084615616
      ],
      [
        "▁fiyat",
        -9.192669931169092
      ],
      [
        "▁Ev",
        -9.192803464987838
      ],
      [
        "dim.",
        -9.192833225327526
      ],
      [
        "▁video",
        -9.195433180620014
      ],
      [
        "diği",
        -9.195623907320073
      ],
      [
        "▁milyar",
        -9.196139870847134
      ],
      [
        "▁kaliteli",
        -9.196642380955225
      ],
      [
        "▁akşam",
        -9.19665470342133
      ],
      [
        "▁İngilizce",
        -9.19681919822829
      ],
      [
        "▁Öz",
        -9.19744470522016
      ],
      [
        "▁bunlar",
        -9.197853907969868
      ],
      [
        "▁değerli",
        -9.198381827900597
      ],
      [
        "▁yaptı.",
        -9.198425451091964
      ],
      [
        "▁alanda",
        -9.19955780395168
      ],
      [
        "▁deniz",
        -9.20051573489146
      ],
      [
        "dim",
        -9.201725491602815
      ],
      [
        "▁çevre",
        -9.202545927885081
      ],
      [
        "▁sıcak",
        -9.202677157144919
      ],
      [
        "▁Lisesi",
        -9.203164906601554
      ],
      [
        "▁bilim",
        -9.20601140824106
      ],
      [
        "▁edecek",
        -9.20637670287043
      ],
      [
        "’te",
        -9.206697358185217
      ],
      [
        "▁ediyorum.",
        -9.207805209892934
      ],
      [
        "sun",
        -9.208744782314545
      ],
      [
        "▁kesinlikle",
        -9.21195363948062
      ],
      [
        "▁asla",
        -9.214681894544594
      ],
      [
        "mıştır.",
        -9.214813450945941
      ],
      [
        "ad",
        -9.215892710317892
      ],
      [
        "▁yan",
        -9.216543547139306
      ],
      [
        "▁alanı",
        -9.21698767301893
      ],
      [
        "sinden",
        -9.217000934974013
      ],
      [
        "▁gerektiğini",
        -9.21742755519122
      ],
      [
        "▁V",
        -9.218542639425953
      ],
      [
        "▁benzer",
        -9.218626013385531
      ],
      [
        "▁birisi",
        -9.219199224385964
      ],
      [
        "miştir.",
        -9.222612943808299
      ],
      [
        "bir",
        -9.22284480685008
      ],
      [
        "▁CHP",
        -9.223091624488566
      ],
      [
        "▁iddia",
        -9.224073873900844
      ],
      [
        "ch",
        -9.224710786420257
      ],
      [
        "▁işe",
        -9.226007029622112
      ],
      [
        "▁La",
        -9.228563881926346
      ],
      [
        "▁hesap",
        -9.229734433224648
      ],
      [
        "▁zengin",
        -9.231965615742217
      ],
      [
        "sin.",
        -9.234084693870026
      ],
      [
        "▁sayıda",
        -9.23428782446369
      ],
      [
        "▁firma",
        -9.236854913915366
      ],
      [
        "▁sabah",
        -9.238106100327368
      ],
      [
        "▁kararı",
        -9.23879453226238
      ],
      [
        "▁gitmek",
        -9.240716696921263
      ],
      [
        "▁yıllarda",
        -9.241017473871278
      ],
      [
        "▁BİR",
        -9.241767897153252
      ],
      [
        "liğe",
        -9.241786161236973
      ],
      [
        "m,",
        -9.242100167285887
      ],
      [
        "▁hayal",
        -9.24232849075246
      ],
      [
        "▁dışı",
        -9.24406560840675
      ],
      [
        "inden",
        -9.245275883179637
      ],
      [
        "▁Sa",
        -9.24579520941806
      ],
      [
        "imiz",
        -9.246019224826291
      ],
      [
        "mizin",
        -9.246501878778968
      ],
      [
        "▁kar",
        -9.24674239090457
      ],
      [
        "▁kuru",
        -9.247622812946735
      ],
      [
        "▁ediyor",
        -9.247840276721877
      ],
      [
        "▁Birliği",
        -9.248085522902969
      ],
      [
        "▁tatil",
        -9.248419651437441
      ],
      [
        "Ş",
        -9.249085560184767
      ],
      [
        "mu",
        -9.249929412324086
      ],
      [
        "▁geçmiş",
        -9.25057115384058
      ],
      [
        "▁aşağıdaki",
        -9.25069820780159
      ],
      [
        "▁yılda",
        -9.251558202347896
      ],
      [
        "▁olay",
        -9.251618507055923
      ],
      [
        "ro",
        -9.251750567017627
      ],
      [
        "▁Hem",
        -9.252282464598341
      ],
      [
        "▁baba",
        -9.252325176738307
      ],
      [
        "▁Deniz",
        -9.252347051782547
      ],
      [
        "▁&",
        -9.252872825086863
      ],
      [
        "-ı",
        -9.253238075280322
      ],
      [
        "▁ister",
        -9.253244603175162
      ],
      [
        "▁Bazı",
        -9.253337690499734
      ],
      [
        "▁basit",
        -9.25385898044496
      ],
      [
        "▁üniversite",
        -9.253916104369877
      ],
      [
        "▁halk",
        -9.254015914301295
      ],
      [
        "ydi.",
        -9.256125869485984
      ],
      [
        "▁Atatürk",
        -9.25628211959567
      ],
      [
        "▁L",
        -9.25746890014626
      ],
      [
        "▁servis",
        -9.259492801783875
      ],
      [
        "▁ilan",
        -9.260959538727207
      ],
      [
        "Z",
        -9.261082442413196
      ],
      [
        "▁kendisi",
        -9.26147763609395
      ],
      [
        "▁yapılması",
        -9.261859060202696
      ],
      [
        "ing",
        -9.262799541450978
      ],
      [
        "▁Filmi",
        -9.263028774075178
      ],
      [
        "▁Orta",
        -9.264092874329588
      ],
      [
        "▁Google",
        -9.26425930492234
      ],
      [
        "▁ücretsiz",
        -9.264288468324008
      ],
      [
        "▁işte",
        -9.265258656842327
      ],
      [
        ".”",
        -9.265541874698403
      ],
      [
        "w",
        -9.267072256193147
      ],
      [
        "▁başta",
        -9.267139677648284
      ],
      [
        "kar",
        -9.267396800026974
      ],
      [
        "ti.",
        -9.268200490115628
      ],
      [
        "▁Madde",
        -9.268470756897766
      ],
      [
        "▁ise,",
        -9.26852288670338
      ],
      [
        "W",
        -9.268804407380886
      ],
      [
        "▁Yine",
        -9.26917485567758
      ],
      [
        "▁hayata",
        -9.269446826691714
      ],
      [
        "▁isim",
        -9.27080539150948
      ],
      [
        "tı.",
        -9.272671534110433
      ],
      [
        "▁temiz",
        -9.272917754173182
      ],
      [
        "▁çalışmaları",
        -9.277741025763873
      ],
      [
        "▁Ar",
        -9.279370498834474
      ],
      [
        "iyor.",
        -9.279379591635497
      ],
      [
        "uz.",
        -9.279838207394183
      ],
      [
        "▁istiyorum.",
        -9.281923990926384
      ],
      [
        "▁bazen",
        -9.282030669568723
      ],
      [
        "▁sonraki",
        -9.282674683560916
      ],
      [
        "▁açıklama",
        -9.283489114487441
      ],
      [
        "▁net",
        -9.284304883011867
      ],
      [
        "nce",
        -9.28439545642863
      ],
      [
        "▁2011",
        -9.284589918047617
      ],
      [
        "▁Gül",
        -9.285767849627472
      ],
      [
        "▁işaret",
        -9.28580265241154
      ],
      [
        "▁Türkiye'nin",
        -9.28714427638819
      ],
      [
        "▁Çin",
        -9.287343884898501
      ],
      [
        "▁Eski",
        -9.288634181142978
      ],
      [
        "▁yaşında",
        -9.28872102006924
      ],
      [
        "▁filmi",
        -9.288870743976755
      ],
      [
        "▁yurt",
        -9.288982901985895
      ],
      [
        "▁yıldır",
        -9.289119830563994
      ],
      [
        "▁edildi.",
        -9.289440329342177
      ],
      [
        "▁sebep",
        -9.290713390686038
      ],
      [
        "▁belediye",
        -9.290974034400104
      ],
      [
        "▁doğum",
        -9.29160512005798
      ],
      [
        "▁müşteri",
        -9.292318507972407
      ],
      [
        "▁Can",
        -9.292367190281505
      ],
      [
        "DE",
        -9.293897900822945
      ],
      [
        "▁yavaş",
        -9.294693252967932
      ],
      [
        "▁alışveriş",
        -9.29471663090061
      ],
      [
        "▁Sanayi",
        -9.295645671471958
      ],
      [
        "▁sonuç",
        -9.296108353535335
      ],
      [
        "▁of",
        -9.296263180572964
      ],
      [
        "▁hakkı",
        -9.296296608779308
      ],
      [
        "▁programı",
        -9.296515705853757
      ],
      [
        "00",
        -9.297368407856531
      ],
      [
        "▁X",
        -9.298214651663072
      ],
      [
        "iye",
        -9.298529675324811
      ],
      [
        "▁konuştu.",
        -9.29980332754781
      ],
      [
        "▁teknoloji",
        -9.299966376862036
      ],
      [
        "▁Kadın",
        -9.300881493175735
      ],
      [
        "▁faaliyet",
        -9.301550961398524
      ],
      [
        "▁geliyor.",
        -9.302696463245056
      ],
      [
        "ydı.",
        -9.303938961086114
      ],
      [
        "▁gösteren",
        -9.30473777138336
      ],
      [
        "▁60",
        -9.305658207303086
      ],
      [
        "nıza",
        -9.306022762618328
      ],
      [
        "larımız",
        -9.307729252651287
      ],
      [
        "▁bunları",
        -9.3078467863035
      ],
      [
        "▁henüz",
        -9.308248025216752
      ],
      [
        "do",
        -9.308914172586702
      ],
      [
        "tur",
        -9.309332265224608
      ],
      [
        "▁sırada",
        -9.311524045663253
      ],
      [
        "▁kayıt",
        -9.315888540344783
      ],
      [
        "▁mal",
        -9.316390541946928
      ],
      [
        "▁ilişki",
        -9.316833002553194
      ],
      [
        "▁anlamda",
        -9.31696553342048
      ],
      [
        "''",
        -9.317793560389713
      ],
      [
        "▁bilgileri",
        -9.318569028860594
      ],
      [
        "▁tabi",
        -9.318934385881
      ],
      [
        "▁yağ",
        -9.319195304527852
      ],
      [
        "▁kere",
        -9.320305810717329
      ],
      [
        "▁The",
        -9.320427677068615
      ],
      [
        "▁kamu",
        -9.323420199663875
      ],
      [
        "▁puan",
        -9.327157134199265
      ],
      [
        "kten",
        -9.327229464013552
      ],
      [
        "ran",
        -9.329004561015516
      ],
      [
        "▁baskı",
        -9.329014440347922
      ],
      [
        "LARI",
        -9.329777179109072
      ],
      [
        "▁Ulusal",
        -9.330317030848526
      ],
      [
        "▁inşa",
        -9.330663982869536
      ],
      [
        "▁kitabı",
        -9.331325388251692
      ],
      [
        "der",
        -9.331419013252773
      ],
      [
        "▁sorunu",
        -9.331533585125683
      ],
      [
        "▁Siz",
        -9.3332878084843
      ],
      [
        "▁ürünleri",
        -9.333417235607284
      ],
      [
        "▁yazar",
        -9.333476129803149
      ],
      [
        "▁etmeye",
        -9.333955138035666
      ],
      [
        "▁Peygamber",
        -9.334134062978535
      ],
      [
        "as",
        -9.335013927294932
      ],
      [
        "▁icin",
        -9.335121189144918
      ],
      [
        "▁aday",
        -9.337016169845118
      ],
      [
        "spor",
        -9.33715152606975
      ],
      [
        "▁İletişim",
        -9.33810627492356
      ],
      [
        "▁amacı",
        -9.338479733530823
      ],
      [
        "▁5.",
        -9.338890567023093
      ],
      [
        "▁dolar",
        -9.339526366602065
      ],
      [
        "▁●",
        -9.340040423023758
      ],
      [
        "▁gider",
        -9.341561154109517
      ],
      [
        "▁Araştırma",
        -9.341798475710217
      ],
      [
        "▁31",
        -9.342496061411548
      ],
      [
        "nize",
        -9.34302422231218
      ],
      [
        "▁Günü",
        -9.343067256215047
      ],
      [
        "▁Hava",
        -9.344016174493973
      ],
      [
        "▁alınan",
        -9.344060517835057
      ],
      [
        "▁erken",
        -9.344610177721133
      ],
      [
        "▁Uzun",
        -9.344837189882725
      ],
      [
        "son",
        -9.345551580362578
      ],
      [
        "▁kurulu",
        -9.345828590588805
      ],
      [
        "▁yapmış",
        -9.346323956486579
      ],
      [
        "ıyor",
        -9.34649377200396
      ],
      [
        "▁Proje",
        -9.347384440885286
      ],
      [
        "▁etkisi",
        -9.347511871741542
      ],
      [
        "▁b",
        -9.347649044058091
      ],
      [
        "▁Bunlar",
        -9.347827274028845
      ],
      [
        "▁istiyorum",
        -9.348119622830747
      ],
      [
        "▁kültür",
        -9.349045791560133
      ],
      [
        "▁Sanat",
        -9.352051755476413
      ],
      [
        "ko",
        -9.352214471161211
      ],
      [
        "ze",
        -9.352809075544963
      ],
      [
        "▁bey",
        -9.35351425987541
      ],
      [
        "▁Cuma",
        -9.354244838888462
      ],
      [
        "▁Artık",
        -9.354259932393486
      ],
      [
        "▁edin",
        -9.354482524108349
      ],
      [
        "▁site",
        -9.355013052806262
      ],
      [
        "▁kullanımı",
        -9.355290364503633
      ],
      [
        "▁reklam",
        -9.356219978261006
      ],
      [
        "▁bas",
        -9.356476080109017
      ],
      [
        "▁ismi",
        -9.357991988792943
      ],
      [
        "▁kara",
        -9.35815616691418
      ],
      [
        "▁mu?",
        -9.35853165010576
      ],
      [
        "▁TV",
        -9.359622323878266
      ],
      [
        "▁Çevre",
        -9.360099075215507
      ],
      [
        "▁kendisini",
        -9.36020462045712
      ],
      [
        "▁Aile",
        -9.360540180496361
      ],
      [
        "▁bölüm",
        -9.360601952578342
      ],
      [
        "mda",
        -9.36094733293858
      ],
      [
        "▁Merkez",
        -9.360957936968415
      ],
      [
        "▁yap",
        -9.362462185445104
      ],
      [
        "▁model",
        -9.362532990834104
      ],
      [
        "▁döneminde",
        -9.36385374910645
      ],
      [
        "▁yaşanan",
        -9.365054748103422
      ],
      [
        "▁alarak",
        -9.365258777903165
      ],
      [
        "▁yerinde",
        -9.365479126778002
      ],
      [
        "▁ederim",
        -9.366700820598801
      ],
      [
        "▁kalp",
        -9.367261007074479
      ],
      [
        "mize",
        -9.367366368704019
      ],
      [
        "YA",
        -9.367705887548347
      ],
      [
        "▁Batı",
        -9.368885714205145
      ],
      [
        "▁sahne",
        -9.37013312463375
      ],
      [
        "lo",
        -9.37085348518162
      ],
      [
        "▁tasarım",
        -9.370893597755963
      ],
      [
        "▁uzman",
        -9.37134531427084
      ],
      [
        "▁düşünce",
        -9.371609794236587
      ],
      [
        "▁kullanarak",
        -9.372804843470202
      ],
      [
        "ör",
        -9.373561437838205
      ],
      [
        "▁dedi",
        -9.374746126330056
      ],
      [
        "▁ceza",
        -9.37479237554916
      ],
      [
        "▁olmasına",
        -9.375583411861093
      ],
      [
        "▁özelliği",
        -9.376089183523428
      ],
      [
        "’nun",
        -9.376851977251484
      ],
      [
        "▁ihtiyacı",
        -9.377069607625561
      ],
      [
        "▁kişiler",
        -9.377071762356461
      ],
      [
        "▁Böyle",
        -9.379490723914405
      ],
      [
        "▁giden",
        -9.379576474172424
      ],
      [
        "▁korku",
        -9.380299627837239
      ],
      [
        "ist",
        -9.38089983214503
      ],
      [
        "lanan",
        -9.38098711064275
      ],
      [
        "▁kurum",
        -9.381506637470618
      ],
      [
        "▁etki",
        -9.381760224812806
      ],
      [
        "▁birinci",
        -9.382554291506779
      ],
      [
        "▁Mühendisliği",
        -9.384666337283587
      ],
      [
        "▁Allah’ın",
        -9.384846667659605
      ],
      [
        "▁zamanlı",
        -9.385367906774835
      ],
      [
        "▁çıktı.",
        -9.38589143913717
      ],
      [
        "ıyor.",
        -9.386294973884207
      ],
      [
        "▁yola",
        -9.386671149116339
      ],
      [
        "▁gerçekleştiril",
        -9.386995435422577
      ],
      [
        "▁sefer",
        -9.387085393345757
      ],
      [
        "ah",
        -9.387323858565008
      ],
      [
        "▁güneş",
        -9.388919794929217
      ],
      [
        "ev",
        -9.38895091959657
      ],
      [
        "ebilirsiniz.",
        -9.390271028537569
      ],
      [
        "▁oluyor",
        -9.390308064446451
      ],
      [
        "▁davet",
        -9.390478199972424
      ],
      [
        "▁sınıf",
        -9.390863483009383
      ],
      [
        "▁Antalya",
        -9.391093551478832
      ],
      [
        "▁Hakkında",
        -9.391315375135996
      ],
      [
        "▁kesin",
        -9.39140381938805
      ],
      [
        "▁karşısında",
        -9.39399026237811
      ],
      [
        "iyle",
        -9.395298330612405
      ],
      [
        "▁sağlamak",
        -9.395422216631655
      ],
      [
        "▁dahi",
        -9.395559446368347
      ],
      [
        "sak",
        -9.395847334498809
      ],
      [
        "▁kişisel",
        -9.395871429832699
      ],
      [
        "▁bilinen",
        -9.396410324139431
      ],
      [
        "lığa",
        -9.396907553033934
      ],
      [
        "▁olmaya",
        -9.397246974660503
      ],
      [
        "zi",
        -9.399700895341573
      ],
      [
        "lerimiz",
        -9.399950596428972
      ],
      [
        "▁Erdoğan",
        -9.400169508486712
      ],
      [
        "▁Programı",
        -9.401155823589479
      ],
      [
        "▁veri",
        -9.40258536463553
      ],
      [
        "▁lira",
        -9.402788822204034
      ],
      [
        "▁bilgisayar",
        -9.402935791010307
      ],
      [
        "▁indir",
        -9.403084819219355
      ],
      [
        "▁Başbakan",
        -9.403297461794613
      ],
      [
        "▁ak",
        -9.406214919881924
      ],
      [
        "▁Bütün",
        -9.406327655876265
      ],
      [
        "▁terör",
        -9.407559096560192
      ],
      [
        "▁yapmaya",
        -9.407997329164502
      ],
      [
        "▁vakit",
        -9.408946798554169
      ],
      [
        "▁Rusya",
        -9.40915777366606
      ],
      [
        "▁tahmin",
        -9.409659918429165
      ],
      [
        "th",
        -9.41026988443787
      ],
      [
        "▁edilir.",
        -9.410686884323852
      ],
      [
        "▁süreci",
        -9.41120814579536
      ],
      [
        "▁aç",
        -9.411397957891145
      ],
      [
        "▁2009",
        -9.41173565418834
      ],
      [
        "▁Gün",
        -9.411793180023139
      ],
      [
        "▁''",
        -9.412779742115944
      ],
      [
        "▁darbe",
        -9.413314835532738
      ],
      [
        "▁boş",
        -9.413818057465704
      ],
      [
        "▁diş",
        -9.413950506313665
      ],
      [
        "muş",
        -9.413986760421462
      ],
      [
        "ey",
        -9.414496422230922
      ],
      [
        "▁yerel",
        -9.41499568588173
      ],
      [
        "'te",
        -9.415633537757735
      ],
      [
        "vi",
        -9.415736046667945
      ],
      [
        "▁Na",
        -9.416298427563127
      ],
      [
        "▁okuma",
        -9.416481400025988
      ],
      [
        "▁hafif",
        -9.416903677242367
      ],
      [
        "’ta",
        -9.417533239840644
      ],
      [
        "▁Paşa",
        -9.417625569040094
      ],
      [
        "▁basın",
        -9.418111175347827
      ],
      [
        "▁işlem",
        -9.418503240808061
      ],
      [
        "▁olmuştur.",
        -9.41889444822477
      ],
      [
        "sam",
        -9.419789033794228
      ],
      [
        "▁hediye",
        -9.42068105895755
      ],
      [
        "▁Film",
        -9.420967366526959
      ],
      [
        "▁gerçekleştir",
        -9.421230309826257
      ],
      [
        "▁sezon",
        -9.421754611487867
      ],
      [
        "▁bulundu.",
        -9.422137377415194
      ],
      [
        "▁lisans",
        -9.422927066644199
      ],
      [
        "▁mükemmel",
        -9.423284415652304
      ],
      [
        "▁Merhaba",
        -9.423377858284748
      ],
      [
        "fa",
        -9.423596524532158
      ],
      [
        "▁Neden",
        -9.424208821558926
      ],
      [
        "▁sonu",
        -9.426896429436404
      ],
      [
        "dım.",
        -9.426952614385574
      ],
      [
        "▁neredeyse",
        -9.427628939658119
      ],
      [
        "ö",
        -9.428144740590902
      ],
      [
        "▁bunların",
        -9.428287702832492
      ],
      [
        "▁etti",
        -9.428359449700274
      ],
      [
        "ama",
        -9.428882037742351
      ],
      [
        "▁nokta",
        -9.42910659391194
      ],
      [
        "▁Bilim",
        -9.42951439708932
      ],
      [
        "▁Bursa",
        -9.429929402892805
      ],
      [
        "▁geliyor",
        -9.430331813218512
      ],
      [
        "▁Hatta",
        -9.430705146224355
      ],
      [
        "▁vergi",
        -9.431697350996194
      ],
      [
        "▁fikir",
        -9.431822114231906
      ],
      [
        "▁hayatını",
        -9.432086111777025
      ],
      [
        "▁emin",
        -9.432420783751667
      ],
      [
        "▁ayı",
        -9.43311179954317
      ],
      [
        "▁Bizim",
        -9.43357456179917
      ],
      [
        "’yi",
        -9.43436615074658
      ],
      [
        "▁içine",
        -9.434721388702332
      ],
      [
        "Ü",
        -9.435535922046236
      ],
      [
        "▁ülkede",
        -9.435840505554893
      ],
      [
        "▁yaşama",
        -9.436328903360891
      ],
      [
        "▁Aslında",
        -9.437154287123107
      ],
      [
        "▁edilmiş",
        -9.437849536352035
      ],
      [
        "20",
        -9.437913145357687
      ],
      [
        "▁sebebi",
        -9.438398842029553
      ],
      [
        "▁profesyonel",
        -9.438856304304679
      ],
      [
        "▁altı",
        -9.43944736080943
      ],
      [
        "▁Ş",
        -9.440302855998219
      ],
      [
        "▁suç",
        -9.44065976213349
      ],
      [
        "▁gibi,",
        -9.441024878811785
      ],
      [
        "▁der",
        -9.443141895941935
      ],
      [
        "▁aylık",
        -9.44314504024278
      ],
      [
        "ici",
        -9.443353233975042
      ],
      [
        "▁değerlendirme",
        -9.444513210403528
      ],
      [
        "▁Onun",
        -9.446420816571003
      ],
      [
        "▁seyahat",
        -9.446816287939598
      ],
      [
        "▁Buna",
        -9.446990837049823
      ],
      [
        "▁sohbet",
        -9.44726715878118
      ],
      [
        "▁sizlere",
        -9.447409505063845
      ],
      [
        "▁kafa",
        -9.44811295559012
      ],
      [
        "▁tatlı",
        -9.448184580085215
      ],
      [
        "ton",
        -9.448829547736402
      ],
      [
        "▁olumlu",
        -9.449170728706282
      ],
      [
        "▁verme",
        -9.450361583385138
      ],
      [
        "▁süresi",
        -9.451267435185093
      ],
      [
        "▁>",
        -9.451446785481766
      ],
      [
        "▁yara",
        -9.451750924458574
      ],
      [
        "▁sayı",
        -9.452029243424132
      ],
      [
        "meye",
        -9.452246243328684
      ],
      [
        "co",
        -9.4529566337957
      ],
      [
        "▁bakım",
        -9.452990210851429
      ],
      [
        "▁yalnız",
        -9.453092066447429
      ],
      [
        "▁boya",
        -9.453270063926173
      ],
      [
        "▁olduğuna",
        -9.453539092955545
      ],
      [
        "▁diyerek",
        -9.454008100567597
      ],
      [
        "▁Var",
        -9.454683445461832
      ],
      [
        "▁mü",
        -9.454759848162665
      ],
      [
        "men",
        -9.454948821913064
      ],
      [
        "▁adını",
        -9.45522020984242
      ],
      [
        "▁çalışmalar",
        -9.45538758773202
      ],
      [
        "▁gerekmektedir.",
        -9.455795687091705
      ],
      [
        "▁Fatih",
        -9.45767561252815
      ],
      [
        "▁sevgi",
        -9.459032475605971
      ],
      [
        "▁kullanım",
        -9.45977698458259
      ],
      [
        "▁eder",
        -9.460694945353962
      ],
      [
        "▁polis",
        -9.462200122196332
      ],
      [
        "▁metre",
        -9.462594601558635
      ],
      [
        "▁etmesi",
        -9.46283362268372
      ],
      [
        "▁alıyor.",
        -9.463187709495166
      ],
      [
        "▁ekran",
        -9.46366579217592
      ],
      [
        "k,",
        -9.463752041088185
      ],
      [
        "▁anlamına",
        -9.464010027806719
      ],
      [
        "▁günlerde",
        -9.464019976338491
      ],
      [
        "▁insanları",
        -9.464282137961046
      ],
      [
        "▁belge",
        -9.464586501315429
      ],
      [
        "▁tepki",
        -9.46495864760943
      ],
      [
        "▁kullanma",
        -9.464977729031315
      ],
      [
        "▁askeri",
        -9.465024188771945
      ],
      [
        "▁nedeni",
        -9.465542759005874
      ],
      [
        "▁M.",
        -9.465684248002358
      ],
      [
        "▁gelir.",
        -9.465878281436275
      ],
      [
        "▁olumsuz",
        -9.466540156210957
      ],
      [
        "▁durumunda",
        -9.466856864908188
      ],
      [
        "▁herkesin",
        -9.467694672299636
      ],
      [
        "▁Otobüs",
        -9.467937813804497
      ],
      [
        "▁Dil",
        -9.468550573921352
      ],
      [
        "▁yılın",
        -9.468844629322742
      ],
      [
        "▁Genç",
        -9.468972158759165
      ],
      [
        "▁Böylece",
        -9.469037943361023
      ],
      [
        "▁kelime",
        -9.469874946113894
      ],
      [
        "▁bende",
        -9.469952977852316
      ],
      [
        "▁kaynak",
        -9.47021142248039
      ],
      [
        "▁eş",
        -9.470358088005671
      ],
      [
        "▁mesaj",
        -9.470672219228238
      ],
      [
        "10",
        -9.471048214177063
      ],
      [
        "▁derin",
        -9.471120854548307
      ],
      [
        "▁Ma",
        -9.471627670826404
      ],
      [
        "▁Halk",
        -9.471773331678616
      ],
      [
        "ül",
        -9.471967821193426
      ],
      [
        "▁çıktı",
        -9.472465528074501
      ],
      [
        "▁üyesi",
        -9.4729978305737
      ],
      [
        "▁sürede",
        -9.47500579719155
      ],
      [
        "▁öğretim",
        -9.475566262081466
      ],
      [
        "▁Tarihi",
        -9.475621038895026
      ],
      [
        "▁sert",
        -9.475864469986764
      ],
      [
        "▁pazar",
        -9.47623030013348
      ],
      [
        "can",
        -9.476553829229697
      ],
      [
        "▁kazan",
        -9.476618274227565
      ],
      [
        "▁sona",
        -9.47699144255901
      ],
      [
        "▁konuşma",
        -9.477368373915244
      ],
      [
        "▁ülkenin",
        -9.478599867289716
      ],
      [
        "▁fayda",
        -9.478685652679946
      ],
      [
        "▁maç",
        -9.479460612545033
      ],
      [
        "▁hata",
        -9.479513500477045
      ],
      [
        "▁ilçe",
        -9.479604232224972
      ],
      [
        "▁suyu",
        -9.48059097086844
      ],
      [
        "▁önüne",
        -9.480730385208464
      ],
      [
        "▁Amerika",
        -9.481027159108578
      ],
      [
        "mızın",
        -9.482928436068006
      ],
      [
        "▁test",
        -9.483558913154699
      ],
      [
        "liğini",
        -9.483602880955761
      ],
      [
        "DA",
        -9.484105482547472
      ],
      [
        "▁Türkiye'de",
        -9.484574650745195
      ],
      [
        "dığını",
        -9.485031184901292
      ],
      [
        "▁AB",
        -9.485119564238687
      ],
      [
        "▁çocuklar",
        -9.486346204931518
      ],
      [
        "▁Kendi",
        -9.486651384966471
      ],
      [
        "▁genellikle",
        -9.486677499842353
      ],
      [
        "▁katkı",
        -9.488028094037062
      ],
      [
        "▁çift",
        -9.488617856325614
      ],
      [
        "▁70",
        -9.488995996320646
      ],
      [
        "SI",
        -9.49167630047758
      ],
      [
        "ber",
        -9.491885220002658
      ],
      [
        "▁kişilik",
        -9.491939317440863
      ],
      [
        "▁vardır",
        -9.491972084617512
      ],
      [
        "go",
        -9.492058787811605
      ],
      [
        "▁kısmı",
        -9.492240618308829
      ],
      [
        "▁hepsi",
        -9.49296840310394
      ],
      [
        "▁etmiş",
        -9.493312610872573
      ],
      [
        "▁Başkanlığı",
        -9.494524232312298
      ],
      [
        "▁Doç.",
        -9.494985518983968
      ],
      [
        "▁koruma",
        -9.49627388896667
      ],
      [
        "▁yaparak",
        -9.496445458985402
      ],
      [
        "▁sonucunda",
        -9.49666046688056
      ],
      [
        "▁W",
        -9.497749229442359
      ],
      [
        "▁evde",
        -9.498397767218417
      ],
      [
        "▁araba",
        -9.499265656809705
      ],
      [
        "muz",
        -9.499896476835445
      ],
      [
        "▁edip",
        -9.500497940866783
      ],
      [
        "▁sağlayan",
        -9.50129947247975
      ],
      [
        "▁Pazar",
        -9.501333108716532
      ],
      [
        "▁olmadan",
        -9.501364659263674
      ],
      [
        "▁temsil",
        -9.50158055197559
      ],
      [
        "▁olsun.",
        -9.501694468122388
      ],
      [
        "▁(A",
        -9.50210200646902
      ],
      [
        "▁serbest",
        -9.502503057239117
      ],
      [
        "▁Alman",
        -9.502847215172263
      ],
      [
        "fi",
        -9.503089630426853
      ],
      [
        "▁bebek",
        -9.504373536173267
      ],
      [
        "▁olmaz",
        -9.504992783772504
      ],
      [
        "▁program",
        -9.505253037762362
      ],
      [
        "▁Ömer",
        -9.505786560325
      ],
      [
        "suz",
        -9.507410246203209
      ],
      [
        "▁Kitap",
        -9.508121748541386
      ],
      [
        "▁Sultan",
        -9.508364813580055
      ],
      [
        "▁kalma",
        -9.509198328551093
      ],
      [
        "▁eğitimi",
        -9.50942605745749
      ],
      [
        "▁Milletvekili",
        -9.510649749762838
      ],
      [
        "▁tip",
        -9.51095060382757
      ],
      [
        "▁oyunu",
        -9.51180065613407
      ],
      [
        "larınızı",
        -9.512286796010915
      ],
      [
        "▁Güvenlik",
        -9.512567400913543
      ],
      [
        "▁taş",
        -9.512766581381747
      ],
      [
        "mizde",
        -9.513041060047211
      ],
      [
        "▁Yılmaz",
        -9.513464612992323
      ],
      [
        "▁500",
        -9.513980861329758
      ],
      [
        "▁bölümü",
        -9.514011949560484
      ],
      [
        "▁desteği",
        -9.514130859394172
      ],
      [
        "▁Hasan",
        -9.515015996615286
      ],
      [
        "▁Yardımcısı",
        -9.515177119073218
      ],
      [
        "▁Rus",
        -9.516210718315417
      ],
      [
        "▁öncesi",
        -9.516271629393927
      ],
      [
        "▁gören",
        -9.516838454392657
      ],
      [
        "▁yazılı",
        -9.517314057763809
      ],
      [
        "▁bulunuyor.",
        -9.517776927188926
      ],
      [
        "imi",
        -9.520883122086845
      ],
      [
        "▁dua",
        -9.52203819023287
      ],
      [
        "▁rol",
        -9.52206782264372
      ],
      [
        "▁sol",
        -9.523304045760128
      ],
      [
        "▁vize",
        -9.523468528817467
      ],
      [
        "▁kal",
        -9.524669085948716
      ],
      [
        "▁nedir?",
        -9.52568096511428
      ],
      [
        "▁6.",
        -9.526994705327311
      ],
      [
        "▁özellikleri",
        -9.527027694219761
      ],
      [
        "’nda",
        -9.52765604777639
      ],
      [
        "Bu",
        -9.527708408045143
      ],
      [
        "▁oda",
        -9.527742541643141
      ],
      [
        "▁ortalama",
        -9.52901471358698
      ],
      [
        "▁öne",
        -9.52938531505291
      ],
      [
        "▁taşıma",
        -9.529526806821789
      ],
      [
        "oğlu,",
        -9.529552316089575
      ],
      [
        "▁modern",
        -9.530334837226821
      ],
      [
        "▁saygı",
        -9.530559390771025
      ],
      [
        "▁ölüm",
        -9.531237277646841
      ],
      [
        "`",
        -9.532281679177181
      ],
      [
        "▁Cumhuriyeti",
        -9.53325090735657
      ],
      [
        "▁saldırı",
        -9.534164999525672
      ],
      [
        "▁gücü",
        -9.534181389042836
      ],
      [
        "",
        -9.534242547596925
      ],
      [
        "▁yalnızca",
        -9.534647505889652
      ],
      [
        "â",
        -9.53513142169824
      ],
      [
        "▁sınav",
        -9.535680941397787
      ],
      [
        "▁belirten",
        -9.535814487408864
      ],
      [
        "▁Baş",
        -9.539056085019755
      ],
      [
        "ut",
        -9.539380146119143
      ],
      [
        "▁ticaret",
        -9.539773644275002
      ],
      [
        "'yi",
        -9.541500248245804
      ],
      [
        "▁Osman",
        -9.542125140133722
      ],
      [
        "▁Tarih",
        -9.542601108112176
      ],
      [
        "▁dönüş",
        -9.542975469432147
      ],
      [
        "▁Kongresi",
        -9.543049756693492
      ],
      [
        "▁tedavisi",
        -9.54345892967185
      ],
      [
        "▁olun",
        -9.54484137269041
      ],
      [
        "▁olmasını",
        -9.545653688954825
      ],
      [
        "▁Le",
        -9.5464288424889
      ],
      [
        "▁düşünüyorum.",
        -9.547515704553097
      ],
      [
        "▁ışık",
        -9.548731177316899
      ],
      [
        "▁+",
        -9.549061372753508
      ],
      [
        "iyor",
        -9.549161255507313
      ],
      [
        "ından",
        -9.550310291420292
      ],
      [
        "▁giren",
        -9.550993518195957
      ],
      [
        "▁aşırı",
        -9.551209270052352
      ],
      [
        "iniz",
        -9.552053277656999
      ],
      [
        "iyet",
        -9.552139564541196
      ],
      [
        "▁Erkek",
        -9.552601330897037
      ],
      [
        "▁alıp",
        -9.552688687208718
      ],
      [
        "mis",
        -9.552988175314784
      ],
      [
        "▁oranı",
        -9.553062182081243
      ],
      [
        "mıza",
        -9.55433145323989
      ],
      [
        "▁Murat",
        -9.554425141689425
      ],
      [
        "▁var,",
        -9.554441769547012
      ],
      [
        "▁dünyaya",
        -9.554445674315822
      ],
      [
        "sınız.",
        -9.55496327826041
      ],
      [
        "▁Kan",
        -9.555264033741583
      ],
      [
        "▁İran",
        -9.555357551024048
      ],
      [
        "▁2008",
        -9.555664863003155
      ],
      [
        "▁Se",
        -9.55574048845244
      ],
      [
        "▁isimli",
        -9.556055328285868
      ],
      [
        "▁üçüncü",
        -9.55618274521974
      ],
      [
        "▁Suriye",
        -9.556259833637583
      ],
      [
        "▁sıkıntı",
        -9.557418047612785
      ],
      [
        "layan",
        -9.557527327609026
      ],
      [
        "if",
        -9.557705500497399
      ],
      [
        "▁ediyoruz.",
        -9.560046004971309
      ],
      [
        "▁liste",
        -9.561970748932673
      ],
      [
        "▁çeken",
        -9.562371557730588
      ],
      [
        "▁Kar",
        -9.562506758635827
      ],
      [
        "▁Güney",
        -9.563169691621075
      ],
      [
        "▁vb.",
        -9.563194928813095
      ],
      [
        "▁yalan",
        -9.563215497270772
      ],
      [
        "hane",
        -9.564078462747364
      ],
      [
        "siyle",
        -9.564336410762039
      ],
      [
        "▁Ek",
        -9.564598192852031
      ],
      [
        "▁sağlar.",
        -9.56495120622484
      ],
      [
        "lerdir.",
        -9.56525659540144
      ],
      [
        "İN",
        -9.565326203529022
      ],
      [
        "mıştı.",
        -9.565715915339375
      ],
      [
        "▁kaza",
        -9.565779713199323
      ],
      [
        "▁geldiği",
        -9.56629337666006
      ],
      [
        "▁90",
        -9.566594546764858
      ],
      [
        "▁güncel",
        -9.56912226616646
      ],
      [
        "▁—",
        -9.569518160966641
      ],
      [
        "▁geçerli",
        -9.569568255882956
      ],
      [
        "▁Almanya",
        -9.569578905924544
      ],
      [
        "▁hali",
        -9.569949989240278
      ],
      [
        "acaktır.",
        -9.57000065195207
      ],
      [
        "🙂",
        -9.570358435331391
      ],
      [
        "▁c",
        -9.570500722256456
      ],
      [
        "▁yerini",
        -9.570764539281843
      ],
      [
        "▁şirket",
        -9.57110410180888
      ],
      [
        "▁kap",
        -9.571316890984438
      ],
      [
        "▁80",
        -9.571850261506192
      ],
      [
        ".\"",
        -9.572145985334753
      ],
      [
        "▁İkinci",
        -9.572192692878204
      ],
      [
        "yen",
        -9.572608769764425
      ],
      [
        "▁aktif",
        -9.573683407876906
      ],
      [
        "▁kapalı",
        -9.573899582751647
      ],
      [
        "▁ki:",
        -9.574669795351435
      ],
      [
        "▁yanıt",
        -9.574855017908757
      ],
      [
        "▁Müslüman",
        -9.575005838415326
      ],
      [
        "▁sitesi",
        -9.575880615992236
      ],
      [
        "▁kırmızı",
        -9.576056736697272
      ],
      [
        "din",
        -9.577710560740975
      ],
      [
        "▁kişilerin",
        -9.57791471612435
      ],
      [
        "▁gelmiş",
        -9.578420014161825
      ],
      [
        "▁Ha",
        -9.580429865999932
      ],
      [
        "▁Recep",
        -9.58055989376071
      ],
      [
        "▁insanı",
        -9.581415101747321
      ],
      [
        "▁kent",
        -9.581840017562003
      ],
      [
        "▁ÜNİVERSİTESİ",
        -9.582007638266488
      ],
      [
        "▁merkez",
        -9.58202821605785
      ],
      [
        "▁bakış",
        -9.582128629395065
      ],
      [
        "sü",
        -9.582307487960302
      ],
      [
        "▁yapılmış",
        -9.58289256835532
      ],
      [
        "▁Örneğin",
        -9.583039712007771
      ],
      [
        "▁sahiptir.",
        -9.58324083359405
      ],
      [
        "’daki",
        -9.584311458820853
      ],
      [
        "▁sinema",
        -9.585424654534634
      ],
      [
        "X",
        -9.585436788273899
      ],
      [
        "▁Yönetmelik",
        -9.586260193664314
      ],
      [
        "▁Web",
        -9.586844642666858
      ],
      [
        "▁buraya",
        -9.587178465540903
      ],
      [
        "▁meslek",
        -9.587825669346234
      ],
      [
        "MA",
        -9.58825166508188
      ],
      [
        "▁silah",
        -9.588383699965917
      ],
      [
        "▁arka",
        -9.588720992809382
      ],
      [
        "▁engel",
        -9.589279391967644
      ],
      [
        "▁alın",
        -9.589456878544304
      ],
      [
        "seniz",
        -9.58980210189781
      ],
      [
        "’yı",
        -9.58988447202812
      ],
      [
        "▁Me",
        -9.590243266924436
      ],
      [
        "▁önemlidir.",
        -9.590766392474727
      ],
      [
        "▁Meclisi",
        -9.59100401955214
      ],
      [
        "▁Güneş",
        -9.59134023635408
      ],
      [
        "'nde",
        -9.591616437613274
      ],
      [
        "▁işlemi",
        -9.592164016456405
      ],
      [
        "’na",
        -9.592218583334592
      ],
      [
        "▁vardı",
        -9.592697138320997
      ],
      [
        "▁Tıp",
        -9.592932431194226
      ],
      [
        "▁hayatı",
        -9.593087421884357
      ],
      [
        "tü",
        -9.593352586134595
      ],
      [
        "▁bence",
        -9.593495957703347
      ],
      [
        "▁aşk",
        -9.59375193287071
      ],
      [
        "▁oku",
        -9.594475311407262
      ],
      [
        "▁milli",
        -9.594718864124676
      ],
      [
        "▁getir",
        -9.595115297302074
      ],
      [
        "▁bahis",
        -9.595152375843034
      ],
      [
        "▁Okul",
        -9.596163693802492
      ],
      [
        "▁ürünler",
        -9.59680389978302
      ],
      [
        "IN",
        -9.597262579995066
      ],
      [
        "▁getiren",
        -9.597554004287343
      ],
      [
        "▁Ka",
        -9.598471269262667
      ],
      [
        "▁hukuk",
        -9.599614310186471
      ],
      [
        "▁Sistemi",
        -9.60028321206946
      ],
      [
        "▁almış",
        -9.600344718103486
      ],
      [
        "▁dönemi",
        -9.600473215125216
      ],
      [
        "▁Çalışma",
        -9.601094174124892
      ],
      [
        "▁tarihli",
        -9.60240678090289
      ],
      [
        "bet",
        -9.6027163626413
      ],
      [
        "▁Muhammed",
        -9.602911164169658
      ],
      [
        "▁lütfen",
        -9.603073170765569
      ],
      [
        "sın.",
        -9.603253643366958
      ],
      [
        "▁gizli",
        -9.603764193056918
      ],
      [
        "lerinizi",
        -9.60385771247179
      ],
      [
        "▁yaygın",
        -9.604012224381623
      ],
      [
        "▁namaz",
        -9.6041258646723
      ],
      [
        "▁bölgede",
        -9.604515665493443
      ],
      [
        "▁belirli",
        -9.605502204572325
      ],
      [
        "▁Küçük",
        -9.609062122328675
      ],
      [
        "ck",
        -9.610734849481503
      ],
      [
        "▁kart",
        -9.610820486037618
      ],
      [
        "12",
        -9.611034309451021
      ],
      [
        "'ta",
        -9.612477615739056
      ],
      [
        "▁plan",
        -9.612517226107244
      ],
      [
        "▁asker",
        -9.612945405784835
      ],
      [
        "▁herkese",
        -9.613036077964246
      ],
      [
        "let",
        -9.613265946123757
      ],
      [
        "▁başkanı",
        -9.613785272060753
      ],
      [
        "▁Konu",
        -9.613977469738753
      ],
      [
        "▁Ba",
        -9.614733341116095
      ],
      [
        "▁terk",
        -9.61500789508158
      ],
      [
        "▁35",
        -9.615011545308374
      ],
      [
        "▁Beyaz",
        -9.615398467901493
      ],
      [
        "▁Kim",
        -9.615847394509416
      ],
      [
        "ot",
        -9.61687379507979
      ],
      [
        "lanma",
        -9.616902567126516
      ],
      [
        "▁Zaman",
        -9.617038578721587
      ],
      [
        "▁Ö",
        -9.617869807226121
      ],
      [
        "▁uyku",
        -9.617911308620325
      ],
      [
        "▁İnşaat",
        -9.618036220454941
      ],
      [
        "lenen",
        -9.618338337490249
      ],
      [
        "yo",
        -9.618724132612787
      ],
      [
        "up",
        -9.619176661799994
      ],
      [
        "▁Başvur",
        -9.619299713254613
      ],
      [
        "▁Bölümü",
        -9.61953903784432
      ],
      [
        "▁yeşil",
        -9.619917861345849
      ],
      [
        "▁görüş",
        -9.619926618945879
      ],
      [
        "▁görüntü",
        -9.620650367013692
      ],
      [
        "▁aracı",
        -9.620771457464883
      ],
      [
        "▁etmektedir.",
        -9.620964298781168
      ],
      [
        "▁g",
        -9.62102096285067
      ],
      [
        "▁toplu",
        -9.622071476713689
      ],
      [
        "▁banka",
        -9.622655105345506
      ],
      [
        "▁gel",
        -9.623089944710383
      ],
      [
        "▁işin",
        -9.623151667184437
      ],
      [
        "▁zamanı",
        -9.623428590123186
      ],
      [
        "gen",
        -9.623725552155708
      ],
      [
        "▁An",
        -9.623996459713748
      ],
      [
        "▁Odası",
        -9.624050786179497
      ],
      [
        "▁tarihleri",
        -9.624101128988602
      ],
      [
        "cık",
        -9.624481705176233
      ],
      [
        "▁imkanı",
        -9.62505517838541
      ],
      [
        "sa,",
        -9.625127022806687
      ],
      [
        "▁Turizm",
        -9.626022253992584
      ],
      [
        "▁Öğretim",
        -9.626355867128034
      ],
      [
        "▁resim",
        -9.626390795197361
      ],
      [
        "ndaki",
        -9.626474117771975
      ],
      [
        "▁İngiltere",
        -9.626685893092997
      ],
      [
        "!”",
        -9.627730358602868
      ],
      [
        "▁düzenli",
        -9.628024191961117
      ],
      [
        "lardı.",
        -9.62820196832026
      ],
      [
        "▁Yaz",
        -9.628404811646844
      ],
      [
        "▁Mu",
        -9.628536978259927
      ],
      [
        "▁anlat",
        -9.629037074647357
      ],
      [
        "▁adresi",
        -9.629982934729938
      ],
      [
        "▁elektrik",
        -9.63081941824939
      ],
      [
        "▁anlama",
        -9.631133561641262
      ],
      [
        "▁kas",
        -9.631271787899706
      ],
      [
        "’ne",
        -9.63166330669737
      ],
      [
        "gu",
        -9.633398292000866
      ],
      [
        "unun",
        -9.633494782146677
      ],
      [
        "▁dava",
        -9.633855447270328
      ],
      [
        "▁esas",
        -9.634118998154598
      ],
      [
        "▁dini",
        -9.634726955105407
      ],
      [
        "▁detaylı",
        -9.635013547617113
      ],
      [
        "▁ortadan",
        -9.635416444331415
      ],
      [
        "▁memnun",
        -9.635688916601255
      ],
      [
        "▁çay",
        -9.636193991981639
      ],
      [
        "Mesleki",
        -9.636781845510766
      ],
      [
        "▁dün",
        -9.637798371277562
      ],
      [
        "▁Yıldız",
        -9.638649673984057
      ],
      [
        "▁asıl",
        -9.639034530424272
      ],
      [
        "▁sanayi",
        -9.639265631219597
      ],
      [
        "▁hizmetleri",
        -9.639947442645116
      ],
      [
        "▁«",
        -9.639971420209784
      ],
      [
        "▁ruh",
        -9.640589874692537
      ],
      [
        "▁doğrudan",
        -9.642665459983895
      ],
      [
        "▁Haberleri",
        -9.643420261464623
      ],
      [
        "▁İbrahim",
        -9.644244780729156
      ],
      [
        "diğini",
        -9.644314066684952
      ],
      [
        "▁arkadaş",
        -9.645661043974702
      ],
      [
        "’nde",
        -9.646006881485922
      ],
      [
        "▁kullanıcı",
        -9.646024537639878
      ],
      [
        "dik",
        -9.646851085315106
      ],
      [
        "lardır.",
        -9.64730544385933
      ],
      [
        "▁Teknoloji",
        -9.647729394630389
      ],
      [
        "abilir",
        -9.648298879184665
      ],
      [
        "▁boyu",
        -9.64954196336339
      ],
      [
        "yum",
        -9.649931198856596
      ],
      [
        "▁kendilerine",
        -9.650003045848226
      ],
      [
        "▁siyah",
        -9.650569067588709
      ],
      [
        "▁Para",
        -9.650847402594797
      ],
      [
        "▁görevi",
        -9.650920382845442
      ],
      [
        "TE",
        -9.65112079780358
      ],
      [
        "▁başladı",
        -9.65131677701918
      ],
      [
        "lanmış",
        -9.651317879453417
      ],
      [
        "ebilir",
        -9.651889913439378
      ],
      [
        "▁eksik",
        -9.653148823463567
      ],
      [
        "▁Tayyip",
        -9.65359856162667
      ],
      [
        "▁indirim",
        -9.65405899561812
      ],
      [
        "▁Kuzey",
        -9.65412579782706
      ],
      [
        "▁binlerce",
        -9.654256412861088
      ],
      [
        "▁km",
        -9.654778750346466
      ],
      [
        "▁yapıldı.",
        -9.655272811660778
      ],
      [
        "▁vücut",
        -9.65569323553244
      ],
      [
        "▁Ra",
        -9.655717164194899
      ],
      [
        "▁zamanlarda",
        -9.656078912561135
      ],
      [
        "▁fiyatları",
        -9.656545116254158
      ],
      [
        "▁Yapı",
        -9.656879730489663
      ],
      [
        "▁Yönetimi",
        -9.65754604526117
      ],
      [
        "▁San",
        -9.65777918043807
      ],
      [
        "▁Meslek",
        -9.65794068386176
      ],
      [
        "▁edin.",
        -9.65828543124272
      ],
      [
        "-1",
        -9.659060742696045
      ],
      [
        "▁iman",
        -9.659282032215572
      ],
      [
        "▁günler",
        -9.66018837833343
      ],
      [
        "▁Yıl",
        -9.660392110278924
      ],
      [
        "▁lazım",
        -9.660479736347778
      ],
      [
        "sıyla",
        -9.660500380869959
      ],
      [
        "▁güvenli",
        -9.660761175902998
      ],
      [
        "▁kaynağı",
        -9.661002119618853
      ],
      [
        "fe",
        -9.661185728866926
      ],
      [
        "▁oldukları",
        -9.661433566247139
      ],
      [
        "▁soğuk",
        -9.661561407252828
      ],
      [
        "▁Etiketler:",
        -9.663035853575565
      ],
      [
        "van",
        -9.663347226977876
      ],
      [
        "dür.",
        -9.663923698093267
      ],
      [
        "▁ekibi",
        -9.664838686771168
      ],
      [
        "▁İç",
        -9.66496454093188
      ],
      [
        "▁Mi",
        -9.665591918306315
      ],
      [
        "▁iken",
        -9.665661677022136
      ],
      [
        "lat",
        -9.665740627582522
      ],
      [
        "▁eve",
        -9.666479726918794
      ],
      [
        "▁7.",
        -9.666504606541405
      ],
      [
        "▁belirtilen",
        -9.666967997155908
      ],
      [
        "▁kalite",
        -9.668234962654125
      ],
      [
        ":)",
        -9.668465330902388
      ],
      [
        "▁lazım.",
        -9.668948865601994
      ],
      [
        "▁biçimde",
        -9.669171796922953
      ],
      [
        "▁(T",
        -9.669541883850751
      ],
      [
        "▁otel",
        -9.66955786811032
      ],
      [
        "mde",
        -9.670052189381902
      ],
      [
        "▁05",
        -9.67071572758412
      ],
      [
        "dir,",
        -9.671210319522608
      ],
      [
        "90",
        -9.67122987417507
      ],
      [
        "ız",
        -9.671334100437978
      ],
      [
        "▁kimi",
        -9.671636439880935
      ],
      [
        "▁projesi",
        -9.672076643376158
      ],
      [
        "▁yaşındaki",
        -9.673048864913543
      ],
      [
        "▁yıllar",
        -9.673382009096429
      ],
      [
        "rak",
        -9.67344809999572
      ],
      [
        "▁acil",
        -9.673963132567508
      ],
      [
        "▁yasa",
        -9.675536374262306
      ],
      [
        "‘",
        -9.675703280424727
      ],
      [
        "▁doktor",
        -9.675878283856353
      ],
      [
        "▁falan",
        -9.676484198607756
      ],
      [
        "▁uçak",
        -9.677078869727932
      ],
      [
        "▁yapımı",
        -9.678014217201122
      ],
      [
        "ME",
        -9.678284738749948
      ],
      [
        "▁sivil",
        -9.678296100193881
      ],
      [
        "mez",
        -9.678405736882265
      ],
      [
        "▁h",
        -9.679081238679805
      ],
      [
        "▁içeren",
        -9.679959423935614
      ],
      [
        "»",
        -9.68020040709379
      ],
      [
        "▁çalış",
        -9.680441146715498
      ],
      [
        "▁Bar",
        -9.680671302937645
      ],
      [
        "▁edebilirsiniz.",
        -9.682000916601506
      ],
      [
        "▁İsrail",
        -9.682090682415218
      ],
      [
        "lak",
        -9.684464363075033
      ],
      [
        "Zaten",
        -9.684564014709565
      ],
      [
        "▁koy",
        -9.684818060992757
      ],
      [
        "'nun",
        -9.686338225072811
      ],
      [
        "▁İnce",
        -9.687195384566753
      ],
      [
        "am",
        -9.687493102522762
      ],
      [
        "▁Fenerbahçe",
        -9.688497805190122
      ],
      [
        "nci",
        -9.689238826935473
      ],
      [
        "▁kişiye",
        -9.689365746487727
      ],
      [
        "▁koyu",
        -9.689544278127316
      ],
      [
        "▁ton",
        -9.689650995288936
      ],
      [
        "▁2007",
        -9.689999129833085
      ],
      [
        "ımız",
        -9.69038525715899
      ],
      [
        "nizde",
        -9.691362050764617
      ],
      [
        "▁çaba",
        -9.691414402717978
      ],
      [
        "▁demektir.",
        -9.69183314552849
      ],
      [
        "▁İnternet",
        -9.69184415485229
      ],
      [
        "▁işler",
        -9.692239469143445
      ],
      [
        "▁farkı",
        -9.692287159258473
      ],
      [
        "▁Do",
        -9.692408735983136
      ],
      [
        "▁istediğiniz",
        -9.692490801001714
      ],
      [
        "▁üzerindeki",
        -9.693301065504812
      ],
      [
        "19",
        -9.693505199702404
      ],
      [
        "▁Hayat",
        -9.69509580278513
      ],
      [
        "▁Adana",
        -9.695653625358784
      ],
      [
        "▁Bakan",
        -9.69615903241317
      ],
      [
        "▁olacağını",
        -9.696287379734681
      ],
      [
        "▁masa",
        -9.69648111522065
      ],
      [
        "▁kullanmak",
        -9.696556284486029
      ],
      [
        "hi",
        -9.696772417964615
      ],
      [
        "▁diyen",
        -9.697191010591881
      ],
      [
        "▁şeyin",
        -9.697353173065046
      ],
      [
        "’’",
        -9.697552431164633
      ],
      [
        "abilecek",
        -9.69800193924402
      ],
      [
        "▁yerli",
        -9.698888504226058
      ],
      [
        "▁(S",
        -9.699519481070762
      ],
      [
        "▁cinsel",
        -9.700393040717165
      ],
      [
        "▁ayak",
        -9.70048302541402
      ],
      [
        "▁olanlar",
        -9.700781297865104
      ],
      [
        "▁insanlara",
        -9.702422254641732
      ],
      [
        "▁gelin",
        -9.703269914729447
      ],
      [
        "▁kapı",
        -9.70345602125586
      ],
      [
        "▁yapacak",
        -9.703711265574047
      ],
      [
        "▁sergi",
        -9.703951620968041
      ],
      [
        "▁Meclis",
        -9.70415895066405
      ],
      [
        "maz",
        -9.704511769229244
      ],
      [
        "tim",
        -9.705135364848443
      ],
      [
        "'daki",
        -9.70524123455034
      ],
      [
        "sonuna",
        -9.705704417735266
      ],
      [
        "▁hayvan",
        -9.706193064630323
      ],
      [
        "▁Aydın",
        -9.706483009462215
      ],
      [
        "mişti.",
        -9.706942602777932
      ],
      [
        "tar",
        -9.707080973983295
      ],
      [
        "▁cm",
        -9.70754487078883
      ],
      [
        "ış",
        -9.708250025187876
      ],
      [
        "▁Grubu",
        -9.70831733516296
      ],
      [
        "▁top",
        -9.708456067419068
      ],
      [
        "▁kurulan",
        -9.708906581496418
      ],
      [
        "▁meyve",
        -9.709086194657027
      ],
      [
        "ren",
        -9.709157931994772
      ],
      [
        "▁grubu",
        -9.709627334496735
      ],
      [
        "▁inan",
        -9.71010473810415
      ],
      [
        "▁diyor",
        -9.71017490640999
      ],
      [
        "▁Beşiktaş",
        -9.710417890728468
      ],
      [
        "▁45",
        -9.711393149844946
      ],
      [
        "▁Onlar",
        -9.712077450762006
      ],
      [
        "▁BA",
        -9.712846834219288
      ],
      [
        "▁Co",
        -9.712918566646504
      ],
      [
        "oz",
        -9.712997613385252
      ],
      [
        "LE",
        -9.713004298170306
      ],
      [
        "▁kadınlar",
        -9.713519213160996
      ],
      [
        "ydi",
        -9.713934862868165
      ],
      [
        "net",
        -9.713942460101858
      ],
      [
        "▁200",
        -9.713978953691003
      ],
      [
        "▁Şehir",
        -9.714111111330364
      ],
      [
        "▁süreç",
        -9.71442741789173
      ],
      [
        "▁MADDE",
        -9.715288156465883
      ],
      [
        "▁performans",
        -9.716165591068915
      ],
      [
        "▁Anne",
        -9.716787898397998
      ],
      [
        "▁Kurumu",
        -9.716965502489144
      ],
      [
        "lerimizi",
        -9.717359502937036
      ],
      [
        "▁Windows",
        -9.717978309220687
      ],
      [
        "İM",
        -9.718484609109497
      ],
      [
        "▁problem",
        -9.718543524995017
      ],
      [
        "▁toplumsal",
        -9.718639824748596
      ],
      [
        "▁Gençlik",
        -9.718686342429347
      ],
      [
        "▁değeri",
        -9.719241348819105
      ],
      [
        "▁Ege",
        -9.719718778133768
      ],
      [
        "18",
        -9.719980052146784
      ],
      [
        "▁adayı",
        -9.720456077485728
      ],
      [
        "▁Geri",
        -9.720588298298491
      ],
      [
        "ıcı",
        -9.721858319716315
      ],
      [
        "▁almaya",
        -9.721971507212903
      ],
      [
        "▁eser",
        -9.722026558147206
      ],
      [
        "▁Yer",
        -9.722819042062053
      ],
      [
        "▁görme",
        -9.723462804589168
      ],
      [
        "▁Bölge",
        -9.723534074014754
      ],
      [
        "50",
        -9.724840350703726
      ],
      [
        "’u",
        -9.725273602252264
      ],
      [
        "▁yasak",
        -9.725299362933038
      ],
      [
        "›",
        -9.725896469842192
      ],
      [
        "▁2000",
        -9.727441100693724
      ],
      [
        "J",
        -9.728224534952336
      ],
      [
        "▁Gerçek",
        -9.728697623870449
      ],
      [
        "▁Amerikan",
        -9.72889046392515
      ],
      [
        "nü",
        -9.729222958065492
      ],
      [
        "larımızı",
        -9.72930295896331
      ],
      [
        "yor",
        -9.729825502585921
      ],
      [
        "siniz",
        -9.730694025484183
      ],
      [
        "▁önceden",
        -9.730960548051835
      ],
      [
        "sem",
        -9.73159279677181
      ],
      [
        "▁Süleyman",
        -9.731939466234538
      ],
      [
        "▁dolayısıyla",
        -9.732033687926247
      ],
      [
        "▁Projesi",
        -9.732388086868418
      ],
      [
        "▁Galatasaray",
        -9.732555886639958
      ],
      [
        "'nda",
        -9.732693962236384
      ],
      [
        "▁Süper",
        -9.73274447012102
      ],
      [
        "▁duygu",
        -9.733338205723236
      ],
      [
        "40",
        -9.734110521239359
      ],
      [
        "um.",
        -9.734682482895652
      ],
      [
        "▁nefes",
        -9.734854381459556
      ],
      [
        "▁No:",
        -9.735282282927475
      ],
      [
        "▁seviye",
        -9.735496608021752
      ],
      [
        "▁risk",
        -9.736977973748171
      ],
      [
        "▁işbirliği",
        -9.737424526941915
      ],
      [
        "dım",
        -9.737545093091914
      ],
      [
        "▁Belki",
        -9.738809067456199
      ],
      [
        "▁benzeri",
        -9.739737232602328
      ],
      [
        "▁müdahale",
        -9.739808586719255
      ],
      [
        "▁Samsung",
        -9.739829792524123
      ],
      [
        "evi",
        -9.739902783152361
      ],
      [
        "▁kalem",
        -9.740260112084787
      ],
      [
        "▁işletme",
        -9.740488993887546
      ],
      [
        "ünü",
        -9.740615502674029
      ],
      [
        "▁olup,",
        -9.740716881819509
      ],
      [
        "r.",
        -9.74094908570861
      ],
      [
        "▁durumlarda",
        -9.74108371948779
      ],
      [
        "▁Demir",
        -9.741227023362383
      ],
      [
        "tepe",
        -9.741294606281578
      ],
      [
        "▁www.",
        -9.742458788014234
      ],
      [
        "▁Vakfı",
        -9.742955881633584
      ],
      [
        "▁değişiklik",
        -9.743191969081323
      ],
      [
        "▁Di",
        -9.743204878900926
      ],
      [
        "▁geçiş",
        -9.743829486133569
      ],
      [
        "▁Partisi",
        -9.744134082229259
      ],
      [
        "▁MHP",
        -9.74526251945347
      ],
      [
        "▁gelip",
        -9.745867794656162
      ],
      [
        "▁J",
        -9.74621871867558
      ],
      [
        "▁ağrı",
        -9.746986875951439
      ],
      [
        "▁s.",
        -9.74730832013924
      ],
      [
        "▁artış",
        -9.747685210430422
      ],
      [
        "▁gıda",
        -9.747694491495865
      ],
      [
        "▁ilginç",
        -9.748134767184812
      ],
      [
        "▁personel",
        -9.748894366059634
      ],
      [
        "▁2019",
        -9.748919288874667
      ],
      [
        "▁ilaç",
        -9.74930638539289
      ],
      [
        "tin",
        -9.749622733457034
      ],
      [
        "lari",
        -9.751204358427078
      ],
      [
        "▁Telefon",
        -9.751740675683449
      ],
      [
        "▁Oyun",
        -9.751862332608379
      ],
      [
        "▁Ramazan",
        -9.751972596762307
      ],
      [
        "▁hakları",
        -9.752484147632387
      ],
      [
        "(Sinema",
        -9.752510264677646
      ],
      [
        "▁mezun",
        -9.752780017209993
      ],
      [
        "▁akıllı",
        -9.752792338046472
      ],
      [
        "id",
        -9.753068194581282
      ],
      [
        "▁olduğundan",
        -9.753220271216549
      ],
      [
        "▁taşıyan",
        -9.753656752990482
      ],
      [
        "▁toplantı",
        -9.753683748384645
      ],
      [
        "▁parçası",
        -9.754036694592713
      ],
      [
        "▁yaparken",
        -9.754183439379114
      ],
      [
        "▁Han",
        -9.754502063019785
      ],
      [
        "▁Uygulama",
        -9.754851573307453
      ],
      [
        "▁mobil",
        -9.755468884750659
      ],
      [
        "▁modeli",
        -9.755677796716583
      ],
      [
        "▁altın",
        -9.756763834262543
      ],
      [
        "▁çocukların",
        -9.75687429461355
      ],
      [
        "▁ondan",
        -9.757105201246507
      ],
      [
        "▁Grup",
        -9.757356346764652
      ],
      [
        "▁is",
        -9.757786015966909
      ],
      [
        "ık",
        -9.758458854306845
      ],
      [
        "▁(B",
        -9.759307493059062
      ],
      [
        "ebilir.",
        -9.759522096797015
      ],
      [
        "▁Bana",
        -9.759767220376709
      ],
      [
        "▁verecek",
        -9.760245247398258
      ],
      [
        "▁yaşadığı",
        -9.760325493357026
      ],
      [
        "▁gidip",
        -9.760462611395798
      ],
      [
        "▁muhteşem",
        -9.76095280618733
      ],
      [
        "▁beslenme",
        -9.76137289117791
      ],
      [
        "▁New",
        -9.76149308440573
      ],
      [
        "▁ücret",
        -9.7616698858105
      ],
      [
        "una",
        -9.761806601842409
      ],
      [
        "cak",
        -9.762519694670772
      ],
      [
        "▁tabii",
        -9.763775360862446
      ],
      [
        "▁ticari",
        -9.763818064228658
      ],
      [
        "▁bilimsel",
        -9.764190289816948
      ],
      [
        "▁hızla",
        -9.76484260655247
      ],
      [
        "▁cami",
        -9.764990503930022
      ],
      [
        "▁otomobil",
        -9.765364256976273
      ],
      [
        "▁Dönem",
        -9.765778090406805
      ],
      [
        "▁yönetimi",
        -9.7658966608479
      ],
      [
        "▁içindeki",
        -9.766445119040359
      ],
      [
        "sek",
        -9.766521255395851
      ],
      [
        "▁Gece",
        -9.766665983338815
      ],
      [
        "▁hal",
        -9.766697533018775
      ],
      [
        "▁ufak",
        -9.766936039854052
      ],
      [
        "▁blog",
        -9.767020201479912
      ],
      [
        "▁sonra,",
        -9.767150472238118
      ],
      [
        "▁malzeme",
        -9.767284281905358
      ],
      [
        "▁tehdit",
        -9.767912085180646
      ],
      [
        "▁nerede",
        -9.769185949082365
      ],
      [
        "▁Hiç",
        -9.76965619167871
      ],
      [
        "▁AKP",
        -9.769684804100033
      ],
      [
        "▁makine",
        -9.769956368759477
      ],
      [
        "▁yarı",
        -9.770409452589107
      ],
      [
        "+",
        -9.771275569378531
      ],
      [
        "▁gol",
        -9.771783415841487
      ],
      [
        "▁alacak",
        -9.77201421506744
      ],
      [
        "▁cilt",
        -9.772806432963218
      ],
      [
        "▁ediyorum",
        -9.772924015470867
      ],
      [
        "▁gelme",
        -9.773085692300294
      ],
      [
        "▁Az",
        -9.77311663009565
      ],
      [
        "▁yolunda",
        -9.77313844839399
      ],
      [
        "▁fiyatı",
        -9.773818335764942
      ],
      [
        "▁dosya",
        -9.773966700834498
      ],
      [
        "nün",
        -9.774054452491368
      ],
      [
        "▁vermiş",
        -9.774259041221232
      ],
      [
        "▁hastalık",
        -9.774524351694566
      ],
      [
        "▁Kamu",
        -9.775025309875607
      ],
      [
        "▁katıldı.",
        -9.775040799893349
      ],
      [
        "mayı",
        -9.775845041082267
      ],
      [
        "=",
        -9.77712729478111
      ],
      [
        "24",
        -9.777179022096396
      ],
      [
        "▁online",
        -9.777878323368371
      ],
      [
        "sınız",
        -9.77794637148613
      ],
      [
        "▁çek",
        -9.77797598553725
      ],
      [
        "▁Temel",
        -9.778079097836258
      ],
      [
        "lenmiş",
        -9.778185004020315
      ],
      [
        "▁Ta",
        -9.778212234219325
      ],
      [
        "▁şehit",
        -9.778408944950037
      ],
      [
        "▁çizgi",
        -9.778716649821614
      ],
      [
        "▁8.",
        -9.77928603126867
      ],
      [
        "▁bina",
        -9.779353185067693
      ],
      [
        "▁verdi",
        -9.779834597951005
      ],
      [
        "ser",
        -9.780119117895879
      ],
      [
        "▁İngiliz",
        -9.780818582490847
      ],
      [
        "▁idi.",
        -9.780881392526428
      ],
      [
        "met",
        -9.781479120333396
      ],
      [
        "▁to",
        -9.781861225742308
      ],
      [
        "▁Ke",
        -9.781936921128786
      ],
      [
        "▁açıdan",
        -9.782016752357688
      ],
      [
        "▁“A",
        -9.782789390348057
      ],
      [
        "TA",
        -9.78292492890401
      ],
      [
        "lenme",
        -9.783176404398464
      ],
      [
        "▁gereği",
        -9.783250644114746
      ],
      [
        "▁gayet",
        -9.783508266963741
      ],
      [
        "▁tur",
        -9.783588797600661
      ],
      [
        "▁İstanbul’da",
        -9.784011334287309
      ],
      [
        "▁gaz",
        -9.784137725374713
      ],
      [
        "80",
        -9.784255620132079
      ],
      [
        "01",
        -9.785465930778207
      ],
      [
        "▁yerler",
        -9.785533354652825
      ],
      [
        "▁1-",
        -9.785627862801661
      ],
      [
        "▁Hüseyin",
        -9.785990679653763
      ],
      [
        "▁belirtti.",
        -9.786138038556826
      ],
      [
        "▁Ara",
        -9.786257477672088
      ],
      [
        "▁Bilgisayar",
        -9.78645279049694
      ],
      [
        "▁yaptıkları",
        -9.786554515224712
      ],
      [
        "eli",
        -9.78658461859315
      ],
      [
        "si,",
        -9.78702970947927
      ],
      [
        "▁konut",
        -9.787423456534665
      ],
      [
        "▁değişik",
        -9.787466536032724
      ],
      [
        "▁Kız",
        -9.78753152953946
      ],
      [
        "▁git",
        -9.78867294577455
      ],
      [
        "▁fiziksel",
        -9.789727937542562
      ],
      [
        "▁millet",
        -9.789864928789871
      ],
      [
        "▁vermeye",
        -9.790375209950298
      ],
      [
        "üm",
        -9.790677318192156
      ],
      [
        "yim",
        -9.791023751259853
      ],
      [
        "mızda",
        -9.791971823761454
      ],
      [
        "▁yazılım",
        -9.791978213191495
      ],
      [
        "▁noktada",
        -9.792203982822176
      ],
      [
        "▁kendilerini",
        -9.792609449181192
      ],
      [
        "'u",
        -9.793397589600033
      ],
      [
        "▁giderek",
        -9.793440369430822
      ],
      [
        "▁fırsat",
        -9.793755203867889
      ],
      [
        "nizin",
        -9.793940390660637
      ],
      [
        "▁iPhone",
        -9.79415684345951
      ],
      [
        "nızda",
        -9.794215997889257
      ],
      [
        "▁şeker",
        -9.794537498286239
      ],
      [
        "?”",
        -9.794776635945716
      ],
      [
        "▁İle",
        -9.795137749176497
      ],
      [
        "▁Elektrik",
        -9.795871222396801
      ],
      [
        "▁inceleme",
        -9.796671118657633
      ],
      [
        "Dünyanın",
        -9.797023512638106
      ],
      [
        "lığını",
        -9.79728877087426
      ],
      [
        "▁süt",
        -9.797861665733931
      ],
      [
        "▁konularda",
        -9.798568792047687
      ],
      [
        "▁kahve",
        -9.798733331465563
      ],
      [
        "▁Da",
        -9.799926060372119
      ],
      [
        "▁sevgili",
        -9.800283890430805
      ],
      [
        "▁savunma",
        -9.800987305763861
      ],
      [
        "▁ibadet",
        -9.801082092390729
      ],
      [
        "eceği",
        -9.801097044455027
      ],
      [
        "▁büyüme",
        -9.801283099462669
      ],
      [
        "▁değişim",
        -9.801958754099374
      ],
      [
        "▁Kanun",
        -9.802094003833538
      ],
      [
        "▁teşvik",
        -9.802318508722024
      ],
      [
        "▁hanım",
        -9.802540865629098
      ],
      [
        "▁Kıbrıs",
        -9.802875523586756
      ],
      [
        "▁kendimi",
        -9.803543281470603
      ],
      [
        "▁sorumlu",
        -9.804326218375286
      ],
      [
        "▁Altın",
        -9.80523557625537
      ],
      [
        "▁yaşlı",
        -9.805286355198369
      ],
      [
        "▁Evet",
        -9.805288003212995
      ],
      [
        "lâ",
        -9.805535505670218
      ],
      [
        "yken",
        -9.805560352171398
      ],
      [
        "▁makale",
        -9.80606741275783
      ],
      [
        "▁diyor.",
        -9.806397817613107
      ],
      [
        "▁toprak",
        -9.807179849180194
      ],
      [
        "▁faiz",
        -9.807248930680757
      ],
      [
        "▁düzenleme",
        -9.807927349933554
      ],
      [
        "eri",
        -9.80818507874168
      ],
      [
        "ılmış",
        -9.808203376152559
      ],
      [
        "▁şarkı",
        -9.808401994281033
      ],
      [
        "▁öğretmen",
        -9.808637263099092
      ],
      [
        "▁işçi",
        -9.808963962736186
      ],
      [
        "▁be",
        -9.809500664413841
      ],
      [
        "▁sakin",
        -9.809571480805435
      ],
      [
        "▁gemi",
        -9.809648556844648
      ],
      [
        "▁itibariyle",
        -9.809806516889754
      ],
      [
        "▁işleri",
        -9.809933021593924
      ],
      [
        "▁alınması",
        -9.809960210224862
      ],
      [
        "▁söyleyen",
        -9.810016052963196
      ],
      [
        "▁daire",
        -9.810618752502966
      ],
      [
        "▁f",
        -9.811415452718387
      ],
      [
        "▁sipariş",
        -9.8115346462126
      ],
      [
        "liğin",
        -9.811833597688574
      ],
      [
        "▁mutluluk",
        -9.811981625006473
      ],
      [
        "▁Saat",
        -9.811992588590291
      ],
      [
        "taki",
        -9.812008101486484
      ],
      [
        "dar",
        -9.81207173314919
      ],
      [
        "60",
        -9.812156543507164
      ],
      [
        "▁çalışması",
        -9.812967945882626
      ],
      [
        "müş",
        -9.813625978091999
      ],
      [
        "▁Hangi",
        -9.813749472806098
      ],
      [
        "abilir.",
        -9.814414953762416
      ],
      [
        "▁Millet",
        -9.814955362087863
      ],
      [
        "▁Başka",
        -9.8152079455865
      ],
      [
        "▁36",
        -9.815442412002987
      ],
      [
        "▁Fransa",
        -9.81553207390374
      ],
      [
        "▁Hizmetleri",
        -9.81595320640988
      ],
      [
        "▁sanki",
        -9.816022820761631
      ],
      [
        "▁zayıf",
        -9.816185815882106
      ],
      [
        "▁Lisans",
        -9.81635585753549
      ],
      [
        "yada",
        -9.816523050944802
      ],
      [
        "▁As",
        -9.816626681111407
      ],
      [
        "ic",
        -9.8175435219404
      ],
      [
        "▁yedi",
        -9.817574529465869
      ],
      [
        "09",
        -9.818056530745164
      ],
      [
        "▁32",
        -9.818817128673807
      ],
      [
        "▁Et",
        -9.818937379753029
      ],
      [
        "&",
        -9.819747913912579
      ],
      [
        "▁şirketi",
        -9.820049511273563
      ],
      [
        "▁sağlam",
        -9.820218094456077
      ],
      [
        "▁Gazete",
        -9.820818534193663
      ],
      [
        "▁bölgesinde",
        -9.8212043929718
      ],
      [
        "▁dik",
        -9.821311583057131
      ],
      [
        "▁sistemleri",
        -9.82145286521644
      ],
      [
        "▁olmayı",
        -9.821858470147586
      ],
      [
        "▁ulaşım",
        -9.821976554557986
      ],
      [
        "▁kalın",
        -9.822942108418207
      ],
      [
        "▁rahatsız",
        -9.82312386539635
      ],
      [
        "▁Kürt",
        -9.823206087952322
      ],
      [
        "▁Öyle",
        -9.823256349281149
      ],
      [
        "ecektir.",
        -9.823475777647056
      ],
      [
        "▁yarış",
        -9.823544213253573
      ],
      [
        "▁say",
        -9.823756568368982
      ],
      [
        "▁Nur",
        -9.824355776216915
      ],
      [
        "▁renkli",
        -9.824505012422232
      ],
      [
        "▁duvar",
        -9.825590410778634
      ],
      [
        "▁ürünü",
        -9.825971446347332
      ],
      [
        "▁otobüs",
        -9.827100775017817
      ],
      [
        "▁istediği",
        -9.827360768047408
      ],
      [
        "ılan",
        -9.827375913753345
      ],
      [
        "▁Man",
        -9.827407371458364
      ],
      [
        "*",
        -9.827633049475452
      ],
      [
        "▁bağımsız",
        -9.828053041567152
      ],
      [
        "▁başı",
        -9.828189739174764
      ],
      [
        "▁buradan",
        -9.828325258980644
      ],
      [
        "▁güvenilir",
        -9.828962952374736
      ],
      [
        "▁olmasa",
        -9.828989555277124
      ],
      [
        "ıl",
        -9.829491666262143
      ],
      [
        "▁elbette",
        -9.829821332456701
      ],
      [
        "per",
        -9.8303568658614
      ],
      [
        "▁Anasayfa",
        -9.831034612475658
      ],
      [
        "iz.",
        -9.831601203687635
      ],
      [
        "▁Cumartesi",
        -9.832174119860458
      ],
      [
        "▁eşi",
        -9.832580715736539
      ],
      [
        "▁geliştirme",
        -9.83273122928356
      ],
      [
        "▁Kocaeli",
        -9.83274326316199
      ],
      [
        "▁bitki",
        -9.833800511281794
      ],
      [
        "▁lise",
        -9.833800757368717
      ],
      [
        "ji",
        -9.83380482264781
      ],
      [
        "▁Koç",
        -9.8341181831624
      ],
      [
        "LA",
        -9.834486248150693
      ],
      [
        "▁kültürel",
        -9.834610203558555
      ],
      [
        "▁In",
        -9.834728325739023
      ],
      [
        "▁ödül",
        -9.835470177748316
      ],
      [
        "▁İÇİN",
        -9.835550611612547
      ],
      [
        "Dİ",
        -9.835917006020397
      ],
      [
        "▁Vali",
        -9.836561728085417
      ],
      [
        "▁alternatif",
        -9.836684046594835
      ],
      [
        "▁01",
        -9.837115996690624
      ],
      [
        "▁iptal",
        -9.837530136153056
      ],
      [
        "15",
        -9.8379942300575
      ],
      [
        "▁yarın",
        -9.838349358232241
      ],
      [
        "▁emekli",
        -9.838507234208802
      ],
      [
        "▁deneme",
        -9.838945734535805
      ],
      [
        "▁İmam",
        -9.839636775782377
      ],
      [
        "dikleri",
        -9.840341391695029
      ],
      [
        "▁öncelikle",
        -9.840966891556546
      ],
      [
        "'na",
        -9.841396887090905
      ],
      [
        "leşme",
        -9.842298084615138
      ],
      [
        "▁faydalı",
        -9.842472550764434
      ],
      [
        "▁Arka",
        -9.842817696553595
      ],
      [
        "▁sigara",
        -9.842921592933656
      ],
      [
        "ley",
        -9.842978480821959
      ],
      [
        "▁kartı",
        -9.843434392063745
      ],
      [
        "▁sorunları",
        -9.844237790105533
      ],
      [
        "▁sözü",
        -9.844373255003706
      ],
      [
        "▁gir",
        -9.844888693149226
      ],
      [
        "▁d",
        -9.845423221906126
      ],
      [
        "▁the",
        -9.845869147982988
      ],
      [
        "▁Ürün",
        -9.845881985614362
      ],
      [
        "acağını",
        -9.846078993373716
      ],
      [
        "▁ortamda",
        -9.846304059389166
      ],
      [
        "▁sarı",
        -9.846535575451977
      ],
      [
        "▁Konya",
        -9.84659824642639
      ],
      [
        "▁9.",
        -9.846831505122996
      ],
      [
        "▁veriyor.",
        -9.847025364151236
      ],
      [
        "▁Lig",
        -9.847227920811077
      ],
      [
        "teki",
        -9.847472637493423
      ],
      [
        "▁gündem",
        -9.847990479292871
      ],
      [
        "▁Herkes",
        -9.848418913993363
      ],
      [
        "▁sözleşme",
        -9.848684858408507
      ],
      [
        "▁yayınlanan",
        -9.84921739090366
      ],
      [
        "dür",
        -9.850174785927083
      ],
      [
        "▁kur",
        -9.850276065156162
      ],
      [
        "▁Tabii",
        -9.850845342805748
      ],
      [
        "▁Hizmet",
        -9.851560373588146
      ],
      [
        "▁sektör",
        -9.852468986076602
      ],
      [
        "▁akıl",
        -9.852647227122194
      ],
      [
        "▁hayatta",
        -9.852865600002936
      ],
      [
        "▁olmaz.",
        -9.85292096703117
      ],
      [
        "▁almaktadır.",
        -9.853160903318006
      ],
      [
        "▁kış",
        -9.853617375934427
      ],
      [
        "▁gezi",
        -9.854734890821412
      ],
      [
        "▁Anayasa",
        -9.855255692211035
      ],
      [
        "▁yüzünden",
        -9.85528263913312
      ],
      [
        "▁ucuz",
        -9.855970430516916
      ],
      [
        "▁çıkma",
        -9.856286038925097
      ],
      [
        "▁cümle",
        -9.856324232840265
      ],
      [
        "inizi",
        -9.856664329101381
      ],
      [
        "▁ilçesinde",
        -9.857207339505557
      ],
      [
        "▁kimsenin",
        -9.857865063567157
      ],
      [
        "▁biliyor",
        -9.858095086857261
      ],
      [
        "▁dijital",
        -9.858210455148267
      ],
      [
        "lanması",
        -9.858333960657365
      ],
      [
        "▁sektöründe",
        -9.858377023465351
      ],
      [
        "▁Üniversite",
        -9.858637554639387
      ],
      [
        "▁taraf",
        -9.85909507157703
      ],
      [
        "▁Bayramı",
        -9.859210546888583
      ],
      [
        "▁hız",
        -9.860115421072749
      ],
      [
        "▁katılan",
        -9.860351662449588
      ],
      [
        "▁öğren",
        -9.860462496614158
      ],
      [
        "AN",
        -9.861074796756423
      ],
      [
        "25",
        -9.861131917105038
      ],
      [
        "▁lider",
        -9.861141460739532
      ],
      [
        "▁birini",
        -9.862457362245353
      ],
      [
        "▁popüler",
        -9.862514968016496
      ],
      [
        "▁sorumluluk",
        -9.862605840407888
      ],
      [
        "▁Dolayısıyla",
        -9.862731683369564
      ],
      [
        "▁paylaş",
        -9.863193575278443
      ],
      [
        "▁Salı",
        -9.86352117661525
      ],
      [
        "▁sağlığı",
        -9.863575950981927
      ],
      [
        "▁balık",
        -9.863905119856298
      ],
      [
        "▁Yorum",
        -9.864207940940442
      ],
      [
        "▁futbol",
        -9.864841299016916
      ],
      [
        "▁sat",
        -9.865279532172085
      ],
      [
        "▁ol",
        -9.865794398695467
      ],
      [
        "▁kira",
        -9.865828226694711
      ],
      [
        "▁hayır",
        -9.866126473875113
      ],
      [
        "▁süren",
        -9.866348937736632
      ],
      [
        "▁İn",
        -9.866488463854353
      ],
      [
        "▁kaldı.",
        -9.86670746219718
      ],
      [
        "▁Yazar",
        -9.86684814903311
      ],
      [
        "var",
        -9.867115129246427
      ],
      [
        "▁değiştir",
        -9.867380000709865
      ],
      [
        "▁huzur",
        -9.867496728264001
      ],
      [
        "▁karakter",
        -9.867544372432317
      ],
      [
        "▁keyifli",
        -9.867716542314493
      ],
      [
        "▁çeşit",
        -9.86771877034022
      ],
      [
        "ğı",
        -9.868520801593341
      ],
      [
        "▁ettiğini",
        -9.869139619741691
      ],
      [
        "▁Öncelikle",
        -9.869830283270073
      ],
      [
        "▁şeyleri",
        -9.87019220941529
      ],
      [
        "▁09",
        -9.870412403664204
      ],
      [
        "ımı",
        -9.870434078031613
      ],
      [
        "▁gelişme",
        -9.871527176215949
      ],
      [
        "şi",
        -9.872403000290863
      ],
      [
        "▁televizyon",
        -9.872974130666796
      ],
      [
        "▁ha",
        -9.873392524364528
      ],
      [
        "ER",
        -9.873430154511755
      ],
      [
        "kal",
        -9.874269316440245
      ],
      [
        "▁BU",
        -9.875181375743523
      ],
      [
        "▁olacağı",
        -9.875481666797132
      ],
      [
        "▁transfer",
        -9.875951673618259
      ],
      [
        "▁Önce",
        -9.877545873318924
      ],
      [
        "▁hazırlanan",
        -9.877654092485223
      ],
      [
        "▁adamı",
        -9.877762048350345
      ],
      [
        "▁ta",
        -9.87830881711356
      ],
      [
        "▁oğlu",
        -9.878749985407339
      ],
      [
        "▁ekonomi",
        -9.879251655467424
      ],
      [
        "▁çerçevesinde",
        -9.879378051249077
      ],
      [
        "▁ilave",
        -9.879726432589905
      ],
      [
        "▁Doğru",
        -9.880405063138676
      ],
      [
        "▁yanına",
        -9.880452808845206
      ],
      [
        "▁kızı",
        -9.880506445100611
      ],
      [
        "▁Vi",
        -9.880629382353494
      ],
      [
        "▁eşya",
        -9.880762302864898
      ],
      [
        "▁bağ",
        -9.88123832104766
      ],
      [
        "▁roman",
        -9.881249018686244
      ],
      [
        "ret",
        -9.881439836242064
      ],
      [
        "bil",
        -9.882183733438692
      ],
      [
        "▁Kent",
        -9.882732957487082
      ],
      [
        "▁sıkı",
        -9.883161620715146
      ],
      [
        "▁Du",
        -9.883188518645754
      ],
      [
        "▁güne",
        -9.883385897473765
      ],
      [
        "▁uygulaması",
        -9.883555767947172
      ],
      [
        "▁alır.",
        -9.883646207796458
      ],
      [
        "meyi",
        -9.883696314358842
      ],
      [
        "▁yerden",
        -9.884259489293521
      ],
      [
        "▁turizm",
        -9.884640087743392
      ],
      [
        "▁birer",
        -9.88505247726317
      ],
      [
        "▁Trump",
        -9.885159925220941
      ],
      [
        "▁etkin",
        -9.885929748805221
      ],
      [
        "▁Tanrı",
        -9.885933627172498
      ],
      [
        "▁bulun",
        -9.886047569034176
      ],
      [
        "▁devletin",
        -9.886310818523551
      ],
      [
        "▁deneyim",
        -9.888223990693966
      ],
      [
        "▁analiz",
        -9.888651342679093
      ],
      [
        "▁Abdullah",
        -9.889229310561431
      ],
      [
        "gan",
        -9.889310515920794
      ],
      [
        "lüğü",
        -9.8899470076109
      ],
      [
        "▁üyeleri",
        -9.890103906080157
      ],
      [
        "▁sınır",
        -9.890829486703867
      ],
      [
        "rken",
        -9.891387203520804
      ],
      [
        "▁bulmak",
        -9.89142121308667
      ],
      [
        "ster",
        -9.891526725216824
      ],
      [
        "▁Açık",
        -9.891601673164626
      ],
      [
        "▁otomatik",
        -9.892034397748898
      ],
      [
        "ılması",
        -9.892149147016536
      ],
      [
        "ir.",
        -9.89307118998494
      ],
      [
        "▁rapor",
        -9.893558657260062
      ],
      [
        "▁atan",
        -9.894169407797559
      ],
      [
        "▁elektronik",
        -9.894205241540844
      ],
      [
        "ok",
        -9.894590107675207
      ],
      [
        "▁Apple",
        -9.894725270123839
      ],
      [
        "▁doğa",
        -9.895108833600665
      ],
      [
        "▁düşünme",
        -9.895351126005618
      ],
      [
        "dır,",
        -9.895618566170556
      ],
      [
        "▁ameliyat",
        -9.895631945590184
      ],
      [
        "▁belgesi",
        -9.89574706429759
      ],
      [
        "gar",
        -9.895839331340824
      ],
      [
        "▁bugüne",
        -9.895981987168495
      ],
      [
        "▁10.",
        -9.896112965713264
      ],
      [
        "▁Pi",
        -9.896778091702593
      ],
      [
        "▁olunca",
        -9.896818722493048
      ],
      [
        "dik.",
        -9.896890485972309
      ],
      [
        "▁Trabzon",
        -9.896908629916291
      ],
      [
        "▁Erdoğan,",
        -9.897157114315743
      ],
      [
        "fer",
        -9.89734359766148
      ],
      [
        "▁düşen",
        -9.898531880882077
      ],
      [
        "▁Allah'ın",
        -9.899332335124159
      ],
      [
        "▁kon",
        -9.899350197625271
      ],
      [
        "▁yaptı",
        -9.899810595374204
      ],
      [
        "▁maddi",
        -9.900158111252438
      ],
      [
        "larımızın",
        -9.900504570716674
      ],
      [
        "AM",
        -9.900524186294863
      ],
      [
        "▁Eğitimi",
        -9.900848200477691
      ],
      [
        "▁Ro",
        -9.901045376548357
      ],
      [
        "▁sebebiyle",
        -9.90108797116515
      ],
      [
        "▁kullanan",
        -9.901292836422954
      ],
      [
        "▁üretimi",
        -9.901309421961432
      ],
      [
        "▁tiyatro",
        -9.901319280952464
      ],
      [
        "▁Android",
        -9.901447413805482
      ],
      [
        "▁kır",
        -9.902185508997672
      ],
      [
        "▁teklif",
        -9.902211178222563
      ],
      [
        "▁yargı",
        -9.90262215095993
      ],
      [
        "▁hayırlı",
        -9.902719512828046
      ],
      [
        "▁yapısı",
        -9.902752241587194
      ],
      [
        "malıdır.",
        -9.902978843320941
      ],
      [
        "EL",
        -9.90442188451776
      ],
      [
        "nuz",
        -9.904618340219727
      ],
      [
        "11",
        -9.90492636185899
      ],
      [
        "cik",
        -9.906086197718064
      ],
      [
        "▁tamam",
        -9.906434794642696
      ],
      [
        "▁tanesi",
        -9.90651337866738
      ],
      [
        "▁etmiştir.",
        -9.906652599392405
      ],
      [
        "▁birinin",
        -9.906792659902338
      ],
      [
        "▁Li",
        -9.90683937427383
      ],
      [
        "▁Yok",
        -9.906843160219506
      ],
      [
        "▁dili",
        -9.906975592426095
      ],
      [
        "dü",
        -9.907214822180254
      ],
      [
        "tal",
        -9.90735201376705
      ],
      [
        "ger",
        -9.90736303626089
      ],
      [
        "▁girme",
        -9.90736824511939
      ],
      [
        "▁öğrenciler",
        -9.907376470694066
      ],
      [
        "▁olmalıdır.",
        -9.90742578575084
      ],
      [
        "▁iyice",
        -9.907796838771642
      ],
      [
        "▁getirmek",
        -9.908057833940244
      ],
      [
        "▁geçir",
        -9.90849841654228
      ],
      [
        "▁düzey",
        -9.908655694358377
      ],
      [
        "birbirinden",
        -9.909813108223295
      ],
      [
        "▁çekici",
        -9.910025257764431
      ],
      [
        "▁karşılık",
        -9.911022647516475
      ],
      [
        "▁halkın",
        -9.911045457885484
      ],
      [
        "▁kurul",
        -9.911724899156546
      ],
      [
        "▁doğrultusunda",
        -9.912202073319492
      ],
      [
        "köy",
        -9.91308468561196
      ],
      [
        "▁yolda",
        -9.91315001068945
      ],
      [
        "▁Dergisi",
        -9.913407827385257
      ],
      [
        "▁Yol",
        -9.91353667494187
      ],
      [
        "▁birbirine",
        -9.913719685057242
      ],
      [
        "▁çocuğun",
        -9.913834992727082
      ],
      [
        "▁görülen",
        -9.914420328121906
      ],
      [
        "▁(Onur)",
        -9.915262803334436
      ],
      [
        "ov",
        -9.91572894076041
      ],
      [
        "▁edilmiştir.",
        -9.915913879543572
      ],
      [
        "▁not",
        -9.915949783258775
      ],
      [
        "▁yoluyla",
        -9.916193568979926
      ],
      [
        "▁izni",
        -9.916368152353265
      ],
      [
        "▁civarında",
        -9.916378789740063
      ],
      [
        "▁üstünde",
        -9.916578099177144
      ],
      [
        "▁tehlike",
        -9.916935355604505
      ],
      [
        "▁ateş",
        -9.917283943575809
      ],
      [
        "▁sonuçları",
        -9.918259267114443
      ],
      [
        "▁babası",
        -9.918382797297177
      ],
      [
        "▁arkadaşlar",
        -9.918407220077382
      ],
      [
        "▁yapar",
        -9.91874871799551
      ],
      [
        "-2",
        -9.91930220708543
      ],
      [
        "▁genelinde",
        -9.919365239178369
      ],
      [
        "▁do",
        -9.919856127389938
      ],
      [
        "▁azından",
        -9.92001049636298
      ],
      [
        "▁haberi",
        -9.920069726414479
      ],
      [
        "▁yapıyor.",
        -9.920253574773518
      ],
      [
        "▁mesele",
        -9.920636444485314
      ],
      [
        "▁Oda",
        -9.92085415561425
      ],
      [
        "başı",
        -9.921004915977733
      ],
      [
        "▁olduğunuz",
        -9.921143407787
      ],
      [
        "▁modelleri",
        -9.921479004491328
      ],
      [
        "▁inşaat",
        -9.921484583880913
      ],
      [
        "’ün",
        -9.921542227292115
      ],
      [
        "▁evet",
        -9.922287553449824
      ],
      [
        "▁yasal",
        -9.922496891775953
      ],
      [
        "▁olaylar",
        -9.922858372719423
      ],
      [
        "▁isterseniz",
        -9.922990780495606
      ],
      [
        "▁Karadeniz",
        -9.923249675861138
      ],
      [
        "'ne",
        -9.924036327353871
      ],
      [
        "▁Gazi",
        -9.924488982425842
      ],
      [
        "▁kanun",
        -9.924576892380504
      ],
      [
        "▁Aşk",
        -9.924877763639916
      ],
      [
        "▁bayan",
        -9.925418409245767
      ],
      [
        "▁adres",
        -9.925854299058273
      ],
      [
        "▁olmaması",
        -9.925882682457761
      ],
      [
        "he",
        -9.925941100351796
      ],
      [
        "▁Pazartesi",
        -9.926336565978335
      ],
      [
        "▁2006",
        -9.926439653868268
      ],
      [
        "▁sinir",
        -9.926537925172731
      ],
      [
        "04",
        -9.926670177292543
      ],
      [
        "ıyla",
        -9.927034441415262
      ],
      [
        "▁ada",
        -9.927045955024639
      ],
      [
        "▁Üsküdar",
        -9.927137943515259
      ],
      [
        "▁Park",
        -9.927232046686456
      ],
      [
        "▁verildi.",
        -9.928125879112436
      ],
      [
        "▁genelde",
        -9.928337565243151
      ],
      [
        "▁Mü",
        -9.928382716692088
      ],
      [
        "▁Bankası",
        -9.928413107658605
      ],
      [
        "ben",
        -9.928413732441031
      ],
      [
        "▁bağlantı",
        -9.928661791078703
      ],
      [
        "▁göster",
        -9.929413938468105
      ],
      [
        "▁aşağıda",
        -9.929437651526944
      ],
      [
        "▁toplumun",
        -9.929631334970761
      ],
      [
        "▁Dublaj",
        -9.92967372531188
      ],
      [
        "sı,",
        -9.930024075111378
      ],
      [
        "▁sorunlar",
        -9.930190664358683
      ],
      [
        "05",
        -9.930205533006623
      ],
      [
        "▁yazık",
        -9.930533179775292
      ],
      [
        "▁Pro",
        -9.93065685501885
      ],
      [
        "▁Galaxy",
        -9.930719585118801
      ],
      [
        "▁anlamı",
        -9.931023802769294
      ],
      [
        "▁rengi",
        -9.931738605583137
      ],
      [
        "▁önde",
        -9.9318101552416
      ],
      [
        "▁Be",
        -9.93187603958803
      ],
      [
        "▁motor",
        -9.932530177079489
      ],
      [
        "▁veriyor",
        -9.932743364763901
      ],
      [
        "▁kol",
        -9.933041008737826
      ],
      [
        "▁maçı",
        -9.933245143257516
      ],
      [
        "ker",
        -9.933273242653527
      ],
      [
        "▁Site",
        -9.93388352743197
      ],
      [
        "dık.",
        -9.933975630438784
      ],
      [
        "NA",
        -9.934208115422663
      ],
      [
        "▁ka",
        -9.934827384838805
      ],
      [
        "▁Söz",
        -9.935128930737847
      ],
      [
        "lığın",
        -9.935338955492952
      ],
      [
        "▁Lo",
        -9.935437526602168
      ],
      [
        "tra",
        -9.935532260309259
      ],
      [
        "▁verimli",
        -9.935965819886622
      ],
      [
        "▁Parça",
        -9.935984057344402
      ],
      [
        "▁kampanya",
        -9.936092738696717
      ],
      [
        "▁anlatan",
        -9.936160531643836
      ],
      [
        "▁barış",
        -9.936164218827226
      ],
      [
        "▁bakımından",
        -9.936271200493362
      ],
      [
        "acağı",
        -9.936737266728642
      ],
      [
        "▁hükümet",
        -9.937873970355927
      ],
      [
        "nızın",
        -9.93844681096272
      ],
      [
        "▁kulak",
        -9.938551705055348
      ],
      [
        "▁gelmesi",
        -9.938617867878754
      ],
      [
        "▁böylece",
        -9.93876810245545
      ],
      [
        "EN",
        -9.93939684826425
      ],
      [
        "▁Sevgili",
        -9.940000645133498
      ],
      [
        "▁sonuçlar",
        -9.940600547104887
      ],
      [
        "▁şehri",
        -9.940696228754785
      ],
      [
        "▁takdirde",
        -9.940870194603765
      ],
      [
        "▁beyin",
        -9.94136644157157
      ],
      [
        "umu",
        -9.941386367509068
      ],
      [
        "▁Yaşam",
        -9.941618136250025
      ],
      [
        "▁b.",
        -9.941958202513424
      ],
      [
        "▁numara",
        -9.942334444417057
      ],
      [
        "▁verir",
        -9.94272995607283
      ],
      [
        "od",
        -9.942845195635222
      ],
      [
        "sından",
        -9.943174362284896
      ],
      [
        "▁yazma",
        -9.943433512945095
      ],
      [
        "▁tarım",
        -9.943735720287421
      ],
      [
        "▁sebeple",
        -9.944014862535424
      ],
      [
        "▁İsmail",
        -9.944690057918287
      ],
      [
        "▁2-",
        -9.944978125324614
      ],
      [
        "▁paket",
        -9.945154600631053
      ],
      [
        "yim.",
        -9.945353624043927
      ],
      [
        "▁engelli",
        -9.945854458415601
      ],
      [
        "▁yemeği",
        -9.945919576520648
      ],
      [
        "▁işlemleri",
        -9.946482919938429
      ],
      [
        "▁elinde",
        -9.946603062022444
      ],
      [
        "▁yetkili",
        -9.946603186311162
      ],
      [
        "▁Yılı",
        -9.946612322976861
      ],
      [
        "▁kalmış",
        -9.94684802553883
      ],
      [
        "▁başlar.",
        -9.947290298394321
      ],
      [
        "▁İşleri",
        -9.94730970956524
      ],
      [
        "laşma",
        -9.947333971145216
      ],
      [
        "▁sürü",
        -9.947482781860877
      ],
      [
        "ly",
        -9.947492827180257
      ],
      [
        "ır.",
        -9.947767470589334
      ],
      [
        "▁hastalığı",
        -9.949399857270688
      ],
      [
        "▁bilen",
        -9.94943153770064
      ],
      [
        "▁geçti.",
        -9.950068967493047
      ],
      [
        "û",
        -9.95008329124338
      ],
      [
        "▁numaralı",
        -9.950647508659564
      ],
      [
        "▁hakim",
        -9.95111488710647
      ],
      [
        "▁Türkiye’ye",
        -9.951728584896237
      ],
      [
        "▁süreçte",
        -9.95207051921982
      ],
      [
        "ru",
        -9.952382025281027
      ],
      [
        "ndeki",
        -9.952423100696066
      ],
      [
        "eceğini",
        -9.952815814415402
      ],
      [
        "▁ayda",
        -9.953028070136789
      ],
      [
        "▁usta",
        -9.953103854457726
      ],
      [
        "▁verir.",
        -9.95334802599911
      ],
      [
        "RA",
        -9.953680585993629
      ],
      [
        "▁Kısa",
        -9.954025808965028
      ],
      [
        "gin",
        -9.954730401634166
      ],
      [
        "▁Medya",
        -9.955080996456235
      ],
      [
        "gerçekleştirilen",
        -9.95590800819114
      ],
      [
        "▁süper",
        -9.955961804855217
      ],
      [
        "▁No",
        -9.956199916865522
      ],
      [
        "▁kazanan",
        -9.956627731718967
      ],
      [
        "▁pratik",
        -9.957000899005964
      ],
      [
        "▁birden",
        -9.957275257189938
      ],
      [
        "▁yeme",
        -9.957468331663486
      ],
      [
        "▁“S",
        -9.957826131791109
      ],
      [
        "▁Üyesi",
        -9.95811934378793
      ],
      [
        "res",
        -9.958778230414943
      ],
      [
        "▁Savaşı",
        -9.959078941129798
      ],
      [
        "▁Yıldırım",
        -9.959577570509015
      ],
      [
        "▁Fransız",
        -9.960086408154307
      ],
      [
        "▁hoca",
        -9.960265738443276
      ],
      [
        "▁Antika",
        -9.960649194751818
      ],
      [
        "▁“K",
        -9.960912648898642
      ],
      [
        "▁duruma",
        -9.9612409895864
      ],
      [
        "▁konumun",
        -9.961360342684966
      ],
      [
        "▁dur",
        -9.961622353713837
      ],
      [
        "▁alabilirsiniz.",
        -9.96166185306109
      ],
      [
        "▁kendinizi",
        -9.961718970046206
      ],
      [
        "▁çıkış",
        -9.961908610391148
      ],
      [
        "▁bırak",
        -9.962357681921233
      ],
      [
        "ner",
        -9.962360720368656
      ],
      [
        "▁yöntem",
        -9.96265500879548
      ],
      [
        "▁Arap",
        -9.96287378009813
      ],
      [
        "İK",
        -9.96290660589608
      ],
      [
        "▁rivayet",
        -9.96328904817086
      ],
      [
        "dıkları",
        -9.963526443608753
      ],
      [
        "▁uyum",
        -9.963904836555244
      ],
      [
        "▁çıkması",
        -9.964137198284604
      ],
      [
        "dık",
        -9.964663659078283
      ],
      [
        "▁güvenliği",
        -9.964784443520635
      ],
      [
        "▁Dış",
        -9.965262310503434
      ],
      [
        "▁aralarında",
        -9.9652923348699
      ],
      [
        "▁yağı",
        -9.965616243648789
      ],
      [
        "▁300",
        -9.965630099136893
      ],
      [
        "▁43",
        -9.965808963001315
      ],
      [
        "▁katı",
        -9.965900586516412
      ],
      [
        "16",
        -9.966014552832808
      ],
      [
        "▁anlaşma",
        -9.96604834837094
      ],
      [
        "▁Göz",
        -9.966122895346128
      ],
      [
        "▁bütçe",
        -9.966520647806206
      ],
      [
        "▁sanatçı",
        -9.966936755578317
      ],
      [
        "▁idare",
        -9.967200857516769
      ],
      [
        "elim",
        -9.967367581633171
      ],
      [
        "▁açılan",
        -9.967484639764002
      ],
      [
        "▁Orman",
        -9.968528366613647
      ],
      [
        "▁kamera",
        -9.969042067610332
      ],
      [
        "▁Ön",
        -9.969118232161964
      ],
      [
        "▁görsel",
        -9.969363428508323
      ],
      [
        "▁olsun,",
        -9.969860906076615
      ],
      [
        "▁kanseri",
        -9.970073506344754
      ],
      [
        "▁Mo",
        -9.970593010070447
      ],
      [
        "▁başlığı",
        -9.970775747531514
      ],
      [
        "▁mahkeme",
        -9.970795774114697
      ],
      [
        "▁08",
        -9.971066913188226
      ],
      [
        "▁Resmi",
        -9.971113300347163
      ],
      [
        "▁Yazı",
        -9.971564254722502
      ],
      [
        "▁sunan",
        -9.971737600946103
      ],
      [
        "▁yarım",
        -9.971799717412853
      ],
      [
        "lerimizin",
        -9.972063862010838
      ],
      [
        "ilmiş",
        -9.972122992055628
      ],
      [
        "mıyor",
        -9.972658334024878
      ],
      [
        "▁Yolu",
        -9.972673519125024
      ],
      [
        "▁Yemek",
        -9.97309569011153
      ],
      [
        "z,",
        -9.973148896196932
      ],
      [
        "▁ekip",
        -9.973236176921784
      ],
      [
        "▁görüşme",
        -9.973644320911559
      ],
      [
        "▁03",
        -9.974097745354072
      ],
      [
        "▁seks",
        -9.974241394915062
      ],
      [
        "▁Bi",
        -9.97429197225399
      ],
      [
        "▁gibi.",
        -9.974320136449915
      ],
      [
        "▁Roma",
        -9.974438643111842
      ],
      [
        "em",
        -9.974456397676287
      ],
      [
        "▁adeta",
        -9.97467601783992
      ],
      [
        "dum.",
        -9.975154713738432
      ],
      [
        "▁şeye",
        -9.975568077010212
      ],
      [
        "▁kadınların",
        -9.975904328864267
      ],
      [
        "ES",
        -9.976370611572158
      ],
      [
        "mer",
        -9.976384386711281
      ],
      [
        "▁A.Ş.",
        -9.976431614813986
      ],
      [
        "13",
        -9.976867608554588
      ],
      [
        "▁köy",
        -9.977030335251131
      ],
      [
        "sunuz.",
        -9.977055396299189
      ],
      [
        "▁tarif",
        -9.97728526107246
      ],
      [
        "▁uyumlu",
        -9.977926147093193
      ],
      [
        "▁açıkladı.",
        -9.97804967134515
      ],
      [
        "▁şekil",
        -9.978106445029422
      ],
      [
        "▁Ki",
        -9.97832260747273
      ],
      [
        "▁heyecan",
        -9.978612211082002
      ],
      [
        "▁tarihte",
        -9.978917570465214
      ],
      [
        "70",
        -9.979054190214637
      ],
      [
        "▁Ü",
        -9.979161139361523
      ],
      [
        "▁Karşı",
        -9.979292325986016
      ],
      [
        "▁tl",
        -9.97955259008215
      ],
      [
        "▁yatak",
        -9.979893974778676
      ],
      [
        "▁kimlik",
        -9.980658726914136
      ],
      [
        "07",
        -9.981230400460156
      ],
      [
        "▁Tasarım",
        -9.981483383385273
      ],
      [
        "er,",
        -9.98158273350829
      ],
      [
        "AK",
        -9.981744891456827
      ],
      [
        "▁öğrencilerin",
        -9.98183189192725
      ],
      [
        "▁Enerji",
        -9.982099228119626
      ],
      [
        "▁saha",
        -9.982243147847647
      ],
      [
        "▁Yapılan",
        -9.98229320892828
      ],
      [
        "▁şiir",
        -9.982443314873237
      ],
      [
        "▁farkında",
        -9.982652230945348
      ],
      [
        "NE",
        -9.98276095635481
      ],
      [
        "▁başlıklı",
        -9.983430282845989
      ],
      [
        "▁(2)",
        -9.983654810006485
      ],
      [
        "▁gözlem",
        -9.984050569513705
      ],
      [
        "▁ağ",
        -9.984383690688887
      ],
      [
        "layarak",
        -9.984507216582173
      ],
      [
        "rt",
        -9.984706254430332
      ],
      [
        "14",
        -9.985025073393006
      ],
      [
        "▁DE",
        -9.985110989379795
      ],
      [
        "▁tecrübe",
        -9.985253417510771
      ],
      [
        "▁Din",
        -9.986082124547716
      ],
      [
        "▁“Bu",
        -9.986380256122159
      ],
      [
        "ınız",
        -9.98644780478805
      ],
      [
        "▁Otel",
        -9.986533572187582
      ],
      [
        "▁sabit",
        -9.98730636283516
      ],
      [
        "▁kolayca",
        -9.987311256972486
      ],
      [
        "ligi",
        -9.987330249838124
      ],
      [
        "▁konuk",
        -9.987368272216745
      ],
      [
        "▁çalışmak",
        -9.987589107162751
      ],
      [
        "▁yük",
        -9.987693157368351
      ],
      [
        "▁Müzik",
        -9.988484673370142
      ],
      [
        "▁cep",
        -9.988545381811502
      ],
      [
        "▁gazete",
        -9.98854684217656
      ],
      [
        "▁günün",
        -9.988837746849136
      ],
      [
        "ab",
        -9.990180730082466
      ],
      [
        "▁klasik",
        -9.990467149304479
      ],
      [
        "leyen",
        -9.992361482486796
      ],
      [
        "▁Ver",
        -9.992374501748758
      ],
      [
        "dikten",
        -9.992758356944893
      ],
      [
        "▁geçici",
        -9.993030967009558
      ],
      [
        "▁Video",
        -9.993037767657324
      ],
      [
        "sh",
        -9.99319535396202
      ],
      [
        "▁Oysa",
        -9.994015529903821
      ],
      [
        "%",
        -9.994499716594047
      ],
      [
        "▁Zira",
        -9.994790254823927
      ],
      [
        "▁şunu",
        -9.994951783665538
      ],
      [
        "▁02",
        -9.995670151541812
      ],
      [
        "▁kadro",
        -9.995801074116443
      ],
      [
        "▁pazarlama",
        -9.99589649186752
      ],
      [
        "▁Okulu",
        -9.99613869865118
      ],
      [
        "ıyoruz.",
        -9.996378398137342
      ],
      [
        "▁Çelik",
        -9.996412602933422
      ],
      [
        "▁çık",
        -9.996501433223106
      ],
      [
        "▁kaybı",
        -9.996743074994642
      ],
      [
        "▁anı",
        -9.99721744443709
      ],
      [
        "▁zamanlar",
        -9.99755609276053
      ],
      [
        "▁Emniyet",
        -9.997594395028752
      ],
      [
        "▁Akdeniz",
        -9.997656715565705
      ],
      [
        "▁katılım",
        -9.997708146879614
      ],
      [
        "şa",
        -9.99801506919854
      ],
      [
        "▁sesi",
        -9.99806660372214
      ],
      [
        "▁yolcu",
        -9.998573854127262
      ],
      [
        "▁şehrin",
        -9.99869091962675
      ],
      [
        "▁olduğumuz",
        -9.998784988445127
      ],
      [
        "luğu",
        -9.998868265811138
      ],
      [
        "▁kadının",
        -9.999231122280412
      ],
      [
        "▁kahvaltı",
        -10.000876442558145
      ],
      [
        "▁Irak",
        -10.001155776129405
      ],
      [
        "▁beden",
        -10.001169778778335
      ],
      [
        "▁Ata",
        -10.001891365848522
      ],
      [
        "▁yapması",
        -10.002067627290977
      ],
      [
        "▁Bodrum",
        -10.002189386219818
      ],
      [
        "▁(M",
        -10.00260565613938
      ],
      [
        "▁Samsun",
        -10.002682710091158
      ],
      [
        "▁yerlerde",
        -10.00276852136238
      ],
      [
        "▁çıkmış",
        -10.003210213171252
      ],
      [
        "▁34",
        -10.003335187857633
      ],
      [
        "▁ülkemizde",
        -10.003381808688145
      ],
      [
        "▁yapılır.",
        -10.004756795861184
      ],
      [
        "lamak",
        -10.005161742635273
      ],
      [
        "▁Kat",
        -10.005383164557713
      ],
      [
        "▁yarar",
        -10.00546172064021
      ],
      [
        "▁derecede",
        -10.005521043926649
      ],
      [
        "▁halka",
        -10.005539756068988
      ],
      [
        "▁Gu",
        -10.00581162637243
      ],
      [
        "▁arzu",
        -10.005922301830385
      ],
      [
        "▁aşağı",
        -10.005961062059582
      ],
      [
        "▁çocukları",
        -10.006035787834595
      ],
      [
        "mış.",
        -10.0064534028517
      ],
      [
        "▁öğrenme",
        -10.006483088582996
      ],
      [
        "▁Bal",
        -10.006483347156749
      ],
      [
        "▁mekan",
        -10.006885452178963
      ],
      [
        "▁kıl",
        -10.006890187287702
      ],
      [
        "▁06",
        -10.006961784434715
      ],
      [
        "▁düşün",
        -10.007226186118714
      ],
      [
        "▁Van",
        -10.007297035786443
      ],
      [
        "cek",
        -10.007507942240494
      ],
      [
        "▁yönde",
        -10.007706084982992
      ],
      [
        "▁düşman",
        -10.007744999405253
      ],
      [
        "▁getirdi.",
        -10.008045926875946
      ],
      [
        "gün",
        -10.008086690245571
      ],
      [
        "▁Baba",
        -10.008161497842098
      ],
      [
        "▁inci",
        -10.008182140736722
      ],
      [
        "02",
        -10.008395249836127
      ],
      [
        "▁ortam",
        -10.008540398598821
      ],
      [
        "▁çocuğu",
        -10.0087606360987
      ],
      [
        "▁Tarım",
        -10.0087831619937
      ],
      [
        "▁Sabah",
        -10.008805353537989
      ],
      [
        "▁hikaye",
        -10.008907676802382
      ],
      [
        "▁karşıya",
        -10.009146584044512
      ],
      [
        "miyor",
        -10.009576633012117
      ],
      [
        "▁ulaşmak",
        -10.009608583487228
      ],
      [
        "▁acaba",
        -10.009680751202525
      ],
      [
        "▁söylemek",
        -10.009691084451276
      ],
      [
        "▁and",
        -10.009907234533678
      ],
      [
        "▁Öğrenci",
        -10.010160731321154
      ],
      [
        "▁fırsatı",
        -10.010305781107013
      ],
      [
        "▁İlgili",
        -10.010321714141622
      ],
      [
        "▁etmeyi",
        -10.010368291800628
      ],
      [
        "▁yaşamak",
        -10.010578107861113
      ],
      [
        "dum",
        -10.010693206199676
      ],
      [
        "bar",
        -10.010726829719374
      ],
      [
        "▁yapıyor",
        -10.010729922596592
      ],
      [
        "▁bil",
        -10.011375531558894
      ],
      [
        "▁eğlence",
        -10.01233930524792
      ],
      [
        "cılık",
        -10.012525741731594
      ],
      [
        "▁yazan",
        -10.013249010894931
      ],
      [
        "“",
        -10.013815899084882
      ],
      [
        "▁yangın",
        -10.014102363313276
      ],
      [
        "▁mavi",
        -10.01417134715697
      ],
      [
        "▁Kurul",
        -10.014211754634317
      ],
      [
        "▁Adam",
        -10.014234880455591
      ],
      [
        "▁zamanında",
        -10.01460898617945
      ],
      [
        "▁Sınıf",
        -10.014686873821228
      ],
      [
        "▁verilmesi",
        -10.014994176162064
      ],
      [
        "▁Yusuf",
        -10.01540040284663
      ],
      [
        "mın",
        -10.015421059842843
      ],
      [
        "▁Şube",
        -10.015503537512288
      ],
      [
        "▁alanları",
        -10.015876828687384
      ],
      [
        "▁verici",
        -10.016042768352968
      ],
      [
        "DI",
        -10.016075288933145
      ],
      [
        "▁biridir.",
        -10.01688976743701
      ],
      [
        "▁çıkıyor.",
        -10.01692465538865
      ],
      [
        "▁cihaz",
        -10.017055846411722
      ],
      [
        "▁Dışişleri",
        -10.017406275006039
      ],
      [
        "▁Soru",
        -10.017730928610995
      ],
      [
        "Ö",
        -10.017758260748284
      ],
      [
        "▁Bebek",
        -10.017925177919874
      ],
      [
        "▁Sizin",
        -10.018496307187025
      ],
      [
        "▁e-posta",
        -10.018529496635036
      ],
      [
        "▁Bilimler",
        -10.01854960614508
      ],
      [
        "▁Mesela",
        -10.018735174254944
      ],
      [
        "yse",
        -10.018846651137693
      ],
      [
        "▁x",
        -10.018847200378588
      ],
      [
        "▁değildir",
        -10.019016327159873
      ],
      [
        "unda",
        -10.019703368360721
      ],
      [
        "ası",
        -10.019915215542206
      ],
      [
        "▁amaç",
        -10.020471620665306
      ],
      [
        "▁kuruluş",
        -10.020675164116714
      ],
      [
        "▁At",
        -10.020836658032515
      ],
      [
        "▁eylem",
        -10.02100304124144
      ],
      [
        "CI",
        -10.02132400700166
      ],
      [
        "▁raporu",
        -10.021919806408743
      ],
      [
        "▁üstüne",
        -10.022026536145951
      ],
      [
        "▁ulusal",
        -10.022206789637455
      ],
      [
        "▁unutma",
        -10.02237683164986
      ],
      [
        "▁değişikliği",
        -10.02239859421232
      ],
      [
        "Bundan",
        -10.022847922749627
      ],
      [
        "MAN",
        -10.023390258639532
      ],
      [
        "cü",
        -10.023689939083782
      ],
      [
        "▁Elektronik",
        -10.023747806983701
      ],
      [
        "AL",
        -10.023759587945463
      ],
      [
        "▁tarz",
        -10.023957119346147
      ],
      [
        "▁öz",
        -10.024492566428723
      ],
      [
        "bo",
        -10.024552951161724
      ],
      [
        "madan",
        -10.02544935120794
      ],
      [
        "▁seç",
        -10.02565848244395
      ],
      [
        "▁Ca",
        -10.025660438635256
      ],
      [
        "ydı",
        -10.026218644696153
      ],
      [
        "▁boy",
        -10.02677613774976
      ],
      [
        "▁Gıda",
        -10.026905348182606
      ],
      [
        "▁Po",
        -10.027305218430065
      ],
      [
        "▁İLE",
        -10.027855631988494
      ],
      [
        "▁iktidar",
        -10.028132841186977
      ],
      [
        "▁Çarşamba",
        -10.028719783825771
      ],
      [
        "▁telefonu",
        -10.028744341965748
      ],
      [
        "▁ölçüde",
        -10.029478440146729
      ],
      [
        "▁birşey",
        -10.029818368512846
      ],
      [
        "▁trafik",
        -10.030290455820026
      ],
      [
        "▁şiddet",
        -10.030737781267662
      ],
      [
        "▁hattı",
        -10.030958353143907
      ],
      [
        "’deki",
        -10.030972755307326
      ],
      [
        "▁Alanlar",
        -10.03116572343989
      ],
      [
        "▁Kulübü",
        -10.03120814923587
      ],
      [
        "▁İbn",
        -10.03138786845622
      ],
      [
        "17",
        -10.03183824814866
      ],
      [
        "mü",
        -10.03185167135343
      ],
      [
        "▁ettir",
        -10.032498450997007
      ],
      [
        "▁yapmayı",
        -10.032778584457287
      ],
      [
        "▁ideal",
        -10.032826904570026
      ],
      [
        "▁bomba",
        -10.032880252671092
      ],
      [
        "yon",
        -10.03294234005639
      ],
      [
        "▁Kredi",
        -10.033417500003313
      ],
      [
        "▁S.",
        -10.03343779727138
      ],
      [
        "▁Yüksel",
        -10.033450523800466
      ],
      [
        "▁halkı",
        -10.033970061665572
      ],
      [
        "▁Euro",
        -10.034521203258066
      ],
      [
        "▁Te",
        -10.03456570597455
      ],
      [
        "▁içerik",
        -10.03520715896746
      ],
      [
        "▁bünyesinde",
        -10.035256047292574
      ],
      [
        "isi",
        -10.035387964431642
      ],
      [
        "▁firması",
        -10.0354825942945
      ],
      [
        "▁tarzı",
        -10.03591071557515
      ],
      [
        "▁alır",
        -10.035994666523564
      ],
      [
        "▁tanı",
        -10.036328048935511
      ],
      [
        "▁·",
        -10.036468596492899
      ],
      [
        "Birleşik",
        -10.036824523314825
      ],
      [
        "ilmesi",
        -10.036960110110687
      ],
      [
        "03",
        -10.037926422398117
      ],
      [
        "ağı",
        -10.03812412021432
      ],
      [
        "▁kilometre",
        -10.038175218538886
      ],
      [
        "leriniz",
        -10.038219682823996
      ],
      [
        "▁taşı",
        -10.038382637605793
      ],
      [
        "▁yürüyüş",
        -10.038435381271313
      ],
      [
        "▁ulaş",
        -10.038444143872992
      ],
      [
        "▁amaçlı",
        -10.038614882370146
      ],
      [
        "▁yok,",
        -10.039022507467749
      ],
      [
        "▁anlam",
        -10.039319644385742
      ],
      [
        "▁anlayışı",
        -10.039336889227208
      ],
      [
        "▁Bunların",
        -10.03961228226678
      ],
      [
        "▁sev",
        -10.041095365103743
      ],
      [
        "▁Hanım",
        -10.041291778951624
      ],
      [
        "▁Fen",
        -10.041391826216852
      ],
      [
        "▁cam",
        -10.041461314552995
      ],
      [
        "taş",
        -10.042085721940294
      ],
      [
        "▁kullandı.",
        -10.042253979751234
      ],
      [
        "▁seçimi",
        -10.042384621344569
      ],
      [
        "▁tasarımı",
        -10.042615940010794
      ],
      [
        "▁sıvı",
        -10.042616177882586
      ],
      [
        "▁Hastanesi",
        -10.042884733644334
      ],
      [
        "▁onunla",
        -10.043054409950546
      ],
      [
        "▁dönemin",
        -10.043307130599668
      ],
      [
        "▁48",
        -10.043476151066859
      ],
      [
        "▁eğlenceli",
        -10.043482853071346
      ],
      [
        "▁Saç",
        -10.044315859079143
      ],
      [
        "▁ölü",
        -10.044367886532404
      ],
      [
        "-A",
        -10.044569368780326
      ],
      [
        "▁noktası",
        -10.045653154283153
      ],
      [
        "▁Tabi",
        -10.046342059329568
      ],
      [
        "▁Program",
        -10.046380493790924
      ],
      [
        "▁dost",
        -10.046417110480245
      ],
      [
        "az",
        -10.04651906542859
      ],
      [
        "▁Ekonomi",
        -10.046608174923918
      ],
      [
        "▁sigorta",
        -10.046920043582322
      ],
      [
        "▁mail",
        -10.04773227764132
      ],
      [
        "yım",
        -10.04781948581589
      ],
      [
        "▁dev",
        -10.048011656158039
      ],
      [
        "▁Ders",
        -10.048036361491357
      ],
      [
        "▁belirterek,",
        -10.04816323243411
      ],
      [
        "lı,",
        -10.048367095626485
      ],
      [
        "▁aldı",
        -10.048909989341707
      ],
      [
        "▁İSTANBUL",
        -10.04896354575378
      ],
      [
        "▁geçtiğimiz",
        -10.049304834094897
      ],
      [
        "▁Bak",
        -10.049350436336749
      ],
      [
        "▁yumurta",
        -10.049363943088535
      ],
      [
        "▁şık",
        -10.049479069913982
      ],
      [
        "▁fikri",
        -10.049635951867616
      ],
      [
        "larınız",
        -10.05017411539302
      ],
      [
        "▁çıkı",
        -10.05032732398218
      ],
      [
        "▁mahalle",
        -10.05041363688711
      ],
      [
        "▁isteği",
        -10.050699251563529
      ],
      [
        "▁misiniz?",
        -10.050830277716846
      ],
      [
        "ile",
        -10.051511023793811
      ],
      [
        "▁Mersin",
        -10.05184909374806
      ],
      [
        "▁‘’",
        -10.051973935035
      ],
      [
        "▁AL",
        -10.052288174700056
      ],
      [
        "▁sorular",
        -10.052600994636741
      ],
      [
        "'yı",
        -10.05277991866293
      ],
      [
        "▁yapabilirsiniz.",
        -10.05277995499053
      ],
      [
        "▁olduklarını",
        -10.053151352675252
      ],
      [
        "▁kriz",
        -10.05415575220444
      ],
      [
        "▁sürpriz",
        -10.054284062233442
      ],
      [
        "▁seri",
        -10.054365310021886
      ],
      [
        "iyorum.",
        -10.054523014801113
      ],
      [
        "ulaşabilirsiniz.",
        -10.054577602649928
      ],
      [
        "ım.",
        -10.054579510911637
      ],
      [
        "tür",
        -10.05490597061457
      ],
      [
        "LİK",
        -10.055042784122328
      ],
      [
        "▁yolunu",
        -10.056798407080038
      ],
      [
        "▁ver",
        -10.056982819405684
      ],
      [
        "▁günümüzde",
        -10.057748086289727
      ],
      [
        "▁yapmanız",
        -10.058240853500898
      ],
      [
        "av",
        -10.05830602428873
      ],
      [
        "▁Şahin",
        -10.058395320957437
      ],
      [
        "▁Afrika",
        -10.058717985574669
      ],
      [
        "▁temin",
        -10.058748048018437
      ],
      [
        "cilik",
        -10.059714492264574
      ],
      [
        "▁nedir",
        -10.06005123049572
      ],
      [
        "▁H.",
        -10.060067210925432
      ],
      [
        "▁tak",
[...]
