{
    "version": "1.0",
    "truncation": null,
    "padding": null,
    "added_tokens": [
        {
            "id": 0,
            "content": "[UNK]",
            "single_word": false,
            "lstrip": false,
            "rstrip": false,
            "normalized": false,
            "special": true
        },
        {
            "id": 1,
            "content": "[CLS]",
            "single_word": false,
            "lstrip": false,
            "rstrip": false,
            "normalized": false,
            "special": true
        },
        {
            "id": 2,
            "content": "[SEP]",
            "single_word": false,
            "lstrip": false,
            "rstrip": false,
            "normalized": false,
            "special": true
        },
        {
            "id": 3,
            "content": "[PAD]",
            "single_word": false,
            "lstrip": false,
            "rstrip": false,
            "normalized": false,
            "special": true
        },
        {
            "id": 4,
            "content": "[MASK]",
            "single_word": false,
            "lstrip": false,
            "rstrip": false,
            "normalized": false,
            "special": true
        }
    ],
    "normalizer": {
        "type": "Sequence",
        "normalizers": [
            {
                "type": "Nmt"
            },
            {
                "type": "NFKC"
            },
            {
                "type": "Replace",
                "pattern": {
                    "Regex": " {2,}"
                },
                "content": " "
            }
        ]
    },
    "pre_tokenizer": {
        "type": "Metaspace",
        "replacement": "\u2581",
        "prepend_scheme": "always",
        "split": true
    },
    "post_processor": null,
    "decoder": {
        "type": "Metaspace",
        "replacement": "\u2581",
        "prepend_scheme": "always",
        "split": true
    },
    "model": {
        "type": "Unigram",
        "unk_id": null,
        "vocab": [
            [
                "[UNK]",
                0.0
            ],
            [
                "[CLS]",
                0.0
            ],
            [
                "[SEP]",
                0.0
            ],
            [
                "[PAD]",
                0.0
            ],
            [
                "\u2581",
                -3.278125178439371
            ],
            [
                "\u2581de",
                -3.2581108685039624
            ],
            [
                ",",
                -4.033685910220203
            ],
            [
                "\u2581the",
                -3.3213307409293424
            ],
            [
                ".",
                -3.865084893637029
            ],
            [
                "\u2581c\u00f3",
                -4.63586835889404
            ],
            [
                "\u2581to",
                -3.683455606663033
            ],
            [
                "\u2581la",
                -3.9994429044674504
            ],
            [
                "\u2581v\u00e0",
                -4.661277075947011
            ],
            [
                "\u2581and",
                -3.8688959012872495
            ],
            [
                "\u2581et",
                -4.151884058553412
            ],
            [
                "\u2581c\u1ee7a",
                -4.665393502841679
            ],
            [
                "\u2581of",
                -3.9362615846777693
            ],
            [
                "\u00e0",
                -4.199924676756188
            ],
            [
                "\u2581l\u00e0",
                -4.7484913189891
            ],
            [
                "\u2581a",
                -3.951002574692369
            ],
            [
                "\u2581le",
                -4.213669658987001
            ],
            [
                "\u2581kh\u00f4ng",
                -4.874761347369086
            ],
            [
                "\u2581in",
                -4.372584402010379
            ],
            [
                "\u2581les",
                -4.396153976874004
            ],
            [
                "\u2581m\u1ed9t",
                -5.033366151786856
            ],
            [
                "\u2581I",
                -4.561387321364583
            ],
            [
                "s",
                -4.482090866605054
            ],
            [
                "\u2581cho",
                -5.133326523235835
            ],
            [
                "\u2581is",
                -4.622816178173261
            ],
            [
                "\u2581des",
                -4.569442554769092
            ],
            [
                "\u2581\u0111\u01b0\u1ee3c",
                -5.1596361685154175
            ],
            [
                "\u2581you",
                -4.6983288197787445
            ],
            [
                "\u2581en",
                -4.639141673940237
            ],
            [
                "\u2581c\u00e1c",
                -5.161359624109293
            ],
            [
                "\u2581that",
                -4.70413307979776
            ],
            [
                "\u2581que",
                -4.681380061522496
            ],
            [
                "\u2581trong",
                -5.2290652525660235
            ],
            [
                "\u2581for",
                -4.732393596384391
            ],
            [
                "\u2581un",
                -4.761746763172738
            ],
            [
                "\u2581ng\u01b0\u1eddi",
                -5.239314965377208
            ],
            [
                "\u2581on",
                -5.082556473431547
            ],
            [
                "\u2581pour",
                -4.797839447938101
            ],
            [
                "\u2581v\u1edbi",
                -5.315207396825686
            ],
            [
                "\u2581with",
                -5.112540725115071
            ],
            [
                "\u2581du",
                -4.882219081987481
            ],
            [
                "\u2581nh\u1eefng",
                -5.481516574625348
            ],
            [
                "\u2581it",
                -5.132782587456219
            ],
            [
                "\u2581pas",
                -4.896710527524126
            ],
            [
                "\u2581-",
                -5.516405021725514
            ],
            [
                "\u2581be",
                -5.152803597774341
            ],
            [
                "a",
                -5.051948612238398
            ],
            [
                "\u2581\u0111\u00e3",
                -5.542708251164835
            ],
            [
                "\u2581are",
                -5.254249071330939
            ],
            [
                "\u2581une",
                -5.062178273985253
            ],
            [
                "\u2581th\u1ec3",
                -5.544633299254206
            ],
            [
                "\u2581have",
                -5.304062593501101
            ],
            [
                "\u2581dans",
                -5.132262303489016
            ],
            [
                "\u2581\u0111\u1ec3",
                -5.585004324089422
            ],
            [
                "\u2581your",
                -5.378303734544144
            ],
            [
                "\u2581qui",
                -5.161302357297346
            ],
            [
                "\u2581nh\u01b0",
                -5.674268957269267
            ],
            [
                "\u2581this",
                -5.388359770470274
            ],
            [
                "\u2581est",
                -5.175079740765506
            ],
            [
                ":",
                -5.723424302772877
            ],
            [
                "\u2581as",
                -5.403549811507841
            ],
            [
                "\u2581je",
                -5.235131291396396
            ],
            [
                "\u2581l\u00e0m",
                -5.769502717825039
            ],
            [
                "\u2581was",
                -5.449985719383982
            ],
            [
                "\u2581sur",
                -5.288509238481113
            ],
            [
                "\u2581v\u1ec1",
                -5.771322854146273
            ],
            [
                "\u2581or",
                -5.565794513953712
            ],
            [
                "\u2581ne",
                -5.333132294877895
            ],
            [
                "\u2581\u0111\u1ebfn",
                -5.772779725913199
            ],
            [
                "\u2581The",
                -5.576907571979227
            ],
            [
                "\u2581vous",
                -5.392915623839755
            ],
            [
                "\u2581c\u0169ng",
                -5.783417101156683
            ],
            [
                "\u2581not",
                -5.587260915900214
            ],
            [
                "\u2581ce",
                -5.407520772157102
            ],
            [
                "\u2581c\u00f4ng",
                -5.787502102784079
            ],
            [
                "\u2581at",
                -5.618597965988872
            ],
            [
                "\u2581au",
                -5.455272377963901
            ],
            [
                "\u2581b\u1ea1n",
                -5.797784069161192
            ],
            [
                "\u2581will",
                -5.746927273632397
            ],
            [
                "\u2581plus",
                -5.470131126193049
            ],
            [
                "\u2581khi",
                -5.875384541508762
            ],
            [
                "\u2581from",
                -5.771090836827423
            ],
            [
                "e",
                -5.5526207019955605
            ],
            [
                "\u1edf",
                -5.88189175604608
            ],
            [
                "\u2581can",
                -5.7733693834026205
            ],
            [
                "\u2581par",
                -5.553971814416886
            ],
            [
                "\u2581l\u1ea1i",
                -5.883691453405266
            ],
            [
                "\u2581my",
                -5.8089696387198835
            ],
            [
                "...",
                -5.5970449244404366
            ],
            [
                "\u2581ra",
                -5.891383100918081
            ],
            [
                "\u2581but",
                -5.8110765400484725
            ],
            [
                "\u2581:",
                -5.6493108030546395
            ],
            [
                "\u2581n\u00e0y",
                -5.901053537435079
            ],
            [
                "\u2581we",
                -5.863618294796015
            ],
            [
                "\u2581il",
                -5.689841693476478
            ],
            [
                "\u2581s\u1ebd",
                -5.9258054203505095
            ],
            [
                "\u2581an",
                -5.872651685358432
            ],
            [
                "\u2581avec",
                -5.741481606581637
            ],
            [
                "\u2581v\u00e0o",
                -5.9566345430466425
            ],
            [
                "\u2581by",
                -5.902621472210055
            ],
            [
                "\u2581se",
                -5.747032525697751
            ],
            [
                "\u2581ph\u1ea3i",
                -5.981476145561788
            ],
            [
                "\u2581all",
                -5.940600500154542
            ],
            [
                "\u2581ou",
                -5.800598844765382
            ],
            [
                "\u2581t\u1ea1i",
                -5.99669686594481
            ],
            [
                "\u2581they",
                -6.004265680685873
            ],
            [
                "\u2581mais",
                -5.9314409862409265
            ],
            [
                "\u2581t\u1eeb",
                -6.010739174534226
            ],
            [
                "\u2581about",
                -6.036019031634542
            ],
            [
                "\u2581sont",
                -5.964595230166393
            ],
            [
                "\u2581s\u1ef1",
                -6.046794882756065
            ],
            [
                "?",
                -6.049505133920166
            ],
            [
                "\u2581!",
                -5.995754346051316
            ],
            [
                "\u2581m\u00e0",
                -6.059605617252291
            ],
            [
                "\u2581so",
                -6.063599299827235
            ],
            [
                "\u2581nous",
                -6.02261515949385
            ],
            [
                "\u2581tr\u00ean",
                -6.0787709990994285
            ],
            [
                "\u2581he",
                -6.084724543365944
            ],
            [
                "\u2581tout",
                -6.0566841837455705
            ],
            [
                "\u2581\u0111\u1ea7u",
                -6.097908599601084
            ],
            [
                "\u2581more",
                -6.105830522179372
            ],
            [
                "\u2581Je",
                -6.061779218329928
            ],
            [
                "\u2581nhi\u1ec1u",
                -6.099216374055725
            ],
            [
                "\u2581one",
                -6.124348061929499
            ],
            [
                "\u2581bien",
                -6.097343380675241
            ],
            [
                "\u2581nh\u00e0",
                -6.1123871634135325
            ],
            [
                "\u2581has",
                -6.146494262514428
            ],
            [
                "\u2581?",
                -6.115284509895877
            ],
            [
                "\u2581b\u1ecb",
                -6.115700530289357
            ],
            [
                "\u2581do",
                -6.213668451406352
            ],
            [
                "\u2581Le",
                -6.129174264923723
            ],
            [
                "\u2581t\u00f4i",
                -6.1162582085007635
            ],
            [
                "\u2581their",
                -6.21536379676936
            ],
            [
                "on",
                -6.1436591221744585
            ],
            [
                "\u2581ch\u1ec9",
                -6.119473409349877
            ],
            [
                "!",
                -6.232898114271713
            ],
            [
                "\u2581\u00ab",
                -6.202351802794681
            ],
            [
                "\u2581th\u00ec",
                -6.149405963268656
            ],
            [
                "\u2581out",
                -6.234386231335914
            ],
            [
                "\u2581Il",
                -6.214172797448359
            ],
            [
                "\u2581th\u00e0nh",
                -6.156885830143569
            ],
            [
                "\u2581like",
                -6.242235313852518
            ],
            [
                "\u2581son",
                -6.2216174032880645
            ],
            [
                "\u2581vi\u1ec7c",
                -6.1693827948320985
            ],
            [
                "\u2581if",
                -6.261474071627998
            ],
            [
                "\u2581me",
                -6.221709004809981
            ],
            [
                "\u2581\u0111\u1ed9ng",
                -6.174146192860075
            ],
            [
                "\u2581his",
                -6.265740598198228
            ],
            [
                "\u2581faire",
                -6.256245473676851
            ],
            [
                "\u2581\u0111i",
                -6.186631269833472
            ],
            [
                "\u2581up",
                -6.285028594788893
            ],
            [
                "\u2581si",
                -6.258758587131607
            ],
            [
                "\u2581hi\u1ec7n",
                -6.190886666863566
            ],
            [
                "\u2581what",
                -6.3007222549402995
            ],
            [
                "\u2581fait",
                -6.264190945039754
            ],
            [
                "\u2581ta",
                -6.191613989034256
            ],
            [
                "\u2581our",
                -6.308993472736657
            ],
            [
                "\u2581La",
                -6.312030445218295
            ],
            [
                "\u2581h\u00e0ng",
                -6.20072193786454
            ],
            [
                "\u2581would",
                -6.340318358488435
            ],
            [
                ")",
                -6.327677746429688
            ],
            [
                "\u2581h\u1ecdc",
                -6.209771636987018
            ],
            [
                "ing",
                -6.34586645718451
            ],
            [
                "\u2581cette",
                -6.3429704451631785
            ],
            [
                "\u2581d\u1ee5ng",
                -6.249638128667673
            ],
            [
                "\u2581just",
                -6.353841177979408
            ],
            [
                "\u2581aux",
                -6.37228815252104
            ],
            [
                "\u2581ch\u00ednh",
                -6.254488041887607
            ],
            [
                "\u2581who",
                -6.36677909503229
            ],
            [
                "r",
                -6.379151955100663
            ],
            [
                "\u2581n\u0103m",
                -6.272788936899897
            ],
            [
                "\u2581had",
                -6.391102504693042
            ],
            [
                "\u2581votre",
                -6.405922996930769
            ],
            [
                "\u2581nh\u00e2n",
                -6.301343151527885
            ],
            [
                "\u2581been",
                -6.401754705514425
            ],
            [
                "\u2581comme",
                -6.406025286580249
            ],
            [
                "\u2581nh\u1ea5t",
                -6.303257657176682
            ],
            [
                "\u2581get",
                -6.44740039633056
            ],
            [
                "\u2581\u00eatre",
                -6.447831371920398
            ],
            [
                "\u2581\u0111\u00f3",
                -6.305698318930783
            ],
            [
                "\u2581some",
                -6.452062774957067
            ],
            [
                "\u2581m\u00eame",
                -6.457053938219825
            ],
            [
                "\u2581quan",
                -6.306825069271933
            ],
            [
                "\u2581which",
                -6.453836890376195
            ],
            [
                "\u2581c'est",
                -6.466095798485462
            ],
            [
                "\u2581\u0111\u1ecbnh",
                -6.314153513633978
            ],
            [
                "\u2581when",
                -6.457576535196213
            ],
            [
                "\u2581Les",
                -6.486038170884623
            ],
            [
                "\u2581s\u1ed1",
                -6.314237432470544
            ],
            [
                "-",
                -6.497090740574687
            ],
            [
                "\u2581y",
                -6.4864991574177635
            ],
            [
                "\u2581ng\u00e0y",
                -6.3302429316353965
            ],
            [
                "\u2019s",
                -6.5221942438266325
            ],
            [
                "\u2581tu",
                -6.506028194146953
            ],
            [
                "\u2581th\u1ebf",
                -6.330706207678116
            ],
            [
                "\u2581her",
                -6.542157215116177
            ],
            [
                "\u2581\u00e7a",
                -6.543334030257799
            ],
            [
                "\u2581c\u00f2n",
                -6.3324811595866235
            ],
            [
                "\u2581time",
                -6.54394757916005
            ],
            [
                "\u2581tr\u00e8s",
                -6.555785919873682
            ],
            [
                "\u2581con",
                -6.369918842268054
            ],
            [
                "\u2581there",
                -6.562229661253665
            ],
            [
                "t",
                -6.588862038354951
            ],
            [
                "\u2581n\u01b0\u1edbc",
                -6.38056576645927
            ],
            [
                "\u2581It",
                -6.566148787116572
            ],
            [
                "\u2581sa",
                -6.591968136489537
            ],
            [
                "\u2581n\u00f3i",
                -6.406733520765383
            ],
            [
                "\u2581were",
                -6.5972561321026815
            ],
            [
                "\u2581\u00bb",
                -6.611875711941867
            ],
            [
                "\u2581r\u1ea5t",
                -6.409237191924729
            ],
            [
                "\u2581other",
                -6.599317602158699
            ],
            [
                "s,",
                -6.616332951838873
            ],
            [
                "\u2581theo",
                -6.418419764550786
            ],
            [
                "\u2581any",
                -6.638733612694392
            ],
            [
                "\u2581peut",
                -6.692966908312354
            ],
            [
                "\u2581n\u00ean",
                -6.420631626410611
            ],
            [
                "\u2581how",
                -6.647382624230989
            ],
            [
                "\u2581mon",
                -6.709675995277738
            ],
            [
                "\u2581h\u1ee3p",
                -6.43341803122465
            ],
            [
                "\u2581This",
                -6.647752210256314
            ],
            [
                "\u2581suis",
                -6.712321868795269
            ],
            [
                "\u2581ch\u00fang",
                -6.446008185702655
            ],
            [
                "ed",
                -6.648919906296161
            ],
            [
                "\u2581\u00e9t\u00e9",
                -6.733133094285581
            ],
            [
                "\u2581c\u00e1ch",
                -6.447569058855468
            ],
            [
                "\u2581people",
                -6.6774088019003655
            ],
            [
                "\u2581leur",
                -6.7409344373759055
            ],
            [
                "\u2581m\u1edbi",
                -6.448311393527657
            ],
            [
                "\u2581than",
                -6.682985521569539
            ],
            [
                "\u2581ont",
                -6.75143544825475
            ],
            [
                "\u2581Vi\u1ec7t",
                -6.449693716651642
            ],
            [
                "\u2581We",
                -6.6868993298485035
            ],
            [
                "\u2581aussi",
                -6.760642832470066
            ],
            [
                "\u2581\u0111i\u1ec1u",
                -6.452441394529174
            ],
            [
                "\u2581no",
                -6.7094914982987985
            ],
            [
                "\u2581(",
                -6.7887935006645295
            ],
            [
                "\u2581tin",
                -6.463926790290839
            ],
            [
                "\u2581them",
                -6.715150903684811
            ],
            [
                "\u2581ses",
                -6.79008656206673
            ],
            [
                "\u2581th\u1ef1c",
                -6.464846010585741
            ],
            [
                "\u2581You",
                -6.721777101684938
            ],
            [
                "\u2581elle",
                -6.803997780125165
            ],
            [
                "\u2581gi\u00e1",
                -6.465730875401914
            ],
            [
                "\u2581also",
                -6.725095483479682
            ],
            [
                "\u2581En",
                -6.814544811181573
            ],
            [
                "\u2581th\u1eddi",
                -6.465979218759057
            ],
            [
                "'s",
                -6.727825998467701
            ],
            [
                "\u2581peu",
                -6.830018452458337
            ],
            [
                "\u2581anh",
                -6.47057608389964
            ],
            [
                "d",
                -6.732151221136806
            ],
            [
                "\u2581tous",
                -6.84058579066438
            ],
            [
                "\u2581nh\u01b0ng",
                -6.474137789671872
            ],
            [
                "\u2581A",
                -6.735329160184769
            ],
            [
                "\u2581Et",
                -6.859966798100089
            ],
            [
                "\u2581s\u1ea3n",
                -6.479084087421453
            ],
            [
                "\u2581know",
                -6.746099779445326
            ],
            [
                "s.",
                -6.870115040601651
            ],
            [
                "\u2581m\u00ecnh",
                -6.4935220492729435
            ],
            [
                "\u2581make",
                -6.770388828701996
            ],
            [
                "\u2581ces",
                -6.892207778572672
            ],
            [
                "\u2581gia",
                -6.501278504340493
            ],
            [
                "\u2581she",
                -6.771237178980397
            ],
            [
                "\u2581sans",
                -6.908687086223492
            ],
            [
                "\u2581c\u1ea3",
                -6.510871947526606
            ],
            [
                "\u2581into",
                -6.775471993043251
            ],
            [
                "\u2581lui",
                -6.913324885813208
            ],
            [
                "\u2581th\u00f4ng",
                -6.513885159294599
            ],
            [
                "\u2581If",
                -6.78990260253487
            ],
            [
                "nt",
                -6.950167654438213
            ],
            [
                "\u2581bi\u1ebft",
                -6.530060612809436
            ],
            [
                "\u2581very",
                -6.8024659939606265
            ],
            [
                "\u2581Pour",
                -6.950282762555361
            ],
            [
                "\u2581\u2013",
                -6.538168102681159
            ],
            [
                "\u2581only",
                -6.833152775622255
            ],
            [
                "\u2581c\u2019est",
                -6.95753158473142
            ],
            [
                "\u2581c\u01a1",
                -6.538879085930669
            ],
            [
                "\u2581see",
                -6.8592511784698
            ],
            [
                "es",
                -6.975024452044899
            ],
            [
                "\u2581sinh",
                -6.549841142595862
            ],
            [
                ";",
                -6.872731960101741
            ],
            [
                "\u2581deux",
                -7.021846488762354
            ],
            [
                "\u2581c\u00f9ng",
                -6.5745568925022475
            ],
            [
                "\u2581new",
                -6.874249964524772
            ],
            [
                "\u2581ma",
                -7.03070096095784
            ],
            [
                "\u2581\u0111ang",
                -6.5967227124898
            ],
            [
                "\u2581In",
                -6.874788627409963
            ],
            [
                "\u2581Mais",
                -7.0343174512345525
            ],
            [
                "\u2581h\u00ecnh",
                -6.60292286152212
            ],
            [
                "\u2581over",
                -6.889715768230576
            ],
            [
                "\u2581temps",
                -7.039249920078067
            ],
            [
                "\u2581sau",
                -6.6033974045551425
            ],
            [
                "\u2581think",
                -6.901044674714527
            ],
            [
                "\u2581j'ai",
                -7.040101246362146
            ],
            [
                "\u2581Nam",
                -6.604777859881324
            ],
            [
                "\u2581good",
                -6.911058926818453
            ],
            [
                "\u2581donc",
                -7.079846819868159
            ],
            [
                "\u2581th\u1ea5y",
                -6.610593100555559
            ],
            [
                "\u2581could",
                -6.923469216862746
            ],
            [
                "\u2581notre",
                -7.085623461916061
            ],
            [
                "\u2581c\u00e1i",
                -6.61745184142956
            ],
            [
                "\u2581much",
                -6.92967760578091
            ],
            [
                "\u2581encore",
                -7.091363754340878
            ],
            [
                "\u2581l\u00fd",
                -6.619380160588268
            ],
            [
                "\u2581may",
                -6.942805532581442
            ],
            [
                "l",
                -7.10256561804307
            ],
            [
                "\u2581h\u01a1n",
                -6.646267748668446
            ],
            [
                "\u2581these",
                -6.977782670299053
            ],
            [
                "\u2581qu'il",
                -7.114822973339851
            ],
            [
                "\u2581c\u1ea7n",
                -6.6542349376297265
            ],
            [
                "\u2581need",
                -6.9825408014666515
            ],
            [
                "\u2581d\u2019un",
                -7.159141529605873
            ],
            [
                "\u2581tr\u01b0\u1eddng",
                -6.657506992424902
            ],
            [
                "\"",
                -6.984022088764945
            ],
            [
                "\u2581Si",
                -7.18731610387939
            ],
            [
                "\u2581\u0111\u1ed3ng",
                -6.65928967293139
            ],
            [
                "\u2581really",
                -7.007055802407517
            ],
            [
                "\u2581vos",
                -7.214882211042391
            ],
            [
                "\u2581v\u00ec",
                -6.6611947353687775
            ],
            [
                "\u2581want",
                -7.014719583827149
            ],
            [
                "\u2581d'un",
                -7.215621627336556
            ],
            [
                "\u2581ph\u00e1t",
                -6.66320960164182
            ],
            [
                "\u2581first",
                -7.027188636078956
            ],
            [
                "\u2581\"",
                -7.222014285062713
            ],
            [
                "\u2581n\u00e0o",
                -6.6673171917940195
            ],
            [
                "\u2581should",
                -7.032685651982408
            ],
            [
                "\u2581moins",
                -7.241777684350514
            ],
            [
                "\u2581s\u1eed",
                -6.672390669288372
            ],
            [
                "\u2581many",
                -7.042788586284825
            ],
            [
                "y",
                -7.242454892533279
            ],
            [
                "\u2581vi\u00ean",
                -6.679056640390091
            ],
            [
                "\u2581most",
                -7.045928468658507
            ],
            [
                "\u25812",
                -7.245075706705085
            ],
            [
                "\u2581nh\u1eadn",
                -6.684972858716082
            ],
            [
                "\u2581even",
                -7.054021199956789
            ],
            [
                "u",
                -7.253342341816371
            ],
            [
                "\u2581l\u00ean",
                -6.686359269814143
            ],
            [
                "\u2581us",
                -7.059254665326958
            ],
            [
                "\u2581avoir",
                -7.259719408222549
            ],
            [
                "\u2581h\u00e0nh",
                -6.688449014719825
            ],
            [
                "\u2581way",
                -7.063211817340392
            ],
            [
                "\u2581o\u00f9",
                -7.267213927970051
            ],
            [
                "\u2581v\u1ee5",
                -6.696276900973831
            ],
            [
                "\u2581back",
                -7.066572804391917
            ],
            [
                "\u2581entre",
                -7.267564534596072
            ],
            [
                "\u2581g\u00ec",
                -6.701059033748354
            ],
            [
                "\u2581He",
                -7.074001813185685
            ],
            [
                "\u2581faut",
                -7.268287428127823
            ],
            [
                "\u2581tr\u00ecnh",
                -6.7166294899117345
            ],
            [
                "\u2581And",
                -7.0790125632516
            ],
            [
                ").",
                -7.274541759542803
            ],
            [
                "\u2581\u00f4ng",
                -6.718717001290454
            ],
            [
                "\u2581because",
                -7.087217572555243
            ],
            [
                "\u2581quand",
                -7.28087527101324
            ],
            [
                "\u2581t\u01b0",
                -6.7216813792609855
            ],
            [
                "\u2581work",
                -7.127600525055197
            ],
            [
                "\u2581\u00e9tait",
                -7.287409730990535
            ],
            [
                "\u2581c\u00f4",
                -6.725725857186116
            ],
            [
                "\u201d",
                -7.129311577884121
            ],
            [
                "\u2581toujours",
                -7.2882255508263
            ],
            [
                "\u2581cao",
                -6.732244153731817
            ],
            [
                "\u2581use",
                -7.129923743434961
            ],
            [
                "\u2581Vous",
                -7.291294645178485
            ],
            [
                "\u2581kinh",
                -6.732717867206887
            ],
            [
                "\u2581go",
                -7.130003260987042
            ],
            [
                "\u2581Ce",
                -7.2954492664209765
            ],
            [
                "\u2581m\u1eb7t",
                -6.734667449278046
            ],
            [
                "\u2581am",
                -7.140180113303939
            ],
            [
                "\u2581fois",
                -7.322287076467329
            ],
            [
                "\u2581\u0111\u1ed1i",
                -6.7418140833596185
            ],
            [
                "\u2581take",
                -7.141608915607151
            ],
            [
                "\u2581soit",
                -7.3267709693398615
            ],
            [
                "\u2581tr\u01b0\u1edbc",
                -6.747937867857682
            ],
            [
                "\u2581But",
                -7.157866757552426
            ],
            [
                "\u2581d\u2019une",
                -7.333439959428894
            ],
            [
                "\u2581hay",
                -6.749281275825925
            ],
            [
                "\u2581said",
                -7.174606882993376
            ],
            [
                "\u2581te",
                -7.337327907416313
            ],
            [
                "\u2581qua",
                -6.757349416766412
            ],
            [
                "\u2581then",
                -7.176018564850022
            ],
            [
                "\u2581avait",
                -7.340508997253959
            ],
            [
                "\u2581c\u1ea5p",
                -6.762317535701354
            ],
            [
                "o",
                -7.178144257861573
            ],
            [
                "\u2581;",
                -7.347091348947902
            ],
            [
                "\u2581n\u0103ng",
                -6.76795362884722
            ],
            [
                "\u2581going",
                -7.1787837138742425
            ],
            [
                "\u2581avant",
                -7.353283125351492
            ],
            [
                "\u2581b\u1ea3n",
                -6.768684785538677
            ],
            [
                "\u2581where",
                -7.180825137249702
            ],
            [
                "\u2581cela",
                -7.356022420396987
            ],
            [
                "\u2581t\u1ef1",
                -6.774446410783597
            ],
            [
                "\u2581two",
                -7.195646224321276
            ],
            [
                "\u2581Un",
                -7.3625921135535295
            ],
            [
                "\u2581kh\u00e1c",
                -6.802967271902055
            ],
            [
                "\u2581\u201c",
                -7.201422013109624
            ],
            [
                "\u2581Nous",
                -7.367301501359869
            ],
            [
                "\u2581mu\u1ed1n",
                -6.803057389448721
            ],
            [
                "\u2581after",
                -7.209916960526247
            ],
            [
                "\u2581car",
                -7.370003703783766
            ],
            [
                "\u2581kh\u00e1ch",
                -6.8047947875759265
            ],
            [
                "\u2581its",
                -7.211882575851348
            ],
            [
                "\u2581va",
                -7.371820307234432
            ],
            [
                "\u00fd",
                -6.8257978045026375
            ],
            [
                "\u2581those",
                -7.214020685489526
            ],
            [
                "\u2581qu\u2019il",
                -7.382570789593667
            ],
            [
                "\u2581t\u00ecnh",
                -6.835084956300602
            ],
            [
                "\u2581being",
                -7.230275335767073
            ],
            [
                "\u2581cas",
                -7.385609102861764
            ],
            [
                "\u2581ph\u1ea9m",
                -6.835113791155988
            ],
            [
                "\u2581help",
                -7.240339306966305
            ],
            [
                "n",
                -7.389316018997955
            ],
            [
                "\u2581k\u1ebft",
                -6.839676140901465
            ],
            [
                "\u2581great",
                -7.247597218848566
            ],
            [
                "\u2581nos",
                -7.397324496557275
            ],
            [
                "\u2581b\u1ea3o",
                -6.8406657405303575
            ],
            [
                "\u2581through",
                -7.2660198007261165
            ],
            [
                "\u2581voir",
                -7.405374722970141
            ],
            [
                "\u2581d\u00e2n",
                -6.848003656171585
            ],
            [
                "i",
                -7.274200629979608
            ],
            [
                "\u2581beaucoup",
                -7.409812694181763
            ],
            [
                "\u2581to\u00e0n",
                -6.849499200116416
            ],
            [
                "\u2581now",
                -7.276957815964418
            ],
            [
                "\u2581l'",
                -7.416102314663246
            ],
            [
                "\u2581em",
                -6.85088291328947
            ],
            [
                "\u2581such",
                -7.28063462297845
            ],
            [
                "\u2581l\u2019",
                -7.418931014759007
            ],
            [
                "\u2581\u0111\u00e2y",
                -6.856403925936068
            ],
            [
                "\u2581him",
                -7.291365109643245
            ],
            [
                "\u2581d'une",
                -7.419478347005359
            ],
            [
                "\u2581t\u00e2m",
                -6.856516004641268
            ],
            [
                ".\u201d",
                -7.301360781668148
            ],
            [
                "\u2581non",
                -7.4203999931563125
            ],
            [
                "\u2581b\u1eb1ng",
                -6.856940247690626
            ],
            [
                "\u2581find",
                -7.315337118636951
            ],
            [
                "\u2581alors",
                -7.433308478005859
            ],
            [
                "\u2581b\u1ed9",
                -6.859035476073049
            ],
            [
                ".\"",
                -7.31671116216484
            ],
            [
                "\u2581quelques",
                -7.4336693449503715
            ],
            [
                "\u2581h\u1ed9i",
                -6.864221989860719
            ],
            [
                "\u2581before",
                -7.333709386322603
            ],
            [
                "z",
                -7.436962947296332
            ],
            [
                "\u2581m\u00e1y",
                -6.874115830335154
            ],
            [
                "\u2581still",
                -7.337778327247481
            ],
            [
                "\u2581mes",
                -7.437488357461547
            ],
            [
                "\u2581nghi\u1ec7p",
                -6.880322563064997
            ],
            [
                "\u2581well",
                -7.353611708573165
            ],
            [
                "\u2581trop",
                -7.452082290503245
            ],
            [
                "\u2581hai",
                -6.884307741279568
            ],
            [
                "/",
                -7.357505793170905
            ],
            [
                "\u2581depuis",
                -7.453385991805168
            ],
            [
                "\u2581ch\u1ee7",
                -6.890858464168519
            ],
            [
                "\u2581made",
                -7.363656489152586
            ],
            [
                "\u2581On",
                -7.453639550918967
            ],
            [
                "\u2581ch\u1ea5t",
                -6.8972918188589984
            ],
            [
                "\u2581look",
                -7.3770283020284255
            ],
            [
                "\u2581moi",
                -7.456496034699366
            ],
            [
                "\u2581t\u00e1c",
                -6.897517983917073
            ],
            [
                "\u2581did",
                -7.378464758475746
            ],
            [
                "\u2581C'est",
                -7.469804579189161
            ],
            [
                "\u25811",
                -6.899620410126516
            ],
            [
                "\u2581best",
                -7.384619484537542
            ],
            [
                "ant",
                -7.475026891649399
            ],
            [
                "\u2581\u0111\u1ec1",
                -6.90207870970669
            ],
            [
                "\u2581years",
                -7.3886243806889595
            ],
            [
                "\u00e9",
                -7.4755252041868765
            ],
            [
                "\u2581gian",
                -6.914428429602477
            ],
            [
                "\u2581love",
                -7.394402676457883
            ],
            [
                "\u2581dire",
                -7.4809303073209925
            ],
            [
                "\u2581hi\u1ec7u",
                -6.915677813681398
            ],
            [
                "'",
                -7.400353029176038
            ],
            [
                "\u2581toute",
                -7.482261688178223
            ],
            [
                "\u2581c\u1ea3m",
                -6.916935809808709
            ],
            [
                "\u2581little",
                -7.402732592329304
            ],
            [
                "\u25813",
                -7.486546570147605
            ],
            [
                "\u2581ph\u00f2ng",
                -6.920821047897552
            ],
            [
                "\u2581There",
                -7.403639231802093
            ],
            [
                "\u2581dit",
                -7.489293389535437
            ],
            [
                "\u2581l\u01b0\u1ee3ng",
                -6.92865379408178
            ],
            [
                "\u2581right",
                -7.406674459847845
            ],
            [
                "\u2581apr\u00e8s",
                -7.495900961776989
            ],
            [
                "\u2581ph\u00e1p",
                -6.933003170236912
            ],
            [
                "\u2581something",
                -7.419011426572905
            ],
            [
                "\u2581bon",
                -7.496293839536752
            ],
            [
                "\u2581xu\u1ea5t",
                -6.936559974112452
            ],
            [
                "\u2581don't",
                -7.42341817383339
            ],
            [
                "\u2581Une",
                -7.4979173013631275
            ],
            [
                "\u2581ti\u1ebfp",
                -6.937252850839048
            ],
            [
                "\u2581What",
                -7.428604878100238
            ],
            [
                "\u2581sera",
                -7.502444027082799
            ],
            [
                "\u2581h\u1ec7",
                -6.938597146585809
            ],
            [
                "\u2581last",
                -7.432231705103578
            ],
            [
                "er",
                -7.506384579793118
            ],
            [
                "\u2581\u0111\u1ed9",
                -6.948396064111212
            ],
            [
                "\u2581few",
                -7.434055401890386
            ],
            [
                "\u2581d\u00e9j\u00e0",
                -7.510642723932495
            ],
            [
                "\u2581ho\u1eb7c",
                -6.952604741289098
            ],
            [
                "\u2581I'm",
                -7.435159553193639
            ],
            [
                "\u2581vie",
                -7.522361260073223
            ],
            [
                "\u2581lo\u1ea1i",
                -6.95511512414961
            ],
            [
                "\u2581here",
                -7.436969033264976
            ],
            [
                "\u2581n'est",
                -7.529699314382898
            ],
            [
                "\u2581t\u00ednh",
                -6.955338933741349
            ],
            [
                "\u2581own",
                -7.451328183376713
            ],
            [
                "c",
                -7.540819725484217
            ],
            [
                "\u2581\u0111i\u1ec3m",
                -6.957800595519192
            ],
            [
                "\u2581things",
                -7.472007633166162
            ],
            [
                "\u2581rien",
                -7.5512802331866355
            ],
            [
                "\u2581\u0103n",
                -6.968285513816011
            ],
            [
                "\u2581down",
                -7.472126485765074
            ],
            [
                "\u2581d'",
                -7.553563706048071
            ],
            [
                "\u2581t\u1edbi",
                -6.9714858830198665
            ],
            [
                "\u2581They",
                -7.474442234780106
            ],
            [
                "\u2581Elle",
                -7.5551051333359736
            ],
            [
                "\u2581thi\u1ebft",
                -6.981333987326356
            ],
            [
                "\u2581come",
                -7.492883746039344
            ],
            [
                "\u2581C\u2019est",
                -7.556314296168615
            ],
            [
                "\u2581qu\u1ea3",
                -6.982284006971558
            ],
            [
                "\u2581around",
                -7.513716219078713
            ],
            [
                "\u2581toutes",
                -7.5572979861039435
            ],
            [
                "\u2581nh\u00ecn",
                -6.989514100131633
            ],
            [
                "ly",
                -7.52477901484616
            ],
            [
                "\u2581ils",
                -7.568362269098162
            ],
            [
                "\u2581v\u1eabn",
                -6.9904553872836885
            ],
            [
                "\u2581same",
                -7.531457267676341
            ],
            [
                "\u2581dont",
                -7.571598695604497
            ],
            [
                "\u2581v\u1ecb",
                -6.9950962612066405
            ],
            [
                "\u2581off",
                -7.542625763232184
            ],
            [
                "\u2581ainsi",
                -7.572453209727268
            ],
            [
                "\u2581t\u1ebf",
                -6.997260569363338
            ],
            [
                "\u2581sure",
                -7.54333165616529
            ],
            [
                "\u2581monde",
                -7.591590906256744
            ],
            [
                "\u2581ph\u1ea7n",
                -6.997486031665808
            ],
            [
                "\u2581always",
                -7.548476383197841
            ],
            [
                "\u2581d\u2019",
                -7.591708476781879
            ],
            [
                "\u2581t\u00e0i",
                -7.001425273915402
            ],
            [
                "\u2581never",
                -7.551026494055108
            ],
            [
                "\u2581vraiment",
                -7.59970228018656
            ],
            [
                "\u2581ch\u1ee9c",
                -7.001899218184536
            ],
            [
                "\u2581got",
                -7.557959642888247
            ],
            [
                "le",
                -7.602819959470381
            ],
            [
                "\u2581qu\u00e1",
                -7.001952079095222
            ],
            [
                "\u2581every",
                -7.561033028360316
            ],
            [
                "ait",
                -7.602979139792015
            ],
            [
                "\u2581t\u1ea1o",
                -7.011549842224842
            ],
            [
                "\u2581don\u2019t",
                -7.56575401600168
            ],
            [
                "\u2581leurs",
                -7.60620119216978
            ],
            [
                "\u2581gi\u00fap",
                -7.0163935972611675
            ],
            [
                "\u2581day",
                -7.568861323062265
            ],
            [
                "\u2581n\u2019est",
                -7.624391839218255
            ],
            [
                "\u2581th\u1ee9c",
                -7.021328228088631
            ],
            [
                "\u2581lot",
                -7.5827490256430465
            ],
            [
                "\u2581petit",
                -7.630965438835094
            ],
            [
                "\u2581k\u1ebf",
                -7.0235846529296735
            ],
            [
                "\u2581long",
                -7.583815184561043
            ],
            [
                "\u2581ans",
                -7.631173227692476
            ],
            [
                "\u2581\u0111\u1ea1i",
                -7.031078899552138
            ],
            [
                "\u2581say",
                -7.590791630589718
            ],
            [
                "\u2581contre",
                -7.6378063090344925
            ],
            [
                "\u2581tr\u1ecb",
                -7.036520875146945
            ],
            [
                "\u2581it.",
                -7.593337826474449
            ],
            [
                "\u2581site",
                -7.6657884957398705
            ],
            [
                "\u2581\u0111\u1ec1u",
                -7.040133014878972
            ],
            [
                "\u2581while",
                -7.597329534781757
            ],
            [
                "\u2581j\u2019ai",
                -7.665866867604746
            ],
            [
                "\u2581t\u1ed1t",
                -7.041369212019088
            ],
            [
                "\u2581So",
                -7.59786551755359
            ],
            [
                "\u2581doit",
                -7.673632308848227
            ],
            [
                "\u2581y\u00eau",
                -7.044823645492602
            ],
            [
                "\u2581For",
                -7.600294835909345
            ],
            [
                "\u2581Dans",
                -7.675957176811845
            ],
            [
                "\u2581doanh",
                -7.045630343005901
            ],
            [
                "m",
                -7.6020425760845995
            ],
            [
                "\u2581sous",
                -7.681668134879341
            ],
            [
                "\u2581th\u01b0\u1eddng",
                -7.051568239393042
            ],
            [
                "\u2581used",
                -7.605011455452384
            ],
            [
                "ment",
                -7.684853472443446
            ],
            [
                "\u2581li\u00ean",
                -7.054936490851678
            ],
            [
                "\u2581too",
                -7.6059117933694464
            ],
            [
                "\u2581jamais",
                -7.686323435569221
            ],
            [
                "\u2581\u0111\u01b0\u1eddng",
                -7.055543836122453
            ],
            [
                "\u2581information",
                -7.6106395924847625
            ],
            [
                "\u2581jour",
                -7.691740455755036
            ],
            [
                "\u2581th\u00e1ng",
                -7.056901333785295
            ],
            [
                "\u2581each",
                -7.624939973123172
            ],
            [
                "\u2581autre",
                -7.707904850350528
            ],
            [
                "\u2581c\u1ea7u",
                -7.06507888387137
            ],
            [
                "\u2581As",
                -7.6254288851159195
            ],
            [
                "\u2581personnes",
                -7.716021943465975
            ],
            [
                "\u2581s\u1ed1ng",
                -7.0678708076046775
            ],
            [
                "\u2581it's",
                -7.631658144344033
            ],
            [
                "\u2581\u00e9galement",
                -7.759667409009391
            ],
            [
                "\u2581tay",
                -7.06879971008603
            ],
            [
                "\u2581might",
                -7.638919669970602
            ],
            [
                "\u2581grand",
                -7.761487741718991
            ],
            [
                "\u2581v\u1ea5n",
                -7.069918417954856
            ],
            [
                "\u2581must",
                -7.642684794583115
            ],
            [
                "\u2581ton",
                -7.7631218256675645
            ],
            [
                "\u2581h\u1ecd",
                -7.073883927604629
            ],
            [
                "\u2581part",
                -7.662877547490882
            ],
            [
                "\u2581eu",
                -7.763569664523724
            ],
            [
                "\u2581C\u00f4ng",
                -7.089580665152834
            ],
            [
                "\u2581I\u2019m",
                -7.666492398351868
            ],
            [
                "\u2581cet",
                -7.765477448347113
            ],
            [
                "\u2581gi\u1edbi",
                -7.089596310737168
            ],
            [
                "\u2581it\u2019s",
                -7.669248503222775
            ],
            [
                "\u2581autres",
                -7.767177235460584
            ],
            [
                "\u2581sao",
                -7.0910167104528385
            ],
            [
                "\u2581better",
                -7.697021031968784
            ],
            [
                "\u2581bonne",
                -7.779584454646422
            ],
            [
                "\u2581gi\u1ea3i",
                -7.09212166038996
            ],
            [
                "\u2581does",
                -7.704704019328034
            ],
            [
                "\u2581fin",
                -7.779842496759294
            ],
            [
                "\u2581\u0111i\u1ec7n",
                -7.098220391679284
            ],
            [
                "\u2581next",
                -7.711862051510363
            ],
            [
                "\u2581prendre",
                -7.783951547392032
            ],
            [
                "\u2581b\u00e0i",
                -7.108505472581041
            ],
            [
                "\u2581year",
                -7.713352834424779
            ],
            [
                "\u25815",
                -7.785929027174351
            ],
            [
                "\u2581trang",
                -7.110013826209418
            ],
            [
                "\u2581When",
                -7.7353311219296
            ],
            [
                "\u2581place",
                -7.786634818584471
            ],
            [
                "\u2581b\u00ean",
                -7.110715185696414
            ],
            [
                "\u2581different",
                -7.743554767101568
            ],
            [
                "\u2581chez",
                -7.811448664246193
            ],
            [
                "\u2581tr\u1edf",
                -7.114626517948409
            ],
            [
                "\u2581give",
                -7.74521444030876
            ],
            [
                "\u2581compte",
                -7.813439497392134
            ],
            [
                "\u2581v\u0103n",
                -7.1212079940717485
            ],
            [
                "\u2581She",
                -7.745512551201642
            ],
            [
                "),",
                -7.815293842390228
            ],
            [
                "\u2581xe",
                -7.127785565689855
            ],
            [
                "\u2581feel",
                -7.749163560876679
            ],
            [
                "\u2581De",
                -7.823723209522896
            ],
            [
                "\u2581b\u1ec7nh",
                -7.130474740388966
            ],
            [
                "\u2581keep",
                -7.764136879851184
            ],
            [
                "\u2581vers",
                -7.825004245565314
            ],
            [
                "\u2581d\u00f9ng",
                -7.143083221791873
            ],
            [
                "\u2581life",
                -7.764170052699494
            ],
            [
                "\u2581mettre",
                -7.830960239915523
            ],
            [
                "\u2581H\u00e0",
                -7.148490938180861
            ],
            [
                "\u2581found",
                -7.765058804871611
            ],
            [
                "\u2581moment",
                -7.833915895530123
            ],
            [
                "\u2581n\u00f3",
                -7.156545440251915
            ],
            [
                "\u2581My",
                -7.786110444548716
            ],
            [
                "\u2581sais",
                -7.8350394870062345
            ],
            [
                "\u2581ti\u1ec1n",
                -7.157644688016023
            ],
            [
                "\u2581To",
                -7.796573458731106
            ],
            [
                "\u25814",
                -7.848778201341072
            ],
            [
                "\u2581cu\u1ed9c",
                -7.157675106800757
            ],
            [
                "\u2581without",
                -7.799204433821314
            ],
            [
                "\u2581chose",
                -7.849988754700351
            ],
            [
                "\u2581gi\u1edd",
                -7.158049807377535
            ],
            [
                "\u2581home",
                -7.802494987362451
            ],
            [
                "\u2581chaque",
                -7.8544860580082885
            ],
            [
                "\u2581Trung",
                -7.158170035195244
            ],
            [
                "\u2581i",
                -7.80556169362999
            ],
            [
                "\u2581partie",
                -7.85537414476854
            ],
            [
                "\u2581th\u1ecb",
                -7.1593467481885655
            ],
            [
                "\u2581another",
                -7.811609711671625
            ],
            [
                "\u2581travail",
                -7.8610459441677465
            ],
            [
                "\u2581d\u1ef1",
                -7.167091297932477
            ],
            [
                ",\u201d",
                -7.816244997448398
            ],
            [
                "\u258110",
                -7.871975167534437
            ],
            [
                "\u2581bao",
                -7.173243528549207
            ],
            [
                "\u2581why",
                -7.826520920523215
            ],
            [
                "\u2581avez",
                -7.874620113092601
            ],
            [
                "\u2581b\u1ea5t",
                -7.173901025180914
            ],
            [
                "\u2581both",
                -7.827479654780393
            ],
            [
                "\u2581savoir",
                -7.875808045656309
            ],
            [
                "\u2581tri\u1ec3n",
                -7.183471902962559
            ],
            [
                "\u2581looking",
                -7.837598939221277
            ],
            [
                "\u2581pense",
                -7.883195867351738
            ],
            [
                "\u2581l\u00fac",
                -7.187639210751222
            ],
            [
                "\u2581put",
                -7.844697887304581
            ],
            [
                "\u2581personne",
                -7.884106139728867
            ],
            [
                "\u2581l\u1ea7n",
                -7.187853383674227
            ],
            [
                "\u2581business",
                -7.851150605978691
            ],
            [
                "\u2581mal",
                -7.884930721246756
            ],
            [
                "\u2581b\u00e1o",
                -7.190555727032593
            ],
            [
                "\u2581under",
                -7.8568114770337045
            ],
            [
                "\u2581plusieurs",
                -7.899194701855269
            ],
            [
                "\u2581th\u01b0\u01a1ng",
                -7.197650935450007
            ],
            [
                "\u2581able",
                -7.857643657141008
            ],
            [
                "\u2581avons",
                -7.9051634700942754
            ],
            [
                "\u2581t\u00ecm",
                -7.198729230458309
            ],
            [
                "\u2581thing",
                -7.858223122721299
            ],
            [
                "\u2581mois",
                -7.906763341421427
            ],
            [
                "\u2581l\u1edbn",
                -7.199209277910114
            ],
            [
                "\u2581since",
                -7.890988022742803
            ],
            [
                "\u2581J'ai",
                -7.916672237223307
            ],
            [
                "\u2581quy",
                -7.199994437693545
            ],
            [
                "\u2581read",
                -7.893141500111547
            ],
            [
                "\u2581peuvent",
                -7.918748521104246
            ],
            [
                "\u2581C\u00e1c",
                -7.201555762353588
            ],
            [
                "\u2581between",
                -7.895497237279717
            ],
            [
                "\u2581mieux",
                -7.925741936913575
            ],
            [
                "\u2581ho\u1ea1t",
                -7.202336738728274
            ],
            [
                ",\"",
                -7.904514013752634
            ],
            [
                "\u2581premier",
                -7.932366649284735
            ],
            [
                "\u2581t\u1eadp",
                -7.20348945360341
            ],
            [
                "\u2581three",
                -7.930985167561211
            ],
            [
                "\u2581juste",
                -7.935135892574333
            ],
            [
                "\u2581Qu\u1ed1c",
                -7.204329770688365
            ],
            [
                "in",
                -7.9311458057952215
            ],
            [
                "\u2581point",
                -7.941162141583039
            ],
            [
                "\u2581\u1ea3nh",
                -7.205808083343837
            ],
            [
                "\u2019",
                -7.943006316737243
            ],
            [
                "\u2581afin",
                -7.949258807316696
            ],
            [
                "\u2581ti\u00eau",
                -7.206467178126293
            ],
            [
                "\u2581number",
                -7.945920077794959
            ],
            [
                "\u2581Cette",
                -7.953053206504317
            ],
            [
                "\u2581qu\u1ed1c",
                -7.219672955688989
            ],
            [
                "\u2581world",
                -7.946565514092019
            ],
            [
                "\u2581premi\u00e8re",
                -7.9599955106077935
            ],
            [
                "\u2581th\u1eadt",
                -7.222018606890129
            ],
            [
                "\u2581end",
                -7.955233788427343
            ],
            [
                "\u2581vais",
                -7.961553880346881
            ],
            [
                "\u2581xem",
                -7.2276516293327475
            ],
            [
                "\u2581How",
                -7.9605763340229565
            ],
            [
                "\u2581pouvez",
                -7.962761383816075
            ],
            [
                "\u2581ti\u1ebfng",
                -7.229067915481369
            ],
            [
                "\u2581That",
                -7.964021858365112
            ],
            [
                "\u2581Tu",
                -7.967409604945755
            ],
            [
                "\u2581nhi\u00ean",
                -7.230737668675246
            ],
            [
                "\u2581set",
                -7.970966483613933
            ],
            [
                "\u2581jours",
                -7.968365985844213
            ],
            [
                "\u2581m\u1ecdi",
                -7.234950765883714
            ],
            [
                "\u2581having",
                -7.981195319245234
            ],
            [
                "\u2581reste",
                -7.9800147766292255
            ],
            [
                "\u2581d\u1ecbch",
                -7.235960409944255
            ],
            [
                "\u2581using",
                -7.987455565590391
            ],
            [
                "\u2581droit",
                -7.9826428146399095
            ],
            [
                "\u2581th\u1ed1ng",
                -7.237310847242694
            ],
            [
                "\u2581ever",
                -7.987856340578837
            ],
            [
                "\u2581vu",
                -7.987394057459085
            ],
            [
                "\u2581l\u1ef1c",
                -7.239679317929583
            ],
            [
                "\u2581start",
                -8.00505971888098
            ],
            [
                "\u2581ceux",
                -7.994868363770013
            ],
            [
                "\u2581ch\u01b0a",
                -7.240741032014615
            ],
            [
                "\u2581free",
                -8.013861966533927
            ],
            [
                "\u2581demande",
                -7.997272052113001
            ],
            [
                "\u2581m\u1eaft",
                -7.249997597430808
            ],
            [
                "\u2581getting",
                -8.015192523131082
            ],
            [
                "\u2581pendant",
                -8.010612964672248
            ],
            [
                "\u2581l\u1ecbch",
                -7.258553266520624
            ],
            [
                "\u2581during",
                -8.015329443488264
            ],
            [
                "\u2581pouvoir",
                -8.013229058809529
            ],
            [
                "\u2581n\u1ed9i",
                -7.2599313828796666
            ],
            [
                "\u2581actually",
                -8.02515486145652
            ],
            [
                "\u2581cours",
                -8.032150398755538
            ],
            [
                "\u2581chuy\u1ec7n",
                -7.261432396942862
            ],
            [
                "\u2581important",
                -8.025498332768716
            ],
            [
                "\u2581L'",
                -8.036036369360962
            ],
            [
                "\u2581ch\u1ecdn",
                -7.262760600585433
            ],
            [
                "\u2581making",
                -8.027589033459295
            ],
            [
                "\u2581question",
                -8.040012062035471
            ],
            [
                "\u2581d\u1eabn",
                -7.267440882222677
            ],
            [
                "\u2581thought",
                -8.030549427353606
            ],
            [
                "re",
                -8.041008710225267
            ],
            [
                "\u2581\u00e1n",
                -7.268970632255289
            ],
            [
                "\u2581doing",
                -8.031334630858018
            ],
            [
                "\u2581Au",
                -8.042394830957544
            ],
            [
                "\u2581n\u1ebfu",
                -7.2690915309111865
            ],
            [
                "f",
                -8.035574222802433
            ],
            [
                "ne",
                -8.046543462914372
            ],
            [
                "\u2581quy\u1ebft",
                -7.276848629967716
            ],
            [
                "\u2581old",
                -8.03577806853723
            ],
            [
                "\u2581trouve",
                -8.048325166420893
            ],
            [
                "\u2581quy\u1ec1n",
                -7.282035821253082
            ],
            [
                "\u2581working",
                -8.047234638369327
            ],
            [
                "\u2581parce",
                -8.048394285708559
            ],
            [
                "\u2581th\u00e2n",
                -7.284555363429906
            ],
            [
                "\u2581person",
                -8.05942108283051
            ],
            [
                "\u2581L\u2019",
                -8.05085565483343
            ],
            [
                "\u2581l\u1eddi",
                -7.286952406209228
            ],
            [
                "\u2581family",
                -8.060241825902919
            ],
            [
                "\u2581besoin",
                -8.050938444501382
            ],
            [
                "\u2581th\u1ee9",
                -7.29022594104701
            ],
            [
                "\u2581high",
                -8.061634979202399
            ],
            [
                "\u2581quoi",
                -8.05233568511415
            ],
            [
                "\u2581t\u0103ng",
                -7.294563573121554
            ],
            [
                "\u2581try",
                -8.07253932649217
            ],
            [
                "ons",
                -8.06079458798606
            ],
            [
                "\u2581r\u1ed3i",
                -7.302379962768761
            ],
            [
                "\u2581It\u2019s",
                -8.074370810512063
            ],
            [
                "\u2581grande",
                -8.070215085064076
            ],
            [
                "\u2581h\u1eafn",
                -7.3041194718801945
            ],
            [
                "\u2581enough",
                -8.07607890319474
            ],
            [
                "\u2581lors",
                -8.071157320272373
            ],
            [
                "\u2581mang",
                -7.309378814681328
            ],
            [
                "\u2581someone",
                -8.081691529451174
            ],
            [
                "\u2581lieu",
                -8.071861459142752
            ],
            [
                "\u2581b\u00e1n",
                -7.310690286058008
            ],
            [
                "\u2581least",
                -8.086122356848694
            ],
            [
                "\u2581nouveau",
                -8.074339611745675
            ],
            [
                "\u2581v\u1eeba",
                -7.312240470289467
            ],
            [
                "\u2581already",
                -8.088148708942361
            ],
            [
                "\u2581peux",
                -8.07780810398546
            ],
            [
                "\u2581ho\u00e0n",
                -7.312729705634756
            ],
            [
                "\u2581let",
                -8.089044766773172
            ],
            [
                "\u2581comment",
                -8.08262743029032
            ],
            [
                "\u2581\u0111\u1ecba",
                -7.316295893606053
            ],
            [
                "\u2581big",
                -8.094938367821165
            ],
            [
                "\u2581Merci",
                -8.083550112024819
            ],
            [
                "\u2581Anh",
                -7.328230537326879
            ],
            [
                "\u2581tell",
                -8.09568336406793
            ],
            [
                "\u2581nouvelle",
                -8.087655737733815
            ],
            [
                "\u2581nay",
                -7.328564546592144
            ],
            [
                "\u2581until",
                -8.097693404986645
            ],
            [
                "\u2581puis",
                -8.100609005047918
            ],
            [
                "\u2581ph\u01b0\u01a1ng",
                -7.33181965955784
            ],
            [
                "\u2581care",
                -8.102109176206302
            ],
            [
                "\u2581petite",
                -8.101094506547378
            ],
            [
                "\u2581thu",
                -7.332005002027951
            ],
            [
                "is",
                -8.106809125791175
            ],
            [
                "p",
                -8.113259093723437
            ],
            [
                "\u2581h\u00f3a",
                -7.33494171867385
            ],
            [
                "\u2581came",
                -8.108320998508376
            ],
            [
                "\u25816",
                -8.119928220156758
            ],
            [
                "\u2581nh\u1eadp",
                -7.3356648312506065
            ],
            [
                "\u2581It's",
                -8.125600229080709
            ],
            [
                "\u2581trouver",
                -8.136478579135206
            ],
            [
                "\u2581mua",
                -7.33796968684791
            ],
            [
                "\u2581bit",
                -8.129292254893851
            ],
            [
                "\u2581permet",
                -8.138325451443487
            ],
            [
                "\u2581tr\u1ecdng",
                -7.340780672887568
            ],
            [
                "\u2581days",
                -8.131479177440092
            ],
            [
                "\u2581quelque",
                -8.141715870827426
            ],
            [
                "\u2581\u0111\u1eb9p",
                -7.342105351520058
            ],
            [
                "al",
                -8.133806342559279
            ],
            [
                "x",
                -8.146245005650231
            ],
            [
                "\u2581ngo\u00e0i",
                -7.344105335338855
            ],
            [
                "\u2581believe",
                -8.138532472546983
            ],
            [
                "\u2581souvent",
                -8.158880415621256
            ],
            [
                "\u2581t\u1ed5",
                -7.345532119963902
            ],
            [
                "\u2581small",
                -8.143175563470587
            ],
            [
                "\u2581passer",
                -8.16008697448021
            ],
            [
                "\u2581r\u1eb1ng",
                -7.347734276253458
            ],
            [
                "\u2581done",
                -8.143900159070858
            ],
            [
                "\u2581assez",
                -8.165852763818108
            ],
            [
                "\u2581vi\u1ebft",
                -7.349032234886977
            ],
            [
                "\u2581Do",
                -8.146340726650315
            ],
            [
                "en",
                -8.167684077981123
            ],
            [
                "\u2581s\u00e1ch",
                -7.349634071411754
            ],
            [
                "\u2581show",
                -8.147299909645024
            ],
            [
                "\u2581produits",
                -8.171483121536625
            ],
            [
                "\u2581ty",
                -7.356828391595809
            ],
            [
                "\u2581hard",
                -8.148653506022903
            ],
            [
                "\u2581trois",
                -8.175842981646703
            ],
            [
                "\u2581\u0111\u01a1n",
                -7.358362256779298
            ],
            [
                "\u2581away",
                -8.154079191809858
            ],
            [
                "\u2581serait",
                -8.178653446520158
            ],
            [
                "\u2581l\u00f2ng",
                -7.358579139101284
            ],
            [
                "\u2581post",
                -8.16658000865997
            ],
            [
                "\u2581mise",
                -8.17878006715493
            ],
            [
                "\u2581t\u1eed",
                -7.3652047146732285
            ],
            [
                "\u2581far",
                -8.174169482973234
            ],
            [
                "\u2581pays",
                -8.179699810768453
            ],
            [
                "\u2581v\u1eady",
                -7.367014487920301
            ],
            [
                "\u2581experience",
                -8.179439466457781
            ],
            [
                "\u2581niveau",
                -8.180703138947326
            ],
            [
                "\u2581\u0111\u1ed5i",
                -7.376292394557427
            ],
            [
                "\u2581man",
                -8.179883448025135
            ],
            [
                "\u2581partir",
                -8.1823247932283
            ],
            [
                "\u2581li\u1ec7u",
                -7.392999348297434
            ],
            [
                "h",
                -8.18166915095629
            ],
            [
                "\u2581tant",
                -8.193618610242588
            ],
            [
                "\u2581b\u1eaft",
                -7.396271120522936
            ],
            [
                "\u2581All",
                -8.188524749636295
            ],
            [
                "\u2581coup",
                -8.195182879155896
            ],
            [
                "\u2581N\u1ed9i",
                -7.396396909411102
            ],
            [
                "\u2581change",
                -8.188706117320589
            ],
            [
                "\u2581projet",
                -8.196488229109603
            ],
            [
                "\u2581s\u1ee9c",
                -7.396411878059733
            ],
            [
                "\u2581kind",
                -8.19745733611976
            ],
            [
                "\u2581ici",
                -8.198119261067973
            ],
            [
                "\u2581th\u00eam",
                -7.397740928591998
            ],
            [
                "\u2581you\u2019re",
                -8.205261769884373
            ],
            [
                "la",
                -8.19891303470362
            ],
            [
                "\u2581l\u1eadp",
                -7.398132892527062
            ],
            [
                "\u2581full",
                -8.206315619856197
            ],
            [
                "\u2581qu'elle",
                -8.199646678040278
            ],
            [
                "\u2581ch\u1ebf",
                -7.402015863493378
            ],
            [
                "\u2581support",
                -8.211203631204105
            ],
            [
                "\u2581surtout",
                -8.200298556037799
            ],
            [
                "\u2581th\u00edch",
                -7.402052632793603
            ],
            [
                "\u2581provide",
                -8.211476088408817
            ],
            [
                "\u2581pu",
                -8.201387215281022
            ],
            [
                "\u2581trung",
                -7.4020835064406825
            ],
            [
                "\u2581call",
                -8.212049463574278
            ],
            [
                "\u2581qu'on",
                -8.206172635709803
            ],
            [
                "\u2581s\u1edf",
                -7.4058287193166485
            ],
            [
                "an",
                -8.217741419842394
            ],
            [
                "\u2581possible",
                -8.206646154541865
            ],
            [
                "\u2581\u0111\u00e1nh",
                -7.41126032976135
            ],
            [
                "\u2581within",
                -8.221210836752892
            ],
            [
                "\u2581sommes",
                -8.2100370513912
            ],
            [
                "\u2581chi",
                -7.411882103226386
            ],
            [
                "\u2581less",
                -8.221373221891115
            ],
            [
                "\u2581enfants",
                -8.210754121477501
            ],
            [
                "\u2581b\u00ecnh",
                -7.412744008959566
            ],
            [
                "\u2581hope",
                -8.221571611554824
            ],
            [
                "\u2581suite",
                -8.210850783768834
            ],
            [
                "\u2581gi\u00e1o",
                -7.413545291218085
            ],
            [
                "\u2581New",
                -8.226828013670058
            ],
            [
                "ent",
                -8.212166591042589
            ],
            [
                "\u2581V\u0103n",
                -7.415043602377509
            ],
            [
                "\u2581means",
                -8.227943932886824
            ],
            [
                "\u2581d",
                -8.212615996426072
            ],
            [
                "\u2581\u0111\u1ea5t",
                -7.418469494711641
            ],
            [
                "\u2581anything",
                -8.22858026154705
            ],
            [
                "\u2581service",
                -8.225341769942288
            ],
            [
                "\u2581tr\u1ebb",
                -7.420884725848114
            ],
            [
                "\u2581often",
                -8.229735620336953
            ],
            [
                "\u2581prix",
                -8.227222609454659
            ],
            [
                "\u2581Trong",
                -7.421962664383887
            ],
            [
                "\u2581money",
                -8.230832698475071
            ],
            [
                "de",
                -8.23138250145372
            ],
            [
                "\u2581Nh\u1eefng",
                -7.421981262496499
            ],
            [
                "\u2581I've",
                -8.231881346860746
            ],
            [
                "\u2581nombre",
                -8.234063671316152
            ],
            [
                "\u2581tham",
                -7.422302741786936
            ],
            [
                "\u2581went",
                -8.23463097040092
            ],
            [
                "\u2581certains",
                -8.25153181530955
            ],
            [
                "\u2581h\u01b0\u1edbng",
                -7.430131051382188
            ],
            [
                "\u2581against",
                -8.236346202408614
            ],
            [
                "\u258120",
                -8.254017696155442
            ],
            [
                "\u2581tr\u00ed",
                -7.430758675065571
            ],
            [
                "\u2581\u2014",
                -8.242257481123328
            ],
            [
                "\u2581Par",
                -8.255958564837684
            ],
            [
                "\u2581giao",
                -7.433406182347203
            ],
            [
                "\u2581...",
                -8.24327271781779
            ],
            [
                "\u2581\u00bb,",
                -8.258139774947347
            ],
            [
                "\u2581bi\u1ec7t",
                -7.437199432717395
            ],
            [
                "\u2581order",
                -8.246140635326359
            ],
            [
                "\u2581ni",
                -8.266472475225955
            ],
            [
                "\u2581k\u00fd",
                -7.449765490270454
            ],
            [
                "\u2581including",
                -8.247030177385328
            ],
            [
                "\u2581gens",
                -8.280651407751858
            ],
            [
                "\u2581B\u1ea1n",
                -7.454630957272169
            ],
            [
                "\u2581Your",
                -8.247815215073702
            ],
            [
                "\u2581loi",
                -8.290887293400033
            ],
            [
                "\u2581v\u1eadt",
                -7.458031142139298
            ],
            [
                "\u2581available",
                -8.252586321282525
            ],
            [
                "\u2581peut-\u00eatre",
                -8.29463233535281
            ],
            [
                "\u2581\u1ee9ng",
                -7.463229877719517
            ],
            [
                "\u2581school",
                -8.255126051118697
            ],
            [
                "\u258115",
                -8.299646397903626
            ],
            [
                "\u2581qu\u1ea3n",
                -7.466878407356805
            ],
            [
                "\u2581\u2018",
                -8.270029906555726
            ],
            [
                "\u2581donner",
                -8.302390081468184
            ],
            [
                "\u2581k\u1ef3",
                -7.468208134943647
            ],
            [
                "\u2581real",
                -8.270817920398512
            ],
            [
                "\u2581Ils",
                -8.306233177467632
            ],
            [
                "\u2581x\u00e3",
                -7.468801648547294
            ],
            [
                "\u2581One",
                -8.275976512600707
            ],
            [
                "\u2581selon",
                -8.308263205233631
            ],
            [
                "\u2581s\u00e1ng",
                -7.471984245568564
            ],
            [
                "\u2581become",
                -8.277618033160989
            ],
            [
                "\u2581n'a",
                -8.308274455234576
            ],
            [
                "\u2581M\u1ed9t",
                -7.473729780825448
            ],
            [
                "\u2581following",
                -8.278351314700442
            ],
            [
                "\u2581maintenant",
                -8.311900517144961
            ],
            [
                "\u2581chuy\u00ean",
                -7.477367467986429
            ],
            [
                "or",
                -8.279760582694738
            ],
            [
                "\u2581toi",
                -8.321957095641672
            ],
            [
                "\u2581Kh\u00f4ng",
                -7.4807905239239005
            ],
            [
                "\u2581pretty",
                -8.281064280408092
            ],
            [
                "\u2581France",
                -8.337231096031287
            ],
            [
                "\u2581d\u1ef1ng",
                -7.483060156553225
            ],
            [
                "\u2581them.",
                -8.282018451419306
            ],
            [
                "\u2581pourquoi",
                -8.344226267037001
            ],
            [
                "\u2581chuy\u1ec3n",
                -7.483115586884904
            ],
            [
                "\u2581At",
                -8.287659994440954
            ],
            [
                "\u2581rapport",
                -8.347151419724483
            ],
            [
                "\u2581thi",
                -7.48693987684862
            ],
            [
                "\u2581once",
                -8.288988891449344
            ],
            [
                "\u2581mis",
                -8.348611854878033
            ],
            [
                "\u2581tr\u1ee3",
                -7.49399946267646
            ],
            [
                "\u2581said.",
                -8.290553573033081
            ],
            [
                "\u2581J\u2019ai",
                -8.350732783286304
            ],
            [
                "\u2581ph\u1ee5",
                -7.495481504392124
            ],
            [
                "\u2581&",
                -8.297388887817137
            ],
            [
                "\u2581choses",
                -8.353291757021118
            ],
            [
                "\u2581n\u01a1i",
                -7.497346589111299
            ],
            [
                "\u2581makes",
                -8.299730545824913
            ],
            [
                "\u2581seul",
                -8.355193603302796
            ],
            [
                "\u2581ch\u1ee9ng",
                -7.506190098981453
            ],
            [
                "\u2581I\u2019ve",
                -8.30024845549006
            ],
            [
                "\u2581C",
                -8.355242086976123
            ],
            [
                "\u2581\u0111\u1eb7c",
                -7.50966473721117
            ],
            [
                "\u2581blog",
                -8.303184462104888
            ],
            [
                "\u25817",
                -8.355600119246889
            ],
            [
                "\u2581lu\u00f4n",
                -7.5097839481996145
            ],
            [
                "\u2581trying",
                -8.305013447339869
            ],
            [
                "\u2581fa\u00e7on",
                -8.35622183409244
            ],
            [
                "\u2581ngh\u1ec7",
                -7.513345084097779
            ],
            [
                "g",
                -8.305763345909055
            ],
            [
                "\u2581passe",
                -8.359693476180922
            ],
            [
                "\u2581C\u00f3",
                -7.513850365648391
            ],
            [
                "\u2581top",
                -8.307069318028818
            ],
            [
                "\u2581\u00bb.",
                -8.367880328254692
            ],
            [
                "\u2581thay",
                -7.520775485336358
            ],
            [
                "\u2581left",
                -8.310689389202619
            ],
            [
                "S",
                -8.371259800818397
            ],
            [
                "\u2581ngh\u0129",
                -7.5244003367272
            ],
            [
                "\u2581book",
                -8.315931530319217
            ],
            [
                "\u2581veux",
                -8.37695431703971
            ],
            [
                "\u2581ngay",
                -7.524500869663444
            ],
            [
                "\u2581web",
                -8.316444322081244
            ],
            [
                "il",
                -8.377499956669743
            ],
            [
                "\u2581n\u1eef",
                -7.526450426941369
            ],
            [
                "\u2581social",
                -8.317442622313123
            ],
            [
                "\u2581Tout",
                -8.377802446462155
            ],
            [
                "\u2581khu",
                -7.527275235203955
            ],
            [
                "\u2581Thanks",
                -8.318374333623296
            ],
            [
                "\u2581services",
                -8.37837373115215
            ],
            [
                "\u2581kh\u00f3",
                -7.527395473129275
            ],
            [
                "\u2581time.",
                -8.318543078102003
            ],
            [
                "\u2581ann\u00e9es",
                -8.379811723789643
            ],
            [
                "\u2581ki\u1ebfn",
                -7.527635889362518
            ],
            [
                "\u2581local",
                -8.324033217593042
            ],
            [
                "\u2581celui",
                -8.381376497706405
            ],
            [
                "\u2581v\u00f4",
                -7.5278267567607
            ],
            [
                "\u2581health",
                -8.324714395432482
            ],
            [
                "\u2581pris",
                -8.382817839133777
            ],
            [
                "\u2581N\u1ebfu",
                -7.5314662624640105
            ],
            [
                "\u2581team",
                -8.325327076555777
            ],
            [
                "ais",
                -8.384999556018826
            ],
            [
                "\u2581T\u00f4i",
                -7.531585808964945
            ],
            [
                "\u2581personal",
                -8.328896134852137
            ],
            [
                "\u2581vrai",
                -8.385729909664771
            ],
            [
                "\u2581B\u1ed9",
                -7.533401888043997
            ],
            [
                "\u2581quite",
                -8.333042764066425
            ],
            [
                "\u2581sens",
                -8.385977860784344
            ],
            [
                "\u2581g\u1ea7n",
                -7.539704909302142
            ],
            [
                "\u2581please",
                -8.334208712544195
            ],
            [
                "\u2581fais",
                -8.393857425270099
            ],
            [
                "\u2581t\u1ee5c",
                -7.540973112124153
            ],
            [
                "\u2581probably",
                -8.334827810561695
            ],
            [
                "\u2581c\u00f4t\u00e9",
                -8.39430291353334
            ],
            [
                "\u2581ai",
                -7.541182404846275
            ],
            [
                "\u2581data",
                -8.338065474397375
            ],
            [
                "\u2581plut\u00f4t",
                -8.402740459807404
            ],
            [
                "\u2581x\u00e2y",
                -7.5433030013259454
            ],
            [
                "\u2581With",
                -8.340834176423517
            ],
            [
                "\u2581Des",
                -8.403428715250229
            ],
            [
                "\u2581t\u1eebng",
                -7.551730712638005
            ],
            [
                "\u2581whole",
                -8.341002439529186
            ],
            [
                "\u2581n'ai",
                -8.406421577520884
            ],
            [
                "\u2581\u0111\u01b0a",
                -7.551972443597069
            ],
            [
                "\u2581understand",
                -8.343171525962477
            ],
            [
                "\u2581aller",
                -8.411410020513904
            ],
            [
                "\u2581bi\u1ebfn",
                -7.5526433508368065
            ],
            [
                "\u2581live",
                -8.344184896067942
            ],
            [
                "\u2581seulement",
                -8.415652092685264
            ],
            [
                "\u2581\u0111\u1eb7t",
                -7.559702683231372
            ],
            [
                "\u2581seen",
                -8.345557907141028
            ],
            [
                "que",
                -8.416122469471071
            ],
            [
                "\u2581nhanh",
                -7.560242387522583
            ],
            [
                "\u2581\"I",
                -8.348704823610264
            ],
            [
                "\u2581devant",
                -8.424019827060988
            ],
            [
                "\u2581ch\u1ecb",
                -7.5616478111063214
            ],
            [
                "\u2581Here",
                -8.349555677192892
            ],
            [
                "ez",
                -8.427971182994714
            ],
            [
                "\u2581ph\u00ed",
                -7.562417153448504
            ],
            [
                "\u2581case",
                -8.352636567425685
            ],
            [
                "\u2581\u00eates",
                -8.429569963908454
            ],
            [
                "\u2581chi\u1ebfn",
                -7.564209359938136
            ],
            [
                "\u2581children",
                -8.356857595556962
            ],
            [
                "\u2581conditions",
                -8.430299740212398
            ],
            [
                "\u2581t\u1ea5t",
                -7.569067609195969
            ],
            [
                "\u2581company",
                -8.357533614956987
            ],
            [
                "\u25818",
                -8.432904032322302
            ],
            [
                "\u2581thanh",
                -7.57056197458314
            ],
            [
                "\u2581though",
                -8.359671925354526
            ],
            [
                "\u258118",
                -8.434960809557756
            ],
            [
                "\u2581h\u1ebft",
                -7.57216058030679
            ],
            [
                "\u2581open",
                -8.359704790955295
            ],
            [
                "\u2581syst\u00e8me",
                -8.43645183998509
            ],
            [
                "\u2581nguy\u00ean",
                -7.5795857530499156
            ],
            [
                "\u2581play",
                -8.362276937339695
            ],
            [
                "\u2581Comme",
                -8.440301865643072
            ],
            [
                "\u2581\u0111\u0103ng",
                -7.582281759899399
            ],
            [
                "\u2581name",
                -8.366441311409455
            ],
            [
                "\u2581n\u2019a",
                -8.4409460472776
            ],
            [
                "\u2581t\u00edch",
                -7.584363981856502
            ],
            [
                "\u2581Thank",
                -8.368391194976402
            ],
            [
                "\u258130",
                -8.441435903824182
            ],
            [
                "\u2581hi\u1ec3u",
                -7.58546060746306
            ],
            [
                "\u2581website",
                -8.369686589981375
            ],
            [
                "it",
                -8.44225762812893
            ],
            [
                "\u2581\u0111\u00f3,",
                -7.587054885511141
            ],
            [
                "\u2581public",
                -8.370767353009963
            ],
            [
                "\u2581d\u00e9but",
                -8.448586681423297
            ],
            [
                "\u2581ph\u1ee5c",
                -7.589762070747216
            ],
            [
                "\u2581pay",
                -8.371756481493467
            ],
            [
                "\u2581dis",
                -8.455525228944772
            ],
            [
                "\u2581thu\u1eadt",
                -7.590491740685846
            ],
            [
                "\u2581week",
                -8.372292203060333
            ],
            [
                "\u2581dernier",
                -8.456910232394822
            ],
            [
                "\u2581c\u00e2u",
                -7.591612465728562
            ],
            [
                "\u2581easy",
                -8.375338236842282
            ],
            [
                "\u2581mani\u00e8re",
                -8.457100326310075
            ],
            [
                "\u2581c\u1ee9",
                -7.59475075001701
            ],
            [
                "\u2581per",
                -8.376472663268032
            ],
            [
                "\u2581choix",
                -8.459585729158219
            ],
            [
                "\u2581m\u1eb9",
                -7.5951825259850265
            ],
            [
                "?\"",
                -8.378850961047903
            ],
            [
                "\u2581nom",
                -8.461277850089992
            ],
            [
                "\u2581da",
                -7.596051291991384
            ],
            [
                "\u2581again",
                -8.384113329812825
            ],
            [
                "\u2581cadre",
                -8.461311044614945
            ],
            [
                "\u2581b\u1ecf",
                -7.6000762529951915
            ],
            [
                "\u2581water",
                -8.384429705828522
            ],
            [
                "\u2581jeune",
                -8.464061813390412
            ],
            [
                "\u2581b\u1edfi",
                -7.601431810384571
            ],
            [
                "\u2581No",
                -8.386558032606363
            ],
            [
                "\u2581notamment",
                -8.46596669248357
            ],
            [
                "\u2581\u0111\u1ea1o",
                -7.60512375369692
            ],
            [
                "\u2581told",
                -8.38850524878318
            ],
            [
                "\u2581vue",
                -8.47313823186316
            ],
            [
                "\u2581ph\u00e2n",
                -7.606411973755964
            ],
            [
                "\u2581everything",
                -8.39001398011438
            ],
            [
                "\u2581font",
                -8.473556824908396
            ],
            [
                "\u2581\u0111\u1ed3",
                -7.607660565941156
            ],
            [
                "\u2581didn't",
                -8.392898268994982
            ],
            [
                "\u2581Apr\u00e8s",
                -8.473805584113629
            ],
            [
                "\u2581h\u1ecfi",
                -7.610944960389982
            ],
            [
                "\u2581game",
                -8.392969300645106
            ],
            [
                "\u2581raison",
                -8.478844947190547
            ],
            [
                "\u2581t\u00ean",
                -7.612157853703953
            ],
            [
                "\u2581took",
                -8.397965498015138
            ],
            [
                "\u2581qualit\u00e9",
                -8.479808294879941
            ],
            [
                "\u2581nhi\u1ec7m",
                -7.613386192852663
            ],
            [
                "\u2581These",
                -8.398000298127885
            ],
            [
                "\u2581merci",
                -8.480599392590168
            ],
            [
                "\u2581c\u00e1",
                -7.621966249949291
            ],
            [
                "\u2581can't",
                -8.399826627693662
            ],
            [
                "\u2581pourrait",
                -8.481709124802808
            ],
            [
                "\u2581gi\u1ea3m",
                -7.624879261997613
            ],
            [
                "\u2581idea",
                -8.400186781532952
            ],
            [
                "\u2581seront",
                -8.482418458151791
            ],
            [
                "\u2581l\u1ea5y",
                -7.625207916669961
            ],
            [
                "\u2581nothing",
                -8.40384449413213
            ],
            [
                "\u2581belle",
                -8.49164411766085
            ],
            [
                "\u2581tr\u1ea3",
                -7.625632062279667
            ],
            [
                "b",
                -8.403957542644386
            ],
            [
                "\u2581semble",
                -8.498470887687208
            ],
            [
                "\u2581thu\u1ed9c",
                -7.629261536865132
            ],
            [
                "\u2581comes",
                -8.405914060569337
            ],
            [
                "\u2581ligne",
                -8.499696421850244
            ],
            [
                "\u2581nh\u1ecf",
                -7.630261154030069
            ],
            [
                "\u2581started",
                -8.41785582401755
            ],
            [
                "\u2581probl\u00e8me",
                -8.502874947692362
            ],
            [
                "\u2581th\u1ee7",
                -7.631035707461268
            ],
            [
                "\u2581seems",
                -8.422836780561573
            ],
            [
                "\u2581n'y",
                -8.50395481836047
            ],
            [
                "\u2581Nguy\u1ec5n",
                -7.6313128683804905
            ],
            [
                "\u2581system",
                -8.42325973645536
            ],
            [
                "\u2581%",
                -8.50601607597125
            ],
            [
                "\u2581ki\u1ec7n",
                -7.639191646075855
            ],
            [
                "\u2581wanted",
                -8.427630315437995
            ],
            [
                "\u2581crois",
                -8.51299372075417
            ],
            [
                "\u2581ti\u1ebft",
                -7.639891675610902
            ],
            [
                "\u2581past",
                -8.430796246316342
            ],
            [
                "\u2581qu\u2019elle",
                -8.517951839621679
            ],
            [
                "\u2581khi\u1ebfn",
                -7.64123139544019
            ],
            [
                "\u2581learn",
                -8.43667246924961
            ],
            [
                "\u2581aucun",
                -8.52142414328328
            ],
            [
                "\u2581c\u1ee9u",
                -7.641481489073516
            ],
            [
                "\u2581Not",
                -8.44252405601386
            ],
            [
                "\u2581donne",
                -8.522312144293233
            ],
            [
                "\u2581\u0111\u1ee7",
                -7.64272530405704
            ],
            [
                "\u2581check",
                -8.44618418385834
            ],
            [
                "\u2581donn\u00e9es",
                -8.524290510792527
            ],
            [
                "\u2581m\u1ee5c",
                -7.643128509863087
            ],
            [
                "\u2581anyone",
                -8.447275319847042
            ],
            [
                "\u258112",
                -8.525030617663912
            ],
            [
                "\u2581l\u1ee3i",
                -7.643867254349272
            ],
            [
                "\u2581students",
                -8.448068441515453
            ],
            [
                "\u2581maison",
                -8.525201140423436
            ],
            [
                "\u2581nhau",
                -7.643929451186547
            ],
            [
                "\u2581shall",
                -8.457204889888475
            ],
            [
                "\u2581d\u00e9veloppement",
                -8.529627914836961
            ],
            [
                "\u2581g\u1eb7p",
                -7.644062616072983
            ],
            [
                "\u2581second",
                -8.4597758141551
            ],
            [
                "\u2581veut",
                -8.530365260687484
            ],
            [
                "\u2581s\u0129",
                -7.645328701447265
            ],
            [
                "\u2581Our",
                -8.460159709357933
            ],
            [
                "\u2581envie",
                -8.5309970780359
            ],
            [
                "\u2581Ch\u00ednh",
                -7.64700530035856
            ],
            [
                "\u2581several",
                -8.460981493123189
            ],
            [
                "\u2581groupe",
                -8.531756718669522
            ],
            [
                "\u2581c\u0103n",
                -7.653840825727426
            ],
            [
                "\u2581called",
                -8.461291592152433
            ],
            [
                "\u2581pr\u00e8s",
                -8.531810103784874
            ],
            [
                "\u2581m\u1ed7i",
                -7.654144564699666
            ],
            [
                "\u2581times",
                -8.462191691144445
            ],
            [
                "\u2581Cela",
                -8.535462175139587
            ],
            [
                "\u2581r\u00f5",
                -7.659663462901342
            ],
            [
                "\u2581taking",
                -8.464796437354263
            ],
            [
                "\u2581d\u2019autres",
                -8.537222359300458
            ],
            [
                "\u2581cung",
                -7.66580298376098
            ],
            [
                "\u2581online",
                -8.464895087435726
            ],
            [
                "\u2581qu\u2019on",
                -8.537992327953937
            ],
            [
                "\u2581nghe",
                -7.666034653001347
            ],
            [
                "\u2581everyone",
                -8.466463973504402
            ],
            [
                "\u2581seule",
                -8.538670419338604
            ],
            [
                "\u2581c\u00e1o",
                -7.669581140739399
            ],
            [
                "\u2581me.",
                -8.466695025674062
            ],
            [
                "ou",
                -8.539221034312526
            ],
            [
                "\u2581c\u00e0ng",
                -7.672159899439421
            ],
            [
                "\u2581given",
                -8.466873746059811
            ],
            [
                "\u2581recherche",
                -8.539581904882482
            ],
            [
                "\u2581chung",
                -7.673298510459641
            ],
            [
                "\u2581you're",
                -8.468990067547287
            ],
            [
                "\u2581ville",
                -8.548978718967048
            ],
            [
                "\u2581m\u1ea1nh",
                -7.674093635083597
            ],
            [
                "\u2581After",
                -8.469325430624478
            ],
            [
                "\u2581journ\u00e9e",
                -8.551190477995949
            ],
            [
                "\u2581t\u1ee9c",
                -7.675067573791037
            ],
            [
                "\u2581ask",
                -8.475445296433751
            ],
            [
                "ra",
                -8.55159860429728
            ],
            [
                "\u2581truy\u1ec1n",
                -7.676953584984222
            ],
            [
                "\u2581share",
                -8.475694796928499
            ],
            [
                "\u2581plaisir",
                -8.552186169285905
            ],
            [
                "\u2581ti\u00ean",
                -7.6776420413659165
            ],
            [
                "\u2581insurance",
                -8.477391947493633
            ],
            [
                "\u2581d'autres",
                -8.55329482384103
            ],
            [
                "\u2581nghi\u1ec7m",
                -7.678817084617822
            ],
            [
                "\u2581needs",
                -8.477594475463357
            ],
            [
                "\u2581d\u00e8s",
                -8.55421481194134
            ],
            [
                "\u2581h\u1ed9",
                -7.679243264013212
            ],
            [
                "\u2581course",
                -8.477850605457066
            ],
            [
                "\u2581S",
                -8.559259631685563
            ],
            [
                "\u2581g\u00e2y",
                -7.679467494417516
            ],
            [
                "\u2581job",
                -8.479691935625183
            ],
            [
                "\u2581semaine",
                -8.561462290233347
            ],
            [
                "\u2581\u1ea5y",
                -7.679702172399639
            ],
            [
                "\u2581group",
                -8.481514448106912
            ],
            [
                "aient",
                -8.56196910156126
            ],
            [
                "\u2581Nh\u01b0ng",
                -7.681907212039448
            ],
            [
                "\u2581list",
                -8.485487680368417
            ],
            [
                "\u2581forme",
                -8.562081316727776
            ],
            [
                "\u2581dung",
                -7.683271754755449
            ],
            [
                "\u2581across",
                -8.486056021093637
            ],
            [
                "\u2581Alors",
                -8.565548141658562
            ],
            [
                "\u2581ng\u01b0\u01a1i",
                -7.684749883687782
            ],
            [
                "\u2581state",
                -8.495792785977203
            ],
            [
                "\u2581celle",
                -8.567640512545912
            ],
            [
                "\u2581di\u1ec7n",
                -7.689306993685296
            ],
            [
                "\u2581food",
                -8.497288275939793
            ],
            [
                "\u2581article",
                -8.567992215842164
            ],
            [
                "\u2581d\u1ec5",
                -7.690645493818157
            ],
            [
                "\u2581whether",
                -8.49868459618214
            ],
            [
                "\u2581parler",
                -8.569675847604566
            ],
            [
                "\u2581n\u00e0ng",
                -7.690809535256387
            ],
            [
                "\u2581side",
                -8.499829504521218
            ],
            [
                "\u2581situation",
                -8.570682826919693
            ],
            [
                "\u2581b\u00e0",
                -7.691342740585263
            ],
            [
                "\u2581run",
                -8.502492860000087
            ],
            [
                "\u2581simple",
                -8.571682347323298
            ],
            [
                "\u2581\u0110i\u1ec1u",
                -7.691937325428111
            ],
            [
                "\u2581\u201cI",
                -8.504564859058744
            ],
            [
                "\u2581t\u00eate",
                -8.573114803823742
            ],
            [
                "\u2581\u0111\u00fang",
                -7.694996066915731
            ],
            [
                "\u2581However,",
                -8.511325792029073
            ],
            [
                "\u2581fonction",
                -8.579623898646151
            ],
            [
                "\u2581d\u01b0\u1edbi",
                -7.697951708613008
            ],
            [
                "\u2581along",
                -8.513182388455528
            ],
            [
                "\u2581\u00e9taient",
                -8.580785544644058
            ],
            [
                "\u2581Th\u00f4ng",
                -7.702382538023919
            ],
            [
                "\u2581mind",
                -8.51462783121749
            ],
            [
                "\u2581famille",
                -8.581788375600226
            ],
            [
                "\u2581c\u1eeda",
                -7.703246656558587
            ],
            [
                "\u2581large",
                -8.515752706245603
            ],
            [
                "\u2581membres",
                -8.582750408561358
            ],
            [
                "\u2581tr\u1ef1c",
                -7.703899923910676
            ],
            [
                "\u2581bad",
                -8.518942232665228
            ],
            [
                "\u2581pass\u00e9",
                -8.584817192773746
            ],
            [
                "\u2581tu\u1ed5i",
                -7.708501035953567
            ],
            [
                "\u2581almost",
                -8.520189578459517
            ],
            [
                "\u2581sujet",
                -8.593664110878764
            ],
            [
                "\u2581\u0111\u1eddi",
                -7.710842389534423
            ],
            [
                "\u2581reading",
                -8.520562222607307
            ],
            [
                "\u2581aurait",
                -8.59614872193926
            ],
            [
                "\u2581tinh",
                -7.7184083622603525
            ],
            [
                "\u2581create",
                -8.521790184219277
            ],
            [
                "\u2581elles",
                -8.596310657827019
            ],
            [
                "\u2581ph\u1ed1",
                -7.721454585901964
            ],
            [
                "\u2581visit",
                -8.522653037696347
            ],
            [
                "\u2581Comment",
                -8.604522594080656
            ],
            [
                "\u2581c\u1ea3nh",
                -7.724965595528983
            ],
            [
                "\u2581together",
                -8.525435292913782
            ],
            [
                "\u2581\u00c0",
                -8.607182322138865
            ],
            [
                "\u2581ban",
                -7.726472564176756
            ],
            [
                "\u2581head",
                -8.532671480234328
            ],
            [
                "\u2581informations",
                -8.613499328329405
            ],
            [
                "\u2581v\u1ec7",
                -7.727104423221928
            ],
            [
                "ers",
                -8.541283809389919
            ],
            [
                "\u2581M.",
                -8.619852751312491
            ],
            [
                "\u2581ti\u1ebfn",
                -7.730162366173642
            ],
            [
                "\u2581room",
                -8.54512361076168
            ],
            [
                "\u2581femme",
                -8.620061366957518
            ],
            [
                "\u2581g\u1ecdi",
                -7.730284942726762
            ],
            [
                "\u2581yet",
                -8.551724701188656
            ],
            [
                "\u2581genre",
                -8.624047480534577
            ],
            [
                "\u2581Ng\u01b0\u1eddi",
                -7.741157237136434
            ],
            [
                "\u2581coming",
                -8.552091379029786
            ],
            [
                "\u2581face",
                -8.624674533736364
            ],
            [
                "\u2581v\u1ef1c",
                -7.745157529687219
            ],
            [
                "\u2581offer",
                -8.552175933470338
            ],
            [
                "\u2581nombreux",
                -8.62550920851008
            ],
            [
                "\u2581m\u1edf",
                -7.746190921674618
            ],
            [
                "\u2581says",
                -8.55586034195368
            ],
            [
                "\u2581formation",
                -8.633440136815665
            ],
            [
                "\u2581t\u01b0\u1ee3ng",
                -7.7464294775357745
            ],
            [
                "\u2581contact",
                -8.56064981191631
            ],
            [
                "\u2581\u2022",
                -8.635048628740616
            ],
            [
                "\u2581m\u00e0u",
                -7.748699483600454
            ],
            [
                "\u2581process",
                -8.561597300748033
            ],
            [
                "\u2581plein",
                -8.637288258575428
            ],
            [
                "\u2581m\u1ea5t",
                -7.750392784574384
            ],
            [
                "\u2581rather",
                -8.565950745670733
            ],
            [
                "\u2581s\u00e9curit\u00e9",
                -8.639263668675726
            ],
            [
                "\u2581n\u00e0y,",
                -7.75298557645198
            ],
            [
                "\u2581story",
                -8.566097432136758
            ],
            [
                "\u2581l\u2019on",
                -8.642275773602586
            ],
            [
                "\u2581M\u1ef9",
                -7.75300019476834
            ],
            [
                "\u2581looks",
                -8.567435999863438
            ],
            [
                "\u2581tes",
                -8.646544554198755
            ],
            [
                "\u2581\u0111\u1ea7y",
                -7.755693424271205
            ],
            [
                "\u2581Just",
                -8.567752181383067
            ],
            [
                "\u25811er",
                -8.647963069868988
            ],
            [
                "\u2581gi\u1eefa",
                -7.756229453352025
            ],
            [
                "I",
                -8.571201979337678
            ],
            [
                "\u2581qu\u2019ils",
                -8.649032293063586
            ],
            [
                "\u2581h\u1eefu",
                -7.761218913708785
            ],
            [
                "\u2581problem",
                -8.572854208121958
            ],
            [
                "\u2581Ces",
                -8.657163938716705
            ],
            [
                "\u2581\u0111\u00ecnh",
                -7.762003085614412
            ],
            [
                "\u2581didn\u2019t",
                -8.574528581299447
            ],
            [
                "\u2581questions",
                -8.658697109241022
            ],
            [
                "\u2581chu\u1ea9n",
                -7.7625980041131655
            ],
            [
                "\u2581happy",
                -8.578568588873331
            ],
            [
                "\u2581derni\u00e8re",
                -8.65972095824162
            ],
            [
                "\u2581ch\u00e2n",
                -7.7632591503069435
            ],
            [
                "\u2581months",
                -8.578844928899162
            ],
            [
                "\u2581sant\u00e9",
                -8.66252208310977
            ],
            [
                "\u2581n\u1ed5i",
                -7.7699607345995005
            ],
            [
                "\u2581women",
                -8.579356477508732
            ],
            [
                "\u2581aura",
                -8.664151743104236
            ],
            [
                "\u2581c\u1ed5",
                -7.77227600226837
            ],
            [
                "\u2581hours",
                -8.583775912807134
            ],
            [
                "\u2581doute",
                -8.664285389911901
            ],
            [
                "\u2581\u0110\u1ea1i",
                -7.77387994328074
            ],
            [
                "\u2581plan",
                -8.584499421434272
            ],
            [
                "\u2581ann\u00e9e",
                -8.664498488617017
            ],
            [
                "\u2581\u0111\u00e0n",
                -7.778531066282518
            ],
            [
                "\u2581fact",
                -8.585800211847864
            ],
            [
                "\u2581titre",
                -8.666960124265838
            ],
            [
                "\u2581x\u00e1c",
                -7.782918568446171
            ],
            [
                "\u2581form",
                -8.586932784180279
            ],
            [
                "\u2581m'a",
                -8.667260592116705
            ],
            [
                "\u2581b\u00e9",
                -7.785828907702483
            ],
            [
                "\u2581others",
                -8.58832065645226
            ],
            [
                "\u2581nouvelles",
                -8.667383417544551
            ],
            [
                "\u2581di\u1ec5n",
                -7.787469769097363
            ],
            [
                "\u2581based",
                -8.594422762380393
            ],
            [
                "\u2581soci\u00e9t\u00e9",
                -8.668108938437037
            ],
            [
                "\u2581ch\u00ed",
                -7.797322866593603
            ],
            [
                "\u2581power",
                -8.60366458218223
            ],
            [
                "\u2581lorsque",
                -8.670210820275472
            ],
            [
                "\u2581d\u00f9",
                -7.8009789834601975
            ],
            [
                "\u2581night",
                -8.6037697392723
            ],
            [
                "\u2581qu'ils",
                -8.674033594519994
            ],
            [
                "\u2581vui",
                -7.801587204999144
            ],
            [
                "\u2581government",
                -8.606644150509638
            ],
            [
                "\u2581cause",
                -8.674575989598619
            ],
            [
                "\u2581t\u1ec9nh",
                -7.801829804127682
            ],
            [
                "\u2581nice",
                -8.606917847727331
            ],
            [
                "\u2581jeu",
                -8.674685292791219
            ],
            [
                "\u2581Nh\u00e0",
                -7.802940163709479
            ],
            [
                "\u2581can\u2019t",
                -8.612532004852694
            ],
            [
                "\u2581d'\u00eatre",
                -8.674821002636676
            ],
            [
                "\u2581lu\u1eadt",
                -7.810826391999985
            ],
            [
                "\u2581young",
                -8.613502455732144
            ],
            [
                "\u2581autant",
                -8.676276122459617
            ],
            [
                "\u2581Tin",
                -7.811763525808452
            ],
            [
                "\u2581talk",
                -8.614259236560462
            ],
            [
                "\u25819",
                -8.676379842402932
            ],
            [
                "\u2581chi\u1ebfc",
                -7.812504140231393
            ],
            [
                "\u2581asked",
                -8.615460528829011
            ],
            [
                "\u2581gr\u00e2ce",
                -8.678001930231913
            ],
            [
                "\u2581ki\u1ec3m",
                -7.815664678883643
            ],
            [
                "\u2581matter",
                -8.620286668632469
            ],
            [
                "\u2581livre",
                -8.678644432373162
            ],
            [
                "\u2581kh\u00ed",
                -7.816106387001088
            ],
            [
                "\u2581mean",
                -8.621129691080652
            ],
            [
                "\u2581base",
                -8.67915371078622
            ],
            [
                "\u2581vi",
                -7.817161637632085
            ],
            [
                "\u2581couple",
                -8.621327418165446
            ],
            [
                "\u2581politique",
                -8.680506118574804
            ],
            [
                "\u2581lu\u1eadn",
                -7.8216101054957035
            ],
            [
                "\u2581body",
                -8.621649246723509
            ],
            [
                "\u2581autour",
                -8.68083856370356
            ],
            [
                "\u2581k\u1ef9",
                -7.8256250297891325
            ],
            [
                "\u2581above",
                -8.623417233023455
            ],
            [
                "\u2581lire",
                -8.683029178570697
            ],
            [
                "\u2581th\u01b0",
                -7.826100887580765
            ],
            [
                "k",
                -8.624067559179732
            ],
            [
                "\u2581loin",
                -8.688309988298977
            ],
            [
                "\u2581tr\u01b0\u1edfng",
                -7.8264624145446575
            ],
            [
                "\u2581taken",
                -8.624716408699381
            ],
            [
                "\u2581date",
                -8.690731333343768
            ],
            [
                "\u2581ngh\u0129a",
                -7.826803491481574
            ],
            [
                "\u2581especially",
                -8.624739193387983
            ],
            [
                "\u2581doivent",
                -8.691047488559805
            ],
            [
                "\u2581H\u1ed9i",
                -7.827390850525215
            ],
            [
                "\u2581four",
                -8.629808624307286
            ],
            [
                "\u2581photos",
                -8.691961738272678
            ],
            [
                "\u2581tra",
                -7.8304376906550415
            ],
            [
                "\u2581friends",
                -8.630235297713273
            ],
            [
                "\u2581heures",
                -8.692537031089657
            ],
            [
                "\u2581Th\u00e0nh",
                -7.8384467275942065
            ],
            [
                "\u2581early",
                -8.633080723687057
            ],
            [
                "ur",
                -8.693782133141056
            ],
            [
                "\u2581kho\u1ea3n",
                -7.840360906460515
            ],
            [
                "\u2581said,",
                -8.633422588734645
            ],
            [
                "\u2581petits",
                -8.693854170511546
            ],
            [
                "\u2581b\u00e0n",
                -7.840899923823947
            ],
            [
                "\u2581leave",
                -8.633984694164432
            ],
            [
                "\u2581produit",
                -8.694916920190423
            ],
            [
                "\u2581to\u00e1n",
                -7.845489469805922
            ],
            [
                "\u2581house",
                -8.634331216743067
            ],
            [
                "\u2581quel",
                -8.696963000617139
            ],
            [
                "\u2581khai",
                -7.847234980285026
            ],
            [
                "\u2581fun",
                -8.639156284631019
            ],
            [
                "\u2581mesure",
                -8.698456988336272
            ],
            [
                "\u2581Minh",
                -7.849062824003148
            ],
            [
                "\u2581Please",
                -8.642581534181062
            ],
            [
                "\u2581lien",
                -8.699629506275443
            ],
            [
                "\u2581kh\u1ea3",
                -7.851936892184992
            ],
            [
                "\u2581men",
                -8.644860399022464
            ],
            [
                "\u2581risque",
                -8.700024763233866
            ],
            [
                "\u2581s\u00e1t",
                -7.853971445576479
            ],
            [
                "\u2581stop",
                -8.646256329951198
            ],
            [
                "\u2581janvier",
                -8.701138968236997
            ],
            [
                "\u2581d\u1ee5c",
                -7.854772189911695
            ],
            [
                "\u2581close",
                -8.646955006180251
            ],
            [
                "me",
                -8.703097489590775
            ],
            [
                "\u2581t\u01b0\u1edfng",
                -7.857716873191104
            ],
            [
                "\u2581else",
                -8.648405741299786
            ],
            [
                "\u2581l",
                -8.710835469475022
            ],
            [
                "\u2581Sau",
                -7.864196328155688
            ],
            [
                "\u2581bring",
                -8.650443862341248
            ],
            [
                "\u2581d\u2019\u00eatre",
                -8.718430684025769
            ],
            [
                "\u2581th\u1ea7n",
                -7.864261928236594
            ],
            [
                "\u2581reason",
                -8.650535665171294
            ],
            [
                "\u2581d\u00e9couvrir",
                -8.720300925807322
            ],
            [
                "\u2581m\u1ee9c",
                -7.865411811001405
            ],
            [
                "\u2581writing",
                -8.650538735062776
            ],
            [
                "\u2581type",
                -8.720556093738129
            ],
            [
                "\u2581xin",
                -7.865779090012747
            ],
            [
                "\u2581hear",
                -8.656785620062367
            ],
            [
                "et",
                -8.722594765321364
            ],
            [
                "\u2581\u00edt",
                -7.866973242044691
            ],
            [
                "\u2581simply",
                -8.665304933120444
            ],
            [
                "\u2581Que",
                -8.72289220724487
            ],
            [
                "\u2581ph\u00eda",
                -7.868002718075796
            ],
            [
                "\u2581time,",
                -8.667582528250854
            ],
            [
                "\u2581aucune",
                -8.723752025041428
            ],
            [
                "\u2581bi\u1ec3u",
                -7.868729278221789
            ],
            [
                "\u2581likely",
                -8.671748329139454
            ],
            [
                "\u2581prise",
                -8.72591722729068
            ],
            [
                "\u2581ba",
                -7.869882512916853
            ],
            [
                "\u2581access",
                -8.672701102212146
            ],
            [
                "\u2581pr\u00e9sent",
                -8.727782997715725
            ],
            [
                "\u2581B\u00ecnh",
                -7.87264994028931
            ],
            [
                "\u2581Now",
                -8.676901760243734
            ],
            [
                "\u258114",
                -8.72865053219175
            ],
            [
                "\u2581tri\u1ec7u",
                -7.875327247358702
            ],
            [
                "\u2581stay",
                -8.677446220177622
            ],
            [
                "ce",
                -8.729471522450266
            ],
            [
                "\u2581ch\u01a1i",
                -7.877275846466606
            ],
            [
                "\u2581doesn't",
                -8.681397128530552
            ],
            [
                "\u2581propose",
                -8.729494436141945
            ],
            [
                "\u2581kho\u1ea3ng",
                -7.883234035851959
            ],
            [
                "\u2581special",
                -8.682147448099256
            ],
            [
                "\u2581n\u2019y",
                -8.73380555520054
            ],
            [
                "\u2581h\u1ed3",
                -7.8883849560335335
            ],
            [
                "\u2581here.",
                -8.683515174495128
            ],
            [
                "\u2581minutes",
                -8.736097209214732
            ],
            [
                "\u2581tranh",
                -7.888440449348241
            ],
            [
                "\u2581area",
                -8.686641548007634
            ],
            [
                "\",",
                -8.739176405587601
            ],
            [
                "\u2581bay",
                -7.889905990859947
            ],
            [
                "]",
                -8.687847979778724
            ],
            [
                "\u258111",
                -8.73966149139202
            ],
            [
                "\u2581b\u1ed1",
                -7.895983639080346
            ],
            [
                "\u2581certain",
                -8.688140944180095
            ],
            [
                "\u2581mars",
                -8.739723093519295
            ],
            [
                "\u2581Khi",
                -7.8987905511107535
            ],
            [
                "\u2581hand",
                -8.689243737066073
            ],
            [
                "\u2581vois",
                -8.741492310090923
            ],
            [
                "\u2581phong",
                -7.9016078677057395
            ],
            [
                "\u2581enjoy",
                -8.69132929044881
            ],
            [
                "\u2581corps",
                -8.742217232973836
            ],
            [
                "\u2581xu\u1ed1ng",
                -7.903312001846718
            ],
            [
                "\u2581God",
                -8.691736969905767
            ],
            [
                "\u2581000",
                -8.742265639434216
            ],
            [
                "\u2581t\u1ed5ng",
                -7.904740598304873
            ],
            [
                "\u2581short",
                -8.694107082170317
            ],
            [
                "\u2581main",
                -8.742267654223497
            ],
            [
                "\u2581n\u00e0y.",
                -7.909726126657293
            ],
            [
                "\u2581current",
                -8.69467211660091
            ],
            [
                "\u2581porte",
                -8.744036173206784
            ],
            [
                "\u2581qu\u00fd",
                -7.911308891063922
            ],
            [
                "\u2581Some",
                -8.696456865408445
            ],
            [
                "\u2581laisser",
                -8.744936381062736
            ],
            [
                "\u2581chia",
                -7.91205388775099
            ],
            [
                "\u2581seem",
                -8.697364100185489
            ],
            [
                "\u2581l'on",
                -8.745870829282126
            ],
            [
                "\u2581n\u1eefa",
                -7.913749753532929
            ],
            [
                "\u2581yourself",
                -8.699031172536772
            ],
            [
                "\u2581page",
                -8.745876649547512
            ],
            [
                "\u2581\u00e1p",
                -7.91478945330924
            ],
            [
                "?\u201d",
                -8.706582354012603
            ],
            [
                "\u2581yeux",
                -8.748589428164056
            ],
            [
                "\u2581t\u01b0\u01a1ng",
                -7.914864714632702
            ],
            [
                "\u2581forward",
                -8.70809230974348
            ],
            [
                "\u2581r\u00e9ponse",
                -8.753667343697497
            ],
            [
                "\u2581c\u1ed1",
                -7.916105810776753
            ],
            [
                "\u2581due",
                -8.709170948952053
            ],
            [
                "\u2581Avec",
                -8.757281893042567
            ],
            [
                "\u2581ch\u00fat",
                -7.919255224851071
            ],
            [
                "\u2581buy",
                -8.70994517373147
            ],
            [
                "\u2581simplement",
                -8.759324738635263
            ],
            [
                "\u2581t\u1ef7",
                -7.9193416231022375
            ],
            [
                "\u2581child",
                -8.715387293130235
            ],
            [
                "\u2581c'\u00e9tait",
                -8.762843328381077
            ],
            [
                "\u2581l\u01b0u",
                -7.9199789644280685
            ],
            [
                "able",
                -8.715419577031314
            ],
            [
                "\u2581ans,",
                -8.763139074988796
            ],
            [
                "\u2581v\u1ed1n",
                -7.920539757610474
            ],
            [
                "\u2581An",
                -8.72009769707591
            ],
            [
                "\u2581homme",
                -8.763619410161322
            ],
            [
                "\u2581ch\u1ed1ng",
                -7.921458999736243
            ],
            [
                "\u2581email",
                -8.721663123976992
            ],
            [
                "\u2581Quand",
                -8.764794082455065
            ],
            [
                "\u2581t\u1ed1i",
                -7.923980716122375
            ],
            [
                "\u2581quality",
                -8.725528532625429
            ],
            [
                "\u2581vient",
                -8.766347125565673
            ],
            [
                "\u2581B\u00e0i",
                -7.9248956423916255
            ],
            [
                "\u2581either",
                -8.725658473560092
            ],
            [
                "\u2581d\u00e9cembre",
                -8.766383193827068
            ],
            [
                "\u2581h\u01b0\u1edfng",
                -7.925338039230891
            ],
            [
                "\u2581market",
                -8.726881682575344
            ],
            [
                "\u2581gros",
                -8.771031324534707
            ],
            [
                "\u2581T\u1ed5ng",
                -7.925715260375522
            ],
            [
                "\u2581cost",
                -8.727607160016408
            ],
            [
                "\u2581beau",
                -8.771771538274633
            ],
            [
                "\u2581gi\u1eef",
                -7.926650334660974
            ],
            [
                "\u2581--",
                -8.729157475788126
            ],
            [
                "\u2581l'article",
                -8.77267538611883
            ],
            [
                "\u2581ph\u00e9p",
                -7.929434564420298
            ],
            [
                "\u2581five",
                -8.729872899572175
            ],
            [
                "\u2581rendre",
                -8.77310037024509
            ],
            [
                "\u2581ch\u1ecbu",
                -7.9382636261942805
            ],
            [
                "\u2581add",
                -8.730363764695806
            ],
            [
                "\u2581parle",
                -8.774063715470781
            ],
            [
                "\u2581h\u00e3y",
                -7.938799440954714
            ],
            [
                "\u2581it,",
                -8.731699986141322
            ],
            [
                "\u2581novembre",
                -8.774341521724534
            ],
            [
                "\u2581cu\u1ed1i",
                -7.94358263816206
            ],
            [
                "\u2581doesn\u2019t",
                -8.731968272969427
            ],
            [
                "\u2581liste",
                -8.7759025021244
            ],
            [
                "\u2581\u0111\u00e1ng",
                -7.945153054569872
            ],
            [
                "\u2581community",
                -8.734667787654866
            ],
            [
                "\u258116",
                -8.778539568635713
            ],
            [
                "\u2581c\u1eadu",
                -7.945800499553002
            ],
            [
                "\u2581While",
                -8.738206444438994
            ],
            [
                "\u25812018",
                -8.779700205798978
            ],
            [
                "\u2581d\u00e0i",
                -7.946439277558217
            ],
            [
                "\u2581remember",
                -8.73824575569137
            ],
            [
                "\u2581salle",
                -8.783106876726194
            ],
            [
                "\u2581y\u1ebfu",
                -7.9467749134267605
            ],
            [
                "\u2581human",
                -8.738347955784407
            ],
            [
                "\u2581mai",
                -8.784179334732862
            ],
            [
                "\u2581s\u1eafc",
                -7.950146040116415
            ],
            [
                "\u2581saw",
                -8.740816990161429
            ],
            [
                "\u2581moyen",
                -8.785151690280712
            ],
            [
                "\u2581m\u1ea1ng",
                -7.951364773719459
            ],
            [
                "\u2581million",
                -8.742626630525772
            ],
            [
                "\u2581certaines",
                -8.787527949598879
            ],
            [
                "\u2581ngu\u1ed3n",
                -7.959387447555666
            ],
            [
                "\u2581heard",
                -8.743131268499898
            ],
            [
                "\u2581jeunes",
                -8.791467894322235
            ],
            [
                "\u2581\u0110\u0103ng",
                -7.962117091583174
            ],
            [
                "\u2581research",
                -8.74361244760319
            ],
            [
                "\u258117",
                -8.792368544040077
            ],
            [
                "\u2581qu\u00e2n",
                -7.966328975020946
            ],
            [
                "\u2581amount",
                -8.74963579943563
            ],
            [
                "\u2581diff\u00e9rents",
                -8.795958363175412
            ],
            [
                "\u2581h\u1ea1n",
                -7.971651473089626
            ],
            [
                "\u2581heart",
                -8.750707346508364
            ],
            [
                "\u2581effet",
                -8.795998164234593
            ],
            [
                "\u2581minh",
                -7.974778573865339
            ],
            [
                "\u2581future",
                -8.750710805955745
            ],
            [
                "\u2581s'est",
                -8.798578701941357
            ],
            [
                "\u2581Li\u00ean",
                -7.97535399502456
            ],
            [
                "\u2581single",
                -8.751461520506178
            ],
            [
                "\u2581frais",
                -8.799111040751882
            ],
            [
                "\u2581gi\u1ea3",
                -7.982679232329424
            ],
            [
                "\u2581living",
                -8.753876493549274
            ],
            [
                "\u2581tour",
                -8.799484425742584
            ],
            [
                "\u2581x\u1eed",
                -7.983200973395864
            ],
            [
                "\u2581include",
                -8.756646463029158
            ],
            [
                "\u2581code",
                -8.806845715520781
            ],
            [
                "\u2581ki\u1ebfm",
                -7.9856900959348875
            ],
            [
                "\u2581worth",
                -8.757738967621702
            ],
            [
                "\u2581parfois",
                -8.809444739677911
            ],
            [
                "\u2581g\u00e1i",
                -7.987548625438985
            ],
            [
                "\u2581move",
                -8.758644664136535
            ],
            [
                "\u2581juin",
                -8.812129715281962
            ],
            [
                "\u2581Tuy",
                -7.988843269933054
            ],
            [
                "\u2581level",
                -8.75872708949052
            ],
            [
                "\u2581\u00e9tant",
                -8.81247139264606
            ],
            [
                "\u2581danh",
                -7.990631720982865
            ],
            [
                "\u2581country",
                -8.761243936633468
            ],
            [
                "\u2581r\u00e9pondre",
                -8.816107833504287
            ],
            [
                "\u2581thu\u1ed1c",
                -7.991469494453317
            ],
            [
                "\u2581that's",
                -8.763111081312909
            ],
            [
                "au",
                -8.818077696054914
            ],
            [
                "\u2581\u0111\u1ed9c",
                -7.993056605804458
            ],
            [
                "\u2581write",
                -8.764204012668806
            ],
            [
                "\u2581vite",
                -8.819802518453795
            ],
            [
                "\u2581khoa",
                -7.996012848696978
            ],
            [
                "\u2581wish",
                -8.7682928074528
            ],
            [
                "\u2581gestion",
                -8.822074921636416
            ],
            [
                "\u2581\u0111o\u00e0n",
                -7.997120381306151
            ],
            [
                "\u2581I'll",
                -8.768726113339673
            ],
            [
                "\u2581ayant",
                -8.822695813035885
            ],
            [
                "\u2581\u0111\u1ed9i",
                -7.997490602046803
            ],
            [
                "\u2581D",
                -8.770393768711703
            ],
            [
                "v",
                -8.827696026196488
            ],
            [
                "\u2581Ch\u1ee7",
                -8.005366265193743
            ],
            [
                "\u2581video",
                -8.775821525693951
            ],
            [
                "\u2581!!",
                -8.828224433579955
            ],
            [
                "\u2581c\u1ee5",
                -8.00618782168232
            ],
            [
                "\u2581known",
                -8.775966460428254
            ],
            [
                "\u2581droits",
                -8.828577902443971
            ],
            [
                "\u2581ho\u1ea1ch",
                -8.0063958828565
            ],
            [
                "\u2581clear",
                -8.778415354341403
            ],
            [
                "\u2581s'il",
                -8.830473566927886
            ],
            [
                "\u2581c\u1ef1c",
                -8.007212166710532
            ],
            [
                "\u2581project",
                -8.780040583053236
            ],
            [
                "\u2581s\u2019est",
                -8.832335829156746
            ],
            [
                "\u2581H\u1ed3",
                -8.007629846531378
            ],
            [
                "\u2581Then",
                -8.780888627033873
            ],
            [
                "\u2581comprendre",
                -8.833654210848636
            ],
            [
                "\u2581thu\u00ea",
                -8.010072826581117
            ],
            [
                "\u2581cannot",
                -8.780945449996235
            ],
            [
                "\u2581L",
                -8.833881107727287
            ],
            [
                "\u2581m\u1eadt",
                -8.011197835252622
            ],
            [
                "\u2581perfect",
                -8.781611443545149
            ],
            [
                "\u2581compris",
                -8.834227357451578
            ],
            [
                "\u2581h\u00f4m",
                -8.012111761988104
            ],
            [
                "\u2581upon",
                -8.784235633769367
            ],
            [
                "\u2581Ne",
                -8.83744446027272
            ],
            [
                "\u2581ch\u01b0\u01a1ng",
                -8.01316761613581
            ],
            [
                "\u2581meet",
                -8.78811500779106
            ],
            [
                "\u2581octobre",
                -8.838152690881401
            ],
            [
                "\u2581\u0111\u1ee9ng",
                -8.013855795568775
            ],
            [
                "\u2581half",
                -8.790633460135554
            ],
            [
                "\u2581moi,",
                -8.838304271468157
            ],
            [
                "\u2581v\u1eady,",
                -8.018386635106449
            ],
            [
                "\u2581continue",
                -8.793699506901
            ],
            [
                "\u2581g\u00e9n\u00e9ral",
                -8.83839335738448
            ],
            [
                "\u2581b\u01b0\u1edbc",
                -8.021203638378331
            ],
            [
                "\u2581turn",
                -8.79710400996763
            ],
            [
                "\u2581donn\u00e9",
                -8.840041485887863
            ],
            [
                "\u2581ph\u1ea1m",
                -8.02191105681609
            ],
            [
                "\u2581thinking",
                -8.797365532866793
            ],
            [
                "\u2581enfin",
                -8.84125093546994
            ],
            [
                "\u2581c\u01b0\u1eddi",
                -8.028385327724227
            ],
            [
                "\u2581line",
                -8.799092174022505
            ],
            [
                "\u2581Bien",
                -8.846928235572655
            ],
            [
                "\u2581gi\u1ed1ng",
                -8.029398550992184
            ],
            [
                "\u2019d",
                -8.805524232104647
            ],
            [
                "\u2581B",
                -8.846949382453237
            ],
            [
                "\u2581\u0111au",
                -8.031315750986147
            ],
            [
                "\u2581rest",
                -8.805556434649143
            ],
            [
                "\u2581chacun",
                -8.84870529466658
            ],
            [
                "\u2581sang",
                -8.035078379191232
            ],
            [
                "\u2581[",
                -8.809074774906556
            ],
            [
                "\u2581femmes",
                -8.849575670518316
            ],
            [
                "\u2581tr\u00e1ch",
                -8.036217721561286
            ],
            [
                "\u2581light",
                -8.809366738572246
            ],
            [
                "\u2581charge",
                -8.85120808475159
            ],
            [
                "\u2581ch\u1eb3ng",
                -8.03749188277205
            ],
            [
                "\u2581looked",
                -8.809604211805874
            ],
            [
                "\u258113",
                -8.851768902654824
            ],
            [
                "\u2581hoa",
                -8.038175544731901
            ],
            [
                "\u2581kids",
                -8.809714818021748
            ],
            [
                "\".",
                -8.853902219671943
            ],
            [
                "\u2581\u0111\u1ea3m",
                -8.040990559734395
            ],
            [
                "\u2581behind",
                -8.812107640781873
            ],
            [
                "\u2581super",
                -8.85398803605699
            ],
            [
                "\u2581Thanh",
                -8.050114943639176
            ],
            [
                "\u2581program",
                -8.81794253465742
            ],
            [
                "\u2581m",
                -8.854838583292857
            ],
            [
                "\u2581c\u1ea1nh",
                -8.050463769894398
            ],
            [
                "\u2581today",
                -8.818203865925259
            ],
            [
                "\u2581d'avoir",
                -8.858831578371639
            ],
            [
                "\u2581c\u01b0",
                -8.050725576533221
            ],
            [
                "\u2581beautiful",
                -8.823741532078563
            ],
            [
                "\u2581Mon",
                -8.861521976757386
            ],
            [
                "\u2581l\u1ef1a",
                -8.05111438200704
            ],
            [
                "\u2581further",
                -8.824080033463435
            ],
            [
                "\u2581mots",
                -8.863093969832036
            ],
            [
                "\u2581Theo",
                -8.05433086782703
            ],
            [
                "\u2581knew",
                -8.824806804806727
            ],
            [
                "\u2581carte",
                -8.865632784049907
            ],
            [
                "\u2581ch\u1ebft",
                -8.054445296769098
            ],
            [
                "\u2581deal",
                -8.825303595247975
            ],
            [
                "\u2581!!!",
                -8.867406010560344
            ],
            [
                "\u2581ch\u1eafc",
                -8.058729763350446
            ],
            [
                "\u2581longer",
                -8.825451112994443
            ],
            [
                "\u2581Sur",
                -8.871690585924878
            ],
            [
                "\u2581\u00e2m",
                -8.063742891692558
            ],
            [
                "\u2581report",
                -8.828721114995611
            ],
            [
                "\u2581demander",
                -8.874344165749434
            ],
            [
                "\u2581ch\u00fa",
                -8.068319018333053
            ],
            [
                "\u2581that\u2019s",
                -8.82941419147683
            ],
            [
                "\u2581cr\u00e9er",
                -8.876582795224676
            ],
            [
                "\u2581s\u01a1",
                -8.0707850201447
            ],
            [
                "\u2581content",
                -8.829885683110758
            ],
            [
                "\u2581programme",
                -8.877418100626318
            ],
            [
                "\u2581h\u1ed7",
                -8.071659792486617
            ],
            [
                "\u2581event",
                -8.830661805188296
            ],
            [
                "\u2581Pas",
                -8.879500152977958
            ],
            [
                "\u2581\u0111\u1ea1t",
                -8.072332335929726
            ],
            [
                "\u2581members",
                -8.832939689525679
            ],
            [
                "\u2581p\u00e9riode",
                -8.88032742775692
            ],
            [
                "\u2581tho\u1ea1i",
                -8.0726624916914
            ],
            [
                "\u2581interesting",
                -8.833551918370638
            ],
            [
                "\u2581sait",
                -8.881194025215576
            ],
            [
                "\u2581\u0111a",
                -8.073242812716634
            ],
            [
                "\u2581me,",
                -8.834814605879066
            ],
            [
                "\u2581millions",
                -8.8830362213806
            ],
            [
                "\u2581tr\u1ea1ng",
                -8.074758089295651
            ],
            [
                "\u2581media",
                -8.83518818193379
            ],
            [
                "\u2581trouv\u00e9",
                -8.885717982940694
            ],
            [
                "\u2581v\u1ebb",
                -8.076012108466472
            ],
            [
                "\u2581soon",
                -8.83532149906252
            ],
            [
                "\u2581march\u00e9",
                -8.886696751258066
            ],
            [
                "\u2581kh\u1ea9u",
                -8.080469592653252
            ],
            [
                "\u2581needed",
                -8.837750001031866
            ],
            [
                "\u2581exemple",
                -8.88697451789702
            ],
            [
                "\u2581c\u00e2y",
                -8.081623153857562
            ],
            [
                "\u2581usually",
                -8.838259705153165
            ],
            [
                "\u2581mati\u00e8re",
                -8.888373951580308
            ],
            [
                "\u2581kh\u1ecfi",
                -8.083833725621853
            ],
            [
                "\u2581control",
                -8.838978063934704
            ],
            [
                "\u2581d\u00e9",
                -8.888673312677527
            ],
            [
                "\u2581\u0111\u00e2u",
                -8.085339058000143
            ],
            [
                "\u2581maybe",
                -8.839216881425909
            ],
            [
                "\u2581pr\u00e9sente",
                -8.892243728894156
            ],
            [
                "\u2581ng\u00e0nh",
                -8.085437722844906
            ],
            [
                "\u2581ready",
                -8.844115268826267
            ],
            [
                "\u2581vont",
                -8.894020675373671
            ],
            [
                "\u2581kia",
                -8.08645410806179
            ],
            [
                "\u2581building",
                -8.853786621613766
            ],
            [
                "\u2581cas,",
                -8.895725383657355
            ],
            [
                "\u2581ngh\u1ecb",
                -8.086802760792386
            ],
            [
                "\u2581ways",
                -8.85450132014761
            ],
            [
                "\u2581vivre",
                -8.896067647606152
            ],
            [
                "\u2581th\u1ea5t",
                -8.090123061633031
            ],
            [
                "\u2581myself",
                -8.855624686363756
            ],
            [
                "\u2581pr\u00e9sident",
                -8.896432089139504
            ],
            [
                "\u2581Cho",
                -8.09313444110772
            ],
            [
                "\u2581front",
                -8.858555602331712
            ],
            [
                "\u2581dois",
                -8.897698319116468
            ],
            [
                "\u2581ti\u1ec7n",
                -8.102242719544185
            ],
            [
                "\u2581products",
                -8.863816166115653
            ],
            [
                "\u2581propre",
                -8.904074748995058
            ],
            [
                "\u2581g\u1eedi",
                -8.104361343317555
            ],
            [
                "th",
                -8.867496700263752
            ],
            [
                "\u258125",
                -8.904227263215033
            ],
            [
                "\u2581\u0111\u1ecdc",
                -8.105793805094208
            ],
            [
                "\u2581chance",
                -8.868101010636154
            ],
            [
                "\u2581P",
                -8.90552495255135
            ],
            [
                "\u2581\u00e1o",
                -8.107761339499671
            ],
            [
                "\u2581American",
                -8.86957098199824
            ],
            [
                "\u2581mot",
                -8.906057390621257
            ],
            [
                "\u2581Nh\u1eadt",
                -8.108956791510542
            ],
            [
                "\u2581wait",
                -8.870602482067067
            ],
            [
                "\u2581Ca",
                -8.908100329832987
            ],
            [
                "\u2581v\u1eadn",
                -8.112196525637474
            ],
            [
                "\u2581product",
                -8.871407617173274
            ],
            [
                "\u2581s\u00fbr",
                -8.909157711633448
            ],
            [
                "\u2581nhi\u00ean,",
                -8.113588706823972
            ],
            [
                "\u2581issues",
                -8.874909985776938
            ],
            [
                "\u2581qu'un",
                -8.910468876371755
            ],
            [
                "\u2581d\u01b0\u1ee1ng",
                -8.120308640325586
            ],
            [
                "\u2581true",
                -8.875931836939275
            ],
            [
                "\u2581Du",
                -8.910967591975865
            ],
            [
                "\u2581Kinh",
                -8.122385138445193
            ],
            [
                "\u2581issue",
                -8.877276418503039
            ],
            [
                "\u2581nouveaux",
                -8.911718965007388
            ],
            [
                "\u2581V\u1edbi",
                -8.124776501056878
            ],
            [
                "w",
                -8.87771167799607
            ],
            [
                "\u2581bout",
                -8.911724527832558
            ],
            [
                "\u2581kh\u1ecfe",
                -8.12500136720553
            ],
            [
                "\u2581definitely",
                -8.878024917916843
            ],
            [
                "\u2581Ma",
                -8.912262638786077
            ],
            [
                "\u2581m\u1eabu",
                -8.126328119562524
            ],
            [
                "\u2581study",
                -8.87814944041452
            ],
            [
                "\u2581peur",
                -8.912282962821239
            ],
            [
                "\u2581ph\u00f9",
                -8.127444215011968
            ],
            [
                "\u2581city",
                -8.881731949448064
            ],
            [
                "\u2581avis",
                -8.913157259532213
            ],
            [
                "\u2581di",
                -8.128599227923676
            ],
            [
                "\u2581words",
                -8.882755752051509
            ],
            [
                "\u2581travers",
                -8.913558034690768
            ],
            [
                "\u2581ch\u1ea1y",
                -8.128746917624056
            ],
            [
                "\u2581companies",
                -8.883064528033449
            ],
            [
                "\u2581laquelle",
                -8.913761806326168
            ],
            [
                "\u2581nam",
                -8.131367519492178
            ],
            [
                "\u2581Of",
                -8.884409643224451
            ],
            [
                "\u2581devrait",
                -8.915544099141657
            ],
            [
                "\u2581\u00edch",
                -8.13577251889989
            ],
            [
                "\u2581running",
                -8.885151288019511
            ],
            [
                "\u2581difficile",
                -8.916086180305811
            ],
            [
                "\u2581ch\u1ed7",
                -8.139216886431301
            ],
            [
                "\u2581complete",
                -8.886840543835554
            ],
            [
                "\u2581photo",
                -8.919639727384702
            ],
            [
                "\u2581k\u1ec3",
                -8.139512541080666
            ],
            [
                "\u2581common",
                -8.89008462509527
            ],
            [
                "\u2581Conseil",
                -8.920318134891748
            ],
            [
                "\u2581nh\u1edb",
                -8.14168704364789
            ],
            [
                "\u2581Why",
                -8.891001133272322
            ],
            [
                "\u2581haut",
                -8.923699524606512
            ],
            [
                "\u2581l\u00e2u",
                -8.142863703472708
            ],
            [
                "\u2581takes",
                -8.891675702744852
            ],
            [
                "\u2581fran\u00e7ais",
                -8.926275907532386
            ],
            [
                "\u2581lo",
                -8.153126636188546
            ],
            [
                "\u2581felt",
                -8.893650652775584
            ],
            [
                "\u2581retour",
                -8.926389444747958
            ],
            [
                "\u2581li\u1ec1n",
                -8.155659839018261
            ],
            [
                "\u2581choose",
                -8.89395277572102
            ],
            [
                "\u2581ca",
                -8.935220209846047
            ],
            [
                "\u2581\u0110\u1ee9c",
                -8.155896348781123
            ],
            [
                "\u2581design",
                -8.894001898735564
            ],
            [
                "\u25812017",
                -8.936318944283745
            ],
            [
                "\u2581T\u1eeb",
                -8.15691879074379
            ],
            [
                "\u2581talking",
                -8.89591122891515
            ],
            [
                "\u2581prend",
                -8.937238033900481
            ],
            [
                "\u2581s\u1ebb",
                -8.15915244552954
            ],
            [
                "\u2581year.",
                -8.90047134107265
            ],
            [
                "\u2581aupr\u00e8s",
                -8.942024358957987
            ],
            [
                "\u2581V\u00ec",
                -8.159685216677264
            ],
            [
                "\u2581major",
                -8.902177881528317
            ],
            [
                "\u2581n\u00e9cessaire",
                -8.942739619464684
            ],
            [
                "\u2581m\u1ea5y",
                -8.159948794755934
            ],
            [
                "!!",
                -8.902319905975363
            ],
            [
                "\u2581juillet",
                -8.946155838098548
            ],
            [
                "\u2581h\u1ed3i",
                -8.160105074926161
            ],
            [
                "\u2581again.",
                -8.90323276955968
            ],
            [
                "\u2581parents",
                -8.94631638043374
            ],
            [
                "\u2581ph\u1ea3n",
                -8.160544384313923
            ],
            [
                "\u2581friend",
                -8.903416865981724
            ],
            [
                "les",
                -8.946399395232872
            ],
            [
                "\u2581xa",
                -8.165234613247339
            ],
            [
                "\u2581well.",
                -8.90398043076579
            ],
            [
                "\u2581venir",
                -8.94857570330615
            ],
            [
                "\u2581Ch\u01b0\u01a1ng",
                -8.16776789962105
            ],
            [
                "\u2581later",
                -8.905203063385883
            ],
            [
                "\u2581^^",
                -8.949245467845856
            ],
            [
                "\u2581thi\u1ebfu",
                -8.169089498262801
            ],
            [
                "\u2581view",
                -8.905939878484181
            ],
            [
                "\u2581changer",
                -8.950335584531725
            ],
            [
                "\u2581v\u00f9ng",
                -8.169576066758781
            ],
            [
                "\u2581risk",
                -8.907670640476882
            ],
            [
                "\u2581n\u2019ai",
                -8.95352506341064
            ],
            [
                "\u201d.",
                -8.17030816646436
            ],
            [
                "\u2581him.",
                -8.910402066935202
            ],
            [
                "\u2581l'a",
                -8.955345084400744
            ],
            [
                "\u2581tuy\u1ec7t",
                -8.171281999148581
            ],
            [
                "\u2581By",
                -8.911332575210322
            ],
            [
                "\u2581manque",
                -8.955983462622257
            ],
            [
                "\u2581ph\u1ee7",
                -8.171543944141725
            ],
            [
                "\u2581opportunity",
                -8.912662634751742
            ],
            [
                "\u2581fille",
                -8.957298858316424
            ],
            [
                "\u2581B\u1ea3n",
                -8.172079070817192
            ],
            [
                "\u2581stuff",
                -8.915393519233376
            ],
            [
                "\u2581centre",
                -8.958548421064876
            ],
            [
                "\u2581t\u00edn",
                -8.17398139051341
            ],
            [
                "\u2581outside",
                -8.915903621516607
            ],
            [
                "\u2581existe",
                -8.959436811987372
            ],
            [
                "\u2581t\u1ed1",
                -8.181524202796586
            ],
            [
                "\u2581value",
                -8.921911823562674
            ],
            [
                "\u2581tellement",
                -8.95956622194911
            ],
            [
                "\u2581r\u1ed9ng",
                -8.18494602237471
            ],
            [
                "\u2581financial",
                -8.92305271431941
            ],
            [
                "\u2581septembre",
                -8.960126137473809
            ],
            [
                "\u2581\u00d4ng",
                -8.185479839192718
            ],
            [
                "\u2581United",
                -8.923275774873694
            ],
            [
                "\u2581souhaite",
                -8.960394315441995
            ],
            [
                "\u2581vi\u1ec7n",
                -8.186410016731674
            ],
            [
                "\u2581His",
                -8.926174827305086
            ],
            [
                "\u2581points",
                -8.96040491947079
            ],
            [
                "\u2581V\u00e0",
                -8.186412520480506
            ],
            [
                "\u2581sense",
                -8.92822690358187
            ],
            [
                "ation",
                -8.96145328313068
            ],
            [
                "\u2581\u0111\u00f4i",
                -8.186929467327731
            ],
            [
                "\u2581day.",
                -8.932315787131733
            ],
            [
                "\u2581activit\u00e9s",
                -8.962328383737205
            ],
            [
                "\u2581Trang",
                -8.188705755510288
            ],
            [
                "\u2581tried",
                -8.933235285630579
            ],
            [
                "\u2581utiliser",
                -8.963885778320854
            ],
            [
                "\u2581v\u00e0i",
                -8.190253615240382
            ],
            [
                "\u2581weeks",
                -8.936916431824956
            ],
            [
                "\u00bb",
                -8.964511070191286
            ],
            [
                "\u2581kh\u00e1",
                -8.192245128001824
            ],
            [
                "\u2581word",
                -8.944361950879832
            ],
            [
                "\u2581presque",
                -8.96532943760179
            ],
            [
                "\u2581Ch\u00fang",
                -8.195103789437933
            ],
            [
                "\u2581consider",
                -8.944647616957369
            ],
            [
                "\u2581*",
                -8.96661198926805
            ],
            [
                "\u2581c\u1eadp",
                -8.197045251648078
            ],
            [
                "\u2581key",
                -8.946422818375405
            ],
            [
                "\u2581cr\u00e9ation",
                -8.966840645219957
            ],
            [
                "\u2581Thi\u00ean",
                -8.198614488919663
            ],
            [
                "\u2581saying",
                -8.946631503127033
            ],
            [
                "\u2581terme",
                -8.972697279775957
            ],
            [
                "\u2581\u00e1nh",
                -8.199894191758396
            ],
            [
                "!\"",
                -8.946990346910946
            ],
            [
                "\u2581effet,",
                -8.972942619660706
            ],
            [
                "\u2581gi\u00e1c",
                -8.20054473506929
            ],
            [
                "\u2581certainly",
                -8.947422281846565
            ],
            [
                "\u2581jusqu\u2019\u00e0",
                -8.97996628930002
            ],
            [
                "\u2581m\u00f4i",
                -8.200709095170877
            ],
            [
                "\u2581exactly",
                -8.948755407075135
            ],
            [
                "\u2581conseil",
                -8.980901336697364
            ],
            [
                "\u2581ng\u1ed3i",
                -8.200795230092588
            ],
            [
                "\u2581works",
                -8.948985213351554
            ],
            [
                "\u2581soir",
                -8.983830691009889
            ],
            [
                "\u2581C\u00f4",
                -8.201072496690466
            ],
            [
                "\u2581decided",
                -8.95214452579951
            ],
            [
                "\u2581nuit",
                -8.984380114973023
            ],
            [
                "\u2581b\u00f3ng",
                -8.20381219224159
            ],
            [
                "\u2014",
                -8.952232878391243
            ],
            [
                "\u2581fort",
                -8.984474610434983
            ],
            [
                "\u2581d\u00e0nh",
                -8.203968716328696
            ],
            [
                "\u2581goes",
                -8.952286911968292
            ],
            [
                "\u2581fond",
                -8.988081284666976
            ],
            [
                "\u2581Th\u1ebf",
                -8.207965046601295
            ],
            [
                "\u2581training",
                -8.955514896639786
            ],
            [
                "\u2581jusqu'\u00e0",
                -8.988555726270036
            ],
            [
                "\u2581tr\u00e1i",
                -8.208534418990194
            ],
            [
                "\u2581phone",
                -8.955730204519584
            ],
            [
                "\u2581histoire",
                -8.989279130283016
            ],
            [
                "\u2581b\u00e1c",
                -8.210691323046769
            ],
            [
                "\u2581development",
                -8.95580596546647
            ],
            [
                "\u2581regard",
                -8.990029347805333
            ],
            [
                "\u2581_",
                -8.213877761698148
            ],
            [
                "\u2581turned",
                -8.957098489736051
            ],
            [
                "\u2581eux",
                -8.993069593762137
            ],
            [
                "\u2581ph\u00e1",
                -8.214357845285411
            ],
            [
                "\u2581I'd",
                -8.958417154132352
            ],
            [
                "ai",
                -8.99360774514177
            ],
            [
                "\u2581u\u1ed1ng",
                -8.216480822703875
            ],
            [
                "\u2581search",
                -8.960680500378706
            ],
            [
                "t\u00e9",
                -8.994040831554454
            ],
            [
                "\u2581l\u1edbp",
                -8.222737053238344
            ],
            [
                "\u2581answer",
                -8.961165007495868
            ],
            [
                "\u2581concernant",
                -8.994718470514552
            ],
            [
                "\u2581Ho\u00e0ng",
                -8.22435472673382
            ],
            [
                "\u2581medical",
                -8.963980272883264
            ],
            [
                "\u2581meilleur",
                -8.995085865010118
            ],
            [
                "ng",
                -8.225153288984991
            ],
            [
                "\u2581interest",
                -8.96419368482154
            ],
            [
                "\u2581fut",
                -8.998031985048144
            ],
            [
                "\u2581ri\u00eang",
                -8.225773933139545
            ],
            [
                "\u2581specific",
                -8.967234043089492
            ],
            [
                "\u00e9e",
                -8.998963509533684
            ],
            [
                "\u2581\u0111em",
                -8.229527145863306
            ],
            [
                "\u2581among",
                -8.967613642803503
            ],
            [
                "\u2581mode",
                -9.001415106920444
            ],
            [
                "\u2581lao",
                -8.230540489496285
            ],
            [
                "\u2581price",
                -8.96853896870034
            ],
            [
                "\u2581articles",
                -9.003355919928335
            ],
            [
                "\u2581n\u1eb1m",
                -8.235666039666597
            ],
            [
                "\u2581similar",
                -8.969634687772627
            ],
            [
                "\u2581forum",
                -9.003418643026684
            ],
            [
                "\u2581m\u00ecnh.",
                -8.235889127466256
            ],
            [
                "\u2581month",
                -8.971715973867742
            ],
            [
                "\u2581laisse",
                -9.005787729923844
            ],
            [
                "\u2581\u0110\u1ec3",
                -8.237504029630056
            ],
            [
                "\u2581lost",
                -8.971767936478702
            ],
            [
                "\u2581h",
                -9.006232604230066
            ],
            [
                "\u2581tr\u00f2",
                -8.238018041893335
            ],
            [
                "\u2581Even",
                -8.972076084677928
            ],
            [
                "\u2581nombreuses",
                -9.010062338458475
            ],
            [
                "\u2581l\u1ebd",
                -8.239433733787623
            ],
            [
                "\u2581difficult",
                -8.973259335882434
            ],
            [
                "\u2581jouer",
                -9.012705404843764
            ],
            [
                "\u2581c\u1ed9ng",
                -8.241532132763417
            ],
            [
                "\u2581age",
                -8.974573712729693
            ],
            [
                "\u2581facile",
                -9.013322626223964
            ],
            [
                "\u2581\u0111\u00e1",
                -8.242603587057703
            ],
            [
                "\u2581white",
                -8.975056426558401
            ],
            [
                "\u2581pratique",
                -9.013674660818841
            ],
            [
                "\u2581ng\u1ee7",
                -8.244261821706646
            ],
            [
                "\u2581space",
                -8.975610913017961
            ],
            [
                "\u2581personnel",
                -9.020405361349345
            ],
            [
                "\u2581s\u1ee3",
                -8.257129402683963
            ],
            [
                "\u2581follow",
                -8.975913203608433
            ],
            [
                "\u2581peine",
                -9.020933003451294
            ],
            [
                "\u2581ngo\u1ea1i",
                -8.258317746705186
            ],
            [
                "as",
                -8.976562355351513
            ],
            [
                "\u2581vacances",
                -9.02153216556286
            ],
            [
                "\u2581\u0111o\u1ea1n",
                -8.263269461258075
            ],
            [
                "\u2581up.",
                -8.977273077079673
            ],
            [
                "\u2581avril",
                -9.02241470309458
            ],
            [
                "\u2581\u0110\u1ed3ng",
                -8.264652055179782
            ],
            [
                "\u2581feeling",
                -8.978790395161107
            ],
            [
                "\u2581rester",
                -9.02246070334301
            ],
            [
                "\u2581Ch\u1ec9",
                -8.268093065300251
            ],
            [
                "\u2581professional",
                -8.979269040555772
            ],
            [
                "\u258119",
                -9.022673923971533
            ],
            [
                "\u2581k\u00edch",
                -8.26839832874908
            ],
            [
                "\u2581eyes",
                -8.979294129170702
            ],
            [
                "\u2581soient",
                -9.022828112870119
            ],
            [
                "\u2581Gi\u00e1o",
                -8.270425318526916
            ],
            [
                "to",
                -8.981387008773074
            ],
            [
                "\u2581f\u00e9vrier",
                -9.025053239391873
            ],
            [
                "\u2581Tr\u1ea7n",
                -8.27667490715517
            ],
            [
                "\u2581May",
                -8.981868359247636
            ],
            [
                "\u2581hommes",
                -9.025166515054522
            ],
            [
                "\u2581Ch\u00faa",
                -8.277199215756093
            ],
            [
                "\u2581written",
                -8.983196096426704
            ],
            [
                "\u2581c\u0153ur",
                -9.028071725530847
            ],
            [
                "\u2581s\u01b0",
                -8.278740522114012
            ],
            [
                "\u2581ago",
                -8.984140707342167
            ],
            [
                "\u2581diff\u00e9rentes",
                -9.028891752422641
            ],
            [
                "\u2581ch\u1eefa",
                -8.280120923101984
            ],
            [
                "\u2581build",
                -8.986304047134594
            ],
            [
                "\u2581entreprises",
                -9.030144520468642
            ],
            [
                "\u2581\u0110\u00e2y",
                -8.281587213572838
            ],
            [
                "\u2581receive",
                -8.98675876403017
            ],
            [
                "\u2581d\u00e9cision",
                -9.031420817653828
            ],
            [
                "\u2581\u0111\u1ea5u",
                -8.281588607789246
            ],
            [
                "\u2581there.",
                -8.988714038686966
            ],
            [
                "\u2581ensuite",
                -9.032855797869917
            ],
            [
                "\u2581\u0111\u00e1p",
                -8.285864590019646
            ],
            [
                "\u2581range",
                -8.98968263192361
            ],
            [
                "\u2581r\u00e9sultats",
                -9.033619949649935
            ],
            [
                "\u2581g\u00f3p",
                -8.290588358703454
            ],
            [
                "\u2581required",
                -8.991054110536425
            ],
            [
                "\u2581DE",
                -9.033678277587711
            ],
            [
                "\u2581Hoa",
                -8.290604667715352
            ],
            [
                "\u2019ve",
[...]
