{
    "version": "1.0",
    "truncation": null,
    "padding": null,
    "added_tokens": [
        {
            "id": 0,
            "content": "[UNK]",
            "single_word": false,
            "lstrip": false,
            "rstrip": false,
            "normalized": false,
            "special": true
        },
        {
            "id": 1,
            "content": "[CLS]",
            "single_word": false,
            "lstrip": false,
            "rstrip": false,
            "normalized": false,
            "special": true
        },
        {
            "id": 2,
            "content": "[SEP]",
            "single_word": false,
            "lstrip": false,
            "rstrip": false,
            "normalized": false,
            "special": true
        },
        {
            "id": 3,
            "content": "[PAD]",
            "single_word": false,
            "lstrip": false,
            "rstrip": false,
            "normalized": false,
            "special": true
        },
        {
            "id": 4,
            "content": "[MASK]",
            "single_word": false,
            "lstrip": false,
            "rstrip": false,
            "normalized": false,
            "special": true
        }
    ],
    "normalizer": {
        "type": "Sequence",
        "normalizers": [
            {
                "type": "Nmt"
            },
            {
                "type": "NFKC"
            },
            {
                "type": "Replace",
                "pattern": {
                    "Regex": " {2,}"
                },
                "content": " "
            }
        ]
    },
    "pre_tokenizer": {
        "type": "Metaspace",
        "replacement": "\u2581",
        "prepend_scheme": "always",
        "split": true
    },
    "post_processor": null,
    "decoder": {
        "type": "Metaspace",
        "replacement": "\u2581",
        "prepend_scheme": "always",
        "split": true
    },
    "model": {
        "type": "Unigram",
        "unk_id": null,
        "vocab": [
            [
                "[UNK]",
                0.0
            ],
            [
                "[CLS]",
                0.0
            ],
            [
                "[SEP]",
                0.0
            ],
            [
                "[PAD]",
                0.0
            ],
            [
                "\u2581",
                -3.278125178439371
            ],
            [
                "\u2581the",
                -3.3213307409293424
            ],
            [
                "\u2581to",
                -3.683455606663033
            ],
            [
                ",",
                -3.7852515737266117
            ],
            [
                "\u2581and",
                -3.8688959012872495
            ],
            [
                ".",
                -3.9114850770455387
            ],
            [
                "\u2581of",
                -3.9362615846777693
            ],
            [
                "\u2581a",
                -3.951002574692369
            ],
            [
                "\u2581in",
                -4.372584402010379
            ],
            [
                "\u2581I",
                -4.561387321364583
            ],
            [
                "\u2581is",
                -4.622816178173261
            ],
            [
                "\u2581you",
                -4.6983288197787445
            ],
            [
                "\u2581that",
                -4.70413307979776
            ],
            [
                "\u2581for",
                -4.732393596384391
            ],
            [
                "s",
                -5.0169894365799035
            ],
            [
                "\u2581on",
                -5.082556473431547
            ],
            [
                "\u2581with",
                -5.112540725115071
            ],
            [
                "\u2581it",
                -5.132782587456219
            ],
            [
                "\u2581be",
                -5.152803597774341
            ],
            [
                "\u2581are",
                -5.254249071330939
            ],
            [
                "\u2581have",
                -5.304062593501101
            ],
            [
                "\u2581your",
                -5.378303734544144
            ],
            [
                "\u2581this",
                -5.388359770470274
            ],
            [
                "\u2581as",
                -5.403549811507842
            ],
            [
                "\u2581was",
                -5.449985719383982
            ],
            [
                "\u2581or",
                -5.565794513953712
            ],
            [
                "\u2581The",
                -5.576907571979227
            ],
            [
                "\u2581not",
                -5.587260915900215
            ],
            [
                "\u2581at",
                -5.618597965988872
            ],
            [
                "\u2581will",
                -5.746927273632396
            ],
            [
                "\u2581from",
                -5.771090836827424
            ],
            [
                "\u2581can",
                -5.7733693834026205
            ],
            [
                "\u2581my",
                -5.8089696387198835
            ],
            [
                "\u2581but",
                -5.811076540048473
            ],
            [
                "\u2581we",
                -5.863618294796014
            ],
            [
                "\u2581an",
                -5.8726516853584325
            ],
            [
                "\u2581by",
                -5.902621472210056
            ],
            [
                "\u2581all",
                -5.940600500154542
            ],
            [
                "\u2581they",
                -6.004265680685874
            ],
            [
                ":",
                -6.010841464904026
            ],
            [
                "\u2581about",
                -6.036019031634542
            ],
            [
                "?",
                -6.0495051339201655
            ],
            [
                "\u2581so",
                -6.063599299827235
            ],
            [
                "\u2581he",
                -6.084724543365944
            ],
            [
                "\u2581more",
                -6.105830522179373
            ],
            [
                "\u2581one",
                -6.124348061929499
            ],
            [
                "\u2581has",
                -6.1464942625144285
            ],
            [
                "\u2581do",
                -6.213668451406351
            ],
            [
                "\u2581their",
                -6.21536379676936
            ],
            [
                "!",
                -6.232898114271713
            ],
            [
                "\u2581out",
                -6.234386231335913
            ],
            [
                "\u2581like",
                -6.242235313852518
            ],
            [
                "\u2581if",
                -6.261474071627999
            ],
            [
                "\u2581his",
                -6.265740598198228
            ],
            [
                "\u2581up",
                -6.285028594788892
            ],
            [
                "\u2581what",
                -6.300722254940299
            ],
            [
                "\u2581our",
                -6.308993472736658
            ],
            [
                "\u2581would",
                -6.340318358488435
            ],
            [
                "ing",
                -6.34586645718451
            ],
            [
                "\u2581just",
                -6.353841177979408
            ],
            [
                "\u2581who",
                -6.366779095032291
            ],
            [
                "\u2581had",
                -6.391102504693043
            ],
            [
                "\u2581been",
                -6.401754705514426
            ],
            [
                "\u2581me",
                -6.446824526271099
            ],
            [
                "\u2581get",
                -6.4474003963305595
            ],
            [
                "\u2581some",
                -6.452062774957067
            ],
            [
                "\u2581which",
                -6.453836890376195
            ],
            [
                "\u2581when",
                -6.457576535196212
            ],
            [
                "-",
                -6.497090740574686
            ],
            [
                "\u2019s",
                -6.5221942438266325
            ],
            [
                "\u2581her",
                -6.542157215116177
            ],
            [
                "\u2581time",
                -6.543947579160049
            ],
            [
                ")",
                -6.55253461584662
            ],
            [
                "\u2581there",
                -6.5622296612536655
            ],
            [
                "\u2581It",
                -6.566148787116573
            ],
            [
                "\u2581were",
                -6.597256132102681
            ],
            [
                "\u2581other",
                -6.599317602158699
            ],
            [
                "a",
                -6.603064733860165
            ],
            [
                "\u2581any",
                -6.638733612694393
            ],
            [
                "\u2581how",
                -6.647382624230989
            ],
            [
                "\u2581This",
                -6.647752210256314
            ],
            [
                "ed",
                -6.648919906296161
            ],
            [
                "t",
                -6.660478884898668
            ],
            [
                "\u2581people",
                -6.677408801900365
            ],
            [
                "\u2581than",
                -6.68298552156954
            ],
            [
                "\u2581We",
                -6.686899329848503
            ],
            [
                "\u2581no",
                -6.709491498298798
            ],
            [
                "\u2581them",
                -6.71515090368481
            ],
            [
                "...",
                -6.715352897253636
            ],
            [
                "\u2581You",
                -6.721777101684937
            ],
            [
                "\u2581also",
                -6.725095483479683
            ],
            [
                "'s",
                -6.727825998467701
            ],
            [
                "d",
                -6.732151221136805
            ],
            [
                "\u2581A",
                -6.735329160184769
            ],
            [
                "\u2581know",
                -6.746099779445325
            ],
            [
                "\u2581make",
                -6.770388828701996
            ],
            [
                "\u2581she",
                -6.771237178980398
            ],
            [
                "\u2581into",
                -6.775471993043251
            ],
            [
                "\u2581If",
                -6.78990260253487
            ],
            [
                "\u2581very",
                -6.802465993960626
            ],
            [
                "e",
                -6.807902708337425
            ],
            [
                "\u2581only",
                -6.8331527756222545
            ],
            [
                "\u2581see",
                -6.859251178469799
            ],
            [
                ";",
                -6.87273196010174
            ],
            [
                "\u2581new",
                -6.874249964524772
            ],
            [
                "\u2581In",
                -6.874788627409963
            ],
            [
                "\u2581over",
                -6.889715768230575
            ],
            [
                "\u2581think",
                -6.901044674714527
            ],
            [
                "\u2581good",
                -6.911058926818454
            ],
            [
                "\u2581could",
                -6.923469216862747
            ],
            [
                "\u2581much",
                -6.92967760578091
            ],
            [
                "\u2581may",
                -6.942805532581442
            ],
            [
                "s,",
                -6.968576484557822
            ],
            [
                "\u2581these",
                -6.977782670299053
            ],
            [
                "\u2581need",
                -6.9825408014666515
            ],
            [
                "\"",
                -6.984022088764945
            ],
            [
                "\u2581really",
                -7.007055802407516
            ],
            [
                "\u2581want",
                -7.01471958382715
            ],
            [
                "\u2581first",
                -7.0271886360789555
            ],
            [
                "\u2581should",
                -7.032685651982408
            ],
            [
                "\u2581-",
                -7.0380174294424105
            ],
            [
                "\u2581many",
                -7.042788586284825
            ],
            [
                "\u2581most",
                -7.0459284686585075
            ],
            [
                "\u2581even",
                -7.054021199956788
            ],
            [
                "\u2581us",
                -7.059254665326959
            ],
            [
                "\u2581way",
                -7.063211817340392
            ],
            [
                "\u2581back",
                -7.066572804391917
            ],
            [
                "y",
                -7.06743766009836
            ],
            [
                "\u2581He",
                -7.074001813185685
            ],
            [
                "\u2581And",
                -7.0790125632516006
            ],
            [
                "\u2581because",
                -7.087217572555243
            ],
            [
                "\u2581(",
                -7.115915238492757
            ],
            [
                "s.",
                -7.11632634837674
            ],
            [
                "\u2581\u2013",
                -7.125396520324244
            ],
            [
                "\u2581work",
                -7.127600525055197
            ],
            [
                "\u201d",
                -7.129311577884122
            ],
            [
                "\u2581use",
                -7.129923743434961
            ],
            [
                "\u2581go",
                -7.130003260987042
            ],
            [
                "\u2581am",
                -7.1401801133039395
            ],
            [
                "\u2581take",
                -7.141608915607151
            ],
            [
                "\u2581But",
                -7.157866757552426
            ],
            [
                "\u2581said",
                -7.174606882993375
            ],
            [
                "\u2581then",
                -7.176018564850022
            ],
            [
                "o",
                -7.1781442578615735
            ],
            [
                "\u2581going",
                -7.1787837138742425
            ],
            [
                "\u2581where",
                -7.180825137249702
            ],
            [
                "\u2581two",
                -7.195646224321276
            ],
            [
                "\u2581\u201c",
                -7.201422013109623
            ],
            [
                "\u2581after",
                -7.209916960526247
            ],
            [
                "\u2581its",
                -7.211882575851348
            ],
            [
                "\u2581those",
                -7.214020685489526
            ],
            [
                "\u2581\"",
                -7.229896313589833
            ],
            [
                "\u2581being",
                -7.2302753357670735
            ],
            [
                "\u2581help",
                -7.240339306966305
            ],
            [
                "\u2581great",
                -7.247597218848567
            ],
            [
                "\u2581through",
                -7.2660198007261165
            ],
            [
                "i",
                -7.2742006299796085
            ],
            [
                "\u2581now",
                -7.276957815964417
            ],
            [
                "\u2581such",
                -7.28063462297845
            ],
            [
                "\u2581him",
                -7.291365109643245
            ],
            [
                ".\u201d",
                -7.301360781668148
            ],
            [
                "\u2581find",
                -7.315337118636952
            ],
            [
                ".\"",
                -7.316711162164841
            ],
            [
                "\u2581before",
                -7.333709386322603
            ],
            [
                "\u2581still",
                -7.337778327247481
            ],
            [
                "\u2581well",
                -7.353611708573165
            ],
            [
                "/",
                -7.357505793170905
            ],
            [
                "\u2581made",
                -7.363656489152586
            ],
            [
                "\u2581look",
                -7.377028302028426
            ],
            [
                "\u2581did",
                -7.3784647584757455
            ],
            [
                "\u2581best",
                -7.384619484537543
            ],
            [
                "n",
                -7.388174885565698
            ],
            [
                "\u2581years",
                -7.3886243806889595
            ],
            [
                "\u2581love",
                -7.394402676457883
            ],
            [
                "'",
                -7.400353029176038
            ],
            [
                "\u2581little",
                -7.402732592329304
            ],
            [
                "\u2581There",
                -7.403639231802094
            ],
            [
                "\u2581right",
                -7.406674459847844
            ],
            [
                "\u2581something",
                -7.419011426572906
            ],
            [
                "\u2581don't",
                -7.42341817383339
            ],
            [
                "\u2581What",
                -7.428604878100238
            ],
            [
                "r",
                -7.429928814727422
            ],
            [
                "\u2581last",
                -7.432231705103577
            ],
            [
                "\u2581few",
                -7.434055401890385
            ],
            [
                "\u2581I'm",
                -7.435159553193639
            ],
            [
                "\u2581here",
                -7.436969033264976
            ],
            [
                "\u2581own",
                -7.451328183376713
            ],
            [
                "\u2581things",
                -7.472007633166163
            ],
            [
                "\u2581down",
                -7.472126485765074
            ],
            [
                "\u2581They",
                -7.474442234780106
            ],
            [
                "\u2581come",
                -7.492883746039345
            ],
            [
                "\u2581around",
                -7.513716219078713
            ],
            [
                "ly",
                -7.52477901484616
            ],
            [
                "\u2581same",
                -7.531457267676341
            ],
            [
                "\u2581off",
                -7.542625763232184
            ],
            [
                "\u2581sure",
                -7.543331656165291
            ],
            [
                "\u2581always",
                -7.548476383197842
            ],
            [
                "\u2581never",
                -7.551026494055108
            ],
            [
                "\u2581got",
                -7.557959642888248
            ],
            [
                "\u2581every",
                -7.561033028360315
            ],
            [
                "\u2581don\u2019t",
                -7.56575401600168
            ],
            [
                "\u2581day",
                -7.568861323062265
            ],
            [
                "\u2581lot",
                -7.5827490256430465
            ],
            [
                "\u2581long",
                -7.583815184561043
            ],
            [
                "\u2581say",
                -7.5907916305897185
            ],
            [
                "\u2581it.",
                -7.593337826474448
            ],
            [
                "\u2581while",
                -7.597329534781757
            ],
            [
                "\u2581So",
                -7.59786551755359
            ],
            [
                "\u2581For",
                -7.600294835909345
            ],
            [
                "m",
                -7.6020425760845995
            ],
            [
                "\u2581used",
                -7.605011455452384
            ],
            [
                "\u2581too",
                -7.605911793369446
            ],
            [
                "\u2581information",
                -7.6106395924847625
            ],
            [
                "\u2581each",
                -7.624939973123171
            ],
            [
                "\u2581As",
                -7.6254288851159195
            ],
            [
                "\u2581it's",
                -7.631658144344032
            ],
            [
                "\u2581might",
                -7.638919669970603
            ],
            [
                "\u2581must",
                -7.642684794583115
            ],
            [
                "\u2581part",
                -7.662877547490881
            ],
            [
                "\u2581I\u2019m",
                -7.666492398351869
            ],
            [
                "\u2581it\u2019s",
                -7.669248503222775
            ],
            [
                ").",
                -7.68831212546425
            ],
            [
                "\u2581better",
                -7.697021031968784
            ],
            [
                "er",
                -7.698163458892569
            ],
            [
                "\u2581does",
                -7.704704019328034
            ],
            [
                "\u2581next",
                -7.711862051510364
            ],
            [
                "\u2581year",
                -7.713352834424779
            ],
            [
                "\u2581When",
                -7.735331121929599
            ],
            [
                "\u2581different",
                -7.743554767101568
            ],
            [
                "\u2581give",
                -7.745214440308759
            ],
            [
                "\u2581She",
                -7.745512551201642
            ],
            [
                "\u2581feel",
                -7.74916356087668
            ],
            [
                "\u2581keep",
                -7.7641368798511845
            ],
            [
                "\u2581life",
                -7.764170052699493
            ],
            [
                "\u2581found",
                -7.765058804871611
            ],
            [
                "\u2581My",
                -7.786110444548717
            ],
            [
                "\u2581To",
                -7.796573458731105
            ],
            [
                "\u2581without",
                -7.7992044338213145
            ],
            [
                "\u2581home",
                -7.802494987362451
            ],
            [
                "\u2581i",
                -7.80556169362999
            ],
            [
                "\u2581another",
                -7.811609711671625
            ],
            [
                ",\u201d",
                -7.816244997448399
            ],
            [
                "\u2581why",
                -7.826520920523215
            ],
            [
                "\u2581both",
                -7.827479654780392
            ],
            [
                "\u2581place",
                -7.828963746428196
            ],
            [
                "\u2581looking",
                -7.837598939221277
            ],
            [
                "\u2581put",
                -7.844697887304582
            ],
            [
                "\u2581business",
                -7.85115060597869
            ],
            [
                "\u2581under",
                -7.856811477033704
            ],
            [
                "\u2581able",
                -7.857643657141008
            ],
            [
                "\u2581thing",
                -7.858223122721299
            ],
            [
                "on",
                -7.872703153312916
            ],
            [
                "\u2581since",
                -7.890988022742803
            ],
            [
                "\u2581read",
                -7.893141500111547
            ],
            [
                "\u2581between",
                -7.895497237279718
            ],
            [
                ",\"",
                -7.9045140137526335
            ],
            [
                "\u2581three",
                -7.930985167561211
            ],
            [
                "in",
                -7.9311458057952215
            ],
            [
                "\u2019",
                -7.943006316737243
            ],
            [
                "\u2581number",
                -7.945920077794959
            ],
            [
                "\u2581world",
                -7.94656551409202
            ],
            [
                "\u25812",
                -7.949525211249053
            ],
            [
                "\u2581end",
                -7.955233788427343
            ],
            [
                "\u2581How",
                -7.9605763340229565
            ],
            [
                "\u2581That",
                -7.964021858365113
            ],
            [
                "\u2581set",
                -7.970966483613934
            ],
            [
                "\u2581having",
                -7.981195319245234
            ],
            [
                "\u2581using",
                -7.987455565590391
            ],
            [
                "\u2581ever",
                -7.987856340578837
            ],
            [
                "\u2581start",
                -8.00505971888098
            ],
            [
                "\u2581free",
                -8.013861966533927
            ],
            [
                "\u2581getting",
                -8.015192523131082
            ],
            [
                "\u2581during",
                -8.015329443488264
            ],
            [
                "\u2581actually",
                -8.02515486145652
            ],
            [
                "\u2581important",
                -8.025498332768716
            ],
            [
                "\u2581making",
                -8.027589033459295
            ],
            [
                "\u2581thought",
                -8.030549427353606
            ],
            [
                "\u2581doing",
                -8.031334630858018
            ],
            [
                "f",
                -8.035574222802433
            ],
            [
                "\u2581old",
                -8.03577806853723
            ],
            [
                "\u2581working",
                -8.047234638369327
            ],
            [
                "\u25813",
                -8.056342638911422
            ],
            [
                "\u2581person",
                -8.05942108283051
            ],
            [
                "\u2581family",
                -8.060241825902919
            ],
            [
                "\u2581high",
                -8.061634979202399
            ],
            [
                "\u2581try",
                -8.07253932649217
            ],
            [
                "\u2581It\u2019s",
                -8.074370810512063
            ],
            [
                "\u2581enough",
                -8.07607890319474
            ],
            [
                "\u2581someone",
                -8.081691529451174
            ],
            [
                "\u2581least",
                -8.086122356848694
            ],
            [
                "\u2581already",
                -8.088148708942361
            ],
            [
                "\u2581let",
                -8.089044766773172
            ],
            [
                "\u2581big",
                -8.094938367821165
            ],
            [
                "\u2581tell",
                -8.09568336406793
            ],
            [
                "\u2581until",
                -8.097693404986645
            ],
            [
                "\u2581site",
                -8.099566729958235
            ],
            [
                "\u2581care",
                -8.102109176206302
            ],
            [
                "is",
                -8.106809125791175
            ],
            [
                "\u2581came",
                -8.108320998508376
            ],
            [
                "\u2581It's",
                -8.125600229080709
            ],
            [
                "\u25811",
                -8.125859533626452
            ],
            [
                "\u2581bit",
                -8.129292254893851
            ],
            [
                "\u2581days",
                -8.131479177440092
            ],
            [
                "al",
                -8.133806342559279
            ],
            [
                "\u2581believe",
                -8.138532472546983
            ],
            [
                "\u2581small",
                -8.143175563470587
            ],
            [
                "\u2581done",
                -8.143900159070858
            ],
            [
                "\u2581Do",
                -8.146340726650315
            ],
            [
                "\u2581show",
                -8.147299909645024
            ],
            [
                "\u2581hard",
                -8.148653506022903
            ],
            [
                "\u2581away",
                -8.154079191809858
            ],
            [
                "\u2581post",
                -8.16658000865997
            ],
            [
                "\u2581far",
                -8.174169482973234
            ],
            [
                "\u2581experience",
                -8.179439466457781
            ],
            [
                "\u2581man",
                -8.179883448025135
            ],
            [
                "h",
                -8.18166915095629
            ],
            [
                "\u2581All",
                -8.188524749636295
            ],
            [
                "\u2581change",
                -8.188706117320589
            ],
            [
                "\u2581kind",
                -8.19745733611976
            ],
            [
                "\u2581point",
                -8.201789915033757
            ],
            [
                "re",
                -8.202454969352596
            ],
            [
                "\u2581you\u2019re",
                -8.205261769884373
            ],
            [
                "\u2581full",
                -8.206315619856197
            ],
            [
                "\u258110",
                -8.211040232634511
            ],
            [
                "\u2581support",
                -8.211203631204105
            ],
            [
                "\u25815",
                -8.211287260981388
            ],
            [
                "\u2581provide",
                -8.211476088408817
            ],
            [
                "\u2581call",
                -8.212049463574278
            ],
            [
                "an",
                -8.217741419842394
            ],
            [
                "\u2581within",
                -8.221210836752892
            ],
            [
                "\u2581less",
                -8.221373221891115
            ],
            [
                "\u2581hope",
                -8.221571611554824
            ],
            [
                "\u2581New",
                -8.226828013670058
            ],
            [
                "\u2581means",
                -8.227943932886824
            ],
            [
                "\u2581anything",
                -8.22858026154705
            ],
            [
                "\u2581often",
                -8.229735620336953
            ],
            [
                "\u2581money",
                -8.230832698475071
            ],
            [
                "\u2581I've",
                -8.231881346860746
            ],
            [
                "\u2581went",
                -8.23463097040092
            ],
            [
                "\u2581against",
                -8.236346202408614
            ],
            [
                "\u2581\u2014",
                -8.242257481123328
            ],
            [
                "\u2581...",
                -8.24327271781779
            ],
            [
                "\u2581order",
                -8.246140635326359
            ],
            [
                "\u2581including",
                -8.247030177385328
            ],
            [
                "\u2581Your",
                -8.247815215073702
            ],
            [
                "\u2581available",
                -8.252586321282525
            ],
            [
                "\u2581school",
                -8.255126051118697
            ],
            [
                "c",
                -8.264218148087936
            ],
            [
                "),",
                -8.266960560740229
            ],
            [
                "\u2581\u2018",
                -8.270029906555726
            ],
            [
                "\u2581real",
                -8.270817920398512
            ],
            [
                "\u2581One",
                -8.275976512600707
            ],
            [
                "\u2581become",
                -8.277618033160989
            ],
            [
                "\u2581following",
                -8.278351314700442
            ],
            [
                "or",
                -8.279760582694738
            ],
            [
                "\u2581pretty",
                -8.281064280408092
            ],
            [
                "\u2581them.",
                -8.282018451419306
            ],
            [
                "\u2581At",
                -8.287659994440954
            ],
            [
                "\u2581once",
                -8.288988891449344
            ],
            [
                "\u2581said.",
                -8.290553573033081
            ],
            [
                "\u2581&",
                -8.297388887817137
            ],
            [
                "\u2581makes",
                -8.299730545824913
            ],
            [
                "\u2581I\u2019ve",
                -8.30024845549006
            ],
            [
                "\u2581blog",
                -8.303184462104888
            ],
            [
                "\u2581trying",
                -8.305013447339869
            ],
            [
                "g",
                -8.305763345909055
            ],
            [
                "l",
                -8.306897530403814
            ],
            [
                "\u2581top",
                -8.307069318028818
            ],
            [
                "\u2581left",
                -8.310689389202619
            ],
            [
                "\u2581book",
                -8.315931530319217
            ],
            [
                "\u2581web",
                -8.316444322081244
            ],
            [
                "\u2581social",
                -8.317442622313123
            ],
            [
                "\u2581Thanks",
                -8.318374333623296
            ],
            [
                "\u2581time.",
                -8.318543078102003
            ],
            [
                "\u25814",
                -8.322455177548425
            ],
            [
                "\u2581local",
                -8.324033217593042
            ],
            [
                "\u2581health",
                -8.324714395432482
            ],
            [
                "\u2581team",
                -8.325327076555777
            ],
            [
                "\u2581personal",
                -8.328896134852137
            ],
            [
                "\u2581quite",
                -8.333042764066425
            ],
            [
                "\u2581please",
                -8.334208712544195
            ],
            [
                "\u2581probably",
                -8.334827810561695
            ],
            [
                "\u2581data",
                -8.338065474397375
            ],
            [
                "\u2581With",
                -8.340834176423517
            ],
            [
                "\u2581whole",
                -8.341002439529186
            ],
            [
                "\u2581understand",
                -8.343171525962477
            ],
            [
                "\u2581live",
                -8.344184896067942
            ],
            [
                "\u2581service",
                -8.345006455135847
            ],
            [
                "\u2581seen",
                -8.345557907141028
            ],
            [
                "\u2581car",
                -8.348684475732762
            ],
            [
                "\u2581\"I",
                -8.348704823610264
            ],
            [
                "\u2581Here",
                -8.349555677192892
            ],
            [
                "\u2581case",
                -8.352636567425685
            ],
            [
                "\u2581children",
                -8.356857595556962
            ],
            [
                "\u2581company",
                -8.357533614956987
            ],
            [
                "\u2581though",
                -8.359671925354526
            ],
            [
                "\u2581open",
                -8.359704790955295
            ],
            [
                "\u2581play",
                -8.362276937339695
            ],
            [
                "\u2581name",
                -8.366441311409455
            ],
            [
                "\u2581Thank",
                -8.368391194976402
            ],
            [
                "p",
                -8.369152774902107
            ],
            [
                "\u2581website",
                -8.369686589981375
            ],
            [
                "\u2581public",
                -8.370767353009963
            ],
            [
                "\u2581pay",
                -8.371756481493467
            ],
            [
                "\u2581week",
                -8.372292203060333
            ],
            [
                "\u2581easy",
                -8.375338236842282
            ],
            [
                "\u2581per",
                -8.376472663268032
            ],
            [
                "?\"",
                -8.378850961047903
            ],
            [
                "u",
                -8.379337454795532
            ],
            [
                "\u2581again",
                -8.384113329812825
            ],
            [
                "\u2581water",
                -8.384429705828522
            ],
            [
                "\u2581No",
                -8.386558032606363
            ],
            [
                "\u2581told",
                -8.38850524878318
            ],
            [
                "\u2581everything",
                -8.39001398011438
            ],
            [
                "\u2581didn't",
                -8.392898268994982
            ],
            [
                "\u2581game",
                -8.392969300645106
            ],
            [
                "\u2581took",
                -8.397965498015138
            ],
            [
                "\u2581These",
                -8.398000298127885
            ],
            [
                "\u2581can't",
                -8.399826627693662
            ],
            [
                "\u2581idea",
                -8.400186781532952
            ],
            [
                "\u2581nothing",
                -8.40384449413213
            ],
            [
                "b",
                -8.403957542644386
            ],
            [
                "\u2581comes",
                -8.405914060569337
            ],
            [
                "\u2581On",
                -8.40888415670227
            ],
            [
                "\u2581started",
                -8.41785582401755
            ],
            [
                "\u2581seems",
                -8.422836780561573
            ],
            [
                "\u2581system",
                -8.42325973645536
            ],
            [
                "\u2581services",
                -8.423368610157711
            ],
            [
                "\u2581wanted",
                -8.427630315437995
            ],
            [
                "\u2581past",
                -8.430796246316342
            ],
            [
                "\u2581learn",
                -8.43667246924961
            ],
            [
                "\u2581Not",
                -8.44252405601386
            ],
            [
                "\u2581check",
                -8.44618418385834
            ],
            [
                "\u2581anyone",
                -8.447275319847042
            ],
            [
                "\u2581students",
                -8.448068441515453
            ],
            [
                "\u2581shall",
                -8.457204889888475
            ],
            [
                "\u2581second",
                -8.4597758141551
            ],
            [
                "\u2581Our",
                -8.460159709357933
            ],
            [
                "\u2581several",
                -8.460981493123189
            ],
            [
                "\u2581called",
                -8.461291592152433
            ],
            [
                "\u2581times",
                -8.462191691144445
            ],
            [
                "\u2581taking",
                -8.464796437354263
            ],
            [
                "\u2581online",
                -8.464895087435726
            ],
            [
                "\u2581everyone",
                -8.466463973504402
            ],
            [
                "\u2581me.",
                -8.466695025674062
            ],
            [
                "\u2581given",
                -8.466873746059811
            ],
            [
                "\u2581you're",
                -8.468990067547287
            ],
            [
                "\u2581After",
                -8.469325430624478
            ],
            [
                "\u2581ask",
                -8.475445296433751
            ],
            [
                "\u2581share",
                -8.475694796928499
            ],
            [
                "\u2581insurance",
                -8.477391947493633
            ],
            [
                "\u2581needs",
                -8.477594475463357
            ],
            [
                "\u2581course",
                -8.477850605457066
            ],
            [
                "\u2581job",
                -8.479691935625183
            ],
            [
                "\u2581group",
                -8.481514448106912
            ],
            [
                "\u2581list",
                -8.485487680368417
            ],
            [
                "\u2581across",
                -8.486056021093637
            ],
            [
                "\u2581state",
                -8.495792785977203
            ],
            [
                "\u2581food",
                -8.497288275939793
            ],
            [
                "\u2581whether",
                -8.49868459618214
            ],
            [
                "\u2581side",
                -8.499829504521218
            ],
            [
                "\u2581run",
                -8.502492860000087
            ],
            [
                "\u2581\u201cI",
                -8.504564859058744
            ],
            [
                "\u2581However,",
                -8.511325792029073
            ],
            [
                "\u2581along",
                -8.513182388455528
            ],
            [
                "\u2581mind",
                -8.51462783121749
            ],
            [
                "\u2581large",
                -8.515752706245603
            ],
            [
                "\u2581bad",
                -8.518942232665228
            ],
            [
                "\u2581almost",
                -8.520189578459517
            ],
            [
                "\u2581reading",
                -8.520562222607307
            ],
            [
                "\u2581create",
                -8.521790184219277
            ],
            [
                "\u2581visit",
                -8.522653037696347
            ],
            [
                "\u2581together",
                -8.525435292913782
            ],
            [
                "\u2581head",
                -8.532671480234328
            ],
            [
                "ers",
                -8.541283809389919
            ],
            [
                "\u2581room",
                -8.54512361076168
            ],
            [
                "\u2581yet",
                -8.551724701188656
            ],
            [
                "\u2581coming",
                -8.552091379029786
            ],
            [
                "\u2581offer",
                -8.552175933470338
            ],
            [
                "\u2581says",
                -8.55586034195368
            ],
            [
                "\u2581contact",
                -8.56064981191631
            ],
            [
                "\u2581process",
                -8.561597300748033
            ],
            [
                "\u2581rather",
                -8.565950745670733
            ],
            [
                "\u2581possible",
                -8.565996977862117
            ],
            [
                "\u2581story",
                -8.566097432136758
            ],
            [
                "\u2581looks",
                -8.567435999863438
            ],
            [
                "\u2581Just",
                -8.567752181383067
            ],
            [
                "I",
                -8.571201979337678
            ],
            [
                "\u2581problem",
                -8.572854208121958
            ],
            [
                "\u2581didn\u2019t",
                -8.574528581299447
            ],
            [
                "\u2581happy",
                -8.578568588873331
            ],
            [
                "\u2581months",
                -8.578844928899162
            ],
            [
                "\u2581women",
                -8.579356477508732
            ],
            [
                "\u2581hours",
                -8.583775912807134
            ],
            [
                "\u2581plan",
                -8.584499421434272
            ],
            [
                "\u2581fact",
                -8.585800211847864
            ],
            [
                "\u2581form",
                -8.586932784180279
            ],
            [
                "\u2581others",
                -8.58832065645226
            ],
            [
                "x",
                -8.593644028168756
            ],
            [
                "\u2581based",
                -8.594422762380393
            ],
            [
                "\u2581power",
                -8.60366458218223
            ],
            [
                "\u2581night",
                -8.6037697392723
            ],
            [
                "\u25816",
                -8.60499564141154
            ],
            [
                "\u2581government",
                -8.606644150509638
            ],
            [
                "\u2581nice",
                -8.606917847727331
            ],
            [
                "\u2581can\u2019t",
                -8.612532004852694
            ],
            [
                "\u2581young",
                -8.613502455732144
            ],
            [
                "\u2581talk",
                -8.614259236560462
            ],
            [
                "\u2581asked",
                -8.615460528829011
            ],
            [
                "\u2581matter",
                -8.620286668632469
            ],
            [
                "\u2581mean",
                -8.621129691080652
            ],
            [
                "\u2581couple",
                -8.621327418165446
            ],
            [
                "\u2581body",
                -8.621649246723509
            ],
            [
                "\u2581above",
                -8.623417233023455
            ],
            [
                "k",
                -8.624067559179732
            ],
            [
                "\u2581taken",
                -8.624716408699381
            ],
            [
                "\u2581especially",
                -8.624739193387983
            ],
            [
                "\u2581four",
                -8.629808624307286
            ],
            [
                "\u2581friends",
                -8.630235297713273
            ],
            [
                "\u2581early",
                -8.633080723687057
            ],
            [
                "\u2581said,",
                -8.633422588734645
            ],
            [
                "\u2581leave",
                -8.633984694164432
            ],
            [
                "\u2581house",
                -8.634331216743067
            ],
            [
                "\u2581fun",
                -8.639156284631019
            ],
            [
                "\u2581S",
                -8.641248804493554
            ],
            [
                "\u2581Please",
                -8.642581534181062
            ],
            [
                "\u2581men",
                -8.644860399022464
            ],
            [
                "\u2581stop",
                -8.646256329951198
            ],
            [
                "\u2581close",
                -8.646955006180251
            ],
            [
                "\u2581else",
                -8.648405741299786
            ],
            [
                "\u2581bring",
                -8.650443862341248
            ],
            [
                "\u2581reason",
                -8.650535665171294
            ],
            [
                "\u2581writing",
                -8.650538735062776
            ],
            [
                "S",
                -8.650749390257912
            ],
            [
                "\u2581hear",
                -8.656785620062367
            ],
            [
                "\u2581simply",
                -8.665304933120444
            ],
            [
                "it",
                -8.666017191645008
            ],
            [
                "\u2581time,",
                -8.667582528250854
            ],
            [
                "\u2581likely",
                -8.671748329139454
            ],
            [
                "\u2581access",
                -8.672701102212146
            ],
            [
                "\u2581Now",
                -8.676901760243734
            ],
            [
                "\u2581stay",
                -8.677446220177622
            ],
            [
                "\u2581doesn't",
                -8.681397128530552
            ],
            [
                "\u2581face",
                -8.681577702916762
            ],
            [
                "\u2581special",
                -8.682147448099256
            ],
            [
                "\u2581here.",
                -8.683515174495128
            ],
            [
                "\u2581area",
                -8.686641548007634
            ],
            [
                "]",
                -8.687847979778724
            ],
            [
                "\u2581certain",
                -8.688140944180095
            ],
            [
                "\u2581hand",
                -8.689243737066073
            ],
            [
                "\u2581enjoy",
                -8.69132929044881
            ],
            [
                "\u2581God",
                -8.691736969905767
            ],
            [
                "\u2581short",
                -8.694107082170317
            ],
            [
                "\u2581current",
                -8.69467211660091
            ],
            [
                "\u2581Some",
                -8.696456865408445
            ],
            [
                "\u2581seem",
                -8.697364100185489
            ],
            [
                "\u2581yourself",
                -8.699031172536772
            ],
            [
                "?\u201d",
                -8.706582354012603
            ],
            [
                "\u2581questions",
                -8.707071570344365
            ],
            [
                "\u2581forward",
                -8.70809230974348
            ],
            [
                "\u2581due",
                -8.709170948952053
            ],
            [
                "\u2581buy",
                -8.70994517373147
            ],
            [
                "\u2581C",
                -8.711454228950647
            ],
            [
                "\u2581article",
                -8.711495462578645
            ],
            [
                "\u2581child",
                -8.715387293130235
            ],
            [
                "able",
                -8.715419577031314
            ],
            [
                "en",
                -8.716407473827926
            ],
            [
                "\u2581An",
                -8.72009769707591
            ],
            [
                "\u2581email",
                -8.721663123976992
            ],
            [
                "\u2581quality",
                -8.725528532625429
            ],
            [
                "\u2581either",
                -8.725658473560092
            ],
            [
                "\u2581market",
                -8.726881682575344
            ],
            [
                "\u2581question",
                -8.727113866979744
            ],
            [
                "\u2581cost",
                -8.727607160016408
            ],
            [
                "\u2581--",
                -8.729157475788126
            ],
            [
                "\u2581five",
                -8.729872899572175
            ],
            [
                "\u2581add",
                -8.730363764695806
            ],
            [
                "\u2581it,",
                -8.731699986141322
            ],
            [
                "\u2581doesn\u2019t",
                -8.731968272969427
            ],
            [
                "\u2581community",
                -8.734667787654866
            ],
            [
                "\u2581While",
                -8.738206444438994
            ],
            [
                "\u2581remember",
                -8.73824575569137
            ],
            [
                "\u2581human",
                -8.738347955784407
            ],
            [
                "\u2581saw",
                -8.740816990161429
            ],
            [
                "\u2581million",
                -8.742626630525772
            ],
            [
                "\u2581heard",
                -8.743131268499898
            ],
            [
                "\u2581research",
                -8.74361244760319
            ],
            [
                "\u2581amount",
                -8.74963579943563
            ],
            [
                "\u2581heart",
                -8.750707346508364
            ],
            [
                "\u2581future",
                -8.750710805955745
            ],
            [
                "\u2581single",
                -8.751461520506178
            ],
            [
                "\u2581type",
                -8.753464385184076
            ],
            [
                "\u2581living",
                -8.753876493549274
            ],
            [
                "\u2581include",
                -8.756646463029158
            ],
            [
                "\u2581worth",
                -8.757738967621702
            ],
            [
                "\u2581move",
                -8.758644664136535
            ],
            [
                "\u2581level",
                -8.75872708949052
            ],
            [
                "\u2581country",
                -8.761243936633468
            ],
            [
                "\u2581that's",
                -8.763111081312909
            ],
            [
                "\u2581write",
                -8.764204012668806
            ],
            [
                "\u2581wish",
                -8.7682928074528
            ],
            [
                "\u2581I'll",
                -8.768726113339673
            ],
            [
                "\u2581page",
                -8.76959638538602
            ],
            [
                "\u258120",
                -8.770345606096189
            ],
            [
                "\u2581D",
                -8.770393768711703
            ],
            [
                "\u2581video",
                -8.775821525693951
            ],
            [
                "\u2581known",
                -8.775966460428254
            ],
            [
                "\u2581clear",
                -8.778415354341403
            ],
            [
                "\u2581project",
                -8.780040583053236
            ],
            [
                "\u2581Then",
                -8.780888627033873
            ],
            [
                "\u2581cannot",
                -8.780945449996235
            ],
            [
                "\u2581perfect",
                -8.781611443545149
            ],
            [
                "\u2581upon",
                -8.784235633769367
            ],
            [
                "\u2581meet",
                -8.78811500779106
            ],
            [
                "\u2581half",
                -8.790633460135554
            ],
            [
                "\u2581continue",
                -8.793699506901
            ],
            [
                "\u2581turn",
                -8.79710400996763
            ],
            [
                "\u2581thinking",
                -8.797365532866793
            ],
            [
                "\u2581line",
                -8.799092174022505
            ],
            [
                "\u2581simple",
                -8.801941456461096
            ],
            [
                "\u2019d",
                -8.805524232104647
            ],
            [
                "\u2581rest",
                -8.805556434649143
            ],
            [
                "\u2581un",
                -8.808250018307037
            ],
            [
                "\u2581[",
                -8.809074774906556
            ],
            [
                "\u2581light",
                -8.809366738572246
            ],
            [
                "\u2581looked",
                -8.809604211805874
            ],
            [
                "\u2581kids",
                -8.809714818021748
            ],
            [
                "\u2581behind",
                -8.812107640781873
            ],
            [
                "\u2581program",
                -8.81794253465742
            ],
            [
                "\u2581today",
                -8.818203865925259
            ],
            [
                "\u2581beautiful",
                -8.823741532078563
            ],
            [
                "\u2581further",
                -8.824080033463435
            ],
            [
                "\u2581knew",
                -8.824806804806727
            ],
            [
                "\u2581deal",
                -8.825303595247975
            ],
            [
                "\u2581longer",
                -8.825451112994443
            ],
            [
                "\u2581report",
                -8.828721114995611
            ],
            [
                "\u2581that\u2019s",
                -8.82941419147683
            ],
            [
                "\u2581content",
                -8.829885683110758
            ],
            [
                "\u2581event",
                -8.830661805188296
            ],
            [
                "\u2581members",
                -8.832939689525679
            ],
            [
                "\u2581interesting",
                -8.833551918370638
            ],
            [
                "\u2581me,",
                -8.834814605879066
            ],
            [
                "\u2581media",
                -8.83518818193379
            ],
            [
                "\u2581soon",
                -8.83532149906252
            ],
            [
                "\u2581needed",
                -8.837750001031866
            ],
            [
                "\u2581usually",
                -8.838259705153165
            ],
            [
                "\u2581control",
                -8.838978063934704
            ],
            [
                "\u2581maybe",
                -8.839216881425909
            ],
            [
                "\u258130",
                -8.839576350901407
            ],
            [
                "\u25817",
                -8.840247890526399
            ],
            [
                "\u2581ready",
                -8.844115268826267
            ],
            [
                "\u25818",
                -8.849782487180596
            ],
            [
                "\u2581minutes",
                -8.850947965136422
            ],
            [
                "\u2581building",
                -8.853786621613766
            ],
            [
                "\u2581ways",
                -8.85450132014761
            ],
            [
                "\u2581myself",
                -8.855624686363756
            ],
            [
                "\u2581front",
                -8.858555602331712
            ],
            [
                "\u2581B",
                -8.859801691567558
            ],
            [
                "\u2581products",
                -8.863816166115653
            ],
            [
                "th",
                -8.867496700263752
            ],
            [
                "\u2581chance",
                -8.868101010636154
            ],
            [
                "\u2581American",
                -8.86957098199824
            ],
            [
                "\u2581wait",
                -8.870602482067067
            ],
            [
                "\u2581product",
                -8.871407617173274
            ],
            [
                "\u2581issues",
                -8.874909985776938
            ],
            [
                "\u2581true",
                -8.875931836939275
            ],
            [
                "\u2581issue",
                -8.877276418503039
            ],
            [
                "w",
                -8.87771167799607
            ],
            [
                "\u2581definitely",
                -8.878024917916843
            ],
            [
                "\u2581study",
                -8.87814944041452
            ],
            [
                "\u2581city",
                -8.881731949448064
            ],
            [
                "\u2581words",
                -8.882755752051509
            ],
            [
                "\u2581companies",
                -8.883064528033449
            ],
            [
                "\u2581Of",
                -8.884409643224451
            ],
            [
                "\u2581running",
                -8.885151288019511
            ],
            [
                "\u2581complete",
                -8.886840543835554
            ],
            [
                "\u2581common",
                -8.89008462509527
            ],
            [
                "\u2581Why",
                -8.891001133272322
            ],
            [
                "\u2581takes",
                -8.891675702744852
            ],
            [
                "\u2581felt",
                -8.893650652775584
            ],
            [
                "\u2581choose",
                -8.89395277572102
            ],
            [
                "\u2581design",
                -8.894001898735564
            ],
            [
                "\u2581talking",
                -8.89591122891515
            ],
            [
                "\u2581year.",
                -8.90047134107265
            ],
            [
                "\u2581major",
                -8.902177881528317
            ],
            [
                "!!",
                -8.902319905975363
            ],
            [
                "\u2581again.",
                -8.90323276955968
            ],
            [
                "\u2581friend",
                -8.903416865981724
            ],
            [
                "\u2581well.",
                -8.90398043076579
            ],
            [
                "\u2581later",
                -8.905203063385883
            ],
            [
                "\u2581view",
                -8.905939878484181
            ],
            [
                "\u2581risk",
                -8.907670640476882
            ],
            [
                "\u2581him.",
                -8.910402066935202
            ],
            [
                "\u2581By",
                -8.911332575210322
            ],
            [
                "\u2581opportunity",
                -8.912662634751742
            ],
            [
                "\u2581stuff",
                -8.915393519233376
            ],
            [
                "\u2581outside",
                -8.915903621516607
            ],
            [
                "\u2581value",
                -8.921911823562674
            ],
            [
                "\u2581financial",
                -8.92305271431941
            ],
            [
                "\u2581United",
                -8.923275774873694
            ],
            [
                "\u2581His",
                -8.926174827305086
            ],
            [
                "\u2581sense",
                -8.92822690358187
            ],
            [
                "\u2581main",
                -8.928435069475626
            ],
            [
                "\u2581day.",
                -8.932315787131733
            ],
            [
                "\u2581tried",
                -8.933235285630579
            ],
            [
                "\u2581weeks",
                -8.936916431824956
            ],
            [
                "\u258112",
                -8.940440621441821
            ],
            [
                "\u2581word",
                -8.944361950879832
            ],
            [
                "\u2581consider",
                -8.944647616957369
            ],
            [
                "\u2581cause",
                -8.946263599648287
            ],
            [
                "\u2581key",
                -8.946422818375405
            ],
            [
                "\u2581saying",
                -8.946631503127033
            ],
            [
                "!\"",
                -8.946990346910946
            ],
            [
                "\u2581certainly",
                -8.947422281846565
            ],
            [
                "\u2581exactly",
                -8.948755407075135
            ],
            [
                "\u2581works",
                -8.948985213351554
            ],
            [
                "\u2581decided",
                -8.95214452579951
            ],
            [
                "\u2014",
                -8.952232878391243
            ],
            [
                "\u2581goes",
                -8.952286911968292
            ],
            [
                "\u2581training",
                -8.955514896639786
            ],
            [
                "\u2581phone",
                -8.955730204519584
            ],
            [
                "\u2581development",
                -8.95580596546647
            ],
            [
                "\u2581turned",
                -8.957098489736051
            ],
            [
                "\u2581I'd",
                -8.958417154132352
            ],
            [
                "\u2581search",
                -8.960680500378706
            ],
            [
                "\u2581answer",
                -8.961165007495868
            ],
            [
                "\u2581medical",
                -8.963980272883264
            ],
            [
                "\u2581interest",
                -8.96419368482154
            ],
            [
                "\u2581specific",
                -8.967234043089492
            ],
            [
                "\u2581among",
                -8.967613642803503
            ],
            [
                "\u2581price",
                -8.96853896870034
            ],
            [
                "\u2581similar",
                -8.969634687772627
            ],
            [
                "\u2581month",
                -8.971715973867742
            ],
            [
                "\u2581lost",
                -8.971767936478702
            ],
            [
                "\u2581Even",
                -8.972076084677928
            ],
            [
                "\u2581difficult",
                -8.973259335882434
            ],
            [
                "\u2581age",
                -8.974573712729693
            ],
            [
                "\u2581white",
                -8.975056426558401
            ],
            [
                "\u2581space",
                -8.975610913017961
            ],
            [
                "\u2581follow",
                -8.975913203608433
            ],
            [
                "as",
                -8.976562355351513
            ],
            [
                "\u2581up.",
                -8.977273077079673
            ],
            [
                "\u2581feeling",
                -8.978790395161107
            ],
            [
                "\u2581professional",
                -8.979269040555772
            ],
            [
                "\u2581eyes",
                -8.979294129170702
            ],
            [
                "to",
                -8.981387008773074
            ],
            [
                "\u2581May",
                -8.981868359247636
            ],
            [
                "\u2581written",
                -8.983196096426704
            ],
            [
                "\u2581ago",
                -8.984140707342167
            ],
            [
                "\u2581build",
                -8.986304047134594
            ],
            [
                "\u2581receive",
                -8.98675876403017
            ],
            [
                "\u2581there.",
                -8.988714038686966
            ],
            [
                "\u2581range",
                -8.98968263192361
            ],
            [
                "\u2581required",
                -8.991054110536425
            ],
            [
                "\u2019ve",
                -8.99194485315263
            ],
            [
                "\u2581Are",
                -8.995028707383645
            ],
            [
                "\u2581now.",
                -8.995113452677518
            ],
            [
                "\u2581favorite",
                -8.997299071380668
            ],
            [
                "\u2581credit",
                -8.998045772667535
            ],
            [
                "\u2581Be",
                -9.000892515774767
            ],
            [
                "\u2581Can",
                -9.000904978465075
            ],
            [
                "\u2581watch",
                -9.001275024296136
            ],
            [
                "\u2581law",
                -9.001343527609436
            ],
            [
                "\u2581provided",
                -9.003283249525465
            ],
            [
                "\u2581account",
                -9.004719050834435
            ],
            [
                "\u2581various",
                -9.007773492862546
            ],
            [
                "\u2581low",
                -9.009795065710868
            ],
            [
                "\u2581Or",
                -9.009796879860628
            ],
            [
                "\u2581music",
                -9.010590471775634
            ],
            [
                "\u2581Have",
                -9.010795831181088
            ],
            [
                "\u2019ll",
                -9.012944398855385
            ],
            [
                "\u2581E",
                -9.014568635895504
            ],
            [
                "at",
                -9.014911606229886
            ],
            [
                "\u2581years.",
                -9.017501172176084
            ],
            [
                "\u2581energy",
                -9.01851423468228
            ],
            [
                "\u2581problems",
                -9.018738360791565
            ],
            [
                "\u2581news",
                -9.019246917141215
            ],
            [
                "\u2581interested",
                -9.019750824082616
            ],
            [
                "\u2581staff",
                -9.020054740823827
            ],
            [
                "\u2581too.",
                -9.020189485553669
            ],
            [
                "\u2581ensure",
                -9.02046043294731
            ],
            [
                "\u2581focus",
                -9.021044174920753
            ],
            [
                "\u2581completely",
                -9.023426733439686
            ],
            [
                "\u2581learning",
                -9.024884354147897
            ],
            [
                "\u2581send",
                -9.025141683066751
            ],
            [
                "\u2581gave",
                -9.025576433743483
            ],
            [
                "\u2581entire",
                -9.026015990294765
            ],
            [
                "\u2581Well,",
                -9.028412139935867
            ],
            [
                "\u2581allow",
                -9.029952611632801
            ],
            [
                "\u2581increase",
                -9.03245105656071
            ],
            [
                "\u2581step",
                -9.033258094176617
            ],
            [
                "\u2581Google",
                -9.03394963889156
            ],
            [
                "\u2581instead",
                -9.034397345960087
            ],
            [
                "\u2581P",
                -9.03650098548349
            ],
            [
                "\u2581extra",
                -9.03895070486011
            ],
            [
                "us",
                -9.040451877614464
            ],
            [
                "\u258115",
                -9.04170430601754
            ],
            [
                "\u2581amazing",
                -9.044609123668213
            ],
            [
                "\u2581individual",
                -9.044913369723382
            ],
            [
                "\u2581More",
                -9.046209528973648
            ],
            [
                "\u2581spend",
                -9.046916723727541
            ],
            [
                "\u2581natural",
                -9.049221978459347
            ],
            [
                "2",
                -9.049806516876085
            ],
            [
                "\u2581giving",
                -9.050467770766673
            ],
            [
                "\u2581result",
                -9.055380980213311
            ],
            [
                "\u2581wrong",
                -9.056903958606473
            ],
            [
                "\u2581save",
                -9.057005511884032
            ],
            [
                "\u2581present",
                -9.058303004272698
            ],
            [
                "\u2581strong",
                -9.059336221093641
            ],
            [
                "\u2581moment",
                -9.05947844542672
            ],
            [
                "\u2581hold",
                -9.060085310312399
            ],
            [
                "\u2581worked",
                -9.061346888575997
            ],
            [
                "\u2581glad",
                -9.061732045363126
            ],
            [
                "\u2581recent",
                -9.061825034192047
            ],
            [
                "\u2581particular",
                -9.061912564459902
            ],
            [
                "\u2581agree",
                -9.064250933113717
            ],
            [
                "\u2581lead",
                -9.06437980449304
            ],
            [
                "\u2581playing",
                -9.064915276798056
            ],
            [
                "\u2581Is",
                -9.067306254025201
            ],
            [
                "\u2581wonderful",
                -9.067833990064322
            ],
            [
                "\u2581life.",
                -9.070322656306141
            ],
            [
                "\u2581black",
                -9.070472657783906
            ],
            [
                "\u258118",
                -9.0715287094987
            ],
            [
                "\u2581general",
                -9.071774905017332
            ],
            [
                "le",
                -9.072726234956228
            ],
            [
                "\u2581private",
                -9.074332300749024
            ],
            [
                "\u2581industry",
                -9.074939225663364
            ],
            [
                "\u2581according",
                -9.075210259791536
            ],
            [
                "\u2581security",
                -9.075307943728852
            ],
            [
                "\u2581loved",
                -9.076508783640506
            ],
            [
                "\u2581cut",
                -9.076522833584729
            ],
            [
                "\u2581sort",
                -9.076848456162606
            ],
            [
                "\u2581*",
                -9.076966242109116
            ],
            [
                "\u2581walk",
                -9.077342046155714
            ],
            [
                "\u2581below",
                -9.078261659803324
            ],
            [
                "\u2581huge",
                -9.079830155037206
            ],
            [
                "\u2581I\u2019ll",
                -9.080014570947046
            ],
            [
                "\u2581subject",
                -9.080085694405247
            ],
            [
                "\u2581thank",
                -9.080771448206871
            ],
            [
                "\u2581office",
                -9.081484042253152
            ],
            [
                "\u2581T",
                -9.082301010559977
            ],
            [
                "\u2581address",
                -9.083390482574035
            ],
            [
                "\u2581held",
                -9.083992784990084
            ],
            [
                "\u2581six",
                -9.087138602114006
            ],
            [
                "\u2581isn't",
                -9.087537746696572
            ],
            [
                "\u2581near",
                -9.08982316732654
            ],
            [
                "\u2581marketing",
                -9.090841679538489
            ],
            [
                "\u2581changes",
                -9.091039286444923
            ],
            [
                "\u2581US",
                -9.09234929107339
            ],
            [
                "\u2581From",
                -9.094454718430049
            ],
            [
                "\u2581Most",
                -9.09910188608178
            ],
            [
                "\u2581hit",
                -9.099455766052689
            ],
            [
                "\u2581return",
                -9.101060647066493
            ],
            [
                "\u2581party",
                -9.10112868691204
            ],
            [
                "\u2581thanks",
                -9.102230118053884
            ],
            [
                "\u2581gets",
                -9.102606265799228
            ],
            [
                "\u2581related",
                -9.104779017349907
            ],
            [
                "\u2581added",
                -9.105776992692645
            ],
            [
                "\u2581terms",
                -9.11094261380617
            ],
            [
                "\u2581isn\u2019t",
                -9.112088430193458
            ],
            [
                "ar",
                -9.112132024173055
            ],
            [
                "\u2581air",
                -9.11296768042633
            ],
            [
                "v",
                -9.113767776188853
            ],
            [
                "\u2581woman",
                -9.115943988646908
            ],
            [
                "\u2581internet",
                -9.11688892947006
            ],
            [
                "man",
                -9.119147319244956
            ],
            [
                "\u2581:)",
                -9.123557961085561
            ],
            [
                "\u2581ideas",
                -9.12369587505303
            ],
            [
                "\u2581results",
                -9.124235271293273
            ],
            [
                "\u2581link",
                -9.124554099733626
            ],
            [
                "\u2581Let",
                -9.124603104661759
            ],
            [
                "\u2581Many",
                -9.126410390537764
            ],
            [
                "\u2581hair",
                -9.127451953607936
            ],
            [
                "\u2581test",
                -9.127941555904323
            ],
            [
                "\u2581potential",
                -9.128780891997895
            ],
            [
                "\u2581sound",
                -9.129400463492015
            ],
            [
                "\u2581improve",
                -9.129475241621577
            ],
            [
                "\u2581So,",
                -9.131903302591308
            ],
            [
                "\u2581management",
                -9.133677397287434
            ],
            [
                "\u2581ability",
                -9.134653982405005
            ],
            [
                "\u2581course,",
                -9.135816585649735
            ],
            [
                "\u2581finally",
                -9.136256921998868
            ],
            [
                "\u2581customer",
                -9.138996961422635
            ],
            [
                "\u2581them,",
                -9.14276078818479
            ],
            [
                "\u2581click",
                -9.143316638469294
            ],
            [
                "\u2581attention",
                -9.143683457808617
            ],
            [
                "\u2581\u201cThe",
                -9.144683888495479
            ],
            [
                "\u2581guess",
                -9.145284018618664
            ],
            [
                "\u2581third",
                -9.147336035263443
            ],
            [
                "\u2581date",
                -9.148536198445637
            ],
            [
                "\u2581size",
                -9.149091555451319
            ],
            [
                "\u2581late",
                -9.149582747519498
            ],
            [
                "\u2581points",
                -9.150372704763612
            ],
            [
                "\u2581morning",
                -9.150974413587793
            ],
            [
                "\u2581easily",
                -9.15261645000882
            ],
            [
                "\u2581higher",
                -9.15274854425726
            ],
            [
                "\u2581starting",
                -9.153718740782578
            ],
            [
                "\u2581total",
                -9.153798473995671
            ],
            [
                "\u2581paid",
                -9.154624175131618
            ],
            [
                "\u2581details",
                -9.154730735462454
            ],
            [
                "\u2581role",
                -9.155029641727332
            ],
            [
                "\u2581received",
                -9.15782287151967
            ],
            [
                "\u2581now,",
                -9.1582877392711
            ],
            [
                "\u2581sometimes",
                -9.162990859173377
            ],
            [
                "\u2581you\u2019ll",
                -9.165414336083453
            ],
            [
                "\u2581customers",
                -9.166870786079564
            ],
            [
                "\u2581(and",
                -9.167315837067758
            ],
            [
                "\u2581unique",
                -9.170243888836428
            ],
            [
                "\u2581cover",
                -9.170254409754886
            ],
            [
                "\u2581however,",
                -9.172514799137726
            ],
            [
                "\u2581themselves",
                -9.174693265735666
            ],
            [
                "\u2581percent",
                -9.177044440723476
            ],
            [
                "\u2581shows",
                -9.177216349874692
            ],
            [
                "\u2581tax",
                -9.178789873422184
            ],
            [
                "\u2581World",
                -9.17907367513238
            ],
            [
                "\u2581final",
                -9.179628641896734
            ],
            [
                "\u2581piece",
                -9.180337004831511
            ],
            [
                "\u2581inside",
                -9.18134241919265
            ],
            [
                "\u2581areas",
                -9.181634573745976
            ],
            [
                "ic",
                -9.182096283046441
            ],
            [
                "\u2581property",
                -9.182537446590416
            ],
            [
                "\u2581class",
                -9.183751445308395
            ],
            [
                "\u2581sent",
                -9.187305659912717
            ],
            [
                "\u2581review",
                -9.187322523657983
            ],
            [
                "\u2581[...]",
                -9.187637235086966
            ],
            [
                "\u2581spent",
                -9.187742820671431
            ],
            [
                "\u2581offers",
                -9.188241874262683
            ],
            [
                "\u2581stand",
                -9.18893714220135
            ],
            [
                "\u2581knowledge",
                -9.18925756050508
            ],
            [
                "\u2581happen",
                -9.189906687618107
            ],
            [
                "\u2581parents",
                -9.190234315336975
            ],
            [
                "\u2581period",
                -9.190388268905256
            ],
            [
                "\u2581G",
                -9.192542928456458
            ],
            [
                "\u2581legal",
                -9.192821656699998
            ],
            [
                ".com",
                -9.193897546515014
            ],
            [
                "\u2581year,",
                -9.195648703690617
            ],
            [
                "\u2581O",
                -9.196883876320268
            ],
            [
                "\u2581non-",
                -9.19692691217999
            ],
            [
                "\u2581necessary",
                -9.197717304065348
            ],
            [
                "\u2581books",
                -9.199162157801425
            ],
            [
                "--",
                -9.199308426382794
            ],
            [
                "\u2581years,",
                -9.199332428902514
            ],
            [
                "\u2581quick",
                -9.201203794920762
            ],
            [
                "\u2581expect",
                -9.204168561664641
            ],
            [
                "\u2581eat",
                -9.206475347408466
            ],
            [
                "\u2581guys",
                -9.207763947510657
            ],
            [
                "\u2581technology",
                -9.207818155424127
            ],
            [
                "\u2581positive",
                -9.210957034734566
            ],
            [
                "\u2581original",
                -9.212801522512681
            ],
            [
                "\u2581M",
                -9.21341064828577
            ],
            [
                "\u2581quickly",
                -9.214706104328807
            ],
            [
                "\u2581card",
                -9.214801918965527
            ],
            [
                "ness",
                -9.214914620754701
            ],
            [
                "\u2581etc.",
                -9.215403781660646
            ],
            [
                "\u2581currently",
                -9.216566341407239
            ],
            [
                "\u2581student",
                -9.216880428310827
            ],
            [
                "\u2581work.",
                -9.217102535680691
            ],
            [
                "\u2581won't",
                -9.217243393666013
            ],
            [
                "\u2581drive",
                -9.22298795101148
            ],
            [
                "\u2581additional",
                -9.223510847481087
            ],
            [
                "\u2581guy",
                -9.223519160824585
            ],
            [
                "\u2581season",
                -9.224811535803216
            ],
            [
                "\u2581sign",
                -9.225572278830436
            ],
            [
                "\u2581history",
                -9.226569119383065
            ],
            [
                "\u2581#",
                -9.226949201827036
            ],
            [
                "\u2581computer",
                -9.227159075696672
            ],
            [
                "\u2581break",
                -9.227684216208889
            ],
            [
                "\u2581version",
                -9.22788140040457
            ],
            [
                "\u2581member",
                -9.228868238291124
            ],
            [
                "\u2581application",
                -9.229254229691087
            ],
            [
                "\u2581girl",
                -9.229945247637165
            ],
            [
                "\u2581out.",
                -9.23185437676157
            ],
            [
                "\u2581created",
                -9.232022361840608
            ],
            [
                "\u2581truly",
                -9.232309872522341
            ],
            [
                "\u2581weight",
                -9.233134277828338
            ],
            [
                "\u2581Once",
                -9.233173958647269
            ],
            [
                "\u2581recently",
                -9.234653903205198
            ],
            [
                "\u2581blood",
                -9.23547255493127
            ],
            [
                "\u2581finding",
                -9.236223114988409
            ],
            [
                "\u2581excellent",
                -9.239710280345934
            ],
            [
                "\u2581death",
                -9.240227810330135
            ],
            [
                "\u2581fall",
                -9.240612063750245
            ],
            [
                "\u2581brought",
                -9.240776553490655
            ],
            [
                "\u2581games",
                -9.241643395161411
            ],
            [
                "\u2581gone",
                -9.241669265803134
            ],
            [
                "\u25819",
                -9.241835300030047
            ],
            [
                "\u25812018",
                -9.242146689722242
            ],
            [
                "\u2581door",
                -9.24325724232737
            ],
            [
                "\u2581involved",
                -9.244709303111211
            ],
            [
                "\u2581wants",
                -9.245046825570704
            ],
            [
                "\u2581Mr.",
                -9.245576842910804
            ],
            [
                "\u2581designed",
                -9.246432130557064
            ],
            [
                "\u2581happened",
                -9.246901548797696
            ],
            [
                "\u2581treatment",
                -9.24811644415425
            ],
            [
                "\u2581Great",
                -9.248394849170165
            ],
            [
                "\u2581win",
                -9.248441195444562
            ],
            [
                "\u2581pick",
                -9.248466936552244
            ],
            [
                "\u2581lots",
                -9.250057688934477
            ],
            [
                "\u2581hands",
                -9.252226284416416
            ],
            [
                "\u2581throughout",
                -9.252344024448984
            ],
            [
                "\u2581meeting",
                -9.25481984768922
            ],
            [
                "\u2581rate",
                -9.255459355384843
            ],
            [
                "\u2581Good",
                -9.256105853447526
            ],
            [
                "\u2581us.",
                -9.257725594986482
            ],
            [
                "\u2581example",
                -9.258045764716385
            ],
            [
                "\u2581provides",
                -9.259374439088656
            ],
            [
                "\u2581via",
                -9.259590748106405
            ],
            [
                "\u2581seeing",
                -9.25971209115562
            ],
            [
                "\u2581policy",
                -9.260929179002304
            ],
            [
                "\u2581towards",
                -9.261378023502733
            ],
            [
                "\u2581police",
                -9.26399388953239
            ],
            [
                "A",
                -9.266087353594585
            ],
            [
                "\u2581ones",
                -9.266646749226991
            ],
            [
                "\u2581effective",
                -9.266833245921125
            ],
            [
                "\u2581travel",
                -9.269235668879286
            ],
            [
                "\u2581action",
                -9.27091914452835
            ],
            [
                "\u2581Maybe",
                -9.272036731385166
            ],
            [
                "\u2581hot",
                -9.27253881179293
            ],
            [
                "\u2581himself",
                -9.273232374841538
            ],
            [
                "\u2581sharing",
                -9.273465419375324
            ],
            [
                "\u2581serious",
                -9.274344300084548
            ],
            [
                "\u2581considered",
                -9.27497126725793
            ],
            [
                "\u2581de",
                -9.277466968150955
            ],
            [
                "\u2581features",
                -9.277707132392962
            ],
            [
                "\u2581F",
                -9.27772972193131
            ],
            [
                "\u2581art",
                -9.279531822366955
            ],
            [
                "\u2581mother",
                -9.280642664555305
            ],
            [
                "\u2581began",
                -9.283316730613496
            ],
            [
                "\u2581Because",
                -9.284227593318144
            ],
            [
                "\u2581K",
                -9.285255626884187
            ],
            [
                "\u2581won\u2019t",
                -9.285568235427178
            ],
            [
                "\u2581example,",
                -9.285600206109418
            ],
            [
                "D",
                -9.287669049840751
            ],
            [
                "\u2581lives",
                -9.289938102135395
            ],
            [
                "\u2581\u2022",
                -9.290899144383808
            ],
            [
                "C",
                -9.290987696424658
            ],
            [
                "\u2581hour",
                -9.291351969075127
            ],
            [
                "\u2581you\u2019ve",
                -9.291586978338904
            ],
            [
                "\u2581U.S.",
                -9.292632701515599
            ],
            [
                "\u2581position",
                -9.294599840027253
            ],
            [
                "\u2581comment",
                -9.29463209151507
            ],
            [
                "\u2581paper",
                -9.295846451126074
            ],
            [
                "\u2581State",
                -9.296172017271916
            ],
            [
                "\u2581That\u2019s",
                -9.296944110941741
            ],
            [
                "\u2581impact",
                -9.297674601925742
            ],
            [
                "\u2581benefits",
                -9.298906819087819
            ],
            [
                "\u2581there's",
                -9.300109657121514
            ],
            [
                "\u2581popular",
                -9.300377719193808
            ],
            [
                "\u2581series",
                -9.301014217428062
            ],
            [
                "\u2581Since",
                -9.30105115096745
            ],
            [
                "\u2581skills",
                -9.301256109327934
            ],
            [
                "\u2581trip",
                -9.301711694873797
            ],
            [
                "_",
                -9.30216217900299
            ],
            [
                "\u2581benefit",
                -9.302263442984636
            ],
            [
                "\u2581seemed",
                -9.302502166834095
            ],
            [
                "\u2581difference",
                -9.304115218425832
            ],
            [
                "\u2581@",
                -9.30459249813575
            ],
            [
                "\u2581reach",
                -9.305000272901024
            ],
            [
                "\u2581practice",
                -9.305733641831653
            ],
            [
                "\u2581oil",
                -9.305737272261187
            ],
            [
                "\u2581safe",
                -9.306171885145595
            ],
            [
                "\u2581day,",
                -9.306187265802173
            ],
            [
                "\u2581red",
                -9.306278530402963
            ],
            [
                "\u2581political",
                -9.307121617046368
            ],
            [
                "\u2581met",
                -9.309533558762062
            ],
            [
                "\u2581comments",
                -9.309554611672173
            ],
            [
                "\u2581education",
                -9.30990129929523
            ],
            [
                "\u2581world.",
                -9.31021883788225
            ],
            [
                "\u2581moving",
                -9.310288477542208
            ],
            [
                "\u2581recommend",
                -9.311801275945566
            ],
            [
                "\u2581national",
                -9.312786248456735
            ],
            [
                "\u2581summer",
                -9.313213964506618
            ],
            [
                "\u2581options",
                -9.313829298484897
            ],
            [
                "\u2581war",
                -9.313912318084935
            ],
            [
                "\u2581types",
                -9.31522851908271
            ],
            [
                "\u2581fit",
                -9.31745320415503
            ],
            [
                "\u2581wide",
                -9.318192121252626
            ],
            [
                "\u2581avoid",
                -9.318948974926734
            ],
            [
                "\u2581wasn't",
                -9.319174500281864
            ],
            [
                "\u2581figure",
                -9.320405520804897
            ],
            [
                "\u25811.",
                -9.322538187144268
            ],
            [
                "\u2581picture",
                -9.323013706987176
            ],
            [
                "\u2581useful",
                -9.323823875242253
            ],
            [
                "\u2581learned",
                -9.325366960147926
            ],
            [
                "\u2581decision",
                -9.327070333405384
            ],
            [
                "\u2581understanding",
                -9.327545734280339
            ],
            [
                "\u2581physical",
                -9.32894536097229
            ],
            [
                "\u2581National",
                -9.330784639262738
            ],
            [
                "\u2581field",
                -9.33124319903435
            ],
            [
                "\u2581limited",
                -9.331261079465193
            ],
            [
                "\u2581President",
                -9.331569558844599
            ],
            [
                "\u2581gives",
                -9.333664287952159
            ],
            [
                "\u2581message",
                -9.333767538134627
            ],
            [
                "\u2581him,",
                -9.336193573294246
            ],
            [
                "\u2581sales",
                -9.337058657434973
            ],
            [
                "\u258150",
                -9.337264407278225
            ],
            [
                "\u2581daily",
                -9.337722659954519
            ],
            [
                "\u2581speak",
                -9.33935428642167
            ],
            [
                "\u2581waiting",
                -9.34038312564795
            ],
            [
                "\u2581\"The",
                -9.340769139251261
            ],
            [
                "\u2581section",
                -9.340971922833784
            ],
            [
                "\u2581although",
                -9.341137846016537
            ],
            [
                "\u2581easier",
                -9.3421221343242
            ],
            [
                "\u2581R",
                -9.342274533004325
            ],
            [
                "\u2581That's",
                -9.342365369906751
            ],
            [
                "\u2581became",
                -9.342928201310126
            ],
            [
                "\u2581variety",
                -9.344178059173043
            ],
            [
                "\u2581whatever",
                -9.344350906643694
            ],
            [
                "\u2581situation",
                -9.34561448565459
            ],
            [
                "\u2581kept",
                -9.346066881435497
            ],
            [
                "\u2581advice",
                -9.346647553404615
            ],
            [
                "\u2581cool",
                -9.350513909856206
            ],
            [
                "\u2581activities",
                -9.351914930383028
            ],
            [
                "\u2581regular",
                -9.354763567875079
            ],
            [
                "\u2581planning",
                -9.355298091919016
            ],
            [
                "\u2581enter",
                -9.355590928223798
            ],
            [
                "\u2581wonder",
                -9.355654362938486
            ],
            [
                "\u2581software",
                -9.355711187078093
            ],
            [
                "\u2581way.",
                -9.356030141414024
            ],
            [
                "\u2581events",
                -9.356210707891904
            ],
            [
                "\u2581voice",
                -9.35640950394297
            ],
            [
                "\u2581People",
                -9.35700743524868
            ],
            [
                "\u2581there\u2019s",
                -9.357845014758201
            ],
            [
                "\u2581includes",
                -9.358775459277188
            ],
            [
                "\u2581Christmas",
                -9.364016506585948
            ],
            [
                "\u2581100",
                -9.364072641820737
            ],
            [
                "\u2581source",
                -9.364375500030732
            ],
            [
                "\u2581latest",
                -9.366122488334451
            ],
            [
                "\u2581highly",
                -9.36625079412978
            ],
            [
                "\u2581sounds",
                -9.366330697364468
            ],
            [
                "\u2581code",
                -9.368767080102646
            ],
            [
                "\u2581develop",
                -9.370802769869222
            ],
            [
                "ity",
                -9.371286416004756
            ],
            [
                "\u2581choice",
                -9.373117583447687
            ],
            [
                "\u2581average",
                -9.374334609148036
            ],
            [
                "\u2581nearly",
                -9.375543533881599
            ],
            [
                "ter",
                -9.375881032939732
            ],
            [
                "\u2581THE",
                -9.378638158023392
            ],
            [
                "\u2581term",
                -9.379090208622745
            ],
            [
                "\u2581fire",
                -9.379233946746309
            ],
            [
                "\u2581apply",
                -9.379715469023626
            ],
            [
                "\u2581approach",
                -9.382953798865685
            ],
            [
                "\u2581(or",
                -9.38295463436975
            ],
            [
                "\u2581loss",
                -9.383311897414071
            ],
            [
                "\u2581perhaps",
                -9.385344745333164
            ],
            [
                "\u2581store",
                -9.386027740104396
            ],
            [
                "\u2581Re",
                -9.387297509417555
            ],
            [
                "\u2581you'll",
                -9.387605717802039
            ],
            [
                "3",
                -9.387630250784085
            ],
            [
                "\u2581require",
                -9.388250522738137
            ],
            [
                "\u2581previous",
                -9.388300828307884
            ],
            [
                "\u2581they\u2019re",
                -9.38922096121983
            ],
            [
                "\u2581particularly",
                -9.389769643941174
            ],
            [
                "\u2581\u201cWe",
                -9.391643384593777
            ],
            [
                "\u2581absolutely",
                -9.392170376973526
            ],
            [
                "\u2581Facebook",
                -9.39291903226484
            ],
            [
                "\u2581Hi",
                -9.393678189464133
            ],
            [
                "\u2581providing",
                -9.394466636278931
            ],
            [
                "\u2581Who",
                -9.395469824489908
            ],
            [
                "\u2581appropriate",
                -9.395500720013267
            ],
            [
                "\u2581grow",
                -9.395673590406798
            ],
            [
                "\u2581international",
                -9.397242178734704
            ],
            [
                "\u2581evidence",
                -9.398192435986134
            ],
            [
                "\u2581option",
                -9.39835622272376
            ],
            [
                "\u2581note",
                -9.398756733003207
            ],
            [
                "\u2581items",
                -9.399443388182736
            ],
            [
                "\u2581town",
                -9.402385226140751
            ],
            [
                "\u2581Make",
                -9.402396270667598
            ],
            [
                "z",
                -9.403626333483336
            ],
            [
                "\u2581University",
                -9.403627103965029
            ],
            [
                "\u2581global",
                -9.404034412209711
            ],
            [
                "\u2581file",
                -9.40481881288191
            ],
            [
                "\u2581expected",
                -9.40497120206919
            ],
            [
                "\u2581significant",
                -9.406485488948716
            ],
            [
                "\u2581fast",
                -9.406883392877896
            ],
            [
                "ance",
                -9.407404038419003
            ],
            [
                "\u2581begin",
                -9.407463774071013
            ],
            [
                "\u2581user",
                -9.407602416202934
            ],
            [
                "\u2581eye",
                -9.407868009124854
            ],
            [
                "\u2581wasn\u2019t",
                -9.408553785047548
            ],
            [
                "ive",
                -9.408611470427683
            ],
            [
                "\u2581record",
                -9.408830379099502
            ],
            [
                "\u2581Will",
                -9.409029729742791
            ],
            [
                "\u2581lower",
                -9.409754969058007
            ],
            [
                "\u2581Although",
                -9.411923734230742
            ],
            [
                "\u2581pain",
                -9.413275939369248
            ],
            [
                "\u2581users",
                -9.414060736804753
            ],
            [
                "\u2581performance",
                -9.415021583270391
            ],
            [
                "\u2581March",
                -9.415816865438195
            ],
            [
                "\u2581economic",
                -9.416483647046945
            ],
            [
                "\u25812.",
                -9.417838578195408
            ],
            [
                "\u2581film",
                -9.418361773914816
            ],
            [
                "\u2581knows",
                -9.41849758102786
            ],
            [
                "and",
                -9.418963008049406
            ],
            [
                "\u2581John",
                -9.419617488855966
            ],
            [
                "\u2581photo",
                -9.42068170002879
            ],
            [
                "\u2581purchase",
                -9.422083169781935
            ],
            [
                "P",
                -9.422329563161021
            ],
            [
                "\u2581individuals",
                -9.423200039718045
            ],
            [
                "am",
                -9.423720959472508
            ],
            [
                "\u2581extremely",
                -9.424864636118258
            ],
            [
                "\u2581they're",
                -9.425106021765995
            ],
            [
                "B",
                -9.425250628718537
            ],
            [
                "\u2581growing",
                -9.425455779064926
            ],
            [
                "\u2581board",
                -9.42568802122275
            ],
            [
                "ation",
                -9.425940892897284
            ],
            [
                "\u2581York",
                -9.426597713375228
            ],
            [
                "\u2581unless",
                -9.426691946679606
            ],
            [
                "\u2581States",
                -9.42680808821267
            ],
            [
                "\u2581beginning",
                -9.427620819835107
            ],
            [
                "se",
                -9.427860056307164
            ],
            [
                "\u2581modern",
                -9.428461288029338
            ],
            [
                "\u2581helped",
                -9.429370897270399
            ],
            [
                "\u2581fully",
                -9.429987875086525
            ],
            [
                "\u2581relationship",
                -9.430046559994814
            ],
            [
                "\u2581goal",
                -9.430094180704623
            ],
            [
                "\u2581join",
                -9.430189421968251
            ],
            [
                "ry",
                -9.43110727624259
            ],
            [
                "\u2581again,",
                -9.434178952566832
            ],
            [
                "\u2581we\u2019re",
                -9.43475581457049
            ],
            [
                "\u2581fine",
                -9.43500249923811
            ],
            [
                "\u2581brand",
                -9.438038675362431
            ],
            [
                "\u2581creating",
                -9.439564191994695
            ],
            [
                "\u2581December",
                -9.44186558244078
            ],
            [
                "\u2581June",
                -9.441920637757807
            ],
            [
                "\u2581directly",
                -9.442911380853158
            ],
            [
                "\u2581addition",
                -9.44318529357487
            ],
            [
                "\u2581success",
                -9.443390598488941
            ],
            [
                "\u2581Like",
                -9.444771388642739
            ],
            [
                "\u2581lack",
                -9.445358738748789
            ],
            [
                "!!!",
                -9.445406144783913
            ],
            [
                "\u2581sites",
                -9.446073259832868
            ],
            [
                "\u2581places",
                -9.448915956628753
            ],
            [
                "\u2581model",
                -9.449148742115927
            ],
            [
                "\u2581helps",
                -9.449216489257095
            ],
            [
                "\u258111",
                -9.449299319197994
            ],
            [
                "\u2581road",
                -9.450374208852715
            ],
            [
                "\u2581allowed",
                -9.451586061063137
            ],
            [
                "\u2581patients",
                -9.452180476731359
            ],
            [
                "\u2581Go",
                -9.452587522461869
            ],
            [
                "\u2581built",
                -9.453019687706902
            ],
            [
                "\u2581Take",
                -9.453511890703028
            ],
            [
                "\u2581South",
                -9.454631139041716
            ],
            [
                "\u2581normal",
                -9.454745118115794
            ],
            [
                "\u2581countries",
                -9.454804649112615
            ],
            [
                "\u2581appreciate",
                -9.455165178859797
            ],
            [
                "\u2581enjoyed",
                -9.455401425335966
            ],
            [
                "\u2581aware",
                -9.45874858872236
            ],
            [
                "\u2581costs",
                -9.458973927202578
            ],
            [
                "\u2581regarding",
                -9.463357845247364
            ],
            [
                "\u2581tips",
                -9.466247823290791
            ],
            [
                "\u2581watching",
                -9.466528589855761
            ],
            [
                "\u2581Where",
                -9.467269338864721
            ],
            [
                "\u2581changed",
                -9.467810298765936
            ],
            [
                "\u2581North",
                -9.467914800792087
            ],
            [
                "\u2581deep",
                -9.469167635197065
            ],
            [
                "\u2581he's",
                -9.469338951109853
            ],
            [
                "\u2581effect",
                -9.469868525383434
            ],
            [
                "\u2581pass",
                -9.469894535486638
            ],
            [
                "\u2581track",
                -9.46998245481284
            ],
            [
                "\u2581baby",
                -9.47024966115538
            ],
            [
                "\u2581mentioned",
                -9.470504527487538
            ],
            [
                "\u2581moved",
                -9.470953417465545
            ],
            [
                "\u2581fact,",
                -9.471530615806472
            ],
            [
                "\u2581safety",
                -9.472027479906188
            ],
            [
                "\u2581college",
                -9.472605660545595
            ],
            [
                "less",
                -9.473150720112054
            ],
            [
                "\u2581act",
                -9.4739850525985
            ],
            [
                "\u2581poor",
                -9.474560878909617
            ],
            [
                "\u2581home.",
                -9.474885708172309
            ],
            [
                "\u2581Read",
                -9.47505980687692
            ],
            [
                "\u2581photos",
                -9.476492781795304
            ],
            [
                "\u2581here,",
                -9.477760015305083
            ],
            [
                "\u2581mobile",
                -9.478942520688463
            ],
            [
                "\u2581beyond",
                -9.479211188862296
            ],
            [
                "\u2581plans",
                -9.479948860888019
            ],
            [
                "1",
                -9.480229086477879
            ],
            [
                "\u2581sell",
                -9.482237955500295
            ],
            [
                "\u2581standard",
                -9.484260746755513
            ],
            [
                "\u2581green",
                -9.485175943650166
            ],
            [
                "\u2581April",
                -9.485784844699726
            ],
            [
                "\u2581Day",
                -9.486031825878774
            ],
            [
                "\u2581played",
                -9.486476308684296
            ],
            [
                "\u2581forget",
                -9.487422313835566
            ],
            [
                "\u2581decide",
                -9.488233882493411
            ],
            [
                "\u2581successful",
                -9.488336979697202
            ],
            [
                "ur",
                -9.488680202463083
            ],
            [
                "\u2581parts",
                -9.48952520152229
            ],
            [
                "\u2581wife",
                -9.48964990332956
            ],
            [
                "\u2581included",
                -9.49063122386649
            ],
            [
                "\u2581resources",
                -9.49110130398035
            ],
            [
                "\u2581son",
                -9.491645819386946
            ],
            [
                "\u2581Any",
                -9.494990096993991
            ],
            [
                "\u2581lose",
                -9.495396835315727
            ],
            [
                "\u2581growth",
                -9.498085846685605
            ],
            [
                "\u2581style",
                -9.498374790249319
            ],
            [
                "\u2581clean",
                -9.499564353693156
            ],
            [
                "\u2581hotel",
                -9.499727083918774
            ],
            [
                "\u2581First",
                -9.499987697584018
            ],
            [
                "\u2581City",
                -9.500392068768583
            ],
            [
                "\u2581sit",
                -9.500815551497581
            ],
            [
                "\u2013",
                -9.50160316888839
            ],
            [
                "\u2581table",
                -9.502255211229105
            ],
            [
                "\u2581H",
                -9.504030216916057
            ],
            [
                "\u2581career",
                -9.50425044335939
            ],
            [
                "\u2581stories",
                -9.504374185936033
            ],
            [
                "\u2581touch",
                -9.50438805969228
            ],
            [
                "\u2581allows",
                -9.505687628403981
            ],
            [
                "\u2581multiple",
                -9.505900922147635
            ],
            [
                "\u2581excited",
                -9.507050842123425
            ],
            [
                "\".",
                -9.507997583983986
            ],
            [
                "\u2581say,",
                -9.509286858102005
            ],
            [
                "\u2581reasons",
                -9.509840676967109
            ],
            [
                "\u2581steps",
                -9.510902209211629
            ],
            [
                "\u2581know,",
                -9.511802576471995
            ],
            [
                "\u2581fear",
                -9.513819416638963
            ],
            [
                "\u2581father",
                -9.51478833530561
            ],
            [
                "\u2581middle",
                -9.516192767043538
            ],
            [
                "\u2581basic",
                -9.516596090522714
            ],
            [
                "\u2581L",
                -9.516809443763528
            ],
            [
                "est",
                -9.517788104218594
            ],
            [
                "\u2581claim",
                -9.518089603595111
            ],
            [
                "\u2581players",
                -9.519239454240973
            ],
            [
                "\u2581helping",
                -9.522354833010628
            ],
            [
                "\u2581July",
                -9.52283622102283
            ],
            [
                "\u2581posts",
                -9.522944363303084
            ],
            [
                "\u2581clients",
                -9.52361719955688
            ],
            [
                "\u2581itself",
                -9.524287300204872
            ],
            [
                "\u2581located",
                -9.524440543948351
            ],
            [
                "\u2581Get",
                -9.524685179670119
            ],
            [
                "\u2581(I",
                -9.525895433314943
            ],
            [
                "\u2581totally",
                -9.525982604892699
            ],
            [
                "\u2581conditions",
                -9.526288871908664
            ],
            [
                "\u2581published",
                -9.52643273131406
            ],
            [
                "\u2581feet",
                -9.526456125599427
            ],
            [
                "'ll",
                -9.527030948247901
            ],
            [
                "\u2581said:",
                -9.527107735715104
            ],
            [
                "\u25812015",
                -9.528595751072661
            ],
            [
                "\u2581helpful",
                -9.52901072127077
            ],
            [
                "ting",
                -9.529246214884784
            ],
            [
                "\u2581image",
                -9.53027071409928
            ],
            [
                "\u2581land",
                -9.530287358155988
            ],
            [
                "\u2581realize",
                -9.530619840366874
            ],
            [
                "\u2581alone",
                -9.530742087299064
            ],
            [
                "\u2581info",
                -9.530820970973357
            ],
            [
                "ate",
                -9.531239729106456
            ],
            [
                "\u2581material",
                -9.531260031861926
            ],
            [
                "\u25812017",
                -9.53138336671708
            ],
            [
                "E",
                -9.53180531342949
            ],
            [
                "\u2581Love",
                -9.531811806061958
            ],
            [
                "\u2581trust",
                -9.531915258424522
            ],
            [
                "\u2581Don't",
                -9.53235281227509
            ],
            [
                "\u2581today.",
                -9.53268697089057
            ],
            [
                "\u2581wouldn't",
                -9.533281138778682
            ],
            [
                "\u2581and/or",
                -9.533691850724763
            ],
            [
                "\u2581passed",
                -9.53387798530872
            ],
            [
                "\u2581response",
                -9.53418799050949
            ],
            [
                "\u2581Department",
                -9.53460859211383
            ],
            [
                "\u2581Don\u2019t",
                -9.535568665183394
            ],
            [
                "\u258124",
                -9.535629280162532
            ],
            [
                "\u2581site.",
                -9.536391852405682
            ],
            [
                "\u2581happens",
                -9.536474388595046
            ],
            [
                "\u2581projects",
                -9.537999134185906
            ],
            [
                "\u2581responsible",
                -9.538259473937178
            ],
            [
                "\u201d.",
                -9.539540252183059
            ],
            [
                "\u2581shared",
                -9.540483033295276
            ],
            [
                "\u2581November",
                -9.54102850869223
            ],
            [
                "el",
                -9.543418190123104
            ],
            [
                "\u2581digital",
                -9.544239424195727
            ],
            [
                "\u2581fresh",
                -9.544365580696637
            ],
            [
                "\u2581notice",
                -9.544988719196997
            ],
            [
                "\u2581effort",
                -9.546396632190028
            ],
            [
                "\u2581plenty",
                -9.547997616344471
            ],
            [
                "\u2581healthy",
                -9.548330904303967
            ],
            [
                "\u2581haven't",
                -9.549057345376278
            ],
            [
                "\u2581Her",
                -9.549415937124493
            ],
            [
                "\u25812016",
                -9.54975919181568
            ],
            [
                "\u2581way,",
                -9.550117532020067
            ],
            [
                "!\u201d",
                -9.550413400584
            ],
            [
                "\u2581character",
                -9.551639923493514
            ],
            [
                "\u2581protect",
                -9.552242774133289
            ],
            [
                "\u2581nature",
                -9.55315937025788
            ],
            [
                "\u2581copy",
                -9.554684141365794
            ],
            [
                "\u2581skin",
                -9.557427375504489
            ],
            [
                "\u2581powerful",
                -9.558993907209402
            ],
            [
                "\u2581fight",
                -9.559531748947396
            ],
            [
                "\u2581appears",
                -9.559556563136177
            ],
            [
                "T",
                -9.560375271819495
            ],
            [
                "\u2581husband",
                -9.561161606961349
            ],
            [
                "\u2581immediately",
                -9.561203957270394
            ],
            [
                "\u2581clearly",
                -9.561780298566761
            ],
            [
                "\u2581military",
                -9.562095585949004
            ],
            [
                "\u2581sleep",
                -9.563231719159157
            ],
            [
                "\u2581color",
                -9.563740752525415
            ],
            [
                "\u2581respect",
                -9.564434753019345
            ],
            [
                "*",
                -9.564682420956164
            ],
            [
                "4",
                -9.564905058293991
            ],
            [
                "\u2581House",
                -9.565019965162133
            ],
            [
                "\u2581Also,",
                -9.565317036399954
            ],
            [
                "\u2581appear",
                -9.566016656091193
            ],
            [
                "\u2581offered",
                -9.56618868423867
            ],
            [
                "\u2581movie",
                -9.567101424022646
            ],
            [
                "\u2581ten",
                -9.567292682496028
            ],
            [
                "\u2581we're",
                -9.567761896336606
            ],
            [
                "\u2581wrote",
                -9.568755595501507
            ],
            [
                "\u2581box",
                -9.568975720837969
            ],
            [
                "G",
                -9.5692084719863
            ],
            [
                "\u2581except",
                -9.57003126866572
            ],
            [
                "\u2581\"You",
                -9.570218304247728
            ],
            [
                "\u2581rights",
                -9.573073652889926
            ],
            [
                "\u2581asking",
                -9.57400625314455
            ],
            [
                "ne",
                -9.574053663374347
            ],
            [
                "\u2581cold",
                -9.575193754596473
            ],
            [
                "ly,",
                -9.575585844484522
            ],
            [
                "\u2581meant",
                -9.576548825068285
            ],
            [
                "\u2581you've",
                -9.577088788119406
            ],
            [
                "\u2581posted",
                -9.57737893650987
            ],
            [
                "\u258140",
                -9.577681754252335
            ],
            [
                "\u258114",
                -9.57887838871725
            ],
            [
                "\u2581keeping",
                -9.579314330167794
            ],
            [
                "\u2581levels",
                -9.580049317519512
            ],
            [
                "\u2581charge",
                -9.580609887208489
            ],
            [
                "\u2581daughter",
                -9.580748198080888
            ],
            [
                "\u2581greater",
                -9.581478205643858
            ],
            [
                "\u2581groups",
                -9.582346143429852
            ],
            [
                "\u2581doubt",
                -9.58305396866911
            ],
            [
                "\u2581drop",
                -9.583702837683918
            ],
            [
                "\u2581tools",
                -9.584150818403291
            ],
            [
                "\u2581pictures",
                -9.584924162952579
            ],
            [
                "\u2581January",
                -9.585041009487743
            ],
            [
                "\u2581guide",
                -9.58548840152482
            ],
            [
                "\u2581dog",
                -9.586251502208155
            ],
            [
                "\u2581ahead",
                -9.586297728495076
            ],
            [
                "\u2581thoughts",
                -9.58871410159211
            ],
            [
                "\u2581driving",
                -9.58991833148163
            ],
            [
                "(",
                -9.592580482198205
            ],
            [
                "\u2581prior",
                -9.593372430829707
            ],
            [
                "ling",
                -9.595322128758486
            ],
            [
                "\u2581older",
                -9.595537170358076
            ],
            [
                "\u2581whose",
                -9.596980745345636
            ],
            [
                "\u2581explain",
                -9.599358580607625
            ],
            [
                "\u2581court",
                -9.600126986247863
            ],
            [
                "\u2581location",
                -9.600127841651775
            ],
            [
                "\u2581bottom",
                -9.600505514141794
            ],
            [
                "\u2581shown",
                -9.600868447305249
            ],
            [
                "ve",
                -9.601044748962538
            ],
            [
                "\u2581employees",
                -9.601254117426244
            ],
            [
                "N",
                -9.60190991973018
            ],
            [
                "\u2581fair",
                -9.602260105739367
            ],
            [
                "\u2581language",
                -9.603215069842264
            ],
            [
                "\u2581Oh",
                -9.603403206509928
            ],
            [
                "\u2581leading",
                -9.603803078041572
            ],
            [
                "\u2581it!",
                -9.60429873094871
            ],
            [
                "\u2581topic",
                -9.604364011334525
            ],
            [
                "\u2581October",
                -9.604588316888861
            ],
            [
                "\u2581lovely",
                -9.605590811422175
            ],
            [
                "\u2581Health",
                -9.605775086028913
            ],
            [
                "\u2581ground",
                -9.60659694514877
            ],
            [
                "\u2581release",
                -9.606698181534632
            ],
            [
                "\u2581discovered",
                -9.607183393979394
            ],
            [
                "\u258113",
                -9.60735551504189
            ],
            [
                "\u258125",
                -9.607876594216304
            ],
            [
                "\u2581couldn't",
                -9.608022619835154
            ],
            [
                "\u2581accept",
                -9.608743667771929
            ],
            [
                "\u2581bought",
                -9.610017169382175
            ],
            [
                "\u2581putting",
                -9.610200956196286
            ],
            [
                "\u2581direct",
                -9.611531440801468
            ],
            [
                "\u2581carry",
                -9.611634872595133
            ],
            [
                "\u2581purpose",
                -9.61363042598267
            ],
            [
                "\u2581experienced",
                -9.614318170500523
            ],
            [
                "K",
                -9.616254791228329
            ],
            [
                "\u2581bed",
                -9.616303559000116
            ],
            [
                "\u2581text",
                -9.616739831305733
            ],
            [
                "\u2581well,",
                -9.617294863206148
            ],
            [
                "\u2581miss",
                -9.6175095042179
            ],
            [
                "\u2581letter",
                -9.61838146621586
            ],
            [
                "\u2581production",
                -9.618898262406525
            ],
            [
                "\u2581payment",
                -9.619011636354067
            ],
            [
                "\u2581environment",
                -9.62055894196557
            ],
            [
                "\u2581cheap",
                -9.620578700302831
            ],
            [
                "\u2581therefore",
                -9.621150593749629
            ],
            [
                "\u2581dark",
                -9.621240803436791
            ],
            [
                "\u2581solution",
                -9.621426052429863
            ],
            [
                "no",
                -9.621921760088831
            ],
            [
                "\u2581English",
                -9.622150470987041
            ],
            [
                "\u2581wear",
                -9.622544394169346
            ],
            [
                "\u2581busy",
                -9.624676976362782
            ],
            [
                "\u2581Well",
                -9.626692863890472
            ],
            [
                "\u2581imagine",
                -9.62683433667395
            ],
            [
                "\u2581actual",
                -9.62789578068162
            ],
            [
                "\u2581round",
                -9.628744398889891
            ],
            [
                "\ud83d\ude42",
                -9.629897107081685
            ],
            [
                "Yes,",
                -9.630410183102182
            ],
            [
                "\u2581former",
                -9.630746339954777
            ],
            [
                "\u2581achieve",
                -9.631059122032523
            ],
            [
                "'d",
                -9.63263586254222
            ],
            [
                "\u2581sitting",
                -9.634605095961962
            ],
            [
                "\u2581remain",
                -9.634983830478095
            ],
            [
                "\u2581truth",
                -9.636355259441718
            ],
            [
                "\u258116",
                -9.637119408272081
            ],
            [
                "W",
                -9.638049571791688
            ],
            [
                "\u2581week.",
                -9.639043234430021
            ],
            [
                "\u2581Every",
                -9.639141385082251
            ],
            [
                "\u2581shot",
                -9.639468547543476
            ],
            [
                "\u2581prevent",
                -9.639601624695048
            ],
            [
                "\u2581N",
                -9.639964505882404
            ],
            [
                "\u2581damage",
                -9.64093983050217
            ],
            [
                "\u2581force",
                -9.641681750552813
            ],
            [
                "\u2581TV",
                -9.641686762278564
            ],
            [
                "\u2581one.",
                -9.641700374873583
            ],
            [
                "\u2581followed",
                -9.641843001803608
            ],
            [
                "\u2581author",
                -9.642039486641355
            ],
            [
                "\u2581straight",
                -9.64252427456738
            ],
            [
                "\u2581cases",
                -9.64361282115019
            ],
            [
                "\u2581creative",
                -9.644398660860436
            ],
            [
                "\u2581however",
                -9.645657383710574
            ],
            [
                "\u25812014",
                -9.647211846860193
            ],
            [
                "\u2581\"We",
                -9.647574440841954
            ],
            [
                "\u2581mention",
                -9.650072507101434
            ],
            [
                "\u25813.",
                -9.650533759858611
            ],
            [
                "\u2581discuss",
                -9.652989957703376
            ],
            [
                "\u2581leaving",
                -9.653137371347928
            ],
            [
                "\u2581Internet",
                -9.654794892683814
            ],
            [
                "me",
                -9.655111633312394
            ],
            [
                "\u2581reduce",
                -9.655568635248233
            ],
            [
                "\u2581post.",
                -9.65567645035228
            ],
            [
                "V",
                -9.655949742103179
            ],
            [
                "\u2581eating",
                -9.656141790680605
            ],
            [
                "ment",
                -9.656830870948305
            ],
            [
                "\u2581people.",
                -9.658635752857476
            ],
            [
                "\u2581network",
                -9.658892163279095
            ],
            [
                "\u2581gift",
                -9.659072391750495
            ],
            [
                "\u2581girls",
                -9.659482262710064
            ],
            [
                "\u2581comfortable",
                -9.661123983139348
            ],
            [
                "\u2581manage",
                -9.66173208845245
            ],
            [
                "\u2581Trump",
                -9.662951336771654
            ],
            [
                "\u2581request",
                -9.663853066334527
            ],
            [
                "\u2581it?",
                -9.66480661245379
            ],
            [
                "\u2581programs",
                -9.664908659359357
            ],
            [
                "....",
                -9.665353549343681
            ],
            [
                "\u2581information.",
                -9.665656139701827
            ],
            [
                "\u2581Man",
                -9.666197468877954
            ],
            [
                "\u2581effects",
                -9.666499032150139
            ],
            [
                "\u2581generally",
                -9.66755882293873
            ],
            [
                "\u2581weather",
                -9.668339356905026
            ],
            [
                "\u2581systems",
                -9.668455861800872
            ],
            [
                "\u2581aren\u2019t",
                -9.66937847698389
            ],
            [
                "ll",
                -9.670594379413687
            ],
            [
                "\u2581method",
                -9.674511778240785
            ],
            [
                "\u2581walking",
                -9.674577533405877
            ],
            [
                "\u2581exciting",
                -9.675477168426266
            ],
            [
                "out",
                -9.675663620411186
            ],
            [
                "\u2581finished",
                -9.676116328808334
            ],
            [
                "\u2581listen",
                -9.676531244187947
            ],
            [
                "\u2581income",
                -9.67657078384283
            ],
            [
                "-based",
                -9.678936242263894
            ],
            [
                "\u2581opportunities",
                -9.6809007591757
            ],
            [
                "\u2581whom",
                -9.682424913291268
            ],
            [
                "\u2581biggest",
                -9.683389394974112
            ],
            [
                "\u2581businesses",
                -9.683425660514377
            ],
            [
                "\u2581dead",
                -9.683546027925267
            ],
            [
                "\u2581developed",
                -9.685529874129616
            ],
            [
                "\u2581investment",
                -9.685567589204604
            ],
            [
                "go",
                -9.685874612019932
            ],
            [
                "F",
                -9.686091002680644
            ],
            [
                "\u2581super",
                -9.686638684574312
            ],
            [
                "\u2581earlier",
                -9.68674350508224
            ],
            [
                "\u2581maintain",
                -9.686887263865845
            ],
            [
                "\u2581he\u2019s",
                -9.68696104574131
            ],
            [
                "\u2581ended",
                -9.687738231723536
            ],
            [
                "\u2581life,",
                -9.687786420287486
            ],
            [
                "\u2581According",
                -9.68788625544991
            ],
            [
                "\u2581update",
                -9.688271445146338
            ],
            [
                "\u2581released",
                -9.688351680076106
            ],
            [
                "\u2581serve",
                -9.689829819092811
            ],
            [
                "O",
                -9.692421502976057
            ],
            [
                "I\u2019d",
                -9.692653472193022
            ],
            [
                "\u2581speed",
                -9.692660461615798
            ],
            [
                "ch",
                -9.693367673115425
            ],
            [
                "\u2581relevant",
                -9.693905707956002
            ],
            [
                "\u2581active",
                -9.695418184249798
            ],
            [
                "\u2581Which",
                -9.695806526545763
            ],
            [
                "\u2581UK",
                -9.696846485778124
            ],
            [
                "\u2581During",
                -9.698748630486872
            ],
            [
                "\u2581Life",
                -9.699718597348554
            ],
            [
                "\u2581Each",
                -9.699937517977459
            ],
            [
                "\u2581overall",
                -9.700731685375235
            ],
            [
                "ies",
                -9.700978364849487
            ],
            [
                "\u2581waste",
                -9.701011911750534
            ],
            [
                "\u2581rules",
                -9.701057535656037
            ],
            [
                "\u2581covered",
                -9.701229888384983
            ],
            [
                "\u2581fantastic",
                -9.702459452952745
            ],
            [
                "\u2581weekend",
                -9.702828745211377
            ],
            [
                "\u2581work,",
                -9.702964212692981
            ],
            [
                "\u2581app",
                -9.703375890131504
            ],
            [
                "\u2581supposed",
                -9.70359240622367
            ],
            [
                "\u2581supply",
                -9.704137362217317
            ],
            [
                "\u00ad",
                -9.704263962519507
            ],
            [
                "\u2581degree",
                -9.706049512939524
            ],
            [
                "H",
                -9.706208664001661
            ],
            [
                "\u2581prepared",
                -9.707496510123594
            ],
            [
                "\u2581welcome",
                -9.708587507279434
            ],
            [
                "!)",
                -9.709738474484809
            ],
            [
                "\u2581Did",
                -9.70997987202973
            ],
            [
                "\u2581sun",
                -9.710688552306483
            ],
            [
                "\u2581organization",
                -9.71171306070925
            ],
            [
                "\u2581warm",
                -9.71193177914072
            ],
            [
                "\u2581coffee",
                -9.712033423657026
            ],
            [
                "\u2581screen",
                -9.71216620822102
            ],
            [
                "\u2581seven",
                -9.71222986614775
            ],
            [
                "\u2581ago,",
                -9.712822751381635
            ],
            [
                "\u2581miles",
                -9.712873116825442
            ],
            [
                "\u2581Another",
                -9.713602312072663
            ],
            [
                "\u2581numbers",
                -9.714064590028316
            ],
            [
                "\u2581collection",
                -9.71439083141536
            ],
            [
                "\u2581West",
                -9.714787761010935
            ],
            [
                "\u2581challenge",
                -9.71535439214521
            ],
            [
                "\u2581led",
                -9.715695341662627
            ],
            [
                "\u2581slow",
                -9.716192052736513
            ],
            [
                "\u2581Yes",
                -9.716822798781706
            ],
            [
                "\u2581feature",
                -9.717594290387828
            ],
            [
                "\u2581activity",
                -9.717709146654602
            ],
            [
                "\u2581holiday",
                -9.718403605206511
            ],
            [
                "\u2581September",
                -9.718435980570396
            ],
            [
                "\u2581Keep",
                -9.718710433251537
            ],
            [
                "M",
                -9.72057746374667
            ],
            [
                "id",
                -9.721673637339906
            ],
            [
                "\u2581setting",
                -9.721948866120204
            ],
            [
                "\u2581trade",
                -9.722182454037242
            ],
            [
                "\u2581blue",
                -9.724694216953818
            ],
            [
                "age",
                -9.725335647543695
            ],
            [
                "\u2581willing",
                -9.725699894549457
            ],
            [
                "\u2581opened",
                -9.726166418317082
            ],
            [
                "\u2581treat",
                -9.726423238456174
            ],
            [
                "\u2581pages",
                -9.726821663301987
            ],
            [
                "\u2581advantage",
                -9.727269391587287
            ],
            [
                "\u2581pressure",
                -9.727787036759059
            ],
            [
                "\u2581spending",
                -9.729442549229658
            ],
            [
                "\u2581Those",
                -9.729577476337052
            ],
            [
                "\u2581statement",
                -9.72992837410686
            ],
            [
                "co",
                -9.731121980523053
            ],
            [
                "\u2581feels",
                -9.731900746746517
            ],
            [
                "\u2581fan",
                -9.732214627978802
            ],
            [
                "\u2581gain",
                -9.732416764363382
            ],
            [
                "L",
                -9.732581036897393
            ],
            [
                "\u2581billion",
                -9.732803582928524
            ],
            [
                "\u2581sweet",
                -9.733364585290728
            ],
            [
                "\u2581haven\u2019t",
                -9.734006495526081
            ],
            [
                "s:",
                -9.734383889550099
            ],
            [
                "\u2581surprised",
                -9.734409179497767
            ],
            [
                "\u2581brain",
                -9.734420961209626
            ],
            [
                "\u2581traditional",
                -9.734433324175995
            ],
            [
                "\u2581drug",
                -9.736162936241199
            ],
            [
                "\u2581correct",
                -9.736274874805314
            ],
            [
                "\u2581kill",
                -9.73634683146729
            ],
            [
                "\u2581Click",
                -9.736351080946271
            ],
            [
                "il",
                -9.736989566408083
            ],
            [
                "\u2581bar",
                -9.737130447885589
            ],
            [
                "\u2581requirements",
                -9.737833360149132
            ],
            [
                "\u2581fill",
                -9.73815247049689
            ],
            [
                "\u2581Use",
                -9.738463528736322
            ],
            [
                "\u2581managed",
                -9.739106200519599
            ],
            [
                "\u2581worry",
                -9.739376903059455
            ],
            [
                "\u2581Over",
                -9.739556426793126
            ],
            [
                "\u2581Check",
                -9.739621718116137
            ],
            [
                "\u2581Me",
                -9.740596519573675
            ],
            [
                "\u2581See",
                -9.741431263164355
            ],
            [
                "\u2581increased",
                -9.741606618669651
            ],
            [
                "\u2581existing",
                -9.741627178407027
            ],
            [
                "5",
                -9.741737314311678
            ],
            [
                "\u2581discussion",
                -9.742768628056217
            ],
            [
                "\u2581client",
                -9.74393096965337
            ],
            [
                "\u2581reported",
                -9.74568362891073
            ],
            [
                "\u2581possibly",
                -9.746012018465208
            ],
            [
                "\u2581finish",
                -9.746240290239772
            ],
            [
                "\u2581spot",
                -9.74653618636317
            ],
            [
                "\u2581bank",
                -9.746855192716737
            ],
            [
                "\u2581sorry",
                -9.747688937958689
            ],
            [
                "\u2581heat",
                -9.748317885577087
            ],
            [
                "\u2581mental",
                -9.750209640679653
            ],
            [
                "\u2581doctor",
                -9.75142187184565
            ],
            [
                "\u2581complex",
                -9.751470927744533
            ],
            [
                "\u2581Now,",
                -9.751890540190555
            ],
            [
                "\u2581camera",
                -9.752104237877816
            ],
            [
                "\u2581equipment",
                -9.752419866311271
            ],
            [
                "\u2581stock",
                -9.752459605664718
            ],
            [
                "\u2581School",
                -9.753272251872723
            ],
            [
                "\u2581official",
                -9.753676841964856
            ],
            [
                "\u2581telling",
                -9.754610839279383
            ],
            [
                "\u2581families",
                -9.754874282368482
            ],
            [
                "\u258117",
                -9.756121799055794
            ],
            [
                "\u2581buying",
                -9.756829978718748
            ],
            [
                "\u2581San",
                -9.75710327118521
            ],
            [
                "\u2581suggest",
                -9.757763322748787
            ],
            [
                "\u2581killed",
                -9.75817779364346
            ],
            [
                "\u2581catch",
                -9.758400116928053
            ],
            [
                "up",
                -9.758754542134014
            ],
            [
                "\u2581showing",
                -9.759825828851593
            ],
            [
                "\u2581visiting",
                -9.76140504251509
            ],
            [
                "\u2581European",
                -9.762430613269924
            ],
            [
                "\u2581teaching",
                -9.76484571504241
            ],
            [
                "\u2581Time",
                -9.765031996905616
            ],
            [
                "\u2581though,",
                -9.765908338400974
            ],
            [
                "\u2581Jesus",
                -9.765995060129445
            ],
            [
                "\u2581wedding",
                -9.768665125292763
            ],
            [
                "\u2581Before",
                -9.769469639067433
            ],
            [
                "\u2581patient",
                -9.770335181098593
            ],
            [
                "\u2581essential",
                -9.770408082106158
            ],
            [
                "\u2581attempt",
                -9.771255650422859
            ],
            [
                "\u2581pm",
                -9.772344813495838
            ],
            [
                "\u2581hearing",
                -9.772774587943434
            ],
            [
                "\u2581onto",
                -9.773533496794904
            ],
            [
                "\u2581Friday",
                -9.77488165060063
            ],
            [
                "\u2581becoming",
                -9.775298890482805
            ],
            [
                "\u2581August",
                -9.775784603389125
            ],
            [
                "\u2581otherwise",
                -9.776009937270153
            ],
            [
                "\u2581W",
                -9.77653733678536
            ],
            [
                "\u2581handle",
                -9.776711815017563
            ],
            [
                "\u2581links",
                -9.777064778446757
            ],
            [
                "\u2581caused",
                -9.77753527454512
            ],
            [
                "\u2581produce",
                -9.777681523628262
            ],
            [
                "'ve",
                -9.778534777546305
            ],
            [
                "ary",
                -9.778674859302999
            ],
            [
                "\u2581base",
                -9.778831184103248
            ],
            [
                "\u2581continued",
                -9.77968418336362
            ],
            [
                "\u2581mine",
                -9.780033169193532
            ],
            [
                "\u258160",
                -9.780589481320277
            ],
            [
                "\u2581friendly",
                -9.780774590945954
            ],
            [
                "\u2581annual",
                -9.78084189664074
            ],
            [
                "\u2581us,",
                -9.781144160457373
            ],
            [
                "\u2581more.",
                -9.781219511696872
            ],
            [
                "\u2581America",
                -9.781990418146652
            ],
            [
                "\u2581wouldn\u2019t",
                -9.782046316815112
            ],
            [
                "\u2581exercise",
                -9.784120011022074
            ],
            [
                "\u2581floor",
                -9.784459467555122
            ],
            [
                "\u2581majority",
                -9.784583105159934
            ],
            [
                "\u2581away.",
                -9.785586758758516
            ],
            [
                "\u2581Would",
                -9.78789059327223
            ],
            [
                "\u2581couldn\u2019t",
                -9.78834963084936
            ],
            [
                "\u2581plus",
                -9.788441919248394
            ],
            [
                "\u2581died",
                -9.789115985944093
            ],
            [
                "\u2581place.",
                -9.789158692405387
            ],
            [
                "\u2581critical",
                -9.78924376868088
            ],
            [
                "\u2581proper",
                -9.790144424869116
            ],
            [
                "\u2581her.",
                -9.791006691514317
            ],
            [
                "\u2581title",
                -9.791065058326467
            ],
            [
                "\u2581commercial",
                -9.791156660208692
            ],
            [
                "\u2581efforts",
                -9.791185393249231
            ],
            [
                "\u2581February",
                -9.791474241180417
            ],
            [
                "\u2581science",
                -9.79152899074143
            ],
            [
                "\u2581toward",
                -9.791798584551437
            ],
            [
                "\u2581dream",
                -9.793797617477718
            ],
            [
                "\u2581stage",
                -9.794309466141339
            ],
            [
                "\u2581associated",
                -9.796382596434754
            ],
            [
                "\u2581adding",
                -9.796934976145295
            ],
            [
                "\u2581Looking",
                -9.797621720216693
            ],
            [
                "\u2581caught",
                -9.799065661852556
            ],
            [
                "\u2581Oh,",
                -9.800128224524455
            ],
            [
                "un",
                -9.800203897618477
            ],
            [
                "\u2581thousands",
                -9.801561413773504
            ],
            [
                "\u2581born",
                -9.802134352095994
            ],
            [
                "\u2581schools",
                -9.802394450963323
            ],
            [
                "\u2581download",
                -9.80242156487213
            ],
            [
                "\u2581won",
                -9.802689284928139
            ],
            [
                "\u2581good.",
                -9.803196077934281
            ],
            [
                "\u2581sold",
                -9.804601241343645
            ],
            [
                "\u25814.",
                -9.80491490446635
            ],
            [
                "\u2581opening",
                -9.806363123201034
            ],
            [
                "\u2581sea",
                -9.806662748039376
            ],
            [
                "\u2581requires",
                -9.80720224809989
            ],
            [
                "\u2581song",
                -9.807422584169093
            ],
            [
                "\u2581campaign",
                -9.807862288729762
            ],
            [
                "\u2581fix",
                -9.808465394456821
            ],
            [
                "\u2581meaning",
                -9.808771736217562
            ],
            [
                ".)",
                -9.809197352491324
            ],
            [
                "\u2581White",
                -9.809984694299406
            ],
            [
                "\u2581website.",
                -9.810051081956367
            ],
            [
                "ish",
                -9.810356043630648
            ],
            [
                "\u2581heavy",
                -9.811027585490269
            ],
            [
                "\u2581remove",
                -9.812104863883151
            ],
            [
                "\u2581cash",
                -9.81261067363009
            ],
            [
                "\u2581week,",
                -9.812895651329416
            ],
            [
                "\u2581sat",
                -9.813978709030398
            ],
            [
                "\u2581noticed",
                -9.814081171002758
            ],
            [
                "\u2581mostly",
                -9.814833062208418
            ],
            [
                "mm",
                -9.815355084571927
            ],
            [
                "\u2581Very",
                -9.816166943057425
            ],
            [
                "\u2581Last",
                -9.816564554723872
            ],
            [
                "\u2581Today",
                -9.816809549538696
            ],
            [
                "\u2581up,",
                -9.81775938176517
            ],
            [
                "\u2581re-",
                -9.81979157618292
            ],
            [
                "\u2581minute",
                -9.820843110148255
            ],
            [
                "\u2581possible.",
                -9.8214134490065
            ],
            [
                "\u2581tend",
                -9.822043758730004
            ],
            [
                "\u2581culture",
                -9.822302075215656
            ],
            [
                "\u2581strategy",
                -9.822965106823398
            ],
            [
                "\u2581knowing",
                -9.823285239335629
            ],
            [
                "\u2581liked",
                -9.824025899719427
            ],
            [
                "\u2581Act",
                -9.824043647619693
            ],
            [
                "\u2581drink",
                -9.826478543736437
            ],
            [
                "\u2581standing",
                -9.82691984494898
            ],
            [
                "\u2581cancer",
                -9.827189736700644
            ],
            [
                "\u2581>",
                -9.82739588661018
            ],
            [
                "\u2581U",
                -9.827576294499178
            ],
            [
                "\u2581lived",
                -9.829845003489037
            ],
            [
                "\u2581gun",
                -9.830306482762197
            ],
            [
                "\u2581served",
                -9.83059095871388
            ],
            [
                "\u2581player",
                -9.830842936770964
            ],
            [
                "\u2581states",
                -9.831000277596782
            ],
            [
                "\u2581tool",
                -9.83102278581162
            ],
            [
                "\u2581offering",
                -9.831910021566992
            ],
            [
                "\u2581budget",
                -9.83287720236162
            ],
            [
                "\u2581days.",
                -9.83353094526003
            ],
            [
                "\u2581shop",
                -9.833675932551525
            ],
            [
                "\u2581determine",
                -9.83378819290715
            ],
            [
                "\u2581awesome",
                -9.83394488986395
            ],
            [
                "\u2581vehicle",
                -9.834895355328015
            ],
            [
                "\u2581trouble",
                -9.836386461768384
            ],
            [
                "\u2581International",
                -9.836583607907318
            ],
            [
                "\u2581paying",
                -9.836734987807986
            ],
            [
                "\u2581hate",
                -9.838614372164905
            ],
            [
                "\u2581press",
                -9.838866656736059
            ],
            [
                "\u2581Does",
                -9.839223080474708
            ],
            [
                "\u2581Also",
                -9.839821877623393
            ],
            [
                "\u2581band",
                -9.840133984361753
            ],
            [
                "\u2581raised",
                -9.840327280495583
            ],
            [
                "do",
                -9.840781708268336
            ],
            [
                "\u2581minimum",
                -9.840981027925203
            ],
            [
                "\u2581afraid",
                -9.8421018089565
            ],
            [
                "\u2581world,",
                -9.842142837452485
            ],
            [
                "\u2581traffic",
                -9.842599171237556
            ],
            [
                "\u2581studies",
                -9.84272435325985
            ],
            [
                "\u2581prefer",
                -9.843944837349007
            ],
            [
                "\u2581Only",
                -9.844339027033527
            ],
            [
                "\u2581aren't",
                -9.845485142870205
            ],
            [
                "\u2581images",
                -9.845923415249047
            ],
            [
                "\u2581vote",
                -9.846237246848014
            ],
            [
                "\u2581sale",
                -9.846693110715552
            ],
            [
                "\u2581responsibility",
                -9.84744667994363
            ],
            [
                "\u2581described",
                -9.847452268733246
            ],
            [
                "\u2581despite",
                -9.84782576716269
            ],
            [
                "ir",
                -9.848549156717077
            ],
            [
                "\u2581opinion",
                -9.849177833087484
            ],
            [
                "\u2581federal",
                -9.849369363466069
            ],
            [
                "\u2581sex",
                -9.850207861114534
            ],
            [
                "\u2581http://www.",
                -9.85028093378024
            ],
            [
                "\u2581Two",
                -9.850969252409548
            ],
            [
                "\u2581Home",
                -9.8511549759274
            ],
            [
                "\u2581there,",
                -9.852375345613858
            ],
            [
                "\u2581condition",
                -9.853072029853344
            ],
            [
                "\u2581debt",
                -9.853142679284081
            ],
            [
                "\u2581War",
                -9.853874659147476
            ],
            [
                "\u2581ago.",
                -9.853902969788528
            ],
            [
                "\u2581jobs",
                -9.854609840630955
            ],
            [
                "\u2581device",
                -9.855332464013824
            ],
            [
                "\u2581TO",
                -9.85534918051633
            ],
            [
                "\u2581analysis",
                -9.855381841547551
            ],
            [
                "\u2581boy",
                -9.855537995283594
            ],
            [
                "\u2581proud",
                -9.855641145249365
            ],
            [
                "\u2581Sunday",
                -9.855931295190633
            ],
            [
                "\u2581changing",
                -9.85675637744454
            ],
            [
                "\u2581balance",
                -9.858756280000058
            ],
            [
                "\u2581materials",
                -9.85901806072415
            ],
            [
                "li",
                -9.859317611133598
            ],
            [
                "%",
                -9.860141887010577
            ],
            [
                "\u2581stopped",
                -9.86118762492483
            ],
            [
                "\u2581gas",
                -9.862539488289514
            ],
            [
                "\u2581negative",
                -9.862679130476714
            ],
            [
                "ge",
                -9.86320342994405
            ],
            [
                "\u2581filled",
                -9.863403418241763
            ],
            [
                "\u2581J",
                -9.864513185152465
            ],
            [
                "\u2581dinner",
                -9.864722708533236
            ],
            [
                "\u2581foreign",
                -9.864915996803305
            ],
            [
                "\u2581separate",
                -9.865607234387108
            ],
            [
                "\u2581V",
                -9.868024075752626
            ],
            [
                "\u2581Florida",
                -9.868296053880545
            ],
            [
                "\u2581NOT",
                -9.868877896992167
            ],
            [
                "ul",
                -9.870725680338518
            ],
            [
                "\u2581reached",
                -9.871352319735703
            ],
            [
                "\u2581ideal",
                -9.87152848128856
            ],
            [
                "\u2581rates",
                -9.872170291098152
            ],
            [
                "\u2581prices",
                -9.873350352024655
            ],
            [
                "\u2581uses",
                -9.87341132865587
            ],
            [
                "\u2581selling",
                -9.873544040258253
            ],
            [
                "\u2581larger",
                -9.873796310066709
            ],
            [
                "\u2581progress",
                -9.874827112051495
            ],
            [
                "X",
                -9.875315443546626
            ],
            [
                "\u2581auto",
                -9.876061154665852
            ],
            [
                "\u2581seek",
                -9.876487573285317
            ],
            [
                "\u2581others.",
                -9.876525654294543
            ],
            [
                "he",
                -9.877917940290233
            ],
            [
                "\u2581searching",
                -9.878264471401597
            ],
            [
                "\u2581folks",
                -9.878396654289288
            ],
            [
                "ized",
                -9.878902274194935
            ],
            [
                "\u2581IT",
                -9.879728217828259
            ],
            [
                ">",
                -9.88190723541161
            ],
            [
                "8",
                -9.882938507486799
            ],
            [
                "\u2581print",
                -9.88296057821836
            ],
            [
                "\u2581compared",
                -9.883038819261117
            ],
            [
                "\u2581desire",
                -9.88347915474569
            ],
            [
                "\u2581target",
                -9.884640304208268
            ],
            [
                "\u2581ice",
                -9.88500986795932
            ],
            [
                "\u2581deliver",
                -9.885168069789128
            ],
            [
                "\u2581future.",
                -9.886134211131132
            ],
            [
                "\u2581listed",
                -9.886450565137103
            ],
            [
                "ted",
                -9.887269397790192
            ],
            [
                "\u2581capital",
                -9.887726821935308
            ],
            [
                "\u2581holding",
                -9.88793995937042
            ],
            [
                "\u2581walked",
                -9.888054506388395
            ],
            [
                "6",
                -9.888118338473966
            ],
            [
                "\u2581Dr.",
                -9.889108765192645
            ],
            [
                "\u2581interview",
                -9.889150071683309
            ],
            [
                "\u2581Best",
                -9.889256195511148
            ],
            [
                "\u2581center",
                -9.889528249374315
            ],
            [
                "\u2581partner",
                -9.890322732715353
            ],
            [
                "j",
                -9.89059893794543
            ],
            [
                "\u2581established",
                -9.89073238474333
            ],
            [
                "\u2581train",
                -9.891001057643278
            ],
            [
                "\u2581reports",
                -9.892057682851004
            ],
            [
                "\u2581hoping",
                -9.892108176195883
            ],
            [
                "Y",
                -9.89256502444081
            ],
            [
                "\u2581do.",
                -9.892632246860703
            ],
            [
                "\u2581calling",
                -9.89282504193184
            ],
            [
                "\u2581audience",
                -9.894666151981781
            ],
            [
                "\u2581basis",
                -9.895046482447905
            ],
            [
                "\u2581all.",
                -9.895453447445652
            ],
            [
                "\u2581Al",
                -9.895798206068319
            ],
            [
                "\u2581becomes",
                -9.896131181610594
            ],
            [
                "\u2581methods",
                -9.896844915125454
            ],
            [
                "\u2581goals",
                -9.897197148009205
            ],
            [
                "\u2581ride",
                -9.898292306268829
            ],
            [
                "\u2581London",
                -9.898894632661957
            ],
            [
                "\u2581technical",
                -9.899544409127046
            ],
            [
                "be",
                -9.89965893906221
            ],
            [
                "\u2581developing",
                -9.899878797442518
            ],
            [
                "\u2581climate",
                -9.900544797743203
            ],
            [
                "\u2581journey",
                -9.900881148490512
            ],
            [
                "\u2581completed",
                -9.901802236383462
            ],
            [
                "\u2581Business",
                -9.901853078766614
            ],
            [
                "\u2581machine",
                -9.902201365928672
            ],
            [
                "\u2581starts",
                -9.902602397688373
            ],
            [
                "\u2581characters",
                -9.902812398616685
            ],
            [
                "\u2581match",
                -9.903039406690898
            ],
            [
                "\u2581missing",
                -9.903479236278688
            ],
            [
                "\u2581population",
                -9.904254578774587
            ],
            [
                "\u2581church",
                -9.906258195577848
            ],
            [
                "\u2581solutions",
                -9.906321155551424
            ],
            [
                "\u2581La",
                -9.907034599664893
            ],
            [
                "\u2581kitchen",
                -9.907562559350342
            ],
            [
                "\u2581business.",
                -9.90768600000781
            ],
            [
                "\u2581views",
                -9.908072603209023
            ],
            [
                "9",
                -9.908076240017559
            ],
            [
                "\u2581agreement",
                -9.910069660999255
            ],
            [
                "\u2581fell",
                -9.910655794996057
            ],
            [
                "\u2581race",
                -9.9107587657508
            ],
            [
                "\u2581Saturday",
                -9.912287414031084
            ],
            [
                "\u2581Right",
                -9.912889905174765
            ],
            [
                "\u2581window",
                -9.91296164929236
            ],
            [
                "\u2581Lord",
                -9.913909025667357
            ],
            [
                "\u2581gonna",
                -9.914090547677091
            ],
            [
                "\u2581reasonable",
                -9.91410040418514
            ],
            [
                "\u2581communication",
                -9.914157034972849
            ],
            [
                "\u2581returned",
                -9.914305708447754
            ],
            [
                "if",
                -9.91551638118068
            ],
            [
                "\u2581articles",
                -9.9155817949631
            ],
            [
                "er,",
                -9.916261276103848
            ],
            [
                "\u2581evening",
                -9.917353707794703
            ],
            [
                "\u2581peace",
                -9.917551157167122
            ],
            [
                "\u2581perform",
                -9.917836622540147
            ],
            [
                "\u2581Their",
                -9.917921843417089
            ],
            [
                "\u2581connection",
                -9.918115375251027
            ],
            [
                "\u2581De",
                -9.91822624027678
            ],
            [
                "\u2581too,",
                -9.919538325118124
            ],
            [
                "\u2581ran",
                -9.919824930370805
            ],
            [
                "J",
                -9.920141765130378
            ],
            [
                "\u2581Other",
                -9.920154989215742
            ],
            [
                "\u2581workers",
                -9.921186463832
            ],
            [
                "\u2581diet",
                -9.921340963898977
            ],
            [
                "\u2581alternative",
                -9.922069875376133
            ],
            [
                "\u2581eventually",
                -9.92238467917364
            ],
            [
                "\u2581factors",
                -9.92326662766563
            ],
            [
                "\u2581hurt",
                -9.923427186859891
            ],
            [
                "\u2581select",
                -9.923830219281928
            ],
            [
                "\u2581yes,",
                -9.925428294938172
            ],
            [
                "\u2581street",
                -9.925640795041641
            ],
            [
                "\u2581google",
                -9.925729388355919
            ],
            [
                "\u2581Government",
                -9.926310275530142
            ],
            [
                "\u2581\u201cYou",
                -9.926522172793295
            ],
            [
                "the",
                -9.9269990645608
            ],
            [
                "\u2581back.",
                -9.927124580401017
            ],
            [
                "\u2581Look",
                -9.927710412994674
            ],
            [
                "\u2581largest",
                -9.927763234266557
            ],
            [
                "\u2581China",
                -9.927929192651266
            ],
            [
                "\u2581rise",
                -9.928299766710847
            ],
            [
                "\u2581pieces",
                -9.9291882561428
            ],
            [
                "\u2581smaller",
                -9.929688028827176
            ],
            [
                "\u2581self",
                -9.92977472246661
            ],
            [
                "\u2581thus",
                -9.930408502598429
            ],
            [
                "per",
                -9.930661599124408
            ],
            [
                "\u2581raise",
                -9.93093023606313
            ],
            [
                "\u2581eight",
                -9.93131378467941
            ],
            [
                "\u2581nor",
                -9.931578700850917
            ],
            [
                "\u2581driver",
                -9.931630414999653
            ],
            [
                "\u2581society",
                -9.931848690035153
            ],
            [
                "\u2581showed",
                -9.933249320326585
            ],
            [
                "\u2581placed",
                -9.933565574226535
            ],
            [
                "land",
                -9.93357068531684
            ],
            [
                "\u2581Social",
                -9.934058467674404
            ],
            [
                "\u2581wall",
                -9.934787860073502
            ],
            [
                "\u2581teach",
                -9.93504918933592
            ],
            [
                "\u2581Black",
                -9.935102278821601
            ],
            [
                "\u2581none",
                -9.935911869214594
            ],
            [
                "\u2581calls",
                -9.935936835527198
            ],
            [
                "\u2581draw",
                -9.936626487414891
            ],
            [
                "\u2581prepare",
                -9.936667973947085
            ],
            [
                "\u2581_",
                -9.937732950423898
            ],
            [
                "ally",
                -9.937819871290397
            ],
            [
                "\u2581primary",
                -9.938167620113493
            ],
            [
                "\u2581missed",
                -9.938470610782364
            ],
            [
                "\u2581hand,",
                -9.938592890813158
            ],
            [
                "\u2581There's",
                -9.939095323582343
            ],
            [
                "\u2581block",
                -9.939249659387716
            ],
            [
                "\u2581readers",
                -9.940330184046596
            ],
            [
                "\u2581expensive",
                -9.94054038530394
            ],
            [
                "\u2581(1)",
                -9.940705121434874
            ],
            [
                "\u2581\"What",
                -9.94112423742458
            ],
            [
                "\u2581lines",
                -9.941741161251375
            ],
            [
                "\u2581schedule",
                -9.94183054147577
            ],
            [
                "\u2581hell",
                -9.941993436467452
            ],
            [
                "\u2581conversation",
                -9.942207365539225
            ],
            [
                "\u2581happening",
                -9.942728341811872
            ],
            [
                "\u2581then,",
                -9.942768306841561
            ],
            [
                "\u2581King",
                -9.943570898392926
            ],
            [
                "\u2581teams",
                -9.94399887133953
            ],
            [
                "\u2581High",
                -9.944078250659953
            ],
            [
                "\u2581compare",
                -9.944633100264937
            ],
            [
                "\u2581claims",
                -9.944658094087774
            ],
            [
                "\u2581hospital",
                -9.944739605006841
            ],
            [
                "\u2581slightly",
                -9.946368547605488
            ],
            [
                "\u2581spread",
                -9.946708449190908
            ],
            [
                "\u2581winter",
                -9.946844057761759
            ],
            [
                "\u2581East",
                -9.946988813728602
            ],
            [
                "\u2581coverage",
                -9.948096315558903
            ],
            [
                "\u2581leaders",
                -9.948106570198162
            ],
            [
                "\u2581die",
                -9.948263064294567
            ],
            [
                "ful",
                -9.948383869586081
            ],
            [
                "\u2581wind",
                -9.949140694364145
            ],
            [
                "\u2581remains",
                -9.949633171241446
            ],
            [
                "\u2581parties",
                -9.949662913258507
            ],
            [
                "\u2581count",
                -9.95025715049361
            ],
            [
                "\u2581exchange",
                -9.950312211211385
            ],
            [
                "@",
                -9.951393516013962
            ],
            [
                "\u2581Apple",
                -9.95176180741095
            ],
            [
                "\u2581attack",
                -9.952603176171436
            ],
            [
                "\u2581familiar",
                -9.952674141872933
            ],
            [
                "\u2581pre",
                -9.953105186195533
            ],
            [
                "\u25811,",
                -9.953738438814655
            ],
            [
                "\u2581foot",
                -9.954492621476119
            ],
            [
                "\u2581display",
                -9.955129502846162
            ],
            [
                "\u2581forced",
                -9.955293199429903
            ],
            [
                "\u2581mom",
                -9.955574459106444
            ],
            [
                "\u2581Paul",
                -9.956430352790232
            ],
            [
                "\u2581reality",
                -9.956455009884632
            ],
            [
                "\u2581tough",
                -9.95745907332697
            ],
            [
                "\u2581wondering",
                -9.957931218845495
            ],
            [
                "\u2581www.",
                -9.958649755699685
            ],
            [
                "\u2581posting",
                -9.9590543277435
            ],
            [
                "\u2581concerns",
                -9.959329250396218
            ],
            [
                "ol",
                -9.960407418147287
            ],
            [
                "\u2581path",
                -9.960589335822702
            ],
            [
                "line",
                -9.961567136393427
            ],
            [
                "\u2581worse",
                -9.96157768483879
            ],
            [
                "\u2581\"It",
                -9.961933600440828
            ],
            [
                "\u2581Monday",
                -9.962618361799116
            ],
            [
                "\u2581transfer",
                -9.962685278575591
            ],
            [
                "\u2581disease",
                -9.963285121971984
            ],
            [
                "\u2581Perhaps",
                -9.964087635443985
            ],
            [
                "\u2581emergency",
                -9.964206271157272
            ],
            [
                "\u2581considering",
                -9.964795938931228
            ],
            [
                "\u2581encourage",
                -9.965686391989752
            ],
            [
                "\u2581announced",
                -9.965715744359844
            ],
            [
                "\u2581though.",
                -9.96664795747427
            ],
            [
                "\u2581tour",
                -9.966832937595957
            ],
            [
                "\u2581checking",
                -9.96702801690932
            ],
            [
                "\u2581function",
                -9.96732102162043
            ],
            [
                "\u2581taste",
                -9.968436911185034
            ],
            [
                "\u2581teacher",
                -9.968473533033045
            ],
            [
                "\u2581pull",
                -9.968597167084681
            ],
            [
                "\u2581demand",
                -9.968685337440606
            ],
            [
                "\u2581broken",
                -9.968896639194288
            ],
            [
                ".com/",
                -9.969711284321228
            ],
            [
[...]
